{
  "version": "1.0",
  "truncation": null,
  "padding": null,
  "added_tokens": [
    {
      "id": 0,
      "content": "<s>",
      "single_word": false,
      "lstrip": false,
      "rstrip": false,
      "normalized": false,
      "special": true
    },
    {
      "id": 1,
      "content": "<pad>",
      "single_word": false,
      "lstrip": false,
      "rstrip": false,
      "normalized": false,
      "special": true
    },
    {
      "id": 2,
      "content": "</s>",
      "single_word": false,
      "lstrip": false,
      "rstrip": false,
      "normalized": false,
      "special": true
    },
    {
      "id": 3,
      "content": "<unk>",
      "single_word": false,
      "lstrip": false,
      "rstrip": false,
      "normalized": false,
      "special": true
    },
    {
      "id": 4,
      "content": "<mask>",
      "single_word": false,
      "lstrip": false,
      "rstrip": false,
      "normalized": false,
      "special": true
    }
  ],
  "normalizer": null,
  "pre_tokenizer": {
    "type": "ByteLevel",
    "add_prefix_space": true,
    "trim_offsets": true,
    "use_regex": true
  },
  "post_processor": {
    "type": "RobertaProcessing",
    "sep": [
      "</s>",
      2
    ],
    "cls": [
      "<s>",
      0
    ],
    "trim_offsets": true,
    "add_prefix_space": true
  },
  "decoder": {
    "type": "ByteLevel",
    "add_prefix_space": true,
    "trim_offsets": true,
    "use_regex": true
  },
  "model": {
    "type": "BPE",
    "dropout": null,
    "unk_token": null,
    "continuing_subword_prefix": null,
    "end_of_word_suffix": null,
    "fuse_unk": false,
    "vocab": {
      "<s>": 0,
      "<pad>": 1,
      "</s>": 2,
      "<unk>": 3,
      "<mask>": 4,
      "!": 5,
      "\"": 6,
      "#": 7,
      "$": 8,
      "%": 9,
      "&": 10,
      "'": 11,
      "(": 12,
      ")": 13,
      "*": 14,
      "+": 15,
      ",": 16,
      "-": 17,
      ".": 18,
      "/": 19,
      "0": 20,
      "1": 21,
      "2": 22,
      "3": 23,
      "4": 24,
      "5": 25,
      "6": 26,
      "7": 27,
      "8": 28,
      "9": 29,
      ":": 30,
      ";": 31,
      "<": 32,
      "=": 33,
      ">": 34,
      "?": 35,
      "@": 36,
      "A": 37,
      "B": 38,
      "C": 39,
      "D": 40,
      "E": 41,
      "F": 42,
      "G": 43,
      "H": 44,
      "I": 45,
      "J": 46,
      "K": 47,
      "L": 48,
      "M": 49,
      "N": 50,
      "O": 51,
      "P": 52,
      "Q": 53,
      "R": 54,
      "S": 55,
      "T": 56,
      "U": 57,
      "V": 58,
      "W": 59,
      "X": 60,
      "Y": 61,
      "Z": 62,
      "[": 63,
      "\\": 64,
      "]": 65,
      "^": 66,
      "_": 67,
      "`": 68,
      "a": 69,
      "b": 70,
      "c": 71,
      "d": 72,
      "e": 73,
      "f": 74,
      "g": 75,
      "h": 76,
      "i": 77,
      "j": 78,
      "k": 79,
      "l": 80,
      "m": 81,
      "n": 82,
      "o": 83,
      "p": 84,
      "q": 85,
      "r": 86,
      "s": 87,
      "t": 88,
      "u": 89,
      "v": 90,
      "w": 91,
      "x": 92,
      "y": 93,
      "z": 94,
      "{": 95,
      "|": 96,
      "}": 97,
      "~": 98,
      "¡": 99,
      "¢": 100,
      "£": 101,
      "¤": 102,
      "¥": 103,
      "¦": 104,
      "§": 105,
      "¨": 106,
      "©": 107,
      "ª": 108,
      "«": 109,
      "¬": 110,
      "®": 111,
      "¯": 112,
      "°": 113,
      "±": 114,
      "²": 115,
      "³": 116,
      "´": 117,
      "µ": 118,
      "¶": 119,
      "·": 120,
      "¸": 121,
      "¹": 122,
      "º": 123,
      "»": 124,
      "¼": 125,
      "½": 126,
      "¾": 127,
      "¿": 128,
      "À": 129,
      "Á": 130,
      "Â": 131,
      "Ã": 132,
      "Ä": 133,
      "Å": 134,
      "Æ": 135,
      "Ç": 136,
      "È": 137,
      "É": 138,
      "Ê": 139,
      "Ë": 140,
      "Ì": 141,
      "Í": 142,
      "Î": 143,
      "Ï": 144,
      "Ð": 145,
      "Ñ": 146,
      "Ò": 147,
      "Ó": 148,
      "Ô": 149,
      "Õ": 150,
      "Ö": 151,
      "×": 152,
      "Ø": 153,
      "Ù": 154,
      "Ú": 155,
      "Û": 156,
      "Ü": 157,
      "Ý": 158,
      "Þ": 159,
      "ß": 160,
      "à": 161,
      "á": 162,
      "â": 163,
      "ã": 164,
      "ä": 165,
      "å": 166,
      "æ": 167,
      "ç": 168,
      "è": 169,
      "é": 170,
      "ê": 171,
      "ë": 172,
      "ì": 173,
      "í": 174,
      "î": 175,
      "ï": 176,
      "ð": 177,
      "ñ": 178,
      "ò": 179,
      "ó": 180,
      "ô": 181,
      "õ": 182,
      "ö": 183,
      "÷": 184,
      "ø": 185,
      "ù": 186,
      "ú": 187,
      "û": 188,
      "ü": 189,
      "ý": 190,
      "þ": 191,
      "ÿ": 192,
      "Ā": 193,
      "ā": 194,
      "Ă": 195,
      "ă": 196,
      "Ą": 197,
      "ą": 198,
      "Ć": 199,
      "ć": 200,
      "Ĉ": 201,
      "ĉ": 202,
      "Ċ": 203,
      "ċ": 204,
      "Č": 205,
      "č": 206,
      "Ď": 207,
      "ď": 208,
      "Đ": 209,
      "đ": 210,
      "Ē": 211,
      "ē": 212,
      "Ĕ": 213,
      "ĕ": 214,
      "Ė": 215,
      "ė": 216,
      "Ę": 217,
      "ę": 218,
      "Ě": 219,
      "ě": 220,
      "Ĝ": 221,
      "ĝ": 222,
      "Ğ": 223,
      "ğ": 224,
      "Ġ": 225,
      "ġ": 226,
      "Ģ": 227,
      "ģ": 228,
      "Ĥ": 229,
      "ĥ": 230,
      "Ħ": 231,
      "ħ": 232,
      "Ĩ": 233,
      "ĩ": 234,
      "Ī": 235,
      "ī": 236,
      "Ĭ": 237,
      "ĭ": 238,
      "Į": 239,
      "į": 240,
      "İ": 241,
      "ı": 242,
      "Ĳ": 243,
      "ĳ": 244,
      "Ĵ": 245,
      "ĵ": 246,
      "Ķ": 247,
      "ķ": 248,
      "ĸ": 249,
      "Ĺ": 250,
      "ĺ": 251,
      "Ļ": 252,
      "ļ": 253,
      "Ľ": 254,
      "ľ": 255,
      "Ŀ": 256,
      "ŀ": 257,
      "Ł": 258,
      "ł": 259,
      "Ń": 260,
      "ng": 261,
      "sa": 262,
      "Ġsa": 263,
      "Ġm": 264,
      "an": 265,
      "nga": 266,
      "ag": 267,
      "Ġk": 268,
      "Ġnga": 269,
      "ang": 270,
      "Ġp": 271,
      "ga": 272,
      "in": 273,
      "on": 274,
      "al": 275,
      "Ġu": 276,
      "Ġka": 277,
      "Ġmga": 278,
      "Ġn": 279,
      "at": 280,
      "Ġang": 281,
      "Ġpag": 282,
      "it": 283,
      "as": 284,
      "ay": 285,
      "im": 286,
      "ah": 287,
      "il": 288,
      "ad": 289,
      "Ġd": 290,
      "Ġt": 291,
      "ak": 292,
      "ong": 293,
      "er": 294,
      "Ġug": 295,
      "ĠA": 296,
      "ar": 297,
      "is": 298,
      "Ġs": 299,
      "Ġb": 300,
      "Ġg": 301,
      "ab": 302,
      "un": 303,
      "am": 304,
      "Ġl": 305,
      "or": 306,
      "ik": 307,
      "Ġusa": 308,
      "ul": 309,
      "aw": 310,
      "es": 311,
      "ing": 312,
      "to": 313,
      "ĠS": 314,
      "ĠP": 315,
      "ap": 316,
      "en": 317,
      "66": 318,
      "ĠM": 319,
      "od": 320,
      "os": 321,
      "ip": 322,
      "ĠAng": 323,
      "ini": 324,
      "ib": 325,
      "ig": 326,
      "yon": 327,
      "ĠK": 328,
      "re": 329,
      "yo": 330,
      "imo": 331,
      "id": 332,
      "Ġnag": 333,
      "ya": 334,
      "ut": 335,
      "ro": 336,
      "Ġh": 337,
      "us": 338,
      "33": 339,
      "um": 340,
      "ĠC": 341,
      "Ġ(": 342,
      "imong": 343,
      "ung": 344,
      "ug": 345,
      "Ġma": 346,
      "Ġo": 347,
      "âĢ": 348,
      "ĠB": 349,
      "ili": 350,
      "ĠD": 351,
      "ot": 352,
      "om": 353,
      "ol": 354,
      "uh": 355,
      "el": 356,
      "Ġmak": 357,
      "ala": 358,
      "ĠT": 359,
      "ub": 360,
      "Ġad": 361,
      "et": 362,
      "Ġal": 363,
      "ĠG": 364,
      "ih": 365,
      "Ġ1": 366,
      "lan": 367,
      "Ġimong": 368,
      "ma": 369,
      "Ġkini": 370,
      "das": 371,
      "Ġmah": 372,
      "6666": 373,
      "ĠI": 374,
      "unay": 375,
      "dasdas": 376,
      "uk": 377,
      "Ġkan": 378,
      "Ġw": 379,
      "ĠN": 380,
      "Ġc": 381,
      "ic": 382,
      "Ġni": 383,
      "ĠU": 384,
      "gam": 385,
      "Ġmag": 386,
      "Ġpagp": 387,
      "Ġalang": 388,
      "anan": 389,
      "Ġ2": 390,
      "ĠE": 391,
      "ĠL": 392,
      "iya": 393,
      "Â°": 394,
      "ur": 395,
      "ita": 396,
      "ayo": 397,
      "Ġkin": 398,
      "Ġpa": 399,
      "Ġar": 400,
      "Ġ-": 401,
      "»¿": 402,
      "ï»¿": 403,
      "ek": 404,
      "Ġdili": 405,
      "Ġadunay": 406,
      "ĠH": 407,
      "ila": 408,
      "Ġgik": 409,
      "san": 410,
      "ĠPag": 411,
      "3333": 412,
      "ent": 413,
      "ud": 414,
      "Ġpagk": 415,
      "le": 416,
      "Ġmao": 417,
      "ed": 418,
      "ok": 419,
      "ac": 420,
      "Ġi": 421,
      "ina": 422,
      "ĠR": 423,
      "gamit": 424,
      "og": 425,
      "anglan": 426,
      "Ġun": 427,
      "ist": 428,
      "00": 429,
      "agi": 430,
      "agh": 431,
      "Ġub": 432,
      "Ġaron": 433,
      "uha": 434,
      "Ġpr": 435,
      "atag": 436,
      "ian": 437,
      "ahanglan": 438,
      "st": 439,
      "ĠSa": 440,
      "lo": 441,
      "Ġpan": 442,
      "Ġf": 443,
      "ĠF": 444,
      "ion": 445,
      "asa": 446,
      "Ġin": 447,
      "Ġlab": 448,
      "Ġpagt": 449,
      "op": 450,
      "Ġkal": 451,
      "em": 452,
      "isip": 453,
      "up": 454,
      "asyon": 455,
      "Ġ/": 456,
      "ĠMga": 457,
      "ĠW": 458,
      "Ġre": 459,
      "isan": 460,
      "ingon": 461,
      "ort": 462,
      "ep": 463,
      "Ġgikan": 464,
      "dasdasdasdas": 465,
      "Ġap": 466,
      "Ġkung": 467,
      "Ġniini": 468,
      "ter": 469,
      "eb": 470,
      "ia": 471,
      "uga": 472,
      "la": 473,
      "Ġkam": 474,
      "ch": 475,
      "Ġna": 476,
      "Ġak": 477,
      "ana": 478,
      "unisip": 479,
      "unisipyo": 480,
      "ahin": 481,
      "oh": 482,
      "tr": 483,
      "Ġog": 484,
      "Ġuban": 485,
      "ado": 486,
      "Ġ3": 487,
      "Ġunsa": 488,
      "ĠO": 489,
      "Ġkat": 490,
      "Ġpagb": 491,
      "usa": 492,
      "Ġga": 493,
      "Ġpro": 494,
      "Ġr": 495,
      "Ġkon": 496,
      "Ġgi": 497,
      "Ġwala": 498,
      "and": 499,
      "Ġnimo": 500,
      "âĢ²": 501,
      "eh": 502,
      "âĢ³": 503,
      "66666666": 504,
      "Ġmahimo": 505,
      "utang": 506,
      "ir": 507,
      "ant": 508,
      "Ġbisan": 509,
      "ĠUn": 510,
      "Ġil": 511,
      "Ġde": 512,
      "Ġgip": 513,
      "ungod": 514,
      "idad": 515,
      "alay": 516,
      "ula": 517,
      "33333333": 518,
      "amb": 519,
      "Ġmas": 520,
      "Ġnak": 521,
      "usto": 522,
      "ali": 523,
      "yang": 524,
      "Ġkinahanglan": 525,
      "Ġdagh": 526,
      "ite": 527,
      "Ġtanan": 528,
      "Ġpang": 529,
      "Ġpagh": 530,
      "Ġam": 531,
      "Ġ4": 532,
      "Ġusab": 533,
      "hi": 534,
      "Ġkom": 535,
      "ob": 536,
      "syon": 537,
      "eg": 538,
      "Ġmat": 539,
      "Ġkay": 540,
      "Ġmahimong": 541,
      "isyon": 542,
      "Ġkasa": 543,
      "Ġlabing": 544,
      "iy": 545,
      "awo": 546,
      "Ġnagp": 547,
      "..": 548,
      "inaagi": 549,
      "Ġpags": 550,
      "Ġbahin": 551,
      "Ġsul": 552,
      "apit": 553,
      "ugang": 554,
      "ĠIn": 555,
      "ta": 556,
      "ibal": 557,
      "ãģ": 558,
      "ĠV": 559,
      "pan": 560,
      "Ġilang": 561,
      "ayon": 562,
      "ahan": 563,
      "orm": 564,
      "ino": 565,
      "Ġpinaagi": 566,
      "Ġtawo": 567,
      "ĠKini": 568,
      "dan": 569,
      "Ġapan": 570,
      "iga": 571,
      "ama": 572,
      "Ġdi": 573,
      "Ġmaayo": 574,
      "Ġkah": 575,
      "Ġnah": 576,
      "dto": 577,
      "ulo": 578,
      "ess": 579,
      "Ġamong": 580,
      "ine": 581,
      "munisipyo": 582,
      "ran": 583,
      "Ġgit": 584,
      "Ġ20": 585,
      "ĠJ": 586,
      "Ġpagd": 587,
      "Ġsam": 588,
      "iv": 589,
      "utan": 590,
      "una": 591,
      "Ġiyang": 592,
      "Ġ--": 593,
      "Ġngadto": 594,
      "tang": 595,
      "oduk": 596,
      "yal": 597,
      "Ġgih": 598,
      "ec": 599,
      "ens": 600,
      "Ġbag": 601,
      "Ġsum": 602,
      "ain": 603,
      "ers": 604,
      "ow": 605,
      "imp": 606,
      "Ġnam": 607,
      "Ġat": 608,
      "ate": 609,
      "ahon": 610,
      "Ġdaghang": 611,
      "ind": 612,
      "ex": 613,
      "Ġkaayo": 614,
      "),": 615,
      "Ġingon": 616,
      "uman": 617,
      "ĠâĢ": 618,
      "Ġkap": 619,
      "Ġpos": 620,
      "unt": 621,
      "ĠEst": 622,
      "Ġik": 623,
      "Ġor": 624,
      "uw": 625,
      "Ġsama": 626,
      "ile": 627,
      "Ġ5": 628,
      "aas": 629,
      "Ġ\"": 630,
      "he": 631,
      "uhat": 632,
      "Ġpar": 633,
      "est": 634,
      "Ġkanimo": 635,
      "Ġv": 636,
      "Ġproduk": 637,
      "han": 638,
      "Ġmo": 639,
      "inu": 640,
      "ema": 641,
      "lar": 642,
      "ato": 643,
      "ron": 644,
      "da": 645,
      "inahanglan": 646,
      "ahimo": 647,
      "ish": 648,
      "law": 649,
      "ĠAl": 650,
      "Ġnagh": 651,
      "erb": 652,
      "dasdasdasdasdasdasdasdas": 653,
      "Ġpanahon": 654,
      "Ġnagt": 655,
      "ation": 656,
      "ako": 657,
      "Ġtr": 658,
      "ult": 659,
      "abang": 660,
      "Ġhin": 661,
      "uba": 662,
      "Ġkas": 663,
      "ĠCh": 664,
      "ont": 665,
      "lik": 666,
      "Ġsila": 667,
      "Ġdih": 668,
      "ra": 669,
      "sp": 670,
      "Ġmap": 671,
      "Ġï»¿": 672,
      "ide": 673,
      "Ġbutang": 674,
      "Ġprodukto": 675,
      "pay": 676,
      "Ġkami": 677,
      "laro": 678,
      "Ġgusto": 679,
      "Ġpip": 680,
      "ard": 681,
      "ano": 682,
      "akita": 683,
      "und": 684,
      "Ġtu": 685,
      "6666666666666666": 686,
      "Ġgam": 687,
      "ungdan": 688,
      "Ġwalay": 689,
      "))": 690,
      "Ġpagka": 691,
      "li": 692,
      "ugal": 693,
      "Ġakong": 694,
      "ĠDi": 695,
      "Ġtungod": 696,
      "3333333333333333": 697,
      "22": 698,
      "Ġmatag": 699,
      "ata": 700,
      "Ġa": 701,
      "Ġib": 702,
      "Ġtan": 703,
      "Ġpipila": 704,
      "Ġtig": 705,
      "ĠCo": 706,
      "aho": 707,
      "io": 708,
      "Ġsumpay": 709,
      "Ġtaas": 710,
      "Ġlam": 711,
      "iko": 712,
      "uhi": 713,
      "tong": 714,
      "isyo": 715,
      "ibo": 716,
      "Ġgid": 717,
      "ente": 718,
      "Ġkad": 719,
      "Ġpal": 720,
      "Ġgamit": 721,
      "Ġy": 722,
      "ambal": 723,
      "amit": 724,
      "Ġatong": 725,
      "ĠUnsa": 726,
      "apital": 727,
      "Ġgib": 728,
      "Ġsamang": 729,
      "Ġ10": 730,
      "ew": 731,
      "Ġman": 732,
      "ĠKung": 733,
      "Ġlat": 734,
      "Ġpas": 735,
      "Ġpaagi": 736,
      "Ġlong": 737,
      "ikal": 738,
      "Ġweb": 739,
      "unod": 740,
      "las": 741,
      "Ġadlaw": 742,
      "ento": 743,
      "Ġpaggamit": 744,
      "kapital": 745,
      "Ġdiha": 746,
      "ĠAd": 747,
      "akip": 748,
      "Ġlain": 749,
      "say": 750,
      "Ġhinungdan": 751,
      "Ġsulod": 752,
      "à¤": 753,
      "amat": 754,
      "10": 755,
      "ĠDios": 756,
      "hab": 757,
      "Ġ7": 758,
      "bo": 759,
      "Ġposisyon": 760,
      "ĠMa": 761,
      "Ġ8": 762,
      "Ġkaugal": 763,
      "Ġlang": 764,
      "Ġpaghimo": 765,
      "gr": 766,
      "suba": 767,
      "co": 768,
      "ck": 769,
      "Ġ6": 770,
      "...": 771,
      "Ġunsang": 772,
      "abay": 773,
      "ayag": 774,
      "ff": 775,
      "abuhi": 776,
      "ce": 777,
      "tern": 778,
      "Ġdula": 779,
      "ver": 780,
      "ĠAn": 781,
      "end": 782,
      "ãĥ": 783,
      "Ġ9": 784,
      "Ġpin": 785,
      "adayon": 786,
      "¯æ": 787,
      "Ġip": 788,
      "Ġmunisipyo": 789,
      "åı": 790,
      "ãģĦ": 791,
      "uro": 792,
      "ĥķ": 793,
      "ĦĽ": 794,
      "ãģ¯": 795,
      "åı¯æ": 796,
      "åĥķ": 797,
      "ĦĽãģĦ": 798,
      "ãģ¯åı¯æ": 799,
      "åĥķãģ¯åı¯æ": 800,
      "åĥķãģ¯åı¯æĦĽãģĦ": 801,
      "Ġan": 802,
      "Ġrehab": 803,
      "Ġtub": 804,
      "åĥķãģ¯åı¯æĦĽãģĦåĥķãģ¯åı¯æĦĽãģĦ": 805,
      "Ġhang": 806,
      "ese": 807,
      "ĠDuha": 808,
      "ugod": 809,
      "Ġoras": 810,
      "Ġimp": 811,
      "abaho": 812,
      "ura": 813,
      "Ġako": 814,
      "laing": 815,
      "ero": 816,
      "ãĥĿ": 817,
      "Ġop": 818,
      "ãĥĿãĥĿ": 819,
      "hon": 820,
      "Ġsi": 821,
      "Ġtop": 822,
      "are": 823,
      "ive": 824,
      "Ġpres": 825,
      "Ð°": 826,
      "Ġes": 827,
      "ungs": 828,
      "Ġgiklaro": 829,
      "alit": 830,
      "Ġikaw": 831,
      "Ġgigamit": 832,
      "igayon": 833,
      "tion": 834,
      "20": 835,
      "ĠY": 836,
      "ack": 837,
      "ha": 838,
      "erbisyo": 839,
      "erm": 840,
      "ados": 841,
      "ati": 842,
      "Ġmal": 843,
      "angita": 844,
      "Ġkaron": 845,
      "Ġlamang": 846,
      "idos": 847,
      "âĢĻ": 848,
      "uyo": 849,
      "amp": 850,
      "ungsod": 851,
      "ĠUnidos": 852,
      "art": 853,
      "ka": 854,
      "Ġind": 855,
      "Ġba": 856,
      "Ġnagl": 857,
      "Ġsiya": 858,
      "Ġdugang": 859,
      "Ġkaugalingon": 860,
      "abaw": 861,
      "tor": 862,
      "Ġtuig": 863,
      "so": 864,
      "eso": 865,
      "ĠEstados": 866,
      "Ġnags": 867,
      "site": 868,
      "ika": 869,
      "ĠAr": 870,
      "ugot": 871,
      "Ġpagm": 872,
      "abo": 873,
      "ekto": 874,
      "inyo": 875,
      "Ġkab": 876,
      "was": 877,
      "ĠPro": 878,
      "omp": 879,
      "Ġ0": 880,
      "yag": 881,
      "Ġdiin": 882,
      "te": 883,
      "tik": 884,
      "ord": 885,
      "ans": 886,
      "ante": 887,
      "ulong": 888,
      "Ġkita": 889,
      "Ġkalib": 890,
      "ft": 891,
      "Ġmagp": 892,
      "Ġmakap": 893,
      "Ġres": 894,
      "Ġpagl": 895,
      "pes": 896,
      "Ġgr": 897,
      "Ġnas": 898,
      "igh": 899,
      "Ġpl": 900,
      "awat": 901,
      "Ġlabi": 902,
      "etal": 903,
      "ibu": 904,
      "oho": 905,
      "Ðº": 906,
      "ideo": 907,
      "form": 908,
      "alag": 909,
      "tod": 910,
      "yoh": 911,
      "line": 912,
      "kit": 913,
      "Ġio": 914,
      "yohoho": 915,
      "Ġtopyohoho": 916,
      "Ang": 917,
      "oseso": 918,
      "ork": 919,
      "ly": 920,
      "akig": 921,
      "ining": 922,
      "ba": 923,
      "ton": 924,
      "ulay": 925,
      "ĠUsa": 926,
      "ris": 927,
      "Ġtinu": 928,
      "Ġac": 929,
      "Ġserbisyo": 930,
      "Ġdin": 931,
      "unah": 932,
      "Ġmakita": 933,
      "uto": 934,
      "int": 935,
      "ihok": 936,
      "awas": 937,
      "ada": 938,
      "ahi": 939,
      "unahuna": 940,
      "ko": 941,
      "Ġmod": 942,
      "Ġwebsite": 943,
      "email": 944,
      "Ġis": 945,
      "port": 946,
      "ĠPagp": 947,
      "awag": 948,
      "11": 949,
      "Ġ.": 950,
      "Ġco": 951,
      "666666": 952,
      "qu": 953,
      "res": 954,
      "pit": 955,
      "ingk": 956,
      "Ġkinabuhi": 957,
      "ukod": 958,
      "anon": 959,
      "ĠKon": 960,
      "awa": 961,
      "abil": 962,
      "Ġlib": 963,
      "Ġsite": 964,
      "Ġgamay": 965,
      "hin": 966,
      "Ġemail": 967,
      "Ġmi": 968,
      "Ġko": 969,
      "way": 970,
      "Ġkamo": 971,
      "ye": 972,
      "ĠReh": 973,
      "istr": 974,
      "Ġnat": 975,
      "ista": 976,
      "áĥ": 977,
      "ani": 978,
      "ĠÐ": 979,
      "Ġbul": 980,
      "Ġon": 981,
      "ugn": 982,
      "Ġkanila": 983,
      "Ġubos": 984,
      "ngay": 985,
      "ulat": 986,
      "panya": 987,
      "Ġduha": 988,
      "mer": 989,
      "umala": 990,
      "uwas": 991,
      "vi": 992,
      "Ġmahit": 993,
      "Ġfile": 994,
      "Ġibabaw": 995,
      "isg": 996,
      "Ġà": 997,
      "Ñģ": 998,
      "ĠRehab": 999,
      "Ġnagk": 1000,
      "adala": 1001,
      "abot": 1002,
      "Ġ[": 1003,
      "Ġdis": 1004,
      "orma": 1005,
      "ĠInd": 1006,
      "Ġus": 1007,
      "utana": 1008,
      "Ġep": 1009,
      "ibalo": 1010,
      "usab": 1011,
      "Ġdinhi": 1012,
      "Ġpagtambal": 1013,
      "Ġkanunay": 1014,
      "ustr": 1015,
      "Ġmagamit": 1016,
      "Ġvideo": 1017,
      "Ġbal": 1018,
      "ekt": 1019,
      "Ġmakat": 1020,
      "ĠX": 1021,
      "Ġmed": 1022,
      "Ġso": 1023,
      "aka": 1024,
      "Ġprogr": 1025,
      "istema": 1026,
      "ĠIm": 1027,
      "ĠTr": 1028,
      "ĠGi": 1029,
      "ilian": 1030,
      "Ġkasaga": 1031,
      "abaye": 1032,
      "inat": 1033,
      "Ġgis": 1034,
      "ulti": 1035,
      "Ġtibu": 1036,
      "bot": 1037,
      "Ġbat": 1038,
      "ĠUg": 1039,
      "uport": 1040,
      "land": 1041,
      "oy": 1042,
      "Ġdako": 1043,
      "imb": 1044,
      "19": 1045,
      "ĠBisan": 1046,
      "Ġkatap": 1047,
      "Ġdapit": 1048,
      "rek": 1049,
      "Ġgawas": 1050,
      "Ġdaghan": 1051,
      "Ġkapilian": 1052,
      "unsa": 1053,
      "ĠâĢľ": 1054,
      "ost": 1055,
      "Ġpresyo": 1056,
      "ayong": 1057,
      "Ġpam": 1058,
      "ĠNag": 1059,
      "uran": 1060,
      "Ġkalibutan": 1061,
      "Ġnamon": 1062,
      "ohol": 1063,
      "Ġnimong": 1064,
      "amo": 1065,
      "inga": 1066,
      "mo": 1067,
      "16": 1068,
      "adto": 1069,
      "sk": 1070,
      "Ġmob": 1071,
      "Ġkasay": 1072,
      "iman": 1073,
      "ĠAp": 1074,
      "ĠPagk": 1075,
      "egos": 1076,
      "her": 1077,
      "lungsod": 1078,
      "ble": 1079,
      "dos": 1080,
      "Ġkalidad": 1081,
      "Ġsal": 1082,
      "Ġgamiton": 1083,
      "ĠPan": 1084,
      "Ġsistema": 1085,
      "]]": 1086,
      "ĠNga": 1087,
      "Ġubang": 1088,
      "pas": 1089,
      "ho": 1090,
      "unty": 1091,
      "}}": 1092,
      "ies": 1093,
      "{{": 1094,
      "anyag": 1095,
      "66666666666666666666666666666666": 1096,
      "emb": 1097,
      "ĠCounty": 1098,
      "ahe": 1099,
      "ĠMahimo": 1100,
      "eryal": 1101,
      "rol": 1102,
      "Ġdat": 1103,
      "abdos": 1104,
      "Ġmakahimo": 1105,
      "lay": 1106,
      "usan": 1107,
      "Ġbabaye": 1108,
      "ingpit": 1109,
      "Ġprograma": 1110,
      "lig": 1111,
      "anaa": 1112,
      "dasdasdasdasdasdasdasdasdasdasdasdasdasdasdasdas": 1113,
      "pe": 1114,
      "emp": 1115,
      "áĢ": 1116,
      "''": 1117,
      "Ġ=": 1118,
      "tikulo": 1119,
      "Ġmil": 1120,
      "ast": 1121,
      "Ġdali": 1122,
      "Ġof": 1123,
      "ayad": 1124,
      "Ġsulud": 1125,
      "angl": 1126,
      "Ġgil": 1127,
      "Ġkadagh": 1128,
      "Ġhigayon": 1129,
      "ĠPagb": 1130,
      "angk": 1131,
      "asino": 1132,
      "les": 1133,
      "33333333333333333333333333333333": 1134,
      "sto": 1135,
      "eksyon": 1136,
      "Ġnaghatag": 1137,
      "Ġ2022": 1138,
      "ĠPr": 1139,
      "risto": 1140,
      "itan": 1141,
      "esus": 1142,
      "igya": 1143,
      "Ġek": 1144,
      ".-": 1145,
      "wag": 1146,
      "Ġtek": 1147,
      "ĠDili": 1148,
      "ware": 1149,
      "abag": 1150,
      "Ġhangtod": 1151,
      "ase": 1152,
      "Ġproseso": 1153,
      "Ġpagsa": 1154,
      "uban": 1155,
      "000": 1156,
      ").": 1157,
      "iz": 1158,
      "Ġmol": 1159,
      "Ġmateryal": 1160,
      "Ġtag": 1161,
      "ĠAdunay": 1162,
      "ĠZ": 1163,
      "âĢĿ": 1164,
      "Ġmad": 1165,
      "ity": 1166,
      "ĠMar": 1167,
      "Ġas": 1168,
      "tox": 1169,
      "ugma": 1170,
      "ibot": 1171,
      "ey": 1172,
      "Ġtubig": 1173,
      "cre": 1174,
      "21": 1175,
      "Ġanaa": 1176,
      "all": 1177,
      "orn": 1178,
      "ubo": 1179,
      "Ġbuhat": 1180,
      ".-.-": 1181,
      "ito": 1182,
      "Ġmay": 1183,
      "Ġsin": 1184,
      "Ġch": 1185,
      "Ġnagd": 1186,
      "ras": 1187,
      "indow": 1188,
      "Ġ19": 1189,
      "com": 1190,
      "Ġmagh": 1191,
      "dr": 1192,
      "ĠKan": 1193,
      "Ġkomp": 1194,
      "ĠEstado": 1195,
      "kohol": 1196,
      "Ġpun": 1197,
      "ible": 1198,
      "amaagi": 1199,
      "Ġgihimo": 1200,
      "uporta": 1201,
      "Ġab": 1202,
      "ĠAlang": 1203,
      "ree": 1204,
      "Ġonline": 1205,
      "ĠApan": 1206,
      "ice": 1207,
      "Ġmagd": 1208,
      "ima": 1209,
      "ĠEsp": 1210,
      "Ġapp": 1211,
      "15": 1212,
      "AN": 1213,
      "ayan": 1214,
      "Ġst": 1215,
      "own": 1216,
      "Ġpagmabdos": 1217,
      "adik": 1218,
      "Ġ...": 1219,
      "Ġlainlaing": 1220,
      "18": 1221,
      "ial": 1222,
      "Ġuna": 1223,
      "ihan": 1224,
      "Ġhingpit": 1225,
      "wal": 1226,
      "Ġsamtang": 1227,
      "if": 1228,
      "ĠÂ": 1229,
      "Ġnegos": 1230,
      "cess": 1231,
      "Ġbug": 1232,
      "Ġmaka": 1233,
      "Ġlin": 1234,
      "do": 1235,
      "Ġmos": 1236,
      "work": 1237,
      "ban": 1238,
      "Ġkasagaran": 1239,
      "17": 1240,
      "Ġdatos": 1241,
      "ry": 1242,
      "ĠHesus": 1243,
      "Ġlibre": 1244,
      "ĠSi": 1245,
      "ure": 1246,
      "ara": 1247,
      "Ġkinsa": 1248,
      "ehiko": 1249,
      "Ġalkohol": 1250,
      "ĠMag": 1251,
      "ref": 1252,
      "ment": 1253,
      "Ġkahim": 1254,
      "ator": 1255,
      "Ġtinuod": 1256,
      "uo": 1257,
      "Ġkang": 1258,
      "ĠMehiko": 1259,
      "age": 1260,
      "Ġpamaagi": 1261,
      "Ġest": 1262,
      "tom": 1263,
      "Ġ12": 1264,
      "load": 1265,
      "13": 1266,
      "Ġgikinahanglan": 1267,
      "etalye": 1268,
      "Ġdep": 1269,
      "etwork": 1270,
      "aron": 1271,
      "ular": 1272,
      "count": 1273,
      "abut": 1274,
      "ight": 1275,
      "uter": 1276,
      "Ġluga": 1277,
      "ensya": 1278,
      "av": 1279,
      "indows": 1280,
      "Ġmen": 1281,
      "Ġtin": 1282,
      "Ġser": 1283,
      "Ġkl": 1284,
      "ons": 1285,
      "able": 1286,
      "Ġe": 1287,
      "Ġkompanya": 1288,
      "ram": 1289,
      "ical": 1290,
      "Ġig": 1291,
      "ahibalo": 1292,
      "ormasyon": 1293,
      "format": 1294,
      "ĠSan": 1295,
      "alik": 1296,
      "Ð¸": 1297,
      "adtong": 1298,
      "Ġtanang": 1299,
      "Ġkol": 1300,
      "ÑĢ": 1301,
      "ern": 1302,
      "taw": 1303,
      "50": 1304,
      "Ġmatang": 1305,
      "Ġlugar": 1306,
      "yong": 1307,
      "Ġngalan": 1308,
      "uswag": 1309,
      "Ġdag": 1310,
      "imutang": 1311,
      "Ġaw": 1312,
      "alain": 1313,
      "Ġlabaw": 1314,
      "ĠAm": 1315,
      "era": 1316,
      "Ġel": 1317,
      "Ãĸ": 1318,
      "Ġtali": 1319,
      "Ġniining": 1320,
      "Ġkaniya": 1321,
      "Ġra": 1322,
      "Ġ|": 1323,
      "ĠKristo": 1324,
      "åĥķãģ¯åı¯æĦĽãģĦåĥķãģ¯åı¯æĦĽãģĦåĥķãģ¯åı¯æĦĽãģĦåĥķãģ¯åı¯æĦĽãģĦ": 1325,
      "Ġcomp": 1326,
      "ĠiP": 1327,
      "abilin": 1328,
      "Ġpalibot": 1329,
      "Ġmaong": 1330,
      "ĠWindows": 1331,
      "Ġ{{": 1332,
      "der": 1333,
      "usyon": 1334,
      "12": 1335,
      "Ġmags": 1336,
      "enyo": 1337,
      "ahuman": 1338,
      "Ġmot": 1339,
      "14": 1340,
      "wit": 1341,
      "alagsa": 1342,
      "ore": 1343,
      "Ġ18": 1344,
      "ire": 1345,
      "hone": 1346,
      "num": 1347,
      "udlo": 1348,
      "ãĥĿãĥĿãĥĿãĥĿ": 1349,
      "irit": 1350,
      "ĠCre": 1351,
      "ĠSt": 1352,
      "Ġartikulo": 1353,
      "Ġkina": 1354,
      "Ġla": 1355,
      "ulag": 1356,
      "Ġindustr": 1357,
      "Ġgitawag": 1358,
      "yente": 1359,
      "Ġ,": 1360,
      "Ġbro": 1361,
      "Ġmahitungod": 1362,
      "Ġmaayong": 1363,
      "tal": 1364,
      "formatnum": 1365,
      "Ġnaghimo": 1366,
      "Ġhil": 1367,
      "Ġinter": 1368,
      "Ø±": 1369,
      "inatian": 1370,
      "uta": 1371,
      "Ġmagt": 1372,
      "ibuk": 1373,
      "Ġpareh": 1374,
      "30": 1375,
      "Ġnila": 1376,
      "uc": 1377,
      "anglantaw": 1378,
      "ear": 1379,
      "ou": 1380,
      "ÑģÐº": 1381,
      "Ġkasayuran": 1382,
      "Ġbalay": 1383,
      "Ġname": 1384,
      "Ġbulan": 1385,
      "ĠDugang": 1386,
      "Ġdetox": 1387,
      "aya": 1388,
      "28": 1389,
      "Ġaccount": 1390,
      "Ġnasud": 1391,
      "inst": 1392,
      "apon": 1393,
      "Ġ[[": 1394,
      "Ġâ": 1395,
      "Ġdr": 1396,
      "ulod": 1397,
      "ternet": 1398,
      "aha": 1399,
      "Ġ24": 1400,
      "Ġtekn": 1401,
      "ĠMac": 1402,
      "Ġro": 1403,
      "ium": 1404,
      "Ġkag": 1405,
      "akang": 1406,
      "Ġkar": 1407,
      "Ġpinak": 1408,
      "Ġmakatabang": 1409,
      "Ġpagpili": 1410,
      "iguro": 1411,
      "Ġkadaghanan": 1412,
      "Ġkus": 1413,
      "ros": 1414,
      "alip": 1415,
      "Ġkasinatian": 1416,
      "erk": 1417,
      "blema": 1418,
      "ge": 1419,
      "ipig": 1420,
      "Ġkatapusan": 1421,
      "act": 1422,
      "Ġmakad": 1423,
      "tan": 1424,
      "ell": 1425,
      "Ġtalagsa": 1426,
      "cc": 1427,
      "angan": 1428,
      "usi": 1429,
      "Ġangay": 1430,
      "Ġpagkuha": 1431,
      "Ġnagb": 1432,
      "Ġup": 1433,
      "ĠSh": 1434,
      "oloh": 1435,
      "Ġgihatag": 1436,
      "45": 1437,
      "ef": 1438,
      "ĠSo": 1439,
      "ĠLab": 1440,
      "ikan": 1441,
      "Ġkaso": 1442,
      "yonal": 1443,
      "Ġlal": 1444,
      "à´": 1445,
      "aligya": 1446,
      "ega": 1447,
      "\"/": 1448,
      "Ġmab": 1449,
      "\"/>": 1450,
      "iyahe": 1451,
      "creen": 1452,
      "Ġindustriya": 1453,
      "25": 1454,
      "Ġkont": 1455,
      "Ġpagkaon": 1456,
      "go": 1457,
      "ĠSiya": 1458,
      "Ġpangutana": 1459,
      "ftware": 1460,
      "Ġand": 1461,
      "Ġsuk": 1462,
      "ev": 1463,
      "Ġpagkaadik": 1464,
      "âĢĭ": 1465,
      "Ġit": 1466,
      "Ġ$": 1467,
      "44": 1468,
      "Ġproblema": 1469,
      "Ġkinat": 1470,
      "ismo": 1471,
      "ĠWala": 1472,
      "Ġpagpangita": 1473,
      "ill": 1474,
      "ugo": 1475,
      "yud": 1476,
      "NG": 1477,
      "ign": 1478,
      "Ġespes": 1479,
      "ugay": 1480,
      "anglitan": 1481,
      "Ġ17": 1482,
      "Ġlawas": 1483,
      "ect": 1484,
      "ĠIs": 1485,
      "Ġkana": 1486,
      "Ġmahibal": 1487,
      "ukid": 1488,
      "ĠSA": 1489,
      "Ġkamat": 1490,
      "ĠMah": 1491,
      "Ġ16": 1492,
      "Ġpagpa": 1493,
      "ĠGip": 1494,
      "etro": 1495,
      "erat": 1496,
      "ĠTh": 1497,
      "ĠKal": 1498,
      "erkado": 1499,
      "40": 1500,
      "th": 1501,
      "Ġimpormasyon": 1502,
      "Ġpalih": 1503,
      "inum": 1504,
      "abi": 1505,
      "ubag": 1506,
      "Ġ15": 1507,
      "ook": 1508,
      "let": 1509,
      "Ġber": 1510,
      "Ġparehas": 1511,
      "araw": 1512,
      "ĠRus": 1513,
      "ps": 1514,
      "Ġtiggamit": 1515,
      "Ġting": 1516,
      "ĠEx": 1517,
      "38": 1518,
      "Ġbata": 1519,
      "lish": 1520,
      "Ġtibuok": 1521,
      "à¥": 1522,
      "Ġ200": 1523,
      "pr": 1524,
      "ownload": 1525,
      "Ġpat": 1526,
      "ĠAko": 1527,
      "Ġlit": 1528,
      "ov": 1529,
      "si": 1530,
      "Ġdayon": 1531,
      "Ġepekto": 1532,
      "Ġdak": 1533,
      "rika": 1534,
      "igala": 1535,
      "Ġmerkado": 1536,
      "0000": 1537,
      "Ġnako": 1538,
      "Ø±Ø": 1539,
      "ono": 1540,
      "Ġkanamo": 1541,
      "39": 1542,
      "uol": 1543,
      "iritu": 1544,
      "ugu": 1545,
      "35": 1546,
      "Ġpagdumala": 1547,
      "ulog": 1548,
      "27": 1549,
      "ĠEng": 1550,
      ".<": 1551,
      "Ġlig": 1552,
      "36": 1553,
      "ÑģÐºÐ¸": 1554,
      "ple": 1555,
      "Ġ&": 1556,
      "Ġbar": 1557,
      "awon": 1558,
      "put": 1559,
      "Ġsayon": 1560,
      "Ã¡": 1561,
      "ambo": 1562,
      "init": 1563,
      "org": 1564,
      "Ġsent": 1565,
      "erson": 1566,
      "Ġpara": 1567,
      "uan": 1568,
      "ilya": 1569,
      "Ġsem": 1570,
      "Ġpagtan": 1571,
      "ĠCar": 1572,
      "but": 1573,
      "olusyon": 1574,
      "ĠKa": 1575,
      "Ġ*": 1576,
      "onus": 1577,
      "Ġnegosyo": 1578,
      "Ġpagpam": 1579,
      "uy": 1580,
      "Ġnang": 1581,
      "ĠVi": 1582,
      "min": 1583,
      "Ġhusto": 1584,
      "Ġtalagsaon": 1585,
      "olohiya": 1586,
      "29": 1587,
      "ĠNew": 1588,
      "ĠPol": 1589,
      "Ġkanato": 1590,
      "ital": 1591,
      "Ġ+": 1592,
      "awala": 1593,
      "Ġ30": 1594,
      "ren": 1595,
      "alan": 1596,
      "Ġpagsulay": 1597,
      "Ġed": 1598,
      "Ġtrabaho": 1599,
      "Ġreg": 1600,
      "atan": 1601,
      "Ġlaing": 1602,
      "Ġpagpakig": 1603,
      "Ġsub": 1604,
      "ĠâĢĭ": 1605,
      "Ġkinatibuk": 1606,
      "Ġcasino": 1607,
      "ĠChina": 1608,
      "Ġnaglakip": 1609,
      "26": 1610,
      "Ġmakuha": 1611,
      "unga": 1612,
      "Ġdev": 1613,
      "Ġbala": 1614,
      "Ġdirek": 1615,
      "ido": 1616,
      "Ġsoftware": 1617,
      "37": 1618,
      "ĠMak": 1619,
      "Ġkaninyo": 1620,
      "ugna": 1621,
      "Ġisip": 1622,
      "esa": 1623,
      "ingali": 1624,
      "aton": 1625,
      "Ġklas": 1626,
      "Ġespesyal": 1627,
      "Ġdro": 1628,
      "ĠGo": 1629,
      "ie": 1630,
      "Ġnagpasa": 1631,
      "ĠPanglantaw": 1632,
      "ĠLabing": 1633,
      "48": 1634,
      "Ġtabang": 1635,
      "AG": 1636,
      "Ġmakak": 1637,
      "Ġtrad": 1638,
      "Ġhunahuna": 1639,
      "likasyon": 1640,
      "ĠâĢĭâĢĭ": 1641,
      "Ġsh": 1642,
      "Ġpropes": 1643,
      "agan": 1644,
      "Ġtemp": 1645,
      "--": 1646,
      "Ġmaoy": 1647,
      "Ġhinungdanon": 1648,
      "à¦": 1649,
      "Ġpagbag": 1650,
      "lano": 1651,
      "ake": 1652,
      "ulagway": 1653,
      "ĠØ": 1654,
      "Ġmagb": 1655,
      "api": 1656,
      "idto": 1657,
      "ĠBusa": 1658,
      "ermino": 1659,
      "alhin": 1660,
      "iss": 1661,
      "otan": 1662,
      "Ġex": 1663,
      "Ġsak": 1664,
      "udio": 1665,
      "isud": 1666,
      "99": 1667,
      "Ġng": 1668,
      "de": 1669,
      "rato": 1670,
      "ĠItal": 1671,
      "Ġcook": 1672,
      "agm": 1673,
      "iped": 1674,
      "Ġhal": 1675,
      "yu": 1676,
      "ting": 1677,
      "á»": 1678,
      "Ġplat": 1679,
      "Ġkada": 1680,
      "ikiped": 1681,
      "Ġmop": 1682,
      "Ġpanid": 1683,
      "Ġkond": 1684,
      "ĠEnglish": 1685,
      "Ġlaraw": 1686,
      "47": 1687,
      "58": 1688,
      "ilidad": 1689,
      "ĠAron": 1690,
      "file": 1691,
      "Ġpulong": 1692,
      "inal": 1693,
      "Ġpagkahuman": 1694,
      "Ġsakit": 1695,
      "Ġmit": 1696,
      "uck": 1697,
      "àª": 1698,
      "sang": 1699,
      "Ġpaghatag": 1700,
      "oc": 1701,
      "Ġhiman": 1702,
      "Ġnahibal": 1703,
      "Ġalum": 1704,
      "Ġunang": 1705,
      "ors": 1706,
      "orya": 1707,
      "ary": 1708,
      "Ġimport": 1709,
      "log": 1710,
      "aghanon": 1711,
      "ĠIk": 1712,
      "ark": 1713,
      "ĠâĢĵ": 1714,
      "iho": 1715,
      "AL": 1716,
      "ws": 1717,
      "Ġnaa": 1718,
      "ash": 1719,
      "Ġmam": 1720,
      "dro": 1721,
      "asaha": 1722,
      "Ġgasto": 1723,
      "Ġtel": 1724,
      "ins": 1725,
      "ĠProv": 1726,
      "55": 1727,
      "uon": 1728,
      "ĠSam": 1729,
      "unan": 1730,
      "Ġpagkat": 1731,
      "Ġnan": 1732,
      "klik": 1733,
      "uli": 1734,
      "uwa": 1735,
      "06": 1736,
      "aryo": 1737,
      "ild": 1738,
      "ianhi": 1739,
      "Ġpropesyonal": 1740,
      "yst": 1741,
      "Ġdidto": 1742,
      "ikong": 1743,
      "Ġgidaghanon": 1744,
      "Ġkusog": 1745,
      "Ġgiunsa": 1746,
      "Ġkanako": 1747,
      "Ġinyong": 1748,
      "Ġbuhaton": 1749,
      "ĠRo": 1750,
      "ĠIyang": 1751,
      "Ġpart": 1752,
      "Ġnagtanyag": 1753,
      "46": 1754,
      "ĠCreek": 1755,
      "Ġbay": 1756,
      "trabaho": 1757,
      "ustomer": 1758,
      "Ġsang": 1759,
      "ĠPags": 1760,
      "ilhan": 1761,
      "ago": 1762,
      "ugnaw": 1763,
      "Ġporma": 1764,
      "uth": 1765,
      "Ġto": 1766,
      "the": 1767,
      "Ġ21": 1768,
      "aki": 1769,
      "Ġkons": 1770,
      "Ġdes": 1771,
      "Ġkant": 1772,
      "ick": 1773,
      "ĠOp": 1774,
      "áł": 1775,
      "ĠBal": 1776,
      "ones": 1777,
      "Ġkantidad": 1778,
      "inaw": 1779,
      "Ġulo": 1780,
      "Ġsemana": 1781,
      "Ġsp": 1782,
      "ilip": 1783,
      "Ġnetwork": 1784,
      "na": 1785,
      "ĠBala": 1786,
      "Ġnagtugot": 1787,
      "sog": 1788,
      "Ġsuporta": 1789,
      "ĠPab": 1790,
      "ond": 1791,
      "ener": 1792,
      "ĠPagt": 1793,
      "Ġthe": 1794,
      "Ġbusa": 1795,
      "iyente": 1796,
      "Ġlakip": 1797,
      "rib": 1798,
      "one": 1799,
      "Ġscreen": 1800,
      "man": 1801,
      "ĠPort": 1802,
      "Ġhuman": 1803,
      "Ġmagsugod": 1804,
      "Ġbersyon": 1805,
      "alar": 1806,
      "gan": 1807,
      "tos": 1808,
      "ĠTan": 1809,
      "itabo": 1810,
      "23": 1811,
      "Ġpiho": 1812,
      "uyoan": 1813,
      "Ġklase": 1814,
      "Ġsentro": 1815,
      "umb": 1816,
      "Ġdroga": 1817,
      "sahe": 1818,
      "elig": 1819,
      "08": 1820,
      "Ġsiy": 1821,
      "ĠInternet": 1822,
      "Ġfil": 1823,
      "Ġkil": 1824,
      "Ġda": 1825,
      "Ġkomun": 1826,
      "ĠRom": 1827,
      "ida": 1828,
      "Ġrel": 1829,
      "Ġkauban": 1830,
      "oran": 1831,
      "download": 1832,
      "ĠGu": 1833,
      "tt": 1834,
      "ogle": 1835,
      "ukma": 1836,
      "Ġpop": 1837,
      "Ġlakang": 1838,
      "ulta": 1839,
      "igan": 1840,
      "apan": 1841,
      "6666666666666666666666666666666666666666666666666666666666666666": 1842,
      "sc": 1843,
      "ĠKaron": 1844,
      "utlo": 1845,
      "elo": 1846,
      "ĠProvin": 1847,
      "ebu": 1848,
      "Ġanh": 1849,
      "Ġlinya": 1850,
      "unh": 1851,
      "Ġanhianhi": 1852,
      "ĠQ": 1853,
      "ĠBe": 1854,
      "Ġluwas": 1855,
      "49": 1856,
      "ĠUban": 1857,
      "ĠTungod": 1858,
      "3333333333333333333333333333333333333333333333333333333333333333": 1859,
      "Ġpagdula": 1860,
      "ĠMic": 1861,
      "ontak": 1862,
      "ĠCol": 1863,
      "imit": 1864,
      "Ġmagk": 1865,
      "anta": 1866,
      "herap": 1867,
      "Ġgah": 1868,
      "ĠEspiritu": 1869,
      "wala": 1870,
      "itor": 1871,
      "Ġpamilya": 1872,
      "Ġdok": 1873,
      "86": 1874,
      "Ġmasa": 1875,
      "Ġ100": 1876,
      "lov": 1877,
      "ĠKita": 1878,
      "ĠIng": 1879,
      "lythe": 1880,
      "Ġkliyente": 1881,
      "Ġdel": 1882,
      "Ġpalihug": 1883,
      "ĠFac": 1884,
      "apil": 1885,
      "Ġchat": 1886,
      "ersonal": 1887,
      "eligro": 1888,
      "tura": 1889,
      "Ġlitrato": 1890,
      "ĠGiunsa": 1891,
      "OS": 1892,
      "ebel": 1893,
      "ĠDagh": 1894,
      "Ġkahimtang": 1895,
      "isa": 1896,
      "Ġgidak": 1897,
      "Ġtulo": 1898,
      "ngaw": 1899,
      "fff": 1900,
      "Ġlahi": 1901,
      "ue": 1902,
      "áŀ": 1903,
      "Ġtibuuk": 1904,
      "Ġlebel": 1905,
      "ontrol": 1906,
      "59": 1907,
      "Ġmin": 1908,
      "Ġnagsugod": 1909,
      "apad": 1910,
      "Ġkani": 1911,
      "isita": 1912,
      "Ġsup": 1913,
      "unong": 1914,
      "07": 1915,
      "Ġkolor": 1916,
      "56": 1917,
      "ĠDis": 1918,
      "ÂŃ": 1919,
      "Ġteknolohiya": 1920,
      "awhan": 1921,
      "yl": 1922,
      "Ġhigala": 1923,
      "ĠKat": 1924,
      "ome": 1925,
      "ON": 1926,
      "Ġpaspas": 1927,
      "ibid": 1928,
      "Ġdisenyo": 1929,
      "Ġth": 1930,
      "eta": 1931,
      "Ġset": 1932,
      "ĠGino": 1933,
      "Ġprofile": 1934,
      "Ġul": 1935,
      "Ġnahimutang": 1936,
      "ĠPagd": 1937,
      "rop": 1938,
      "ica": 1939,
      "igur": 1940,
      "32": 1941,
      "ĠGoogle": 1942,
      "ode": 1943,
      "Ġmakah": 1944,
      "Ġmakina": 1945,
      "Ġpagpal": 1946,
      "isyal": 1947,
      "Ġnap": 1948,
      "ilo": 1949,
      "Ġsunod": 1950,
      ".-.-.-.-": 1951,
      "ibidwal": 1952,
      "Ġtab": 1953,
      "bon": 1954,
      "ĠUS": 1955,
      "ulga": 1956,
      "ublik": 1957,
      "hiyon": 1958,
      "42": 1959,
      "ĠKasa": 1960,
      "ade": 1961,
      "ĠGe": 1962,
      "iha": 1963,
      "Ġtambal": 1964,
      "Ġmakab": 1965,
      "Ð¾": 1966,
      "Ġsl": 1967,
      "ĠGam": 1968,
      "epono": 1969,
      "ilin": 1970,
      "57": 1971,
      "danan": 1972,
      "Ġpab": 1973,
      "Ġaplikasyon": 1974,
      "Ġmedikal": 1975,
      "yaw": 1976,
      "mail": 1977,
      "Ġniya": 1978,
      "ace": 1979,
      "rans": 1980,
      "43": 1981,
      "Ġ11": 1982,
      "sh": 1983,
      "ĠMal": 1984,
      "ohan": 1985,
      "Ġnagpakita": 1986,
      "ĠMao": 1987,
      "cy": 1988,
      "ystem": 1989,
      "Ġtip": 1990,
      "Ġgugma": 1991,
      "Ġyuta": 1992,
      "Ġkinahanglanon": 1993,
      "Ġpanginahanglan": 1994,
      "ics": 1995,
      "Ġcomputer": 1996,
      "ĠTren": 1997,
      "ĠMaayo": 1998,
      "umero": 1999,
      "ĠBlythe": 2000,
      "amot": 2001,
      "Ġbonus": 2002,
      "Ġindibidwal": 2003,
      "Ġlok": 2004,
      "ari": 2005,
      "str": 2006,
      "ech": 2007,
      "Ġsumala": 2008,
      "Ġdihang": 2009,
      "Ġkustomer": 2010,
      "access": 2011,
      "tangan": 2012,
      "ebook": 2013,
      "eat": 2014,
      "Ã³": 2015,
      "ww": 2016,
      "67": 2017,
      "Ġdugay": 2018,
      "enter": 2019,
      "Ġmateryales": 2020,
      "ĠNort": 2021,
      "ual": 2022,
      "ĠSw": 2023,
      "Ġkinaiya": 2024,
      "Ġsus": 2025,
      "ugong": 2026,
      "Ġpanag": 2027,
      "Ġfree": 2028,
      "Date": 2029,
      "uyon": 2030,
      "uoran": 2031,
      "yan": 2032,
      "ugto": 2033,
      "Ġrehiyon": 2034,
      "ith": 2035,
      "Ġintern": 2036,
      "rr": 2037,
      "Ġbas": 2038,
      "Ġ14": 2039,
      "ami": 2040,
      "ider": 2041,
      "date": 2042,
      "ÃŃ": 2043,
      "ĠKinahanglan": 2044,
      "ebuano": 2045,
      "angh": 2046,
      "ĠIndones": 2047,
      "lain": 2048,
      "ition": 2049,
      "olog": 2050,
      "Ġmahitabo": 2051,
      "ĠHa": 2052,
      "Ġkatuyoan": 2053,
      "Ġgipa": 2054,
      "ime": 2055,
      "à¸": 2056,
      "GA": 2057,
      "Ġdevice": 2058,
      "à®": 2059,
      "atiman": 2060,
      "Ġnasod": 2061,
      "bi": 2062,
      "kong": 2063,
      "iano": 2064,
      "ĠPablo": 2065,
      "herapy": 2066,
      "yante": 2067,
      "Ġà¤": 2068,
      "ĠIngon": 2069,
      "ead": 2070,
      "ube": 2071,
      "ĠInst": 2072,
      "ĠRep": 2073,
      "ormat": 2074,
      "à±": 2075,
      "ski": 2076,
      "isgutan": 2077,
      ".,": 2078,
      "Ġ22": 2079,
      "ampo": 2080,
      "Ġsalapi": 2081,
      "uhunan": 2082,
      "tibo": 2083,
      "Ġpersonal": 2084,
      "Ġunya": 2085,
      "Ġ13": 2086,
      "dress": 2087,
      "Ġmensahe": 2088,
      "unang": 2089,
      "ĠBasaha": 2090,
      "ri": 2091,
      "view": 2092,
      "adetalye": 2093,
      "Ġbin": 2094,
      "utanadetalye": 2095,
      "uno": 2096,
      "abe": 2097,
      "atagan": 2098,
      "24": 2099,
      "gro": 2100,
      "instalar": 2101,
      "angutana": 2102,
      "abutan": 2103,
      "ĠSlov": 2104,
      "Ġpagpan": 2105,
      "box": 2106,
      "ĠMas": 2107,
      "osto": 2108,
      "Ġmakit": 2109,
      "Ġpagbasa": 2110,
      "Ġkamatuoran": 2111,
      "eratura": 2112,
      "Ġ25": 2113,
      "ĠCast": 2114,
      "Ġikat": 2115,
      "top": 2116,
      "Ġuma": 2117,
      "09": 2118,
      "sar": 2119,
      "Ġtingali": 2120,
      "uso": 2121,
      "ump": 2122,
      "Ġcookies": 2123,
      "ĠOn": 2124,
      "upo": 2125,
      "ĠCom": 2126,
      "ihon": 2127,
      "aph": 2128,
      "ĠSal": 2129,
      "ĠLat": 2130,
      "andi": 2131,
      "Ġmis": 2132,
      "ektibo": 2133,
      "Ġsil": 2134,
      "apas": 2135,
      "Ġkaysa": 2136,
      "Ġdata": 2137,
      "ert": 2138,
      "Ġag": 2139,
      "awong": 2140,
      "Ġcar": 2141,
      "aran": 2142,
      "Ġgitas": 2143,
      "ca": 2144,
      "//": 2145,
      "Ġpagtr": 2146,
      "34": 2147,
      "://": 2148,
      "Ġbalaod": 2149,
      "sba": 2150,
      "impyo": 2151,
      "åĥķãģ¯åı¯æĦĽãģĦåĥķãģ¯åı¯æĦĽãģĦåĥķãģ¯åı¯æĦĽãģĦåĥķãģ¯åı¯æĦĽãģĦåĥķãģ¯åı¯æĦĽãģĦåĥķãģ¯åı¯æĦĽãģĦåĥķãģ¯åı¯æĦĽãģĦåĥķãģ¯åı¯æĦĽãģĦ": 2152,
      "ower": 2153,
      "ĠCan": 2154,
      "Ġtermino": 2155,
      "Ġnumero": 2156,
      "ĠEn": 2157,
      "Ġpagpalit": 2158,
      "31": 2159,
      "ve": 2160,
      "Ġhim": 2161,
      "ĠBag": 2162,
      "ĠLa": 2163,
      "ĠCr": 2164,
      "ĠAf": 2165,
      "Ġasa": 2166,
      "ulb": 2167,
      "Ġkur": 2168,
      "ulang": 2169,
      "Ġanak": 2170,
      "88": 2171,
      "Ġout": 2172,
      "Ġmoadto": 2173,
      "×Ļ": 2174,
      "Ġyano": 2175,
      "ĠBalita": 2176,
      "Ġbut": 2177,
      "Ġ44": 2178,
      "dom": 2179,
      "entaha": 2180,
      "Ġgipakita": 2181,
      "ĠApple": 2182,
      "umento": 2183,
      "rom": 2184,
      "ttps": 2185,
      "AT": 2186,
      "Ġniadtong": 2187,
      "uslan": 2188,
      "ĠFor": 2189,
      "Ġmoh": 2190,
      "ahim": 2191,
      "ĠNor": 2192,
      "ãĥĿãĥĿãĥĿãĥĿãĥĿãĥĿãĥĿãĥĿ": 2193,
      "lag": 2194,
      "Ġsayo": 2195,
      "'''": 2196,
      "ĠGinoo": 2197,
      "ĠImong": 2198,
      "leto": 2199,
      "rant": 2200,
      "ink": 2201,
      "indot": 2202,
      "Ġeksp": 2203,
      "ulasyon": 2204,
      "Ġnaggamit": 2205,
      "ĠMahimong": 2206,
      "Ġ43": 2207,
      "angkon": 2208,
      "Ã§": 2209,
      "ikipedia": 2210,
      "ĠPortugu": 2211,
      "ames": 2212,
      "ĠNi": 2213,
      "Ġpagpadala": 2214,
      "Ġpagbayad": 2215,
      "ingkamot": 2216,
      "sayan": 2217,
      "IN": 2218,
      "Ġisyu": 2219,
      "ungog": 2220,
      "Ġniana": 2221,
      "Ġbrows": 2222,
      "54": 2223,
      "asing": 2224,
      "AM": 2225,
      "lor": 2226,
      "aduha": 2227,
      "Ġlik": 2228,
      "Ġpangh": 2229,
      "Ġkondisyon": 2230,
      "ĠAc": 2231,
      "utlook": 2232,
      "aporma": 2233,
      "osito": 2234,
      "Ġlisud": 2235,
      "ural": 2236,
      "Ġoper": 2237,
      "Ġtelepono": 2238,
      "ĠGikan": 2239,
      "ox": 2240,
      "Ã©": 2241,
      "ĠSep": 2242,
      "Ġpunto": 2243,
      "Ġkateg": 2244,
      "Ġtum": 2245,
      "ĠTel": 2246,
      "Ġpagkab": 2247,
      "Ġkahayag": 2248,
      "Ġ28": 2249,
      "Ġkining": 2250,
      "Ġmagdud": 2251,
      "ukom": 2252,
      "Ã±": 2253,
      "Ġpol": 2254,
      "Ġsala": 2255,
      "ance": 2256,
      "Ġkw": 2257,
      "Ġpakig": 2258,
      "iana": 2259,
      "non": 2260,
      "41": 2261,
      "Ġmagdudula": 2262,
      "ĠWalay": 2263,
      "ker": 2264,
      "ahayag": 2265,
      "Ġnab": 2266,
      "ahum": 2267,
      "ĠMat": 2268,
      "Ġyugto": 2269,
      "à¥Ģ": 2270,
      "ikasyon": 2271,
      "omen": 2272,
      "Ġadmin": 2273,
      "Ġistr": 2274,
      "Ġkatungod": 2275,
      "Ġnahimo": 2276,
      "ĠDaghang": 2277,
      "Ġiro": 2278,
      "ĠSamtang": 2279,
      "Ġlimit": 2280,
      "igugma": 2281,
      "Ġlungsod": 2282,
      "teel": 2283,
      "ihokan": 2284,
      "angkob": 2285,
      "yar": 2286,
      "áº": 2287,
      "ĠNorth": 2288,
      "ĠOutlook": 2289,
      "Ġnamo": 2290,
      "Ġtemperatura": 2291,
      "ĠFacebook": 2292,
      "ĠMan": 2293,
      "ĠCasino": 2294,
      "uki": 2295,
      "Ġformat": 2296,
      "ryp": 2297,
      "uod": 2298,
      "unhod": 2299,
      "á®": 2300,
      "arg": 2301,
      "ĠiPad": 2302,
      "Ġibutang": 2303,
      "apel": 2304,
      "ĠiPhone": 2305,
      "ĠPAG": 2306,
      "yekto": 2307,
      "Ġmosunod": 2308,
      "uot": 2309,
      "Ġbot": 2310,
      "Ġpananglitan": 2311,
      "Ġbayad": 2312,
      "Å¡": 2313,
      "ĠTV": 2314,
      "05": 2315,
      "cial": 2316,
      "adl": 2317,
      "van": 2318,
      "Ġj": 2319,
      "Ġdetalye": 2320,
      "Ġbrowser": 2321,
      "Ġist": 2322,
      "ĠLu": 2323,
      "ĠCebuano": 2324,
      "istro": 2325,
      "ico": 2326,
      "Ġmobile": 2327,
      "Ġtaliwala": 2328,
      "Ġkm": 2329,
      "erto": 2330,
      "98": 2331,
      "ĠÂ»": 2332,
      "yr": 2333,
      "ĠMo": 2334,
      "Ġgrupo": 2335,
      "Ġlalaki": 2336,
      "tomas": 2337,
      "01": 2338,
      "uel": 2339,
      "Ġmakas": 2340,
      "Ġkahimsog": 2341,
      "less": 2342,
      "iyahan": 2343,
      "Ġpuno": 2344,
      "alaka": 2345,
      "Ð»": 2346,
      "alang": 2347,
      "ĠPin": 2348,
      "ication": 2349,
      "Ġaka": 2350,
      "Ġmid": 2351,
      "Ġsolusyon": 2352,
      "siyon": 2353,
      "Ġpagtrabaho": 2354,
      "Ġim": 2355,
      "Ġtukma": 2356,
      "ĠGr": 2357,
      "inese": 2358,
      "ĠAb": 2359,
      "ST": 2360,
      "Ġdirekta": 2361,
      "02": 2362,
      "agawas": 2363,
      "Ġmoabut": 2364,
      "isikal": 2365,
      "Ġcom": 2366,
      "Ġseg": 2367,
      "gama": 2368,
      "Ġmapa": 2369,
      "har": 2370,
      "zb": 2371,
      "Ġmakontak": 2372,
      "ĠIg": 2373,
      "tomat": 2374,
      "Ġmetal": 2375,
      "ust": 2376,
      "Ġpagbuhat": 2377,
      "Ġpasyente": 2378,
      "Ġmodelo": 2379,
      "âĢ¦": 2380,
      "ende": 2381,
      "Ġplataporma": 2382,
      "Ġkr": 2383,
      "ĠKining": 2384,
      "ubang": 2385,
      "ĠFran": 2386,
      "Ð°Ñ": 2387,
      "viator": 2388,
      "Ġdrive": 2389,
      "Ġimportante": 2390,
      "Ġpagkaayo": 2391,
      "ld": 2392,
      "ingkasing": 2393,
      "rip": 2394,
      "ĠDep": 2395,
      "ĠCon": 2396,
      "ater": 2397,
      "ĠAz": 2398,
      "Ġ27": 2399,
      "Ġkalihokan": 2400,
      "mart": 2401,
      "ĠMed": 2402,
      "eal": 2403,
      "Ġnaka": 2404,
      "ahimutang": 2405,
      "ating": 2406,
      "word": 2407,
      "inuod": 2408,
      "last": 2409,
      "aging": 2410,
      "ĠGre": 2411,
      "Ġpagsugod": 2412,
      "Ġtinuud": 2413,
      "isgo": 2414,
      "ĠSp": 2415,
      "erman": 2416,
      "Ġkalabutan": 2417,
      "ĠIkaw": 2418,
      "Ġposible": 2419,
      "Ġrelasyon": 2420,
      "ral": 2421,
      "Ġaddress": 2422,
      "rang": 2423,
      "agram": 2424,
      "ikanan": 2425,
      "Ġpagpang": 2426,
      "ĠChinese": 2427,
      "\",": 2428,
      "amento": 2429,
      "oral": 2430,
      "Ġnagtrabaho": 2431,
      "sak": 2432,
      "Ġgin": 2433,
      "Ġproyekto": 2434,
      "03": 2435,
      "atak": 2436,
      "Ġban": 2437,
      "alam": 2438,
      "back": 2439,
      "ĠNetwork": 2440,
      "Ġmakakuha": 2441,
      "Ġmakal": 2442,
      "irt": 2443,
      "Ġbint": 2444,
      "Ġpagtukod": 2445,
      "ĠRuss": 2446,
      "Ġ'": 2447,
      "àº": 2448,
      "Ġkak": 2449,
      "rench": 2450,
      "ML": 2451,
      "ua": 2452,
      "Ġkatawhan": 2453,
      "Ġesp": 2454,
      "zbek": 2455,
      "ER": 2456,
      "oriya": 2457,
      "Ġaluminyo": 2458,
      "ĠAmahan": 2459,
      "Ġgihapon": 2460,
      "alipod": 2461,
      "Ġtit": 2462,
      "Ġpagkak": 2463,
      "uhaton": 2464,
      "Ġcam": 2465,
      "ĠEuro": 2466,
      "Ð·": 2467,
      "ĠMalay": 2468,
      "wa": 2469,
      "yanan": 2470,
      "Ġkamot": 2471,
      "Ġcon": 2472,
      "Ġper": 2473,
      "ĠVal": 2474,
      "ence": 2475,
      "Ġgibuhat": 2476,
      "Ġpartido": 2477,
      "roseso": 2478,
      "bang": 2479,
      "Ð½": 2480,
      "Ġbatok": 2481,
      "embre": 2482,
      "04": 2483,
      "77": 2484,
      "ĠBos": 2485,
      "Ġnahimong": 2486,
      "Ġmus": 2487,
      "Ġnasa": 2488,
      "yot": 2489,
      "no": 2490,
      "ĠYou": 2491,
      "droid": 2492,
      "tub": 2493,
      "Ġminu": 2494,
      "inas": 2495,
      "ĠAviator": 2496,
      "agad": 2497,
      "Ġlaw": 2498,
      "Ġplay": 2499,
      "Ġkontr": 2500,
      "ambag": 2501,
      "ĠTherapy": 2502,
      "cia": 2503,
      "adlaw": 2504,
      "Ġnagkalain": 2505,
      "ĠTur": 2506,
      "Ġsay": 2507,
      "lat": 2508,
      "Ġnawong": 2509,
      "ĠGit": 2510,
      "Ġart": 2511,
      "96": 2512,
      "ĠPal": 2513,
      "ĠProduk": 2514,
      "con": 2515,
      "ĠBl": 2516,
      "Ġ40": 2517,
      "adako": 2518,
      "uti": 2519,
      "obra": 2520,
      "Ġkasingkasing": 2521,
      "Ġumaabot": 2522,
      "ĠDe": 2523,
      "ĠBar": 2524,
      "ĠUnsaon": 2525,
      "ĠAndroid": 2526,
      "ĠBr": 2527,
      "Ġpagkap": 2528,
      "alif": 2529,
      "kan": 2530,
      "ĠGusto": 2531,
      "Ġhigh": 2532,
      "uz": 2533,
      "ĠSila": 2534,
      "[[": 2535,
      "aso": 2536,
      "ĠPagh": 2537,
      "Ġnakita": 2538,
      "dasdasdasdasdasdasdasdasdasdasdasdasdasdasdasdasdasdasdasdasdasdasdasdasdasdasdasdasdasdasdasdas": 2539,
      "earch": 2540,
      "eed": 2541,
      "ty": 2542,
      "ornia": 2543,
      "alifornia": 2544,
      "Ġlink": 2545,
      "ĠBalaang": 2546,
      "yos": 2547,
      "Ġibal": 2548,
      "ĠFrench": 2549,
      "umer": 2550,
      "ĠGik": 2551,
      "Ùİ": 2552,
      "inati": 2553,
      "low": 2554,
      "Ġ50": 2555,
      "amitan": 2556,
      "ĠCont": 2557,
      "paso": 2558,
      "salig": 2559,
      "Ġpagpat": 2560,
      "Ġestr": 2561,
      "awan": 2562,
      "apos": 2563,
      "EM": 2564,
      "Ġsigur": 2565,
      "ĠProdukto": 2566,
      "bayan": 2567,
      "ngang": 2568,
      "Ġdakong": 2569,
      "ix": 2570,
      "ĠKin": 2571,
      "Ġtubag": 2572,
      ".âĢĿ": 2573,
      "icel": 2574,
      "Ġpagsusi": 2575,
      "repaso": 2576,
      "Sa": 2577,
      "Î»": 2578,
      "Ġmet": 2579,
      "adayag": 2580,
      "igital": 2581,
      "olina": 2582,
      "Ġigo": 2583,
      "ne": 2584,
      "ts": 2585,
      "ĠEs": 2586,
      "AD": 2587,
      "lak": 2588,
      "ext": 2589,
      "Ġih": 2590,
      "51": 2591,
      "ling": 2592,
      "Ġmata": 2593,
      "isgot": 2594,
      "Ñĥ": 2595,
      "ĠMont": 2596,
      "usta": 2597,
      "ĠPas": 2598,
      "adong": 2599,
      "ubay": 2600,
      "000000": 2601,
      "Ġoperasyon": 2602,
      "ĠÃ": 2603,
      "ĠCalifornia": 2604,
      "rypto": 2605,
      "ectr": 2606,
      "ipon": 2607,
      "Ġpapel": 2608,
      "Ġ<": 2609,
      "orld": 2610,
      "Ġibilin": 2611,
      "Ã£": 2612,
      "ĠPre": 2613,
      "Ġepektibo": 2614,
      "ring": 2615,
      "ĠReg": 2616,
      "ream": 2617,
      "Ġgipat": 2618,
      "ĠInstagram": 2619,
      "ĠÐĳ": 2620,
      "ĠBel": 2621,
      "Ġresulta": 2622,
      "apton": 2623,
      "AR": 2624,
      "ĠDula": 2625,
      "Ġmon": 2626,
      "ction": 2627,
      "ĠPilip": 2628,
      "ĠKami": 2629,
      "ekta": 2630,
      "mm": 2631,
      "Ã³n": 2632,
      "ĠPar": 2633,
      "use": 2634,
      "ach": 2635,
      "resent": 2636,
      "ĠIndex": 2637,
      "ory": 2638,
      "Ġnakab": 2639,
      "icelist": 2640,
      "yn": 2641,
      "lap": 2642,
      "ĠCat": 2643,
      "ĠWo": 2644,
      "Ġ#": 2645,
      "Ġpre": 2646,
      "ahili": 2647,
      "Ġtima": 2648,
      "Ġgibug": 2649,
      "Ġ26": 2650,
      "witter": 2651,
      "enian": 2652,
      "ugat": 2653,
      "orsyon": 2654,
      "53": 2655,
      "Ð³": 2656,
      "Ġkomunidad": 2657,
      "iki": 2658,
      "udad": 2659,
      "artamento": 2660,
      "Ġkost": 2661,
      "uson": 2662,
      "eam": 2663,
      "adlok": 2664,
      "amil": 2665,
      "Ġmach": 2666,
      "Ã«": 2667,
      "sag": 2668,
      "sas": 2669,
      "ola": 2670,
      "Ġlista": 2671,
      "Ġbr": 2672,
      "Ġpagputo": 2673,
      "ĠRusya": 2674,
      "Ġeb": 2675,
      "ason": 2676,
      "Ġkasam": 2677,
      "Ġrisgo": 2678,
      "iver": 2679,
      "Ġpage": 2680,
      "ormal": 2681,
      "Ġnagkinahanglan": 2682,
      "ti": 2683,
      "adawat": 2684,
      "Ġnaglangkob": 2685,
      "uwasan": 2686,
      "lock": 2687,
      "ection": 2688,
      "Ġmogamit": 2689,
      "Ġresp": 2690,
      "Ġpaglihok": 2691,
      "Ġfor": 2692,
      "ĠLib": 2693,
      "edit": 2694,
      "ĠWeb": 2695,
      "52": 2696,
      "Ġpamat": 2697,
      "ambit": 2698,
      "Ġawtomat": 2699,
      "Ġdalan": 2700,
      "Ġsugo": 2701,
      "ĠSanta": 2702,
      "ungt": 2703,
      "ugm": 2704,
      "Ġpasilidad": 2705,
      "alainan": 2706,
      "Ġbili": 2707,
      "ĠGigamit": 2708,
      "Ġsystem": 2709,
      "Ġbintana": 2710,
      "vel": 2711,
      "Ġ42": 2712,
      "ĠImport": 2713,
      "ĠYouT": 2714,
      "ĠPinaagi": 2715,
      "Ġ39": 2716,
      "alingaw": 2717,
      "Ġkagamitan": 2718,
      "Ġgim": 2719,
      "asyonal": 2720,
      "vert": 2721,
      "ĠSouth": 2722,
      "Ġcamera": 2723,
      "97": 2724,
      "Ġsc": 2725,
      "Ġnegosyante": 2726,
      "ĠBosn": 2727,
      "ĠAlum": 2728,
      "abli": 2729,
      "Ġmakapa": 2730,
      "à¦¾": 2731,
      "à°": 2732,
      "Ġsayup": 2733,
      "unting": 2734,
      "ber": 2735,
      "rian": 2736,
      "ĠSc": 2737,
      "ubangan": 2738,
      "yod": 2739,
      "arong": 2740,
      "à¨": 2741,
      "Ġay": 2742,
      "usang": 2743,
      "lands": 2744,
      "embro": 2745,
      "áĢ¬": 2746,
      "af": 2747,
      "impr": 2748,
      "Ġ36": 2749,
      "Ġatubangan": 2750,
      "order": 2751,
      "Ġmagpabilin": 2752,
      "Ġkoneksyon": 2753,
      "ugotan": 2754,
      "ĠHuman": 2755,
      "Ġpagtugot": 2756,
      "dish": 2757,
      "Ġkasaysayan": 2758,
      "à«": 2759,
      "lear": 2760,
      "Ð°ÑĢ": 2761,
      "hay": 2762,
      "Ġtran": 2763,
      "à±ģ": 2764,
      "ated": 2765,
      "panish": 2766,
      "ĠÂ©": 2767,
      "lihan": 2768,
      "of": 2769,
      "Ġtigp": 2770,
      "Ġtrading": 2771,
      "Ġpisikal": 2772,
      "ugyot": 2773,
      "ena": 2774,
      "Ġpost": 2775,
      "Ġbuk": 2776,
      "ĠSpanish": 2777,
      "apod": 2778,
      "Ġpagdugang": 2779,
      "Ġsumb": 2780,
      "ĠXÃ£": 2781,
      "Ðµ": 2782,
      "ĠPlay": 2783,
      "Ġpanapton": 2784,
      "Ġlokal": 2785,
      "Ġikatulo": 2786,
      "ĠYouTube": 2787,
      "Ġkalainan": 2788,
      "Ġcl": 2789,
      "Ġgipili": 2790,
      "Ġmakadawat": 2791,
      "kap": 2792,
      "igo": 2793,
      "Ġnatural": 2794,
      "urg": 2795,
      "Ġreview": 2796,
      "ustom": 2797,
      "Ġnagpasabot": 2798,
      "Ø§": 2799,
      "ĠGal": 2800,
      "à²": 2801,
      "âĢĶ": 2802,
      "unog": 2803,
      "abilidad": 2804,
      "ĠPilipinas": 2805,
      "Ġbase": 2806,
      "Ġkadaghan": 2807,
      "Ġdeposito": 2808,
      "Ġpopular": 2809,
      "anong": 2810,
      "ĠInter": 2811,
      "tina": 2812,
      "Ġ29": 2813,
      "Ġgayud": 2814,
      "egal": 2815,
      "isenyo": 2816,
      "ulongan": 2817,
      "ĠTag": 2818,
      "rikaans": 2819,
      "Ġkaluwasan": 2820,
      "Ġsetting": 2821,
      "Ġpagtuo": 2822,
      "rad": 2823,
      "Ġmakig": 2824,
      "Ġfol": 2825,
      "ĠFree": 2826,
      "ĠJudio": 2827,
      "adagh": 2828,
      "ĠANG": 2829,
      "uktura": 2830,
      "Ġorder": 2831,
      "gn": 2832,
      "Ġbalita": 2833,
      "Ġmagpadayon": 2834,
      "ĠForex": 2835,
      "que": 2836,
      "Ġduol": 2837,
      "ĠArab": 2838,
      "ĠProvince": 2839,
      "Ġgahum": 2840,
      "ational": 2841,
      "Ġmakahatag": 2842,
      "Ġtitulo": 2843,
      "Ġpagtipig": 2844,
      "uslanon": 2845,
      "78": 2846,
      "San": 2847,
      "iling": 2848,
      "ĠSama": 2849,
      "agmay": 2850,
      "ÙĪ": 2851,
      "Ġmip": 2852,
      "za": 2853,
      "uts": 2854,
      "ete": 2855,
      "à¤¾": 2856,
      "ipp": 2857,
      "olo": 2858,
      "Ġref": 2859,
      "Ġaccess": 2860,
      "Ġdagat": 2861,
      "install": 2862,
      "Ġkategoriya": 2863,
      "Ġide": 2864,
      "Ġsteel": 2865,
      "ĠPagrepaso": 2866,
      "ĠJapan": 2867,
      "Ġgrabe": 2868,
      "zon": 2869,
      "saysay": 2870,
      "ĠKahibalo": 2871,
      "ĠTwitter": 2872,
      "uhaan": 2873,
      "Ġbroker": 2874,
      "xt": 2875,
      "set": 2876,
      "sasyon": 2877,
      "onom": 2878,
      "tog": 2879,
      "Ġnanga": 2880,
      "alad": 2881,
      "ateh": 2882,
      "100": 2883,
      "Ġcard": 2884,
      "Ġestado": 2885,
      "Ġkilom": 2886,
      "phone": 2887,
      "inar": 2888,
      "areh": 2889,
      "Ġpagtuon": 2890,
      "Ġhangin": 2891,
      "Ġpili": 2892,
      "ĠSerb": 2893,
      "ĠAfrikaans": 2894,
      "net": 2895,
      "olekta": 2896,
      "Ġmakada": 2897,
      "andard": 2898,
      "btan": 2899,
      "mos": 2900,
      "eder": 2901,
      "ĠKom": 2902,
      "Ġhapit": 2903,
      "Ġmaghatag": 2904,
      "ED": 2905,
      "ĠPaggamit": 2906,
      "Ġpagbaligya": 2907,
      "inder": 2908,
      "imum": 2909,
      "ise": 2910,
      "abuso": 2911,
      "ibutan": 2912,
      "arta": 2913,
      "Ġunsaon": 2914,
      "Ġpagbalhin": 2915,
      "Ġupat": 2916,
      "Ġhard": 2917,
      "asig": 2918,
      "ĠØ§": 2919,
      "ier": 2920,
      "ilit": 2921,
      "ribado": 2922,
      "Ġbentaha": 2923,
      "ĠSer": 2924,
      "Ġelectr": 2925,
      "ihinal": 2926,
      "ĠRes": 2927,
      "ungdanon": 2928,
      "Ġkey": 2929,
      "Ġkaw": 2930,
      "ibilidad": 2931,
      "Ġkaniadtong": 2932,
      "ĠGih": 2933,
      "Ġkinab": 2934,
      "Ġmiingon": 2935,
      "red": 2936,
      "ĠThe": 2937,
      "]],": 2938,
      "Ġsobra": 2939,
      "ĠDr": 2940,
      "×Ļ×": 2941,
      "Ġkapital": 2942,
      "'s": 2943,
      "ĠAg": 2944,
      "ole": 2945,
      "Ġbak": 2946,
      "Ġideya": 2947,
      "ley": 2948,
      "Ġmaghimo": 2949,
      "ĠThis": 2950,
      "apa": 2951,
      "erno": 2952,
      "ĠQu": 2953,
      "rantiya": 2954,
      "80": 2955,
      "angtang": 2956,
      "inasyon": 2957,
      "ĠPara": 2958,
      "Ġsumbanan": 2959,
      "ze": 2960,
      "ĠNagh": 2961,
      "nel": 2962,
      "acy": 2963,
      "Ġsex": 2964,
      "Ġem": 2965,
      "ĠDel": 2966,
      "asabut": 2967,
      "Ġgas": 2968,
      "Ġkadtong": 2969,
      "ilyo": 2970,
      "ĠYor": 2971,
      "Ġpadayon": 2972,
      "Ġwire": 2973,
      "Ġ41": 2974,
      "Ġkasakit": 2975,
      "inn": 2976,
      "ĠPed": 2977,
      "ĠGerman": 2978,
      "ĠIp": 2979,
      "ĠOo": 2980,
      "ĠTra": 2981,
      "Ġmagl": 2982,
      "ĠUr": 2983,
      "ĠPagka": 2984,
      "Ġsens": 2985,
      "Ġpeligro": 2986,
      "enn": 2987,
      "Ġteksto": 2988,
      "Ġseksyon": 2989,
      "Ġgibutang": 2990,
      "sword": 2991,
      "Ġagi": 2992,
      "draw": 2993,
      "Ġant": 2994,
      "Ġhulagway": 2995,
      "ĠAs": 2996,
      "uho": 2997,
      "Ġorihinal": 2998,
      "ĠHome": 2999,
      "ĠHausa": 3000,
      "oint": 3001,
      "ĠPang": 3002,
      "Ġhabag": 3003,
      "ĠEl": 3004,
      "ĠLe": 3005,
      "Ġdakbayan": 3006,
      "zo": 3007,
      "amtong": 3008,
      "IT": 3009,
      "Ġgig": 3010,
      "ĠNg": 3011,
      "Ġmapuslanon": 3012,
      "Ġsusa": 3013,
      "ĠRussian": 3014,
      "Ġsik": 3015,
      "Ġgyud": 3016,
      "ĠEd": 3017,
      "Ġ45": 3018,
      "hai": 3019,
      "Ġgilakip": 3020,
      "ĠIgbo": 3021,
      "Ġpricelist": 3022,
      "Ġkasagarang": 3023,
      "ligan": 3024,
      "áĢĻ": 3025,
      "undayag": 3026,
      "sal": 3027,
      "Ġpagpugong": 3028,
      "Ġandam": 3029,
      "ira": 3030,
      "pa": 3031,
      "ngan": 3032,
      "Ġmismo": 3033,
      "inom": 3034,
      "Ġkalibotan": 3035,
      "ĠPagbiyahe": 3036,
      "ingong": 3037,
      "Ġpagbiyahe": 3038,
      "Ġopisyal": 3039,
      "alk": 3040,
      "unction": 3041,
      "ose": 3042,
      "Ġbo": 3043,
      "ela": 3044,
      "95": 3045,
      "Ö´": 3046,
      "ĠAmer": 3047,
      "Ġmasiguro": 3048,
      "ĠPananglitan": 3049,
      "ĠCarolina": 3050,
      "Ġpabrika": 3051,
      "Ġistruktura": 3052,
      "rb": 3053,
      "angyo": 3054,
      "Ġnal": 3055,
      "asy": 3056,
      "ĠFlor": 3057,
      "ansay": 3058,
      "andam": 3059,
      "Ġmagtut": 3060,
      "itibo": 3061,
      "áĪ": 3062,
      "omenda": 3063,
      "ES": 3064,
      "Ġpul": 3065,
      "atasan": 3066,
      "ĠNetworks": 3067,
      "atehiya": 3068,
      "sport": 3069,
      "rekomenda": 3070,
      "Ġsiyudad": 3071,
      "33333333333333333333333333333333333333333333333333333333333333333333333333333333333333333333333333333333333333333333333333333333": 3072,
      "Ġkostumer": 3073,
      "play": 3074,
      "alog": 3075,
      "Ġtingog": 3076,
      "ĠSwed": 3077,
      "!--": 3078,
      "æĸ": 3079,
      "áĬ": 3080,
      "ĠAB": 3081,
      "Ġpagbati": 3082,
      "Ġplano": 3083,
      "asya": 3084,
      "ĠGid": 3085,
      "Ġrek": 3086,
      "agmit": 3087,
      "Ġ<!--": 3088,
      "Usba": 3089,
      "iber": 3090,
      "nasa": 3091,
      "inta": 3092,
      "Ġmolihok": 3093,
      "ubos": 3094,
      "ĠGa": 3095,
      "ange": 3096,
      "ambong": 3097,
      "istration": 3098,
      "Ġmachine": 3099,
      "aranan": 3100,
      "Ġbil": 3101,
      "Ġgagmay": 3102,
      "ĠHer": 3103,
      "-->": 3104,
      "ulbad": 3105,
      "Ġtimailhan": 3106,
      "Ġpamatigayon": 3107,
      "Ġkilometro": 3108,
      "pag": 3109,
      "anese": 3110,
      "esinyo": 3111,
      "Ġsol": 3112,
      "ota": 3113,
      "awigan": 3114,
      "Ġnagpadayon": 3115,
      "ÙĬ": 3116,
      "ä¸": 3117,
      "75": 3118,
      "bukid": 3119,
      "yas": 3120,
      "Ġyo": 3121,
      "Ġwik": 3122,
      "tain": 3123,
      "Ġgitukod": 3124,
      "Ġsocial": 3125,
      "Ġpagpalambo": 3126,
      "sable": 3127,
      "ĠMail": 3128,
      "Ġawto": 3129,
      "ĠNak": 3130,
      "Ġpagpadayon": 3131,
      "itext": 3132,
      "rame": 3133,
      "Ġwikitext": 3134,
      "agsa": 3135,
      "face": 3136,
      "Ġmik": 3137,
      "garan": 3138,
      "ĠIP": 3139,
      "Ġuser": 3140,
      "Ġsakyanan": 3141,
      "arget": 3142,
      "Ġport": 3143,
      "ĠPrans": 3144,
      "ette": 3145,
      "ĠAnton": 3146,
      "alagad": 3147,
      "ungtod": 3148,
      "ĠGis": 3149,
      "ĠNet": 3150,
      "Ġ31": 3151,
      "In": 3152,
      "cel": 3153,
      "yun": 3154,
      "eter": 3155,
      "Ġ23": 3156,
      "Ġnagpasabut": 3157,
      "66666666666666666666666666666666666666666666666666666666666666666666666666666666666666666666666666666666666666666666666666666666": 3158,
      "ĠOb": 3159,
      "ĠÐľ": 3160,
      "Ġsangkap": 3161,
      "erya": 3162,
      "Ġaborsyon": 3163,
      "Ġuso": 3164,
      "Ġiring": 3165,
      "ugan": 3166,
      "MP": 3167,
      "hiya": 3168,
      "ĠBa": 3169,
      "ĠBo": 3170,
      "Ġmedyo": 3171,
      "ji": 3172,
      "ipay": 3173,
      "Ġbarato": 3174,
      "don": 3175,
      "Ġbuh": 3176,
      "Ġlist": 3177,
      "Ġpangutanadetalye": 3178,
      "untis": 3179,
      "ding": 3180,
      "Ġmedia": 3181,
      "ensyal": 3182,
      "tions": 3183,
      "Ġpamatasan": 3184,
      "Ġsukaranan": 3185,
      "Ġhy": 3186,
      "etsa": 3187,
      "Ġedad": 3188,
      "Ġslot": 3189,
      "oby": 3190,
      ")|": 3191,
      "ister": 3192,
      "esson": 3193,
      "AH": 3194,
      "amgo": 3195,
      "isyonal": 3196,
      "ĠEspanya": 3197,
      "pro": 3198,
      "osis": 3199,
      "oma": 3200,
      "Ġlamesa": 3201,
      "ANG": 3202,
      "Ġdagkong": 3203,
      "ukiduki": 3204,
      "ugmad": 3205,
      "oft": 3206,
      "erba": 3207,
      "ĠGeorg": 3208,
      "Ġsek": 3209,
      "Ġint": 3210,
      "Ġpagbalik": 3211,
      "ĠAntonio": 3212,
      "ĠPC": 3213,
      "ultura": 3214,
      "arung": 3215,
      "Ġpanit": 3216,
      "ivacy": 3217,
      "asabot": 3218,
      "antay": 3219,
      "Ġsuga": 3220,
      "Ġinternet": 3221,
      "ampuson": 3222,
      "æĸĩ": 3223,
      "Ġpir": 3224,
      "ĠTurk": 3225,
      "elyo": 3226,
      "ird": 3227,
      "Ġmenu": 3228,
      "ĠPortuguese": 3229,
      "ĠSup": 3230,
      "oll": 3231,
      "lex": 3232,
      "Ġning": 3233,
      "atras": 3234,
      "Ġhapon": 3235,
      "Ġipadala": 3236,
      "Ġtubo": 3237,
      "Ġkamatayon": 3238,
      "Ġpah": 3239,
      "Ġika": 3240,
      "Ġmubo": 3241,
      "ora": 3242,
      "ĠTex": 3243,
      "nam": 3244,
      "Ġklaro": 3245,
      "Ġnindot": 3246,
      "ĠEmail": 3247,
      "ĠLesson": 3248,
      "Ġgame": 3249,
      "ĠContact": 3250,
      "ann": 3251,
      "ubdan": 3252,
      "iyon": 3253,
      "Ġ2008": 3254,
      "Ġnangita": 3255,
      "Ġbasa": 3256,
      "68": 3257,
      "Ġlagmit": 3258,
      "ĠWorld": 3259,
      "ĠPedro": 3260,
      "Ġagianan": 3261,
      "nong": 3262,
      "Ġter": 3263,
      "wan": 3264,
      "ĠSin": 3265,
      "yoso": 3266,
      "Ġsmart": 3267,
      "ĠIndonesian": 3268,
      "ĠEurope": 3269,
      "Ġdesisyon": 3270,
      "sid": 3271,
      "Ġnormal": 3272,
      "its": 3273,
      "Ġrate": 3274,
      "resyon": 3275,
      "izard": 3276,
      "otel": 3277,
      "ĠKalibutan": 3278,
      "ĠMap": 3279,
      "Ġlangit": 3280,
      "ĠCastel": 3281,
      "ification": 3282,
      "gor": 3283,
      "isina": 3284,
      "ĠId": 3285,
      "ando": 3286,
      "Kini": 3287,
      "Ã¼": 3288,
      "Ġgikuha": 3289,
      "Ġproduksiyon": 3290,
      "Ġpagsalig": 3291,
      "ĠTexas": 3292,
      "undon": 3293,
      "ize": 3294,
      "Pag": 3295,
      "ĠAluminum": 3296,
      "we": 3297,
      "illa": 3298,
      "ĠArm": 3299,
      "amatay": 3300,
      "Ġsusama": 3301,
      "gado": 3302,
      "Ġtarget": 3303,
      "ency": 3304,
      "ĠLibre": 3305,
      "Ġkainit": 3306,
      "Ġliga": 3307,
      "ĠBro": 3308,
      "ement": 3309,
      "Ġgabi": 3310,
      ".-.-.-.-.-.-.-.-": 3311,
      "rk": 3312,
      "Ġbalik": 3313,
      "90": 3314,
      "tud": 3315,
      "onian": 3316,
      "Ġabilidad": 3317,
      "putanan": 3318,
      "ĠNgano": 3319,
      "ĠMob": 3320,
      "Sh": 3321,
      "eÅ¡": 3322,
      "Ġsangputanan": 3323,
      "tam": 3324,
      "anang": 3325,
      "Ġback": 3326,
      "ene": 3327,
      "ĠHD": 3328,
      "Ġinst": 3329,
      "Ġnagdala": 3330,
      "witch": 3331,
      "Ġabo": 3332,
      "ikado": 3333,
      "ental": 3334,
      "imbang": 3335,
      "du": 3336,
      "gad": 3337,
      "akaw": 3338,
      "ĠAw": 3339,
      "ĠÙ": 3340,
      "ĠOras": 3341,
      "iyan": 3342,
      "ĠView": 3343,
      "ĠArabic": 3344,
      "Ãª": 3345,
      "isk": 3346,
      "Ġpagproseso": 3347,
      "ĠHul": 3348,
      "Ġ35": 3349,
      "Ġbaterya": 3350,
      "Ġsukad": 3351,
      "ĠNa": 3352,
      "stans": 3353,
      "Ġ32": 3354,
      "Ġgitanyag": 3355,
      "enska": 3356,
      "board": 3357,
      "Ġstandard": 3358,
      "wasyon": 3359,
      "lem": 3360,
      "ultahan": 3361,
      "Ġgibal": 3362,
      "Ġgraph": 3363,
      "ona": 3364,
      "Ġkasamtangan": 3365,
      "Ġlingk": 3366,
      "awai": 3367,
      "bayon": 3368,
      "ray": 3369,
      "Ġlo": 3370,
      "Ġ38": 3371,
      "Ġmatahum": 3372,
      "Ġisda": 3373,
      "Ġusba": 3374,
      "ugngan": 3375,
      "Ġtren": 3376,
      "endar": 3377,
      "ĠImp": 3378,
      "bahin": 3379,
      "Ġid": 3380,
      "Ġkahoy": 3381,
      "atient": 3382,
      "ĠPh": 3383,
      "Ġkaniadto": 3384,
      "ungtad": 3385,
      "Ġnaton": 3386,
      "Ġpanghitabo": 3387,
      "Ġlayo": 3388,
      "ompleto": 3389,
      "Ġkinaiyahan": 3390,
      "ignal": 3391,
      "Ġinternal": 3392,
      "Ġeksperto": 3393,
      "ij": 3394,
      "patient": 3395,
      "Ġmok": 3396,
      "ngayo": 3397,
      "agamit": 3398,
      "adr": 3399,
      "ĠProvincia": 3400,
      "Ġgabii": 3401,
      "ph": 3402,
      "iyembro": 3403,
      "Ġfiles": 3404,
      "ood": 3405,
      "ĠBible": 3406,
      "asad": 3407,
      "87": 3408,
      "ê¦": 3409,
      "ĠSL": 3410,
      "Ġikaduha": 3411,
      "lin": 3412,
      "Ġx": 3413,
      "ĠHT": 3414,
      "à¤¨": 3415,
      "Ùı": 3416,
      "Ġsim": 3417,
      "ĠRe": 3418,
      "update": 3419,
      "ĠPagbuntis": 3420,
      "Ġligal": 3421,
      "Ġpak": 3422,
      "ĠTravel": 3423,
      "lass": 3424,
      "áĥĲ": 3425,
      "Ġinternasyonal": 3426,
      "69": 3427,
      "AS": 3428,
      "Ãł": 3429,
      "IL": 3430,
      "ĠPadayon": 3431,
      "Ġpassword": 3432,
      "rosoft": 3433,
      "ĠCenter": 3434,
      "elop": 3435,
      "Ġkanal": 3436,
      "ĠRepublik": 3437,
      "Ġsayop": 3438,
      "Ġfolder": 3439,
      "usion": 3440,
      "EO": 3441,
      "æľ": 3442,
      "ĠAma": 3443,
      "asal": 3444,
      "Ġkabalaka": 3445,
      "group": 3446,
      "aÃ±": 3447,
      "ulin": 3448,
      "utom": 3449,
      "333": 3450,
      "Ġcode": 3451,
      "Ġtigd": 3452,
      "iusa": 3453,
      "Äį": 3454,
      "Ġprib": 3455,
      "ember": 3456,
      "ife": 3457,
      "ĠHawai": 3458,
      "ĠWizard": 3459,
      "Ġmiaging": 3460,
      "https": 3461,
      "tso": 3462,
      "Ġespesyalista": 3463,
      "ais": 3464,
      "hang": 3465,
      "Ġpultahan": 3466,
      "Ġgiya": 3467,
      "ĠOS": 3468,
      "hannel": 3469,
      "ĠMicrosoft": 3470,
      "Ġbutton": 3471,
      "gy": 3472,
      "ugangan": 3473,
      "Ġaluminum": 3474,
      "ucky": 3475,
      "Ġut": 3476,
      "Ġaksyon": 3477,
      "Ġipakita": 3478,
      "Ġserye": 3479,
      "Ġitandi": 3480,
      "ĠKasagaran": 3481,
      "Ġstr": 3482,
      "ataas": 3483,
      "ĠCl": 3484,
      "ĠAnak": 3485,
      "Ġáĥ": 3486,
      "ĠSon": 3487,
      "ute": 3488,
      "oth": 3489,
      "Ġpagtabang": 3490,
      "Ġmilyon": 3491,
      "Ġpila": 3492,
      "amas": 3493,
      "away": 3494,
      "Ġpagkawala": 3495,
      "Ġ34": 3496,
      "Ġkatinga": 3497,
      "Ġkabtangan": 3498,
      "ĠAmazon": 3499,
      "UAN": 3500,
      "Ġ37": 3501,
      "Ġbl": 3502,
      "Ġob": 3503,
      "Ġok": 3504,
      "Ġpanguna": 3505,
      "ektar": 3506,
      "insip": 3507,
      "Ġpanan": 3508,
      "ĠBin": 3509,
      "89": 3510,
      "sulti": 3511,
      "usba": 3512,
      "cha": 3513,
      "ĠPransiya": 3514,
      "ugp": 3515,
      "Ġpack": 3516,
      "ebr": 3517,
      "Ġkontaka": 3518,
      "Ð¹": 3519,
      "ĠIl": 3520,
      "Ġsinug": 3521,
      "gawas": 3522,
      "Ġlima": 3523,
      "tok": 3524,
      "apiya": 3525,
      "ĠAyaw": 3526,
      "urn": 3527,
      "egov": 3528,
      "Ġplas": 3529,
      "ester": 3530,
      "Ġkatapo": 3531,
      "eho": 3532,
      "Ġeng": 3533,
      "son": 3534,
      "Ġlap": 3535,
      "Ġdokumento": 3536,
      "Ġnato": 3537,
      "Ġmahin": 3538,
      "abangan": 3539,
      "Ġpinulongan": 3540,
      "ground": 3541,
      "åĥķãģ¯åı¯æĦĽãģĦåĥķãģ¯åı¯æĦĽãģĦåĥķãģ¯åı¯æĦĽãģĦåĥķãģ¯åı¯æĦĽãģĦåĥķãģ¯åı¯æĦĽãģĦåĥķãģ¯åı¯æĦĽãģĦåĥķãģ¯åı¯æĦĽãģĦåĥķãģ¯åı¯æĦĽãģĦåĥķãģ¯åı¯æĦĽãģĦåĥķãģ¯åı¯æĦĽãģĦåĥķãģ¯åı¯æĦĽãģĦåĥķãģ¯åı¯æĦĽãģĦåĥķãģ¯åı¯æĦĽãģĦåĥķãģ¯åı¯æĦĽãģĦåĥķãģ¯åı¯æĦĽãģĦåĥķãģ¯åı¯æĦĽãģĦ": 3542,
      "Ġminuto": 3543,
      "resentar": 3544,
      "akt": 3545,
      "Ġkomb": 3546,
      "ĠJuan": 3547,
      "Ġaudio": 3548,
      "Ġkaugalingong": 3549,
      "Ġhilab": 3550,
      "sy": 3551,
      "ĠPagpalit": 3552,
      "onsider": 3553,
      "ĠIsland": 3554,
      "Ġkomunikasyon": 3555,
      "tubig": 3556,
      "ĠTurkish": 3557,
      "ool": 3558,
      "æĹ": 3559,
      "Ġcoord": 3560,
      "Ġteknikal": 3561,
      "Ġestratehiya": 3562,
      "mon": 3563,
      "rist": 3564,
      "ĠNo": 3565,
      "edy": 3566,
      "portable": 3567,
      "ä¸Ń": 3568,
      "ric": 3569,
      "aba": 3570,
      "ĠMig": 3571,
      "umo": 3572,
      "ĠCop": 3573,
      "ĠDak": 3574,
      "Ġamih": 3575,
      "Ġlibro": 3576,
      "ä¸Ńæĸĩ": 3577,
      "Ġsit": 3578,
      "Ġlimpyo": 3579,
      "atang": 3580,
      "imetro": 3581,
      "ĠPagklaro": 3582,
      "onsiderar": 3583,
      "urren": 3584,
      "Ġ46": 3585,
      "ĠÄ": 3586,
      "Ġkomportable": 3587,
      "ĠTi": 3588,
      "Ġ60": 3589,
      "Ġsinina": 3590,
      "Ġgahom": 3591,
      "atibo": 3592,
      "Ġfilter": 3593,
      "dasdasdasdasdasdasdasdasdasdasdasdasdasdasdasdasdasdasdasdasdasdasdasdasdasdasdasdasdasdasdasdasdasdasdasdasdasdasdasdas": 3594,
      "ador": 3595,
      "ĠCor": 3596,
      "ipigan": 3597,
      "utsch": 3598,
      "Ġgarantiya": 3599,
      "likay": 3600,
      "ÑĢÐ": 3601,
      "Ġhamtong": 3602,
      "umdom": 3603,
      "ĠVideo": 3604,
      "ubliko": 3605,
      "CO": 3606,
      "Ġmang": 3607,
      "Ġluna": 3608,
      "ĠiOS": 3609,
      "Ġmalip": 3610,
      "Ġpad": 3611,
      "ĠSom": 3612,
      "Ġmail": 3613,
      "Ġnagpuyo": 3614,
      "lesia": 3615,
      "Ã§ais": 3616,
      "td": 3617,
      "ãĥĿãĥĿãĥĿãĥĿãĥĿãĥĿãĥĿãĥĿãĥĿãĥĿãĥĿãĥĿãĥĿãĥĿãĥĿãĥĿ": 3618,
      "agb": 3619,
      "Ġresid": 3620,
      "Ġapps": 3621,
      "arehistro": 3622,
      "ĠBas": 3623,
      "uridad": 3624,
      "old": 3625,
      "upyo": 3626,
      "Ġmasabtan": 3627,
      "ÑĥÑģ": 3628,
      "\".": 3629,
      "MA": 3630,
      "Ġpetsa": 3631,
      "rn": 3632,
      "yuter": 3633,
      "agn": 3634,
      "ikag": 3635,
      "Ġtanum": 3636,
      "ĠItalya": 3637,
      "gi": 3638,
      "Ġsw": 3639,
      "unaw": 3640,
      "iangay": 3641,
      "Ġkahon": 3642,
      "Ġmilimetro": 3643,
      "Ġklin": 3644,
      "ÑģÐºÐ¸Ð¹": 3645,
      "dam": 3646,
      "Ñĭ": 3647,
      "Ġmib": 3648,
      "Ġregistration": 3649,
      "Ġpagpanalipod": 3650,
      "bungtod": 3651,
      "mga": 3652,
      "667": 3653,
      "ĠMiguel": 3654,
      "ÑĥÑģÑģÐºÐ¸Ð¹": 3655,
      "ĠApp": 3656,
      "irtual": 3657,
      "ONG": 3658,
      "ĠTamil": 3659,
      "Ġdisk": 3660,
      "Ġsintomas": 3661,
      "Ġlegal": 3662,
      "ĠHind": 3663,
      "Ġtinubdan": 3664,
      "tubiganan": 3665,
      "ced": 3666,
      "Ġmiyembro": 3667,
      "quar": 3668,
      "ĠArmenian": 3669,
      "ĠCal": 3670,
      "omb": 3671,
      "Ġnakuha": 3672,
      "imprinta": 3673,
      "ct": 3674,
      "atubang": 3675,
      "Ġbu": 3676,
      "umong": 3677,
      "ĠUrdu": 3678,
      "-->[[": 3679,
      "bal": 3680,
      "per": 3681,
      "Õ¥": 3682,
      "ÛĮ": 3683,
      "Ġsagad": 3684,
      "ipiko": 3685,
      "enta": 3686,
      "Ġnagpabilin": 3687,
      "onsable": 3688,
      "ĠSk": 3689,
      "ush": 3690,
      "Ġdigital": 3691,
      "ich": 3692,
      "Ġsulat": 3693,
      "Ġpagdawat": 3694,
      "Ġtiggama": 3695,
      "Ġpasundayag": 3696,
      "can": 3697,
      "ĠLou": 3698,
      "Ġlalawigan": 3699,
      "72": 3700,
      "76": 3701,
      "nect": 3702,
      "ipe": 3703,
      "Ġpagdili": 3704,
      "Ġ90": 3705,
      "Ġablihan": 3706,
      "æľ¬": 3707,
      "IS": 3708,
      "zegov": 3709,
      "inguha": 3710,
      "press": 3711,
      "Ġtradisyonal": 3712,
      "æĹ¥": 3713,
      "zegovina": 3714,
      "Ġsearch": 3715,
      "Ġkahibalo": 3716,
      "æĹ¥æľ¬": 3717,
      "Ġuga": 3718,
      "ery": 3719,
      "Ġbit": 3720,
      "Ġbisita": 3721,
      "Ġalgor": 3722,
      "anas": 3723,
      "Ġdugo": 3724,
      "ĠSu": 3725,
      "Ġapar": 3726,
      "amaayo": 3727,
      "Ð°Ð·": 3728,
      "Ġkalig": 3729,
      "Ġnakig": 3730,
      "formance": 3731,
      "ĠLi": 3732,
      "Ġgipal": 3733,
      "Ġtanyag": 3734,
      "efn": 3735,
      "Ġfeed": 3736,
      "ĠOnline": 3737,
      "ĠTelugu": 3738,
      "ĠHerzegovina": 3739,
      "eo": 3740,
      "orasyon": 3741,
      "reh": 3742,
      "Ġistorya": 3743,
      "ĠDeutsch": 3744,
      "iug": 3745,
      "ĠUzbek": 3746,
      "Ġpagtagad": 3747,
      "ĠCook": 3748,
      "ology": 3749,
      "ĠBosnia": 3750,
      "Ġteam": 3751,
      "emento": 3752,
      "Ġrad": 3753,
      "ĠPagdula": 3754,
      "ĠSerbian": 3755,
      "iyos": 3756,
      "import": 3757,
      "Ġdaan": 3758,
      "ĠYoruba": 3759,
      "ulette": 3760,
      "ĠKont": 3761,
      "Ġhttps": 3762,
      "ĠJav": 3763,
      "verage": 3764,
      "Ġpagpangutanadetalye": 3765,
      "amtam": 3766,
      "Ġlive": 3767,
      "Ġhig": 3768,
      "Ġmalampuson": 3769,
      "ĠFlorida": 3770,
      "Ġlistahan": 3771,
      "Pro": 3772,
      "atch": 3773,
      "alaan": 3774,
      "à©": 3775,
      "Ġ33": 3776,
      "Ġsignal": 3777,
      "Ġfunction": 3778,
      "Ġkomon": 3779,
      "]].": 3780,
      "ĠFranÃ§ais": 3781,
      "insipyo": 3782,
      "ĠAustr": 3783,
      "Ġnahitabo": 3784,
      "Ġulohan": 3785,
      "ĠLux": 3786,
      "83": 3787,
      "ea": 3788,
      "Ġkop": 3789,
      "alo": 3790,
      "ĠDes": 3791,
      "Ġmadawat": 3792,
      "70": 3793,
      "PS": 3794,
      "ahal": 3795,
      "Ġipa": 3796,
      "Ġbugnaw": 3797,
      "aplag": 3798,
      "ukol": 3799,
      "Ġilabi": 3800,
      "Ġkomyun": 3801,
      "á»ĩ": 3802,
      "AK": 3803,
      "MZ": 3804,
      "Ġkatapusang": 3805,
      "Ġkompyuter": 3806,
      "scrib": 3807,
      "RI": 3808,
      "Ġaposto": 3809,
      "93": 3810,
      "ogr": 3811,
      "ĠWikiped": 3812,
      "Ġpagdala": 3813,
      "Ġkapas": 3814,
      "Ġbatang": 3815,
      "ĠØ´": 3816,
      "Ġmusika": 3817,
      "stansiya": 3818,
      "ĠSomali": 3819,
      "ress": 3820,
      "gay": 3821,
      "Ġcenter": 3822,
      "Ġopsyon": 3823,
      "Ġkilid": 3824,
      "DF": 3825,
      "nes": 3826,
      "Ġmahal": 3827,
      "ĠPagkahuman": 3828,
      "empre": 3829,
      "Ø±ØŃ": 3830,
      "ĠØ´Ø±ØŃ": 3831,
      "ĠTa": 3832,
      "Ġsubstansiya": 3833,
      "mar": 3834,
      "Ġz": 3835,
      "Ġporn": 3836,
      "Ġusahay": 3837,
      "ĠGawas": 3838,
      "Ġdef": 3839,
      "with": 3840,
      "Ã«rn": 3841,
      "Ã«rnaya": 3842,
      "Ch": 3843,
      "anh": 3844,
      "ĠMGA": 3845,
      "eco": 3846,
      "Ð¸Ðº": 3847,
      "Ġkontrol": 3848,
      "rrrr": 3849,
      "anghelyo": 3850,
      "Ġpiraso": 3851,
      "ĠWikipedya": 3852,
      "sage": 3853,
      "andan": 3854,
      "Ġkomento": 3855,
      "ify": 3856,
      "Ġulahi": 3857,
      "xy": 3858,
      "Ġdek": 3859,
      "Ġnakak": 3860,
      "Ġkoleksyon": 3861,
      "Ġdoktor": 3862,
      "withdraw": 3863,
      "Ġener": 3864,
      "ĠæĹ¥æľ¬": 3865,
      "Ġpubliko": 3866,
      "isw": 3867,
      "dasd": 3868,
      "Ġpagkas": 3869,
      "emikal": 3870,
      "ĠArtikulo": 3871,
      "Ġestilo": 3872,
      "Ġkadaot": 3873,
      "eng": 3874,
      "aum": 3875,
      "hanan": 3876,
      "Ġnameligro": 3877,
      "alainlain": 3878,
      "ĠPa": 3879,
      "Ġpagpah": 3880,
      "likway": 3881,
      "ĠYid": 3882,
      "Ġkuryente": 3883,
      "Ġayaw": 3884,
      "ÑĢÐ¿": 3885,
      "ĠÎ": 3886,
      "Ġsing": 3887,
      "ĠTanan": 3888,
      "ĠNagp": 3889,
      "Ġ:": 3890,
      "ubad": 3891,
      "fi": 3892,
      "onektar": 3893,
      "Ġulan": 3894,
      "akter": 3895,
      "Ġlag": 3896,
      "Ġpagkunhod": 3897,
      "Ġyaw": 3898,
      "ĠPl": 3899,
      "ĠMin": 3900,
      "dasdasdasd": 3901,
      "ĠHindi": 3902,
      "ĠYiddish": 3903,
      "atud": 3904,
      "unit": 3905,
      "Ġhatagan": 3906,
      "ĠLtd": 3907,
      "Ġkasaligan": 3908,
      "ĠNgalan": 3909,
      "ilding": 3910,
      "dasdasdasdasdasdasdasdasdasdasdasdasdasdasdasdasdasdasdasdasdasdasdasdasdasdasdasdasdasdasdasdasdasdasdasdasdasdasdasdasdasdasdasdas": 3911,
      ".\"": 3912,
      "ID": 3913,
      "ores": 3914,
      "osible": 3915,
      "Ġchannel": 3916,
      "dasdasdasdasdasdasdasdasdasdasdasdasdasdasdasdasdasdasdasdasdasdasdasdasdasdasdasdasdasdasdasdasdasdasdasdasdasdasdasdasdasdasdasdasdasdasdasd": 3917,
      "atay": 3918,
      "Ġtuo": 3919,
      "Ġtablet": 3920,
      "col": 3921,
      "apekto": 3922,
      "ĠTermino": 3923,
      "ayop": 3924,
      "Ġpopulasyon": 3925,
      "ĠGeorgian": 3926,
      "ame": 3927,
      "awad": 3928,
      "Ġtunga": 3929,
      "Ġpalihog": 3930,
      "áº¿": 3931,
      "Ġmakadaot": 3932,
      "ĠOblast": 3933,
      "anguhaan": 3934,
      "à²¨": 3935,
      "Ġplastik": 3936,
      "ous": 3937,
      "Ġpot": 3938,
      "unidad": 3939,
      "Ġcoral": 3940,
      "Ġgirekomenda": 3941,
      "Ġblog": 3942,
      "Ġhead": 3943,
      "ego": 3944,
      "Ġtumong": 3945,
      "ĠDec": 3946,
      "ets": 3947,
      "esado": 3948,
      "iswahili": 3949,
      "Ġpel": 3950,
      "ĠCF": 3951,
      "ahom": 3952,
      "Ġbukid": 3953,
      "enep": 3954,
      "Ġkalinaw": 3955,
      "ouch": 3956,
      "ape": 3957,
      "Ġmakakita": 3958,
      "Ġaktibo": 3959,
      "Ġprot": 3960,
      "ĠUnya": 3961,
      "]].<": 3962,
      "ĠAdlaw": 3963,
      "Ġekonom": 3964,
      "Ġhalapad": 3965,
      "ĠNiini": 3966,
      "ĠPun": 3967,
      "Ġhap": 3968,
      "Ġtambag": 3969,
      "Ġprinsipyo": 3970,
      "Ġgigikanan": 3971,
      "Ġkapasidad": 3972,
      "ass": 3973,
      "ĠAir": 3974,
      "Ġsimb": 3975,
      "ĠBulga": 3976,
      "ĠNep": 3977,
      "ĠHeb": 3978,
      "Ġkarakter": 3979,
      "ĠCanada": 3980,
      "Ġlikod": 3981,
      "yright": 3982,
      "Ġtigpam": 3983,
      "Ġhabagatan": 3984,
      "Ġengine": 3985,
      "iugda": 3986,
      "ulan": 3987,
      "ĠKore": 3988,
      "trusion": 3989,
      "Ġhilisgutan": 3990,
      "rate": 3991,
      "Ġnew": 3992,
      "ĠCO": 3993,
      "upot": 3994,
      ".{{": 3995,
      "Ġmainit": 3996,
      "ĠTaas": 3997,
      "Ġgat": 3998,
      "Ġnagpa": 3999,
      "Ġkontak": 4000,
      "',": 4001,
      "awom": 4002,
      "ĠTingali": 4003,
      "ĠNGA": 4004,
      "ingkod": 4005,
      "uportahan": 4006,
      "Ġmalipayon": 4007,
      "Ġen": 4008,
      "Ġet": 4009,
      "Ġkemikal": 4010,
      "ility": 4011,
      "ultip": 4012,
      "Ġngano": 4013,
      "eature": 4014,
      "Ġsusihon": 4015,
      "Ġimahe": 4016,
      "ĠKontaka": 4017,
      "85": 4018,
      "ĠAtong": 4019,
      "Ġkalipay": 4020,
      "ĠOr": 4021,
      "92": 4022,
      "Ġ×": 4023,
      "Ġpagsugat": 4024,
      "indahan": 4025,
      "Ġpunoan": 4026,
      "Ġcoordinat": 4027,
      "www": 4028,
      "akda": 4029,
      "rew": 4030,
      "Ġaduna": 4031,
      "etnam": 4032,
      "enepisyo": 4033,
      "Ġimb": 4034,
      "Ġ'''": 4035,
      "łÑĥÑģÑģÐºÐ¸Ð¹": 4036,
      "adagan": 4037,
      "ict": 4038,
      "Ġcarbon": 4039,
      "atakaran": 4040,
      "post": 4041,
      "wikipedia": 4042,
      "Ġsugal": 4043,
      "Ġmilabay": 4044,
      "Ġpinakabag": 4045,
      "Ġaparato": 4046,
      "ype": 4047,
      "ªŀ": 4048,
      "èªŀ": 4049,
      "reg": 4050,
      "ports": 4051,
      "\")": 4052,
      "94": 4053,
      "êµ": 4054,
      "ngit": 4055,
      "Ġall": 4056,
      "Ġhinay": 4057,
      "Ġbaybayon": 4058,
      "Ġsigurado": 4059,
      "Ġhilabihan": 4060,
      "bit": 4061,
      "íķ": 4062,
      "Ġti": 4063,
      "oduc": 4064,
      "ibong": 4065,
      "uranan": 4066,
      "Ġ58": 4067,
      "Ġresist": 4068,
      "Ãªs": 4069,
      "aÃ±ol": 4070,
      "Ġcoordinates": 4071,
      "Ġer": 4072,
      "Ġelemento": 4073,
      "íķľ": 4074,
      "AY": 4075,
      "×¨": 4076,
      "ìĸ": 4077,
      "Ġtak": 4078,
      "ĠPatakaran": 4079,
      "lav": 4080,
      "Ġâľ": 4081,
      "isiya": 4082,
      "ĠPer": 4083,
      "ĠWi": 4084,
      "eck": 4085,
      "ìĸ´": 4086,
      "abis": 4087,
      "ĠMon": 4088,
      "utch": 4089,
      "ĠChi": 4090,
      "ĠBest": 4091,
      "adaghanan": 4092,
      "ĠMobile": 4093,
      "êµŃ": 4094,
      "ĠKiswahili": 4095,
      "ĠCer": 4096,
      "ions": 4097,
      "Ġpabor": 4098,
      "Ġkontrata": 4099,
      "íķľêµŃ": 4100,
      "íķľêµŃìĸ´": 4101,
      "yur": 4102,
      "Ġbato": 4103,
      "entaryo": 4104,
      "Ġamihanan": 4105,
      "65": 4106,
      "Ġputi": 4107,
      "Ġlog": 4108,
      "ull": 4109,
      "ĠUk": 4110,
      "ĠFilip": 4111,
      "Ġnaandan": 4112,
      "Ġkaayohan": 4113,
      "Ġorg": 4114,
      "Ġlis": 4115,
      "ĠSl": 4116,
      "oble": 4117,
      "soon": 4118,
      "Ġbrand": 4119,
      "Ġenerhiya": 4120,
      "ĠAkong": 4121,
      "ĠBonus": 4122,
      "Ġdepende": 4123,
      "Ġpagkatinuod": 4124,
      "Æ°": 4125,
      "ÑĮ": 4126,
      "Ġtawag": 4127,
      "ĠLang": 4128,
      "Ġinahan": 4129,
      "anse": 4130,
      "Ġlokasyon": 4131,
      "Ġlingkuranan": 4132,
      "Ġnagm": 4133,
      "ugaw": 4134,
      "hou": 4135,
      "hosa": 4136,
      "Ġserver": 4137,
      "onia": 4138,
      "Ø±Ø¯": 4139,
      "ound": 4140,
      "unes": 4141,
      "very": 4142,
      "Ġmode": 4143,
      "ikayan": 4144,
      "ella": 4145,
      "Ġpress": 4146,
      "Ġmatabangan": 4147,
      "Ġsuplay": 4148,
      "ĠUs": 4149,
      "ugpong": 4150,
      "IB": 4151,
      "tra": 4152,
      "ÐºÐ°": 4153,
      "light": 4154,
      "Ġmih": 4155,
      "Ġpanukiduki": 4156,
      "Ġpagtangtang": 4157,
      "Ġpagsiguro": 4158,
      "Ġmaluwas": 4159,
      "zz": 4160,
      "Ġpanglantaw": 4161,
      "itngit": 4162,
      "Ġpagbutang": 4163,
      "Ġmidala": 4164,
      "Ġpagg": 4165,
      "eran": 4166,
      "à¤¿": 4167,
      "àº²": 4168,
      "³ÛĮ": 4169,
      "ahangl": 4170,
      "ĠMe": 4171,
      "ĠWh": 4172,
      "Ġrason": 4173,
      "Ġproduksyon": 4174,
      "ulayan": 4175,
      "ĠKanunay": 4176,
      "Ġregular": 4177,
      "Ġseguridad": 4178,
      "Ø§Ø±Ø": 4179,
      "àº²àº": 4180,
      "Ġmawala": 4181,
      "ican": 4182,
      "detox": 4183,
      "ÑĢÐ¿ÑģÐºÐ¸": 4184,
      "sel": 4185,
      "ative": 4186,
      "ĠMen": 4187,
      "Ġinteresado": 4188,
      "Ġminimum": 4189,
      "ĠJapanese": 4190,
      "Ø§Ø±Ø³ÛĮ": 4191,
      "kara": 4192,
      "ĠPres": 4193,
      "Ġkalabot": 4194,
      "à¤¦": 4195,
      "ĠMagb": 4196,
      "ĠMaced": 4197,
      "Ġtipo": 4198,
      "Ã¼rk": 4199,
      "Äįina": 4200,
      "itungod": 4201,
      "ĠUsba": 4202,
      "Ġins": 4203,
      "ĠÐłÑĥÑģÑģÐºÐ¸Ð¹": 4204,
      "Ġseryoso": 4205,
      "ÑĢÐ°Ñ": 4206,
      "ĠPolski": 4207,
      "ĠComm": 4208,
      "ĠCookie": 4209,
      "ÑĬ": 4210,
      "Ġtindahan": 4211,
      "Ġpilion": 4212,
      "ĠBulgarian": 4213,
      "aman": 4214,
      "Ġiglesia": 4215,
      "á»ĩt": 4216,
      "Ã¢": 4217,
      "×ĳ": 4218,
      "ĹÐ½": 4219,
      "aser": 4220,
      "ello": 4221,
      "ekan": 4222,
      "ersisyo": 4223,
      "ĠVietnam": 4224,
      "Ã§e": 4225,
      "Ð³Ð°ÑĢ": 4226,
      "Ã¼rkÃ§e": 4227,
      "ĠKay": 4228,
      "ilia": 4229,
      "ĠGib": 4230,
      "ansya": 4231,
      "ÑģÑĮ": 4232,
      "Ġmobalik": 4233,
      "Ġkomplik": 4234,
      "ĠViá»ĩt": 4235,
      "Ġsitwasyon": 4236,
      "ÑĬÐ»": 4237,
      "RE": 4238,
      "£Ðº": 4239,
      "Ġpoly": 4240,
      "ÑĢÐ°ÑĹÐ½": 4241,
      "ÑĬÐ»Ð³Ð°ÑĢ": 4242,
      "£ÐºÑĢÐ°ÑĹÐ½": 4243,
      "Ge": 4244,
      "Ġmar": 4245,
      "Ġmub": 4246,
      "ĠPalih": 4247,
      "ÑģÑĮÐºÐ°": 4248,
      "£ÐºÑĢÐ°ÑĹÐ½ÑģÑĮÐºÐ°": 4249,
      "asay": 4250,
      "ux": 4251,
      "ngali": 4252,
      "Ġpagga": 4253,
      "ikula": 4254,
      "ektr": 4255,
      "Ġpagtubo": 4256,
      "ĠOk": 4257,
      "ganong": 4258,
      "×Ļ×ª": 4259,
      "SS": 4260,
      "ĠíķľêµŃìĸ´": 4261,
      "Ġmic": 4262,
      "igit": 4263,
      "uko": 4264,
      "grade": 4265,
      "egosyo": 4266,
      "Ġkompleto": 4267,
      "ĠSlovak": 4268,
      "Ġklinika": 4269,
      ".[": 4270,
      "Ġpagkal": 4271,
      "ĠEspaÃ±ol": 4272,
      "ÑĬÐ»Ð³Ð°ÑĢÑģÐºÐ¸": 4273,
      "wi": 4274,
      "unud": 4275,
      "lanan": 4276,
      "ĠUna": 4277,
      "inuon": 4278,
      "ĠMahitungod": 4279,
      "finder": 4280,
      "Ġmakalingaw": 4281,
      "ĠEle": 4282,
      "ĠFX": 4283,
      "irm": 4284,
      "ĠPagpili": 4285,
      "ĠÐ£ÐºÑĢÐ°ÑĹÐ½ÑģÑĮÐºÐ°": 4286,
      "ĠMagyar": 4287,
      "Ġinterface": 4288,
      "alipdan": 4289,
      "ĠPortuguÃªs": 4290,
      "dasdasdasdasdasdasdasdasdasdasdasdasdasdasdasdasdasdasdasdasdasdasdasdasdasdasdasdasdasdasdasdasdasdasdasdasdasdasdasdasdasdasdasdasdasdasdasddasdasdasdasdasdasdasdasdasdasdasdasdasdasdasdasdasdasdasdasdasdasdasdasdasdasdasdasdasdasdasdasdasdasdasdasdasdasdasdasdasdasdasdasdasdasdasd": 4291,
      "Santa": 4292,
      "ĠKadaghanan": 4293,
      "Ġnakat": 4294,
      "ocus": 4295,
      "Ġoutput": 4296,
      "ĠæĹ¥æľ¬èªŀ": 4297,
      "ÙĦ": 4298,
      "apiko": 4299,
      "ĠDutch": 4300,
      "Ġmahatagan": 4301,
      "Ġpagpakita": 4302,
      "ektado": 4303,
      "à¸¢": 4304,
      "ĠImpormasyon": 4305,
      "ĠTiáº¿": 4306,
      "Ġlibo": 4307,
      "Ġinit": 4308,
      "Ġrep": 4309,
      "ehersisyo": 4310,
      "irus": 4311,
      "Ġilawom": 4312,
      "Ġnakap": 4313,
      "Ġamon": 4314,
      "à¥į": 4315,
      "ĠBengali": 4316,
      "à¸Ĺ": 4317,
      "ĠFilipino": 4318,
      "84": 4319,
      "dong": 4320,
      "Ġkara": 4321,
      "ĠBah": 4322,
      "Ġcrypto": 4323,
      "Ġisulti": 4324,
      "letter": 4325,
      "lakan": 4326,
      "ys": 4327,
      "ilang": 4328,
      "dasyon": 4329,
      "Ġprivacy": 4330,
      "ĠâĢ¢": 4331,
      "harian": 4332,
      "Ġtur": 4333,
      "ĠWel": 4334,
      "Ġplatform": 4335,
      "¡ÑĢÐ¿ÑģÐºÐ¸": 4336,
      "Î¹": 4337,
      "Ġmapugngan": 4338,
      "Ġmetros": 4339,
      "ģØ§Ø±Ø³ÛĮ": 4340,
      "Ġnakit": 4341,
      "Ġklima": 4342,
      "Ġnanguna": 4343,
      "Ġkawani": 4344,
      "quarium": 4345,
      "¹Ħ": 4346,
      "Ġunsay": 4347,
      "Ġhangtud": 4348,
      "Ġmolupyo": 4349,
      "ĠColor": 4350,
      "vanced": 4351,
      "va": 4352,
      "Ġbang": 4353,
      "Ġcann": 4354,
      "Ġhangyo": 4355,
      "peto": 4356,
      "Ġabogado": 4357,
      "sletter": 4358,
      "Ð²": 4359,
      "ĠLED": 4360,
      "alisar": 4361,
      "ee": 4362,
      "Î½": 4363,
      "uhang": 4364,
      "Ġkahanas": 4365,
      "60": 4366,
      "79": 4367,
      "ale": 4368,
      "ensyon": 4369,
      "ĠMP": 4370,
      "ĠThai": 4371,
      "lawas": 4372,
      "Ġgaming": 4373,
      "Ġdepartamento": 4374,
      "ealth": 4375,
      "Î»Î": 4376,
      "à¸Ĺà¸¢": 4377,
      "Î¹Î": 4378,
      "¹Ħà¸Ĺà¸¢": 4379,
      "ĠKo": 4380,
      "ĠVista": 4381,
      "Ġnagsunod": 4382,
      "Ġpagpamuhunan": 4383,
      "ĠSalamat": 4384,
      "Ġpagputol": 4385,
      "ĠÙģØ§Ø±Ø³ÛĮ": 4386,
      "ahanglang": 4387,
      "curren": 4388,
      "reat": 4389,
      "ĠNorsk": 4390,
      "ĠCFD": 4391,
      "Ġdo": 4392,
      "Ġpaningkamot": 4393,
      "ĠFA": 4394,
      "Ġpaghalad": 4395,
      "Ġnagpal": 4396,
      "Ġvirtual": 4397,
      "Ġgidisenyo": 4398,
      "Ġtabangi": 4399,
      "áĥĲáĥ": 4400,
      "Ġtiil": 4401,
      "ºÎ": 4402,
      "imalay": 4403,
      "eses": 4404,
      "ĠSite": 4405,
      "ibl": 4406,
      "ury": 4407,
      "Ġgilay": 4408,
      "ĠâĨ": 4409,
      "Ġgani": 4410,
      "ĠTÃ¼rkÃ§e": 4411,
      "hire": 4412,
      "ector": 4413,
      "iretso": 4414,
      "Ġà¤¹": 4415,
      "ĠGreek": 4416,
      "Ġyawe": 4417,
      "ķÎ»": 4418,
      "Ġtiyan": 4419,
      "ĠMart": 4420,
      "ody": 4421,
      "ĠUb": 4422,
      "ĠIndonesia": 4423,
      "ķÎ»Î»Î": 4424,
      "UH": 4425,
      "Ġstor": 4426,
      "Ġpagsunod": 4427,
      "ĠInt": 4428,
      "ĠAlban": 4429,
      "Ġcont": 4430,
      "Ġcell": 4431,
      "amatud": 4432,
      "ampusan": 4433,
      "Î¹ÎºÎ": 4434,
      "itmo": 4435,
      "ĠMi": 4436,
      "ĠDistr": 4437,
      "uhan": 4438,
      "entasyon": 4439,
      "Ġgiingon": 4440,
      "Ġgipan": 4441,
      "ĠExport": 4442,
      "Ġ×¢": 4443,
      "·Î½": 4444,
      "Ġsap": 4445,
      "atic": 4446,
      "eld": 4447,
      "Ġinstr": 4448,
      "irma": 4449,
      "igasyon": 4450,
      "Ġposibilidad": 4451,
      "áĥĺ": 4452,
      "alipay": 4453,
      "ĠMalayalam": 4454,
      "Ġpagkapribado": 4455,
      "Î¹ÎºÎ¬": 4456,
      "ķÎ»Î»Î·Î½": 4457,
      "ķÎ»Î»Î·Î½Î¹ÎºÎ¬": 4458,
      "cl": 4459,
      "Ġging": 4460,
      "Ġakt": 4461,
      "hoto": 4462,
      "erating": 4463,
      "ĠMich": 4464,
      "Ġâľ¯": 4465,
      "].": 4466,
      "sub": 4467,
      "ukad": 4468,
      "ster": 4469,
      "andoy": 4470,
      "exico": 4471,
      "Ġnatad": 4472,
      "Ġgl": 4473,
      "entral": 4474,
      "itional": 4475,
      "ĠÐĳÑĬÐ»Ð³Ð°ÑĢÑģÐºÐ¸": 4476,
      "GB": 4477,
      "Ġlana": 4478,
      "Ġnailhan": 4479,
      "Ġnagsuporta": 4480,
      "Ġginikanan": 4481,
      "Ġent": 4482,
      "Ġkultura": 4483,
      "Ġbeses": 4484,
      "ĠKent": 4485,
      "Ġpagbansay": 4486,
      "antala": 4487,
      "Ġsinugdanan": 4488,
      "ÉĻ": 4489,
      "ĠTrain": 4490,
      "Ġpagsag": 4491,
      "ĠTiáº¿ng": 4492,
      "uang": 4493,
      "Ġpaglikay": 4494,
      "Ġgum": 4495,
      "ori": 4496,
      "ubat": 4497,
      "Ġgaan": 4498,
      "Ġsulayan": 4499,
      "Ġ2020": 4500,
      "áĥ£": 4501,
      "łáĥ": 4502,
      "Ġmekan": 4503,
      "aga": 4504,
      "agit": 4505,
      "amin": 4506,
      "Ġfiber": 4507,
      "Ġpangisip": 4508,
      "Ġ2021": 4509,
      "áĥļ": 4510,
      "wn": 4511,
      "ulado": 4512,
      "Ġhayop": 4513,
      "Ġpagbisita": 4514,
      "Ġmobati": 4515,
      "ĠPanor": 4516,
      "Trad": 4517,
      "Ġkapin": 4518,
      "Ġpresyur": 4519,
      "Ã¡n": 4520,
      "Ġnanginahanglan": 4521,
      "71": 4522,
      "Ġwith": 4523,
      "ĠUkra": 4524,
      "áĥĲáĥłáĥ": 4525,
      "ĠPanoramas": 4526,
      "aduhang": 4527,
      "abama": 4528,
      "Ġbuhi": 4529,
      "read": 4530,
      "Ġpagsuporta": 4531,
      "Ġval": 4532,
      "Ġ70": 4533,
      "utos": 4534,
      "echn": 4535,
      "ĠViewfinder": 4536,
      "sj": 4537,
      "urm": 4538,
      "Ġhimsog": 4539,
      "sych": 4540,
      "áĥļáĥĺ": 4541,
      "¥áĥĲáĥłáĥ": 4542,
      "ĠPe": 4543,
      "ĠMore": 4544,
      "usunod": 4545,
      "Ġpagkontrol": 4546,
      "Ġkwarta": 4547,
      "¥áĥĲáĥłáĥĹ": 4548,
      "Ġdem": 4549,
      "aksyon": 4550,
      "aktura": 4551,
      "Ġkalampusan": 4552,
      "Ġnaglihok": 4553,
      "sv": 4554,
      "ĠMexico": 4555,
      "Ġhits": 4556,
      "ugos": 4557,
      "Ġmakatag": 4558,
      "Ġlabel": 4559,
      "Ġmenos": 4560,
      "Ġinteres": 4561,
      "Ġalgoritmo": 4562,
      "áĥ£áĥļáĥĺ": 4563,
      "Fi": 4564,
      "yado": 4565,
      "Ġdunay": 4566,
      "arya": 4567,
      "Ġgayod": 4568,
      "rangang": 4569,
      "Ġà¹Ħà¸Ĺà¸¢": 4570,
      "ingawan": 4571,
      "Ġpelikula": 4572,
      "¥áĥĲáĥłáĥĹáĥ£áĥļáĥĺ": 4573,
      "Games": 4574,
      "osyal": 4575,
      "Ġdagway": 4576,
      "Ġdetoxification": 4577,
      "Ġreviews": 4578,
      "ĠHTML": 4579,
      "Æ°á»": 4580,
      "vo": 4581,
      "ott": 4582,
      "Ġgitugotan": 4583,
      "Ġpartik": 4584,
      "Ġgibati": 4585,
      "Ġpartikular": 4586,
      "Juan": 4587,
      "day": 4588,
      "ĠLife": 4589,
      "Ġ56": 4590,
      "raft": 4591,
      "Ġbuluhaton": 4592,
      "Ġmosulod": 4593,
      "pos": 4594,
      "Ġgila": 4595,
      "icy": 4596,
      "ĠHang": 4597,
      "Ġmoabot": 4598,
      "abase": 4599,
      "tock": 4600,
      "Ġhum": 4601,
      "ĠAlabama": 4602,
      "ĠPagkat": 4603,
      "Ġáĥ¥áĥĲáĥłáĥĹáĥ£áĥļáĥĺ": 4604,
      "sjbot": 4605,
      "Ġgimb": 4606,
      "undang": 4607,
      "ework": 4608,
      "Ġbugtong": 4609,
      "Ð¾Ð²": 4610,
      "91": 4611,
      "IA": 4612,
      "nb": 4613,
      "aycan": 4614,
      "eka": 4615,
      "Ġ80": 4616,
      "ĠAnia": 4617,
      "usaban": 4618,
      "ross": 4619,
      "Ġlimitado": 4620,
      "rbaycan": 4621,
      "ÉĻrbaycan": 4622,
      "DEM": 4623,
      "ĠMalag": 4624,
      "ĠCrypto": 4625,
      "Ġmodiretso": 4626,
      "Ġtinun": 4627,
      "US": 4628,
      "ness": 4629,
      "ªĹ": 4630,
      "Ġoperating": 4631,
      "ĠÎķÎ»Î»Î·Î½Î¹ÎºÎ¬": 4632,
      "Ġpotensyal": 4633,
      "risyon": 4634,
      "abog": 4635,
      "eno": 4636,
      "Ġelektr": 4637,
      "ĠSloven": 4638,
      "Mga": 4639,
      "VC": 4640,
      "gen": 4641,
      "ject": 4642,
      "Ġbe": 4643,
      "ĠIr": 4644,
      "ukasyon": 4645,
      "Ġaquarium": 4646,
      "roll": 4647,
      "Ġgihatagan": 4648,
      "Ġngipon": 4649,
      "Kung": 4650,
      "¯į": 4651,
      "Ġkuw": 4652,
      "ĠKur": 4653,
      "ote": 4654,
      "Ġbatan": 4655,
      "Ġeditor": 4656,
      "Ġhalos": 4657,
      "ĠAzÉĻrbaycan": 4658,
      "ĠKentucky": 4659,
      "ages": 4660,
      "Ġà¦": 4661,
      "Ġorgani": 4662,
      "Ġspe": 4663,
      "Ġkalingawan": 4664,
      "à¦²": 4665,
      "à¯į": 4666,
      "ĠAbo": 4667,
      "ĠCE": 4668,
      "ĠClear": 4669,
      "ĠBit": 4670,
      "ensiya": 4671,
      "uweb": 4672,
      "Ġgimbuhaton": 4673,
      "Ð¾Ð²Ð°": 4674,
      "ll": 4675,
      "ĠSet": 4676,
      "ĠSulod": 4677,
      "ĠCity": 4678,
      "ĠNahimutang": 4679,
      "Ġkapanguhaan": 4680,
      "à´¾": 4681,
      "Ġdevelop": 4682,
      "à¦Ĥ": 4683,
      "yrgy": 4684,
      "à¦¾à¦Ĥ": 4685,
      "scribe": 4686,
      "yrgyz": 4687,
      "Ġdaw": 4688,
      "ĠCors": 4689,
      "Ġpagsulti": 4690,
      "ĠChrom": 4691,
      "Ġtuod": 4692,
      "ĠNagt": 4693,
      "Ġnagdugang": 4694,
      "à´Ĥ": 4695,
      "Ġnaningkamot": 4696,
      "Ð¾Ð½": 4697,
      "Ġà¤®": 4698,
      "Ġlimitasyon": 4699,
      "hong": 4700,
      "¤à®": 4701,
      "®à´": 4702,
      "²à´": 4703,
      "ĠLake": 4704,
      "Ġnahuman": 4705,
      "Ġpagluwas": 4706,
      "à´³": 4707,
      "à®´": 4708,
      "à®¿": 4709,
      "Ġkomplikado": 4710,
      "¤à®®": 4711,
      "®à´²à´": 4712,
      "®à´²à´¯": 4713,
      "ping": 4714,
      "vent": 4715,
      "zech": 4716,
      "ĠPost": 4717,
      "Ġkompan": 4718,
      "Ġkaylap": 4719,
      "Ġgrasya": 4720,
      "Ġà´": 4721,
      "Ġà¦¬": 4722,
      "Buhat": 4723,
      "tar": 4724,
      "alia": 4725,
      "Ġtrans": 4726,
      "Ġnaghunahuna": 4727,
      "underb": 4728,
      "}}&": 4729,
      "Ġespiritu": 4730,
      "ĠAlbanian": 4731,
      "nbsp": 4732,
      "Ġpors": 4733,
      "inusa": 4734,
      "aker": 4735,
      "ĠCro": 4736,
      "ihap": 4737,
      "Ġgiga": 4738,
      "Ġà®": 4739,
      "ĠIndiana": 4740,
      "àª°": 4741,
      "àª¾": 4742,
      "ĠRoma": 4743,
      "Ġhitsura": 4744,
      "wiki": 4745,
      "ľàª°": 4746,
      "Ġnad": 4747,
      "ĠDem": 4748,
      "àª¤": 4749,
      "àªľàª°": 4750,
      "Ġpagputos": 4751,
      "à°²": 4752,
      "à«Ģ": 4753,
      "à«ģ": 4754,
      "ĠJavanese": 4755,
      "kop": 4756,
      "tese": 4757,
      "Äģ": 4758,
      "à·": 4759,
      "saad": 4760,
      "ines": 4761,
      "abugnaw": 4762,
      "ĠSte": 4763,
      "ubut": 4764,
      "Ġà°": 4765,
      "à°Ĺ": 4766,
      "ĠVietnamese": 4767,
      "Ġà´®à´²à´¯": 4768,
      "Ġà®¤à®®": 4769,
      "ondo": 4770,
      "Ġkausaban": 4771,
      "isit": 4772,
      "ĠSumala": 4773,
      "ĠPakig": 4774,
      "reland": 4775,
      "istory": 4776,
      "orte": 4777,
      "à±Ĩ": 4778,
      "kansas": 4779,
      "ĠSwedish": 4780,
      "OD": 4781,
      "ax": 4782,
      "tap": 4783,
      "yano": 4784,
      "inabuhi": 4785,
      "Ġpagkag": 4786,
      "Ġduwa": 4787,
      "ĠNganong": 4788,
      "ĠNagk": 4789,
      "AB": 4790,
      "mong": 4791,
      "ahatag": 4792,
      "ĠKyrgyz": 4793,
      "imoa": 4794,
      "ution": 4795,
      "Ġpanudlo": 4796,
      "ĠArkansas": 4797,
      "ĠàªĹ": 4798,
      "Ġcookie": 4799,
      "Ġresponsable": 4800,
      "Ġhapsay": 4801,
      "Äĥ": 4802,
      "Ġhugpong": 4803,
      "ĠDan": 4804,
      "ĠDoll": 4805,
      "ktop": 4806,
      "Ùĩ": 4807,
      "Ġos": 4808,
      "Ġpahibalo": 4809,
      "Ġnawala": 4810,
      "adali": 4811,
      "iche": 4812,
      "Ġpinakadako": 4813,
      "Ġmakadugang": 4814,
      "ĠLouis": 4815,
      "Ġkompaniya": 4816,
      "Ġà°¤": 4817,
      "áŁ": 4818,
      "amatuod": 4819,
      "Ġpagpamaligya": 4820,
      "ĠPaghimo": 4821,
      "Ġcannabis": 4822,
      "à¶": 4823,
      "ungdanan": 4824,
      "ĠBahin": 4825,
      "Ġmagtrabaho": 4826,
      "underbird": 4827,
      "Net": 4828,
      "di": 4829,
      "Ġsag": 4830,
      "too": 4831,
      "ĠBibl": 4832,
      "ĠNah": 4833,
      "Ġpagkah": 4834,
      "nesium": 4835,
      "ĠMichigan": 4836,
      "ulud": 4837,
      "ĠStor": 4838,
      "Ġhotel": 4839,
      "ĠHamp": 4840,
      "ramework": 4841,
      "Ġmopili": 4842,
      "ĠKatungod": 4843,
      "Ġperformance": 4844,
      "ĠCopyright": 4845,
      "ĠDecember": 4846,
      "ja": 4847,
      "ke": 4848,
      "Ġgipadala": 4849,
      "ĠIndustr": 4850,
      "ĠRoman": 4851,
      "ĠTinuod": 4852,
      "ĠIreland": 4853,
      "Ġaspeto": 4854,
      "Ġekonomiya": 4855,
      "anahan": 4856,
      "6667": 4857,
      "ĠCzech": 4858,
      "ĠBet": 4859,
      "ĠTo": 4860,
      "upgrade": 4861,
      "Ġmagdala": 4862,
      "ĠMaltese": 4863,
      "AW": 4864,
      "Ġkuha": 4865,
      "Ġsur": 4866,
      "Ġlan": 4867,
      "ĠMel": 4868,
      "pital": 4869,
      "Ġbantog": 4870,
      "200": 4871,
      "Ġkong": 4872,
      "onames": 4873,
      "Ġdom": 4874,
      "ential": 4875,
      "ambigit": 4876,
      "ulgada": 4877,
      "Ġlawak": 4878,
      "ĠIdaho": 4879,
      "Ġkalabotan": 4880,
      "ail": 4881,
      "ĠPenn": 4882,
      "ĠKamo": 4883,
      "Ġnakad": 4884,
      "Ġoport": 4885,
      "ĠCruz": 4886,
      "nan": 4887,
      "ĠPDF": 4888,
      "Ġmasay": 4889,
      "ious": 4890,
      "Ġdisplay": 4891,
      "ĠExtrusion": 4892,
      "ĠBahasa": 4893,
      "ĠMalagasy": 4894,
      "pli": 4895,
      "inter": 4896,
      "Ġnagtuo": 4897,
      "Ġmalikayan": 4898,
      "Ġstream": 4899,
      "ĠPalihug": 4900,
      "Bot": 4901,
      "baw": 4902,
      "se": 4903,
      "Ġfo": 4904,
      "ĠKaniya": 4905,
      "ault": 4906,
      "shire": 4907,
      "salikway": 4908,
      "ĠComp": 4909,
      "Ġkalag": 4910,
      "lash": 4911,
      "ĠProgr": 4912,
      "Ġitom": 4913,
      "Ġdireksyon": 4914,
      "Ġsimtomas": 4915,
      "Ġlagda": 4916,
      "ĠColorado": 4917,
      "NT": 4918,
      "pulo": 4919,
      "ulu": 4920,
      "Ġpagsulat": 4921,
      "Ġhilaw": 4922,
      "áŀ¶": 4923,
      "Lsjbot": 4924,
      "pekto": 4925,
      "Ġutok": 4926,
      "epend": 4927,
      "Shop": 4928,
      "Ġresistensya": 4929,
      "Ġoportunidad": 4930,
      "uyang": 4931,
      "Ġgear": 4932,
      "ĠBer": 4933,
      "Ġarkit": 4934,
      "Ġunta": 4935,
      "Ġmapal": 4936,
      "Ġresolusyon": 4937,
      "ĠGeo": 4938,
      "ĠRepublikang": 4939,
      "Æ°á»Ŀ": 4940,
      "Ġpatag": 4941,
      "inian": 4942,
      "ĠDo": 4943,
      "Ġnagbag": 4944,
      "Ġpahina": 4945,
      "med": 4946,
      "ĠMay": 4947,
      "ĠKap": 4948,
      "Ġnagsulti": 4949,
      "ylvan": 4950,
      "Ġkrus": 4951,
      "Ġbasahon": 4952,
      "Æ°á»Ŀng": 4953,
      "jar": 4954,
      "antos": 4955,
      "Ġoff": 4956,
      "eles": 4957,
      "Ġpagsulod": 4958,
      "ĠBalaod": 4959,
      "ĠPagkaadik": 4960,
      "Ġlaptop": 4961,
      "ylvania": 4962,
      "PO": 4963,
      "peta": 4964,
      "Ġband": 4965,
      "Ġlum": 4966,
      "ĠLink": 4967,
      "ures": 4968,
      "epende": 4969,
      "ĠIntern": 4970,
      "ĠJer": 4971,
      "Ġmagdula": 4972,
      "ÃŃn": 4973,
      "ADM": 4974,
      "Wiki": 4975,
      "bula": 4976,
      "yt": 4977,
      "ainit": 4978,
      "Ġmubu": 4979,
      "kasad": 4980,
      "sl": 4981,
      "Ġic": 4982,
      "ĠKh": 4983,
      "Ġrehabilit": 4984,
      "urmese": 4985,
      "ĠPenns": 4986,
      "link": 4987,
      "ices": 4988,
      "Wikipedia": 4989,
      "uig": 4990,
      "Ġmawad": 4991,
      "Ġplan": 4992,
      "awi": 4993,
      "Ġaltern": 4994,
      "asalamat": 4995,
      "ĠPennsylvania": 4996,
      "ci": 4997,
      "Ġnakakita": 4998,
      "ĠItaliano": 4999,
      "Ġmapaayo": 5000,
      "ĠDepartamento": 5001,
      "Ġmakapaikag": 5002,
      "mosyon": 5003,
      "adrado": 5004,
      "Ph": 5005,
      "Ġsosyal": 5006,
      "ĠDin": 5007,
      "udyante": 5008,
      "lastic": 5009,
      "Ġpusta": 5010,
      "ĠAt": 5011,
      "ĠInterac": 5012,
      "ĠDakota": 5013,
      "61": 5014,
      "¹Ø±Ø": 5015,
      "Ġsir": 5016,
      "ĠPE": 5017,
      "Ġkanus": 5018,
      "Ġreef": 5019,
      "anhaw": 5020,
      "ĠHampshire": 5021,
      "mit": 5022,
      "Ġcustom": 5023,
      "Ġpagklaro": 5024,
      "loud": 5025,
      "Ġinf": 5026,
      "Ġgiisip": 5027,
      "Ġroulette": 5028,
      "Ġmamum": 5029,
      "Ġmaglakip": 5030,
      "IP": 5031,
      "po": 5032,
      "akh": 5033,
      "ings": 5034,
      "ĠMiss": 5035,
      "Ġpagtubag": 5036,
      "Ġdatabase": 5037,
      "ĠRosa": 5038,
      "¹Ø±Ø¨": 5039,
      "Make": 5040,
      "me": 5041,
      "vp": 5042,
      "agna": 5043,
      "Ġtatak": 5044,
      "ĠAMP": 5045,
      "Ġwork": 5046,
      "ansk": 5047,
      "lic": 5048,
      "eral": 5049,
      "ĠUp": 5050,
      "Ġbalanse": 5051,
      "Geonames": 5052,
      "jekt": 5053,
      "asiugda": 5054,
      "ĠSes": 5055,
      "reto": 5056,
      "Ġnakahimo": 5057,
      "ĠWoop": 5058,
      "Dot": 5059,
      "Framework": 5060,
      "hes": 5061,
      "ks": 5062,
      "pang": 5063,
      "Ġah": 5064,
      "ington": 5065,
      "ĠSiy": 5066,
      "ohn": 5067,
      "Ġ97": 5068,
      "Ġbalbula": 5069,
      "ĠPolicy": 5070,
      "Ġbukas": 5071,
      "Ġgibaligya": 5072,
      "Projekt": 5073,
      "].}}": 5074,
      "NetWiki": 5075,
      "DotNetWiki": 5076,
      "DotNetWikiBot": 5077,
      "hen": 5078,
      "ius": 5079,
      "Ġpagkad": 5080,
      "ĠPolish": 5081,
      "Ġtool": 5082,
      "sol": 5083,
      "Ġmes": 5084,
      "akyas": 5085,
      "Ġbenepisyo": 5086,
      "Ġprov": 5087,
      "ĠUSB": 5088,
      "Ġagup": 5089,
      "ĠWoopShop": 5090,
      "81": 5091,
      "Ġlaser": 5092,
      "Ġcr": 5093,
      "ĠUG": 5094,
      "Ġ59": 5095,
      "Ġnagtala": 5096,
      "ĠItalian": 5097,
      "yento": 5098,
      "ĠÑ": 5099,
      "ĠDiha": 5100,
      "skaya": 5101,
      "ĠPagkap": 5102,
      "Ġrouter": 5103,
      "Ġç": 5104,
      "inux": 5105,
      "Ġ99": 5106,
      "82": 5107,
      "Ġmanan": 5108,
      "abasa": 5109,
      "Ġle": 5110,
      "Ġframe": 5111,
      "Ġrating": 5112,
      "ension": 5113,
      "undo": 5114,
      "Ġipadayon": 5115,
      "Ġkatingad": 5116,
      "Ġemp": 5117,
      "inud": 5118,
      "ĠSex": 5119,
      "ĠNeb": 5120,
      "ĠLos": 5121,
      "ogg": 5122,
      "Ã¢n": 5123,
      "Clear": 5124,
      "Kalk": 5125,
      "butan": 5126,
      "Ĥ¬": 5127,
      "ĠMod": 5128,
      "Ġpagsukol": 5129,
      "tainless": 5130,
      "ĠUkrainian": 5131,
      "Ġicon": 5132,
      "Kalkulado": 5133,
      "balik": 5134,
      "kin": 5135,
      "pot": 5136,
      "Ġsid": 5137,
      "ĠPers": 5138,
      "Ġpagkakaron": 5139,
      "Ġobl": 5140,
      "cohol": 5141,
      "Ġtest": 5142,
      "amugna": 5143,
      "Ġ2019": 5144,
      "Ġsalamat": 5145,
      "raska": 5146,
      "ĠAbr": 5147,
      "Ġawtomatikong": 5148,
      "Ġtigdesinyo": 5149,
      "Ġporsyento": 5150,
      "ĠKah": 5151,
      "Ġplato": 5152,
      "ĠMary": 5153,
      "ernong": 5154,
      "Ġnewsletter": 5155,
      "ĠNebraska": 5156,
      "omi": 5157,
      "Ġpanel": 5158,
      "utob": 5159,
      "ĠThunderbird": 5160,
      "ĠLatin": 5161,
      "64": 5162,
      "analisar": 5163,
      "Ġpuy": 5164,
      "Ġnut": 5165,
      "ĠMus": 5166,
      "Ġmakakaplag": 5167,
      "ĠMontana": 5168,
      "olt": 5169,
      "Ġpagpak": 5170,
      "ense": 5171,
      "Ġ86": 5172,
      "Ġkabubut": 5173,
      "issipp": 5174,
      "Ġminutos": 5175,
      "ĠChrome": 5176,
      "issippi": 5177,
      "rid": 5178,
      "alom": 5179,
      "itian": 5180,
      "Ġbasaha": 5181,
      "esisyon": 5182,
      "ĠSr": 5183,
      "imbong": 5184,
      "ĠKristohan": 5185,
      "Ġninggamit": 5186,
      "Ġmolungtad": 5187,
      "Ġbuhok": 5188,
      "Ġpakete": 5189,
      "ao": 5190,
      "hatag": 5191,
      "zer": 5192,
      "Ġhini": 5193,
      "ĠLinux": 5194,
      "Ġusbon": 5195,
      "ĠKansas": 5196,
      "ĠEnero": 5197,
      "tim": 5198,
      "ĠSystem": 5199,
      "Ġawtor": 5200,
      "weg": 5201,
      "adal": 5202,
      "Ġsel": 5203,
      "ĠPo": 5204,
      "ĠCB": 5205,
      "Ġ2018": 5206,
      "Ġtransport": 5207,
      "ĠNev": 5208,
      "Ġgipangita": 5209,
      "Ġgihisgutan": 5210,
      "Ġkapild": 5211,
      "bourg": 5212,
      "à¥ĩ": 5213,
      "type": 5214,
      "ĠÄĮ": 5215,
      "wegian": 5216,
      "Ġkit": 5217,
      "ĠTor": 5218,
      "ĠNat": 5219,
      "Ġkatiling": 5220,
      "Ġkatungdanan": 5221,
      "Ġmadugangan": 5222,
      "ĠHebrew": 5223,
      "ĠFAQ": 5224,
      "inusara": 5225,
      "Ġkapildihan": 5226,
      "pol": 5227,
      "andong": 5228,
      "Ġtrapiko": 5229,
      "à¤ª": 5230,
      "Ġmagpakita": 5231,
      "come": 5232,
      "Ġpinakamaayo": 5233,
      "Ġcomment": 5234,
      "ĠAustralia": 5235,
      "kat": 5236,
      "arge": 5237,
      "Ġpagpabilin": 5238,
      "ĠPagl": 5239,
      "Ġpagsubay": 5240,
      "à¤²": 5241,
      "Ġmakaapekto": 5242,
      "Ġmopalit": 5243,
      "Ġtherm": 5244,
      "Ġcomm": 5245,
      "Ġnakabase": 5246,
      "Ġkinabig": 5247,
      "redit": 5248,
      "PhÆ°á»Ŀng": 5249,
      "74": 5250,
      "Ġtalan": 5251,
      "Ġnakadawat": 5252,
      "ĠCreole": 5253,
      "ĠGikinahanglan": 5254,
      "ĠNaghatag": 5255,
      "bar": 5256,
      "lon": 5257,
      "uf": 5258,
      "arch": 5259,
      "ðŁ": 5260,
      "orp": 5261,
      "ĠSak": 5262,
      "ĠPanahon": 5263,
      "ĠPagtambal": 5264,
      "ĠHaitian": 5265,
      "Ġmohunong": 5266,
      "Ġhardware": 5267,
      "Ġmagtutuo": 5268,
      "arunganon": 5269,
      "Ġsmartphone": 5270,
      "lavica": 5271,
      "eranto": 5272,
      "YON": 5273,
      "ĽáĪ": 5274,
      "łáĪ": 5275,
      "ŃáĬ": 5276,
      "arc": 5277,
      "umd": 5278,
      "Ġmakag": 5279,
      "Ġ120": 5280,
      "ĠLit": 5281,
      "Ġà¤¨": 5282,
      "Ġgipatik": 5283,
      "áĬłáĪ": 5284,
      "Ġgraphic": 5285,
      "ĽáĪŃáĬ": 5286,
      "áĬłáĪĽáĪŃáĬ": 5287,
      "áĬłáĪĽáĪŃáĬĽ": 5288,
      "iw": 5289,
      "ungan": 5290,
      "ĠTig": 5291,
      "ĠâĤ¬": 5292,
      "Ġdaotan": 5293,
      "ĠSwahili": 5294,
      "Traditional": 5295,
      "onan": 5296,
      "Ġtim": 5297,
      "Ġkasad": 5298,
      "ĠJohn": 5299,
      "ĠâĢĺ": 5300,
      "ave": 5301,
      "Ġsilang": 5302,
      "vertis": 5303,
      "ĠUbos": 5304,
      "ym": 5305,
      "Ġ{": 5306,
      "atian": 5307,
      "ahiangay": 5308,
      "ĠSamo": 5309,
      "ugyan": 5310,
      "Ġpromosyon": 5311,
      "abol": 5312,
      "ikdan": 5313,
      "ĠKey": 5314,
      "Ġmakasa": 5315,
      "Ġpagpagawas": 5316,
      "ĠLok": 5317,
      "Ġedukasyon": 5318,
      "ĠWebsite": 5319,
      "AC": 5320,
      "ĠáĬłáĪĽáĪŃáĬĽ": 5321,
      "ĠHunga": 5322,
      "lobal": 5323,
      "heet": 5324,
      "Ġ98": 5325,
      "ĠEsperanto": 5326,
      "ederlands": 5327,
      "ĠMississippi": 5328,
      "rain": 5329,
      "Ġkutob": 5330,
      "ady": 5331,
      "iso": 5332,
      "undan": 5333,
      "ĠSearch": 5334,
      "ĠMakita": 5335,
      "Ġhugna": 5336,
      "ĠUnit": 5337,
      "Ġhimaya": 5338,
      "Ġkeyboard": 5339,
      "rat": 5340,
      "zakh": 5341,
      "abig": 5342,
      "ĠCamp": 5343,
      "ĠNorwegian": 5344,
      "atuman": 5345,
      "Ġtext": 5346,
      "Ġbuot": 5347,
      "otho": 5348,
      "ĠPagsa": 5349,
      "Ġnahigugma": 5350,
      "ĠNagl": 5351,
      "Ġmobiya": 5352,
      "ized": 5353,
      "Ġsert": 5354,
      "ĠLouisiana": 5355,
      "bro": 5356,
      "yeka": 5357,
      "Ġesk": 5358,
      "Ġwireless": 5359,
      "TO": 5360,
      "uit": 5361,
      "Ġli": 5362,
      "ician": 5363,
      "Ġpagtaas": 5364,
      "Ġyunit": 5365,
      "Ġpakigb": 5366,
      "venska": 5367,
      "unda": 5368,
      "Ġlay": 5369,
      "ĠPST": 5370,
      "enc": 5371,
      "ĠGiya": 5372,
      "coin": 5373,
      "Ġrelih": 5374,
      "ĠConnect": 5375,
      "ĠKorean": 5376,
      "II": 5377,
      "ias": 5378,
      "isda": 5379,
      "Ġbiyahe": 5380,
      "esyon": 5381,
      "epto": 5382,
      "ĠVers": 5383,
      "Ġipahibalo": 5384,
      "tory": 5385,
      "3333333333333333333333333333333333333333333333333333333333333333333333333333333333333333333333333333333333333333333333333333333333333333333333333333333333333333333333333333333333333333333333333333333333333333333333333333333333333333333333333333333333333333": 5386,
      "ikano": 5387,
      "ĠPangita": 5388,
      "Ġsumusunod": 5389,
      "Ġikaduhang": 5390,
      "Ġrehabilitasyon": 5391,
      "be": 5392,
      "vian": 5393,
      "ĠWat": 5394,
      "utol": 5395,
      "Ġestudyante": 5396,
      "Ġgilauman": 5397,
      "UM": 5398,
      "luw": 5399,
      "ahang": 5400,
      "adak": 5401,
      "Ġtime": 5402,
      "ĠFinn": 5403,
      "Ġmaghunahuna": 5404,
      "Ġdesktop": 5405,
      "Ġkopya": 5406,
      "agay": 5407,
      "Ġkahi": 5408,
      "ĠBasa": 5409,
      "Ġmagm": 5410,
      "indog": 5411,
      "Ġgisulti": 5412,
      "ission": 5413,
      "Ġidugang": 5414,
      "NA": 5415,
      "uvi": 5416,
      "val": 5417,
      "Ġ''": 5418,
      "aylap": 5419,
      "arus": 5420,
      "Ġpangita": 5421,
      "ĠDistrict": 5422,
      "Al": 5423,
      "ner": 5424,
      "Ġmark": 5425,
      "ĠDuol": 5426,
      "ĠHar": 5427,
      "obre": 5428,
      "Ġnahabilin": 5429,
      "hona": 5430,
      "Ġigsoon": 5431,
      "Ġrespons": 5432,
      "ichewa": 5433,
      "IO": 5434,
      "iyo": 5435,
      "pop": 5436,
      "tol": 5437,
      "ĠHealth": 5438,
      "Ġsulundon": 5439,
      "Ġkabahin": 5440,
      "ĠZulu": 5441,
      "Ġespirit": 5442,
      "obyerno": 5443,
      "mium": 5444,
      "ther": 5445,
      "ven": 5446,
      "Ġkump": 5447,
      "upad": 5448,
      "ĠMaryland": 5449,
      "ĠNevada": 5450,
      "MC": 5451,
      "Tunes": 5452,
      "ĠAle": 5453,
      "Ġgran": 5454,
      "ĠSerbisyo": 5455,
      "ĠMos": 5456,
      "Ġhugaw": 5457,
      "uksyon": 5458,
      "Ġcredit": 5459,
      "upay": 5460,
      "Ġgihulagway": 5461,
      "Ġ06": 5462,
      "Ġmabasa": 5463,
      "subscribe": 5464,
      "ĠDinhi": 5465,
      "\":": 5466,
      "sign": 5467,
      "ĠCustom": 5468,
      "ĠTawo": 5469,
      "Ġadik": 5470,
      "etisyon": 5471,
      "ĠHinuon": 5472,
      "usalem": 5473,
      "ĠMark": 5474,
      "walip": 5475,
      "uthaw": 5476,
      "Ġibaligya": 5477,
      "sya": 5478,
      "apat": 5479,
      "ĠBisa": 5480,
      "Ġprakt": 5481,
      "Ġpanon": 5482,
      "Ġgitipigan": 5483,
      "Ġpaborito": 5484,
      "ĠRomanian": 5485,
      "ĠSamoan": 5486,
      "focus": 5487,
      "sama": 5488,
      "Ġdol": 5489,
      "ĠSud": 5490,
      "ĠKab": 5491,
      "Ġadvanced": 5492,
      "Ġkomers": 5493,
      "Ġ05": 5494,
      "ĠXbox": 5495,
      "ĠKazakh": 5496,
      "ĠFinnish": 5497,
      "Ø©": 5498,
      "Ġputhaw": 5499,
      "ading": 5500,
      "oda": 5501,
      "ĠKana": 5502,
      "elic": 5503,
      "oper": 5504,
      "ĠUnsay": 5505,
      "ĠParis": 5506,
      "eÅ¡tina": 5507,
      "ĠIrish": 5508,
      "ming": 5509,
      "zhou": 5510,
      "ĠCam": 5511,
      "embourg": 5512,
      "Ġamahan": 5513,
      "ĠChichewa": 5514,
      "ĠLuis": 5515,
      "Ġkataposan": 5516,
      "by": 5517,
      "ugh": 5518,
      "Ġmakompleto": 5519,
      "ĠHmong": 5520,
      "Ġkatukma": 5521,
      "Ġnagtumong": 5522,
      "anganak": 5523,
      "Ġkondado": 5524,
      "imation": 5525,
      "Ġkinahanglang": 5526,
      "ives": 5527,
      "awasan": 5528,
      "ĠSesotho": 5529,
      "ĠiTunes": 5530,
      "Ġkasarangang": 5531,
      "ivers": 5532,
      "ĠPagpangita": 5533,
      "Ġasero": 5534,
      "ĠServ": 5535,
      "celand": 5536,
      "Ġdefault": 5537,
      "RL": 5538,
      "rag": 5539,
      "Ġwanang": 5540,
      "ĠReco": 5541,
      "Ġpanagh": 5542,
      "Ġlami": 5543,
      "ĠArt": 5544,
      "Ġepis": 5545,
      "Ġihatag": 5546,
      "erbaij": 5547,
      "ĠPresyo": 5548,
      "ĠRecovery": 5549,
      "air": 5550,
      "ingo": 5551,
      "ĠShona": 5552,
      "ids": 5553,
      "Ġpanimalay": 5554,
      "Ġgitakda": 5555,
      "Ġplate": 5556,
      "Ġmadugay": 5557,
      "ctr": 5558,
      "Ġdad": 5559,
      "Ġpositibo": 5560,
      "Ġhinimo": 5561,
      "Ġgidala": 5562,
      "Ġ96": 5563,
      "amping": 5564,
      "ĠBlack": 5565,
      "ĠScott": 5566,
      "gon": 5567,
      "Ġqu": 5568,
      "ongol": 5569,
      "ĠHinum": 5570,
      "Ġnakas": 5571,
      "ansela": 5572,
      "Ġanti": 5573,
      "ĠPunj": 5574,
      "ĠâĨĳ": 5575,
      "px": 5576,
      "aware": 5577,
      "Ġ48": 5578,
      "Ġtrack": 5579,
      "Ġbinuhi": 5580,
      "Ġlawom": 5581,
      "reatment": 5582,
      "Ġtransportasyon": 5583,
      "Ġmabuhi": 5584,
      "Ġdeal": 5585,
      "igar": 5586,
      "ĠGame": 5587,
      "ebrero": 5588,
      "Ġkombinasyon": 5589,
      "ĠHungarian": 5590,
      "63": 5591,
      "Ġtul": 5592,
      "ĠSus": 5593,
      "ĠLaw": 5594,
      "Ġpagkam": 5595,
      "Ġgisulat": 5596,
      "background": 5597,
      "gaygay": 5598,
      "kal": 5599,
      "ingnan": 5600,
      "ibog": 5601,
      "ĠRSS": 5602,
      "Ġfl": 5603,
      "Ġfeature": 5604,
      "ĠAnt": 5605,
      "istry": 5606,
      "Ġmadan": 5607,
      "ungag": 5608,
      "riend": 5609,
      "Ġpagpatuman": 5610,
      "ĠPrev": 5611,
      "ĠLuxembourg": 5612,
      "hot": 5613,
      "lamo": 5614,
      "Ġpagla": 5615,
      "ĠSunod": 5616,
      "usog": 5617,
      "ugdan": 5618,
      "ukas": 5619,
      "ĠEm": 5620,
      "Ġpagsukod": 5621,
      "Ġgihunahuna": 5622,
      "Ġindepend": 5623,
      "Ġgawasnon": 5624,
      "Ġikatulong": 5625,
      "Ġadministr": 5626,
      "ĠBelarus": 5627,
      "Ġyou": 5628,
      "6666666666666666666666666666666666666666666666666666666666666666666666666666666666666666666666666666666666666666666666666666666666666666666666666666666666666666666666666666666666666666666666666666666666666666666666666666666666666666666666666666666666666666": 5629,
      "Ġtigpamuhunan": 5630,
      "ĠElectr": 5631,
      "erbaijani": 5632,
      "atar": 5633,
      "Ġlapad": 5634,
      "ĠSur": 5635,
      "Ġhome": 5636,
      "ĠIb": 5637,
      "ĠNederlands": 5638,
      "Ġpagkatawo": 5639,
      "âĢİ": 5640,
      "Ġwater": 5641,
      "Ġgibag": 5642,
      "Ġmakatarunganon": 5643,
      "ĠDanish": 5644,
      "jarati": 5645,
      "cis": 5646,
      "gulo": 5647,
      "ĠSvenska": 5648,
      "ĠBlog": 5649,
      "ĠHin": 5650,
      "ĠHill": 5651,
      "Ġmiabot": 5652,
      "hala": 5653,
      "krip": 5654,
      "inch": 5655,
      "ĠSP": 5656,
      "Ġhan": 5657,
      "ĠBuck": 5658,
      "ĠGro": 5659,
      "Ġpagtuman": 5660,
      "Ġnagtan": 5661,
      "Ġtaga": 5662,
      "ĠMakat": 5663,
      "ĠTaj": 5664,
      "ĠPagkapribado": 5665,
      "iuna": 5666,
      "yembre": 5667,
      "Ġsesyon": 5668,
      "ĠPilia": 5669,
      "ĠPebrero": 5670,
      "report": 5671,
      "ĠLac": 5672,
      "Ġmoagi": 5673,
      "ĠRoad": 5674,
      "ĠDaghan": 5675,
      "ithuan": 5676,
      "¹Ø±Ø¨ÙĬ": 5677,
      "62": 5678,
      "73": 5679,
      "anga": 5680,
      "aylo": 5681,
      "ĠCap": 5682,
      "ĠBuh": 5683,
      "ĠNext": 5684,
      "Ġcons": 5685,
      "Ġunom": 5686,
      "Ġpalisiya": 5687,
      "ĠKanato": 5688,
      "yanmar": 5689,
      "ĠLao": 5690,
      "Ġbre": 5691,
      "Ġmausab": 5692,
      "ĠIceland": 5693,
      "eplay": 5694,
      "Ġmanag": 5695,
      "Ġmaluho": 5696,
      "Ġmosulay": 5697,
      "ĠOption": 5698,
      "Ġpanginahanglanon": 5699,
      "ĠAzerbaijani": 5700,
      "ĠJerusalem": 5701,
      "Buck": 5702,
      "Ġmamatay": 5703,
      "Ġkwalip": 5704,
      "iles": 5705,
      "Ġdistr": 5706,
      "oss": 5707,
      "ĠCas": 5708,
      "Ġgipahin": 5709,
      "egr": 5710,
      "Ġkasabutan": 5711,
      "Ġgisusi": 5712,
      "Ġkwadrado": 5713,
      "ĠMacedonian": 5714,
      "Ġ>": 5715,
      "ayeg": 5716,
      "Ġtap": 5717,
      "ĠSant": 5718,
      "rep": 5719,
      "ĠHe": 5720,
      "eposito": 5721,
      "ugas": 5722,
      "ugayon": 5723,
      "Ġgituyo": 5724,
      "arty": 5725,
      "ĠMarat": 5726,
      "Ġibalik": 5727,
      "sagop": 5728,
      "ĠHulyo": 5729,
      "Ã¢nÄĥ": 5730,
      "ĠPunjabi": 5731,
      "Ġdal": 5732,
      "ikap": 5733,
      "icut": 5734,
      "ĠUy": 5735,
      "anansya": 5736,
      "Ġkahusa": 5737,
      "Ġsample": 5738,
      "Ġ57": 5739,
      "ĠGujarati": 5740,
      "tunga": 5741,
      "Ġadvertis": 5742,
      "ĠNov": 5743,
      "ĠRiver": 5744,
      "Ġmatubag": 5745,
      "Ġlainlain": 5746,
      "Ġkompetisyon": 5747,
      "ÐµÐ»": 5748,
      "Ð´": 5749,
      "alis": 5750,
      "Ġusag": 5751,
      "Ġnagg": 5752,
      "Ġ500": 5753,
      "Ġmodernong": 5754,
      "Ġmagtutudlo": 5755,
      "Ġapostoles": 5756,
      "ithuanian": 5757,
      "bentaha": 5758,
      "just": 5759,
      "Ã´": 5760,
      "err": 5761,
      "aro": 5762,
      "upe": 5763,
      "ĠUnsang": 5764,
      "ixel": 5765,
      "rehistro": 5766,
      "Ġgumagamit": 5767,
      "£áł": 5768,
      "Ġáł": 5769,
      "Ġá®": 5770,
      "Ġdib": 5771,
      "ĠTerm": 5772,
      "ĠID": 5773,
      "Ġpaingon": 5774,
      "Ġgipalit": 5775,
      "wagtang": 5776,
      "Ġpatay": 5777,
      "ĠPagsulay": 5778,
      "áł¡": 5779,
      "áł£áł": 5780,
      "ĠLatvian": 5781,
      "Ġistraktura": 5782,
      "ĠÐľÐ¾Ð²Ð°": 5783,
      "Ġorganisasyon": 5784,
      "item": 5785,
      "ĠSpr": 5786,
      "ĠMyanmar": 5787,
      "ĠNang": 5788,
      "ĠEstonian": 5789,
      "Ġberde": 5790,
      "ulogan": 5791,
      "ĠAgosto": 5792,
      "ĠDelaware": 5793,
      "Ġresidential": 5794,
      "ĠConnecticut": 5795,
      "Å³": 5796,
      "Ġph": 5797,
      "ithin": 5798,
      "Ġstainless": 5799,
      "Ġkaliw": 5800,
      "ĠJUAN": 5801,
      "Ġorgan": 5802,
      "Ġhinumdom": 5803,
      "Ġprogram": 5804,
      "ÑģÐºÐ°Ñ": 5805,
      "Ġkonsepto": 5806,
      "ological": 5807,
      "Ġlikido": 5808,
      "uwebles": 5809,
      "ĠPersian": 5810,
      "ĠÄĮeÅ¡tina": 5811,
      "ĠWaters": 5812,
      "Simp": 5813,
      "ĠáĢĻ": 5814,
      "saka": 5815,
      "inan": 5816,
      "ikas": 5817,
      "ĠSind": 5818,
      "ĠMongol": 5819,
      "âĢĺ": 5820,
      "etuvi": 5821,
      "áĢº": 5822,
      "áĢ¼": 5823,
      "áĢĶ": 5824,
      "Ġsakop": 5825,
      "Ġnganong": 5826,
      "ĠSlovenian": 5827,
      "obyembre": 5828,
      "fied": 5829,
      "etuviÅ³": 5830,
      "Ûĩ": 5831,
      "ipo": 5832,
      "Ġkatu": 5833,
      "ulator": 5834,
      "Ġkatilingban": 5835,
      "ÑģÐºÐ°Ñı": 5836,
      "aon": 5837,
      "ahigayon": 5838,
      "Ġsig": 5839,
      "ĠTin": 5840,
      "ubot": 5841,
      "ĠLithuanian": 5842,
      "ĠFile": 5843,
      "Ġkahadlok": 5844,
      "ĠChat": 5845,
      "Ġgidawat": 5846,
      "quare": 5847,
      "ĠÐ¡ÑĢÐ¿ÑģÐºÐ¸": 5848,
      "ektura": 5849,
      "Ġhunahunaon": 5850,
      "Ġbinary": 5851,
      "Ġkrim": 5852,
      "Ġmadanihon": 5853,
      "ĠPrevious": 5854,
      "ÐµÐ»Ð°ÑĢ": 5855,
      "UD": 5856,
      "Ġimo": 5857,
      "ĠBalay": 5858,
      "ĠIS": 5859,
      "eguro": 5860,
      "Ġabante": 5861,
      "ÑĥÑģÐºÐ°Ñı": 5862,
      "ĠWoL": 5863,
      "Ġterapiya": 5864,
      "Ġmahinungdanon": 5865,
      "ĠScottish": 5866,
      "ĠMarathi": 5867,
      "ÐµÐ»Ð°ÑĢÑĥÑģÐºÐ°Ñı": 5868,
      "St": 5869,
      "Ġgen": 5870,
      "ĠSug": 5871,
      "lanaw": 5872,
      "dasig": 5873,
      "vieÅ¡": 5874,
      "vieÅ¡u": 5875,
      "out": 5876,
      "ui": 5877,
      "Ġmibal": 5878,
      "inc": 5879,
      "ates": 5880,
      "imba": 5881,
      "Ġlungag": 5882,
      "ĠSaf": 5883,
      "charge": 5884,
      "Ġgiila": 5885,
      "iran": 5886,
      "ĠAduna": 5887,
      "ĠMarso": 5888,
      "uct": 5889,
      "Ġkurso": 5890,
      "Ġelectric": 5891,
      "ĠSuomi": 5892,
      "Ġinstrumento": 5893,
      "Kur": 5894,
      "negosyo": 5895,
      "Ġpil": 5896,
      "ĠCons": 5897,
      "Ġcap": 5898,
      "Ġpagkamat": 5899,
      "uyog": 5900,
      "ÐºÐµ": 5901,
      "herlands": 5902,
      "Ġext": 5903,
      "ropa": 5904,
      "Ġhimuon": 5905,
      "Å¡Äįina": 5906,
      "Ġistilo": 5907,
      "oggle": 5908,
      "Ad": 5909,
      "Pal": 5910,
      "ĠPower": 5911,
      "ĠPVC": 5912,
      "Ġisla": 5913,
      "ĠGikuha": 5914,
      "ĠGaelic": 5915,
      "ĠBasque": 5916,
      "Ġmultip": 5917,
      "Ġtouch": 5918,
      "ulma": 5919,
      "ĠKing": 5920,
      "Ġpaghulagway": 5921,
      "Ġgidumala": 5922,
      "risian": 5923,
      "ript": 5924,
      "Ġkaum": 5925,
      "Ġstock": 5926,
      "ĠMot": 5927,
      "ĠKani": 5928,
      "ĠNobyembre": 5929,
      "andar": 5930,
      "lified": 5931,
      "Ġkabag": 5932,
      "ĠPagpakig": 5933,
      "ĠAposto": 5934,
      "ĠCroatian": 5935,
      "kasadpan": 5936,
      "ĠBuhok": 5937,
      "300": 5938,
      "Un": 5939,
      "hip": 5940,
      "jection": 5941,
      "isy": 5942,
      "ulugan": 5943,
      "etic": 5944,
      "ihi": 5945,
      "Ġinila": 5946,
      "Ġ2010": 5947,
      "ĠKann": 5948,
      "Ġoutpatient": 5949,
      "haric": 5950,
      "Simplified": 5951,
      "balay": 5952,
      "pam": 5953,
      "Ġpondo": 5954,
      "Ġdoble": 5955,
      "Ġgobyerno": 5956,
      "urs": 5957,
      "upload": 5958,
      "Ġania": 5959,
      "ĠKanako": 5960,
      "ĠKinsa": 5961,
      "ĠCatalan": 5962,
      "Ġebid": 5963,
      "ĠHawaiian": 5964,
      "ĠNepali": 5965,
      "ĠTajik": 5966,
      "Kurman": 5967,
      "ĠKannada": 5968,
      "aa": 5969,
      "ler": 5970,
      "è´": 5971,
      "agon": 5972,
      "ĠDry": 5973,
      "iyaan": 5974,
      "ĠHun": 5975,
      "Ġpaghatud": 5976,
      "Ġpanahona": 5977,
      "ĠEspes": 5978,
      "ĠKurdish": 5979,
      "Kurmanji": 5980,
      "ĠSub": 5981,
      "ĠDev": 5982,
      "eline": 5983,
      "Ġ1000": 5984,
      "ĠHol": 5985,
      "Ġdios": 5986,
      "Ġair": 5987,
      "Ġtigulang": 5988,
      "ĠAmharic": 5989,
      "Ġregulasyon": 5990,
      "echnology": 5991,
      "Burmese": 5992,
      "Ġtamb": 5993,
      "eri": 5994,
      "Ġgang": 5995,
      "ensa": 5996,
      "ĠTabang": 5997,
      "ĠFrisian": 5998,
      "Ġgipasabut": 5999,
      "109": 6000,
      "ĠAccount": 6001,
      "asaylo": 6002,
      "sterdam": 6003,
      "ĠKhmer": 6004,
      "adalupe": 6005,
      "ĠBelarusian": 6006,
      "ĠMongolian": 6007,
      "Ġmem": 6008,
      "ares": 6009,
      "amic": 6010,
      "ĠSmart": 6011,
      "ĠKas": 6012,
      "idth": 6013,
      "âĢĵ": 6014,
      "Ġnakah": 6015,
      "Ġpagsulbad": 6016,
      "Ġplug": 6017,
      "ashto": 6018,
      "ĠGalician": 6019,
      "Ġsensor": 6020,
      "agsama": 6021,
      "hite": 6022,
      "Ġkaaway": 6023,
      "Ġdown": 6024,
      "ĠPosible": 6025,
      "ĠMis": 6026,
      "ĠBabaye": 6027,
      "ĠLo": 6028,
      "Ġgidili": 6029,
      "ĠMaori": 6030,
      "ĠXhosa": 6031,
      "ĠÃģ": 6032,
      "ĠWelsh": 6033,
      "ĠIcelandic": 6034,
      "IF": 6035,
      "Ġehersisyo": 6036,
      "umpay": 6037,
      "upak": 6038,
      "chat": 6039,
      "ires": 6040,
      "Ð°ÐºÐµ": 6041,
      "Ġmagkinahanglan": 6042,
      "ĠCorsican": 6043,
      "Ð´Ð¾Ð½": 6044,
      "ĠSindhi": 6045,
      "VD": 6046,
      "ĠStr": 6047,
      "ĠPashto": 6048,
      "Ġgameplay": 6049,
      "101": 6050,
      "Ġ04": 6051,
      "Ġlibr": 6052,
      "creens": 6053,
      "Ġhilo": 6054,
      "ĠBosnian": 6055,
      "ĠNetherlands": 6056,
      "ĠSinhala": 6057,
      "Ġhumok": 6058,
      "Ġlanaw": 6059,
      "Ġalternatibo": 6060,
      "ĠLuxembourgish": 6061,
      "Ð°ÐºÐµÐ´Ð¾Ð½": 6062,
      "Ð°ÐºÐµÐ´Ð¾Ð½ÑģÐºÐ¸": 6063,
      "An": 6064,
      "IC": 6065,
      "uak": 6066,
      "Ġpulgada": 6067,
      "Ġne": 6068,
      "ĠPangutana": 6069,
      "ips": 6070,
      "ibers": 6071,
      "rea": 6072,
      "istic": 6073,
      "loy": 6074,
      "Ġgasa": 6075,
      "Ġmonyeka": 6076,
      "åĥķãģ¯åı¯æĦĽãģĦåĥķãģ¯åı¯æĦĽãģĦåĥķãģ¯åı¯æĦĽãģĦåĥķãģ¯åı¯æĦĽãģĦåĥķãģ¯åı¯æĦĽãģĦåĥķãģ¯åı¯æĦĽãģĦåĥķãģ¯åı¯æĦĽãģĦåĥķãģ¯åı¯æĦĽãģĦåĥķãģ¯åı¯æĦĽãģĦåĥķãģ¯åı¯æĦĽãģĦåĥķãģ¯åı¯æĦĽãģĦåĥķãģ¯åı¯æĦĽãģĦåĥķãģ¯åı¯æĦĽãģĦåĥķãģ¯åı¯æĦĽãģĦåĥķãģ¯åı¯æĦĽãģĦåĥķãģ¯åı¯æĦĽãģĦåĥķãģ¯åı¯æĦĽãģĦåĥķãģ¯åı¯æĦĽãģĦåĥķãģ¯åı¯æĦĽãģĦåĥķãģ¯åı¯æĦĽãģĦåĥķãģ¯åı¯æĦĽãģĦåĥķãģ¯åı¯æĦĽãģĦåĥķãģ¯åı¯æĦĽãģĦåĥķãģ¯åı¯æĦĽãģĦåĥķãģ¯åı¯æĦĽãģĦåĥķãģ¯åı¯æĦĽãģĦåĥķãģ¯åı¯æĦĽãģĦåĥķãģ¯åı¯æĦĽãģĦåĥķãģ¯åı¯æĦĽãģĦåĥķãģ¯åı¯æĦĽãģĦåĥķãģ¯åı¯æĦĽãģĦåĥķãģ¯åı¯æĦĽãģĦ": 6077,
      "bet": 6078,
      "ging": 6079,
      "qip": 6080,
      "Ã²": 6081,
      "anggo": 6082,
      "Ġta": 6083,
      "Ġbilding": 6084,
      "ume": 6085,
      "ĠLakang": 6086,
      "Ġpagtambong": 6087,
      "estinasyon": 6088,
      "sour": 6089,
      "rekord": 6090,
      "ĠRomÃ¢nÄĥ": 6091,
      "ĠKasay": 6092,
      "ĠGidawat": 6093,
      "Ġnega": 6094,
      "Ġtudlo": 6095,
      "Ġblock": 6096,
      "Ġpagkontak": 6097,
      "emya": 6098,
      "Ġ2017": 6099,
      "ashion": 6100,
      "omendasyon": 6101,
      "saksyon": 6102,
      "leyado": 6103,
      "Ġhydro": 6104,
      "Ġempleyado": 6105,
      "Ã¬": 6106,
      "Ñĩ": 6107,
      "įsl": 6108,
      "Ġkaun": 6109,
      "ĠGar": 6110,
      "Ġkand": 6111,
      "tery": 6112,
      "ibuok": 6113,
      "Ġkangitngit": 6114,
      "Ġkonsum": 6115,
      "Ġebanghelyo": 6116,
      "ĠSweden": 6117,
      "Ø±Ø¯ÙĪ": 6118,
      "Ġkaraan": 6119,
      "įslenska": 6120,
      "get": 6121,
      "Ġsab": 6122,
      "Ġsan": 6123,
      "ĠToggle": 6124,
      "Ġadres": 6125,
      "opan": 6126,
      "Ġkalik": 6127,
      "iri": 6128,
      "Ġnagtinguha": 6129,
      "Ġgibase": 6130,
      "Ġ92": 6131,
      "sagol": 6132,
      "TS": 6133,
      "sala": 6134,
      "Ġsukod": 6135,
      "ugutan": 6136,
      "ukan": 6137,
      "ĠUropa": 6138,
      "Ġinput": 6139,
      "andom": 6140,
      "ĠVer": 6141,
      "Ġ55": 6142,
      "Ġtumoy": 6143,
      "ãĥĿãĥĿãĥĿãĥĿãĥĿãĥĿãĥĿãĥĿãĥĿãĥĿãĥĿãĥĿãĥĿãĥĿãĥĿãĥĿãĥĿãĥĿãĥĿãĥĿãĥĿãĥĿãĥĿãĥĿãĥĿãĥĿãĥĿãĥĿãĥĿãĥĿãĥĿãĥĿ": 6144,
      "jo": 6145,
      "kl": 6146,
      "ulos": 6147,
      "ĠPu": 6148,
      "ĠMD": 6149,
      "Ġkadag": 6150,
      "ĠYuta": 6151,
      "rolithin": 6152,
      "Ġnakakuha": 6153,
      "ĠCEB": 6154,
      "ufact": 6155,
      "AP": 6156,
      "sugod": 6157,
      "Õ¡": 6158,
      "sad": 6159,
      "Ġnadawat": 6160,
      "oro": 6161,
      "ĠPorn": 6162,
      "Ġsalog": 6163,
      "Ġmilit": 6164,
      "Ġnapulo": 6165,
      "ĠSonora": 6166,
      "edyer": 6167,
      "Ð°Ð·Ð¸Ðº": 6168,
      "ĠStore": 6169,
      "mas": 6170,
      "Õ¶": 6171,
      "idal": 6172,
      "ĠDansk": 6173,
      "uhaduha": 6174,
      "Ġato": 6175,
      "Ġ95": 6176,
      "ĠØ§Ø±Ø¯ÙĪ": 6177,
      "igure": 6178,
      "Ġhayag": 6179,
      "Ġcontrol": 6180,
      "Ġpagtuki": 6181,
      "endo": 6182,
      "iguroha": 6183,
      "Ġprovider": 6184,
      "nos": 6185,
      "Ġmental": 6186,
      "ĠAmsterdam": 6187,
      ".-.-.-.-.-.-.-.-.-.-.-.-.-.-.-.-": 6188,
      "ĠLietuviÅ³": 6189,
      "ÖĢ": 6190,
      "ĠCa": 6191,
      "Ġ51": 6192,
      "ĠÐĳÐµÐ»Ð°ÑĢÑĥÑģÐºÐ°Ñı": 6193,
      "Ġmicro": 6194,
      "ĠÕ": 6195,
      "Ġnay": 6196,
      "iter": 6197,
      "ĠBur": 6198,
      "Ġunahan": 6199,
      "verify": 6200,
      "Ġdrug": 6201,
      "ildare": 6202,
      "Ġboard": 6203,
      "Ġipaambit": 6204,
      "Ġespirituh": 6205,
      "ufactur": 6206,
      "Õ¡Õ": 6207,
      "Ġbi": 6208,
      "ĠBUH": 6209,
      "Ġ150": 6210,
      "ĠNI": 6211,
      "Ġpanga": 6212,
      "Ġprob": 6213,
      "ĠYork": 6214,
      "ĠDisyembre": 6215,
      "ĠAleman": 6216,
      "ÖĢÕ¥": 6217,
      "kon": 6218,
      "nero": 6219,
      "µÕ¥": 6220,
      "agin": 6221,
      "alapi": 6222,
      "ille": 6223,
      "ĠBan": 6224,
      "ĠBus": 6225,
      "Ġpanaw": 6226,
      "tail": 6227,
      "Ġà¨": 6228,
      "Ġpagsala": 6229,
      "ĠLatvieÅ¡u": 6230,
      "UANO": 6231,
      "Ġlisensya": 6232,
      "ĠSlovenÅ¡Äįina": 6233,
      "ĠCEBUANO": 6234,
      "Õ¡ÕµÕ¥": 6235,
      "ÖĢÕ¥Õ¶": 6236,
      "Õ¡ÕµÕ¥ÖĢÕ¥Õ¶": 6237,
      "ser": 6238,
      "Ö°": 6239,
      "Ġtik": 6240,
      "à¤°": 6241,
      "104": 6242,
      "Ġlangyaw": 6243,
      "Ġkategorya": 6244,
      "Ġgimugna": 6245,
      "Ġsolid": 6246,
      "Ġpribado": 6247,
      "wali": 6248,
      "wahi": 6249,
      "ãĢ": 6250,
      "Ġmuwebles": 6251,
      "ĠSem": 6252,
      "entr": 6253,
      "ĠFar": 6254,
      "Ġkomentaryo": 6255,
      "Ġnagpat": 6256,
      "ĠXP": 6257,
      "Ġbuton": 6258,
      "proof": 6259,
      "Ġutlanan": 6260,
      "uum": 6261,
      "alda": 6262,
      "ayu": 6263,
      "Ġkinadak": 6264,
      "ents": 6265,
      "ĠFeder": 6266,
      "Ġ64": 6267,
      "Ġtransaksyon": 6268,
      "Ġkahusayan": 6269,
      "Ġmetro": 6270,
      "Ġpit": 6271,
      "Ġdisip": 6272,
      "ĠSimb": 6273,
      "ĠKildare": 6274,
      "reet": 6275,
      "ĠDNA": 6276,
      "ĠEb": 6277,
      "ĠEther": 6278,
      "Ġnakal": 6279,
      "2022": 6280,
      "ĠSoftware": 6281,
      "ĠBeach": 6282,
      "ĠMelayu": 6283,
      "Ġphoto": 6284,
      "Ġdestinasyon": 6285,
      "arto": 6286,
      "ibut": 6287,
      "Ġrec": 6288,
      "Ġ101": 6289,
      "Ġpaglabay": 6290,
      "Ġindependente": 6291,
      "CC": 6292,
      "à³": 6293,
      "iness": 6294,
      "alt": 6295,
      "Ġanggulo": 6296,
      "erra": 6297,
      "isog": 6298,
      "idd": 6299,
      "sanski": 6300,
      "Ġmasulbad": 6301,
      "105": 6302,
      "Ġmiting": 6303,
      "Ġdolyar": 6304,
      "ĠDali": 6305,
      "oke": 6306,
      "Ġ300": 6307,
      "Ġrest": 6308,
      "akaon": 6309,
      "ĠPagkuha": 6310,
      "ername": 6311,
      "arkahan": 6312,
      "vers": 6313,
      "inf": 6314,
      "akan": 6315,
      "unot": 6316,
      "ĠTop": 6317,
      "eth": 6318,
      "Ġpagbawi": 6319,
      "ĠSanto": 6320,
      "active": 6321,
      "Ġpagpamalit": 6322,
      "ĠEuropa": 6323,
      "à¨¾": 6324,
      "ĠMenu": 6325,
      "Ġcommand": 6326,
      "ersa": 6327,
      "Ġsports": 6328,
      "Ġpagtudlo": 6329,
      "hiusa": 6330,
      "Ġgambalay": 6331,
      "Ġmanagsama": 6332,
      "Ġnatong": 6333,
      "Ġmakatagamtam": 6334,
      "umduman": 6335,
      "Ġepisyente": 6336,
      "Ġkwalipikado": 6337,
      ");": 6338,
      "TE": 6339,
      "aktibo": 6340,
      "ĠMor": 6341,
      "ĠLam": 6342,
      "ahinungdanon": 6343,
      "ĠJesus": 6344,
      "ĠAlcohol": 6345,
      "ĠChÃ«rnaya": 6346,
      "isgotan": 6347,
      "Ġdisbentaha": 6348,
      "Ġmotor": 6349,
      "imprenta": 6350,
      "Ġpula": 6351,
      "Ġpsych": 6352,
      "ilis": 6353,
      "ongo": 6354,
      "ĠPark": 6355,
      "Ġkatak": 6356,
      "Ġ2015": 6357,
      "Ġ54": 6358,
      "ĠChrist": 6359,
      "ansyal": 6360,
      "ĠÐļ": 6361,
      "Ġpagsabut": 6362,
      "Ġkakulang": 6363,
      "ĠBosanski": 6364,
      "à©Ģ": 6365,
      "Ġobligasyon": 6366,
      "ÑĩÐ°": 6367,
      "icle": 6368,
      "ĠUV": 6369,
      "Ġkonektado": 6370,
      "Ġ2016": 6371,
      "hinay": 6372,
      "Ġmedisina": 6373,
      "Ġsalida": 6374,
      "ĠPagbalhin": 6375,
      "Ġkagawasan": 6376,
      "ĠShang": 6377,
      "umbas": 6378,
      "ĠIpakita": 6379,
      "ĠÐľÐ°ÐºÐµÐ´Ð¾Ð½ÑģÐºÐ¸": 6380,
      "Ġcryptocurren": 6381,
      "mark": 6382,
      "width": 6383,
      "Òļ": 6384,
      "ÒĽ": 6385,
      "Ġtulin": 6386,
      "Ġhugot": 6387,
      "ukm": 6388,
      "Ġkatig": 6389,
      "iyas": 6390,
      "Ð°ÒĽ": 6391,
      "Ġgisulayan": 6392,
      "layer": 6393,
      "Ġlalang": 6394,
      "ĠRock": 6395,
      "Ð°Ð·Ð°ÒĽ": 6396,
      "Ġadvertising": 6397,
      "ÒļÐ°Ð·Ð°ÒĽ": 6398,
      "sunod": 6399,
      "Ġpina": 6400,
      "Ġlight": 6401,
      "ĠSol": 6402,
      "ĠPlat": 6403,
      "Ġnagsalig": 6404,
      "Ġmaalam": 6405,
      "ĠBi": 6406,
      "ĠTe": 6407,
      "Ġ121": 6408,
      "Ġnagpili": 6409,
      "Ġpresensya": 6410,
      "Ġtagsa": 6411,
      "Ġangayan": 6412,
      "Ġpagpaayo": 6413,
      "à©°": 6414,
      "ces": 6415,
      "Ġmabag": 6416,
      "Ġpw": 6417,
      "Ġtsar": 6418,
      "ubanan": 6419,
      "Ġprocess": 6420,
      "Ġ07": 6421,
      "ĠÂ·": 6422,
      "ĠShqip": 6423,
      "zbekcha": 6424,
      "Ġgimarkahan": 6425,
      "à¨¬": 6426,
      "Ġsiglo": 6427,
      "dll": 6428,
      "gh": 6429,
      "¥àº²àº": 6430,
      "ilt": 6431,
      "ĠMini": 6432,
      "ustong": 6433,
      "Ġkadena": 6434,
      "à¤ł": 6435,
      "Ġà²": 6436,
      "ĠBlue": 6437,
      "ĠÃįslenska": 6438,
      "à¨ľ": 6439,
      "ÑĭÐ·": 6440,
      "igarilyo": 6441,
      "à³į": 6442,
      "¥àº²àº§": 6443,
      "Ã¨": 6444,
      "abana": 6445,
      "ĠSteel": 6446,
      "Ġcast": 6447,
      "Ġgal": 6448,
      "ehan": 6449,
      "Ġnaghulat": 6450,
      "Ġaverage": 6451,
      "Ġopisina": 6452,
      "ĠGamita": 6453,
      "STO": 6454,
      "ĠRegister": 6455,
      "Ġrekomendasyon": 6456,
      "ĠHawaii": 6457,
      "ÑĭÑĢ": 6458,
      ",\"": 6459,
      "Nag": 6460,
      "free": 6461,
      "lakang": 6462,
      "pun": 6463,
      "ĠÒļÐ°Ð·Ð°ÒĽ": 6464,
      "Ġdug": 6465,
      "Ġgro": 6466,
      "untog": 6467,
      "ĠNap": 6468,
      "inusan": 6469,
      "Ġcool": 6470,
      "Ġkadaugan": 6471,
      "ChÃ«rnaya": 6472,
      "Ġmarka": 6473,
      "):": 6474,
      "tagsa": 6475,
      "Ġpahayag": 6476,
      "Ġtimbang": 6477,
      "arang": 6478,
      "ĠPet": 6479,
      "ĠDVD": 6480,
      "ĠPagtan": 6481,
      "Ġrange": 6482,
      "Ġdire": 6483,
      "Ġkarong": 6484,
      "Ð³ÑĭÐ·": 6485,
      "Ġpilia": 6486,
      "ĠGihimo": 6487,
      "Ġbakak": 6488,
      "Ġstreaming": 6489,
      "ĠHunyo": 6490,
      "ÑĭÑĢÐ³ÑĭÐ·": 6491,
      "ÑĭÑĢÐ³ÑĭÐ·ÑĩÐ°": 6492,
      "Ġdry": 6493,
      "ulangan": 6494,
      "ĠNint": 6495,
      "108": 6496,
      "Ġàº": 6497,
      "Ġgisuportahan": 6498,
      "Ġdepresyon": 6499,
      "ĠItaly": 6500,
      "Ġnahimutangan": 6501,
      "Ġplayer": 6502,
      "ĠRegion": 6503,
      "à²¡": 6504,
      "weet": 6505,
      "apoy": 6506,
      "ĠDom": 6507,
      "ĠTwi": 6508,
      "Ġmakapahimo": 6509,
      "lexible": 6510,
      "Ġstorage": 6511,
      "Ġà¤®à¤°": 6512,
      "ĠÑĺ": 6513,
      "Ġà¨ª": 6514,
      "UL": 6515,
      "cle": 6516,
      "pl": 6517,
      "Ã¥": 6518,
      "Ġsanga": 6519,
      "galo": 6520,
      "ameter": 6521,
      "ĠSEO": 6522,
      "ungk": 6523,
      "ĠNear": 6524,
      "Ġpagkolekta": 6525,
      "Ġpagtul": 6526,
      "ĠOut": 6527,
      "Ġgipam": 6528,
      "ĠVic": 6529,
      "ĠMedical": 6530,
      "Ġawtomatiko": 6531,
      "Ġawtoridad": 6532,
      "Ġtsart": 6533,
      "ĠNintendo": 6534,
      "XX": 6535,
      "ķà²¨": 6536,
      "arga": 6537,
      "inic": 6538,
      "ĠGet": 6539,
      "Ġgikonsiderar": 6540,
      "Ġmaporma": 6541,
      "Ġautom": 6542,
      "Ġkadako": 6543,
      "ĠZar": 6544,
      "Ġstat": 6545,
      "à²¨à²¡": 6546,
      "Ġkuhaon": 6547,
      "ĠLokasyon": 6548,
      "itemap": 6549,
      "500": 6550,
      "ret": 6551,
      "utay": 6552,
      "Ġmailhan": 6553,
      "ĠGB": 6554,
      "ĠHo": 6555,
      "Ġnagpadala": 6556,
      "lix": 6557,
      "rash": 6558,
      "Ġmagkalainlain": 6559,
      "Ġmasakit": 6560,
      "ĠReply": 6561,
      "Ġkataposang": 6562,
      "Ġglac": 6563,
      "Ġnegatibo": 6564,
      "ĠÐļÑĭÑĢÐ³ÑĭÐ·ÑĩÐ°": 6565,
      "UG": 6566,
      "ises": 6567,
      "ĠPay": 6568,
      "ugbang": 6569,
      "imple": 6570,
      "Ġ02": 6571,
      "Ġsound": 6572,
      "Ġasul": 6573,
      "evel": 6574,
      "Ġpackaging": 6575,
      "ĠBisaya": 6576,
      "bong": 6577,
      "cast": 6578,
      "Ġkorte": 6579,
      "ĠKinat": 6580,
      "Ġwel": 6581,
      "ĠUK": 6582,
      "Ġregalo": 6583,
      "Ġpaghunong": 6584,
      "Ġpaghukom": 6585,
      "ĠMaayong": 6586,
      "ĠAnaa": 6587,
      "usisa": 6588,
      "Ġsiyempre": 6589,
      "ĠSakit": 6590,
      "adyet": 6591,
      "ĠNanguna": 6592,
      "ikt": 6593,
      "ĠBat": 6594,
      "Ġcable": 6595,
      "Ġfre": 6596,
      "Ġpagsabot": 6597,
      "Ġsinult": 6598,
      "endaryong": 6599,
      "ĠSudanese": 6600,
      "wento": 6601,
      "Â²": 6602,
      "ablihan": 6603,
      "Ġlub": 6604,
      "uloh": 6605,
      "Ġhener": 6606,
      "ĠDa": 6607,
      "ublic": 6608,
      "Ġcut": 6609,
      "ĠUl": 6610,
      "ĠHimoa": 6611,
      "Ġkatagb": 6612,
      "alisa": 6613,
      "Ġ47": 6614,
      "Ġmatinud": 6615,
      "Ġmapadayon": 6616,
      "ĠUsab": 6617,
      "amboan": 6618,
      "ĠKaayo": 6619,
      "adaghan": 6620,
      "ĠResp": 6621,
      "ĠDeskrip": 6622,
      "ĠInteractions": 6623,
      "è´Ł": 6624,
      "Ġà²ķà²¨": 6625,
      "ĠSigur": 6626,
      "ĠIG": 6627,
      "ĠHous": 6628,
      "emical": 6629,
      "ohay": 6630,
      "untag": 6631,
      "wse": 6632,
      "ĠTanang": 6633,
      "ĠPinak": 6634,
      "conf": 6635,
      "ĠPagkaon": 6636,
      "è´Łè´Ł": 6637,
      "ger": 6638,
      "ĠSch": 6639,
      "unggan": 6640,
      "ĠDal": 6641,
      "Ġcond": 6642,
      "Ġnianang": 6643,
      "Ġmagnesium": 6644,
      "Ġdiagn": 6645,
      "Ġ53": 6646,
      "Ġtighatag": 6647,
      "umpirma": 6648,
      "ynec": 6649,
      "Ġsiklo": 6650,
      "Ġlangitnong": 6651,
      "ĠAbout": 6652,
      "Ġkatagbawan": 6653,
      "iang": 6654,
      "screen": 6655,
      "ulsol": 6656,
      "Ġhand": 6657,
      "ĠNan": 6658,
      "Ġcol": 6659,
      "ĠHy": 6660,
      "Ġpagkama": 6661,
      "Ġ49": 6662,
      "Ġkadali": 6663,
      "Ġ03": 6664,
      "Ġnatukod": 6665,
      "Ġ123": 6666,
      "Ġsusiha": 6667,
      "tubre": 6668,
      "ĠUnited": 6669,
      "sung": 6670,
      "Ġpower": 6671,
      "ering": 6672,
      "Ġby": 6673,
      "ingles": 6674,
      "ĠBuhat": 6675,
      "ĠEML": 6676,
      "ĠLand": 6677,
      "Ġretail": 6678,
      "Ġvirus": 6679,
      "Ġpinaka": 6680,
      "Ġpinansyal": 6681,
      "adaot": 6682,
      "111": 6683,
      "olohikal": 6684,
      "ĠWorlds": 6685,
      "IBC": 6686,
      "lit": 6687,
      "mp": 6688,
      "right": 6689,
      "¹ģ": 6690,
      "Ġput": 6691,
      "alin": 6692,
      "Ġbadyet": 6693,
      "ĠTibuok": 6694,
      "entil": 6695,
      "udi": 6696,
      "Ġmadali": 6697,
      "ĠâĹ": 6698,
      "Ġpatigayon": 6699,
      "Ġnakahukom": 6700,
      "ei": 6701,
      "Ġdownload": 6702,
      "uhon": 6703,
      "ĠHes": 6704,
      "istika": 6705,
      "Ġkalamboan": 6706,
      "ĠWikipedia": 6707,
      "change": 6708,
      "ĠKons": 6709,
      "Ġsusk": 6710,
      "Ġnasayod": 6711,
      "ograph": 6712,
      "ĠPagsabot": 6713,
      "creenshot": 6714,
      "iayon": 6715,
      "anindot": 6716,
      "Ġganahan": 6717,
      "ĠScreen": 6718,
      "ĠBen": 6719,
      "Ġpagpuyo": 6720,
      "ĠFi": 6721,
      "Ġnahulog": 6722,
      "Ġsalamin": 6723,
      "Ġasset": 6724,
      "Ġrot": 6725,
      "ĠMedia": 6726,
      "ĠPasko": 6727,
      "Ġkalikopan": 6728,
      "?âĢĿ": 6729,
      "PE": 6730,
      "UT": 6731,
      "analipdan": 6732,
      "Ġphone": 6733,
      "imtan": 6734,
      "ahing": 6735,
      "Ġse": 6736,
      "ĠSm": 6737,
      "aper": 6738,
      "Ġreal": 6739,
      "Ġ2014": 6740,
      "Ġmagtiayon": 6741,
      "Ġtinguha": 6742,
      "Ġpolit": 6743,
      "Ġheadphone": 6744,
      "Names": 6745,
      "rica": 6746,
      "vey": 6747,
      "«Ķ": 6748,
      "é«Ķ": 6749,
      "Ġmabdos": 6750,
      "Ġporm": 6751,
      "apdon": 6752,
      "ĠEk": 6753,
      "ĠLic": 6754,
      "eksport": 6755,
      "aca": 6756,
      "Ġpanig": 6757,
      "ĠFIBC": 6758,
      "opular": 6759,
      "Ġkalendaryong": 6760,
      "Ġnamatay": 6761,
      "ĠâĢĶ": 6762,
      "Ġnagdepende": 6763,
      "Ġpagkakabig": 6764,
      "Ġproteksyon": 6765,
      "Ġnutrisyon": 6766,
      "¹ģé«Ķ": 6767,
      "¹ģé«Ķä¸Ńæĸĩ": 6768,
      "RO": 6769,
      "alum": 6770,
      "ĠNarc": 6771,
      "ĠHu": 6772,
      "trina": 6773,
      "Ġ52": 6774,
      "ayagnos": 6775,
      "Ġpagmugna": 6776,
      "Ġminahal": 6777,
      "ahimulos": 6778,
      "Ġnagkalainlain": 6779,
      "ĠMagbasa": 6780,
      "ĠCBD": 6781,
      "hag": 6782,
      "ning": 6783,
      "imester": 6784,
      "Ġsuod": 6785,
      "cket": 6786,
      "Ġmaghulat": 6787,
      "ĠGeoNames": 6788,
      "ĠÃģng": 6789,
      "ĠKasaysayan": 6790,
      "aginot": 6791,
      "atio": 6792,
      "Ġton": 6793,
      "Ġtower": 6794,
      "Ġlihok": 6795,
      "Ġhol": 6796,
      "ĠCH": 6797,
      "ĠCentral": 6798,
      "Ġkatugbang": 6799,
      "iving": 6800,
      "undok": 6801,
      "ĠCoun": 6802,
      "ĠAnd": 6803,
      "ĠProduc": 6804,
      "Ġbalaan": 6805,
      "Ġbaylo": 6806,
      "Ġmakasinati": 6807,
      "ĠProgram": 6808,
      "ĠMil": 6809,
      "Ġreh": 6810,
      "ality": 6811,
      "sidlakan": 6812,
      "Ġdiskwento": 6813,
      "ĠSafari": 6814,
      "hine": 6815,
      "Ġbunga": 6816,
      "ikto": 6817,
      "ĠNeo": 6818,
      "ĠLive": 6819,
      "Ġkataas": 6820,
      "Ġ84": 6821,
      "Ġç¹ģé«Ķä¸Ńæĸĩ": 6822,
      "ghur": 6823,
      "hel": 6824,
      "inyon": 6825,
      "atake": 6826,
      "awran": 6827,
      "ĠMes": 6828,
      "ĠMayo": 6829,
      "Ġhost": 6830,
      "ugon": 6831,
      "inoon": 6832,
      "Ġacid": 6833,
      "Ġmosunud": 6834,
      "ĠUSA": 6835,
      "ĠMoises": 6836,
      "ĠUyghur": 6837,
      "ING": 6838,
      "UN": 6839,
      "isya": 6840,
      "Ġpagpuno": 6841,
      "Ġiron": 6842,
      "Ġkatulin": 6843,
      "ugalingon": 6844,
      "Ġtanom": 6845,
      "inyoon": 6846,
      "Ġbatasan": 6847,
      "Ġpressure": 6848,
      "ĠPeul": 6849,
      "browse": 6850,
      "riendly": 6851,
      "Ġkaunuran": 6852,
      "sik": 6853,
      "ses": 6854,
      "Ġdens": 6855,
      "amide": 6856,
      "ĠMS": 6857,
      "Ġkatumbas": 6858,
      "Ġgar": 6859,
      "ĠUnion": 6860,
      "Ġmogawas": 6861,
      "ender": 6862,
      "Ġeksak": 6863,
      "Ġmohaum": 6864,
      "Ġportal": 6865,
      "ĠEspesyal": 6866,
      "CD": 6867,
      "met": 6868,
      "aduol": 6869,
      "erence": 6870,
      "utyag": 6871,
      "ihu": 6872,
      "ahinumdom": 6873,
      "Ġgipas": 6874,
      "indle": 6875,
      "Ġ93": 6876,
      "Ġpamil": 6877,
      "roph": 6878,
      "ĠGaming": 6879,
      "Ġibalhin": 6880,
      "Ġsikat": 6881,
      "Ġhigpit": 6882,
      "Ġdekorasyon": 6883,
      "ĠBitcoin": 6884,
      "medyo": 6885,
      "Ġextension": 6886,
      "cut": 6887,
      "flix": 6888,
      "uev": 6889,
      "alyt": 6890,
      "Ġpagrehistro": 6891,
      "Ġsugyot": 6892,
      "ĠTre": 6893,
      "Ġpanglawas": 6894,
      "Ġ75": 6895,
      "uyok": 6896,
      "Ġnagdagan": 6897,
      "idaan": 6898,
      "ĠKatuyoan": 6899,
      "ĠMassage": 6900,
      "lemento": 6901,
      "kina": 6902,
      "Ã¹": 6903,
      "ĠÂ°": 6904,
      "imon": 6905,
      "isidad": 6906,
      "orator": 6907,
      "Ġnagap": 6908,
      "ĠFl": 6909,
      "Ġgipang": 6910,
      "Ġkahin": 6911,
      "rrrrrrrr": 6912,
      "Ġkasadpan": 6913,
      "Ġkatuigan": 6914,
      "uages": 6915,
      "Ġbung": 6916,
      "Ġbuntag": 6917,
      "Ġling": 6918,
      "Ġsiguradong": 6919,
      "ĠEbanghelyo": 6920,
      "Ġhenerasyon": 6921,
      "wo": 6922,
      "Ġsk": 6923,
      "abon": 6924,
      "ĠPS": 6925,
      "ĠCN": 6926,
      "ĠBu": 6927,
      "ĠOcc": 6928,
      "Ġ88": 6929,
      "Ġtalagsaong": 6930,
      "Ġmitubag": 6931,
      "rehens": 6932,
      "ĠFederation": 6933,
      "ĠNarciss": 6934,
      "Ġgener": 6935,
      "Ġluyo": 6936,
      "ĠSukad": 6937,
      "ĠMatag": 6938,
      "ĠTip": 6939,
      "Ġkalit": 6940,
      "Ġnamong": 6941,
      "ingkil": 6942,
      "Ġresponsibilidad": 6943,
      "cos": 6944,
      "Ñĸ": 6945,
      "ĠðŁ": 6946,
      "agbo": 6947,
      "Ġtema": 6948,
      "ulation": 6949,
      "enz": 6950,
      "ĠMad": 6951,
      "ipikong": 6952,
      "umili": 6953,
      "omendar": 6954,
      "ĠHibal": 6955,
      "Ġmapalit": 6956,
      "payan": 6957,
      "Ġmakapugong": 6958,
      "Ġasoy": 6959,
      "ĠSamsung": 6960,
      "ĠOne": 6961,
      "Ġsimbahan": 6962,
      "ĠSiyempre": 6963,
      "Ġlayer": 6964,
      "eum": 6965,
      "Ġnilang": 6966,
      "Ġgubat": 6967,
      "ĠLal": 6968,
      "ĠRed": 6969,
      "ĠJos": 6970,
      "Ġkape": 6971,
      "Ġtigb": 6972,
      "Ġ65": 6973,
      "ĠPrint": 6974,
      "Ġâĸ": 6975,
      "ĠBUHAT": 6976,
      "king": 6977,
      "une": 6978,
      "uluwas": 6979,
      "Ġpagpadayag": 6980,
      "eml": 6981,
      "terest": 6982,
      "Ġthis": 6983,
      "ĠRussia": 6984,
      "Ġkontra": 6985,
      "ĠReview": 6986,
      "ny": 6987,
      "adjust": 6988,
      "Ġhari": 6989,
      "ĠRob": 6990,
      "Ġpangandoy": 6991,
      "ĠVol": 6992,
      "Ġmosang": 6993,
      "Ġmolapas": 6994,
      "initon": 6995,
      "ĠPabrika": 6996,
      "configure": 6997,
      "Con": 6998,
      "car": 6999,
      "Ġdamgo": 7000,
      "ĠAuto": 7001,
      "ĠSayon": 7002,
      "ĠPi": 7003,
      "Ġmax": 7004,
      "ubit": 7005,
      "ĠNas": 7006,
      "Ġcor": 7007,
      "acuum": 7008,
      "Ġkamera": 7009,
      "Ġkahulogan": 7010,
      "Ġnahim": 7011,
      "ĠUsahay": 7012,
      "struksyon": 7013,
      "ĠAfrica": 7014,
      "ĠPinterest": 7015,
      "Ġliboan": 7016,
      "Ġarkitektura": 7017,
      "Ġglacier": 7018,
      ";}": 7019,
      "kapan": 7020,
      "ĠSum": 7021,
      "udh": 7022,
      "ensiyon": 7023,
      "Ġmakausa": 7024,
      "Ġpanghunahuna": 7025,
      "ĠNetflix": 7026,
      "ĠBinary": 7027,
      "luwensya": 7028,
      "ĠâĹı": 7029,
      "zed": 7030,
      "Ġline": 7031,
      "utas": 7032,
      "ĠCasa": 7033,
      "iyai": 7034,
      "ĠWest": 7035,
      "Ġpaghin": 7036,
      "akigbahin": 7037,
      "Ġpareho": 7038,
      "ĠGrand": 7039,
      "Ġawtomatik": 7040,
      "iskobre": 7041,
      "Ġkahiga": 7042,
      "Ġebidensya": 7043,
      "ulate": 7044,
      "ĠSil": 7045,
      "ĠMubo": 7046,
      "ĠCongo": 7047,
      "ĠDef": 7048,
      "ĠIQ": 7049,
      "aghatag": 7050,
      "ĠFil": 7051,
      "Ġright": 7052,
      "ateo": 7053,
      "ĠAll": 7054,
      "ĠMalibu": 7055,
      "ĠKinabuhi": 7056,
      "ipping": 7057,
      "Ġkuwarta": 7058,
      "Ġospital": 7059,
      "Ġmananap": 7060,
      "mot": 7061,
      "rabe": 7062,
      "Ġdetal": 7063,
      "Ġdosis": 7064,
      "Ġbah": 7065,
      "ĠPila": 7066,
      "ĠTubag": 7067,
      "eting": 7068,
      "ĠEus": 7069,
      "Ġpant": 7070,
      "Ġpantal": 7071,
      "Ġnagpunting": 7072,
      "Ġ72": 7073,
      "Ġpaglimpyo": 7074,
      "ĠApr": 7075,
      "Ġgilapdon": 7076,
      "ocation": 7077,
      "Ġmonitor": 7078,
      "Ġforum": 7079,
      "iversity": 7080,
      "Ġmaalamon": 7081,
      "imer": 7082,
      "ahu": 7083,
      "Ġbabag": 7084,
      "ĠSY": 7085,
      "ĠBlan": 7086,
      "ĠNational": 7087,
      "ĠHabag": 7088,
      "Ġnagpah": 7089,
      "Ġ109": 7090,
      "ÃŃa": 7091,
      "Ġbilil": 7092,
      "ĠInternational": 7093,
      "cies": 7094,
      "pert": 7095,
      "Ġ00": 7096,
      "ango": 7097,
      "rob": 7098,
      "Ġhimo": 7099,
      "gamento": 7100,
      "istan": 7101,
      "ĠVil": 7102,
      "Ġnahi": 7103,
      "ĠMagp": 7104,
      "Ġgatusan": 7105,
      "position": 7106,
      "Ġnakadungog": 7107,
      "Bisan": 7108,
      "EC": 7109,
      "LL": 7110,
      "ml": 7111,
      "pp": 7112,
      "ÑĤ": 7113,
      "ĠPip": 7114,
      "ĠKON": 7115,
      "ĠCD": 7116,
      "ĠGing": 7117,
      "Ġpaghunahuna": 7118,
      "hones": 7119,
      "ulayi": 7120,
      "ĠRehabs": 7121,
      "Ġmobalhin": 7122,
      "Ġbarko": 7123,
      "organi": 7124,
      "awhanong": 7125,
      "Ġkrit": 7126,
      "ĠAmerica": 7127,
      "ĠElectric": 7128,
      "ĠDeskripsyon": 7129,
      "Ar": 7130,
      "vest": 7131,
      "Ġsug": 7132,
      "osta": 7133,
      "Ġfi": 7134,
      "Ġpipe": 7135,
      "Ġ91": 7136,
      "ĠMachine": 7137,
      "Ġkargamento": 7138,
      "Ġmakadungog": 7139,
      "shop": 7140,
      "ĠTelepono": 7141,
      "Ġnasayud": 7142,
      "Ġnagpaila": 7143,
      "Ġkaliwatan": 7144,
      "Ġespirituhanong": 7145,
      "mok": 7146,
      "ahua": 7147,
      "iding": 7148,
      "entro": 7149,
      "Ġmasusi": 7150,
      "Ġpagdayagnos": 7151,
      "Ġmouyon": 7152,
      "Ġnagdumala": 7153,
      "ĠOpisyal": 7154,
      "ĠSlim": 7155,
      "kos": 7156,
      "wood": 7157,
      "angno": 7158,
      "Ġkaagi": 7159,
      "Ġnon": 7160,
      "Ġsundon": 7161,
      "ĠPam": 7162,
      "ipis": 7163,
      "ipisyal": 7164,
      "Ġhel": 7165,
      "ĠDO": 7166,
      "ĠDetalye": 7167,
      "urch": 7168,
      "entinar": 7169,
      "Ġpagbaton": 7170,
      "ĠInc": 7171,
      "Ġkahil": 7172,
      "undi": 7173,
      "Ġtanaman": 7174,
      "Ġ09": 7175,
      "ĠNagd": 7176,
      "Ġmagbabasa": 7177,
      "ĠGinoong": 7178,
      "Ġbasura": 7179,
      "ĠImportante": 7180,
      "ĠBroker": 7181,
      "plier": 7182,
      "cow": 7183,
      "Ġmando": 7184,
      "Ġsu": 7185,
      "ĠBay": 7186,
      "els": 7187,
      "elya": 7188,
      "Ġkanta": 7189,
      "Ġkampanya": 7190,
      "ĠAddress": 7191,
      "Ġ81": 7192,
      "ova": 7193,
      "unhuran": 7194,
      "ulbos": 7195,
      "Ġpadulong": 7196,
      "Ġpamilyar": 7197,
      "ĠEuskara": 7198,
      "ET": 7199,
      "tle": 7200,
      "ãĤ": 7201,
      "sab": 7202,
      "anhi": 7203,
      "agos": 7204,
      "Ġsn": 7205,
      "apalit": 7206,
      "ĠBot": 7207,
      "ĠLong": 7208,
      "optim": 7209,
      "upon": 7210,
      "ĠChihu": 7211,
      "rael": 7212,
      "2021": 7213,
      "Ġ2007": 7214,
      "print": 7215,
      "Ġhabagatang": 7216,
      "ĠChihuahua": 7217,
      "MS": 7218,
      "ply": 7219,
      "wing": 7220,
      "sapayan": 7221,
      "ĠAsa": 7222,
      "isi": 7223,
      "ule": 7224,
      "ĠLis": 7225,
      "uptan": 7226,
      "Ġpromedyo": 7227,
      "Ġtrend": 7228,
      "Ġ104": 7229,
      "endaryo": 7230,
      "ĠSierra": 7231,
      "ahimangno": 7232,
      "Ġkwarto": 7233,
      "Ġsensitibo": 7234,
      "ĠMiami": 7235,
      "ĠAlemanya": 7236,
      "Ġrestawran": 7237,
      "diha": 7238,
      "akat": 7239,
      "ĠDur": 7240,
      "enters": 7241,
      "Ġdeg": 7242,
      "Ġkasayon": 7243,
      "inding": 7244,
      "uwal": 7245,
      "Ġmoapil": 7246,
      "Ġnaghisgot": 7247,
      "rekomendar": 7248,
      "domi": 7249,
      "Ġbotelya": 7250,
      "Ġsimbolo": 7251,
      "Ġgingharian": 7252,
      "ĠHouston": 7253,
      "IK": 7254,
      "eil": 7255,
      "atu": 7256,
      "rot": 7257,
      "ĠDag": 7258,
      "ĠDaw": 7259,
      "ĠTab": 7260,
      "Ġmahulog": 7261,
      "ĠUN": 7262,
      "loat": 7263,
      "sidente": 7264,
      "Ġkomersyal": 7265,
      "az": 7266,
      "atok": 7267,
      "Ġding": 7268,
      "ĠAP": 7269,
      "ĠAk": 7270,
      "Ġsine": 7271,
      "ĠKam": 7272,
      "ĠDoc": 7273,
      "oli": 7274,
      "Ġvol": 7275,
      "haan": 7276,
      "ĠPagsugat": 7277,
      "Ġrefund": 7278,
      "ĠRepublika": 7279,
      "Ġbangko": 7280,
      "ĠSetting": 7281,
      "ĠPangitaa": 7282,
      "Ġgranite": 7283,
      "ĠMoscow": 7284,
      "110": 7285,
      "lus": 7286,
      "switch": 7287,
      "ĵ×Ļ×": 7288,
      "Ġtaho": 7289,
      "ĠDigital": 7290,
      "ĠGP": 7291,
      "ĠUrolithin": 7292,
      "Ġpasalig": 7293,
      "Ġpagbantay": 7294,
      "Ġgipagawas": 7295,
      "Ġnagtukod": 7296,
      "ioid": 7297,
      "Ġ85": 7298,
      "Ġ87": 7299,
      "merce": 7300,
      "Ġmituo": 7301,
      "AMPO": 7302,
      "ĠGalego": 7303,
      "Ġpraktikal": 7304,
      "ĠISO": 7305,
      "iat": 7306,
      "Ġglobal": 7307,
      "ĠChe": 7308,
      "ters": 7309,
      "Ġkonstruksyon": 7310,
      "Ġmatunaw": 7311,
      "Ġkahulugan": 7312,
      "aller": 7313,
      "Ġgipangayo": 7314,
      "ahimuslan": 7315,
      "ĠSony": 7316,
      "Ġtonel": 7317,
      "optimize": 7318,
      "late": 7319,
      "vat": 7320,
      "ateg": 7321,
      "ĠPart": 7322,
      "osit": 7323,
      "igl": 7324,
      "Ġhagit": 7325,
      "ĠDav": 7326,
      "Ġmakontrol": 7327,
      "ander": 7328,
      "aliwala": 7329,
      "hio": 7330,
      "Ġlanggam": 7331,
      "Ġpresentasyon": 7332,
      "ĠStud": 7333,
      "Ġligid": 7334,
      "Ġbaso": 7335,
      "Ġperpekto": 7336,
      "Ġload": 7337,
      "ĠMartÃŃn": 7338,
      "Ġdemo": 7339,
      "isyen": 7340,
      "ĠSimbahan": 7341,
      "Ġdingding": 7342,
      "DO": 7343,
      "eff": 7344,
      "long": 7345,
      "anunay": 7346,
      "ĠIN": 7347,
      "Ġare": 7348,
      "Ġmatuman": 7349,
      "Ġkomprehens": 7350,
      "ĠState": 7351,
      "ĠSerbya": 7352,
      "Ġradius": 7353,
      "ĵ×Ļ×©": 7354,
      "suk": 7355,
      "tugnaw": 7356,
      "Ġmisyon": 7357,
      "Ġge": 7358,
      "ulohan": 7359,
      "ĠSe": 7360,
      "ĠAngeles": 7361,
      "ĠCode": 7362,
      "Ġover": 7363,
      "ĠTechnology": 7364,
      "ĠIt": 7365,
      "Ġmatapos": 7366,
      "Ġopinyon": 7367,
      "ologist": 7368,
      "Ġhiniusa": 7369,
      "ulohang": 7370,
      "bas": 7371,
      "asunod": 7372,
      "ĠAR": 7373,
      "ĠAlex": 7374,
      "isyu": 7375,
      "rey": 7376,
      "uma": 7377,
      "ĠBor": 7378,
      "ĠGran": 7379,
      "Ġpagtandi": 7380,
      "Ġ105": 7381,
      "Ġpinili": 7382,
      "Ġmoderno": 7383,
      "Ġmedium": 7384,
      "ĠGipakita": 7385,
      "ĠGitugotan": 7386,
      "ĠTagalog": 7387,
      "ĠEuropean": 7388,
      "ysical": 7389,
      "ĠHinumdomi": 7390,
      "Med": 7391,
      "Ġ)": 7392,
      "gal": 7393,
      "Ġninyo": 7394,
      "ayber": 7395,
      "Ġsuba": 7396,
      "Ġganansya": 7397,
      "ike": 7398,
      "ĠData": 7399,
      "Ġniyang": 7400,
      "Ġpasa": 7401,
      "andur": 7402,
      "Ġgihangyo": 7403,
      "Ġmoingon": 7404,
      "Ġnagtudlo": 7405,
      "Ġmapili": 7406,
      "ĠProject": 7407,
      "Ġmakapah": 7408,
      "Ġdagko": 7409,
      "ignano": 7410,
      "ĠZarago": 7411,
      "alytics": 7412,
      "comp": 7413,
      "kg": 7414,
      "Ġiya": 7415,
      "Ġpito": 7416,
      "Ġdet": 7417,
      "Ġterm": 7418,
      "erg": 7419,
      "Ġsheet": 7420,
      "ublish": 7421,
      "lant": 7422,
      "Ġwindow": 7423,
      "eke": 7424,
      "ĠHotel": 7425,
      "ĠRO": 7426,
      "uhaa": 7427,
      "Ġnakong": 7428,
      "168": 7429,
      "Ġigsapayan": 7430,
      "ondon": 7431,
      "umber": 7432,
      "amily": 7433,
      "ombia": 7434,
      "Ġapostol": 7435,
      "Ġpagsagol": 7436,
      "Ġmamumulong": 7437,
      "ĠZaragoza": 7438,
      "alya": 7439,
      "itis": 7440,
      "Ġbis": 7441,
      "ĠKAM": 7442,
      "ĠCard": 7443,
      "ĠBul": 7444,
      "ilisang": 7445,
      "Ġ110": 7446,
      "Ġpagkons": 7447,
      "inaut": 7448,
      "Ġakses": 7449,
      "esearch": 7450,
      "ĠTrade": 7451,
      "angkuban": 7452,
      "witzer": 7453,
      "Ġsubay": 7454,
      "ĠLitrato": 7455,
      "IM": 7456,
      "kers": 7457,
      "Ġmulti": 7458,
      "ĠPisikal": 7459,
      "osop": 7460,
      "ĠKindle": 7461,
      "Ġpagplano": 7462,
      "okrat": 7463,
      "Ġkaminyoon": 7464,
      "ĠJawa": 7465,
      "Ġgamhanan": 7466,
      "103": 7467,
      "Ġnagbutang": 7468,
      "ĠPAGP": 7469,
      "Ġsegundo": 7470,
      "Ġsertipiko": 7471,
      "Ġrelihiyon": 7472,
      "ĠBusiness": 7473,
      "Ġaksesorya": 7474,
      "witzerland": 7475,
      "Si": 7476,
      "git": 7477,
      "ats": 7478,
      "Ġtherapy": 7479,
      "ĠAy": 7480,
      "tooth": 7481,
      "ĠLimit": 7482,
      "irg": 7483,
      "pany": 7484,
      "Ġopioid": 7485,
      "Ġmalungt": 7486,
      "Ġdrayber": 7487,
      "Ġmaminusan": 7488,
      "ĠDisc": 7489,
      "Ġhigda": 7490,
      "Ġgingan": 7491,
      "ĠGingharian": 7492,
      ";Â°": 7493,
      ";[[": 7494,
      "atos": 7495,
      "arog": 7496,
      "Ġbolt": 7497,
      "ĠDiyos": 7498,
      "ukot": 7499,
      "Ġkanhi": 7500,
      "Ġpagpasig": 7501,
      "Ġ2000": 7502,
      "Ġpagsul": 7503,
      "Ġnahib": 7504,
      "Ġgibahin": 7505,
      "Ġ108": 7506,
      "Ġ[[Â°": 7507,
      "ĠIsrael": 7508,
      "uthor": 7509,
      "Ġdokum": 7510,
      "igugmaon": 7511,
      "Ġintel": 7512,
      "ĠNahibal": 7513,
      "ĠSusiha": 7514,
      ";[[Â°": 7515,
      "aog": 7516,
      "aham": 7517,
      "ahud": 7518,
      "akyanan": 7519,
      "ĠBre": 7520,
      "ubuhat": 7521,
      "ĠLuc": 7522,
      "ambay": 7523,
      "Ġdiam": 7524,
      "ĠAlb": 7525,
      "Ġmodagan": 7526,
      "Ġkusina": 7527,
      "ĠGames": 7528,
      "ĠCatal": 7529,
      "Ġemos": 7530,
      "ĠHulyano": 7531,
      "Ġdistrito": 7532,
      "ibersidad": 7533,
      "ĠKaayohan": 7534,
      "switcher": 7535,
      "ait": 7536,
      "imaya": 7537,
      "ipikasyon": 7538,
      "Ġcross": 7539,
      "entina": 7540,
      "ĠFre": 7541,
      "Ġkalayo": 7542,
      "Ġkable": 7543,
      "orno": 7544,
      "ĠIdugang": 7545,
      "Ġlibrarya": 7546,
      "burg": 7547,
      "lahan": 7548,
      "pack": 7549,
      "sulat": 7550,
      "Ê»": 7551,
      "onate": 7552,
      "ĠSulayi": 7553,
      "ĠUt": 7554,
      "ĠOl": 7555,
      "Ġgamita": 7556,
      "ĠProt": 7557,
      "Ġekipo": 7558,
      "Ġpagkatulog": 7559,
      "Ġspec": 7560,
      "Ġpagpalapad": 7561,
      "Ġspeaker": 7562,
      "float": 7563,
      "host": 7564,
      "Ġdu": 7565,
      "Ġtaw": 7566,
      "arug": 7567,
      "arian": 7568,
      "Ġ122": 7569,
      "ĠHunahuna": 7570,
      "istorya": 7571,
      "owder": 7572,
      "uwaryo": 7573,
      "Ġimposible": 7574,
      "Ġeks": 7575,
      "Ġplayers": 7576,
      "isitaha": 7577,
      "ĠAbril": 7578,
      "ĠMDMA": 7579,
      "Dili": 7580,
      "PL": 7581,
      "tical": 7582,
      "web": 7583,
      "Ġpum": 7584,
      "Ġpinu": 7585,
      "Ġno": 7586,
      "Ġtunog": 7587,
      "ĠSab": 7588,
      "epektibo": 7589,
      "Ġtuyo": 7590,
      "Ġmiadto": 7591,
      "Ġmotuo": 7592,
      "caine": 7593,
      "asadya": 7594,
      "ĠNagtanyag": 7595,
      "áŁĴ": 7596,
      "ĠBlanca": 7597,
      "lication": 7598,
      "alib": 7599,
      "Ġpaglan": 7600,
      "itusyon": 7601,
      "akunhod": 7602,
      "Ġsib": 7603,
      "Ġbox": 7604,
      "ĠSn": 7605,
      "igom": 7606,
      "rehab": 7607,
      "umi": 7608,
      "icles": 7609,
      "Ġfan": 7610,
      "iron": 7611,
      "Ġkabhang": 7612,
      "ĠPropeta": 7613,
      "Ġgisugyot": 7614,
      "ĠOptions": 7615,
      "ĠPagtipig": 7616,
      "ĠPagdumala": 7617,
      "ĠNaghimo": 7618,
      "×ĳ×¨": 7619,
      "ĠShanghai": 7620,
      "rvat": 7621,
      "Ġbaba": 7622,
      "ĠKrist": 7623,
      "ĠBern": 7624,
      "asang": 7625,
      "amaayong": 7626,
      "allet": 7627,
      "mental": 7628,
      "Ġmotambong": 7629,
      "Ġshop": 7630,
      "Ġintegr": 7631,
      "ĠLuxury": 7632,
      "ograpiya": 7633,
      "Ġprocessor": 7634,
      "Ġtonelada": 7635,
      "rvatski": 7636,
      "Kristo": 7637,
      "win": 7638,
      "Ġpulbos": 7639,
      "asalig": 7640,
      "Ġpagbiya": 7641,
      "Ġnahibalo": 7642,
      "Ġipas": 7643,
      "Ġupdate": 7644,
      "ĠGipili": 7645,
      "Ġtingtugnaw": 7646,
      "Ġmakalilisang": 7647,
      "ĠPanglawas": 7648,
      "Ġpakigbingkil": 7649,
      "eilge": 7650,
      "Bet": 7651,
      "On": 7652,
      "luluwas": 7653,
      "Ģä": 7654,
      "ilanon": 7655,
      "ĠAT": 7656,
      "Ġsud": 7657,
      "Ġbio": 7658,
      "osisyon": 7659,
      "ĠKag": 7660,
      "ĠKar": 7661,
      "Ġcash": 7662,
      "irc": 7663,
      "Ġvis": 7664,
      "cover": 7665,
      "Ġ01": 7666,
      "ĠMakap": 7667,
      "ĠNiining": 7668,
      "Ġmakaluwas": 7669,
      "à·Ĵ": 7670,
      "ĠSrp": 7671,
      "×ĳ×¨×Ļ×ª": 7672,
      "!âĢĿ": 7673,
      "cr": 7674,
      "dy": 7675,
      "fol": 7676,
      "ni": 7677,
      "Ġayo": 7678,
      "Ġmangita": 7679,
      "imento": 7680,
      "Ġdist": 7681,
      "Ġdiy": 7682,
      "Ġbuta": 7683,
      "inium": 7684,
      "ĠCle": 7685,
      "Ġmakunhuran": 7686,
      "ĠLin": 7687,
      "ĠHard": 7688,
      "Ġilalum": 7689,
      "ĠMatcha": 7690,
      "ĠSpain": 7691,
      "Ġreklamo": 7692,
      "omaali": 7693,
      "ĠOktubre": 7694,
      "Ġelektrisidad": 7695,
      "à·Ħ": 7696,
      "à¶½": 7697,
      "ãĢģ": 7698,
      "organisar": 7699,
      "BO": 7700,
      "br": 7701,
      "Ġdap": 7702,
      "tocol": 7703,
      "Ġhulga": 7704,
      "ĠBuy": 7705,
      "ĠGas": 7706,
      "ĠGener": 7707,
      "Ġmahibalo": 7708,
      "Ġpagtawag": 7709,
      "Ġratio": 7710,
      "Ġpaglakaw": 7711,
      "áŀļ": 7712,
      "ĠEdge": 7713,
      "Ġsingle": 7714,
      "Ġmekanismo": 7715,
      "à¶Ĥ": 7716,
      "ĠServices": 7717,
      "ĠLicense": 7718,
      "Ġdetalyado": 7719,
      "à·Ĵà¶Ĥ": 7720,
      "à·Ħà¶½": 7721,
      "bÃ¡": 7722,
      "ism": 7723,
      "ĠSwitzerland": 7724,
      "ĠDok": 7725,
      "Ġpagpanganak": 7726,
      "ĠLion": 7727,
      "ĠWar": 7728,
      "chain": 7729,
      "ohon": 7730,
      "lara": 7731,
      "Ġmanufactur": 7732,
      "Ġnagsiguro": 7733,
      "ĠShibuk": 7734,
      "igalaon": 7735,
      "áŀĺ": 7736,
      "áŀŁ": 7737,
      "ĠSpot": 7738,
      "ĠNaa": 7739,
      "Ġgipahinungod": 7740,
      "DS": 7741,
      "UR": 7742,
      "mission": 7743,
      "Ġpaggama": 7744,
      "ayi": 7745,
      "Ġsili": 7746,
      "ĠSec": 7747,
      "reo": 7748,
      "Ġhukom": 7749,
      "umite": 7750,
      "ugi": 7751,
      "ĠLakip": 7752,
      "Ġarg": 7753,
      "ĠWire": 7754,
      "Ġkahing": 7755,
      "ĠCoahu": 7756,
      "ahiuli": 7757,
      "rasil": 7758,
      "Ġtemplo": 7759,
      "áŀģ": 7760,
      "Ġmakabaton": 7761,
      "Ġbasehan": 7762,
      "Ġpagpatay": 7763,
      "ĠDemokrat": 7764,
      "áŁĤ": 7765,
      "ĠDallas": 7766,
      "Ġdensidad": 7767,
      "anduraw": 7768,
      "Hz": 7769,
      "Xhosa": 7770,
      "·ĥ": 7771,
      "Ġtawhanong": 7772,
      "erte": 7773,
      "uns": 7774,
      "ĠDol": 7775,
      "olar": 7776,
      "Ġmakamugna": 7777,
      "ĠGiga": 7778,
      "ebisyon": 7779,
      "ĠOax": 7780,
      "ĠOhio": 7781,
      "Ġ2013": 7782,
      "Ġnasinati": 7783,
      "Ġà·ĥ": 7784,
      "Ġrobot": 7785,
      "ĠIkaduha": 7786,
      "áŀĹ": 7787,
      "Ġmineral": 7788,
      "Ġboot": 7789,
      "ayloay": 7790,
      "ĠMotor": 7791,
      "ĠSemalt": 7792,
      "Ã¹bÃ¡": 7793,
      "ĠOaxaca": 7794,
      "xx": 7795,
      "®Ģä": 7796,
      "Ġdayag": 7797,
      "uble": 7798,
      "ĠGamit": 7799,
      "Ġfet": 7800,
      "ĠWater": 7801,
      "iyembre": 7802,
      "Ġvi": 7803,
      "102": 7804,
      "Ġbulawan": 7805,
      "Ġgilangkuban": 7806,
      "ĠKanimo": 7807,
      "Ġestuwaryo": 7808,
      "Ġserv": 7809,
      "Ġcompound": 7810,
      "ashington": 7811,
      "ĠBinase": 7812,
      "Ġnagmugna": 7813,
      "Ġvirtuals": 7814,
      "Ġpantalan": 7815,
      "ĠShibuki": 7816,
      "ĠCoahuila": 7817,
      "lagan": 7818,
      "ath": 7819,
      "Ġhataas": 7820,
      "ĠDI": 7821,
      "ukso": 7822,
      "ĠHari": 7823,
      "001": 7824,
      "eph": 7825,
      "Ġsinulat": 7826,
      "ĠiPod": 7827,
      "Ġtumatan": 7828,
      "ĠBelg": 7829,
      "isteryo": 7830,
      "ĠPipila": 7831,
      "ĠDemokratiko": 7832,
      "yahan": 7833,
      "Ġ66": 7834,
      "Ġpulo": 7835,
      "atible": 7836,
      "imal": 7837,
      "ĠMultip": 7838,
      "ĠKuhaa": 7839,
      "ĠLabaw": 7840,
      "ĠHapon": 7841,
      "uda": 7842,
      "ĠWin": 7843,
      "ĠOff": 7844,
      "Ġnagplano": 7845,
      "Ġnagpamatuod": 7846,
      "ĠVega": 7847,
      "ĠChurch": 7848,
      "Ġmapanalipdan": 7849,
      "Ġ08": 7850,
      "ĠMaria": 7851,
      "Ġkarne": 7852,
      "Ġbinuhat": 7853,
      "ĠGermany": 7854,
      "Ġresidente": 7855,
      "ĠChiapas": 7856,
      "Ġkatakus": 7857,
      "ĠBluetooth": 7858,
      "ĠHabagatang": 7859,
      "Gu": 7860,
      "Ġ×Ļ": 7861,
      "ilig": 7862,
      "Ġtore": 7863,
      "ĠTs": 7864,
      "Ġmahuman": 7865,
      "Ġwh": 7866,
      "Ġgiusab": 7867,
      "Ġpartikulo": 7868,
      "Ġparameter": 7869,
      "Ġ71": 7870,
      "Ġ94": 7871,
      "Ġtela": 7872,
      "Ġmisulod": 7873,
      "Ġpitaka": 7874,
      "Ġkahigayon": 7875,
      "OR": 7876,
      "white": 7877,
      "ĠMy": 7878,
      "Ġmagnet": 7879,
      "aghan": 7880,
      "usay": 7881,
      "Ġvacuum": 7882,
      "ĠÂ¹": 7883,
      "lakaw": 7884,
      "Ġkeyword": 7885,
      "ĠYorÃ¹bÃ¡": 7886,
      "edyul": 7887,
      "ĠKingdom": 7888,
      "Ġtiket": 7889,
      "ĠKinatibuk": 7890,
      "ambayayong": 7891,
      "EA": 7892,
      "duha": 7893,
      "iXhosa": 7894,
      "ĠáŀĹ": 7895,
      "Ġpagpas": 7896,
      "ĠRead": 7897,
      "Ġfac": 7898,
      "Ġrandom": 7899,
      "ivate": 7900,
      "Ġpagmentinar": 7901,
      "ĠisiXhosa": 7902,
      "Ġestasyon": 7903,
      "ĠDepresyon": 7904,
      "mosyonal": 7905,
      "Ġkumpirm": 7906,
      "Ġsinultian": 7907,
      "ĠHesu": 7908,
      "Ġpinuy": 7909,
      "ford": 7910,
      "pen": 7911,
      "nganan": 7912,
      "inh": 7913,
      "Ġsunog": 7914,
      "amine": 7915,
      "yasan": 7916,
      "Ġmaanindot": 7917,
      "ĠBata": 7918,
      "ĠRef": 7919,
      "ĠFib": 7920,
      "Ġpagtapos": 7921,
      "Ġpinakamaayong": 7922,
      "ĠKaugalingon": 7923,
      "ĠManag": 7924,
      "ĠPhysical": 7925,
      "Ġpantasya": 7926,
      "zation": 7927,
      "Ġmut": 7928,
      "Ġswitch": 7929,
      "Ġlut": 7930,
      "ikar": 7931,
      "odega": 7932,
      "inid": 7933,
      "igum": 7934,
      "ely": 7935,
      "Ġprotina": 7936,
      "Ġmayor": 7937,
      "Ġroom": 7938,
      "ĠSocial": 7939,
      "ahimuot": 7940,
      "RISTO": 7941,
      "Ġzero": 7942,
      "imnon": 7943,
      "ulak": 7944,
      "ĠSentral": 7945,
      "Ġmaul": 7946,
      "Ġmangayo": 7947,
      "Ġcer": 7948,
      "eksto": 7949,
      "aghimo": 7950,
      "traso": 7951,
      "anda": 7952,
      "Ġmaskara": 7953,
      "Ġpaghikap": 7954,
      "Ġbagyo": 7955,
      "raz": 7956,
      "ĠMax": 7957,
      "Ġ69": 7958,
      "Ġcompress": 7959,
      "Ġmotubo": 7960,
      "scan": 7961,
      "ĠDisorder": 7962,
      "ĠNiadtong": 7963,
      "pagk": 7964,
      "Ġbuilt": 7965,
      "ĠPaagi": 7966,
      "hibo": 7967,
      "å¸": 7968,
      "ĺħ": 7969,
      "ania": 7970,
      "unahan": 7971,
      "igda": 7972,
      "ĠTest": 7973,
      "ici": 7974,
      "Ġinsp": 7975,
      "Ġnakolekta": 7976,
      "Ġgitudlo": 7977,
      "Ġmalisud": 7978,
      "Ġtagdon": 7979,
      "Ġmekanikal": 7980,
      "souri": 7981,
      "Ġkahinguhaan": 7982,
      "trasound": 7983,
      "CP": 7984,
      "ceb": 7985,
      "Ġnalipay": 7986,
      "Ġpagnegosyo": 7987,
      "abin": 7988,
      "abalik": 7989,
      "reen": 7990,
      "edor": 7991,
      "Ġubay": 7992,
      "Ġfashion": 7993,
      "antus": 7994,
      "sklus": 7995,
      "ĠStreet": 7996,
      "Ġgatas": 7997,
      "Ġsidlakan": 7998,
      "Ġmakasasala": 7999,
      "iktima": 8000,
      "udhub": 8001,
      "Ġkomprehensibo": 8002,
      "%.": 8003,
      "tum": 8004,
      "asol": 8005,
      "Ġleh": 8006,
      "ĠSag": 8007,
      "ĠKadtong": 8008,
      "Ġhustong": 8009,
      "ugol": 8010,
      "Ġadto": 8011,
      "urce": 8012,
      "Ġarte": 8013,
      "ĠFire": 8014,
      "ece": 8015,
      "enser": 8016,
      "Ġnagkalainlaing": 8017,
      "istoryahan": 8018,
      "Ġkadagatan": 8019,
      "Ġpumapalit": 8020,
      "udhubudhub": 8021,
      "list": 8022,
      "tic": 8023,
      "ilyon": 8024,
      "ĠPack": 8025,
      "idemya": 8026,
      "usulat": 8027,
      "ĠNe": 8028,
      "ĠJo": 8029,
      "ihanang": 8030,
      "Ġsukdanan": 8031,
      "Ġnangutana": 8032,
      "ALA": 8033,
      "ĠColle": 8034,
      "Ġasawa": 8035,
      "ustisya": 8036,
      "ÙĦØ": 8037,
      "Ġwithdraw": 8038,
      "ĠCryptocurren": 8039,
      "Ġelektron": 8040,
      "Ġleverage": 8041,
      "Ġhimoon": 8042,
      "TH": 8043,
      "Ġpero": 8044,
      "Ġtun": 8045,
      "Ġbus": 8046,
      "unyag": 8047,
      "unikasyon": 8048,
      "ĠSitemap": 8049,
      "ĠPulong": 8050,
      "ĠMT": 8051,
      "Ġhatag": 8052,
      "ĠLas": 8053,
      "Ġnaihap": 8054,
      "ĠOc": 8055,
      "Ġkatunga": 8056,
      "ĠUniversity": 8057,
      "Ġ103": 8058,
      "Ġpagluto": 8059,
      "adaog": 8060,
      "orsyo": 8061,
      "Ġbukton": 8062,
      "Ġpribadong": 8063,
      "representar": 8064,
      "Ġpilosop": 8065,
      "Ġ\\": 8066,
      "ĠÅ": 8067,
      "Ġec": 8068,
      "Ġkun": 8069,
      "ĠGil": 8070,
      "ĠHigh": 8071,
      "ĠHingpit": 8072,
      "ĠFol": 8073,
      "Ġpropeta": 8074,
      "antayan": 8075,
      "Ġmatarong": 8076,
      "Ġkasuk": 8077,
      "Ġbulak": 8078,
      "Ġcheck": 8079,
      "ĠAmong": 8080,
      "Ġmohatag": 8081,
      "Ġbank": 8082,
      "Ġkonsumedor": 8083,
      "Ġmilitarya": 8084,
      "ĠKAMI": 8085,
      "Ġkahigayonan": 8086,
      "VI": 8087,
      "ez": 8088,
      "itas": 8089,
      "iba": 8090,
      "ĠCristo": 8091,
      "Ġmakanunay": 8092,
      "Ġpagpasa": 8093,
      "ĠEmosyonal": 8094,
      "ĠRel": 8095,
      "ĠFa": 8096,
      "ĠIningles": 8097,
      "ĠÂ²": 8098,
      "ected": 8099,
      "Ġpagpaambit": 8100,
      "Ġsuplemento": 8101,
      "Ġclip": 8102,
      "ĠGaeilge": 8103,
      "Ġbackup": 8104,
      "Ġlogist": 8105,
      "Ġmasayud": 8106,
      "Ġfoot": 8107,
      "Ġbungbong": 8108,
      "Ġä¸Ńæĸĩ": 8109,
      "Ġtv": 8110,
      "ĠAtol": 8111,
      "uhid": 8112,
      "Ġcur": 8113,
      "Ġnahisa": 8114,
      "Ġaf": 8115,
      "Ġ83": 8116,
      "aboga": 8117,
      "uction": 8118,
      "Ġmagbag": 8119,
      "Ġgipaila": 8120,
      "Ġartista": 8121,
      "Ġ×¢×ĳ×¨×Ļ×ª": 8122,
      "Ġsapatos": 8123,
      "ĠMissouri": 8124,
      "Ġpixel": 8125,
      "ĠPamaagi": 8126,
      "ĠKol": 8127,
      "reonate": 8128,
      "ĠGlavica": 8129,
      "ĠVill": 8130,
      "Ġkahib": 8131,
      "Ġ89": 8132,
      "Ġipatuman": 8133,
      "ĠProfile": 8134,
      "Ġmagpadala": 8135,
      "hern": 8136,
      "Ġinterb": 8137,
      "Ġdesign": 8138,
      "Ġsekso": 8139,
      "ĠAwtor": 8140,
      "ĠIndustrial": 8141,
      "Ġorganikong": 8142,
      "Ġwithdrawal": 8143,
      "Com": 8144,
      "angay": 8145,
      "onic": 8146,
      "illo": 8147,
      "Ġtipigan": 8148,
      "Ġspr": 8149,
      "Ġbodega": 8150,
      "ĠKr": 8151,
      "ĠTown": 8152,
      "Ġunod": 8153,
      "upat": 8154,
      "Ġkatahum": 8155,
      "Ġgitan": 8156,
      "Ġ2023": 8157,
      "ĠYo": 8158,
      "ĠPanit": 8159,
      "Ġmaghisgot": 8160,
      "ĠInstit": 8161,
      "Ġmisulay": 8162,
      "ĠSkype": 8163,
      "Ġnakatabang": 8164,
      "Ġinfo": 8165,
      "ĠLisensya": 8166,
      "VID": 8167,
      "friendly": 8168,
      "kay": 8169,
      "lam": 8170,
      "mod": 8171,
      "ĠPAR": 8172,
      "Ġwww": 8173,
      "Ġpaghiusa": 8174,
      "Ġgihiusa": 8175,
      "Ġmakapili": 8176,
      "Ġbalhibo": 8177,
      "ĠSound": 8178,
      "Ġarticle": 8179,
      "adrid": 8180,
      "Ġdekada": 8181,
      "dasdasdasdasdasdasdasdasdasdasdasdasdasdasdasdasdasdasdasdasdasdasdasdasdasdasdasdasdasdasdasdasdasdasdasdasdasdasdasdasdasdasdasdasdasdasdasddasdasdasdasdasdasdasdasdasdasdasdasdasdasdasdasdasdasdasdasdasdasdasdasdasdasdasdasdasdasdasdasdasdasdasdasdasdasdasdasdasdasdasdasdasdasdasddasdasdasdasdasdasdasdasdasdasdasdasdasdasdasdasdasdasdasdasdasdasdasdasdasdasdasdasdasdasdasdasdasdasdasdasdasdasdasdasdasdasdasdasdasdasdasddasdasdasdasdasdasdasdasdasdasdasdasdasdasdasdasdasdasdasdasdasdasdasdasdasdasdasdasdasdasdasdasdasdasdasdasdasdasdasdasdasdasdasdasdasdasdasd": 8182,
      "ĠKristohanon": 8183,
      "Ġnaggikan": 8184,
      "ĠAprikano": 8185,
      ":-": 8186,
      "AO": 8187,
      "block": 8188,
      "Ġnot": 8189,
      "Ġbok": 8190,
      "ĠCy": 8191,
      "ĠGen": 8192,
      "ĠURL": 8193,
      "ĠLuwas": 8194,
      "Ġpagtino": 8195,
      "iyal": 8196,
      "pananglitan": 8197,
      "Ġmoga": 8198,
      "Ġbalido": 8199,
      "Ġupd": 8200,
      "Ġlarawan": 8201,
      "ĠOpen": 8202,
      "ĠFactory": 8203,
      "Ġgraphics": 8204,
      "Ġentidad": 8205,
      "Ġprobisyon": 8206,
      "oul": 8207,
      "Ġ]": 8208,
      "Ġpoint": 8209,
      "elt": 8210,
      "ĠTrans": 8211,
      "etr": 8212,
      "ĠNic": 8213,
      "Ġflash": 8214,
      "anti": 8215,
      "Ġpaghulma": 8216,
      "Ġkomisyon": 8217,
      "ober": 8218,
      "Ġatubang": 8219,
      "Ġkapit": 8220,
      "verg": 8221,
      "ompet": 8222,
      "ifi": 8223,
      "igalaay": 8224,
      "Ġpagpaminaw": 8225,
      "ĠÃĹ": 8226,
      "Ġspeed": 8227,
      "UDIO": 8228,
      "Cloud": 8229,
      "lab": 8230,
      "anay": 8231,
      "anam": 8232,
      "angga": 8233,
      "unat": 8234,
      "ĠKum": 8235,
      "ĠKir": 8236,
      "ĠEmer": 8237,
      "Ġgipresentar": 8238,
      "ĠJan": 8239,
      "Ġkadugay": 8240,
      "115": 8241,
      "Ġnatawo": 8242,
      "ĠPagkansela": 8243,
      "Ġelect": 8244,
      "Ġsukwahi": 8245,
      "rantiyahan": 8246,
      "Ġstress": 8247,
      "ĠKristohanong": 8248,
      "Ro": 8249,
      "bre": 8250,
      "tambayayong": 8251,
      "anod": 8252,
      "oni": 8253,
      "iger": 8254,
      "Ġmac": 8255,
      "ukaw": 8256,
      "Ġpagpusta": 8257,
      "Ġpagkompleto": 8258,
      "Ġinpatient": 8259,
      "spar": 8260,
      "ĠAdd": 8261,
      "Ġmotan": 8262,
      "Ġmakakat": 8263,
      "uela": 8264,
      "bangi": 8265,
      "Ġrekord": 8266,
      "Ġgipanalipdan": 8267,
      "Ġtimef": 8268,
      "Ã²l": 8269,
      "reyÃ²l": 8270,
      "ĠBelgium": 8271,
      "Nahimutang": 8272,
      "Tungod": 8273,
      "dag": 8274,
      "lihi": 8275,
      "vis": 8276,
      "Ġmamat": 8277,
      "ulihan": 8278,
      "ĠSert": 8279,
      "Ġoo": 8280,
      "omba": 8281,
      "ĠPagpan": 8282,
      "Ġnaugmad": 8283,
      "ĠJet": 8284,
      "Ġmotubag": 8285,
      "ropono": 8286,
      "Ġjack": 8287,
      "Ġtimaan": 8288,
      "ĠKomunikasyon": 8289,
      "ĠAsia": 8290,
      "arungan": 8291,
      "Ġthermal": 8292,
      "Ġkaumahan": 8293,
      "ĠApostoles": 8294,
      "bay": 8295,
      "cent": 8296,
      "kreto": 8297,
      "imot": 8298,
      "uhing": 8299,
      "Ġads": 8300,
      "ĠNav": 8301,
      "ude": 8302,
      "ugahan": 8303,
      "Ġilimnon": 8304,
      "export": 8305,
      "estic": 8306,
      "Ġgidugayon": 8307,
      "Ġsalakyanan": 8308,
      "embed": 8309,
      "Ġmakaamgo": 8310,
      "Ġtinago": 8311,
      "ĠCarbon": 8312,
      "Ġkonseho": 8313,
      "ĠSept": 8314,
      "Ġpagkaguba": 8315,
      "ĠLinks": 8316,
      "Ġkandila": 8317,
      "idalgo": 8318,
      "ĠSmith": 8319,
      "IG": 8320,
      "Ġpool": 8321,
      "ĠCorn": 8322,
      "ĠDapit": 8323,
      "ĠLondon": 8324,
      "Ġnagpugong": 8325,
      "ĠJack": 8326,
      "Ġatol": 8327,
      "Ġ76": 8328,
      "Ġbattery": 8329,
      "ĠApps": 8330,
      "Ġtingga": 8331,
      "Ġthird": 8332,
      "Ġgasolina": 8333,
      "nasarain": 8334,
      "ĠIll": 8335,
      "Ġreply": 8336,
      "Ġcontent": 8337,
      "Ġcontact": 8338,
      "GBT": 8339,
      "Ġnakasinati": 8340,
      "uff": 8341,
      "ÑĪ": 8342,
      "×ĵ×Ļ×©": 8343,
      "Ø³": 8344,
      "ilalom": 8345,
      "enna": 8346,
      "ospital": 8347,
      "Ġnagal": 8348,
      "ĠDayon": 8349,
      "ĠTom": 8350,
      "ĠRem": 8351,
      "Ġpaghubad": 8352,
      "ĠEstonia": 8353,
      "urog": 8354,
      "ulatan": 8355,
      "Ġdagan": 8356,
      "Ġahente": 8357,
      "Ġadministrasyon": 8358,
      "ĠLamang": 8359,
      "Ġanghel": 8360,
      "apah": 8361,
      "yol": 8362,
      "ĠLGBT": 8363,
      "Ġpagkinabuhi": 8364,
      "Ġprint": 8365,
      "Ġproduc": 8366,
      "Ġkalisud": 8367,
      "indro": 8368,
      "Ġord": 8369,
      "Ġvari": 8370,
      "Ġnaglingkod": 8371,
      "Ġandro": 8372,
      "ĠExpress": 8373,
      "Ġpagpalig": 8374,
      "Ġkurtina": 8375,
      "Ġbildo": 8376,
      "ĠKaniadto": 8377,
      "Ġnahiuyon": 8378,
      "ĠDurango": 8379,
      "Ġtimeframe": 8380,
      "RP": 8381,
      "dili": 8382,
      "liya": 8383,
      "iton": 8384,
      "asubo": 8385,
      "Ġdungan": 8386,
      "ĠAutom": 8387,
      "arant": 8388,
      "ĠSports": 8389,
      "Ġhiyas": 8390,
      "Ġ($": 8391,
      "ĠButang": 8392,
      "ĠDownload": 8393,
      "ĠFinal": 8394,
      "Ġlaborator": 8395,
      "Ġkaming": 8396,
      "Ġgipahibalo": 8397,
      "Ġgipangutana": 8398,
      "Ġpagdagan": 8399,
      "Ġ62": 8400,
      "atinga": 8401,
      "leta": 8402,
      "Ã¡la": 8403,
      "Ġkonsumo": 8404,
      "ĠPagtuon": 8405,
      "ĠColombia": 8406,
      "Ġsilot": 8407,
      "Ġlimitahan": 8408,
      "Ġartipisyal": 8409,
      "Ġkaraang": 8410,
      "abogon": 8411,
      "Ġpuyde": 8412,
      "Ġbililhon": 8413,
      "Ġhigdaanan": 8414,
      "Ġfetus": 8415,
      "istoryahanay": 8416,
      "Glavica": 8417,
      "sia": 8418,
      "uoy": 8419,
      "Ġte": 8420,
      "Ġbiktima": 8421,
      "Ġhur": 8422,
      "ĠEpekto": 8423,
      "uron": 8424,
      "lop": 8425,
      "oplano": 8426,
      "ĠWatch": 8427,
      "chemical": 8428,
      "ĠVo": 8429,
      "artment": 8430,
      "Ġmilag": 8431,
      "Ġeksklus": 8432,
      "yudad": 8433,
      "ĠAmerika": 8434,
      "Ġmikropono": 8435,
      "Ġgipanag": 8436,
      "Ġaktwal": 8437,
      "Ġmesh": 8438,
      "Ġkriminal": 8439,
      "ION": 8440,
      "Up": 8441,
      "YO": 8442,
      "sing": 8443,
      "imatu": 8444,
      "ahay": 8445,
      "akyasan": 8446,
      "erimento": 8447,
      "ĠScreenshot": 8448,
      "ĠDro": 8449,
      "ĠInf": 8450,
      "igawas": 8451,
      "Ġmanok": 8452,
      "Ġ68": 8453,
      "Ġdisc": 8454,
      "Ġeff": 8455,
      "Ġultra": 8456,
      "Ġnangaging": 8457,
      "Ġpaggaling": 8458,
      "Ġturista": 8459,
      "Ġeditoryal": 8460,
      "Ġmultiplayer": 8461,
      "imatuud": 8462,
      "gency": 8463,
      "Ġmini": 8464,
      "Ġperson": 8465,
      "ikod": 8466,
      "Ġmahigalaon": 8467,
      "ĠLegal": 8468,
      "eks": 8469,
      "Ġpanalapi": 8470,
      "ugasan": 8471,
      "ehova": 8472,
      "Ġ78": 8473,
      "Ġkinatas": 8474,
      "ĠIkat": 8475,
      "Ġnapamatud": 8476,
      "Ġoperator": 8477,
      "Ġbilyon": 8478,
      "Ġpagkasulti": 8479,
      "Ġeroplano": 8480,
      "ĠBibliya": 8481,
      "Ġmapalambo": 8482,
      "Ġtambok": 8483,
      "%,": 8484,
      "Sex": 8485,
      "lim": 8486,
      "tit": 8487,
      "Ġsyn": 8488,
      "Ġbaw": 8489,
      "ĠMO": 8490,
      "ĠMadrid": 8491,
      "ĠList": 8492,
      "ĠLCD": 8493,
      "Ġpagtag": 8494,
      "ivity": 8495,
      "ugoti": 8496,
      "Ġmodawat": 8497,
      "Ġcoating": 8498,
      "Ġusing": 8499,
      "Ġgilaraw": 8500,
      "abaga": 8501,
      "\"/>}}": 8502,
      "Ġespesipikong": 8503,
      "Ġhaluang": 8504,
      "ĠGuadalupe": 8505,
      "Ð¾ÑĢ": 8506,
      "ĠGamay": 8507,
      "Ð°ÑĪ": 8508,
      "Ġcaption": 8509,
      "ĠDawata": 8510,
      "ĠMultiple": 8511,
      "ĠLGBTQ": 8512,
      "CM": 8513,
      "Tan": 8514,
      "adistika": 8515,
      "Ġnaghiusa": 8516,
      "Ġhain": 8517,
      "Ġcy": 8518,
      "Ġfr": 8519,
      "Ġnamat": 8520,
      "Ġ79": 8521,
      "Ġdinam": 8522,
      "quency": 8523,
      "ministr": 8524,
      "atanas": 8525,
      "ĠDisk": 8526,
      "oxy": 8527,
      "ĠAzeri": 8528,
      "Ġnakabig": 8529,
      "ĠIntel": 8530,
      "isitahan": 8531,
      "ĠBiblical": 8532,
      "ĠKONT": 8533,
      "Ako": 8534,
      "LES": 8535,
      "Roma": 8536,
      "over": 8537,
      "pal": 8538,
      "pst": 8539,
      "Ġkaayong": 8540,
      "Ġnalang": 8541,
      "ahil": 8542,
      "ahen": 8543,
      "Ġsquare": 8544,
      "iksyon": 8545,
      "estern": 8546,
      "ĠPersonal": 8547,
      "utube": 8548,
      "ĠBol": 8549,
      "option": 8550,
      "Ġ400": 8551,
      "ĠJehova": 8552,
      "Ġ63": 8553,
      "Ġmalumo": 8554,
      "Ġmiabut": 8555,
      "Ġpamuhunan": 8556,
      "Ġkarnero": 8557,
      "ĠNews": 8558,
      "Ġmamugna": 8559,
      "Ġsiyent": 8560,
      "ĠLatina": 8561,
      "Ġrefer": 8562,
      "Ġnalambigit": 8563,
      "Pags": 8564,
      "Ġpaglaum": 8565,
      "¹Ø±Ø¨ÙĬØ©": 8566,
      "ÙĦØ¹Ø±Ø¨ÙĬØ©": 8567,
      "DRE": 8568,
      "dit": 8569,
      "och": 8570,
      "Ġmembro": 8571,
      "Ġpay": 8572,
      "inawon": 8573,
      "Ġsyudad": 8574,
      "Ġguy": 8575,
      "abah": 8576,
      "amay": 8577,
      "Ġlet": 8578,
      "ĠSatanas": 8579,
      "ĠPsych": 8580,
      "Ġheat": 8581,
      "ĠBug": 8582,
      "ĠNegosyo": 8583,
      "ĠLeg": 8584,
      "ĠFeature": 8585,
      "ĠWe": 8586,
      "Ġtrimester": 8587,
      "Ġ102": 8588,
      "Ġ82": 8589,
      "intal": 8590,
      "139": 8591,
      "Ġpattern": 8592,
      "Ġulohang": 8593,
      "Ġdautan": 8594,
      "Ġulipon": 8595,
      "ĠWhite": 8596,
      "Ġoffline": 8597,
      "Ġdalunggan": 8598,
      "Ġhinumdoman": 8599,
      "Station": 8600,
      "ĠChristian": 8601,
      "Ġcryptocurrency": 8602,
      "ĠTreas": 8603,
      "ĠEmergency": 8604,
      "Cebuano": 8605,
      "osa": 8606,
      "ror": 8607,
      "ves": 8608,
      "Ø¨": 8609,
      "Ġili": 8610,
      "inate": 8611,
      "ĠMateo": 8612,
      "iniusang": 8613,
      "ĠKit": 8614,
      "ĠTian": 8615,
      "opya": 8616,
      "Ġapil": 8617,
      "essee": 8618,
      "Ġepidemya": 8619,
      "Ġmakatipig": 8620,
      "ĠCompany": 8621,
      "ĠPlayStation": 8622,
      "ennessee": 8623,
      "nasapop": 8624,
      "Ġbackground": 8625,
      "ISYON": 8626,
      "Ġrepresent": 8627,
      "ĠAbogado": 8628,
      "Ġdevelopers": 8629,
      "ĠKahadlok": 8630,
      "Ġtapuson": 8631,
      "Ġpagkamatarong": 8632,
      "Ġdokumentasyon": 8633,
      "tumoy": 8634,
      "ĠDroga": 8635,
      "onya": 8636,
      "ahas": 8637,
      "Ġtugutan": 8638,
      "ĠKA": 8639,
      "Ġnaga": 8640,
      "Ġcop": 8641,
      "Ġgipunting": 8642,
      "obia": 8643,
      "ĠAlkohol": 8644,
      "Ġlamp": 8645,
      "ability": 8646,
      "Ġusername": 8647,
      "Ġtagasunod": 8648,
      "Ġmadumala": 8649,
      "Ġnagbuhat": 8650,
      "Ġpagpaandar": 8651,
      "umbre": 8652,
      "scroll": 8653,
      "ĠKatap": 8654,
      "ĠClinic": 8655,
      "Ġdiagnosis": 8656,
      "webkit": 8657,
      "ĠSertipiko": 8658,
      ".)": 8659,
      "fe": 8660,
      "serb": 8661,
      "Ø¹": 8662,
      "akak": 8663,
      "Ġsen": 8664,
      "Ġlead": 8665,
      "Ġwar": 8666,
      "ĠEp": 8667,
      "ĠLing": 8668,
      "Ġpaag": 8669,
      "ĠFu": 8670,
      "ĠWashington": 8671,
      "ĠUnang": 8672,
      "Ġkapakyasan": 8673,
      "Ġkadugangan": 8674,
      "ĠNagsugod": 8675,
      "Ġmakaila": 8676,
      "uces": 8677,
      "minahan": 8678,
      "Ġgipatuman": 8679,
      "zoom": 8680,
      "salamat": 8681,
      "Ġpull": 8682,
      "ĠMacedonia": 8683,
      "ĠNagkinahanglan": 8684,
      "Ġdomestic": 8685,
      "ĠÒļÐ°Ð·Ð°ÒĽÑĪ": 8686,
      "Ġsugilanon": 8687,
      "ĠÒļÐ°Ð·Ð°ÒĽÑĪÐ°": 8688,
      ":#": 8689,
      "uasa": 8690,
      "Ķáĥ": 8691,
      "Ġsaad": 8692,
      "Ġpolusyon": 8693,
      "atod": 8694,
      "Ġprutas": 8695,
      "Ġpand": 8696,
      "Ġpanalipod": 8697,
      "ione": 8698,
      "Ġgapas": 8699,
      "Ġgihigugma": 8700,
      "Ġnagtubo": 8701,
      "lio": 8702,
      "Ġanime": 8703,
      "Ġmakapalit": 8704,
      "âĢĿ.": 8705,
      "ĠExchange": 8706,
      "Ġkostumbre": 8707,
      "ĠTags": 8708,
      "Ġbuhis": 8709,
      "Ġgigahin": 8710,
      "Ġworkshop": 8711,
      "gaygaygaygay": 8712,
      "ungkag": 8713,
      "ĠBottom": 8714,
      "Location": 8715,
      "Ug": 8716,
      "dumala": 8717,
      "world": 8718,
      "Ġend": 8719,
      "Ġkulang": 8720,
      "Ġkoral": 8721,
      "Ġpig": 8722,
      "inaryo": 8723,
      "ĠKAH": 8724,
      "idlak": 8725,
      "Ġalloy": 8726,
      "ĠNot": 8727,
      "ĠNangita": 8728,
      "edIn": 8729,
      "Ġpanumduman": 8730,
      "ional": 8731,
      "ĠOÊ»": 8732,
      "antidad": 8733,
      "ĠVirg": 8734,
      "Ġkapabilidad": 8735,
      "ultihan": 8736,
      "2016": 8737,
      "Ġisk": 8738,
      "vie": 8739,
      "ĠImpress": 8740,
      "ĠZone": 8741,
      "Ġmagsusulat": 8742,
      "Ġpinakataas": 8743,
      "âĢĭâĢĭ": 8744,
      "Ġshort": 8745,
      "ĠPortugal": 8746,
      "ÃŃo": 8747,
      "ĠAccess": 8748,
      "ĠDetox": 8749,
      "Ġsagol": 8750,
      "Ġarkitekto": 8751,
      "33333333333333333333333333333333333333333333333333333333333333333333333333333333333333333333333333333333333333333333333333333333333333333333333333333333333333333333333333333333333333333333333333333333333333333333333333333333333333333333333333333333333333333333333333333333333333333333333333333333333333333333333333333333333333333333333333333333333333333333333333333333333333333333333333333333333333333333333333333333333333333333333333333333333333333333333333333333333333333333333333333333333333333333333333333333": 8752,
      "Ġdryer": 8753,
      "Ġservice": 8754,
      "ĠOÊ»zbekcha": 8755,
      "lite": 8756,
      "aks": 8757,
      "enyente": 8758,
      "Ġadhes": 8759,
      "ĠGum": 8760,
      "Ġrub": 8761,
      "Ġikonsiderar": 8762,
      "uwega": 8763,
      "ahiusa": 8764,
      "ugno": 8765,
      "ÑģÐ°": 8766,
      "unsad": 8767,
      "embliya": 8768,
      "Ġestadistika": 8769,
      "Ġinteractive": 8770,
      "Ġshot": 8771,
      "Ġkondili": 8772,
      "ĠMoz": 8773,
      "Ġpulos": 8774,
      "Ġpagpakunhod": 8775,
      "ĠNarcissist": 8776,
      "inidad": 8777,
      "Ġlehit": 8778,
      "ball": 8779,
      "ciano": 8780,
      "party": 8781,
      "ysi": 8782,
      "angzhou": 8783,
      "alandong": 8784,
      "Ġgunting": 8785,
      "ĠSpe": 8786,
      "ĠKina": 8787,
      "ĠHel": 8788,
      "Ġnagpas": 8789,
      "ĠKond": 8790,
      "ization": 8791,
      "ific": 8792,
      "Ġeuro": 8793,
      "Ġdirektor": 8794,
      "Ġestrikto": 8795,
      "ĠAluminium": 8796,
      "ĠSuper": 8797,
      "ĠAzÉĻrbaycanca": 8798,
      "Ġpangitaon": 8799,
      "Ġpormula": 8800,
      "Ġmaximum": 8801,
      "Ġargumento": 8802,
      "Ġlaboratoryo": 8803,
      "MI": 8804,
      "OP": 8805,
      "pm": 8806,
      "su": 8807,
      "ilag": 8808,
      "Ġtal": 8809,
      "ĠTime": 8810,
      "ĠTennessee": 8811,
      "Ġwe": 8812,
      "ĠLiving": 8813,
      "ekn": 8814,
      "Ġmasinati": 8815,
      "inois": 8816,
      "esti": 8817,
      "Ġresin": 8818,
      "Ġplus": 8819,
      "ĠPagpa": 8820,
      "Ġasembliya": 8821,
      "Ġmagtugot": 8822,
      "ĠâĢĭâĢĭâĢĭâĢĭ": 8823,
      "ribyu": 8824,
      "stralya": 8825,
      "ĠGitukod": 8826,
      "ÙĬØ": 8827,
      "Ġinstitusyon": 8828,
      "ĠPakigsaad": 8829,
      "ĠMakatabang": 8830,
      "Ġàº¥àº²àº§": 8831,
      "inhawa": 8832,
      "ompetensya": 8833,
      "fer": 8834,
      "hana": 8835,
      "rar": 8836,
      "Ð¡ÑĢÐ¿ÑģÐºÐ¸": 8837,
      "Ø¦": 8838,
      "iminaw": 8839,
      "ories": 8840,
      "ĠKreyÃ²l": 8841,
      "ĠDako": 8842,
      "ĠTalagsa": 8843,
      "ĠGj": 8844,
      "Ġcustomer": 8845,
      "Ġpagpainit": 8846,
      "ĠPage": 8847,
      "Ġiga": 8848,
      "ĠFrid": 8849,
      "ĠVen": 8850,
      "ival": 8851,
      "à¤ķ": 8852,
      "ĠPagpal": 8853,
      "ĠPricelist": 8854,
      "Ġcompatible": 8855,
      "Ġdirektang": 8856,
      "ĠBezz": 8857,
      "ĠCruces": 8858,
      "Ġpagkabanhaw": 8859,
      "áº£": 8860,
      "Ġkakulangan": 8861,
      "ĠPanguna": 8862,
      "Ġsikolohikal": 8863,
      "AHIN": 8864,
      "based": 8865,
      "å¸Ŀ": 8866,
      "ĠIllinois": 8867,
      "Ġreferral": 8868,
      "Ġpaagiha": 8869,
      "ĠBezzia": 8870,
      "TC": 8871,
      "¡Ð¾ÑĢ": 8872,
      "Ò¡Ð¾ÑĢ": 8873,
      "ÚĨ": 8874,
      "Ġmog": 8875,
      "Ġum": 8876,
      "arb": 8877,
      "Ġhag": 8878,
      "Ġmaabot": 8879,
      "ĠTemp": 8880,
      "ĠLight": 8881,
      "ĠFull": 8882,
      "book": 8883,
      "Ġmisaka": 8884,
      "Ġdrill": 8885,
      "Ġkusgan": 8886,
      "Ġpagpaila": 8887,
      "Ġfilm": 8888,
      "itoryo": 8889,
      "Ġsilindro": 8890,
      "ĠÐĳÐ°ÑĪ": 8891,
      "ĠáĥĶáĥ": 8892,
      "monitor": 8893,
      "seling": 8894,
      "ÑĤÑģÐ°": 8895,
      "Ò¡Ð¾ÑĢÑĤÑģÐ°": 8896,
      "ĠÐĳÐ°ÑĪÒ¡Ð¾ÑĢÑĤÑģÐ°": 8897,
      ",âĢĿ": 8898,
      "LC": 8899,
      "SEO": 8900,
      "kita": 8901,
      "viron": 8902,
      "§ê¦": 8903,
      "©áł": 8904,
      "¬áł¡": 8905,
      "®áł£áł": 8906,
      "¯áł¡": 8907,
      "±ê¦": 8908,
      "Ãº": 8909,
      "ÙĲ": 8910,
      "Ùĳ": 8911,
      "ÙĴ": 8912,
      "Ġê¦": 8913,
      "ĪÐ°Ð·Ð¸Ðº": 8914,
      "Ĺê¦": 8915,
      "ĺá®": 8916,
      "ľáĥĲ": 8917,
      "Ńáł£áł": 8918,
      "Ġmig": 8919,
      "ayaw": 8920,
      "Ġtor": 8921,
      "ĠAUDIO": 8922,
      "ĠSistema": 8923,
      "ĠPen": 8924,
      "ĠGPS": 8925,
      "Ġpagpadagan": 8926,
      "Ġinisyal": 8927,
      "Ġkalih": 8928,
      "ulongang": 8929,
      "Ġorasa": 8930,
      "Ġpaglapas": 8931,
      "ĠÐĪÐ°Ð·Ð¸Ðº": 8932,
      "landcover": 8933,
      "ĠApil": 8934,
      "ĠKalba": 8935,
      "ĠKalabutan": 8936,
      "Ġhunahunaa": 8937,
      "Ġsakup": 8938,
      "áł¯áł¡": 8939,
      "ĠMalti": 8940,
      "á®¥": 8941,
      "á®ª": 8942,
      "á®ĵ": 8943,
      "á®Ķ": 8944,
      "alangin": 8945,
      "ĠValoda": 8946,
      "ÙİÙĳ": 8947,
      "Ġkinabuhing": 8948,
      "ĠQuest": 8949,
      "nasalandcover": 8950,
      "Ġmokaon": 8951,
      "à¤¨à¤ķ": 8952,
      "abangay": 8953,
      "Ġmibiya": 8954,
      "regulate": 8955,
      "ĠLanguages": 8956,
      "Ġahensya": 8957,
      "Ġáł¬áł¡": 8958,
      "Ġáł®áł£áł": 8959,
      "Ġá®ŀ": 8960,
      "Ġá®ĺá®": 8961,
      "Ġmibalik": 8962,
      "Ġlingin": 8963,
      "ĠStudies": 8964,
      "ĠAyisyen": 8965,
      "ĠImpressum": 8966,
      "ĠáĥĶáĥľáĥĲ": 8967,
      "§ê¦±ê¦": 8968,
      "©áłŃáł£áł": 8969,
      "Ġê¦§ê¦±ê¦": 8970,
      "Ĺê¦®": 8971,
      "Ġáł¬áł¡áł¯áł¡": 8972,
      "Ġáł®áł£áł©áłŃáł£áł": 8973,
      "Ġá®ĺá®ŀ": 8974,
      "Ġê¦§ê¦±ê¦Ĺê¦®": 8975,
      "Ġáł®áł£áł©áłŃáł£áł¯": 8976,
      "Mas": 8977,
      "ruz": 8978,
      "tag": 8979,
      "°Õ¡ÕµÕ¥ÖĢÕ¥Õ¶": 8980,
      "Ġpundok": 8981,
      "ony": 8982,
      "Ġtugotan": 8983,
      "Ġbino": 8984,
      "ĠSunda": 8985,
      "ĠMidd": 8986,
      "ĠDuwa": 8987,
      "Ġmahatag": 8988,
      "ĠLog": 8989,
      "ĠLucky": 8990,
      "ĠHi": 8991,
      "ĠOEM": 8992,
      "Ġkasaba": 8993,
      "rav": 8994,
      "Ġpasiuna": 8995,
      "ĠIndia": 8996,
      "Ġgilista": 8997,
      "ĠSoomaali": 8998,
      "Ġbalaang": 8999,
      "ĠPagsulod": 9000,
      "ĠActs": 9001,
      "ĠMateryal": 9002,
      "Ã³nico": 9003,
      "ĠelectrÃ³nico": 9004,
      "ĠGeorgia": 9005,
      "ASYON": 9006,
      "Ġkombenyente": 9007,
      "ĠCorreo": 9008,
      "ĠHangtod": 9009,
      "ĠMusic": 9010,
      "ĠÕ°Õ¡ÕµÕ¥ÖĢÕ¥Õ¶": 9011,
      "ĠPinakabag": 9012,
      "ĠJoseph": 9013,
      "Ġmakanunayon": 9014,
      "HT": 9015,
      "asan": 9016,
      "cont": 9017,
      "ios": 9018,
      "kini": 9019,
      "ºÛĩ": 9020,
      "ngkapan": 9021,
      "inabangay": 9022,
      "Ġnit": 9023,
      "ules": 9024,
      "ĠSober": 9025,
      "Ġhash": 9026,
      "Ġoxy": 9027,
      "edo": 9028,
      "Ġgirekomendar": 9029,
      "Ġgipasa": 9030,
      "Ġpari": 9031,
      "Ġsales": 9032,
      "ĠKanus": 9033,
      "Ġpundasyon": 9034,
      "Ø±ÚĨ": 9035,
      "Ġmamiminaw": 9036,
      "Ġsliding": 9037,
      "ĠNoruwega": 9038,
      "Ġseguro": 9039,
      "ĠFrancis": 9040,
      "ĠGreen": 9041,
      "ĠBlu": 9042,
      "ĠPasiuna": 9043,
      "Ġmakigsulti": 9044,
      "ILDRE": 9045,
      "ĠPlus": 9046,
      "ĠVersions": 9047,
      "ÛĩÙĬØ": 9048,
      "ĠCHILDRE": 9049,
      "ĠHunahunaa": 9050,
      "Ġ×Ļ×Ļ": 9051,
      "Ġmilagro": 9052,
      "ºÛĩØ±ÚĨ": 9053,
      "ÛĩÙĬØºÛĩØ±ÚĨ": 9054,
      "ĠCHILDREN": 9055,
      "pi": 9056,
      "qipe": 9057,
      "yle": 9058,
      "Ġ@": 9059,
      "Ġmangutana": 9060,
      "gar": 9061,
      "ĠMÃ«": 9062,
      "idensyal": 9063,
      "ĠBack": 9064,
      "ĠDagb": 9065,
      "ubig": 9066,
      "ubsan": 9067,
      "ĠGat": 9068,
      "iction": 9069,
      "Ġpasalamat": 9070,
      "trines": 9071,
      "ranaw": 9072,
      "index": 9073,
      "ungdanong": 9074,
      "Ġ77": 9075,
      "Ġoptical": 9076,
      "uyop": 9077,
      "toran": 9078,
      "Ġgisundan": 9079,
      "ĠPagkawala": 9080,
      "áĢĺ": 9081,
      "áĢŀ": 9082,
      "pska": 9083,
      "Ġshqipe": 9084,
      "ĠØ¹Ø±Ø¨ÙĬ": 9085,
      "ĠPAGK": 9086,
      "ĠKompanya": 9087,
      "ĠBaoul": 9088,
      "prot": 9089,
      "ĠDemo": 9090,
      "heny": 9091,
      "ĠSrpska": 9092,
      "ĠVerses": 9093,
      "freeze": 9094,
      "Ġbahandi": 9095,
      "ĠDoctrines": 9096,
      "ĠSrpski": 9097,
      "ĠKirundi": 9098,
      "ĠTreasures": 9099,
      "ĠLingÃ¡la": 9100,
      "Ø¦ÛĩÙĬØºÛĩØ±ÚĨ": 9101,
      "ĠGjuha": 9102,
      "ĠSoomaaliga": 9103,
      "ĠMÃ«ranaw": 9104,
      "ĠDagbani": 9105,
      "ĠBaoulÃ©": 9106,
      "Ø¦ÛĩÙĬØºÛĩØ±ÚĨÙĩ": 9107,
      "TA": 9108,
      "Tr": 9109,
      "down": 9110,
      "alas": 9111,
      "Ġtape": 9112,
      "ĠAS": 9113,
      "ingan": 9114,
      "ĠPho": 9115,
      "ĠPhoto": 9116,
      "apor": 9117,
      "idge": 9118,
      "Ġpagpahimulos": 9119,
      "Ġfrom": 9120,
      "laum": 9121,
      "lave": 9122,
      "ormon": 9123,
      "head": 9124,
      "ĠChar": 9125,
      "Ġmanwal": 9126,
      "Ġ61": 9127,
      "abiling": 9128,
      "ĠMagnesium": 9129,
      "Ġmagtat": 9130,
      "Ġexport": 9131,
      "akisay": 9132,
      "harma": 9133,
      "Ġclick": 9134,
      "Ġutanon": 9135,
      "Ġpackage": 9136,
      "Ġdomain": 9137,
      "idsis": 9138,
      "ĠPlatform": 9139,
      "Ġdughan": 9140,
      "Ġayohon": 9141,
      "unsyo": 9142,
      "Ġandroidsis": 9143,
      "å¸Ŀé": 9144,
      "400": 9145,
      "La": 9146,
      "OL": 9147,
      "__": 9148,
      "Ġabaga": 9149,
[...]
