{
  "version": "1.0",
  "truncation": null,
  "padding": null,
  "added_tokens": [
    {
      "id": 0,
      "content": "<s>",
      "single_word": false,
      "lstrip": false,
      "rstrip": false,
      "normalized": false,
      "special": true
    },
    {
      "id": 1,
      "content": "<pad>",
      "single_word": false,
      "lstrip": false,
      "rstrip": false,
      "normalized": false,
      "special": true
    },
    {
      "id": 2,
      "content": "</s>",
      "single_word": false,
      "lstrip": false,
      "rstrip": false,
      "normalized": false,
      "special": true
    },
    {
      "id": 3,
      "content": "<unk>",
      "single_word": false,
      "lstrip": false,
      "rstrip": false,
      "normalized": false,
      "special": true
    },
    {
      "id": 4,
      "content": "<mask>",
      "single_word": false,
      "lstrip": false,
      "rstrip": false,
      "normalized": false,
      "special": true
    }
  ],
  "normalizer": null,
  "pre_tokenizer": {
    "type": "ByteLevel",
    "add_prefix_space": true,
    "trim_offsets": true,
    "use_regex": true
  },
  "post_processor": {
    "type": "RobertaProcessing",
    "sep": [
      "</s>",
      2
    ],
    "cls": [
      "<s>",
      0
    ],
    "trim_offsets": true,
    "add_prefix_space": true
  },
  "decoder": {
    "type": "ByteLevel",
    "add_prefix_space": true,
    "trim_offsets": true,
    "use_regex": true
  },
  "model": {
    "type": "BPE",
    "dropout": null,
    "unk_token": null,
    "continuing_subword_prefix": null,
    "end_of_word_suffix": null,
    "fuse_unk": false,
    "byte_fallback": false,
    "vocab": {
      "<s>": 0,
      "<pad>": 1,
      "</s>": 2,
      "<unk>": 3,
      "<mask>": 4,
      "!": 5,
      "\"": 6,
      "#": 7,
      "$": 8,
      "%": 9,
      "&": 10,
      "'": 11,
      "(": 12,
      ")": 13,
      "*": 14,
      "+": 15,
      ",": 16,
      "-": 17,
      ".": 18,
      "/": 19,
      "0": 20,
      "1": 21,
      "2": 22,
      "3": 23,
      "4": 24,
      "5": 25,
      "6": 26,
      "7": 27,
      "8": 28,
      "9": 29,
      ":": 30,
      ";": 31,
      "<": 32,
      "=": 33,
      ">": 34,
      "?": 35,
      "@": 36,
      "A": 37,
      "B": 38,
      "C": 39,
      "D": 40,
      "E": 41,
      "F": 42,
      "G": 43,
      "H": 44,
      "I": 45,
      "J": 46,
      "K": 47,
      "L": 48,
      "M": 49,
      "N": 50,
      "O": 51,
      "P": 52,
      "Q": 53,
      "R": 54,
      "S": 55,
      "T": 56,
      "U": 57,
      "V": 58,
      "W": 59,
      "X": 60,
      "Y": 61,
      "Z": 62,
      "[": 63,
      "\\": 64,
      "]": 65,
      "^": 66,
      "_": 67,
      "`": 68,
      "a": 69,
      "b": 70,
      "c": 71,
      "d": 72,
      "e": 73,
      "f": 74,
      "g": 75,
      "h": 76,
      "i": 77,
      "j": 78,
      "k": 79,
      "l": 80,
      "m": 81,
      "n": 82,
      "o": 83,
      "p": 84,
      "q": 85,
      "r": 86,
      "s": 87,
      "t": 88,
      "u": 89,
      "v": 90,
      "w": 91,
      "x": 92,
      "y": 93,
      "z": 94,
      "{": 95,
      "|": 96,
      "}": 97,
      "~": 98,
      "¡": 99,
      "¢": 100,
      "£": 101,
      "¤": 102,
      "¥": 103,
      "¦": 104,
      "§": 105,
      "¨": 106,
      "©": 107,
      "ª": 108,
      "«": 109,
      "¬": 110,
      "®": 111,
      "¯": 112,
      "°": 113,
      "±": 114,
      "²": 115,
      "³": 116,
      "´": 117,
      "µ": 118,
      "¶": 119,
      "·": 120,
      "¸": 121,
      "¹": 122,
      "º": 123,
      "»": 124,
      "¼": 125,
      "½": 126,
      "¾": 127,
      "¿": 128,
      "À": 129,
      "Á": 130,
      "Â": 131,
      "Ã": 132,
      "Ä": 133,
      "Å": 134,
      "Æ": 135,
      "Ç": 136,
      "È": 137,
      "É": 138,
      "Ê": 139,
      "Ë": 140,
      "Ì": 141,
      "Í": 142,
      "Î": 143,
      "Ï": 144,
      "Ð": 145,
      "Ñ": 146,
      "Ò": 147,
      "Ó": 148,
      "Ô": 149,
      "Õ": 150,
      "Ö": 151,
      "×": 152,
      "Ø": 153,
      "Ù": 154,
      "Ú": 155,
      "Û": 156,
      "Ü": 157,
      "Ý": 158,
      "Þ": 159,
      "ß": 160,
      "à": 161,
      "á": 162,
      "â": 163,
      "ã": 164,
      "ä": 165,
      "å": 166,
      "æ": 167,
      "ç": 168,
      "è": 169,
      "é": 170,
      "ê": 171,
      "ë": 172,
      "ì": 173,
      "í": 174,
      "î": 175,
      "ï": 176,
      "ð": 177,
      "ñ": 178,
      "ò": 179,
      "ó": 180,
      "ô": 181,
      "õ": 182,
      "ö": 183,
      "÷": 184,
      "ø": 185,
      "ù": 186,
      "ú": 187,
      "û": 188,
      "ü": 189,
      "ý": 190,
      "þ": 191,
      "ÿ": 192,
      "Ā": 193,
      "ā": 194,
      "Ă": 195,
      "ă": 196,
      "Ą": 197,
      "ą": 198,
      "Ć": 199,
      "ć": 200,
      "Ĉ": 201,
      "ĉ": 202,
      "Ċ": 203,
      "ċ": 204,
      "Č": 205,
      "č": 206,
      "Ď": 207,
      "ď": 208,
      "Đ": 209,
      "đ": 210,
      "Ē": 211,
      "ē": 212,
      "Ĕ": 213,
      "ĕ": 214,
      "Ė": 215,
      "ė": 216,
      "Ę": 217,
      "ę": 218,
      "Ě": 219,
      "ě": 220,
      "Ĝ": 221,
      "ĝ": 222,
      "Ğ": 223,
      "ğ": 224,
      "Ġ": 225,
      "ġ": 226,
      "Ģ": 227,
      "ģ": 228,
      "Ĥ": 229,
      "ĥ": 230,
      "Ħ": 231,
      "ħ": 232,
      "Ĩ": 233,
      "ĩ": 234,
      "Ī": 235,
      "ī": 236,
      "Ĭ": 237,
      "ĭ": 238,
      "Į": 239,
      "į": 240,
      "İ": 241,
      "ı": 242,
      "Ĳ": 243,
      "ĳ": 244,
      "Ĵ": 245,
      "ĵ": 246,
      "Ķ": 247,
      "ķ": 248,
      "ĸ": 249,
      "Ĺ": 250,
      "ĺ": 251,
      "Ļ": 252,
      "ļ": 253,
      "Ľ": 254,
      "ľ": 255,
      "Ŀ": 256,
      "ŀ": 257,
      "Ł": 258,
      "ł": 259,
      "Ń": 260,
      "ï¿": 261,
      "ï¿½": 262,
      "ï¿½ï¿½": 263,
      "Ġt": 264,
      "Ùĩ": 265,
      "âĢ": 266,
      "Ø§": 267,
      "Ġn": 268,
      "ÛĮ": 269,
      "ĠØ": 270,
      "âĢĮ": 271,
      "ua": 272,
      "au": 273,
      "ÙĪ": 274,
      "ÙĨ": 275,
      "Ġl": 276,
      "Ø±": 277,
      "aw": 278,
      "ia": 279,
      "ï¿½ï¿½ï¿½ï¿½": 280,
      "Ġk": 281,
      "ee": 282,
      "Ġc": 283,
      "ov": 284,
      "Ġnt": 285,
      "Ġh": 286,
      "ĠÙ": 287,
      "Ġy": 288,
      "Ġts": 289,
      "Ġs": 290,
      "Ġp": 291,
      "Ġm": 292,
      "Øª": 293,
      "oo": 294,
      "ĠT": 295,
      "Ø¯": 296,
      "ub": 297,
      "is": 298,
      "00": 299,
      "Ġr": 300,
      "Ùħ": 301,
      "og": 302,
      "us": 303,
      "Ġ1": 304,
      "Ú©": 305,
      "Ġth": 306,
      "Ø§ÙĨ": 307,
      "..": 308,
      "awm": 309,
      "Ġtx": 310,
      "Ġï¿½ï¿½ï¿½ï¿½": 311,
      "oj": 312,
      "ev": 313,
      "iab": 314,
      "20": 315,
      "ĠØ¨": 316,
      "im": 317,
      "ĠS": 318,
      "ĠN": 319,
      "Ûİ": 320,
      "es": 321,
      "ib": 322,
      "er": 323,
      "om": 324,
      "Ø³": 325,
      "on": 326,
      "os": 327,
      "in": 328,
      "Ġua": 329,
      "Ġrau": 330,
      "ab": 331,
      "ĠC": 332,
      "Ġq": 333,
      "ÙĦ": 334,
      "Ûķ": 335,
      "11": 336,
      "Ġcov": 337,
      "Ġd": 338,
      "ĠP": 339,
      "ĠM": 340,
      "Ġx": 341,
      "ĠØ¯": 342,
      "ob": 343,
      "uaj": 344,
      "ĠR": 345,
      "eb": 346,
      "as": 347,
      "Ø¨": 348,
      "am": 349,
      "ĠL": 350,
      "an": 351,
      "Ġlub": 352,
      "ĠH": 353,
      "--": 354,
      "Ġkev": 355,
      "Ġthiab": 356,
      "Ġz": 357,
      "Ġ2": 358,
      "uav": 359,
      "iv": 360,
      "ĠK": 361,
      ",-": 362,
      "Ø´": 363,
      "ÛĨ": 364,
      "Ú¯": 365,
      "ĠÙĪ": 366,
      "Ø§Ø±": 367,
      "Ġntawm": 368,
      "or": 369,
      "ar": 370,
      "Ġhau": 371,
      "16": 372,
      "Ġyog": 373,
      "12": 374,
      "19": 375,
      "awv": 376,
      "15": 377,
      "Ġny": 378,
      "Ġqh": 379,
      "ws": 380,
      "Ġ0": 381,
      "17": 382,
      "14": 383,
      "Ġtau": 384,
      "10": 385,
      "at": 386,
      "Ġli": 387,
      "13": 388,
      "aj": 389,
      "18": 390,
      "Ùĥ": 391,
      "22": 392,
      "Ġ(": 393,
      "Ġlos": 394,
      "en": 395,
      "44": 396,
      "ĠÙĦ": 397,
      "Ø²": 398,
      "ĠA": 399,
      "25": 400,
      "av": 401,
      "77": 402,
      "Ø§ÛĮ": 403,
      "ĠÙħ": 404,
      "ag": 405,
      "33": 406,
      "ĠØ¦": 407,
      "Ġ-": 408,
      "99": 409,
      "Ġyuav": 410,
      "ĠD": 411,
      "Ġkoj": 412,
      "66": 413,
      "uab": 414,
      "ĠÚ©": 415,
      "ï¿½ï¿½ï¿½": 416,
      "Ġnr": 417,
      "Ġtsh": 418,
      "al": 419,
      "Ġmuaj": 420,
      "ĠB": 421,
      "50": 422,
      "ej": 423,
      "ĠF": 424,
      "30": 425,
      "Ġib": 426,
      "Ġhauv": 427,
      "eeg": 428,
      "48": 429,
      "ĠÙĩ": 430,
      "Ġ20": 431,
      "60": 432,
      "ais": 433,
      "ÙĪÙĩ": 434,
      "28": 435,
      "38": 436,
      "ĠØ³": 437,
      "ĠÙĨ": 438,
      "Ġtsis": 439,
      "40": 440,
      "49": 441,
      "eeb": 442,
      "uam": 443,
      "39": 444,
      "Ġkh": 445,
      "78": 446,
      "35": 447,
      "eej": 448,
      "ed": 449,
      "wm": 450,
      "45": 451,
      "29": 452,
      "ĠY": 453,
      "uv": 454,
      "ĠØª": 455,
      "68": 456,
      "Ġzoo": 457,
      "Ġtus": 458,
      "75": 459,
      "it": 460,
      "ic": 461,
      "Ġno": 462,
      "cb": 463,
      "70": 464,
      "Ġtia": 465,
      "il": 466,
      "Úµ": 467,
      "Ġï¿½ï¿½ï¿½ï¿½ï¿½ï¿½ï¿½ï¿½": 468,
      "65": 469,
      "ĠV": 470,
      "Ġqhov": 471,
      "ĠØ¨Ùĩ": 472,
      "eem": 473,
      "Ø³Øª": 474,
      "79": 475,
      "ĠE": 476,
      "ØĮ": 477,
      "ÙĢ": 478,
      "69": 479,
      "aum": 480,
      "Ġtxh": 481,
      "ĠâĢ": 482,
      "ug": 483,
      "Ġnws": 484,
      "ĠÙ¾": 485,
      "ĠÙĦÙĩ": 486,
      "ts": 487,
      "Ġnts": 488,
      "aws": 489,
      "iaj": 490,
      "ing": 491,
      "aub": 492,
      "Ø±Ø¯": 493,
      "ac": 494,
      "ÙĪÙĪ": 495,
      "Ġf": 496,
      "Ġnyob": 497,
      "ĠØ§": 498,
      "et": 499,
      "ĠI": 500,
      "Ġ3": 501,
      "ÛĮÙĨ": 502,
      "el": 503,
      "ĠÚ": 504,
      "Ġmus": 505,
      "Ġuas": 506,
      "ur": 507,
      "Ġhl": 508,
      "ĠTs": 509,
      "Ġv": 510,
      "oob": 511,
      "um": 512,
      "Ġneeg": 513,
      "em": 514,
      "Ø§ÙĨÛĮ": 515,
      "oom": 516,
      "ĠG": 517,
      "----": 518,
      "BG": 519,
      "....": 520,
      "23": 521,
      "uag": 522,
      "ad": 523,
      "uas": 524,
      "24": 525,
      "uj": 526,
      "Ð¨": 527,
      "ĠX": 528,
      "26": 529,
      "wv": 530,
      "ÛĮÙĩ": 531,
      "ai": 532,
      "ho": 533,
      "Ġtias": 534,
      "Ġch": 535,
      "55": 536,
      "Ø§Øª": 537,
      "ion": 538,
      "88": 539,
      "Ġ|": 540,
      "ro": 541,
      "Ø§Ùħ": 542,
      "Ø±ÛĮ": 543,
      "27": 544,
      "Ġb": 545,
      "ĠÄ": 546,
      "ĠU": 547,
      "Ġï¿½ï¿½ï¿½ï¿½ï¿½": 548,
      "th": 549,
      "Ġpeb": 550,
      "áº": 551,
      "Ġ4": 552,
      "âĢ¬": 553,
      "Ġntawv": 554,
      "90": 555,
      "cbcb": 556,
      "un": 557,
      "80": 558,
      "Ø§ÙĪ": 559,
      "64": 560,
      "ĠØ¦Ùĩ": 561,
      "000": 562,
      "Ð©": 563,
      "ĠØ®": 564,
      "Ġkuv": 565,
      "ĠQ": 566,
      "ig": 567,
      "34": 568,
      "Ø®": 569,
      "37": 570,
      "ĠØ¯Ùĩ": 571,
      "ĠÙĥ": 572,
      "ec": 573,
      "67": 574,
      "Ġ5": 575,
      "ĠØ´": 576,
      "...": 577,
      "Ġsiab": 578,
      "Ġkom": 579,
      "ID": 580,
      "id": 581,
      "eev": 582,
      "Ġï¿½ï¿½ï¿½ï¿½ï¿½ï¿½": 583,
      "CB": 584,
      "ol": 585,
      "ĠW": 586,
      "ĠTh": 587,
      "Ùģ": 588,
      "ooj": 589,
      "Ġntau": 590,
      "Ġhais": 591,
      "wb": 592,
      "ĠØ±": 593,
      "ÙĤ": 594,
      "36": 595,
      "85": 596,
      "Ø¬": 597,
      "Ù¾": 598,
      "95": 599,
      "Â°": 600,
      "Ġ:": 601,
      "ĠÚ¯": 602,
      "Ġ\"": 603,
      "iav": 604,
      "Ġnp": 605,
      "//": 606,
      "ter": 607,
      "Ùī": 608,
      "Ġï¿½ï¿½ï¿½": 609,
      "ch": 610,
      "ÙĨØ¯": 611,
      "Ġï¿½ï¿½ï¿½ï¿½ï¿½ï¿½ï¿½": 612,
      "á»": 613,
      "32": 614,
      "Ġsiv": 615,
      "Ġ8": 616,
      "Ġnrog": 617,
      "ay": 618,
      "com": 619,
      "auj": 620,
      "98": 621,
      "47": 622,
      "ÙĨÛĮ": 623,
      "Úķ": 624,
      "ĠÄĲ": 625,
      "le": 626,
      "Ġtug": 627,
      "ĠCov": 628,
      "iam": 629,
      "ĠNt": 630,
      "Ġlawv": 631,
      "ir": 632,
      "Ġlawm": 633,
      "Ġyam": 634,
      "Ġteb": 635,
      "Ø¯Ø§": 636,
      "Ġpl": 637,
      "Ġntx": 638,
      "Ġhn": 639,
      "ĠÙĩÙĩ": 640,
      "Ġ10": 641,
      "ØªÛĮ": 642,
      "ĠO": 643,
      "aus": 644,
      "\",": 645,
      "awb": 646,
      "ĠØ¬": 647,
      "Úĺ": 648,
      "Ġtxog": 649,
      "Ġnc": 650,
      "ĠâĢ«": 651,
      "Ġsib": 652,
      "ĠTx": 653,
      "Ġkhoom": 654,
      "46": 655,
      "ree": 656,
      "Ġï¿½ï¿½": 657,
      "Ġtuaj": 658,
      "Ø¹": 659,
      "Ġsim": 660,
      "Ġph": 661,
      "97": 662,
      "58": 663,
      "Ġnk": 664,
      "Ġlus": 665,
      "ij": 666,
      "ÙĢÙĢ": 667,
      "ie": 668,
      "Ġw": 669,
      "awg": 670,
      "Ġ7": 671,
      "Ġ/": 672,
      "Ø§ÙĦ": 673,
      "Ġ6": 674,
      "áº¡": 675,
      "ÙħÙĩ": 676,
      "ĠÙģ": 677,
      "Ġteeb": 678,
      "ÚĨ": 679,
      "ap": 680,
      "Ġqab": 681,
      "Ø±Ùĩ": 682,
      "eg": 683,
      "ÙĨÙĩ": 684,
      "08": 685,
      "05": 686,
      "ers": 687,
      "Ġï¿½": 688,
      "??": 689,
      "ĠÚĨ": 690,
      "Ġtxoj": 691,
      "Ġlwm": 692,
      "ĠJ": 693,
      "Ø¯Ùĩ": 694,
      "ĠØ¢": 695,
      "Ġ9": 696,
      "lo": 697,
      "Ø§ÙĨÙĩ": 698,
      "Ġtej": 699,
      "Ø¯ÛĮ": 700,
      "uc": 701,
      "RÑ": 702,
      "ĠØ²": 703,
      "63": 704,
      "Ġmuab": 705,
      "and": 706,
      "aib": 707,
      "Ø±Ø§": 708,
      "tr": 709,
      "aiv": 710,
      "ĠÛĮ": 711,
      "ng": 712,
      "Ġxy": 713,
      "Ø§Ø±ÛĮ": 714,
      "43": 715,
      "UB": 716,
      "wj": 717,
      "ex": 718,
      "moob": 719,
      "if": 720,
      "tt": 721,
      "42": 722,
      "Ġxav": 723,
      "Ġpom": 724,
      "awd": 725,
      "Â»": 726,
      "jp": 727,
      "Ø¨Ùĩ": 728,
      "Ġnq": 729,
      "**": 730,
      "59": 731,
      "Ø§Ø²": 732,
      "09": 733,
      "Ġpab": 734,
      "ĠLub": 735,
      "ØŃ": 736,
      "aim": 737,
      "ĠZ": 738,
      "one": 739,
      "ÛİØª": 740,
      "jpg": 741,
      "xcbcb": 742,
      "xcbcbcb": 743,
      "Ø§Ø³": 744,
      "aug": 745,
      "ĠCh": 746,
      "76": 747,
      "wg": 748,
      "ul": 749,
      "89": 750,
      "ent": 751,
      "ĠØ¨ÛĨ": 752,
      "ÙĦÛĮ": 753,
      "ĠÚķ": 754,
      "ot": 755,
      "ĠÙĤ": 756,
      "Ú©ÛĮ": 757,
      "21": 758,
      "Ġhauj": 759,
      "--------": 760,
      "ÙĪØ±": 761,
      "ĠØ¹": 762,
      "57": 763,
      "Ġtawm": 764,
      "Ġtshaj": 765,
      "Ġntawd": 766,
      "CBCB": 767,
      "Ġg": 768,
      "ow": 769,
      "od": 770,
      "awj": 771,
      "op": 772,
      "ttp": 773,
      "ĠKev": 774,
      "://": 775,
      "Ġqhia": 776,
      "Ġchaw": 777,
      "ĠTsh": 778,
      "Ġcas": 779,
      "Ġces": 780,
      "Ġ09": 781,
      "Ġ,": 782,
      "Ú¯Ùĩ": 783,
      "of": 784,
      "87": 785,
      "Ġtsim": 786,
      "oov": 787,
      "Ġpaub": 788,
      "ĠØŃ": 789,
      "62": 790,
      "ÙĥÙĩ": 791,
      "oog": 792,
      "Ú©Ùĩ": 793,
      "Ø¦": 794,
      "RE": 795,
      "ong": 796,
      "ÛĮØ±": 797,
      "ep": 798,
      "ĠØ³Ùĩ": 799,
      "07": 800,
      "Ġthaum": 801,
      "Ġtseem": 802,
      "Ġtsev": 803,
      "Ġhnub": 804,
      "duc": 805,
      "ÙĪØ¯": 806,
      "auv": 807,
      "Ġxwb": 808,
      "Ġin": 809,
      "Ø§Úµ": 810,
      "roduc": 811,
      "age": 812,
      "ĠÐ": 813,
      "ack": 814,
      "03": 815,
      "Ġme": 816,
      "ĠRUB": 817,
      "Ø§Ø¨": 818,
      "ĠQh": 819,
      "ÙħÛĮ": 820,
      "ation": 821,
      "Ġ12": 822,
      "SÐ": 823,
      "Ġhttp": 824,
      "ĠÚ©Ùĩ": 825,
      "Ø§Ø±Ùĩ": 826,
      "ØªÙĩ": 827,
      "Ġmob": 828,
      "ÛĮØ§ÙĨ": 829,
      "ĠØ¯Ø±": 830,
      "06": 831,
      "Ġ#": 832,
      "TE": 833,
      "\",\"": 834,
      "ÛķÙĪ": 835,
      "ÙĪØ±Ø¯": 836,
      "ip": 837,
      "âĢĿ": 838,
      "ut": 839,
      "56": 840,
      "ĠFree": 841,
      "OR": 842,
      "ÙĪÙĨ": 843,
      "Ġntaub": 844,
      "produc": 845,
      "ww": 846,
      "ĠTub": 847,
      "ess": 848,
      "Ġtsum": 849,
      "âĢ¦": 850,
      "Ġluam": 851,
      "Ġ[": 852,
      "04": 853,
      "ine": 854,
      "ĠÙ¾Ûİ": 855,
      "73": 856,
      "ĠÄĲáº": 857,
      "Ġon": 858,
      "ÙĬ": 859,
      "74": 860,
      "fil": 861,
      "Ġyeej": 862,
      "Ġduab": 863,
      "86": 864,
      "Ġcai": 865,
      "ÙħØ§ÙĨ": 866,
      "Ø³Ùĩ": 867,
      "Ġloj": 868,
      "Ø³ÛĮ": 869,
      "ĠNy": 870,
      "ÙĨÚ¯": 871,
      "Ġtxhua": 872,
      "ees": 873,
      "Ġsis": 874,
      "iag": 875,
      "ĠHmoob": 876,
      "02": 877,
      "ide": 878,
      "53": 879,
      "__": 880,
      "st": 881,
      "Ġtxiv": 882,
      "54": 883,
      "Â§": 884,
      "Ġthiaj": 885,
      "Ġ.": 886,
      "Ġcoj": 887,
      "72": 888,
      "Ġï¿½ï¿½ï¿½ï¿½ï¿½ï¿½ï¿½ï¿½ï¿½": 889,
      "ÛķØ±": 890,
      "re": 891,
      "ÙĪÛĮ": 892,
      "Ġyim": 893,
      "ĠYog": 894,
      "á»ĳ": 895,
      "Ġmuag": 896,
      "ĠNws": 897,
      "Ġraws": 898,
      "Ġï¿½ï¿½ï¿½ï¿½ï¿½ï¿½ï¿½ï¿½ï¿½ï¿½ï¿½ï¿½": 899,
      "Ã¬": 900,
      "ate": 901,
      "Ã¬m": 902,
      "82": 903,
      "ĠSt": 904,
      "Ø§Ø¯": 905,
      "Ġ11": 906,
      "ÙĦÙĩ": 907,
      "Ð¨Ð": 908,
      "ED": 909,
      "WB": 910,
      "Ġtag": 911,
      "files": 912,
      "ias": 913,
      "Ġtub": 914,
      "84": 915,
      "ĠÄĳ": 916,
      "Ġ19": 917,
      "52": 918,
      "ØªØ±": 919,
      "Ã¢": 920,
      "ĠØ§ÛĮ": 921,
      "Ġmas": 922,
      "est": 923,
      "lis": 924,
      "Ø§Ø´": 925,
      "`~": 926,
      "Ġkho": 927,
      "`~`": 928,
      "lwm": 929,
      "ak": 930,
      "FT": 931,
      "à¸": 932,
      "ÛİÙĥ": 933,
      "ĠKh": 934,
      "Ø§ÛĮÙĩ": 935,
      "96": 936,
      "Ġsá»ĳ": 937,
      "ang": 938,
      "94": 939,
      "Ġdej": 940,
      "ĠtÃ¬m": 941,
      "Ġsaib": 942,
      "áº¡ng": 943,
      "Ġtso": 944,
      "§u": 945,
      "á»ĥ": 946,
      "áº¡i": 947,
      "ON": 948,
      "ÛķÛĮ": 949,
      "ĠÄĲáº§u": 950,
      "Ġtáº¡i": 951,
      "ĠMáº¡ng": 952,
      "ĠÄĲá»ĥ": 953,
      "Ġdua": 954,
      "Ġdaim": 955,
      "Ġntuj": 956,
      "Ã¢y": 957,
      "ĠÄĳÃ¢y": 958,
      "GI": 959,
      "Ġ15": 960,
      "Ġ200": 961,
      "83": 962,
      "Ġi": 963,
      "Ġlag": 964,
      "Ġ>": 965,
      "Ġnoj": 966,
      "orn": 967,
      "Ġnyiaj": 968,
      "ah": 969,
      "ĠÙĥÙĩ": 970,
      "all": 971,
      "Ġsij": 972,
      "ÛİÙĨ": 973,
      "Ð°": 974,
      "Ġneej": 975,
      "AB": 976,
      "umb": 977,
      "Ġ2017": 978,
      "Ġto": 979,
      "ĠÙĨÙĩ": 980,
      "ĠIn": 981,
      "RÑķ": 982,
      "ÙĪÙĦ": 983,
      "ĠQhov": 984,
      "100": 985,
      "Ġtwg": 986,
      "Ġtom": 987,
      "Ġsab": 988,
      "Ġheev": 989,
      "=&": 990,
      "ey": 991,
      "ash": 992,
      "Ġ$": 993,
      "Ġniam": 994,
      "Ġkawm": 995,
      "93": 996,
      "ÛĮØ´": 997,
      "ĠØĮ": 998,
      "ORD": 999,
      "ĠÙĦÛķ": 1000,
      "Ġcia": 1001,
      "Ġrov": 1002,
      "Ġof": 1003,
      "up": 1004,
      "Ġdab": 1005,
      "ĠØ¯ÛĮ": 1006,
      "Ø§Ùĩ": 1007,
      "Ġob": 1008,
      "GIFT": 1009,
      "WBORD": 1010,
      "Ġzog": 1011,
      "196": 1012,
      "ff": 1013,
      "ry": 1014,
      "IM": 1015,
      "Ġnej": 1016,
      "Ġhaujlwm": 1017,
      "art": 1018,
      "âĢŀ": 1019,
      "ÙĪØ´": 1020,
      "co": 1021,
      "ies": 1022,
      "Ġvim": 1023,
      "ĠKoj": 1024,
      "ĠNr": 1025,
      "Ġraug": 1026,
      "ĠâĢľ": 1027,
      "own": 1028,
      "Ġtsi": 1029,
      "Ġkuj": 1030,
      "ĠUa": 1031,
      "RI": 1032,
      "Ġ16": 1033,
      "ĠPF": 1034,
      "460": 1035,
      "ĠVaj": 1036,
      "io": 1037,
      "Â¬": 1038,
      "ist": 1039,
      "Ġtim": 1040,
      "ÛĨØ±": 1041,
      "Ġnkauj": 1042,
      "200": 1043,
      "ort": 1044,
      "ÛķÚ©": 1045,
      "Ġsi": 1046,
      "âĢª": 1047,
      "Ġ13": 1048,
      "ÙĪØ§ÙĨ": 1049,
      "ĠTube": 1050,
      "RT": 1051,
      "Ġï¿½ï¿½ï¿½ï¿½ï¿½ï¿½ï¿½ï¿½ï¿½ï¿½": 1052,
      "load": 1053,
      "Ġntxiv": 1054,
      "Ġam": 1055,
      "ce": 1056,
      "Ġpm": 1057,
      "Ġtab": 1058,
      "ÛİÚ©": 1059,
      "AS": 1060,
      "ik": 1061,
      "Ġ&": 1062,
      "ĠØ®ÛĨ": 1063,
      "Ġluag": 1064,
      "Ġtshuaj": 1065,
      "ue": 1066,
      "Ġxwm": 1067,
      "Øµ": 1068,
      "ect": 1069,
      "ou": 1070,
      "sh": 1071,
      "iB": 1072,
      "iew": 1073,
      "Ġntej": 1074,
      "92": 1075,
      "ĠKuv": 1076,
      "Ġqho": 1077,
      "Ġ14": 1078,
      "ant": 1079,
      "Ġkawg": 1080,
      "ĠNtuj": 1081,
      "âĤ": 1082,
      "Ġ17": 1083,
      "Ġ|--": 1084,
      "sis": 1085,
      "oos": 1086,
      "ĠSh": 1087,
      "ail": 1088,
      "oc": 1089,
      "Ġfor": 1090,
      "ĠPeb": 1091,
      "cd": 1092,
      "Ġnrho": 1093,
      "ard": 1094,
      "pl": 1095,
      "xCBCB": 1096,
      "xCBCBCB": 1097,
      "ĠÙĪÙĩ": 1098,
      "Øº": 1099,
      "Ġthe": 1100,
      "Ð¾": 1101,
      "Ġhom": 1102,
      "hop": 1103,
      "Ø·": 1104,
      "ĠâĢĮ": 1105,
      "are": 1106,
      "ĠØ³ÛĮ": 1107,
      "Ø§ÙĪÙĩ": 1108,
      "Ġsau": 1109,
      "thumb": 1110,
      "CT": 1111,
      "Ġhm": 1112,
      "ĠAn": 1113,
      "ĠLED": 1114,
      "Ġtswv": 1115,
      "Ø²ÛĮ": 1116,
      "iz": 1117,
      "ĠPl": 1118,
      "âĢļ": 1119,
      "Ġtas": 1120,
      "act": 1121,
      "Ġtxais": 1122,
      "31": 1123,
      "ĠHQ": 1124,
      "Ø§ÙĨÙĦ": 1125,
      "âĤ¬": 1126,
      "????": 1127,
      "ĠSF": 1128,
      "NE": 1129,
      "âĢĮØĮ": 1130,
      "he": 1131,
      "ĠÂ": 1132,
      "Ðħ": 1133,
      "Ġkab": 1134,
      "ian": 1135,
      "Ġleej": 1136,
      "Ġnpe": 1137,
      "âĢĵ": 1138,
      "ĠÙħÛĮ": 1139,
      "ãĥ": 1140,
      "Ð©Ð": 1141,
      "Ġthawj": 1142,
      "ownload": 1143,
      "Ġby": 1144,
      "Ġst": 1145,
      "ett": 1146,
      "Ø±Ø§ÙĨ": 1147,
      "hone": 1148,
      "Ġxov": 1149,
      "ost": 1150,
      "ĠØ¯ÙĪ": 1151,
      "Ġthov": 1152,
      "Ġpov": 1153,
      "ĠØ¨Ûķ": 1154,
      "ĠNts": 1155,
      "01": 1156,
      "Ġ18": 1157,
      "Ø§ÙĨÙĦÙĪØ¯": 1158,
      "hiav": 1159,
      "Ġos": 1160,
      "Ġtwb": 1161,
      "ain": 1162,
      "ht": 1163,
      "Ø³ØªØ§ÙĨ": 1164,
      "Ġ00": 1165,
      "net": 1166,
      "ÙĪÛİ": 1167,
      "Ġtshiab": 1168,
      "Ġhloov": 1169,
      "ĠTus": 1170,
      "AU": 1171,
      "pr": 1172,
      "ify": 1173,
      "Ġand": 1174,
      "ÙĪØª": 1175,
      "Ġyeem": 1176,
      "Ġa": 1177,
      "ĠÙħÙĩ": 1178,
      "Ðµ": 1179,
      "ity": 1180,
      "PE": 1181,
      "hau": 1182,
      "ĠØ¦Ûİ": 1183,
      "OS": 1184,
      "ĠØ¨Ø§": 1185,
      "eat": 1186,
      "IS": 1187,
      "Ø¨ÛĮ": 1188,
      "Ġxyoo": 1189,
      "ĠPorn": 1190,
      "Ġhlau": 1191,
      "Ġnpl": 1192,
      "ĠØ¯Ø§": 1193,
      "ĠâĢĵ": 1194,
      "image": 1195,
      "Ø´ÛĮ": 1196,
      "Ġpuas": 1197,
      "shop": 1198,
      "img": 1199,
      "ĠØ¨Ø±": 1200,
      "ĠÐ¨": 1201,
      "Ġntseeg": 1202,
      "Ø´Ùĩ": 1203,
      "Ġhlub": 1204,
      "Ø³ØªÛĮ": 1205,
      "ĠTswv": 1206,
      "ear": 1207,
      "Ø³ØªÙĩ": 1208,
      "Ġnqi": 1209,
      "Ġ30": 1210,
      "Ġtes": 1211,
      "ï¿½ï¿½ï¿½ï¿½ï¿½ï¿½ï¿½ï¿½": 1212,
      "Ġkoom": 1213,
      "Âµ": 1214,
      "ĠTxh": 1215,
      "ĠÚ©ÙĪØ±Ø¯": 1216,
      "ĠØªÙĩ": 1217,
      "Ġntxh": 1218,
      "AM": 1219,
      "Ġplaws": 1220,
      "AN": 1221,
      "41": 1222,
      "Ġ...": 1223,
      "ĠHD": 1224,
      "Ġsawv": 1225,
      "Ġxyuas": 1226,
      "line": 1227,
      "Ġceeb": 1228,
      "ĠRe": 1229,
      "RÐħ": 1230,
      "Ø¨ÙĪÙĪ": 1231,
      "ill": 1232,
      "product": 1233,
      "Ã·": 1234,
      "2196": 1235,
      "Ġntsh": 1236,
      "ÙĥØ§ÙĨ": 1237,
      "Ġhawm": 1238,
      "cdn": 1239,
      "ĠPr": 1240,
      "products": 1241,
      "EE": 1242,
      "ÑĢ": 1243,
      "4605": 1244,
      "ĠTS": 1245,
      "Ġyooj": 1246,
      "Ġtr": 1247,
      "shopify": 1248,
      "Ġhu": 1249,
      "IN": 1250,
      "ĠNyob": 1251,
      "ĠÛĮÙĩ": 1252,
      "Ġxeeb": 1253,
      "li": 1254,
      "ĠÛ": 1255,
      "`~`//": 1256,
      "ĠTag": 1257,
      "ĠFeb": 1258,
      "Ñĵ": 1259,
      "ÑĤ": 1260,
      "Ġtxiaj": 1261,
      "222": 1262,
      "Ġtiag": 1263,
      "ideo": 1264,
      "TC": 1265,
      "tx": 1266,
      "Ġdawb": 1267,
      "120": 1268,
      "ams": 1269,
      "ĠEn": 1270,
      "Ġtib": 1271,
      "Â±": 1272,
      "ĠThaum": 1273,
      "ens": 1274,
      "mong": 1275,
      "eet": 1276,
      "Ø§ÛĮÛĮ": 1277,
      "ite": 1278,
      "our": 1279,
      "ĠView": 1280,
      "Ð¸": 1281,
      "RÑĳ": 1282,
      "ĠØ¨ÙĪÙĪ": 1283,
      "ÙĥÛĮ": 1284,
      "Ġxaiv": 1285,
      "ĠÚĺ": 1286,
      "Ġntiaj": 1287,
      "Nov": 1288,
      "az": 1289,
      "Ú¯Ø±": 1290,
      "ÙĥØ§ÙĨÛĮ": 1291,
      "iews": 1292,
      "Ġfeem": 1293,
      "Ġnrhiav": 1294,
      "ĠØ§Ø²": 1295,
      "Ø§ÙħÙĩ": 1296,
      "ud": 1297,
      "ĠAl": 1298,
      "Ú©Ø§ÙĨ": 1299,
      "Ġï¿½ï¿½ï¿½ï¿½ï¿½ï¿½ï¿½ï¿½ï¿½ï¿½ï¿½": 1300,
      "ĠÚ¯Ùĩ": 1301,
      "116": 1302,
      "ĠMar": 1303,
      "Ġpob": 1304,
      "ics": 1305,
      "........": 1306,
      "Ġ2019": 1307,
      "ÛĮÛĮ": 1308,
      "ÙĪÙĪÙĩ": 1309,
      "LT": 1310,
      "ĠTX": 1311,
      "by": 1312,
      "Ġpoj": 1313,
      "Ġchaws": 1314,
      "kas": 1315,
      "Ġ2018": 1316,
      "ĠØ¯Ø§ÙĨÙĦÙĪØ¯": 1317,
      "Ġtxhob": 1318,
      "Ġyeeb": 1319,
      "sw": 1320,
      "ÛĮÙĦ": 1321,
      "end": 1322,
      "OO": 1323,
      "ile": 1324,
      "777": 1325,
      "ĠTsis": 1326,
      "ĠKhoom": 1327,
      "ĠNo": 1328,
      "Ġxws": 1329,
      "cc": 1330,
      "und": 1331,
      "ew": 1332,
      "AT": 1333,
      "SÐĤ": 1334,
      "Ġcev": 1335,
      "Ø±ÛĨ": 1336,
      "ly": 1337,
      "Ġtseeb": 1338,
      "130": 1339,
      "tswv": 1340,
      "www": 1341,
      "51": 1342,
      "ĠVi": 1343,
      "US": 1344,
      "ĠKiB": 1345,
      "***": 1346,
      "ye": 1347,
      "AC": 1348,
      "ÙĨØ¬": 1349,
      "Ð©Ðī": 1350,
      ");": 1351,
      "RÂµ": 1352,
      "ax": 1353,
      "Ġtsheb": 1354,
      "âĢĮ.": 1355,
      "=\"": 1356,
      "Ú©Ø§ÙĨÛĮ": 1357,
      "Ġâ": 1358,
      "HI": 1359,
      "Ġntev": 1360,
      "ph": 1361,
      "Ġ//": 1362,
      "114": 1363,
      "Ø§ØªÛĮ": 1364,
      "ĠTr": 1365,
      "ĠØªÙĪ": 1366,
      "ĠNk": 1367,
      "444": 1368,
      "ĠDr": 1369,
      "Ø±ÙĪ": 1370,
      ").": 1371,
      "Ġ23": 1372,
      "Ġes": 1373,
      "ĠIb": 1374,
      "Ġ24": 1375,
      "ive": 1376,
      "ĠPh": 1377,
      "ATE": 1378,
      "ĠNov": 1379,
      "Ġ2016": 1380,
      "Ġkub": 1381,
      "SW": 1382,
      "ÛķÙħ": 1383,
      "ĠBl": 1384,
      "ĠSim": 1385,
      "Ġ25": 1386,
      "Ġtshuab": 1387,
      "Ġtuag": 1388,
      "Ġ+": 1389,
      "110": 1390,
      "Ð½": 1391,
      "AID": 1392,
      "Ġsaum": 1393,
      "ĠUS": 1394,
      "ÛĮÙĨÛĮ": 1395,
      "Ġ22": 1396,
      "Ø±Ø¯Ùĩ": 1397,
      "Ø´Øª": 1398,
      "ĠÚ©ÛĨ": 1399,
      "ĠMob": 1400,
      "ĠUn": 1401,
      "ast": 1402,
      "Ġtimes": 1403,
      "REE": 1404,
      "119": 1405,
      "ÛĮÙħ": 1406,
      "ge": 1407,
      "ore": 1408,
      "ell": 1409,
      "AL": 1410,
      "----------------": 1411,
      "Ġzaum": 1412,
      "ust": 1413,
      "JA": 1414,
      "Ġsuab": 1415,
      "Ġcom": 1416,
      "2014": 1417,
      "Ġnco": 1418,
      "af": 1419,
      "Ġtxawm": 1420,
      "Ġyuam": 1421,
      "81": 1422,
      "ÛİÚ©ÛĮ": 1423,
      "Ġthaiv": 1424,
      "AG": 1425,
      "ER": 1426,
      "Ġtsuas": 1427,
      "ĠMuaj": 1428,
      "Ġtxawv": 1429,
      "4000": 1430,
      "Ġrooj": 1431,
      "ÛĨÚĺ": 1432,
      "FID": 1433,
      "ont": 1434,
      "ĠZoo": 1435,
      "Ġtiv": 1436,
      "ãĤ": 1437,
      "ĠYuav": 1438,
      "ÙĪÙħ": 1439,
      "GB": 1440,
      "AW": 1441,
      "irt": 1442,
      "SM": 1443,
      "Ġyus": 1444,
      "ord": 1445,
      "ĠÙ¾Ùĩ": 1446,
      "Ġdhau": 1447,
      "Ġlossis": 1448,
      "005": 1449,
      "ĠØªØ§": 1450,
      "Ġtham": 1451,
      "Ġpr": 1452,
      "Ġmeem": 1453,
      "Ġnyiam": 1454,
      "ÙĩÙĨÚ¯": 1455,
      "),": 1456,
      "Ġpub": 1457,
      "pt": 1458,
      "IME": 1459,
      "âĢł": 1460,
      "111": 1461,
      "Ġkheej": 1462,
      "CON": 1463,
      "hn": 1464,
      "(\"": 1465,
      "150": 1466,
      "ÙĪØ²": 1467,
      "ĠÙħÙĨ": 1468,
      "Ġ26": 1469,
      "SID": 1470,
      "thumbs": 1471,
      "Ġpib": 1472,
      "ĠÂ»": 1473,
      "Ġlo": 1474,
      "Ġtxheej": 1475,
      "IB": 1476,
      "91": 1477,
      "ÛĮÙĨÙĩ": 1478,
      "ond": 1479,
      "Ġvaj": 1480,
      "Ø±Ûİ": 1481,
      "ĠFr": 1482,
      "ver": 1483,
      "Ġtooj": 1484,
      "Ġmov": 1485,
      "YPE": 1486,
      "Ġtxim": 1487,
      "ĠVajtswv": 1488,
      "MID": 1489,
      "ĠCRE": 1490,
      "Ġtam": 1491,
      "UID": 1492,
      "400": 1493,
      "\");": 1494,
      "(\"/": 1495,
      "ÛİØ±": 1496,
      "61": 1497,
      "ox": 1498,
      "ĠÙĨØ§ÙĪ": 1499,
      "NECT": 1500,
      "Ġxa": 1501,
      "ĠRÑ": 1502,
      "swf": 1503,
      "FREE": 1504,
      "tos": 1505,
      "Ġ100": 1506,
      "SWF": 1507,
      "Ġtxiav": 1508,
      "uf": 1509,
      "CONNECT": 1510,
      "ĠCREATE": 1511,
      "RTIME": 1512,
      "LTYPE": 1513,
      "Ġe": 1514,
      "ĠØ±Ø§": 1515,
      "ĠNp": 1516,
      "Ġ'": 1517,
      "Ġ21": 1518,
      "AR": 1519,
      "Ġhmoob": 1520,
      "ĠØ¨ÛĮ": 1521,
      "ial": 1522,
      "Ġqauv": 1523,
      "Ġpaj": 1524,
      "Ġtswj": 1525,
      "ĠØ´Ùĩ": 1526,
      "ÙĥØ±Ø¯": 1527,
      "ĠViewed": 1528,
      "Ð¾Ð": 1529,
      "imgs": 1530,
      "ĠÚ©Ø§Ø±": 1531,
      "ĠNT": 1532,
      "meet": 1533,
      "xd": 1534,
      "ĠYes": 1535,
      "meetav": 1536,
      "âĦ": 1537,
      "Ġ%": 1538,
      "Ġdaws": 1539,
      "Ú¤": 1540,
      "AJ": 1541,
      "ÛİØ²": 1542,
      "âĢį": 1543,
      "att": 1544,
      "ass": 1545,
      "Ú©Ø±Ø¯": 1546,
      "thub": 1547,
      "Ø±Ùħ": 1548,
      "listhub": 1549,
      "ÙģÛĮ": 1550,
      "tion": 1551,
      "ĠCo": 1552,
      "ĠiP": 1553,
      "ÛķÙĪÛķ": 1554,
      "lub": 1555,
      "71": 1556,
      "Ġkws": 1557,
      "ool": 1558,
      "Ġnyuam": 1559,
      "ook": 1560,
      "Ø¯ÛĮØ¯": 1561,
      "les": 1562,
      "ÙĦØ§": 1563,
      "ef": 1564,
      "able": 1565,
      "ĠÚ©Ø±Ø¯": 1566,
      "ĠÐ©": 1567,
      "Ø§Ø²ÛĮ": 1568,
      "115": 1569,
      "Ġ40": 1570,
      "118": 1571,
      "600": 1572,
      "ber": 1573,
      "ok": 1574,
      "Ġtxaus": 1575,
      "Ġj": 1576,
      "hawm": 1577,
      "Ġtiam": 1578,
      "OV": 1579,
      "140": 1580,
      "ish": 1581,
      "ĠSp": 1582,
      "lim": 1583,
      "ĠLus": 1584,
      "ĠÙħØŃ": 1585,
      "Ġpeev": 1586,
      "qu": 1587,
      "Ø§Ø³ÛĮ": 1588,
      "125": 1589,
      "Ġtseg": 1590,
      "ĠØ§ÙĦ": 1591,
      "oin": 1592,
      "ĠSuav": 1593,
      "EB": 1594,
      "112": 1595,
      "Ġhttps": 1596,
      "Ø±Ø§ÙĪ": 1597,
      "ix": 1598,
      "chaws": 1599,
      "Ġ28": 1600,
      "Ġroj": 1601,
      "ame": 1602,
      "EN": 1603,
      "ung": 1604,
      "ĠAs": 1605,
      "ĠÚĨÙĩ": 1606,
      "Ġcuam": 1607,
      "Ġ50": 1608,
      "ĠØ¢ÙĩÙĨÚ¯": 1609,
      "Ġdownload": 1610,
      "Ġ2014": 1611,
      "ĠÙĨÛĮ": 1612,
      "orm": 1613,
      "ĠÙĥÛĨ": 1614,
      "Ġtaws": 1615,
      "ale": 1616,
      "ans": 1617,
      "ES": 1618,
      "ÚµÙĩ": 1619,
      "Ġxim": 1620,
      "Ġtxawj": 1621,
      "ĠØ²ÛĨØ±": 1622,
      "117": 1623,
      "Ġzaub": 1624,
      "ĠÙĥÙĪØ±Ø¯": 1625,
      "ĠØ¯Ûķ": 1626,
      "Th": 1627,
      "Ġhli": 1628,
      "Ġcaij": 1629,
      "aij": 1630,
      "ĠHom": 1631,
      "ÛĮØ¯": 1632,
      "ach": 1633,
      "ure": 1634,
      "ium": 1635,
      "ĠÙħÙĪ": 1636,
      "499": 1637,
      "ĠMus": 1638,
      "Ø§ØªÙĩ": 1639,
      "800": 1640,
      "ÚĨÙĩ": 1641,
      "2015": 1642,
      "ind": 1643,
      "Ġ35": 1644,
      "278": 1645,
      "ĠKey": 1646,
      "Ġtos": 1647,
      "ÙħØ§ÙĨÛĮ": 1648,
      "Ġ*": 1649,
      "Ġmam": 1650,
      "Ġtxuas": 1651,
      "ith": 1652,
      "ator": 1653,
      "Ġmeej": 1654,
      "LS": 1655,
      "ĠØ§ÙĨ": 1656,
      "Ú¯ÛĮ": 1657,
      "Ġ2012": 1658,
      "Ts": 1659,
      "Ġ27": 1660,
      "ĠTuam": 1661,
      "ĠAm": 1662,
      "170": 1663,
      "ĠXy": 1664,
      "Ġ2010": 1665,
      "300": 1666,
      "ĠRau": 1667,
      "ĠEx": 1668,
      "ettel": 1669,
      "ĠHn": 1670,
      "âĦĸ": 1671,
      "ÙĨØ¯Ùĩ": 1672,
      "Ġyees": 1673,
      "ĠØµ": 1674,
      "ĠÙ¾Ø§Ø±": 1675,
      "Ġteev": 1676,
      "eng": 1677,
      "Ġ2015": 1678,
      "ym": 1679,
      "aid": 1680,
      "AV": 1681,
      "Ġke": 1682,
      "XX": 1683,
      "ÙĨØ¯ÛĮ": 1684,
      "ĠAr": 1685,
      "ube": 1686,
      "Ø¶": 1687,
      "ited": 1688,
      "ual": 1689,
      "Ġzaj": 1690,
      "Ġtxwv": 1691,
      "Ġsijhawm": 1692,
      "Ġyaj": 1693,
      "210": 1694,
      "SÑĵ": 1695,
      "Ñģ": 1696,
      "Ġtuam": 1697,
      "2019": 1698,
      "ĠBr": 1699,
      "ÛĨÙĨ": 1700,
      "Ø§Ø±Ø¯": 1701,
      "ĠÙĩØ§ÛĮ": 1702,
      "Ġ2013": 1703,
      "ÙĪØ§": 1704,
      "ons": 1705,
      "Ø¸": 1706,
      "ĠNkauj": 1707,
      "ick": 1708,
      "Kuv": 1709,
      "sp": 1710,
      "Ø¨ÛİØª": 1711,
      "RS": 1712,
      "oft": 1713,
      "ĠØ®Ùĩ": 1714,
      "____": 1715,
      "ages": 1716,
      "Ġceev": 1717,
      "TEX": 1718,
      "129": 1719,
      "190": 1720,
      "Ġkoob": 1721,
      "RO": 1722,
      "Ø±Ø¨": 1723,
      "ÙħÙĪÙĪ": 1724,
      "igh": 1725,
      "âĢ¬âĢ¬": 1726,
      "160": 1727,
      "2018": 1728,
      "250": 1729,
      "Ġtxhawb": 1730,
      "Ġtsawg": 1731,
      "ÛİÚĺ": 1732,
      "ĠØªØ±": 1733,
      "eny": 1734,
      "cr": 1735,
      "ĠTeb": 1736,
      "Ġ::": 1737,
      "eh": 1738,
      "Ġ]": 1739,
      "exus": 1740,
      "df": 1741,
      "Ø§Ú©": 1742,
      "Ð¨ÐĦ": 1743,
      "mm": 1744,
      "Ġntsiab": 1745,
      "\":": 1746,
      "Ġho": 1747,
      "Ġ=": 1748,
      "ĠGTEX": 1749,
      "Ġex": 1750,
      "Ġtu": 1751,
      "ood": 1752,
      "313": 1753,
      "ĠNtx": 1754,
      "ï¿½ï¿½ï¿½ï¿½ï¿½ï¿½": 1755,
      "âĢĻ": 1756,
      "Ø§ÙħÛĮ": 1757,
      "âĢ¦âĢ¦": 1758,
      "Ġthem": 1759,
      "ĠViettel": 1760,
      "ĠGu": 1761,
      "Ġ08": 1762,
      "ãģ": 1763,
      "ĠCom": 1764,
      "Ġntxhais": 1765,
      "ins": 1766,
      "per": 1767,
      "ĠNtawv": 1768,
      "±Û": 1769,
      "ĠLos": 1770,
      "Ð»": 1771,
      "Ġtua": 1772,
      "âĢ¡": 1773,
      "240": 1774,
      "666": 1775,
      "Ġcua": 1776,
      "ÙħØ§": 1777,
      "Rye": 1778,
      "Ġcheat": 1779,
      "Ġnroog": 1780,
      "Ġpoob": 1781,
      "SÐĥ": 1782,
      "Ðº": 1783,
      "Ġco": 1784,
      "ØŁ": 1785,
      "ĠHauv": 1786,
      "ÙĤÛĮ": 1787,
      "ÛİÙĥÛĮ": 1788,
      "Ġntoo": 1789,
      "Ġis": 1790,
      "ĠTom": 1791,
      "Ġcuab": 1792,
      "Ġav": 1793,
      "Ġhuv": 1794,
      "ĠHl": 1795,
      "anuf": 1796,
      "Ġkwv": 1797,
      "145": 1798,
      "Ġhaum": 1799,
      "âĢĿ,": 1800,
      "anufact": 1801,
      "Ġqub": 1802,
      "128": 1803,
      "Ġtsam": 1804,
      "155": 1805,
      "Ġhaus": 1806,
      "ous": 1807,
      "FF": 1808,
      "AD": 1809,
      "ight": 1810,
      "Ġncaj": 1811,
      "Ġsh": 1812,
      "ĠÙĩØ§ÙĪ": 1813,
      "ÙħÙĪ": 1814,
      "Ġplaub": 1815,
      "ĠÙ¾ÛİØ´": 1816,
      "anufactur": 1817,
      "Ø±ÛİØª": 1818,
      "ĠPM": 1819,
      "Ġtshwm": 1820,
      "Ù¾Ùĩ": 1821,
      "Ġntaus": 1822,
      "440": 1823,
      "Ġ<": 1824,
      "220": 1825,
      "ann": 1826,
      "188": 1827,
      "ĠÚ¯Ø±": 1828,
      "169": 1829,
      "âĢĮâĢĮ": 1830,
      "Ġhluas": 1831,
      "ĠAd": 1832,
      "Ġtxhais": 1833,
      "Ġtoj": 1834,
      "Ġat": 1835,
      "ĠHM": 1836,
      "Ġkiag": 1837,
      "Ġkhiav": 1838,
      "500": 1839,
      "375": 1840,
      "2016": 1841,
      "320": 1842,
      "ei": 1843,
      "ĠTshoj": 1844,
      "app": 1845,
      "Ġnruab": 1846,
      "its": 1847,
      "ĠTsev": 1848,
      "loog": 1849,
      "Ġ03": 1850,
      "db": 1851,
      "Â·": 1852,
      "ÚķÛĮ": 1853,
      "350": 1854,
      "ĠUTC": 1855,
      "ĠNeeg": 1856,
      "377": 1857,
      "Ġso": 1858,
      "Ø®ÛĨ": 1859,
      "enyuam": 1860,
      "999": 1861,
      "ĠØ³Ø§Úµ": 1862,
      "Ġchav": 1863,
      "ĠVin": 1864,
      "ĠØ¬Ø¯ÛĮØ¯": 1865,
      "Ġhack": 1866,
      "ĠØ§Ø³": 1867,
      "ĠYexus": 1868,
      "Ġci": 1869,
      "ury": 1870,
      "ĠHmong": 1871,
      "149": 1872,
      "Ġ2011": 1873,
      "733": 1874,
      "159": 1875,
      "OM": 1876,
      "Ġkua": 1877,
      "165": 1878,
      "Ñĥ": 1879,
      "625": 1880,
      "270": 1881,
      "148": 1882,
      "Ø§Ø¯Ùĩ": 1883,
      "Ġpheej": 1884,
      "399": 1885,
      "ux": 1886,
      "ĠØ§Ø³Øª": 1887,
      "Ġ~": 1888,
      "144": 1889,
      "Ġ29": 1890,
      "tsh": 1891,
      "old": 1892,
      "ank": 1893,
      "213": 1894,
      "ĠØĮâĢ¬": 1895,
      "Ġhluav": 1896,
      "reen": 1897,
      "Ø§ÙĦÛĮ": 1898,
      "Ø¬Ùĩ": 1899,
      "Ġdav": 1900,
      "Ġncig": 1901,
      "233": 1902,
      "RG": 1903,
      "CC": 1904,
      "ĠâĢ¢": 1905,
      "495": 1906,
      "!!": 1907,
      "ĠThiab": 1908,
      "Ø§Ùģ": 1909,
      "ÛķØª": 1910,
      "Ġlaus": 1911,
      "Ø±Ø§ÙĪÙĩ": 1912,
      "ink": 1913,
      "ĠBeeg": 1914,
      "erm": 1915,
      "lm": 1916,
      "ĠØ¯ÙĪÙĪ": 1917,
      "388": 1918,
      "aphone": 1919,
      "Ġ01": 1920,
      "anufacturers": 1921,
      "ĠSiv": 1922,
      "ĠXus": 1923,
      "345": 1924,
      "368": 1925,
      "Ġphooj": 1926,
      "Ġtshwj": 1927,
      "Ġviews": 1928,
      "ĠMon": 1929,
      "2017": 1930,
      "unt": 1931,
      "ĠIV": 1932,
      "754": 1933,
      "678": 1934,
      "175": 1935,
      ".,": 1936,
      "449": 1937,
      "ĠPro": 1938,
      "277": 1939,
      "nt": 1940,
      "Ġtxhab": 1941,
      "ike": 1942,
      "Ġ33": 1943,
      "ĠÙĨØ§": 1944,
      "ÛİÙĪ": 1945,
      "Â©": 1946,
      "ings": 1947,
      "Ø¯Ø§Ø±": 1948,
      "Ġde": 1949,
      "àº": 1950,
      "EV": 1951,
      "ĠØ®ÙĪ": 1952,
      "322": 1953,
      "325": 1954,
      "oobkas": 1955,
      "008": 1956,
      "Ġsuav": 1957,
      "168": 1958,
      "ware": 1959,
      "239": 1960,
      "Ġal": 1961,
      "ĠÙĥØ±Ø¯": 1962,
      "oday": 1963,
      "ĠThe": 1964,
      "amster": 1965,
      "Ġphem": 1966,
      "212": 1967,
      "Ø°": 1968,
      "rypt": 1969,
      "Ġtiav": 1970,
      "180": 1971,
      "ÚµØ§Ùħ": 1972,
      "ĠØ¨ÙĪ": 1973,
      "ifone": 1974,
      "ĠØ¦ÛĮ": 1975,
      "199": 1976,
      "480": 1977,
      "ĠÙ¾ÛĮ": 1978,
      "int": 1979,
      "ĠØ¨Ø§Ø´": 1980,
      "310": 1981,
      "Ġ05": 1982,
      "Ġhlob": 1983,
      "378": 1984,
      "ĠFor": 1985,
      "690": 1986,
      "Ġhlis": 1987,
      "Ġ06": 1988,
      "Ġthoob": 1989,
      "280": 1990,
      "Ġtshawb": 1991,
      "Ġnyeem": 1992,
      "Ġmenyuam": 1993,
      "265": 1994,
      "ice": 1995,
      "Ġleeg": 1996,
      "215": 1997,
      "ÛķÚµ": 1998,
      "290": 1999,
      "RM": 2000,
      "ÙĢÙĢÙĢÙĢ": 2001,
      "RÑķR": 2002,
      "Ġhmoov": 2003,
      "eel": 2004,
      "ra": 2005,
      "Ġcomp": 2006,
      "ÛİÙĪÙĩ": 2007,
      "Ġzaug": 2008,
      "490": 2009,
      "ĠRC": 2010,
      "Ð¨Ðģ": 2011,
      "Tube": 2012,
      "Ø¤": 2013,
      "Tx": 2014,
      "450": 2015,
      "ĠToday": 2016,
      "Ġtsav": 2017,
      "xx": 2018,
      "Ġ04": 2019,
      "Ã´": 2020,
      "998": 2021,
      "340": 2022,
      "Ġonline": 2023,
      "Ġyug": 2024,
      "185": 2025,
      "ĠØ¨Ûİ": 2026,
      "360": 2027,
      "ated": 2028,
      "0000": 2029,
      "344": 2030,
      "370": 2031,
      "685": 2032,
      "244": 2033,
      "Ø±Ø§ÙĤ": 2034,
      "EM": 2035,
      "Ġan": 2036,
      "ĠOn": 2037,
      "cent": 2038,
      "ĠIB": 2039,
      "198": 2040,
      "Ġnkaus": 2041,
      "Ġ02": 2042,
      "230": 2043,
      "ÙĨØ§ÙħÙĩ": 2044,
      "995": 2045,
      "Ġtebchaws": 2046,
      "ĠØ§Ø±": 2047,
      "dr": 2048,
      "ÛķÙĨ": 2049,
      "ĠVim": 2050,
      "ĠTab": 2051,
      "195": 2052,
      "ĠØ·": 2053,
      "205": 2054,
      "ĠÙģØ±": 2055,
      "Ġywg": 2056,
      "Ġ07": 2057,
      "135": 2058,
      "Ø¦Ùĩ": 2059,
      "Ġtsaug": 2060,
      "266": 2061,
      "uk": 2062,
      "Ġnug": 2063,
      "Ġtxhaum": 2064,
      "ĠTxoj": 2065,
      "oy": 2066,
      "Ġ)": 2067,
      "---": 2068,
      "158": 2069,
      "458": 2070,
      "176": 2071,
      "Ġvideo": 2072,
      "AA": 2073,
      "ĠÙĩÛĮ": 2074,
      "248": 2075,
      "ĠSG": 2076,
      "ĠÙĦÛİ": 2077,
      "Ġac": 2078,
      "ory": 2079,
      "139": 2080,
      "385": 2081,
      "430": 2082,
      "680": 2083,
      "Ø§ÙĪÛĮ": 2084,
      "ÚķÙĩ": 2085,
      "179": 2086,
      "328": 2087,
      "498": 2088,
      "ĠTej": 2089,
      "ĠØ²ÛĮ": 2090,
      "ĠGr": 2091,
      "105": 2092,
      "106": 2093,
      "505": 2094,
      "pho": 2095,
      "380": 2096,
      "ØªÙĨ": 2097,
      "ork": 2098,
      "ary": 2099,
      "ct": 2100,
      "138": 2101,
      "228": 2102,
      "ST": 2103,
      "366": 2104,
      "ĠMobifone": 2105,
      "mp": 2106,
      "ĠØªÙĪØ±": 2107,
      "ĠSer": 2108,
      "137": 2109,
      "189": 2110,
      "out": 2111,
      "ĠRep": 2112,
      "348": 2113,
      "Ġ39": 2114,
      "Ø§ÙĨØ¯": 2115,
      "Ġcon": 2116,
      "124": 2117,
      "ĠEnc": 2118,
      "amp": 2119,
      "Ġnpaj": 2120,
      "260": 2121,
      "ĠQhia": 2122,
      "225": 2123,
      "ĠYou": 2124,
      "Ġinter": 2125,
      "ĠØ§Ùħ": 2126,
      "ery": 2127,
      "497": 2128,
      "ĠiPhone": 2129,
      "Ġlis": 2130,
      "ĠØ¦Ø§": 2131,
      "ÙĥØ§Øª": 2132,
      "ÙĩÙĩ": 2133,
      "Ø²Ø§Ø±": 2134,
      "ĠLawv": 2135,
      "Ġruam": 2136,
      "ions": 2137,
      "330": 2138,
      "Ġmloog": 2139,
      "Ġpawg": 2140,
      "ĠØ®ÛĨÛĮ": 2141,
      "Ġtxheem": 2142,
      "ĠLeej": 2143,
      "Ġthaj": 2144,
      "ĠVinaphone": 2145,
      "Ġnawb": 2146,
      "990": 2147,
      "earch": 2148,
      "Sh": 2149,
      "ĠØ§ÛĮÙĨ": 2150,
      "Ø¬ÛĮ": 2151,
      "Ø¢": 2152,
      "ĠRed": 2153,
      "ath": 2154,
      "Ġhnov": 2155,
      "157": 2156,
      "Ġnkag": 2157,
      "Ġxob": 2158,
      "Ġlug": 2159,
      "379": 2160,
      "Ġtwv": 2161,
      "147": 2162,
      "te": 2163,
      "ĠNtawm": 2164,
      "fr": 2165,
      "ĠHnub": 2166,
      "Ã´i": 2167,
      "RC": 2168,
      "ĠPC": 2169,
      "ĠDec": 2170,
      "Ġruaj": 2171,
      "109": 2172,
      "655": 2173,
      "RL": 2174,
      "ember": 2175,
      "455": 2176,
      "ÙĪØ³": 2177,
      "ĠØ¦Ø§Ùħ": 2178,
      "Ġrog": 2179,
      "Ġ2020": 2180,
      "Ġcog": 2181,
      "ead": 2182,
      "uÃ´i": 2183,
      "ĠØ¨ÛĮØ±": 2184,
      "Ġen": 2185,
      "ark": 2186,
      "298": 2187,
      "ĠÚ©Ûķ": 2188,
      "ĠDownload": 2189,
      "ÛĨÛĮ": 2190,
      "355": 2191,
      "ca": 2192,
      "Ġtw": 2193,
      "lic": 2194,
      "Ġun": 2195,
      "ĠØ¬Ùĩ": 2196,
      "????????": 2197,
      "Ġtsa": 2198,
      "ÚĺÙĩ": 2199,
      "670": 2200,
      "108": 2201,
      "ock": 2202,
      "Ġntsib": 2203,
      "OL": 2204,
      "264": 2205,
      "ideos": 2206,
      "Ø´ÙĨ": 2207,
      "ĠÛ±Û": 2208,
      "459": 2209,
      "Hmong": 2210,
      "Ġsp": 2211,
      "ÛĮØ²": 2212,
      "770": 2213,
      "659": 2214,
      "319": 2215,
      "yst": 2216,
      "ÚĺÛĮ": 2217,
      "Ġseb": 2218,
      "698": 2219,
      "Ġ60": 2220,
      "IC": 2221,
      "759": 2222,
      "Ġfree": 2223,
      "Ġxeem": 2224,
      "433": 2225,
      "oftware": 2226,
      "ÙĪØ±ÛĮ": 2227,
      "Ø±Ú©": 2228,
      "Ġ139": 2229,
      "639": 2230,
      "247": 2231,
      "178": 2232,
      "Ù¾ÛĮ": 2233,
      "ĠQu": 2234,
      "ÉĻ": 2235,
      "arm": 2236,
      "Ġnyab": 2237,
      "650": 2238,
      "âķ": 2239,
      "780": 2240,
      "177": 2241,
      "RÑĺ": 2242,
      "ĠCl": 2243,
      "ĠXh": 2244,
      "Ch": 2245,
      "Ġntsuam": 2246,
      "century": 2247,
      "Ġad": 2248,
      "ĠAM": 2249,
      "309": 2250,
      "anc": 2251,
      "ĠSib": 2252,
      "ek": 2253,
      "ET": 2254,
      "Ġzeb": 2255,
      "312": 2256,
      "ener": 2257,
      "229": 2258,
      "ĠDaim": 2259,
      "Ġnqa": 2260,
      "ents": 2261,
      "cl": 2262,
      "Ġcoob": 2263,
      "285": 2264,
      ".âĢĿ": 2265,
      "279": 2266,
      "::": 2267,
      "ĠÃ": 2268,
      "ich": 2269,
      "ny": 2270,
      "ÛĨÚķ": 2271,
      "616": 2272,
      "Ġ44": 2273,
      "RA": 2274,
      "ĠÂ«": 2275,
      "RN": 2276,
      "295": 2277,
      "à¤": 2278,
      "ÚµØ§Øª": 2279,
      "ps": 2280,
      "389": 2281,
      "ace": 2282,
      "Ġus": 2283,
      "uck": 2284,
      "ĠNY": 2285,
      "425": 2286,
      "466": 2287,
      "org": 2288,
      "ĠXhamster": 2289,
      "Ø§Ø¯ÛĮ": 2290,
      "qua": 2291,
      "nb": 2292,
      "ĠÄĲuÃ´i": 2293,
      "Ġnpaum": 2294,
      "Ġï¿½ï¿½ï¿½ï¿½ï¿½ï¿½ï¿½ï¿½ï¿½ï¿½ï¿½ï¿½ï¿½": 2295,
      "ĠMov": 2296,
      "ĠEncrypt": 2297,
      "Ø±Ø³": 2298,
      "365": 2299,
      "Ð²": 2300,
      "299": 2301,
      "ĠÚ©ÙĪØ±Ø¯Ø³ØªØ§ÙĨ": 2302,
      "tub": 2303,
      "Û°": 2304,
      "ĠSex": 2305,
      "Ġ{": 2306,
      "ï¿½ï¿½ï¿½ï¿½ï¿½": 2307,
      "ĠXov": 2308,
      "ĠTau": 2309,
      "Ġ@": 2310,
      "aa": 2311,
      "QA": 2312,
      "316": 2313,
      "216": 2314,
      "http": 2315,
      "Ġliab": 2316,
      "ll": 2317,
      "Ñĸ": 2318,
      "Ġ\\": 2319,
      "ĠJan": 2320,
      "ult": 2321,
      "Ú¯Ø§Ùĩ": 2322,
      "305": 2323,
      "TS": 2324,
      "RF": 2325,
      "ĠVideo": 2326,
      "Ġtaw": 2327,
      "317": 2328,
      "ĠChaw": 2329,
      "EL": 2330,
      "268": 2331,
      "VD": 2332,
      "ĠTxawm": 2333,
      "311": 2334,
      "air": 2335,
      "Ø§Ø®": 2336,
      "358": 2337,
      "ðŁ": 2338,
      "489": 2339,
      "to": 2340,
      "468": 2341,
      "Ġtaub": 2342,
      "Ø¯Ø§ÙĨ": 2343,
      "209": 2344,
      "Ġhaiv": 2345,
      "779": 2346,
      "RB": 2347,
      "679": 2348,
      "Ġnov": 2349,
      "Ġ67": 2350,
      "ĠØ¹Ûİ": 2351,
      "Ġdag": 2352,
      "Ġtij": 2353,
      "Ø´ØªÛĮ": 2354,
      "ĠWh": 2355,
      "atch": 2356,
      "ment": 2357,
      "td": 2358,
      "iss": 2359,
      "ĠÚķÛĨÚĺ": 2360,
      "br": 2361,
      "758": 2362,
      "uter": 2363,
      "Ġas": 2364,
      "ĠNc": 2365,
      "Ġ32": 2366,
      "ĠCon": 2367,
      "Ġhuam": 2368,
      "da": 2369,
      "695": 2370,
      "Ġyav": 2371,
      "de": 2372,
      "488": 2373,
      "ÙĪØ¨": 2374,
      "775": 2375,
      "479": 2376,
      "615": 2377,
      "olog": 2378,
      "ĠØ§Ùģ": 2379,
      "ton": 2380,
      ";&": 2381,
      "px": 2382,
      "739": 2383,
      "ĠPaj": 2384,
      "001": 2385,
      "ĠNew": 2386,
      "ara": 2387,
      "ĠØ¦ÛķÙĪ": 2388,
      "Ġnce": 2389,
      "ĠAB": 2390,
      "Ġiav": 2391,
      "323": 2392,
      "439": 2393,
      "613": 2394,
      "662": 2395,
      "ĠTxiv": 2396,
      "ĠSiab": 2397,
      "ÙĢÙĢÙĢ": 2398,
      "ĠØ¹Ùĩ": 2399,
      "ĠHome": 2400,
      "ical": 2401,
      "ĠApr": 2402,
      "ĠÙĨØ§Ùħ": 2403,
      "nam": 2404,
      "470": 2405,
      "Ġnyog": 2406,
      "349": 2407,
      "ram": 2408,
      "Ġzos": 2409,
      "ĠStat": 2410,
      "ystem": 2411,
      "121": 2412,
      "ino": 2413,
      "IL": 2414,
      "ri": 2415,
      "ml": 2416,
      "ĠMay": 2417,
      "ĠÙĩÙħ": 2418,
      "âĪ": 2419,
      "port": 2420,
      "ĠØ¨ÙĨ": 2421,
      "Rg": 2422,
      "photos": 2423,
      "644": 2424,
      "Ġthis": 2425,
      "ne": 2426,
      "245": 2427,
      "ake": 2428,
      "huav": 2429,
      "OJ": 2430,
      "'s": 2431,
      "338": 2432,
      "2048": 2433,
      "187": 2434,
      "414": 2435,
      "107": 2436,
      "over": 2437,
      "428": 2438,
      "Ð¨Ðĩ": 2439,
      "618": 2440,
      "RY": 2441,
      "009": 2442,
      "Ġhwj": 2443,
      "yl": 2444,
      "Ġntse": 2445,
      "Ġ>>": 2446,
      "Ġ48": 2447,
      "ĠÎ": 2448,
      "ashion": 2449,
      "ÙģØª": 2450,
      "OOB": 2451,
      "Ġntsa": 2452,
      "211": 2453,
      "Ú©ÙĪ": 2454,
      "885": 2455,
      "ÙĪÙĪÛĮ": 2456,
      "Ġkav": 2457,
      "127": 2458,
      "Ġtuav": 2459,
      "315": 2460,
      "Ġtxhim": 2461,
      "Nt": 2462,
      "408": 2463,
      "nco": 2464,
      "ĠÂ£": 2465,
      "Ġ80": 2466,
      "Ġ090": 2467,
      "Ġcheats": 2468,
      "Ġhav": 2469,
      "ÙĤÙĩ": 2470,
      "208": 2471,
      "OB": 2472,
      "Ø³ØªØ§": 2473,
      "eed": 2474,
      "ÚĨÛĮ": 2475,
      "xCB": 2476,
      "ĠTshaj": 2477,
      "Ã©": 2478,
      "ĠPol": 2479,
      "ustom": 2480,
      "RQ": 2481,
      "Ù¾Ûİ": 2482,
      "nc": 2483,
      "ĠSho": 2484,
      "Ġsai": 2485,
      "405": 2486,
      "Ġnyem": 2487,
      "ĠØªÛİ": 2488,
      "ĠLi": 2489,
      "235": 2490,
      "ĠÙģÙĩ": 2491,
      "Ġ34": 2492,
      "ÙĩØ§": 2493,
      "ĠÚķØ§": 2494,
      "CH": 2495,
      "FG": 2496,
      "217": 2497,
      "Ġ2009": 2498,
      "324": 2499,
      "339": 2500,
      "308": 2501,
      "ĠÚ©ÛĮ": 2502,
      "628": 2503,
      "form": 2504,
      "ÙħÙĨ": 2505,
      "ĠHuab": 2506,
      "ĠTooj": 2507,
      "ĠÙģÛĮÙĦ": 2508,
      "ros": 2509,
      "669": 2510,
      "Ġwb": 2511,
      "AE": 2512,
      "km": 2513,
      "ance": 2514,
      "ĠAnon": 2515,
      "ubj": 2516,
      "415": 2517,
      "ĠHlis": 2518,
      "314": 2519,
      "IV": 2520,
      "ĠØ§ÙĪÙĦ": 2521,
      "Ġnrab": 2522,
      "opics": 2523,
      "Ġniaj": 2524,
      "329": 2525,
      "IT": 2526,
      "Ø¨Ûİ": 2527,
      "258": 2528,
      "Ġab": 2529,
      "ĠMua": 2530,
      "785": 2531,
      "485": 2532,
      "214": 2533,
      "ecff": 2534,
      "\">": 2535,
      "à¹": 2536,
      "ĠÛĮØ§ÙĨ": 2537,
      "197": 2538,
      "238": 2539,
      "WS": 2540,
      "ĠTH": 2541,
      "Ġze": 2542,
      "ĠHoobkas": 2543,
      "Ġsoftware": 2544,
      "ĠÙĩØ§": 2545,
      "Ġ90": 2546,
      "Ġmog": 2547,
      "Ø¨Ø±": 2548,
      "rom": 2549,
      "218": 2550,
      "ĠMe": 2551,
      "ØªØ§": 2552,
      "ÙħØ§ÛĮ": 2553,
      "ase": 2554,
      "nbsp": 2555,
      "ors": 2556,
      "Ġ31": 2557,
      "Ġ_": 2558,
      "Yog": 2559,
      "ĠTags": 2560,
      "ÙĪÚµ": 2561,
      "Ġma": 2562,
      "Ġqhib": 2563,
      "ĠPost": 2564,
      "259": 2565,
      "Ġne": 2566,
      "997": 2567,
      "ØªØ±ÛĮÙĨ": 2568,
      "438": 2569,
      "·t": 2570,
      "689": 2571,
      "rist": 2572,
      "ire": 2573,
      "âĢĶ": 2574,
      "ĠÄĲáº·t": 2575,
      "275": 2576,
      "RD": 2577,
      "307": 2578,
      "Ġntsoov": 2579,
      "420": 2580,
      "335": 2581,
      "Ny": 2582,
      "ĠâĤ¬": 2583,
      "658": 2584,
      "007": 2585,
      "Ġntsis": 2586,
      "ĠTais": 2587,
      "ÙĪØ§ÙĨÛĮ": 2588,
      "\":\"": 2589,
      "oot": 2590,
      "Ø¯ÙĨ": 2591,
      "Ġsc": 2592,
      "ĠØ¨Ø§Ø²": 2593,
      "364": 2594,
      "668": 2595,
      "ime": 2596,
      "Ġnrov": 2597,
      "Ø§ØªØ±": 2598,
      "705": 2599,
      "less": 2600,
      "ae": 2601,
      "ĠBlack": 2602,
      "Ġntshai": 2603,
      "ĠRaws": 2604,
      "eam": 2605,
      "435": 2606,
      "Ġplig": 2607,
      "413": 2608,
      "ĠTawm": 2609,
      "way": 2610,
      "Ġkis": 2611,
      "227": 2612,
      "Ġhwm": 2613,
      "429": 2614,
      "Ġ36": 2615,
      "Ġdeb": 2616,
      "ĠNq": 2617,
      "ech": 2618,
      "ĠØ³ÛķØ±": 2619,
      "ymous": 2620,
      "ĠØ¯Ø§Ø±": 2621,
      "Ġ38": 2622,
      "269": 2623,
      "Ġo": 2624,
      "¹Û": 2625,
      "608": 2626,
      "255": 2627,
      "445": 2628,
      "419": 2629,
      "ĠØ§ÙĪ": 2630,
      "Ð©ÐīÐ¨": 2631,
      "ĠØ¨Ø±Ø§ÛĮ": 2632,
      "unes": 2633,
      "ina": 2634,
      "Ġtsoom": 2635,
      "Ãł": 2636,
      "249": 2637,
      "</": 2638,
      "Ø§ÛĮØª": 2639,
      "ck": 2640,
      "Ġcuag": 2641,
      "ĠØ¨Ø§Ø±": 2642,
      "Ġed": 2643,
      "OG": 2644,
      "ĠMiB": 2645,
      "ĠRes": 2646,
      "ntx": 2647,
      "ĠGuest": 2648,
      "711": 2649,
      "Ġpa": 2650,
      "Ø®ÙĪ": 2651,
      "ĠÙĥÙĪØ±Ø¯Ø³ØªØ§ÙĨ": 2652,
      "ĠOr": 2653,
      "ÂŃ": 2654,
      "ĠThu": 2655,
      "Ø«": 2656,
      "418": 2657,
      "lix": 2658,
      "Ġcim": 2659,
      "638": 2660,
      "ĠFl": 2661,
      "ĠAnonymous": 2662,
      "ĠØ¹ÛİØ±Ø§ÙĤ": 2663,
      "Ġnyuaj": 2664,
      "Ø²Ùĩ": 2665,
      "409": 2666,
      "ĠID": 2667,
      "ĠNrog": 2668,
      "Ġnplooj": 2669,
      "ular": 2670,
      "620": 2671,
      "720": 2672,
      "Â®": 2673,
      "888": 2674,
      "ĠJun": 2675,
      "Ġ45": 2676,
      "Ġtxom": 2677,
      "land": 2678,
      "Ġnqaij": 2679,
      "398": 2680,
      "Ġphau": 2681,
      "ING": 2682,
      "ĠMac": 2683,
      "ĠThov": 2684,
      "880": 2685,
      "Ġtawv": 2686,
      "Ġrais": 2687,
      "Ġweb": 2688,
      "Ø²Ø§ÙĨ": 2689,
      "Ø§ÙĤ": 2690,
      "Mar": 2691,
      "ĠMin": 2692,
      "289": 2693,
      "635": 2694,
      "son": 2695,
      "ĠLuam": 2696,
      "ere": 2697,
      "NC": 2698,
      "ĠInter": 2699,
      "uy": 2700,
      "629": 2701,
      "ubject": 2702,
      "509": 2703,
      "Ġqee": 2704,
      "411": 2705,
      "630": 2706,
      "778": 2707,
      "Ġtatt": 2708,
      "ĠXN": 2709,
      "Ġpaus": 2710,
      "osts": 2711,
      "395": 2712,
      "ÛķØªÛĮ": 2713,
      "³Û": 2714,
      "ĠAug": 2715,
      "Ġphiaj": 2716,
      "aily": 2717,
      ".\"": 2718,
      "369": 2719,
      "645": 2720,
      "Ġlaug": 2721,
      "RX": 2722,
      "ode": 2723,
      "ĠIm": 2724,
      "Ø³ÙĦ": 2725,
      "se": 2726,
      "ÙĪØ±Ùĩ": 2727,
      "SÐı": 2728,
      "Ġforum": 2729,
      "ĠSM": 2730,
      "ÛİØªÙĩ": 2731,
      "ĠViews": 2732,
      "ÙĪÙĨÙĩ": 2733,
      "Ġpiav": 2734,
      "318": 2735,
      "CD": 2736,
      "Ġnias": 2737,
      "ĠSep": 2738,
      "478": 2739,
      "ĠLag": 2740,
      "RV": 2741,
      "790": 2742,
      "ese": 2743,
      "ĠØ¬ÛĮ": 2744,
      "ÙĥÙĪ": 2745,
      "ĠSab": 2746,
      "LA": 2747,
      "crip": 2748,
      "ower": 2749,
      "Ġntseg": 2750,
      "ĠÚķÙĩ": 2751,
      "holes": 2752,
      "ane": 2753,
      "ater": 2754,
      "ÑĮ": 2755,
      "eth": 2756,
      "Ø±Øª": 2757,
      "DF": 2758,
      "Ġem": 2759,
      "ign": 2760,
      "ÙĪØ§Ø±": 2761,
      "ĠBy": 2762,
      "ĠJul": 2763,
      "Ġtog": 2764,
      "Ġwith": 2765,
      "echn": 2766,
      "267": 2767,
      "RH": 2768,
      "665": 2769,
      "ĠØ¨Ú©": 2770,
      "ĠXNXX": 2771,
      "Ġ55": 2772,
      "699": 2773,
      "ĠLtd": 2774,
      "ĠEncrypted": 2775,
      "Ø¨Ø§Ø±": 2776,
      "GG": 2777,
      "649": 2778,
      "Ġ000": 2779,
      "bo": 2780,
      "nr": 2781,
      "Ġ098": 2782,
      "Ġpw": 2783,
      "aud": 2784,
      "oogle": 2785,
      "hi": 2786,
      "ert": 2787,
      "ĠSo": 2788,
      "Ø±Ø§ÙĨÛĮ": 2789,
      "ĠEl": 2790,
      "ÙĪÙĪÙĨ": 2791,
      "tuber": 2792,
      "ĠTxhua": 2793,
      "Ġcomputer": 2794,
      "660": 2795,
      "Ġle": 2796,
      "ĠDrtuber": 2797,
      "337": 2798,
      "611": 2799,
      "min": 2800,
      "****": 2801,
      "Ġpro": 2802,
      "390": 2803,
      "bc": 2804,
      "ĠDaily": 2805,
      "605": 2806,
      "Ġ95": 2807,
      "ĠØªÛĮ": 2808,
      "Ġbl": 2809,
      "HIAB": 2810,
      "for": 2811,
      "347": 2812,
      "ĠRo": 2813,
      "ÙĪØ§ÙĨÙĩ": 2814,
      "ersion": 2815,
      "609": 2816,
      "ÙĪÙĪØ³": 2817,
      "237": 2818,
      "ĠHauj": 2819,
      "RK": 2820,
      "Ġlom": 2821,
      "610": 2822,
      "ĠCes": 2823,
      "ĠHot": 2824,
      "ĠØ¦Ûķ": 2825,
      "ĠTue": 2826,
      "Ġtshuam": 2827,
      "Ġxeev": 2828,
      "Ú©Ø§Ø±": 2829,
      "ĠDab": 2830,
      "ĠSun": 2831,
      "Ø¹Ùĩ": 2832,
      "Ġlim": 2833,
      "ĠØ¦Ø§Ø²": 2834,
      "Ġtxuj": 2835,
      "lish": 2836,
      "448": 2837,
      "................": 2838,
      "422": 2839,
      "219": 2840,
      "Ø±ÛĮÙĨ": 2841,
      "ĠReport": 2842,
      "epos": 2843,
      "ÙĪØ³Øª": 2844,
      "ĠCas": 2845,
      "ĠSaib": 2846,
      "Ġtsiaj": 2847,
      "SÐĬ": 2848,
      "ao": 2849,
      "798": 2850,
      "TT": 2851,
      "Ġpiv": 2852,
      "ĠØ¢ÙĨ": 2853,
      "Ġ70": 2854,
      "675": 2855,
      "ĠPab": 2856,
      "789": 2857,
      "ÙģÙĩ": 2858,
      "PS": 2859,
      "ien": 2860,
      "ĠNyiaj": 2861,
      "Ġstart": 2862,
      "Ġpej": 2863,
      "Ġtxo": 2864,
      "pp": 2865,
      "167": 2866,
      "Ð©Ðĥ": 2867,
      "EX": 2868,
      "Ú©Ø³": 2869,
      "low": 2870,
      "Ø¨ÛĮÙĨ": 2871,
      "Ġpem": 2872,
      "Ġpuag": 2873,
      "ĠÙĤÙĩ": 2874,
      "Ø§ÚµÛĮ": 2875,
      "Ø±Ú¯": 2876,
      "nd": 2877,
      "ata": 2878,
      "Ø§Ø¹": 2879,
      "Ġvam": 2880,
      "ĠMaiv": 2881,
      "Ġmanufacturers": 2882,
      "aceb": 2883,
      "Ġnyias": 2884,
      "Ġhnab": 2885,
      "700": 2886,
      "fl": 2887,
      "cuam": 2888,
      ".âĢ¬âĢ¬": 2889,
      "367": 2890,
      "288": 2891,
      "aph": 2892,
      "Ġyou": 2893,
      "640": 2894,
      "709": 2895,
      "Ø±ÙĪÙĩ": 2896,
      "holesale": 2897,
      "ĠDav": 2898,
      "Ġlam": 2899,
      "mg": 2900,
      "Ġdur": 2901,
      "Ġplay": 2902,
      "Ġkos": 2903,
      "ØªÙĦ": 2904,
      "ez": 2905,
      "410": 2906,
      "607": 2907,
      "ĠAnd": 2908,
      "Ø®Ùĩ": 2909,
      "ull": 2910,
      "Ġtshem": 2911,
      "Ġtaug": 2912,
      "207": 2913,
      "ï¿½ï¿½ï¿½ï¿½ï¿½ï¿½ï¿½": 2914,
      "Ġhuab": 2915,
      "ĠCol": 2916,
      "ild": 2917,
      "ĠÙĦÛĮ": 2918,
      "750": 2919,
      "\".": 2920,
      "ĠÙħØ¯": 2921,
      "Koj": 2922,
      "ĠWed": 2923,
      "NT": 2924,
      "Ġ2008": 2925,
      "ÙĨØ§ÙĪ": 2926,
      "Ġit": 2927,
      "Ġcav": 2928,
      "âĢ«": 2929,
      "xe": 2930,
      "ĠTex": 2931,
      "Ġntsia": 2932,
      "ÛĨÚµ": 2933,
      "Ġfl": 2934,
      "612": 2935,
      "Ø§ÚµÙĩ": 2936,
      "aul": 2937,
      "Ä±": 2938,
      "ĠÙĩÛİ": 2939,
      "ĠØº": 2940,
      "Ġntshav": 2941,
      "ĠÚ©ÙĨ": 2942,
      "yr": 2943,
      "2020": 2944,
      "Ġcl": 2945,
      "Ġapp": 2946,
      "657": 2947,
      "amsung": 2948,
      "771": 2949,
      "ĠØ´ÛĮ": 2950,
      "ĠThawj": 2951,
      "ÙħØ§Ø±Ùĩ": 2952,
      "412": 2953,
      "ĠEv": 2954,
      "795": 2955,
      "Ġchim": 2956,
      "ĠØªÛĨ": 2957,
      "Ø¯Ø§Ø±ÛĮ": 2958,
      "ĠRÑĹ": 2959,
      "ĠØ±Ùĩ": 2960,
      "kh": 2961,
      "bio": 2962,
      "Ġnuj": 2963,
      "ication": 2964,
      "HA": 2965,
      "Ġï¿½ï¿½ï¿½ï¿½ï¿½ï¿½ï¿½ï¿½ï¿½ï¿½ï¿½ï¿½ï¿½ï¿½": 2966,
      "ĠØªØ§ÛĮ": 2967,
      "688": 2968,
      "ĠTwv": 2969,
      "ĠDis": 2970,
      "ĠHMOOB": 2971,
      "ology": 2972,
      "011": 2973,
      "Cov": 2974,
      "Ġluv": 2975,
      "ĠFri": 2976,
      "ĠÙĩÛĮÚĨ": 2977,
      "niam": 2978,
      "Ø±ÛĮØ¯": 2979,
      "619": 2980,
      "kev": 2981,
      "508": 2982,
      "359": 2983,
      "ÙĪÚµÙĩ": 2984,
      "708": 2985,
      "ĠAll": 2986,
      "BB": 2987,
      "633": 2988,
      "ĠII": 2989,
      "WM": 2990,
      "Ġtxwm": 2991,
      "ÙĨÚ¯ÛĮ": 2992,
      "ØŃÛĮ": 2993,
      "eer": 2994,
      "648": 2995,
      "475": 2996,
      "ĠNe": 2997,
      "no": 2998,
      "Ġtxij": 2999,
      "Ġtsab": 3000,
      "lib": 3001,
      "Ġnyoog": 3002,
      "ĠØ¬Ûİ": 3003,
      "ade": 3004,
      "Ġstr": 3005,
      "ÙĪÙĨÛĮ": 3006,
      "Ġgr": 3007,
      "pe": 3008,
      "ĠTam": 3009,
      "ĠÙħØ§ÙĨ": 3010,
      "ĠØ±ÛĨÚĺ": 3011,
      "âĢª.âĢ¬âĢ¬": 3012,
      "Ġ..": 3013,
      "ĠÙĢ": 3014,
      "ĠInd": 3015,
      "ĠÙĪÛĮ": 3016,
      "ĠOct": 3017,
      "Ġï¿½ï¿½ï¿½ï¿½ï¿½ï¿½,": 3018,
      "Ġnqe": 3019,
      "ĠØ³Ø±": 3020,
      "387": 3021,
      "ized": 3022,
      "xdcc": 3023,
      "SD": 3024,
      "614": 3025,
      "fd": 3026,
      "tag": 3027,
      "iy": 3028,
      "cess": 3029,
      "ĠMP": 3030,
      "ĠKho": 3031,
      "ĠØ¦ÛİØ±Ø§ÙĨ": 3032,
      "Ġ37": 3033,
      "Tsi": 3034,
      "ĠÚķÛİ": 3035,
      "ĠSc": 3036,
      "ĠNpl": 3037,
      "788": 3038,
      "Ø±Ø³ÛĮ": 3039,
      "EK": 3040,
      "ĠOb": 3041,
      "ush": 3042,
      "Ùİ": 3043,
      "ĠCH": 3044,
      "MI": 3045,
      "ateur": 3046,
      "417": 3047,
      "Ġntsuab": 3048,
      "Ú©Ø±": 3049,
      "Ø©": 3050,
      "Ġub": 3051,
      "ĠØŃÙĩ": 3052,
      "Ġfab": 3053,
      "ĠSÐ": 3054,
      "555": 3055,
      "2000": 3056,
      "quare": 3057,
      "Ġtawg": 3058,
      "ada": 3059,
      "805": 3060,
      "arb": 3061,
      "677": 3062,
      "ition": 3063,
      "ĠIBM": 3064,
      "Ua": 3065,
      "Ġxub": 3066,
      "ÙĪÙĪØ±ÛĮ": 3067,
      "Ð¼": 3068,
      "Ġntsej": 3069,
      "ÙĢÛĮ": 3070,
      "ĠØ¨Ø¯": 3071,
      "Ġnruag": 3072,
      "ony": 3073,
      "Ġsoj": 3074,
      "WV": 3075,
      "Ġqib": 3076,
      "TX": 3077,
      "Ġdr": 3078,
      "ĠEng": 3079,
      "ĠÙħØ´": 3080,
      "bl": 3081,
      "âĢĮâĢ¬": 3082,
      "ĠGB": 3083,
      "Ø§Øº": 3084,
      "Ð¨Ñĸ": 3085,
      "obile": 3086,
      "unter": 3087,
      "eal": 3088,
      "ĠSearch": 3089,
      "etnam": 3090,
      "ĠØ³ÛĮØ§Ø³ÛĮ": 3091,
      "ÛķÚ©Ø§ÙĨÛĮ": 3092,
      "Ð´": 3093,
      "Ø¹ÛĮ": 3094,
      "ÛķÛĮÛķ": 3095,
      "Ñı": 3096,
      "Ġ....": 3097,
      "ĠXn": 3098,
      "ĠDVD": 3099,
      "arr": 3100,
      "ĠÚĨÛĮ": 3101,
      "477": 3102,
      "Ġkaum": 3103,
      "ea": 3104,
      "Ø§Ù¾": 3105,
      "Ġ?": 3106,
      "Ġkaw": 3107,
      "755": 3108,
      "ĠØ¦ÛİÙħÙĩ": 3109,
      "667": 3110,
      "ier": 3111,
      "Ġqhuav": 3112,
      "Ġor": 3113,
      "ĠDawb": 3114,
      "eskas": 3115,
      "ĠÙħÙĤ": 3116,
      "mas": 3117,
      "ĠÙģÛĮÙĦÙħ": 3118,
      "ĠØ¨Úµ": 3119,
      "Ġncauj": 3120,
      "rd": 3121,
      "uary": 3122,
      "Ġtheem": 3123,
      "637": 3124,
      "ĠSA": 3125,
      "Ú¯Ø±Øª": 3126,
      "ÙĪÙ¾": 3127,
      "ĠUA": 3128,
      "uss": 3129,
      "cription": 3130,
      "424": 3131,
      "010": 3132,
      "Un": 3133,
      "Ø§Ø³Øª": 3134,
      "787": 3135,
      "ÚķÛĨ": 3136,
      "ĠNR": 3137,
      "ÙħØ¯": 3138,
      "ÛķÚ©Ø§ÙĨ": 3139,
      "onal": 3140,
      "559": 3141,
      "Ġdub": 3142,
      "Ġ095": 3143,
      "Ñĭ": 3144,
      "ĠLI": 3145,
      "Ø¨Ûķ": 3146,
      "Ġwh": 3147,
      "Ġinternet": 3148,
      "ØªÙĪØ§ÙĨ": 3149,
      "ĠCia": 3150,
      "Ø§ÛĮÙĦ": 3151,
      "):": 3152,
      "Ġkam": 3153,
      "bb": 3154,
      "UAB": 3155,
      "Ġnraum": 3156,
      "Ġpabcuam": 3157,
      "Ú©ÙĨ": 3158,
      "622": 3159,
      "487": 3160,
      "697": 3161,
      "Ġnqis": 3162,
      "Ġntim": 3163,
      "PG": 3164,
      "Ø¨Ø§": 3165,
      "Ġnram": 3166,
      "ÛĨØ±ÛĮ": 3167,
      "ahah": 3168,
      "Ú¯Ø§": 3169,
      "Ġ65": 3170,
      "ĠTsim": 3171,
      "465": 3172,
      "EC": 3173,
      "Ġdaj": 3174,
      "ĠLUB": 3175,
      "Ġsub": 3176,
      "ĠRI": 3177,
      "âĢĿ,âĢĿ": 3178,
      "Ġntug": 3179,
      "ĠÛĮØ§": 3180,
      "ĠOnline": 3181,
      "Ġbr": 3182,
      "NR": 3183,
      "roid": 3184,
      "ÙĦØ§Ø±": 3185,
      "top": 3186,
      "Ġkeeb": 3187,
      "ersh": 3188,
      "Ġtig": 3189,
      "357": 3190,
      "Ġres": 3191,
      "Ġlaj": 3192,
      "Ġdis": 3193,
      "416": 3194,
      "arg": 3195,
      "erg": 3196,
      "ĠMusic": 3197,
      "ĠMuab": 3198,
      "012": 3199,
      "ld": 3200,
      "iM": 3201,
      "ĠXv": 3202,
      "558": 3203,
      "lus": 3204,
      "uang": 3205,
      "-âĪ": 3206,
      "enn": 3207,
      "Ð©ÐīÐ©": 3208,
      "ĠSamsung": 3209,
      "Ġï¿½ï¿½ï¿½ï¿½ï¿½ï¿½ï¿½,": 3210,
      "edia": 3211,
      "aaj": 3212,
      "¡Ù": 3213,
      "Ġkhaub": 3214,
      "Ġhas": 3215,
      "ĠCr": 3216,
      "Ġ500": 3217,
      "687": 3218,
      "ÙĥØ±Ø¯ÙĨÛĮ": 3219,
      "ÙĨØ§": 3220,
      "ĠØ³Ø±ÛĮ": 3221,
      "ĠYam": 3222,
      "ĠXXX": 3223,
      "Ġphab": 3224,
      "Ġel": 3225,
      "UR": 3226,
      "Ġhmo": 3227,
      "?....": 3228,
      "ĠLis": 3229,
      "Ġntsuas": 3230,
      "ica": 3231,
      "Lub": 3232,
      "________": 3233,
      "ms": 3234,
      "ĠTsheb": 3235,
      "407": 3236,
      "ĠØ®ÛĨÛĮØ§ÙĨ": 3237,
      "ĠØ¨ÛİØª": 3238,
      "ible": 3239,
      "Ġnres": 3240,
      "ĠIs": 3241,
      "ĠTeeb": 3242,
      "ĠÙħØ±ÛĨ": 3243,
      "Ġsur": 3244,
      "Ġkhaws": 3245,
      "ĠTexas": 3246,
      "chang": 3247,
      "Ġkaj": 3248,
      "ĠUSB": 3249,
      "447": 3250,
      "QF": 3251,
      "ette": 3252,
      "Ø§ÙĦÙĩ": 3253,
      "Ú¯Ø§ÛĮ": 3254,
      "Ġsia": 3255,
      "ÙĦØª": 3256,
      "Ġ64": 3257,
      "Sq": 3258,
      "Ġkwm": 3259,
      "ĠØªØ¨": 3260,
      "Ġtrash": 3261,
      "oints": 3262,
      "][": 3263,
      "ÙĦÙĪ": 3264,
      "ĠPob": 3265,
      "Ġhniav": 3266,
      "lots": 3267,
      "ĠEd": 3268,
      "oh": 3269,
      "ĠÙģØ±ÙĪØ´": 3270,
      "ĠXnxx": 3271,
      "AI": 3272,
      "Ġluaj": 3273,
      "ĠØ¦ÛķÙħ": 3274,
      "ĠYaj": 3275,
      "ĠNh": 3276,
      "ĠÙĨÛİ": 3277,
      "Ġtshav": 3278,
      "ason": 3279,
      "esh": 3280,
      "ĠHub": 3281,
      "Ġmar": 3282,
      "uit": 3283,
      "457": 3284,
      "Ø§Ø³Ùĩ": 3285,
      "Ġcr": 3286,
      "Ġ!": 3287,
      "que": 3288,
      "ĠFab": 3289,
      "ĠMLS": 3290,
      "467": 3291,
      "ĠCat": 3292,
      "ĠHais": 3293,
      "ound": 3294,
      "LI": 3295,
      "awms": 3296,
      "LC": 3297,
      "Ġhny": 3298,
      "ating": 3299,
      "AIS": 3300,
      "ÙĢÙĩ": 3301,
      "ĠAv": 3302,
      "Ġdate": 3303,
      "Ġyawg": 3304,
      "423": 3305,
      "ĠKawm": 3306,
      "SÐĤR": 3307,
      "Ġqis": 3308,
      "Ġkhw": 3309,
      "ashing": 3310,
      "ĠNtau": 3311,
      "Ø¨Ø§Ø±Ùĩ": 3312,
      "___": 3313,
      "397": 3314,
      "Ú¯ÛĮØ±": 3315,
      "ement": 3316,
      "UJ": 3317,
      "Ġlig": 3318,
      "ope": 3319,
      "ĠÙĦØ§ÛĮÙĩ": 3320,
      "á»Ľ": 3321,
      "464": 3322,
      "Ġup": 3323,
      "Ð¨ÐĦÐ¨": 3324,
      "php": 3325,
      "Ã¡": 3326,
      "Ġvs": 3327,
      "be": 3328,
      "707": 3329,
      "ba": 3330,
      "tract": 3331,
      "Ġï¿½ï¿½ï¿½ï¿½ï¿½,": 3332,
      "ĠXvideos": 3333,
      "Ġrub": 3334,
      "469": 3335,
      "ĠCim": 3336,
      "624": 3337,
      "Ġ49": 3338,
      "Hmoob": 3339,
      "ĠØ´Ø¯Ùĩ": 3340,
      "ĠÙħØ§": 3341,
      "hua": 3342,
      "LB": 3343,
      "ÙĨÙī": 3344,
      "PC": 3345,
      "Mess": 3346,
      "Ġ75": 3347,
      "617": 3348,
      "Ġrua": 3349,
      "ĠÙĨÙĪ": 3350,
      "ka": 3351,
      "RÐħS": 3352,
      "ÛİØªÛĮ": 3353,
      "900": 3354,
      "ÙĦØ¨": 3355,
      "DB": 3356,
      "oss": 3357,
      "Ø¯Ø±": 3358,
      "ĠXwm": 3359,
      "rc": 3360,
      "ĠÚ©ÛĨÙħÙĩ": 3361,
      "ĠØ¦Ø§ÛĮ": 3362,
      "ĠHaujlwm": 3363,
      "Ġbe": 3364,
      "ters": 3365,
      "857": 3366,
      "any": 3367,
      "limited": 3368,
      "ext": 3369,
      "Hz": 3370,
      "ley": 3371,
      "Kev": 3372,
      "ĠÚ¯ÙĪ": 3373,
      "hov": 3374,
      "AWM": 3375,
      "irts": 3376,
      "Ġyas": 3377,
      "âĢ°": 3378,
      "ĠHlau": 3379,
      "Ġtaus": 3380,
      "ĠSup": 3381,
      "UM": 3382,
      "ĠØ¯Ø§ÙĪ": 3383,
      "122": 3384,
      "ats": 3385,
      "Ġpojniam": 3386,
      "ĠÙĩØ§Øª": 3387,
      "DR": 3388,
      "ĠØ±ÙĪ": 3389,
      "xff": 3390,
      "Ġ43": 3391,
      "ĠTiam": 3392,
      "Ġya": 3393,
      "ĠÛ±Û³Û": 3394,
      "IA": 3395,
      "ĠÙĨÙĪÛİ": 3396,
      "Ġploj": 3397,
      "eposit": 3398,
      "ĠâĢª": 3399,
      "alt": 3400,
      "TM": 3401,
      "050": 3402,
      "EQ": 3403,
      "Ġfawb": 3404,
      "echnology": 3405,
      "ĠÛĮÚ©": 3406,
      "ĠÙħØ¬": 3407,
      "ivers": 3408,
      "Ãĺ": 3409,
      "á»ħ": 3410,
      "ĠÑģ": 3411,
      "ĠVietnam": 3412,
      "EG": 3413,
      "Ġfaib": 3414,
      "Tunes": 3415,
      "ĠØ¯ÛĨ": 3416,
      "Ġyig": 3417,
      "Ġtshua": 3418,
      "Ġnom": 3419,
      "Ø¯ÙĪ": 3420,
      "neeg": 3421,
      "797": 3422,
      "Ġcawm": 3423,
      "ĠNtsh": 3424,
      "ntxwv": 3425,
      "ĠØŃØ³": 3426,
      "Ġdh": 3427,
      "ĠØ¯ÙĪØ§ÛĮ": 3428,
      "ĠTug": 3429,
      "ĠAc": 3430,
      "Ú©Øª": 3431,
      "Pr": 3432,
      "ĠØ®ÙĪÛİ": 3433,
      "Ġ120": 3434,
      "Ġare": 3435,
      "day": 3436,
      "itt": 3437,
      "ØŃÙĩ": 3438,
      "ĠTshiab": 3439,
      "ĠSw": 3440,
      "Ġwww": 3441,
      "Ġ--": 3442,
      "326": 3443,
      "ĠNtxiv": 3444,
      "ĠRAU": 3445,
      "ames": 3446,
      "ĠÙ¾ÛİÙĪÛĮ": 3447,
      "Ġrho": 3448,
      "ĠMovies": 3449,
      "ĠKEV": 3450,
      "so": 3451,
      "ows": 3452,
      "958": 3453,
      "623": 3454,
      "âķķ": 3455,
      "uxal": 3456,
      "Ġ66": 3457,
      "UA": 3458,
      "HD": 3459,
      "Ġciav": 3460,
      "Ġ77": 3461,
      "Ġhmab": 3462,
      "Ġnraug": 3463,
      "ove": 3464,
      "mer": 3465,
      "Ġntsig": 3466,
      "ØªØ§ÙĨ": 3467,
      "Ġmuas": 3468,
      "Ġtxias": 3469,
      "ĠØ³Ø§ÚµÛĮ": 3470,
      "757": 3471,
      "zoo": 3472,
      "EEJ": 3473,
      "647": 3474,
      "Ġkhov": 3475,
      "ther": 3476,
      "287": 3477,
      "Ġop": 3478,
      "ĠCOV": 3479,
      "awmsaub": 3480,
      "Ø¯Ø§ÙĨÙĦÙĪØ¯": 3481,
      "ĠKing": 3482,
      "ĠØ¨ÙĪÙĪÙĨ": 3483,
      "Ø³ØªØ§ÙĨÛĮ": 3484,
      "ÛĮÙĨÚ¯": 3485,
      "ÙħØ§Ø±": 3486,
      "ĠðŁ": 3487,
      "ĠTxog": 3488,
      "nes": 3489,
      "ome": 3490,
      "EF": 3491,
      "Ġap": 3492,
      "TH": 3493,
      "Ø¨Úĺ": 3494,
      "ĠiTunes": 3495,
      "141": 3496,
      "ĠØ¯Ø§ÙĨ": 3497,
      "oder": 3498,
      "ĠTxais": 3499,
      "count": 3500,
      "049": 3501,
      "Ø®Ø§ÙĨÙĩ": 3502,
      "Tr": 3503,
      "Ġkauj": 3504,
      "ars": 3505,
      "eld": 3506,
      "ĠØ¦ÛİØ³ØªØ§": 3507,
      "str": 3508,
      "ĠØ²Ùĩ": 3509,
      "ĠKub": 3510,
      "-\\": 3511,
      "905": 3512,
      "uxalees": 3513,
      "ĠManufacturers": 3514,
      "ĠCal": 3515,
      "Ġncaws": 3516,
      "oi": 3517,
      "ke": 3518,
      "ustr": 3519,
      "ãĢ": 3520,
      "ĠCai": 3521,
      "908": 3522,
      "Ú©Ø§Ø±ÛĮ": 3523,
      "ari": 3524,
      "QH": 3525,
      "297": 3526,
      "ĠGal": 3527,
      "otal": 3528,
      "113": 3529,
      "ÙĨÛĮØ§": 3530,
      "LE": 3531,
      "889": 3532,
      "UV": 3533,
      "ĠLwm": 3534,
      "ĠÙ¾ÛĮØ´": 3535,
      "cm": 3536,
      "âī": 3537,
      "ĠWond": 3538,
      "ĠComp": 3539,
      "Post": 3540,
      "ĠØ²Ø§ÙĨ": 3541,
      "ĠThis": 3542,
      "ado": 3543,
      "cy": 3544,
      "1200": 3545,
      "ĠÚ©Ø§Ùħ": 3546,
      "ÛİÙĨÙĩ": 3547,
      "âĢ¦âĢ¦âĢ¦âĢ¦": 3548,
      "Ġser": 3549,
      "VC": 3550,
      "ershare": 3551,
      "104": 3552,
      "Ú©Ø±Ø¯ÙĨÛĮ": 3553,
      "ÙħØª": 3554,
      "Ġzem": 3555,
      "iong": 3556,
      "ĠNM": 3557,
      "ĠÙĥØ§Ø±": 3558,
      "ĠÂ·": 3559,
      "146": 3560,
      "ĠEmp": 3561,
      "Ġfrom": 3562,
      "Ø¨ÙĪÙĪÙĨ": 3563,
      "ĠØ¦Ø§Ø³": 3564,
      "808": 3565,
      "ĠÙĪØ§": 3566,
      "392": 3567,
      "ational": 3568,
      "ose": 3569,
      "Ø§Ø²Ùĩ": 3570,
      "Ġkuaj": 3571,
      "Â¿": 3572,
      "Â¶": 3573,
      "Ø®Øª": 3574,
      "ĠTV": 3575,
      "bd": 3576,
      "gr": 3577,
      "ĠKoom": 3578,
      "Ø®ÛĮ": 3579,
      "dom": 3580,
      "Ġpas": 3581,
      "131": 3582,
      "Ġim": 3583,
      "ĠMobile": 3584,
      "ĠMas": 3585,
      "NS": 3586,
      "ÙħØ§ÙĨÙĩ": 3587,
      "ĠSat": 3588,
      "Ġmos": 3589,
      "ĠTebchaws": 3590,
      "Ġtxiag": 3591,
      "ÚµØ§ØªÛĮ": 3592,
      "Ø±Ø§ÛĮ": 3593,
      "256": 3594,
      "ÙħÛĮÙĨ": 3595,
      "859": 3596,
      "807": 3597,
      "ĠÙĨÛĮÛĮÙĩ": 3598,
      "ala": 3599,
      "Ġ88": 3600,
      "101": 3601,
      "ĠMan": 3602,
      "Ġna": 3603,
      "tab": 3604,
      "Ġ47": 3605,
      "2013": 3606,
      "437": 3607,
      "Ġmis": 3608,
      "ĠÙĩÛķØ±": 3609,
      "ĠØ¨ÛķØ±": 3610,
      "GA": 3611,
      "Ġneb": 3612,
      "ÙĦØ§Ùħ": 3613,
      "ĠÙħØ±ÛĨÚ¤": 3614,
      "ĠKab": 3615,
      "TR": 3616,
      "ÛķÙĨØ¯": 3617,
      "ĠStatus": 3618,
      "Ú©Ø§": 3619,
      "ØªØ§ÛĮ": 3620,
      "Ġ250": 3621,
      "ĠØ¯Ø³Øª": 3622,
      "teb": 3623,
      "ones": 3624,
      "ĠIt": 3625,
      "Ø±Ø²": 3626,
      "Ġtsib": 3627,
      "Rep": 3628,
      "ĠÛ±Û³Û¹Û": 3629,
      "mo": 3630,
      "Ġ99": 3631,
      "Ġxyoos": 3632,
      "eez": 3633,
      "ĠNiam": 3634,
      "Ġbro": 3635,
      "Ġsov": 3636,
      "flix": 3637,
      "ĠYeh": 3638,
      "ĠTo": 3639,
      "ĠEur": 3640,
      "Ð©Ñĵ": 3641,
      "oll": 3642,
      "orr": 3643,
      "evel": 3644,
      "yn": 3645,
      "ĠØ³Ø§ÙĦ": 3646,
      "PM": 3647,
      "ĠCan": 3648,
      "ÙĦÙħ": 3649,
      "Ġ097": 3650,
      "560": 3651,
      "ĠTos": 3652,
      "ĠÙħØ¹": 3653,
      "een": 3654,
      "tl": 3655,
      "142": 3656,
      "Ġqha": 3657,
      "ha": 3658,
      "Ġpage": 3659,
      "RÑĹ": 3660,
      "ĠHigh": 3661,
      ".....": 3662,
      "162": 3663,
      "ĠÚĺÙĨ": 3664,
      "ĠNTS": 3665,
      "ĠXyoo": 3666,
      "ĠÙĩÛİØ²": 3667,
      "Ġxis": 3668,
      "Ġev": 3669,
      "ĠClub": 3670,
      "Ġntxuav": 3671,
      "dd": 3672,
      "ffic": 3673,
      "ĠMuag": 3674,
      "ÛĮØ§ÙĨØ¯": 3675,
      "257": 3676,
      "ÐµÐ½": 3677,
      "ĠÙĨØ¸": 3678,
      "Ġhab": 3679,
      "Ø¯Ø§ÙĨÛĮ": 3680,
      "ĠNco": 3681,
      "Ġzam": 3682,
      "ĠØŃÛĮØ²": 3683,
      "040": 3684,
      "ĠComm": 3685,
      "aven": 3686,
      "ĠÙĩÛĨ": 3687,
      "Ġntxwv": 3688,
      "ĠPov": 3689,
      "ĠWondershare": 3690,
      ")<": 3691,
      "ĠâĢĮâĢ¬": 3692,
      "ÛķØ±ÛĮ": 3693,
      "Ġ300": 3694,
      "ĠQub": 3695,
      "786": 3696,
      "164": 3697,
      "030": 3698,
      "ĠChrist": 3699,
      "Ø³Ø§ÙĨ": 3700,
      "man": 3701,
      "327": 3702,
      "ĠNor": 3703,
      "HO": 3704,
      "Ġsystem": 3705,
      "Ġlij": 3706,
      "Ã¼": 3707,
      "226": 3708,
      "ĠDá»ħ": 3709,
      "ĠØ¨ÙĪÙĪÙĩ": 3710,
      "kv": 3711,
      "Ġquaj": 3712,
      "ÙĦÛİ": 3713,
      "ĠNhá»Ľ": 3714,
      "ĠÙĨÛĮØ´": 3715,
      "izz": 3716,
      "Ùł": 3717,
      "âĢĭ": 3718,
      "hl": 3719,
      "auvas": 3720,
      "ana": 3721,
      "rol": 3722,
      "ĠThom": 3723,
      "NA": 3724,
      "ĠØ²ÛĮØ§ØªØ±": 3725,
      "241": 3726,
      "ĠTHIAB": 3727,
      "UAV": 3728,
      "ĠPart": 3729,
      "ĠØ´Ø¨": 3730,
      "zh": 3731,
      "ĠØ¯Ø±ÙĪØ³Øª": 3732,
      "ĠLe": 3733,
      "ĠMod": 3734,
      "Thaum": 3735,
      "ĠEs": 3736,
      "ĠØ¬ÛĮÙĩ": 3737,
      "ĠDub": 3738,
      "Ġquav": 3739,
      "Ġnkawd": 3740,
      "Ú©Ø§Øª": 3741,
      "ĠÐ¡": 3742,
      "ĠØ¢Ùħ": 3743,
      "Ġraj": 3744,
      "Ntau": 3745,
      "Ġ2007": 3746,
      "Ġlas": 3747,
      "ĠCC": 3748,
      "989": 3749,
      "eeline": 3750,
      "ainless": 3751,
      "ping": 3752,
      "2012": 3753,
      "ĠXav": 3754,
      "ĠVietnamobile": 3755,
      "ĠØ®Ø±ÛĮØ¯": 3756,
      "ĠNC": 3757,
      "Pl": 3758,
      "ĠTshuab": 3759,
      "ĠSel": 3760,
      "090": 3761,
      "ĠDej": 3762,
      "ÛĮÙħØª": 3763,
      "Ø±ÚĨ": 3764,
      "kab": 3765,
      "ĠZh": 3766,
      "ĠBe": 3767,
      "ÙĦØ±": 3768,
      "Ġtsho": 3769,
      "ĠÙĨÛİÙĪ": 3770,
      "},": 3771,
      "ule": 3772,
      "181": 3773,
      "ĠØ´Ø§Ø±": 3774,
      "indows": 3775,
      "ÛķÙĪÛķÛĮ": 3776,
      "Ġlees": 3777,
      "fb": 3778,
      "060": 3779,
      "Ġnthuav": 3780,
      "work": 3781,
      "ĠSeries": 3782,
      "070": 3783,
      "ĠCeeb": 3784,
      "1111": 3785,
      "ãĥ¼": 3786,
      "uar": 3787,
      "102": 3788,
      "axy": 3789,
      "ote": 3790,
      "ĠPlig": 3791,
      "Ġpauv": 3792,
      "Ġtattoo": 3793,
      "Ġzib": 3794,
      "Ġ94": 3795,
      "ÛİØ´": 3796,
      "996": 3797,
      "ĠÙħØ¯ÙĦ": 3798,
      "ĠNoj": 3799,
      "ĠNE": 3800,
      "ates": 3801,
      "lex": 3802,
      "ogr": 3803,
      "Ø±Ø¯ÛĮ": 3804,
      "ĠEmpflix": 3805,
      "url": 3806,
      "AX": 3807,
      "me": 3808,
      "ĠÚķÙĪÙĪ": 3809,
      "ĠJo": 3810,
      "MG": 3811,
      "Ø®Ø´": 3812,
      "Ø±Ø¯ÙĪÙĪ": 3813,
      "ĠØ±Ø§ÛĮ": 3814,
      "Ġtais": 3815,
      "ĠØ¨ÙĥÙĩ": 3816,
      "Ġ325": 3817,
      "ĠÚĨÙĪÙĨ": 3818,
      "ĠPoly": 3819,
      "Â¸": 3820,
      "ĠYehauvas": 3821,
      "cai": 3822,
      "ØªÙī": 3823,
      "ĠYawmsaub": 3824,
      "ĠHack": 3825,
      "907": 3826,
      "Ġtxhia": 3827,
      "Ġcob": 3828,
      "PA": 3829,
      "Ġhlwb": 3830,
      "ĠØ³Ø±ÛĮØ§ÙĦ": 3831,
      "Ø¯Ùħ": 3832,
      "Ġnpau": 3833,
      "Ġpuav": 3834,
      "550": 3835,
      "Ġsup": 3836,
      "ĠÙ¾Ø§Ø´": 3837,
      "957": 3838,
      "ĠRS": 3839,
      "858": 3840,
      "ï¼": 3841,
      "080": 3842,
      "ĠÚ©Øª": 3843,
      "à¦": 3844,
      "Ú¯Ø§ÙĨ": 3845,
      "els": 3846,
      "ĠKom": 3847,
      "GC": 3848,
      "Ġ41": 3849,
      "ft": 3850,
      "Ø³ØªÙħ": 3851,
      "ĠTim": 3852,
      "Ø§ÙĦØ§": 3853,
      "27850": 3854,
      "ĠTshuaj": 3855,
      "ĠØ¬Ø§Ø±": 3856,
      "ĠØªØ§Ø±ÛĮ": 3857,
      "Ġthawv": 3858,
      "Ø±ÙĩÙĩ": 3859,
      "ĠChi": 3860,
      "Ġzoov": 3861,
      "Îĳ": 3862,
      "try": 3863,
      "UAJ": 3864,
      "ÛİÙħ": 3865,
      "ĠØ±ÛĮ": 3866,
      "ĠØ²ÙħØ§ÙĨÛĮ": 3867,
      "xf": 3868,
      "Ġhos": 3869,
      "SÐĥS": 3870,
      "ips": 3871,
      "Ø±Ù¾": 3872,
      "Ġï¿½ï¿½ï¿½ï¿½ï¿½ï¿½.": 3873,
      "Ġï¿½ï¿½ï¿½ï¿½ï¿½ï¿½ï¿½ï¿½,": 3874,
      "374": 3875,
      "959": 3876,
      "ĠPlay": 3877,
      "ĠÛĮØ§Ø³": 3878,
      "hom": 3879,
      "ĠCont": 3880,
      "ĠPH": 3881,
      "126": 3882,
      "OT": 3883,
      "Ġtool": 3884,
      "Ġpua": 3885,
      "426": 3886,
      "ĠBM": 3887,
      "Ø²ÛĮÚ©": 3888,
      "987": 3889,
      "ĠØ¦Ø§ÙĪ": 3890,
      "ÐºÐ¸": 3891,
      "TD": 3892,
      "ĠCity": 3893,
      "Ġkhawm": 3894,
      "WL": 3895,
      "Ø¯Ø§Ùħ": 3896,
      "ĠØ¯Ø¨ÛĮ": 3897,
      "ĠPosted": 3898,
      "Date": 3899,
      "ĠØ¨ÚķÛĮ": 3900,
      "ĠKeez": 3901,
      "GS": 3902,
      "Ġwholesale": 3903,
      "AF": 3904,
      "2010": 3905,
      "Ø¦ÛĮ": 3906,
      "ĠØ³Ûİ": 3907,
      "ĠEX": 3908,
      "eck": 3909,
      "911": 3910,
      "kub": 3911,
      "aig": 3912,
      "------------------": 3913,
      "ĠPage": 3914,
      "ĠØ±Ûİ": 3915,
      "ma": 3916,
      "ĠNej": 3917,
      "yle": 3918,
      "Ġtxee": 3919,
      "Ġzus": 3920,
      "153": 3921,
      "Ġhnav": 3922,
      "Messages": 3923,
      "ĠØ¨Ø²": 3924,
      "ĠÙĩÛķ": 3925,
      "BD": 3926,
      "ĠYel": 3927,
      "ĠâĢĺ": 3928,
      "annel": 3929,
      "ĠÛ²": 3930,
      "Ġroob": 3931,
      "152": 3932,
      "{\"": 3933,
      "press": 3934,
      "Ġhnyav": 3935,
      "ĠCar": 3936,
      "ional": 3937,
      "361": 3938,
      "ĠPornUn": 3939,
      "ĠPornUnlim": 3940,
      "ĠØ¨Ú©Ùĩ": 3941,
      "Ġnas": 3942,
      "ĠEN": 3943,
      "Ø¹Ø§Øª": 3944,
      "ĠSl": 3945,
      "Ġwebs": 3946,
      "fone": 3947,
      "si": 3948,
      "Ġtopics": 3949,
      "Ġ150": 3950,
      "Ġ85": 3951,
      "ĠImages": 3952,
      "tern": 3953,
      "fe": 3954,
      "iber": 3955,
      "ĠDel": 3956,
      "ectr": 3957,
      "fashion": 3958,
      "Ġì": 3959,
      "Tsh": 3960,
      "ĠUs": 3961,
      "ĠØªØ§ÛĮØ¨Ùĩ": 3962,
      "434": 3963,
      "ota": 3964,
      "inscription": 3965,
      "BH": 3966,
      "ĠKauj": 3967,
      "Ġhigh": 3968,
      "ÑĤÐ°": 3969,
      "123": 3970,
      "ĠInt": 3971,
      "ÙĦØ§ÛĮ": 3972,
      "Ġnkoj": 3973,
      "ines": 3974,
      "2011": 3975,
      "Ġ235": 3976,
      "SA": 3977,
      "Ġqhuas": 3978,
      "018": 3979,
      "723": 3980,
      "511": 3981,
      "ĠGuang": 3982,
      "Ġce": 3983,
      "alls": 3984,
      "812": 3985,
      "fa": 3986,
      "loov": 3987,
      "ĠBeeline": 3988,
      "sk": 3989,
      "Ġlog": 3990,
      "Ð¨ÐĪ": 3991,
      "ĠØ¯Ø§Ø¯": 3992,
      "Ø±Ø§Ùĩ": 3993,
      "âĢĮâĢª": 3994,
      "Ġpost": 3995,
      "627": 3996,
      "ÙĥØ§Ø±ÛĮ": 3997,
      "ital": 3998,
      "Ġkov": 3999,
      "522": 4000,
      "yim": 4001,
      "html": 4002,
      "Ø¯Ûķ": 4003,
      "ĠRÐħ": 4004,
      "103": 4005,
      "ĠØ¦ÛĨ": 4006,
      "Ø¨Ø§ÙĨ": 4007,
      "med": 4008,
      "ta": 4009,
      "ve": 4010,
      "Ġmaj": 4011,
      "242": 4012,
      "427": 4013,
      "Ġpol": 4014,
      "ĠÙģØ§Ø±": 4015,
      "ize": 4016,
      "ĠMem": 4017,
      "ÚµÛĮ": 4018,
      "Ġdu": 4019,
      "ani": 4020,
      "Ġkhwv": 4021,
      "ĠUSA": 4022,
      "Ġreg": 4023,
      "809": 4024,
      "ious": 4025,
      "ĠÙħÙĨØ¯": 4026,
      "ĠPuas": 4027,
      "793": 4028,
      "ĠLo": 4029,
      "Ġmusic": 4030,
      "Ġ42": 4031,
      "OD": 4032,
      "Ġtsuag": 4033,
      "234": 4034,
      "Ġcaj": 4035,
      "ister": 4036,
      "Join": 4037,
      "ĠÚ©Ø§Øª": 4038,
      "RÑĳS": 4039,
      "ĠSm": 4040,
      "Ú¯Ø±ÛĮ": 4041,
      "Ġ98": 4042,
      "ĠMil": 4043,
      "ÙĪØ§Ø²": 4044,
      "Î±": 4045,
      "ĠLG": 4046,
      "Ġ69": 4047,
      "ĠLiab": 4048,
      "ĠMic": 4049,
      "ric": 4050,
      "ĠMet": 4051,
      "âĢ¬âĢ«": 4052,
      "Posts": 4053,
      "ĠTur": 4054,
      "ave": 4055,
      "Ġtsaus": 4056,
      "ĠStr": 4057,
      "ling": 4058,
      "ÙĢØª": 4059,
      "Ġcont": 4060,
      "994": 4061,
      "Ø²Ùħ": 4062,
      "utation": 4063,
      "col": 4064,
      "nts": 4065,
      "ovo": 4066,
      "))": 4067,
      "ĠâĢ¦": 4068,
      "ĠKB": 4069,
      "ĠÙĤÛĮÙħØª": 4070,
      "verter": 4071,
      "Î¹": 4072,
      "ĠÚ©ÛĨÙħ": 4073,
      "ĠSau": 4074,
      "ĠDuab": 4075,
      "ĠÙĩØªÙĦ": 4076,
      "ĠRd": 4077,
      "sm": 4078,
      "ÛĨØ²": 4079,
      "166": 4080,
      "ĠTw": 4081,
      "Ġchoj": 4082,
      "ÚķÛİ": 4083,
      "omens": 4084,
      "TA": 4085,
      "Ġxib": 4086,
      "ĠPDF": 4087,
      "Ġmuam": 4088,
      "Peb": 4089,
      "Ġmet": 4090,
      "ÙĪÙĪØ±": 4091,
      "Ø±Ø§Øª": 4092,
      "760": 4093,
      "ĠâĨ": 4094,
      "Ġmobile": 4095,
      "ĠÙĨÙħØ§ÛĮ": 4096,
      "Sp": 4097,
      "Ø§ÛĮØ§ÙĨ": 4098,
      "Ġnum": 4099,
      "-Â°": 4100,
      "EA": 4101,
      "irl": 4102,
      "oon": 4103,
      ".-": 4104,
      "ĠLas": 4105,
      "Ġzaus": 4106,
      "Ð³": 4107,
      "ĠLoj": 4108,
      "ĠØ§Ø¦": 4109,
      "Ø§Ø±Ø§ÙĨ": 4110,
      "rop": 4111,
      "ĠØªØŃ": 4112,
      "632": 4113,
      "ĠNrho": 4114,
      "Ø¨ÙĪÙĪÙĨÛĮ": 4115,
      "SP": 4116,
      "Ġpwm": 4117,
      "Ġntsim": 4118,
      "Ġversion": 4119,
      "ÙĨØ¬Ø§Ùħ": 4120,
      "BC": 4121,
      "ĠØ®ÙĪØ¯": 4122,
      "Ġï¿½.": 4123,
      "eiuxalees": 4124,
      "Ġdeev": 4125,
      "ÛĮØ§ÙĨÛĮ": 4126,
      "ĠGalaxy": 4127,
      "436": 4128,
      "087": 4129,
      "12005": 4130,
      "ĠØ®Ø§ÙĨ": 4131,
      "inn": 4132,
      "Nyob": 4133,
      "ĠÙĥÛĨÙħÙĩ": 4134,
      "ise": 4135,
      "iongchang": 4136,
      "St": 4137,
      "ĠiOS": 4138,
      "pdf": 4139,
      "Ġthat": 4140,
      "???": 4141,
      "-âĪĤ": 4142,
      "ÙĨÚ¯Ùĩ": 4143,
      "Ġpe": 4144,
      "ÙĪØªÛĮ": 4145,
      "opular": 4146,
      "Ø³Ø¨": 4147,
      "RÐħR": 4148,
      "à¸²": 4149,
      "tra": 4150,
      "Ġthauj": 4151,
      "ĠÚ©ÙĪØ±Ø¯ÛĮ": 4152,
      "Points": 4153,
      "err": 4154,
      "ict": 4155,
      "ĠForum": 4156,
      "zaug": 4157,
      "Ø±ÛĮØª": 4158,
      "Ġ68": 4159,
      "Ġ87": 4160,
      "II": 4161,
      "ÛķØ´": 4162,
      "ĠSil": 4163,
      "row": 4164,
      "ĠShow": 4165,
      "Ġï¿½ï¿½ï¿½ï¿½,": 4166,
      "ero": 4167,
      "Ġdim": 4168,
      "ys": 4169,
      "Ġ125": 4170,
      "ness": 4171,
      "ading": 4172,
      "641": 4173,
      "132": 4174,
      "Reputation": 4175,
      "ene": 4176,
      "Ġnew": 4177,
      "Ġnoob": 4178,
      "ÙģØ±": 4179,
      "ations": 4180,
      "ĠAC": 4181,
      "ĠØ¨Ø§ÙĨ": 4182,
      "ĠYeeb": 4183,
      "ĠZaj": 4184,
      "Ġdel": 4185,
      "agtsh": 4186,
      "Ð¨ÐģÐ¨": 4187,
      "wei": 4188,
      "EEG": 4189,
      "ÙĨØª": 4190,
      "ÙĲ": 4191,
      "992": 4192,
      "ĠIP": 4193,
      "Ġtwj": 4194,
      "la": 4195,
      "Ð±": 4196,
      "ĠBar": 4197,
      "RW": 4198,
      "Ġnta": 4199,
      "ĠØ®ÙĪÛİÙĨØ¯": 4200,
      "Ġï¿½ï¿½ï¿½ï¿½ï¿½ï¿½ï¿½:": 4201,
      "agtshia": 4202,
      "ĠØ´ÛİÙĪÙĩ": 4203,
      "ĠPornTube": 4204,
      "ĠAng": 4205,
      "Ġplawv": 4206,
      "203": 4207,
      "Ġseev": 4208,
      "ĠAmer": 4209,
      "ÛĨÙħ": 4210,
      "ĠØªØ¹": 4211,
      "ĠLen": 4212,
      "ĠAP": 4213,
      "ĠXyuas": 4214,
      "11639": 4215,
      "ÙĢÙĢÙĩ": 4216,
      "Ġncua": 4217,
      "ĠNtsiab": 4218,
      "ĠNO": 4219,
      "ĠÙħÛİÚĺ": 4220,
      "Ġtxheeb": 4221,
      "png": 4222,
      "ÙĪÚ©": 4223,
      "ĠEnglish": 4224,
      "ÛĨØ±Ùĩ": 4225,
      "Ġplab": 4226,
      "Ġcheeb": 4227,
      "Ġtxhawj": 4228,
      "ads": 4229,
      "ource": 4230,
      "heaven": 4231,
      "acebook": 4232,
      "ÙĪÙĤ": 4233,
      "Ø±Ø§Ùħ": 4234,
      "ĠÙĪÚµØ§Øª": 4235,
      "333": 4236,
      "OP": 4237,
      "ĠÚĨØ§ÙĪ": 4238,
      "ziag": 4239,
      "Ġpuab": 4240,
      "ĠÙĨØ§ÙĪÚĨÙĩ": 4241,
      "ÚµØ¨Úĺ": 4242,
      "Ġzis": 4243,
      "Ġrh": 4244,
      "432": 4245,
      "ĠAp": 4246,
      "unc": 4247,
      "ĠCoj": 4248,
      "ĠVal": 4249,
      "ĠSI": 4250,
      "tsi": 4251,
      "ĠØ²ÙħØ§ÙĨ": 4252,
      "oojziag": 4253,
      "ĠUSD": 4254,
      "ÙĪØ±Øª": 4255,
      "Ġ78": 4256,
      "ĠEurope": 4257,
      "ĠMB": 4258,
      "uth": 4259,
      "enerator": 4260,
      "Ġ97": 4261,
      "ï¸": 4262,
      "ĠØ¦Ø§Ø´": 4263,
      "201": 4264,
      "sa": 4265,
      "Ġqaib": 4266,
      "Ġntsuj": 4267,
      "cf": 4268,
      "ÙĢÙĢÛĮ": 4269,
      "SI": 4270,
      "Ú¯Ûķ": 4271,
      "lock": 4272,
      "ÙĬÙĨ": 4273,
      "ama": 4274,
      "Ġsteel": 4275,
      "ï¸ı": 4276,
      "ĠØ¯ÛķÚ©": 4277,
      "bf": 4278,
      "ĠFeem": 4279,
      "909": 4280,
      "ĠSK": 4281,
      "ĠÙĨØ§ÙĪÙĩ": 4282,
      "ĠÙ¾ÛĨ": 4283,
      "1000": 4284,
      "SC": 4285,
      "769": 4286,
      "In": 4287,
      "ĠÚ¯ÛĨÚķ": 4288,
      "Ġï¿½ï¿½ï¿½ï¿½ï¿½ï¿½ï¿½.": 4289,
      "Ġzej": 4290,
      "ÙĪØ§Ø±Ùĩ": 4291,
      "ĠHloov": 4292,
      "ĠPower": 4293,
      "VI": 4294,
      "uawei": 4295,
      "atic": 4296,
      "oderator": 4297,
      "ober": 4298,
      "anch": 4299,
      "ÎŁ": 4300,
      "ĠAb": 4301,
      ".)": 4302,
      "ÙĥØ±ÛİØª": 4303,
      "kabzaug": 4304,
      "let": 4305,
      "ĠEvn": 4306,
      "Ø§ÙĨÙī": 4307,
      "Ġedited": 4308,
      "ĠSe": 4309,
      "Ġpes": 4310,
      "ÙĨÙĩØ§": 4311,
      "Ġund": 4312,
      "ĠKaum": 4313,
      "ÙĪØ´ÛĮ": 4314,
      "ĠPer": 4315,
      "ĠRev": 4316,
      "Ġncees": 4317,
      "ĠEm": 4318,
      "-Â": 4319,
      "urr": 4320,
      "Ġhla": 4321,
      "porn": 4322,
      "ĠAsm": 4323,
      "oojziagkabzaug": 4324,
      "ĠRÐ": 4325,
      "Subject": 4326,
      "Ġse": 4327,
      "Ġ966": 4328,
      "na": 4329,
      "pm": 4330,
      "ĠPort": 4331,
      "RÂµSÐĤ": 4332,
      "941": 4333,
      "ĠÚ©ÙĪ": 4334,
      "iang": 4335,
      "Ø¨Ø¯": 4336,
      "Ġntshe": 4337,
      "ĠST": 4338,
      "Ġloo": 4339,
      "Ð¿": 4340,
      "UG": 4341,
      "ĠSfone": 4342,
      "ĠÙ¾ÙĦ": 4343,
      "Ø±Ú©Øª": 4344,
      "ĠNruab": 4345,
      "ÙĪÚ¯": 4346,
      "Ġ2612005": 4347,
      "Ġqu": 4348,
      "ays": 4349,
      "ĠPar": 4350,
      "Ġtsom": 4351,
      "âĢľ": 4352,
      "Ġtshuav": 4353,
      "UN": 4354,
      "Ø¨ÙĨ": 4355,
      "ĠØªÙĦ": 4356,
      "ĠHy": 4357,
      "ĠØ¯ÙĪØ±": 4358,
      "inal": 4359,
      "Ġtop": 4360,
      "xFF": 4361,
      "Ø¯Ø§Ø¯": 4362,
      "MLS": 4363,
      "ÙĪÛķ": 4364,
      "Moderator": 4365,
      "Ġxyaum": 4366,
      "ÙĥØ§Ø±": 4367,
      "ÙĥØ§": 4368,
      "ĠDes": 4369,
      "ĠNraug": 4370,
      "CA": 4371,
      "ence": 4372,
      "TB": 4373,
      "ĠÙĨÙĪÙĪØ³": 4374,
      "ĠØ¹Ùħ": 4375,
      "Ġdes": 4376,
      "Ġsex": 4377,
      "Ġyau": 4378,
      "Ġntag": 4379,
      "Ġï¿½ï¿½ï¿½ï¿½ï¿½ï¿½:": 4380,
      "ĠLug": 4381,
      "Ġniag": 4382,
      "ĠNike": 4383,
      "AWV": 4384,
      "kauj": 4385,
      "Ø±Ùģ": 4386,
      "186": 4387,
      "376": 4388,
      "Ġeng": 4389,
      "Ġmoos": 4390,
      "Ġzuj": 4391,
      "174": 4392,
      "Ġcwj": 4393,
      "496": 4394,
      "Ġ????": 4395,
      "JPG": 4396,
      "134": 4397,
      "Ġxam": 4398,
      "Ġnyh": 4399,
      "520": 4400,
      "ĠDual": 4401,
      "ONG": 4402,
      "ĠGoogle": 4403,
      "Ġhave": 4404,
      "ham": 4405,
      "Ġdo": 4406,
      "Ib": 4407,
      "iff": 4408,
      "iles": 4409,
      "ĠÙħØ³": 4410,
      "res": 4411,
      "????????????????": 4412,
      "ĠTXH": 4413,
      "ĠÚ©Ø§Ø±ÛĮ": 4414,
      "Ġrec": 4415,
      "ÛĨÙĨÛĮ": 4416,
      "763": 4417,
      "ĠPub": 4418,
      "171": 4419,
      "AK": 4420,
      "ĠØ¯Ø§Ùĩ": 4421,
      "ĠÙĨÛķ": 4422,
      "202": 4423,
      "ĠLOS": 4424,
      "Ġhoobkas": 4425,
      "ĠDR": 4426,
      "itan": 4427,
      "Î¿": 4428,
      "Ġper": 4429,
      "ĠØ³ÙĨ": 4430,
      "Ġhlua": 4431,
      "hnub": 4432,
      "ĠØ§ÛĮØ±Ø§ÙĨ": 4433,
      "ision": 4434,
      "ĠØ¯Ø§Ø¨": 4435,
      "ĠÙĨÛİÙĪØ§ÙĨ": 4436,
      "ĠTaws": 4437,
      "der": 4438,
      "pa": 4439,
      "MIB": 4440,
      "ÛİØ´Ùĩ": 4441,
      "Ġhy": 4442,
      "Ġxij": 4443,
      "uz": 4444,
      "ÙĢÙĢÙĢÙĢÙĢÙĢÙĢÙĢ": 4445,
      "hehe": 4446,
      "ĠÙħØª": 4447,
      "ĠYim": 4448,
      "tom": 4449,
      "ĠDet": 4450,
      "ĠWeb": 4451,
      "ĠØ¯Ø±ÛİÚĺ": 4452,
      "Ġtxuag": 4453,
      "ĠYas": 4454,
      "ĠSIM": 4455,
      "RÑķS": 4456,
      "lug": 4457,
      "ĠÙĦØ§ÛĮ": 4458,
      "ĠWhite": 4459,
      "los": 4460,
      "133": 4461,
      "ĠTop": 4462,
      "UAM": 4463,
      "ĠXaiv": 4464,
      "ĠPor": 4465,
      "ĠTAU": 4466,
      "Ġnti": 4467,
      "LL": 4468,
      "ĠØ¦ÛĮØ³ÙĦ": 4469,
      "163": 4470,
      "ĠHAU": 4471,
      "ĠChav": 4472,
      "Â«": 4473,
      "ron": 4474,
      "Ġphaj": 4475,
      "https": 4476,
      "Ġtsw": 4477,
      "Ġtxaj": 4478,
      "ĠÙĦÛĮÙĨ": 4479,
      "Ġ=>": 4480,
      "993": 4481,
      "EEB": 4482,
      "ĠÙħØ±Ø¯": 4483,
      "ility": 4484,
      "Ġtshirt": 4485,
      "ĠUnivers": 4486,
      "OC": 4487,
      "ÙĪÛĮÛĮ": 4488,
      "ification": 4489,
      "ÛĮÙĪÙĩ": 4490,
      "ÚĨÙĪÙĪ": 4491,
      "ĠKeeb": 4492,
      "ĠES": 4493,
      "ty": 4494,
      "Ġall": 4495,
      "Ġntxov": 4496,
      "how": 4497,
      "Ġnrig": 4498,
      "263": 4499,
      "Ġunlimited": 4500,
      "con": 4501,
      "301": 4502,
      "âĢĳ": 4503,
      "ĠHm": 4504,
      "true": 4505,
      "gy": 4506,
      "Ġceg": 4507,
      "orld": 4508,
      "oz": 4509,
      "192": 4510,
      "ĠÚ©ÙĦÛĮ": 4511,
      "ĠNews": 4512,
      "136": 4513,
      "icon": 4514,
      "ĠJohn": 4515,
      "âĸ": 4516,
      "Ġau": 4517,
      "Ġ2000": 4518,
      "ĠTes": 4519,
      "Ġhe": 4520,
      "ĠÙĪØª": 4521,
      "Ø³ÛķØ±": 4522,
      "Ù¾Ø§Ø±": 4523,
      "alk": 4524,
      "RÑĳR": 4525,
      "ĠTsheej": 4526,
      "nh": 4527,
      "ĠMag": 4528,
      "ĠÚ©ÙĦ": 4529,
      "Ġtotal": 4530,
      "ĠTopics": 4531,
      "ĠHlub": 4532,
      "use": 4533,
      "991": 4534,
      "834": 4535,
      "Î£": 4536,
      "Pad": 4537,
      "Nws": 4538,
      "ru": 4539,
      "Ø±ÙĨ": 4540,
      "......": 4541,
      "Ú©Ø±Ø¯ÙĨ": 4542,
      "MB": 4543,
      "Ø§Ø¨ÛĮ": 4544,
      "Ġrep": 4545,
      "ĠPho": 4546,
      "ĠZOO": 4547,
      "RIR": 4548,
      "Ġ46": 4549,
      "Tus": 4550,
      "Ġï¿½ï¿½ï¿½ï¿½ï¿½.": 4551,
      "914": 4552,
      "ĠRel": 4553,
      "004": 4554,
      "Ø´Ùħ": 4555,
      "reet": 4556,
      "ĠLenovo": 4557,
      "ern": 4558,
      "353": 4559,
      "Ø¨Øª": 4560,
      "Ġind": 4561,
      "ĠØ¨ÛĮÙĨ": 4562,
      "ĠGe": 4563,
      "ĠÚ¾": 4564,
      "Ð·": 4565,
      "ï¿½ï¿½ï¿½ï¿½ï¿½ï¿½ï¿½ï¿½ï¿½ï¿½ï¿½ï¿½ï¿½ï¿½ï¿½ï¿½": 4566,
      "twg": 4567,
      "154": 4568,
      "Ø®Øµ": 4569,
      "ĠRF": 4570,
      "rey": 4571,
      "ces": 4572,
      "ĠØªØ§Ø±ÛĮØ®": 4573,
      "cas": 4574,
      "Ġla": 4575,
      "ÑĢÐ°": 4576,
      ",,": 4577,
      "066": 4578,
      "round": 4579,
      "ĠUnited": 4580,
      "Ġntxim": 4581,
      "ĠØ¨ÚµØ§ÙĪ": 4582,
      "ĠSong": 4583,
      "Ø²Ø§ÙĨÛĮ": 4584,
      "bn": 4585,
      "Ġnkawm": 4586,
      "971": 4587,
      "Ġ110": 4588,
      "ÙĢØ¯": 4589,
      "ĠCAS": 4590,
      "tsis": 4591,
      "ball": 4592,
      "umber": 4593,
      "ĠNrov": 4594,
      "dc": 4595,
      "Ġhlawv": 4596,
      "589": 4597,
      "Ġwas": 4598,
      "Ġï¿½ï¿½ï¿½ï¿½ï¿½ï¿½ï¿½ï¿½ï¿½ï¿½ï¿½ï¿½ï¿½ï¿½ï¿½": 4599,
      "Ġ59": 4600,
      "entr": 4601,
      "ĠiPad": 4602,
      "Ġnyuj": 4603,
      "ÙĪÛĮØ³": 4604,
      "Ø§Ø¬": 4605,
      "Ġnplog": 4606,
      "Ġre": 4607,
      "161": 4608,
      "ĠÙĨÙĤ": 4609,
      "Ġlov": 4610,
      "Ġmin": 4611,
      "ĠNtsuj": 4612,
      "ĠYUAV": 4613,
      "ĠAsmeskas": 4614,
      "Ġntxhov": 4615,
      "Ġcawv": 4616,
      "ĠKAU": 4617,
      "ØĽ": 4618,
      "Ġqoob": 4619,
      "156": 4620,
      "ĠSystem": 4621,
      "por": 4622,
      "iver": 4623,
      "oney": 4624,
      "ÛķÙĥ": 4625,
      "ĠâĢĭ": 4626,
      "ĠThink": 4627,
      "MA": 4628,
      "002": 4629,
      "ÛİÚķ": 4630,
      "Ġqaum": 4631,
      "Ġmod": 4632,
      "ĠÙģÛĮ": 4633,
      "Ġda": 4634,
      "ĠWB": 4635,
      "ĠØ³Øª": 4636,
      "olf": 4637,
      "tim": 4638,
      "ÛķÚķ": 4639,
      "Ġphom": 4640,
      "à¸²à¸": 4641,
      "ĠØ¨Ø§Ø³": 4642,
      "hmoob": 4643,
      "Ġciaj": 4644,
      "ĠRooj": 4645,
      "Ġnto": 4646,
      "ĠBible": 4647,
      "Ø¤Ø²": 4648,
      "Ġtsheej": 4649,
      "off": 4650,
      "Ġris": 4651,
      "kn": 4652,
      "ĠØ³Ø§ÛĮØª": 4653,
      "Ġet": 4654,
      "ĠÚ¯Ø´ØªÛĮ": 4655,
      "Ġman": 4656,
      "283": 4657,
      "1018": 4658,
      "570": 4659,
      "Ġnqus": 4660,
      "503": 4661,
      "ĠPlus": 4662,
      "ÙĬÙĩ": 4663,
      "022": 4664,
      "ĠReg": 4665,
      "Ġnim": 4666,
      "ĠYouTube": 4667,
      "045": 4668,
      "Ġar": 4669,
      "Ġlauj": 4670,
      "ĠØ§Øª": 4671,
      "Ø¨ÙĪÙĪÙĨÙĩ": 4672,
      "ĠØ¯Úµ": 4673,
      "730": 4674,
      "Ġ049": 4675,
      "ĠRad": 4676,
      "cs": 4677,
      "Ġnraud": 4678,
      "182": 4679,
      "Ġtsov": 4680,
      "ĠGl": 4681,
      "RIS": 4682,
      "Ġï¿½ï¿½ï¿½.": 4683,
      "kis": 4684,
      "362": 4685,
      "587": 4686,
      "507": 4687,
      "Û±Û": 4688,
      "Ġ1000": 4689,
      "\"},": 4690,
      "ĠGreen": 4691,
      "etwork": 4692,
      "Ġqiv": 4693,
      "Ġzais": 4694,
      "ky": 4695,
      "ĠCle": 4696,
      "Ø³Ø§": 4697,
      "ÙĦØ§ÛĮÙĩ": 4698,
      "olut": 4699,
      "ĠÙ¾Ø§Ø±ØªÛĮ": 4700,
      "ĠHL": 4701,
      "334": 4702,
      "ting": 4703,
      "391": 4704,
      "ĠSlots": 4705,
      "493": 4706,
      "020": 4707,
      "ĠRec": 4708,
      "Ġleg": 4709,
      ",\"": 4710,
      "916": 4711,
      "ÙħØ±ÛĮ": 4712,
      "ÛİØ±ÛĮ": 4713,
      "ĠØ´Øª": 4714,
      "Ø¨ÛĨ": 4715,
      "191": 4716,
      "ĠTso": 4717,
      "dbca": 4718,
      "LV": 4719,
      "Ø±Ø¨Ùĩ": 4720,
      "==": 4721,
      "RP": 4722,
      "Ã£": 4723,
      "ĠSelect": 4724,
      "013": 4725,
      "ogram": 4726,
      "ĠØ¦Ø§Ø¨": 4727,
      "ĠÐ¿": 4728,
      "LAY": 4729,
      "Ø±ÙĦÙĩ": 4730,
      "Ġ79": 4731,
      "Ġthib": 4732,
      "ĠØ¦Ø§Ø²Ø§Ø¯ÛĮ": 4733,
      "ks": 4734,
      "ĠÙħØ·": 4735,
      "304": 4736,
      "ĠKingdom": 4737,
      "Ġant": 4738,
      "Ġyour": 4739,
      "ÙħÛķ": 4740,
      "ĠVol": 4741,
      "....\"": 4742,
      "ÛİÙĨØ§ÙĨÛĮ": 4743,
      "ĠØ³Ø§Ø²": 4744,
      "Ġkhib": 4745,
      "910": 4746,
      "ograph": 4747,
      "ĠTI": 4748,
      "ĠSE": 4749,
      "file": 4750,
      "ÙĥØ§ÙĨÙī": 4751,
      "stall": 4752,
      "ets": 4753,
      "ĠØ´ÙĪ": 4754,
      "ĠFG": 4755,
      "Ġwebsite": 4756,
      "ĠKAUR": 4757,
      "Ġtsos": 4758,
      "ĠAir": 4759,
      "472": 4760,
      "ÅŁ": 4761,
      "ĠSÐĥ": 4762,
      "ĠPopular": 4763,
      "Ø²Ø§ÛĮ": 4764,
      "Ø§Ø¹Øª": 4765,
      "oof": 4766,
      "ĠArt": 4767,
      "Ġcustom": 4768,
      "YL": 4769,
      "TV": 4770,
      "hais": 4771,
      "ĠTSIS": 4772,
      "ĠØ¨Ø§Ø¨Ùĩ": 4773,
      "710": 4774,
      "ĠØ¬ÛĮØ§ÙĪ": 4775,
      "Ġback": 4776,
      "Ġcan": 4777,
      "Ġcais": 4778,
      "Ġqhua": 4779,
      "SÑĵS": 4780,
      "752": 4781,
      "sd": 4782,
      "ĠPan": 4783,
      "Ad": 4784,
      "Ġphim": 4785,
      "agon": 4786,
      "Feb": 4787,
      "Ġdev": 4788,
      "ĠTE": 4789,
      "ĠØ§Øµ": 4790,
      "ÛĮØª": 4791,
      "Ġnplua": 4792,
      "ĠRg": 4793,
      "Ġsm": 4794,
      "ĠMot": 4795,
      "606": 4796,
      "ilm": 4797,
      "[/": 4798,
      "ĠPB": 4799,
      "Ø§Ùĥ": 4800,
      "ĠYix": 4801,
      "Ġsaid": 4802,
      "356": 4803,
      "ĠÙħØ§ÙĪÙĩ": 4804,
      "ĠLCD": 4805,
      "ĠCua": 4806,
      "231": 4807,
      "ĠTel": 4808,
      "ĠâĢĶ": 4809,
      "029": 4810,
      "Ø´Ø§Ø±": 4811,
      "NI": 4812,
      "irect": 4813,
      "ĠBo": 4814,
      "ali": 4815,
      "Ġusers": 4816,
      "Maiv": 4817,
      "ĠÙ¾Ø±ÛĨ": 4818,
      "Ñĩ": 4819,
      "ĠÙĬ": 4820,
      "\"},{\"": 4821,
      "ÏĦ": 4822,
      "ĠZaub": 4823,
      "ĠQuot": 4824,
      "Ġcard": 4825,
      "Ġ111": 4826,
      "aro": 4827,
      "ĠØ§ÙģØ²Ø§Ø±": 4828,
      "Ġnees": 4829,
      "ĠCD": 4830,
      "484": 4831,
      "835": 4832,
      "321": 4833,
      "ĠØ§ÙĨØª": 4834,
      "ĠHol": 4835,
      "626": 4836,
      "Ġsurf": 4837,
      "ĠÙ¡Ù": 4838,
      "501": 4839,
      "PQ": 4840,
      "Ġsl": 4841,
      "ĠNeej": 4842,
      "ĠâĢ«âĢª": 4843,
      "RR": 4844,
      "ki": 4845,
      "ĠHe": 4846,
      "tes": 4847,
      "rs": 4848,
      "Ø³Ø§ÙĦ": 4849,
      "ĠÛĮÛķÚ©": 4850,
      "MM": 4851,
      "ĠDen": 4852,
      "ĠAU": 4853,
      "kuv": 4854,
      "Û²": 4855,
      "ĠØ«": 4856,
      "HS": 4857,
      "396": 4858,
      "igg": 4859,
      "Ġlab": 4860,
      "ĠList": 4861,
      "Ú©ÛĨ": 4862,
      "Ġpuv": 4863,
      "ĠNplog": 4864,
      "------------": 4865,
      "fc": 4866,
      "Ġko": 4867,
      "ØĮâĢ¬âĢ¬": 4868,
      "Ġhmoo": 4869,
      "ĠMax": 4870,
      "ĠMo": 4871,
      "601": 4872,
      "Ġtxawb": 4873,
      "Yuav": 4874,
      "ĠIntern": 4875,
      "inh": 4876,
      "Ġnraim": 4877,
      "ÙĩØ§ÛĮ": 4878,
      "ĠAugust": 4879,
      "Òĳ": 4880,
      "outh": 4881,
      "DA": 4882,
      "015": 4883,
      "Ġzov": 4884,
      "&#": 4885,
      "yog": 4886,
      "qub": 4887,
      "ĠOctober": 4888,
      "ler": 4889,
      "ĠÙ¾Ø§Ø±ÛİØ²": 4890,
      "025": 4891,
      "Ġov": 4892,
      "sab": 4893,
      "OWS": 4894,
      "ican": 4895,
      "RÂµR": 4896,
      "ÙĦÛķ": 4897,
      "003": 4898,
      "OU": 4899,
      "811": 4900,
      "ĠXas": 4901,
      "Ġncej": 4902,
      "ÙĦØ§ÙĨ": 4903,
      "694": 4904,
      "Ġpdf": 4905,
      "331": 4906,
      "ĠÙħØ¯ÛĮ": 4907,
      "ĠCanada": 4908,
      "Ġdabtsi": 4909,
      "ĠLa": 4910,
      "ĠUp": 4911,
      "024": 4912,
      "ĠØ§Ø¯": 4913,
      "Ð¾Ð»": 4914,
      "ĠPlaub": 4915,
      "ĠØ§ÙĪÙĨ": 4916,
      "\"....": 4917,
      "ĠTseem": 4918,
      "ÙħÛĮØ´": 4919,
      "922": 4920,
      "776": 4921,
      "ĠØ§Ø¬": 4922,
      "Ġ400": 4923,
      "ights": 4924,
      "ĠØ®Ø§ÙĨÙĩ": 4925,
      "âĢĺ": 4926,
      "ĠØªØµ": 4927,
      "men": 4928,
      "Ġag": 4929,
      "Ø¬Ûİ": 4930,
      "ĠÚ¯ÙĦ": 4931,
      "Ġtxav": 4932,
      "740": 4933,
      "ĠÙħØ§Ùħ": 4934,
      "ĠÙ¾ÛİÛĮ": 4935,
      "ĠHluav": 4936,
      "ĠCor": 4937,
      "Ġï¿½ï¿½ï¿½ï¿½ï¿½:": 4938,
      "ÙĥÛĨ": 4939,
      "ĠMarch": 4940,
      "Ġvi": 4941,
      "ĠNyeem": 4942,
      "áĥ": 4943,
      "ĠNP": 4944,
      "ĠChristmas": 4945,
      "py": 4946,
      "ashington": 4947,
      "ĠØ±ÙĪØ²": 4948,
      "ĠØŃØ¬": 4949,
      "ĠØ³ÙĪ": 4950,
      "342": 4951,
      "itor": 4952,
      "tor": 4953,
      "lin": 4954,
      "540": 4955,
      "Ġkm": 4956,
      "ĠTSH": 4957,
      "ĠNtshiab": 4958,
      "ĠÙĥØ§Øª": 4959,
      "531": 4960,
      "ĠØ¯Ø§ÛĮ": 4961,
      "ĠTham": 4962,
      "ĠRov": 4963,
      "als": 4964,
      "ĠTswj": 4965,
      "Ġtxhaj": 4966,
      "Ġmem": 4967,
      "ĠBlue": 4968,
      "oodie": 4969,
      "654": 4970,
      "Ġxaus": 4971,
      "ĠØ¯ÛĮÙħÙĪ": 4972,
      "ĠZhong": 4973,
      "ĠâĢĭâĢĭ": 4974,
      "ĠÐ·": 4975,
      "Ġï¿½ï¿½ï¿½ï¿½ï¿½ï¿½ï¿½ï¿½ï¿½,": 4976,
      "ÐºÐ°": 4977,
      "Ġtxhiab": 4978,
      "Ð¹": 4979,
      "ĠÙħØ³Øª": 4980,
      "Ġà¸": 4981,
      "ĠSubject": 4982,
      "list": 4983,
      "ĠCatho": 4984,
      "ĠMab": 4985,
      "ĠÙĪØ¨": 4986,
      "Ø¨ÛİØªÙĩ": 4987,
      "ĠÙ¾Ø±": 4988,
      "yi": 4989,
      "Ġca": 4990,
      "Ú©ØªØ±": 4991,
      "ĠØ±ÙĪÙĪ": 4992,
      "mob": 4993,
      "912": 4994,
      "Ġmoo": 4995,
      "Ġï¿½ï¿½ï¿½ï¿½ï¿½ï¿½ï¿½ï¿½.": 4996,
      "ĠØ¢Ø°": 4997,
      "ĠQab": 4998,
      "sc": 4999,
      "ĠSING": 5000,
      "uild": 5001,
      "ĠBrad": 5002,
      "Ġ600": 5003,
      "ĠJuly": 5004,
      "Ã³": 5005,
      "ĠØ³Ûķ": 5006,
      "ÛĮØ§ÙĨÙĩ": 5007,
      "ĠØªÙĪØ§ÙĨ": 5008,
      "ĠPA": 5009,
      "ily": 5010,
      "ÙĥÙī": 5011,
      "Ġdl": 5012,
      "Ã§": 5013,
      "Ġsquare": 5014,
      "ĠRG": 5015,
      "clonal": 5016,
      "Ġntshiab": 5017,
      "ĠInc": 5018,
      "Ġntiajteb": 5019,
      "ĠØ´ÙĨ": 5020,
      "ÙĪØ§ÛĮ": 5021,
      "ĠØ±ÙĪÛĮ": 5022,
      "istr": 5023,
      "ola": 5024,
      "ĠØ§Ø®": 5025,
      "6898": 5026,
      "hob": 5027,
      "rote": 5028,
      "ĠHuawei": 5029,
      "719": 5030,
      "ĠAS": 5031,
      "223": 5032,
      "686": 5033,
      "Ġâĸ": 5034,
      "eneral": 5035,
      "386": 5036,
      "ĠØ´ÙħØ§Ø±Ùĩ": 5037,
      "Ġneeb": 5038,
      "ives": 5039,
      "kee": 5040,
      "Ġnpog": 5041,
      "xy": 5042,
      "ĠUas": 5043,
      "tember": 5044,
      "umin": 5045,
      "ĠIS": 5046,
      "ĠAnt": 5047,
      "fg": 5048,
      "ND": 5049,
      "Ġtoom": 5050,
      "ĠTxheej": 5051,
      "OWSV": 5052,
      "ĠÙģØ§Ø±Ø³ÛĮ": 5053,
      "ÐµÑĢ": 5054,
      "ĠPolyclonal": 5055,
      "Ġlau": 5056,
      "251": 5057,
      "Ġ89": 5058,
      "MS": 5059,
      "Ġitem": 5060,
      "ÚµØ¨ÚĺØ§Ø±Ø¯": 5061,
      "Ġhai": 5062,
      "OX": 5063,
      "Ġkevcai": 5064,
      "1080": 5065,
      "ĠPL": 5066,
      "ĠHMOWSV": 5067,
      "Ø±ÙħØ§ÙĨ": 5068,
      "ĠRoj": 5069,
      "ĠNrhiav": 5070,
      "ĠNtaub": 5071,
      "ano": 5072,
      "ĠJanuary": 5073,
      "ĠÐ½": 5074,
      "roup": 5075,
      "ĠNtiaj": 5076,
      "014": 5077,
      "mus": 5078,
      "Ġ136": 5079,
      "play": 5080,
      "Ú©ÙĦ": 5081,
      ";&#": 5082,
      "Ġntiag": 5083,
      "shaw": 5084,
      "Ġntsws": 5085,
      "ibr": 5086,
      "EEM": 5087,
      "ĠTUS": 5088,
      "atform": 5089,
      "Ø´ÙĤ": 5090,
      "pw": 5091,
      "ĠØ¹ÙĦÛĮ": 5092,
      "han": 5093,
      "Go": 5094,
      "ĠØªÙĪØ³": 5095,
      "Ø¨ÙĪ": 5096,
      "ĠLawm": 5097,
      "ĠØ¨Úķ": 5098,
      "603": 5099,
      "Ù¾Ø±Ø³": 5100,
      "ĠSub": 5101,
      "ĠAD": 5102,
      "Ġaccount": 5103,
      "ÎĻ": 5104,
      "\\\"": 5105,
      "Ġxaib": 5106,
      "ĠPics": 5107,
      "ĠGS": 5108,
      "ĠXim": 5109,
      "ÙĨÛĮÙĨ": 5110,
      "ĠRY": 5111,
      "ĠÚ¤": 5112,
      "]-": 5113,
      "ci": 5114,
      "ears": 5115,
      "ÙĢÙĨ": 5116,
      "uan": 5117,
      "ÙĥØ±Ø¯ÙĨ": 5118,
      "404": 5119,
      "ÛĮØ¯Ø§": 5120,
      "XL": 5121,
      "Ã¶": 5122,
      "ĠThem": 5123,
      "BF": 5124,
      "ĠØªÛĮØ±": 5125,
      "2222": 5126,
      "Ð¾Ðº": 5127,
      "ĠOf": 5128,
      "ĠâĹ": 5129,
      "ĠØ³ÛĮØ§Ø³": 5130,
      "Ø±ÛİÙħÛĮ": 5131,
      "Ġvajntxwv": 5132,
      "ĠÙ¾Ø±ÙĪ": 5133,
      "endant": 5134,
      "Ġyawm": 5135,
      "Al": 5136,
      "ĠØªÙħ": 5137,
      "Ġ2006": 5138,
      "ĠYeej": 5139,
      "ĠWindows": 5140,
      "SÐĭ": 5141,
      "ĠSquare": 5142,
      "Ġdai": 5143,
      "ĠPom": 5144,
      "Ġntshaw": 5145,
      "___Â»": 5146,
      "ĠÙĤØ³Ùĩ": 5147,
      "EY": 5148,
      "ĠFar": 5149,
      "ĠNI": 5150,
      "ords": 5151,
      "890": 5152,
      "Ġu": 5153,
      "ĠÙĤÙĪØ±": 5154,
      "ÙĨØ§ÙĨÙĩ": 5155,
      "ĠÙĦÛĮÙĨÚ©": 5156,
      "ĠPEB": 5157,
      "ico": 5158,
      "236": 5159,
      "GT": 5160,
      "Ġamateur": 5161,
      "Tswv": 5162,
      "ĠTrans": 5163,
      "yaj": 5164,
      "ÛķÚ©Ûķ": 5165,
      "board": 5166,
      "ĠSINGH": 5167,
      "Ġliaj": 5168,
      "aq": 5169,
      "ied": 5170,
      "HM": 5171,
      "ures": 5172,
      "Ð¨ÐĦÐ©": 5173,
      "ĠØµÙģ": 5174,
      "hia": 5175,
      "ism": 5176,
      "403": 5177,
      "ĠÚ¯ÛĮ": 5178,
      "737": 5179,
      "ĠÙĤØ§ÙĦ": 5180,
      "oma": 5181,
      "ĠØ¯Ø§ÙĨÛĮ": 5182,
      "281": 5183,
      "ĠÙ¾Úķ": 5184,
      "ĠÙħØ§Ùĩ": 5185,
      "261": 5186,
      "Ġntes": 5187,
      "ĠSi": 5188,
      "Ġwrote": 5189,
      "ĠBi": 5190,
      "Ġtsob": 5191,
      "ĠÙĥØ±Ø¯ÙĪÙĪÙĩ": 5192,
      "Ġnroj": 5193,
      "iting": 5194,
      "FL": 5195,
      "Ġ.âĢ¬": 5196,
      "AP": 5197,
      "Ð¾Ð²": 5198,
      "ruary": 5199,
      "820": 5200,
      "ÚµÚ¯Ùĩ": 5201,
      "Ġvis": 5202,
      "ange": 5203,
      "456": 5204,
      "ĠÚĨÙĪØ§Ø±": 5205,
      "_*": 5206,
      "Ġ;": 5207,
      "uni": 5208,
      "Ġdig": 5209,
      "Ġ51": 5210,
      "ĠØ¨ÙĪØ¯": 5211,
      "ĠÚĨØ§Ø±Ùĩ": 5212,
      "ĠØ§Ø·": 5213,
      "idd": 5214,
      "Ù¾Ø§ÙĨÛĮ": 5215,
      "Muaj": 5216,
      "ĠJune": 5217,
      "ÙģØªÙĩ": 5218,
      "ĠÐ·Ð°": 5219,
      "ally": 5220,
      "LAYER": 5221,
      "ĠFuck": 5222,
      "Ġywj": 5223,
      "ĠKOJ": 5224,
      "Ġ671": 5225,
      "ĠØ¢ÛĮ": 5226,
      "Ñħ": 5227,
      "achin": 5228,
      "Ġtits": 5229,
      "Ø§ÙĨÛķ": 5230,
      "530": 5231,
      "za": 5232,
      "ship": 5233,
      "ĠÚĺÙħØ§Ø±Ùĩ": 5234,
      "Ġcaug": 5235,
      "Ø±Ø§ÙģÛĮ": 5236,
      "ÛķØ³": 5237,
      "uthor": 5238,
      "Ġseem": 5239,
      "ĠTuber": 5240,
      "569": 5241,
      "ĠXya": 5242,
      "Ø§ÙĨØ¯Ø§": 5243,
      "486": 5244,
      "ĠSuab": 5245,
      "ĠØªØ±ÛĮ": 5246,
      "Ġxiongchang": 5247,
      "erson": 5248,
      "568": 5249,
      "chim": 5250,
      "Ø¹Øª": 5251,
      "roll": 5252,
      "era": 5253,
      "face": 5254,
      "ĠYau": 5255,
      "TI": 5256,
      "Ġ#:": 5257,
      "ĠNEEG": 5258,
      "urg": 5259,
      "ĠÐĴ": 5260,
      "ĀĀ": 5261,
      "518": 5262,
      "2009": 5263,
      "ĠâĨĴ": 5264,
      "ĠSeptember": 5265,
      "ĠâĢº": 5266,
      "Ġtiamsis": 5267,
      "Ġ52": 5268,
      "Ïĥ": 5269,
      "Ġhlo": 5270,
      "---|": 5271,
      "703": 5272,
      "085": 5273,
      "DI": 5274,
      "ĠÙĥÛĨÙħ": 5275,
      "ĠÚĨÛĨÙĨ": 5276,
      "ĠØ¨ÛĨÛĮÙĩ": 5277,
      "nect": 5278,
      "oye": 5279,
      "302": 5280,
      "019": 5281,
      "ĠUniversity": 5282,
      "577": 5283,
      "Ġï¿½ï¿½ï¿½ï¿½.": 5284,
      ")-": 5285,
      "294": 5286,
      "Ġcam": 5287,
      "557": 5288,
      "Ġtxojkev": 5289,
      "ÙĥØ±Ø¯ÙĨÙĩ": 5290,
      "PH": 5291,
      "ĠProduc": 5292,
      "646": 5293,
      "Ġsq": 5294,
      "ĠÙĨØ§Ø³": 5295,
      "omo": 5296,
      "Ø®Ø³Øª": 5297,
      "Ø³ÛĮÙĨ": 5298,
      "Ġnh": 5299,
      "ump": 5300,
      "ĠAmateur": 5301,
      "ĠGold": 5302,
      "ĠYOG": 5303,
      "252": 5304,
      "AWS": 5305,
      "ife": 5306,
      "ĠFashion": 5307,
      "Ġkiab": 5308,
      "221": 5309,
      "ĠUl": 5310,
      "bum": 5311,
      "ÙĪÛİØª": 5312,
      "ĠTiv": 5313,
      "loud": 5314,
      "Ġtuab": 5315,
      "ĠTÃ¬m": 5316,
      "ĠQAE": 5317,
      "027": 5318,
      "hib": 5319,
      "Ġntsug": 5320,
      "ĠÙ¾Ø±Ø³ÛĮ": 5321,
      "ja": 5322,
      "224": 5323,
      "401": 5324,
      "ĠØ´Ø¯": 5325,
      "ryst": 5326,
      "hab": 5327,
      "792": 5328,
      "QB": 5329,
      "ĠZeb": 5330,
      "ĠHo": 5331,
      "Qhov": 5332,
      "ĠSá»ĳ": 5333,
      "Ġntses": 5334,
      "Video": 5335,
      "hm": 5336,
      "ĠÚ©Ø±Ø¯ÙĨ": 5337,
      "Ø³Ú©": 5338,
      "urn": 5339,
      "Ø±Ø§Ø³ÛĮ": 5340,
      "ĠÙ¢": 5341,
      "ĠØ±Ø§Ùĩ": 5342,
      "Ġnag": 5343,
      "Ġtxib": 5344,
      "ÚµÛİ": 5345,
      "Ġteem": 5346,
      "uman": 5347,
      "Â¤": 5348,
      "Ø±ÛİÙħ": 5349,
      "Ġval": 5350,
      "Ġnkawv": 5351,
      "fo": 5352,
      "510": 5353,
      "Ġ96": 5354,
      "ĠFebruary": 5355,
      "ÙĪØ§Ùħ": 5356,
      "ĠÙħØ§Ø±": 5357,
      "ĠNovember": 5358,
      "Ġï": 5359,
      "ids": 5360,
      "TF": 5361,
      "Ġ58": 5362,
      "tus": 5363,
      "079": 5364,
      "718": 5365,
      "NM": 5366,
      "Ġnplaum": 5367,
      "xA": 5368,
      "481": 5369,
      "Ġplayers": 5370,
      "ko": 5371,
      "ĠLC": 5372,
      "ĠIntel": 5373,
      "Ġkas": 5374,
      "erb": 5375,
      "254": 5376,
      "341": 5377,
      "ĠØ´Ø±Ú©Øª": 5378,
      "Ġntws": 5379,
      "4991": 5380,
      "ĠLuag": 5381,
      "OW": 5382,
      "ĠÙħÙĦÛĮ": 5383,
      "652": 5384,
      "ĠQH": 5385,
      "Ġ72": 5386,
      "ĠÙĤØ³": 5387,
      "ĠØ³Ø§Ø¹Øª": 5388,
      "acks": 5389,
      "ĠØ¨ÙĦ": 5390,
      "à¥": 5391,
      "ĠSch": 5392,
      "omb": 5393,
      "Ġnkab": 5394,
      "Ġoff": 5395,
      "ĠZog": 5396,
      "ÙģØ§": 5397,
      "ÛĮÛķ": 5398,
      "Ġfais": 5399,
      "æľ": 5400,
      "ĠØªØ§ÙĪ": 5401,
      "ĠCuab": 5402,
      "ayee": 5403,
      "core": 5404,
      "homes": 5405,
      "Ġnot": 5406,
      "po": 5407,
      "ides": 5408,
      "tit": 5409,
      "lowj": 5410,
      "ield": 5411,
      "Ø§Ø®Øª": 5412,
      "fir": 5413,
      "ebeb": 5414,
      "Ø¬Ø§Ø±": 5415,
      "lowjob": 5416,
      "ĠOpt": 5417,
      "172": 5418,
      "173": 5419,
      "enter": 5420,
      "ĠTsuas": 5421,
      "xbc": 5422,
      "ket": 5423,
      "cn": 5424,
      "656": 5425,
      "512": 5426,
      "ÙĪØªØ±": 5427,
      "à»": 5428,
      "ĠØ¦Ø§Ø±": 5429,
      "ites": 5430,
      "fess": 5431,
      "ï¿½ï¿½ï¿½ï¿½ï¿½ï¿½ï¿½ï¿½ï¿½": 5432,
      "huas": 5433,
      "ĠBC": 5434,
      "Ġfaj": 5435,
      "now": 5436,
      "xbcebeb": 5437,
      "Ġhard": 5438,
      "iq": 5439,
      "599": 5440,
      "684": 5441,
      "Ġ54": 5442,
      "inc": 5443,
      "ĠØ¢Ø®": 5444,
      "372": 5445,
      "Ġ57": 5446,
      "cp": 5447,
      "Ġ135": 5448,
      "ĠTuaj": 5449,
      "ĠSing": 5450,
      "ĠÎ±": 5451,
      "naf": 5452,
      "meem": 5453,
      "uch": 5454,
      "AND": 5455,
      "Ø¨Ø§Ø³": 5456,
      "oject": 5457,
      "4444": 5458,
      "EI": 5459,
      "Ġtrans": 5460,
      "059": 5461,
      "276": 5462,
      "ĠRoad": 5463,
      "ĠÛĮØ§Ø±": 5464,
      "Ø¯Ø§Øª": 5465,
      "887": 5466,
      "Ġë": 5467,
      "ĠBat": 5468,
      "\\/": 5469,
      "LG": 5470,
      "ĠPrint": 5471,
      "ĠXa": 5472,
      "ĠThomas": 5473,
      "ya": 5474,
      "ØªØ§ÛĮÛĮ": 5475,
      "Ú©ÙĪÙĪ": 5476,
      "ĠÙĪØªÛĮ": 5477,
      "RÑķRÑĺ": 5478,
      "Ġip": 5479,
      "cov": 5480,
      "Ġnoog": 5481,
      "Ġpendant": 5482,
      "ĠBox": 5483,
      "ories": 5484,
      "ĠNtoo": 5485,
      "ATA": 5486,
      "ä¸": 5487,
      "Ġsurfers": 5488,
      "006": 5489,
      "938": 5490,
      "ĠNkaujn": 5491,
      "koj": 5492,
      "ĠCuam": 5493,
      "ĠÙĨØ§Ø¨": 5494,
      "*,": 5495,
      "534": 5496,
      "Ø³ÙĨ": 5497,
      "ĠCap": 5498,
      "IAJ": 5499,
      "ple": 5500,
      "SS": 5501,
      "860": 5502,
      "KP": 5503,
      ":::": 5504,
      "Ġ92": 5505,
      "ĠTshawb": 5506,
      "Ø±Ø§ÙĪÛĮ": 5507,
      "ĠØ¨ÙĨÙĩ": 5508,
      "Ġtattoos": 5509,
      "QG": 5510,
      "Ø´ØªÙĩ": 5511,
      "ĠØ´Ø§Ø±ÛĮ": 5512,
      "ĠAE": 5513,
      "151": 5514,
      "Ġnwg": 5515,
      "Ġrai": 5516,
      "Ġlead": 5517,
      "-%": 5518,
      "ĠKoob": 5519,
      "ÙĪØ®": 5520,
      "Ø²Ø§": 5521,
      "ĠApril": 5522,
      "Ġ128": 5523,
      "035": 5524,
      "Ġrev": 5525,
      "Ġfr": 5526,
      "Ø¨ÛķØ±": 5527,
      "ĠNqe": 5528,
      "flac": 5529,
      "UL": 5530,
      "Ø¯ÛĮØ±": 5531,
      "ĠÙĨØ§ÙħÙĩ": 5532,
      "RÑķRi": 5533,
      "Ġ240": 5534,
      "183": 5535,
      "ĠKis": 5536,
      "ĠÚ©ÙĨÛĮ": 5537,
      "mon": 5538,
      "Ø¨Ø§Øª": 5539,
      "Ġfaceb": 5540,
      "Ú¯ÛĮØ±ÛĮ": 5541,
      "itanium": 5542,
      "ĠMUAJ": 5543,
      "Ġthaub": 5544,
      "Ø¨ÙĪÙĪÙĩ": 5545,
      "ĠØ´ÛĨÚķ": 5546,
      "772": 5547,
      "iph": 5548,
      "332": 5549,
      "itter": 5550,
      "ĠTechnology": 5551,
      "ï¿½ï¿½ï¿½ï¿½ï¿½ï¿½ï¿½ï¿½ï¿½ï¿½": 5552,
      "ĠKos": 5553,
      "525": 5554,
      "Ġgl": 5555,
      "hnubqub": 5556,
      "FC": 5557,
      "ĠÚ©Ø±": 5558,
      "naflix": 5559,
      "ĠÙĪÛķ": 5560,
      "ĠTnaflix": 5561,
      "Ġmic": 5562,
      "ÛİÙĨÙĨ": 5563,
      "ĠÙĨÙħØ§ÛĮØ´": 5564,
      "ĠØ³Ø§Ùħ": 5565,
      "Ġ2005": 5566,
      "ĠØ¦Ø§ÙħØ§Ø¯Ùĩ": 5567,
      "ĠLAC": 5568,
      "omen": 5569,
      "504": 5570,
      "194": 5571,
      "æĹ": 5572,
      "802": 5573,
      "Ġscreen": 5574,
      "BA": 5575,
      "thiab": 5576,
      "Bl": 5577,
      "Ġporn": 5578,
      "Ġ145": 5579,
      "ĠHP": 5580,
      "di": 5581,
      "ĠXob": 5582,
      "iamond": 5583,
      "cover": 5584,
      "cho": 5585,
      "692": 5586,
      "ÙĢØ§": 5587,
      "Ġtsuaj": 5588,
      "(=": 5589,
      "Ø³Ø±": 5590,
      "ĠYixayee": 5591,
      "539": 5592,
      "346": 5593,
      "ĠÚ©Ø¯": 5594,
      "ests": 5595,
      "Ġxyaw": 5596,
      "Ġmon": 5597,
      "Ãª": 5598,
      "696": 5599,
      "Ġnkaum": 5600,
      "850": 5601,
      "Ú¯Ø§Ø±": 5602,
      "hou": 5603,
      "Ø¯Ø§ÛĮ": 5604,
      "Ġï¿½ï¿½ï¿½ï¿½ï¿½ï¿½ï¿½ï¿½ï¿½ï¿½,": 5605,
      "ÙĨØ¯Ø§Ùħ": 5606,
      "ĠPiv": 5607,
      "ĠÙĩÛİØ²Ùĩ": 5608,
      "Ġlib": 5609,
      "ĠCard": 5610,
      "eter": 5611,
      "ĠApp": 5612,
      "Ġâľ": 5613,
      "ĠQua": 5614,
      "Ġdeposit": 5615,
      "Ġpart": 5616,
      "ĠMed": 5617,
      "443": 5618,
      "ĠØ´ÙħØ§": 5619,
      "ÛİÙĨÛİØª": 5620,
      "017": 5621,
      "918": 5622,
      "ĠÙħÙĤØ§ÙĦÙĩ": 5623,
      "ĠPhau": 5624,
      "381": 5625,
      "ĠFacebook": 5626,
      "ĠÙħØŃÙħØ¯": 5627,
      "DM": 5628,
      "ĠÚķÛĨ": 5629,
      "frame": 5630,
      "ĠØ²Ø§ÙĨÛĮ": 5631,
      "zhen": 5632,
      "483": 5633,
      "ĠBL": 5634,
      "831": 5635,
      "EP": 5636,
      "Vim": 5637,
      "ĠXeeb": 5638,
      "784": 5639,
      "ĠProcess": 5640,
      "âĢı": 5641,
      "204": 5642,
      "itch": 5643,
      "ĠØ³ÛĮØ³ØªÙħ": 5644,
      "Ø¬Ø§ÙĨ": 5645,
      "494": 5646,
      "ModeratorPosts": 5647,
      "ĠToj": 5648,
      "Ġtshoob": 5649,
      "ĠLat": 5650,
      "664": 5651,
      "ChI": 5652,
      "ography": 5653,
      "ĠMim": 5654,
      "oint": 5655,
      "ĠInChI": 5656,
      "Ġtopic": 5657,
      "Ġiab": 5658,
      "ĠNtses": 5659,
      "ĠSH": 5660,
      "ĠAtl": 5661,
      "ĠDeposit": 5662,
      "ĠRÑĺ": 5663,
      "ÎĳÎ": 5664,
      "ĠØ¨Ú¯": 5665,
      "ĠSan": 5666,
      "Ġfeeb": 5667,
      "6715": 5668,
      "keeper": 5669,
      "ĠDe": 5670,
      "ĠHuam": 5671,
      "ĠØ¹ÛĮ": 5672,
      "ĠSpec": 5673,
      "ÑĥÑĤ": 5674,
      "1114": 5675,
      "ĠÙħÛĨ": 5676,
      "352": 5677,
      "232": 5678,
      "etun": 5679,
      "ĠNpe": 5680,
      "870": 5681,
      "custom": 5682,
      "Pro": 5683,
      "mar": 5684,
      "Ġpar": 5685,
      "Ġmom": 5686,
      "ĠÐ©Ðĥ": 5687,
      "791": 5688,
      "ĠÙ¾Ø´Øª": 5689,
      "ĠBG": 5690,
      "ely": 5691,
      "JD": 5692,
      "ÙĥØ±": 5693,
      "ĠBook": 5694,
      "reenkeeper": 5695,
      "ĠMc": 5696,
      "184": 5697,
      "ÙĢÙĢØª": 5698,
      "Ġqhuab": 5699,
      "ĠYo": 5700,
      "ĠÙħÙĪØ²ÛĮÚ©": 5701,
      "mail": 5702,
      "xeem": 5703,
      "ĠÙĨØ§ÙĪÛĮ": 5704,
      "Ù¡Ù": 5705,
      "ĠQuoted": 5706,
      "ĠKUV": 5707,
      "Ġmore": 5708,
      "ĠNTUJ": 5709,
      "Ġhiav": 5710,
      "ĠØ³ÙĦÛİ": 5711,
      "ĠPVC": 5712,
      "ends": 5713,
      "ĠØ¬ÛĨØ±": 5714,
      "402": 5715,
      "rau": 5716,
      "eek": 5717,
      "915": 5718,
      "Ġnpav": 5719,
      "ĠCam": 5720,
      "ians": 5721,
      "762": 5722,
      "ĠIr": 5723,
      "ĠÚĺÛĮØ§ÙĨ": 5724,
      "ĠAndroid": 5725,
      "ĠØŃØ²": 5726,
      "421": 5727,
      "ÙĥÙĪÙħÙĩ": 5728,
      "384": 5729,
      "ĠÙĩÛİØ±": 5730,
      "-(": 5731,
      "rystal": 5732,
      "Ġ91": 5733,
      "ĠRÐħR": 5734,
      "810": 5735,
      "ĠMal": 5736,
      "ĠØ¯ÙĦ": 5737,
      "Ð¨ÐĩÐ¨": 5738,
      "ĠQauv": 5739,
      "idge": 5740,
      "ĠÛĮØ§Ø±ÛĮ": 5741,
      "Ġthuam": 5742,
      "ĠHMONG": 5743,
      "725": 5744,
      "Tug": 5745,
      "ÙĪØ²Ø´": 5746,
      "ĠÙħÙĨØ¯Ø§Úµ": 5747,
      "dop": 5748,
      "ĠChihua": 5749,
      "ÙĪÙĪØª": 5750,
      "ĠInternet": 5751,
      "à¸Ļ": 5752,
      "Ûµ": 5753,
      "xc": 5754,
      "ĠGo": 5755,
      "SF": 5756,
      "ĠRet": 5757,
      "ĠAut": 5758,
      "Ø±Ø¯ÙĨ": 5759,
      "Ġ86": 5760,
      "ÙħÙĦ": 5761,
      "oyeur": 5762,
      "wh": 5763,
      "894": 5764,
      "473": 5765,
      "ios": 5766,
      "ÚķÛİÙĪÙĩ": 5767,
      "ÛĮØ´Ùĩ": 5768,
      "028": 5769,
      "iMi": 5770,
      "ĠÚ¯ÛĨ": 5771,
      "Ġtauj": 5772,
      "ĠØ¯ÛķØ±": 5773,
      "ĠKH": 5774,
      "451": 5775,
      "ĠØ¨ÙĥØ§Øª": 5776,
      "Ġng": 5777,
      "343": 5778,
      "7777": 5779,
      "476": 5780,
      "ĠØ¶": 5781,
      "ÙĪÙħÙĩ": 5782,
      "hot": 5783,
      "UE": 5784,
      "ole": 5785,
      "Ġthwj": 5786,
      "ĠMiM": 5787,
      "Ġvev": 5788,
      "Book": 5789,
      "ĠÐļ": 5790,
      "ĠHAUV": 5791,
      "Ġqaug": 5792,
      "8763": 5793,
      "ĠMiMiMi": 5794,
      "901": 5795,
      "794": 5796,
      "537": 5797,
      "902": 5798,
      "ĠÙħÛķ": 5799,
      "MC": 5800,
      "ĠSaum": 5801,
      "ĠBro": 5802,
      "882": 5803,
      "Ïģ": 5804,
      "eta": 5805,
      "Ġãĥ": 5806,
      "580": 5807,
      "ĠÙħØ§Ùģ": 5808,
      "--------------------": 5809,
      "ĠØ´Ø¨Ú©Ùĩ": 5810,
      "506": 5811,
      "siab": 5812,
      "Ġtsoo": 5813,
      "ÛĨÚ©": 5814,
      "ĠMoo": 5815,
      "web": 5816,
      "egas": 5817,
      "ĠØ§ØŃ": 5818,
      "ĠØªÙĪØ±ÙĥÛĮ": 5819,
      "713": 5820,
      "Ġtav": 5821,
      "cont": 5822,
      "ĠÙĩØ±": 5823,
      "ĠBradshaw": 5824,
      "ĠModel": 5825,
      "913": 5826,
      "ui": 5827,
      "ĠTsi": 5828,
      "Ġcaum": 5829,
      "ÙģÛĮØª": 5830,
      "ĠØ¯Ø±ÛĮ": 5831,
      "ĠDubai": 5832,
      "303": 5833,
      "ĠDecember": 5834,
      "aab": 5835,
      "ĠØ¨Ø§Ø¨": 5836,
      "Ġbo": 5837,
      "ĠTor": 5838,
      "ĠØ§Ø¨": 5839,
      "urb": 5840,
      "eature": 5841,
      "lugkub": 5842,
      "NG": 5843,
      "Ġdeg": 5844,
      "Ġ:::::": 5845,
      "RyeR": 5846,
      "urd": 5847,
      "ĠLast": 5848,
      "Ġemail": 5849,
      "ÑĨ": 5850,
      "Ø§Ùī": 5851,
      "ĠSP": 5852,
      "ĠRail": 5853,
      "ss": 5854,
      "Ġnpaug": 5855,
      "ÚĨØ³Ø¨": 5856,
      "Ar": 5857,
      "ĠØ§Ø±Øª": 5858,
      "ootball": 5859,
      "ĠØ¢Ø¨": 5860,
      "ĠØ¯Úĺ": 5861,
      "Ġsk": 5862,
      "ĠÚ©ØªØ§Ø¨": 5863,
      "Ġmel": 5864,
      "sub": 5865,
      "tz": 5866,
      "ĠTsab": 5867,
      "Nkauj": 5868,
      "ÚµØ§ØªÙĩ": 5869,
      "Ġpleev": 5870,
      "ØªÛĮÛĮÙĩ": 5871,
      "Îº": 5872,
      "box": 5873,
      "ments": 5874,
      "406": 5875,
      "ĠOS": 5876,
      "Ġnqes": 5877,
      "ĠÙĥØ§Ø±ÛĮ": 5878,
      "ĠÂ°": 5879,
      "WG": 5880,
      "ini": 5881,
      "482": 5882,
      "282": 5883,
      "IF": 5884,
      "Ð¶": 5885,
      "ĠÚ¯Ûķ": 5886,
      "erv": 5887,
      "ithub": 5888,
      "Ġtxha": 5889,
      "2008": 5890,
      "ĠØ¯ÚĺÛĮ": 5891,
      "ĠTSWV": 5892,
      "ÑĪ": 5893,
      "Ġ180": 5894,
      "143": 5895,
      "286": 5896,
      "tage": 5897,
      "ĠNorth": 5898,
      "Nr": 5899,
      "ĠÙħØ§ÙģÛĮ": 5900,
      "ĠVajlugkub": 5901,
      "ĠÙĤØ§Ø¨": 5902,
      "ĠAngel": 5903,
      "Ø´Ø¯Ø§Ø±ÛĮ": 5904,
      "etunez": 5905,
      "dopetunez": 5906,
      "Ġ&#": 5907,
      "Me": 5908,
      "np": 5909,
      "Ġrab": 5910,
      "Ø¨Ø§ÙĨÛĮ": 5911,
      "ĠRob": 5912,
      "Ø´Ø§ÙĨ": 5913,
      "AH": 5914,
      "Ġview": 5915,
      "Ø§ÙĪÛķ": 5916,
      "dro": 5917,
      "tij": 5918,
      "ĠÙĨÙĪØ´": 5919,
      "lique": 5920,
      "ÙĪÙĦÙĪ": 5921,
      "xwm": 5922,
      "ute": 5923,
      "766": 5924,
      "ulette": 5925,
      "502": 5926,
      "682": 5927,
      "Ġtime": 5928,
      "ĠAuthor": 5929,
      "Ð¨Âµ": 5930,
      "Ø®Ø§ÙĨ": 5931,
      "âĢªØĮâĢ¬âĢ¬": 5932,
      "ĠØ¨ÙĪÙĪÙĨÛĮ": 5933,
      "291": 5934,
      "Ġtechnology": 5935,
      "ĠØ¦Ø§ÙħØ§": 5936,
      "medium": 5937,
      "ION": 5938,
      "ywg": 5939,
      "ĠDrive": 5940,
      "ĠTEB": 5941,
      "ĠiPod": 5942,
      "ĠChihuahuas": 5943,
      "ĠThinkPad": 5944,
      "ĠÚ©Ùħ": 5945,
      "ĠXL": 5946,
      "ĠÙħØ§Úµ": 5947,
      "714": 5948,
      "ĠØ®ÛĨØ´": 5949,
      "441": 5950,
      "354": 5951,
      "WW": 5952,
      "ĠØµÙĨ": 5953,
      "ĠÚ©Ø§ÙĨ": 5954,
      "591": 5955,
      "erman": 5956,
      "Ġteebmeem": 5957,
      "ĠChaws": 5958,
      "ita": 5959,
      "Ġ2003": 5960,
      "Ġtxhiaj": 5961,
      "ÙĨØ§Ùħ": 5962,
      "ĠOff": 5963,
      "ization": 5964,
      "ÙĨÛİ": 5965,
      "',": 5966,
      "ÑĤÐ°Ð²": 5967,
      "ĠSuper": 5968,
      "outube": 5969,
      "Ġkhob": 5970,
      "ĠØŃÙĥÙĪÙħÙĩ": 5971,
      "NY": 5972,
      "ÙĪÛĮØ¯": 5973,
      "Ø´Ú©": 5974,
      "ĠDDR": 5975,
      "271": 5976,
      "uel": 5977,
      "ĠEUR": 5978,
      "273": 5979,
      "Ġntxias": 5980,
      "ĠRZ": 5981,
      "ĠKwm": 5982,
      "Ø±Ø¯ÙĨÛĮ": 5983,
      "ÑĤÐ¾": 5984,
      "ĠInternational": 5985,
      "ĠØ³ÛĮÙĨ": 5986,
      "Ø±Ø§Ø±": 5987,
      "istered": 5988,
      "hai": 5989,
      "ĠSol": 5990,
      "vey": 5991,
      "452": 5992,
      "9738": 5993,
      "Ø¨ÛĮØ±": 5994,
      "ĠNtaus": 5995,
      "ÛĮØ´Øª": 5996,
      "Ġout": 5997,
      "Ġtov": 5998,
      "order": 5999,
      "ĠÙĩÛİÙĨ": 6000,
      "ØµÙĪÙĦ": 6001,
      "Ġmovie": 6002,
      "Û°Û°": 6003,
      ",âĢĿ": 6004,
      "daws": 6005,
      "âī¥": 6006,
      "ĠØ§Ø·ÙĦØ§": 6007,
      "ĠFL": 6008,
      "394": 6009,
      "ĠTshav": 6010,
      "ĠShirt": 6011,
      "irst": 6012,
      "Ġcor": 6013,
      "edit": 6014,
      "ĠâĢı": 6015,
      "ĠØ²ÛĮÙĨ": 6016,
      "ĠExtract": 6017,
      "ugh": 6018,
      "246": 6019,
      "Ġ×": 6020,
      "ĠØªÙĩØ±Ø§ÙĨ": 6021,
      "ĠWholesale": 6022,
      "Ð½Ð°": 6023,
      "ĠTAIS": 6024,
      "kg": 6025,
      "SE": 6026,
      "irc": 6027,
      "Ġsong": 6028,
      "674": 6029,
      "SH": 6030,
      "sg": 6031,
      "099": 6032,
      "RÑķSÐĤ": 6033,
      "github": 6034,
      "womens": 6035,
      "...\"": 6036,
      "ĠMen": 6037,
      "Ø±Ú¯Ùĩ": 6038,
      "ĠBang": 6039,
      "363": 6040,
      "ĠÙĩÛķÚµ": 6041,
      "Ġhmong": 6042,
      "ĠBlog": 6043,
      "ØºÛĮ": 6044,
      "MP": 6045,
      "Ġmag": 6046,
      "ÙĢÙĢØ¯": 6047,
      "Qu": 6048,
      "abe": 6049,
      "Ùı": 6050,
      "ĠQF": 6051,
      "974": 6052,
      "ĠÐ¨ÐĪ": 6053,
      "ĠRh": 6054,
      "ĠKas": 6055,
      "Ġ71": 6056,
      "ĠCustom": 6057,
      "Ê¼": 6058,
      "ĠÙħØªÙĨ": 6059,
      "663": 6060,
      "proof": 6061,
      "arbon": 6062,
      "RUB": 6063,
      "ĠHu": 6064,
      "reat": 6065,
      "Ġ53": 6066,
      "olution": 6067,
      "373": 6068,
      "ĠÙħÛĮÙĦ": 6069,
      "515": 6070,
      "446": 6071,
      "981": 6072,
      "Tab": 6073,
      "ĠIN": 6074,
      "ĠØ¯ÛķØ³Øª": 6075,
      "Ġandroid": 6076,
      "log": 6077,
      "ĠAz": 6078,
      "/$": 6079,
      "BL": 6080,
      "Gb": 6081,
      "Ø®Ø¯Ø§Ùħ": 6082,
      "ĠØªÙĪØ±Ú©ÛĮ": 6083,
      "ĠTxij": 6084,
      "ior": 6085,
      "Ġstainless": 6086,
      "ĠÙģÙĦ": 6087,
      "ĠYAM": 6088,
      "ĠÙĨÙĪÙĪ": 6089,
      "ĠDTD": 6090,
      "642": 6091,
      "Ð½Ð¸": 6092,
      "fessional": 6093,
      "gary": 6094,
      "ÚµÛİØª": 6095,
      "Ġ56": 6096,
      "aha": 6097,
      "ĠÙ¾Ø§Ø³": 6098,
      "IP": 6099,
      "itz": 6100,
      "ĠLog": 6101,
      "NRG": 6102,
      "825": 6103,
      "ĠPoj": 6104,
      "8275": 6105,
      "Ġlist": 6106,
      "Ġtheej": 6107,
      "fer": 6108,
      "ĠBlu": 6109,
      "Ġkoojziagkabzaug": 6110,
      "ĠAdv": 6111,
      "528": 6112,
      "ÙĪØªÙĨ": 6113,
      "Ri": 6114,
      "Ø±ØŃ": 6115,
      "unction": 6116,
      "Ġ140": 6117,
      "ĠØ®Ø§ÙĪÙĩ": 6118,
      "Ġorg": 6119,
      "ille": 6120,
      "ĠØ¨Ø§Úµ": 6121,
      "tshirt": 6122,
      "ĠStreet": 6123,
      "ĠØªÙĪÙĦÛĮ": 6124,
      "Ġï¿½ï¿½ï¿½ï¿½ï¿½ï¿½ï¿½ï¿½ï¿½ï¿½ï¿½ï¿½ï¿½ï¿½ï¿½ï¿½": 6125,
      "ains": 6126,
      "ĠØ¢ÙĦ": 6127,
      "Ġtsiv": 6128,
      "dong": 6129,
      "ĠØ¨Ø±ÙĨØ§ÙħÙĩ": 6130,
      "745": 6131,
      "Ġrac": 6132,
      "ĠLad": 6133,
      "-[": 6134,
      "575": 6135,
      "Ġ160": 6136,
      "ĠUK": 6137,
      "590": 6138,
      "the": 6139,
      "anguag": 6140,
      "Ú©Ø±Ø¯ÙĨÙĩ": 6141,
      "ices": 6142,
      "ĠÙħÛĮÙĦÛĮ": 6143,
      "ĠSC": 6144,
      "970": 6145,
      "ities": 6146,
      "454": 6147,
      "796": 6148,
      "Ø¹Ø´": 6149,
      "729": 6150,
      "ãĥ³": 6151,
      "ĠAg": 6152,
      "Ø§ÛĮØ´": 6153,
      "ĠNpauj": 6154,
      "Ġcable": 6155,
      "Ntx": 6156,
      "bm": 6157,
      "Ġleejtwg": 6158,
      "Ġrel": 6159,
      "=>": 6160,
      "xffe": 6161,
      "Ø¨Ø§ÛĮÙĦ": 6162,
      "089": 6163,
      "ags": 6164,
      "856": 6165,
      "631": 6166,
      "382": 6167,
      "ĠPhooj": 6168,
      "955": 6169,
      "YR": 6170,
      "UAS": 6171,
      "Ġdi": 6172,
      "Ġntxub": 6173,
      "!!!": 6174,
      "Ġmo": 6175,
      "æĹ¥": 6176,
      "Nc": 6177,
      "atr": 6178,
      "GH": 6179,
      "EJ": 6180,
      "Ø§Ø·": 6181,
      "ĠSam": 6182,
      "ĠAV": 6183,
      "ĠDC": 6184,
      "ii": 6185,
      "ÙħØ§ÙĪÙĩ": 6186,
      "Ġcm": 6187,
      "dub": 6188,
      "2225": 6189,
      "2228": 6190,
      "ÙĪÙĪÛķ": 6191,
      "ĠØ´Ø§Ø±Ùĩ": 6192,
      "ĠConverter": 6193,
      "ĠRD": 6194,
      "loy": 6195,
      "Ġseries": 6196,
      "Î»": 6197,
      "ĠPS": 6198,
      "Ġyaus": 6199,
      "ĠIC": 6200,
      "ync": 6201,
      "eto": 6202,
      "ĠÚ©Ø´": 6203,
      "OOM": 6204,
      "ÙĪÙĦÙĩ": 6205,
      "ÚķØ§": 6206,
      "Ø±ÛĨÙĥ": 6207,
      "Ġrhuav": 6208,
      "cea": 6209,
      "ĠHUAB": 6210,
      "272": 6211,
      "Ġ800": 6212,
      "681": 6213,
      "ĠÙĩÛĨÛĮ": 6214,
      "Ġ81": 6215,
      "Ġ002": 6216,
      "ĠIMG": 6217,
      "ĠØ²ÛĨØ±ÛĮ": 6218,
      "lor": 6219,
      "ĠØ¨Ø®": 6220,
      "my": 6221,
      "ĠPaid": 6222,
      "gov": 6223,
      "ĠTshirt": 6224,
      "eted": 6225,
      "ĠÐ¡ÑĤÐ°Ð²": 6226,
      "Ġncaim": 6227,
      "ete": 6228,
      "ĠØµÙģØŃÙĩ": 6229,
      "1912": 6230,
      "206": 6231,
      "Ġ76": 6232,
      "ĠÚ©Ø§ÙħÙ¾ÛĮ": 6233,
      "Ø±ÛĮØ§ÙĨ": 6234,
      "ÑĥÑĤÐºÐ¸": 6235,
      "Ú©Ûķ": 6236,
      "ĠÙĨÙĪØ±": 6237,
      "773": 6238,
      "orts": 6239,
      "ĠÑģÑĥÑĤÐºÐ¸": 6240,
      "ĠÐ¡ÑĤÐ°Ð²Ð¾Ðº": 6241,
      "zo": 6242,
      "676": 6243,
      "Ġaw": 6244,
      "461": 6245,
      "Los": 6246,
      "ĠØ¹ÙĦ": 6247,
      "ĠHli": 6248,
      "306": 6249,
      "Ġextract": 6250,
      "12925": 6251,
      "ift": 6252,
      "aru": 6253,
      "706": 6254,
      "enc": 6255,
      "EH": 6256,
      "ĠØ¨Ø§ÛĮ": 6257,
      "hr": 6258,
      "ĠMis": 6259,
      "ĠLaj": 6260,
      "].": 6261,
      "Tsis": 6262,
      "view": 6263,
      "ĠÚ¯Ø¤": 6264,
      "PP": 6265,
      "Nej": 6266,
      "ĠØ³ÙĪÙ¾": 6267,
      "apan": 6268,
      "yajsab": 6269,
      "4437": 6270,
      "ÚµØ§ÛĮÙĩ": 6271,
      "TO": 6272,
      "Ġplh": 6273,
      "Ġï¿½ï¿½:": 6274,
      "ĠØ¨Ø±ÚĨØ³Ø¨": 6275,
      "Ġtxhij": 6276,
      "Ø±Ø¯Ø§": 6277,
      "read": 6278,
      "RÂµRÐħ": 6279,
      "Ġsu": 6280,
      "ĠAsk": 6281,
      "Ø±ÙĥÙĩ": 6282,
      "ĠPleev": 6283,
      "535": 6284,
      "KV": 6285,
      "terday": 6286,
      "tem": 6287,
      "we": 6288,
      "Ø¯Ø§ÙĪÙĩ": 6289,
      "Ġtse": 6290,
      "Ġï¿½ï¿½ï¿½ï¿½ï¿½ï¿½ï¿½ï¿½ï¿½.": 6291,
      "701": 6292,
      "AY": 6293,
      "ĠRAM": 6294,
      "069": 6295,
      "Ġtxhuam": 6296,
      "ection": 6297,
      "Ø±Ø¨Ø§ÛĮ": 6298,
      "Kwv": 6299,
      "Ġnaj": 6300,
      "653": 6301,
      "ĠTsav": 6302,
      "ĠSij": 6303,
      "ĠÂ©": 6304,
      "ÛİÙħÛĮ": 6305,
      "ĠØ´ÛİÙĪ": 6306,
      "azur": 6307,
      "Ġnab": 6308,
      "351": 6309,
      "ĠStainless": 6310,
      "ĠNkaujnagtshia": 6311,
      "pov": 6312,
      "ĠTu": 6313,
      "ĠHos": 6314,
      "Ġduoi": 6315,
      "Û´": 6316,
      "xias": 6317,
      ")ØĮ": 6318,
      "Îµ": 6319,
      "ĠCrystal": 6320,
      "ãĢģ": 6321,
      "Ġ114": 6322,
      "ĠMovie": 6323,
      "517": 6324,
      "Ġnus": 6325,
      "Ø¨Ø±ÛĮ": 6326,
      "##": 6327,
      "ĠÚ¯ÙģØª": 6328,
      "Ġ103": 6329,
      "64188": 6330,
      "Ġtob": 6331,
      "Ġhwjchim": 6332,
      "ĠÙ¾ÛİÙĪÛĮØ³Øª": 6333,
      "Ġï¿½ï¿½ï¿½,": 6334,
      "Ø¶Ø§": 6335,
      "All": 6336,
      "ĠCalgary": 6337,
      "ÛĨÙĦ": 6338,
      "ĠSÑĵ": 6339,
      "quir": 6340,
      "erry": 6341,
      "ĠÙĩÙĪÙĨÙĩ": 6342,
      "Ġplatform": 6343,
      "ĠHand": 6344,
      "016": 6345,
      "Ġ119": 6346,
      "eedge": 6347,
      "691": 6348,
      "ĠYesterday": 6349,
      "The": 6350,
      "ner": 6351,
      "ĠSec": 6352,
      "ĠShuf": 6353,
      "DH": 6354,
      "aint": 6355,
      "azureedge": 6356,
      "ishing": 6357,
      "ĠCatholique": 6358,
      "key": 6359,
      "Ã¤": 6360,
      "ĠØ±Ø³": 6361,
      "ÙĪØªÙĩ": 6362,
      "ÙĢØ±": 6363,
      "551": 6364,
      "Ġkabmob": 6365,
      "ĠØ¨Ø¯Ùĩ": 6366,
      "Ġ74": 6367,
      "coveralls": 6368,
      "xBB": 6369,
      "Ġlav": 6370,
      "ĠShufuni": 6371,
      "Im": 6372,
      "ĠChar": 6373,
      "ĠÐ²": 6374,
      "Ġcoin": 6375,
      "ĠMUS": 6376,
      "áº¿": 6377,
      "Ġkhi": 6378,
      "ĠSouth": 6379,
      "ÙĪÙĪÙħÙĩ": 6380,
      "xCBC": 6381,
      "amb": 6382,
      "ĠÙĨØ²ÛĮ": 6383,
      "243": 6384,
      "ĠMad": 6385,
      "ĠForex": 6386,
      "ĠLim": 6387,
      "ĠTxuas": 6388,
      "Ð¨ÐģÐ©": 6389,
      "ĠâĹı": 6390,
      "Ġcol": 6391,
      "ĠThaiv": 6392,
      "alog": 6393,
      "284": 6394,
      "ealth": 6395,
      "ĠPhil": 6396,
      "Ø²ÙħÙĩ": 6397,
      "ĠFabkis": 6398,
      "ester": 6399,
      "ĠØ¯Ûİ": 6400,
      "371": 6401,
      "IR": 6402,
      "Sim": 6403,
      "aft": 6404,
      "CE": 6405,
      "Ġ005": 6406,
      "Ġlight": 6407,
      "qq": 6408,
      "6666": 6409,
      "ĠTxoos": 6410,
      "-{": 6411,
      "æĸ": 6412,
      "ison": 6413,
      "ÙħÛĮØ±": 6414,
      "RU": 6415,
      "ĠâĢİ": 6416,
      "0065": 6417,
      "ĠÙĨØ±Ùħ": 6418,
      "Ġinterface": 6419,
      "ineer": 6420,
      "ience": 6421,
      "Ġlooj": 6422,
      "ĠØ¯Ø¦": 6423,
      "ĠÙĩÛķÙħ": 6424,
      "038": 6425,
      "ĠItem": 6426,
      "\"=>": 6427,
      "ĠTseeb": 6428,
      "ÙħÛĮØ´Ùĩ": 6429,
      "hmoobyajsab": 6430,
      "ĠÙĨØ§Ø²": 6431,
      "Ġntsiav": 6432,
      "ĠÐŁ": 6433,
      "ĠThaib": 6434,
      "Ġtxoos": 6435,
      "aps": 6436,
      "branch": 6437,
      "Ġbrows": 6438,
      "3238": 6439,
      "................................": 6440,
      "026": 6441,
      "Ġkim": 6442,
      "drau": 6443,
      "Form": 6444,
      "aur": 6445,
      "Ø®ÛĨØ´": 6446,
      "ĠSilver": 6447,
      "\"=>\"": 6448,
      "ÏĤ": 6449,
      "Ġmy": 6450,
      "ĠØ§ÛĮÙĨØªØ±": 6451,
      "084": 6452,
      "MV": 6453,
      "4442": 6454,
      "651": 6455,
      "ools": 6456,
      "Ġcab": 6457,
      "pi": 6458,
      "ĠRye": 6459,
      "draulic": 6460,
      "ĠKws": 6461,
      "ĠØ¯ÛĮÚ©Ùĩ": 6462,
      "her": 6463,
      "oke": 6464,
      "ØªÙĪ": 6465,
      "ĠÙĨØ§Øª": 6466,
      "Ġwork": 6467,
      "ATH": 6468,
      "uality": 6469,
      "SB": 6470,
      "api": 6471,
      "Ġstring": 6472,
      "ĠØªÚ©": 6473,
      "ait": 6474,
      "Ø§Ø¯Ø§": 6475,
      "ĠProcessed": 6476,
      "ĠHmoov": 6477,
      "ĠØ³ÙĦÛİÙħØ§ÙĨÛĮ": 6478,
      "Xn": 6479,
      "634": 6480,
      "ĠDal": 6481,
      "uld": 6482,
      "048": 6483,
      "UAG": 6484,
      "ĠNyem": 6485,
      "CK": 6486,
      "ĠÙĪØ±Ø¯": 6487,
      "HL": 6488,
      "Ġntiv": 6489,
      "ĠBos": 6490,
      "ĠNyab": 6491,
      "Ġ......": 6492,
      "661": 6493,
      "946": 6494,
      "reak": 6495,
      "ÙĦØ¨ÙĪÙħ": 6496,
      "ÙģÙĨ": 6497,
      "ĠØ¦Ø§Úµ": 6498,
      "Ù¾ÙĦ": 6499,
      "ÙĨØ¯Ø§": 6500,
      "Ġnetwork": 6501,
      "ĠÙĩÙħØ±Ø§Ùĩ": 6502,
      "Jizz": 6503,
      "ĠCall": 6504,
      "ĠØ³ÛĮØ§Ø³Ùĩ": 6505,
      "ze": 6506,
      "ÛĮÛĮÙĩ": 6507,
      "6668": 6508,
      "Ø¦Ûİ": 6509,
      "917": 6510,
      "ails": 6511,
      "ĠÃĹ": 6512,
      "ĠØ±Ø§ÛĮÚ¯Ø§ÙĨ": 6513,
      "Br": 6514,
      "Ġtxi": 6515,
      "ĠCop": 6516,
      "7231018": 6517,
      "5228763": 6518,
      "6898247": 6519,
      "12925941": 6520,
      "72310186898247": 6521,
      "522876312925941": 6522,
      ".:": 6523,
      "âĢĮ:": 6524,
      "ĠÚĺÛİØ±": 6525,
      "704": 6526,
      "images": 6527,
      "ĠStar": 6528,
      "rew": 6529,
      "ĠCO": 6530,
      "ĠØ¨Ú©Ø§Øª": 6531,
      "ĠWr": 6532,
      "udio": 6533,
      "ĠBas": 6534,
      "ĠNpaim": 6535,
      "556": 6536,
      "ĠResource": 6537,
      "ava": 6538,
      "anguage": 6539,
      "ÚµÚ©ÛĮ": 6540,
      "#:": 6541,
      "Ð»Ð°": 6542,
      "ÚĨÙĪÙĨ": 6543,
      "Ġå": 6544,
      "ĠCha": 6545,
      "Ġtswvyim": 6546,
      "Ġkey": 6547,
      "Ø±Ø§ØŃÛĮ": 6548,
      "Nts": 6549,
      "078": 6550,
      "2597": 6551,
      "Ġair": 6552,
      "ĠxH": 6553,
      "ĠEst": 6554,
      "ĠÙĨÙĪØ´ØªÙĩ": 6555,
      "ĠØ¨Ø§Ø²Ø¯ÛĮØ¯": 6556,
      "ĠCB": 6557,
      "Ġ73": 6558,
      "ĠYouJizz": 6559,
      "Ġnyhuv": 6560,
      "ĠØ¨Ø§Ø³ÛĮ": 6561,
      "Ġsawvdaws": 6562,
      "rosoft": 6563,
      "ĠVideos": 6564,
      "039": 6565,
      "red": 6566,
      "ĠPaub": 6567,
      "ĠÙĤØ·": 6568,
      "ael": 6569,
      "Ø±ÙħÙĩ": 6570,
      "urs": 6571,
      "ĠØ¯ÛĮØ§Ø±ÛĮ": 6572,
      "ÑĤÐ¸": 6573,
      "ĠØ¦ÛĮÙĨ": 6574,
      "044": 6575,
      "ged": 6576,
      "ĠCour": 6577,
      "ĠØ¦ÛĮØ³ÙĦØ§ÙħÛĮ": 6578,
      "acy": 6579,
      "ccea": 6580,
      "ĠØ§ÙĩÙĨÚ¯": 6581,
      "SL": 6582,
      "Ġkhu": 6583,
      "ĠxHamster": 6584,
      "Ġywm": 6585,
      "ĠKenn": 6586,
      "683": 6587,
      "Ġpuam": 6588,
      "Dec": 6589,
      "ĠNom": 6590,
      "Ġ___": 6591,
      "nraug": 6592,
      "ĠSSD": 6593,
      "xffccea": 6594,
      "nm": 6595,
      "van": 6596,
      "492": 6597,
      "830": 6598,
      "orge": 6599,
      "alia": 6600,
      "Ġ115": 6601,
      "Ù¾ÛĨØ±": 6602,
      "ĠAustr": 6603,
      "iphunter": 6604,
      "ena": 6605,
      "ĠCliphunter": 6606,
      "Ġ82": 6607,
      "Ø²ÛĮØ±": 6608,
      "Ġ2004": 6609,
      "ĠIII": 6610,
      "Ph": 6611,
      "ĠÚĺÛĮØ§ÙĨÛĮ": 6612,
      "ype": 6613,
      "aming": 6614,
      "ĠÚ¯ÛĨÚķØ§ÙĨ": 6615,
      "evious": 6616,
      "065": 6617,
      "ÙĪÛĮÙĨ": 6618,
      "702": 6619,
      "ĠØ¯Ø³ØªÚ¯Ø§Ùĩ": 6620,
      "Ġvoyeur": 6621,
      "ĠStates": 6622,
      "AZ": 6623,
      "bed": 6624,
      "822": 6625,
      "ĠClass": 6626,
      "RÑķRI": 6627,
      "884": 6628,
      "ceg": 6629,
      "ØªÛĨ": 6630,
      "oor": 6631,
      "296": 6632,
      "ÃŃ": 6633,
      "Î¡": 6634,
      "Ġntsuag": 6635,
      "ĠTXHUA": 6636,
      "qhov": 6637,
      "336": 6638,
      "1118": 6639,
      "Ø²Ø§Ø±Ùĩ": 6640,
      "Ø§ÛĮÛķØªÛĮ": 6641,
      "ĠØ´Ø§ÙĨ": 6642,
      "TG": 6643,
      "ĠTL": 6644,
      "Ġwill": 6645,
      "ĠÙ¾Ø§Ø±ÚĨÙĩ": 6646,
      "kot": 6647,
      "Com": 6648,
      "Ġmoog": 6649,
      "0015": 6650,
      "1115": 6651,
      "elp": 6652,
      "Ġnruj": 6653,
      "asy": 6654,
      "ĠÙĨØ´": 6655,
      "ĠYeiuxalees": 6656,
      "ĠØ¬ÛĨØ±Ùĩ": 6657,
      "ĠGuangdong": 6658,
      "ning": 6659,
      "Ð¾Ð´": 6660,
      "ĠBack": 6661,
      "ĠÚ¯ÙĪØ´ÛĮ": 6662,
      "hoes": 6663,
      "672": 6664,
      "Ġpos": 6665,
      "ĠÚķÛİÚ©": 6666,
      "has": 6667,
      "ĠRE": 6668,
      "Ø§ÙħÙĦ": 6669,
      "Ġà¤": 6670,
      "ĠØ¨ÛĮÙĦ": 6671,
      "ĠØŃÙĤ": 6672,
      "Ø±Ø§ÙħØ¨Ùĩ": 6673,
      "ĠÙģØ§ÛĮÙĦ": 6674,
      "ĠÙĦÛķÙĪ": 6675,
      "ĠSac": 6676,
      "GE": 6677,
      "Hn": 6678,
      "ĠMedia": 6679,
      "ĠØ¬ÛĮÙĩØ§ÙĨÛĮ": 6680,
      "ĠØ¢ÙĦØ¨ÙĪÙħ": 6681,
      "ĠÚ©Ø§ÙħÙ¾ÛĮÙĪØªØ±": 6682,
      "anco": 6683,
      "Ġcem": 6684,
      "amin": 6685,
      "095": 6686,
      "ĠØ¨Ø§Ø²ÛĮ": 6687,
      "ĠHas": 6688,
      "Ġpiam": 6689,
      "462": 6690,
      "Ø±Ùī": 6691,
      "715": 6692,
      "Ġblowjob": 6693,
      "ĠØ¨Ø§ÙĪ": 6694,
      "ults": 6695,
      "ÙĩÛĨÛĮ": 6696,
      "ĠTP": 6697,
      "ĠØ¯Ø±ÛİÚĺÙĩ": 6698,
      "Ġft": 6699,
      "ĠØ¨Ø±Ø§": 6700,
      "ĠChina": 6701,
      "ĠSÐĤ": 6702,
      "Plig": 6703,
      "âĢĮØŁ": 6704,
      "Ø´ÙĨØ¨Ùĩ": 6705,
      "ĠElectr": 6706,
      "Ġracer": 6707,
      "ccc": 6708,
      "ĠØ³Ø§ÛĮ": 6709,
      "ĠFarid": 6710,
      "ĠØ³ÙĪÙĨ": 6711,
      "ody": 6712,
      "11638": 6713,
      "978": 6714,
      "Ġnyiag": 6715,
      "UK": 6716,
      "Ġtxhuas": 6717,
      "Ġwe": 6718,
      "ÙĤÛĮÙĤ": 6719,
      "ĠÚĨØ§Ù¾": 6720,
      "Ġsaub": 6721,
      "463": 6722,
      "anced": 6723,
      "849": 6724,
      "ls": 6725,
      "Î½": 6726,
      "Ġpaug": 6727,
      "ĠXyooj": 6728,
      "Ġ198": 6729,
      "Ú¯Ø§Ø±ÛĮ": 6730,
      "do": 6731,
      "vg": 6732,
      "ĠØ¯ÛĮØ¯": 6733,
      "ĠÙħØ§ÙĦ": 6734,
      "ĠÙĥÙĪ": 6735,
      "ĠÙ¾ÛĮØ±": 6736,
      "hav": 6737,
      "ĠâĤ": 6738,
      "1728": 6739,
      "ĠBay": 6740,
      "ĠTubhmoobyajsab": 6741,
      "ĠØ§ÙĨØ¬": 6742,
      "Ġsqft": 6743,
      "-|": 6744,
      "EEV": 6745,
      "ÆĴ": 6746,
      "ĠComments": 6747,
      "ĠEnter": 6748,
      "Ġcub": 6749,
      "ĠÙħØŃØµÙĪÙĦ": 6750,
      "Ġ112": 6751,
      "ĠRO": 6752,
      "Ġ116": 6753,
      "ĠTAB": 6754,
      "\"...": 6755,
      "751": 6756,
      "ĠAmerican": 6757,
      "sim": 6758,
      "ÙĪØ§ÙĪ": 6759,
      "Ġ360": 6760,
      "ipping": 6761,
      "ĠHN": 6762,
      "ĠAskiv": 6763,
      "ĠØ¯Ø§Ø±Ø§ÛĮ": 6764,
      "Ø®ÙĪØ§Ø²": 6765,
      "Ġvol": 6766,
      "ĠØ¹Ø´ÙĤ": 6767,
      "paj": 6768,
      "ãģ®": 6769,
      "vert": 6770,
      "Ġphoojywg": 6771,
      "Ø±Ø§ÙĪÙĨ": 6772,
      "ĠPib": 6773,
      "Ġhlav": 6774,
      "ĠReal": 6775,
      "--------------------------------": 6776,
      "ĠÚ©ÙĨÛĮØ¯": 6777,
      "ĠSKU": 6778,
      "une": 6779,
      "Ø¶ÛĮ": 6780,
      "064": 6781,
      "ìĿ": 6782,
      "Ġsam": 6783,
      "ĠRoulette": 6784,
      "Ġcialis": 6785,
      "ĠØ¯ÙĪØ±Ø¨ÛĮÙĨ": 6786,
      "KiB": 6787,
      "KC": 6788,
      "Ġmej": 6789,
      "ative": 6790,
      "âĢº": 6791,
      "ĠCore": 6792,
      "ĠØ®Ø±Ø§": 6793,
      "ĠØ¯ÙĪÙĪÙĩ": 6794,
      "ethyl": 6795,
      "ĠEA": 6796,
      "Ø¸Ùĩ": 6797,
      "ona": 6798,
      "Ø£": 6799,
      "ĠÙĦØ§": 6800,
      "774": 6801,
      "ĠÐº": 6802,
      "](": 6803,
      "Ġki": 6804,
      "Ġ130": 6805,
      "ĠNTAWM": 6806,
      "Â¦": 6807,
      "ĠSawv": 6808,
      "973": 6809,
      "cegaz": 6810,
      "00000": 6811,
      "ĠPet": 6812,
      "CO": 6813,
      "ĠÙ¾ÛİÙĪÙĩ": 6814,
      "Ġluj": 6815,
      "ĠYav": 6816,
      "ĠØ§Ø·ÙĦØ§Ø¹Ø§Øª": 6817,
      "ĠSD": 6818,
      "ĠGroup": 6819,
      "ĠFaridkot": 6820,
      "ĠSteel": 6821,
      "ĠDig": 6822,
      "PL": 6823,
      "782": 6824,
      "Ġvin": 6825,
      "Ø§Ø¨Ø±Ø¯ÙĪÙĪ": 6826,
      "ogen": 6827,
      "ural": 6828,
      "AST": 6829,
      "ãĥ«": 6830,
      "832": 6831,
      "à¸£": 6832,
      "ĠNYOB": 6833,
      "ĠØ¯Ø§ÙĩØ§Øª": 6834,
      "ĠRÑĹSÐĤ": 6835,
      "ĠØ¨Ø¹": 6836,
      "950": 6837,
      "SÑĵR": 6838,
      "mod": 6839,
      "ØªÙħ": 6840,
      "erver": 6841,
      "ãĤ¹": 6842,
      "538": 6843,
      "ĠØ¯Ø§Ø¹Ø´": 6844,
      "ager": 6845,
      "Ah": 6846,
      "»¿": 6847,
      "Ġkwvtij": 6848,
      "ĠAss": 6849,
      "Ġyeiuxalees": 6850,
      "ĠBan": 6851,
      "erc": 6852,
      "ĠMich": 6853,
      "ĠØ´Ûİ": 6854,
      "Ø´Ø¯Ø§": 6855,
      "Ġ93": 6856,
      "7679": 6857,
      "-Â´": 6858,
      "023": 6859,
      "ĠØ¬ÙĨ": 6860,
      "hy": 6861,
      "Ġ260": 6862,
      "Ġhad": 6863,
      "2229": 6864,
      "uartz": 6865,
      "time": 6866,
      "ĠØ¯Ø§Ø¯Ùĩ": 6867,
      "ĠPass": 6868,
      "Ù¢": 6869,
      "ØªÛİ": 6870,
      "ĠÐľ": 6871,
      "ĠÙ¾Ø´ØªÛĮ": 6872,
      "'.": 6873,
      "Ġslots": 6874,
      "/?": 6875,
      "ĠPark": 6876,
      "ĠMult": 6877,
      "FB": 6878,
      "2028": 6879,
      "Ġbar": 6880,
      "ĠØ¯Ø§Ø®": 6881,
      "Ġtsua": 6882,
      "Ġneon": 6883,
      "765": 6884,
      "ĠWe": 6885,
      "1379": 6886,
      "ĠYwg": 6887,
      "712": 6888,
      "1116": 6889,
      "ude": 6890,
      "2916": 6891,
      "CR": 6892,
      "ĠÚ©Ø±Ø¯ÙĨÛĮ": 6893,
      "ĠØ¦Ø§ÙħØ§ÙĨ": 6894,
      "ĠTas": 6895,
      "ÛİÙĨÛİ": 6896,
      "Ø¯Ø§ÙĨÙĩ": 6897,
      "anic": 6898,
      "ÛĮÙĨØ§": 6899,
      "7778": 6900,
      "ĠCS": 6901,
      "262": 6902,
      "ÙħÙĨØ¯": 6903,
      "Ø¦ÙĪ": 6904,
      "ĠØªÙĪÙħØ§ÙĨ": 6905,
      "ĠEQ": 6906,
      "Ġber": 6907,
      "Ġ62": 6908,
      "MT": 6909,
      "055": 6910,
      "1117": 6911,
      "033": 6912,
      "1819": 6913,
      "ĠSk": 6914,
      "Ø¨Ø§Ø·": 6915,
      "3987": 6916,
      "ĠÐ´": 6917,
      "ĠRV": 6918,
      "ĠØ§ÛĮØ±Ø§ÙĨÛĮ": 6919,
      "haib": 6920,
      "-âī": 6921,
      "Ġï¿½ï¿½ï¿½ï¿½ï¿½ï¿½ï¿½ï¿½:": 6922,
      "ĠØ¢ÙħÙĪØ²Ø´": 6923,
      "930": 6924,
      "ĠSQ": 6925,
      "ĠHis": 6926,
      "andal": 6927,
      ")(": 6928,
      "7770": 6929,
      "emi": 6930,
      "960": 6931,
      "Ġmi": 6932,
      "Ġntu": 6933,
      "ĠMart": 6934,
      "Ġnquag": 6935,
      "xD": 6936,
      "ÙĩÛĮØ¯": 6937,
      "ĠCable": 6938,
      "Ø±Ú©Ùĩ": 6939,
      "ĠÙ¾Ø³": 6940,
      "Ġkhub": 6941,
      "urf": 6942,
      "Ġmm": 6943,
      "Ġret": 6944,
      "716": 6945,
      "ĠÙĨØ¸Ø±": 6946,
      "ika": 6947,
      "aly": 6948,
      "Ġ220": 6949,
      "ĠÚĨØ§ÙĦØ§": 6950,
      "Ġdhia": 6951,
      "491": 6952,
      "Ġ105": 6953,
      "ĠÙħØ§ÙħÛĨ": 6954,
      "Ġ108": 6955,
      "EO": 6956,
      "Ġapps": 6957,
      "ward": 6958,
      "Ø³Ùħ": 6959,
      "ĠØ¬Ùħ": 6960,
      "ĠRÑķ": 6961,
      "eels": 6962,
      "Hmongheaven": 6963,
      "ĠLong": 6964,
      "Ø§Ø´ÛĮ": 6965,
      "ÙĥØ§ÙĨÛĮØ§ÙĨ": 6966,
      "Ġacid": 6967,
      "ĠÙħØ´Ùĩ": 6968,
      "274": 6969,
      "aterproof": 6970,
      "Ãĺn": 6971,
      "Ø§Ø±Ø¯Ùĩ": 6972,
      "Ġunderg": 6973,
      "Ġteg": 6974,
      "431": 6975,
      "ems": 6976,
      "ÙĥØ§ØªÙĩ": 6977,
      "Ġntoos": 6978,
      "Ġkhawv": 6979,
      "ĠMemory": 6980,
      "HB": 6981,
      "ĠØŃÛĮØ²Ø¨ÛĮ": 6982,
      "ĠÙħÙĪØ¨Ø§ÛĮÙĦ": 6983,
      "ĠWA": 6984,
      "594": 6985,
      "ĠLake": 6986,
      "pen": 6987,
      "Ġ720": 6988,
      "Ex": 6989,
      "ÛķÙĪØª": 6990,
      "3328": 6991,
      "oker": 6992,
      "cat": 6993,
      "Ġ84": 6994,
      "Â¿-": 6995,
      "An": 6996,
      "ĠTxheem": 6997,
      "Ġmess": 6998,
      "0011": 6999,
      "Ġover": 7000,
      "ĠØ¯Ø§ÙħÙĩ": 7001,
      "804": 7002,
      "474": 7003,
      "SÐĥSÐĬ": 7004,
      "ills": 7005,
      "ĠFull": 7006,
      "744": 7007,
      "Ġraid": 7008,
      "Ġ??": 7009,
      "ebr": 7010,
      "1500": 7011,
      "yan": 7012,
      "ĠÛĮØ¦": 7013,
      "735": 7014,
      "ĠEntry": 7015,
      "ĠDA": 7016,
      "Ø±Ø¨Ø§ÛĮØ¬Ø§ÙĨ": 7017,
      "ĠCA": 7018,
      "Ð¨ÐĨ": 7019,
      "Ø§ÙģØª": 7020,
      "4992": 7021,
      "3000": 7022,
      "oman": 7023,
      "ĠPE": 7024,
      "Ð¨Òĳ": 7025,
      "ceeb": 7026,
      "ÙĪØ´Øª": 7027,
      "neej": 7028,
      "Ġnpab": 7029,
      "ref": 7030,
      "tions": 7031,
      "PF": 7032,
      "ĠGen": 7033,
      "ÑĤÐµ": 7034,
      "Ġ190": 7035,
      "pro": 7036,
      "ĠBig": 7037,
      "ĠÚ¯Ø±Øª": 7038,
      "838": 7039,
      "views": 7040,
      "ora": 7041,
      "achinery": 7042,
      "Ġkaus": 7043,
      "ĠMos": 7044,
      "ĠQA": 7045,
      "upload": 7046,
      "ĠKennel": 7047,
      "ĠØŃØ§ÙĦ": 7048,
      "ĠØ³ÙĪØ±ÛĮ": 7049,
      "581": 7050,
      "LM": 7051,
      "Ġmax": 7052,
      "940": 7053,
      "XT": 7054,
      "ĠØ²ÛĮØ±": 7055,
      "ACK": 7056,
      "1129": 7057,
      "Ø³ÙĪ": 7058,
      "Ġ450": 7059,
      "add": 7060,
      "ĠArch": 7061,
      "1278": 7062,
      "thing": 7063,
      "illing": 7064,
      "ient": 7065,
      "Ġcaw": 7066,
      "Ġ134": 7067,
      "ĠØ¦Ø§ÙħØ§ÚĺÙĩ": 7068,
      "Ø¹Ø±": 7069,
      "Î¼": 7070,
      "Zoo": 7071,
      "ĠÚĨÛĮÙĨ": 7072,
      "ĠØªÙĪÙĪ": 7073,
      "806": 7074,
      "ÙĪØªÙĨÙĩ": 7075,
      "ĠTiamsis": 7076,
      "Ø±Ø¬Ùĩ": 7077,
      "Ø¦Ø§ÙĪ": 7078,
      "1317": 7079,
      "Ġncuav": 7080,
      "Ġend": 7081,
      "ĠØ³ÛĨ": 7082,
      "Ġ210": 7083,
      "Ġtxhis": 7084,
      "Ġ61": 7085,
      "596": 7086,
      "1545": 7087,
      "pos": 7088,
      "1988": 7089,
      "Ġntiav": 7090,
      "ĠNtseeg": 7091,
      "oro": 7092,
      "ÛĮÛĮÛķ": 7093,
      "Ġprint": 7094,
      "ministr": 7095,
      "881": 7096,
      "Ġ1200": 7097,
      "Ġrun": 7098,
      "reg": 7099,
      "ĠTib": 7100,
      "756": 7101,
      "Ġles": 7102,
      "ĠÙĤØ³ÙħØª": 7103,
      "asonic": 7104,
      "ÙĨØ§Ø³": 7105,
      "ĠTsam": 7106,
      "253": 7107,
      "cus": 7108,
      "Ġcustomized": 7109,
      "ĠYus": 7110,
      "ĠVis": 7111,
      "nyob": 7112,
      "471": 7113,
      "Ġ117": 7114,
      "ÙĪØ§ÙĪÛĮ": 7115,
      "1035": 7116,
      "ĠServ": 7117,
      "Ġdaus": 7118,
      "ĠØ¦Ø§Ú¯": 7119,
      "ĠØªØ¨ÙĦØª": 7120,
      "ĠListing": 7121,
      "843": 7122,
      "ĠÚ©ÙĪØ±": 7123,
      "sword": 7124,
      "ĠSX": 7125,
      "ider": 7126,
      "ĠHaus": 7127,
      "753": 7128,
      "ĠHmongheaven": 7129,
      "Ġ2612005000": 7130,
      "ĠKav": 7131,
      "693": 7132,
      "Ġ63": 7133,
      "Ġ2002": 7134,
      "ĠData": 7135,
      "1460": 7136,
      "ĠØ®ÙĪØ§": 7137,
      "Ġart": 7138,
      "ency": 7139,
      "ĠFox": 7140,
      "Ġtiaj": 7141,
      "Ø¯Ø§Ø±Ùĩ": 7142,
      "ÚµÚ©": 7143,
      "ns": 7144,
      "Ø±Ø§ÛĮÙĩ": 7145,
      "Ġkhau": 7146,
      "come": 7147,
      "ĠÙĪØ§ÛĮ": 7148,
      "ĠØ§ÙĦÚ©ØªØ±": 7149,
      "Ġxiav": 7150,
      "à¹Ģ": 7151,
      "Sau": 7152,
      "ĠØ§Ùĩ": 7153,
      "ĠØ´ÙĪÛİ": 7154,
      "à¶": 7155,
      "ÙĤØ§": 7156,
      "ĠTeam": 7157,
      "Ġgi": 7158,
      "à¸±": 7159,
      "ÙĪØ¹": 7160,
      "Ø¨ÛĮÙĨÛĮ": 7161,
      "Ġchiv": 7162,
      "ĠPrice": 7163,
      "Kh": 7164,
      "back": 7165,
      "cel": 7166,
      "Ġlive": 7167,
      "ĠXeem": 7168,
      "ific": 7169,
      "ĠÙĪÛİÙĨÙĩ": 7170,
      "ÚķÛİØ²": 7171,
      "ĠØ§Ø®Ø¨Ø§Ø±": 7172,
      "ĠÚĨÙĪÙĨÙĥÙĩ": 7173,
      "814": 7174,
      "4016": 7175,
      "My": 7176,
      "jack": 7177,
      "ĠØ¨ÚĨ": 7178,
      "ĠLes": 7179,
      "1248": 7180,
      "ÚĺÙĨ": 7181,
      "Ġgenerator": 7182,
      "ÛİÙĨÛĮ": 7183,
      "iet": 7184,
      "itco": 7185,
      "Ġtour": 7186,
      "omet": 7187,
      "ĠÙĦÛİÚ©": 7188,
      "Ġpluag": 7189,
      "893": 7190,
      "ĠRuss": 7191,
      "ĠLine": 7192,
      "Ø±Ùĥ": 7193,
      "lam": 7194,
      "Ġbook": 7195,
      "version": 7196,
      "ÙĨØ¬Ùĩ": 7197,
      "801": 7198,
      "onster": 7199,
      "ï½": 7200,
      "ĠDur": 7201,
      "ĠØŃÛĮØ²Ø¨": 7202,
      "PU": 7203,
      "gif": 7204,
      "Ġ023": 7205,
      "7548": 7206,
      "ĠLUS": 7207,
      "ĠÙ¾ÛĮØ§ÙĪ": 7208,
      "uff": 7209,
      "asting": 7210,
      "ĠBon": 7211,
      "ĠØ³Ø§Ø®Øª": 7212,
      "wire": 7213,
      "Ø³Ø§ÙĨÛĮ": 7214,
      "ĠPe": 7215,
      "Ġ}": 7216,
      "566": 7217,
      "Ġ****": 7218,
      "PV": 7219,
      "Ø¯ÙĨÛĮ": 7220,
      "icle": 7221,
      "Ø³ØªÙī": 7222,
      "Ø±ÙħÛĮ": 7223,
      "âĦ¢": 7224,
      "Ġred": 7225,
      "ÙħÛĮØ¯": 7226,
      "Ġliam": 7227,
      "ĠÙĦØ§ÙĪ": 7228,
      "2919": 7229,
      "799": 7230,
      "ÙĨØ¯ÛĮÙĨ": 7231,
      "oe": 7232,
      "Ġ010": 7233,
      "ĠÙĥÛķ": 7234,
      "shirt": 7235,
      "383": 7236,
      "Ġ118": 7237,
      "ĠØŃÙĥ": 7238,
      "ida": 7239,
      "Ġ700": 7240,
      "Ø±ÛĮÛĮ": 7241,
      "ĠMaru": 7242,
      "Ġcar": 7243,
      "ĠØ®Ø§Ø±": 7244,
      "ĠØ±ÛĨ": 7245,
      "anta": 7246,
      "453": 7247,
      "urch": 7248,
      "aper": 7249,
      "ĠØ¨Ø§Ø±Ø²Ø§ÙĨÛĮ": 7250,
      "ĠØ§Ø±ØªØ¨Ø§Ø·": 7251,
      "Ġtis": 7252,
      "3368": 7253,
      "Ø¯ÛĮÙħ": 7254,
      "ĠSlim": 7255,
      "1377": 7256,
      "ĠØ¢Ø²": 7257,
      "tsam": 7258,
      "Ġxya": 7259,
      "ĠISO": 7260,
      "727": 7261,
      "Ġ83": 7262,
      "ÙĦÛĮØ³ÛĮ": 7263,
      "077": 7264,
      "ĠBus": 7265,
      "],": 7266,
      "Ġlicas": 7267,
      "!-": 7268,
      "Lawv": 7269,
      "Ġ***": 7270,
      "Ø¯Ø§ÙĪ": 7271,
      "866": 7272,
      "Ú¯Ø±ØªÙĨ": 7273,
      "Ġunderground": 7274,
      "ĠÚ©Ø§Ø±Ùĩ": 7275,
      "Ġhlab": 7276,
      "ĠÐ©Ñĵ": 7277,
      "ÙĦÛĮÚ©": 7278,
      "Ú©Ø§ÙĨÛĮØ§ÙĨ": 7279,
      "idas": 7280,
      "ÙĨØ§ÙĪØ±ÛĮ": 7281,
      "ĠØ²Ø§ÙĨÛĮØ§Ø±ÛĮ": 7282,
      "bian": 7283,
      "1629": 7284,
      "RÑķRg": 7285,
      "ĠØªÙĪØ±ÙĥÛĮØ§": 7286,
      "Ø¬Ø§": 7287,
      "dn": 7288,
      "ĠDas": 7289,
      "ĠSB": 7290,
      "ĠÚ©ÙĪØ±Ø¯Ø³ØªØ§ÙĨÛĮ": 7291,
      "Ġml": 7292,
      "Shirt": 7293,
      "2100": 7294,
      "enger": 7295,
      "2007": 7296,
      "ÛİÙĥÙī": 7297,
      "away": 7298,
      "Ú¯ÛķÚµ": 7299,
      "Ġif": 7300,
      "ÙħÚķÛĨ": 7301,
      "1149": 7302,
      "porner": 7303,
      "subway": 7304,
      "Ġsiav": 7305,
      "ĠTatt": 7306,
      "inos": 7307,
      "Î·": 7308,
      "ĠEporner": 7309,
      "ĠKwv": 7310,
      "ĠÐ½Ð°": 7311,
      "Ġ123": 7312,
      "DBM": 7313,
      "Ġ**": 7314,
      "1788": 7315,
      "yc": 7316,
      "1019": 7317,
      "ape": 7318,
      "ÛķÙĪÚµ": 7319,
      "lot": 7320,
      "Ġcoins": 7321,
      "ĠGeneral": 7322,
      "ĠÚ¯ÙĪÙĨ": 7323,
      "Ġact": 7324,
      "896": 7325,
      "Ġblack": 7326,
      "1122": 7327,
      "ĠPG": 7328,
      "hwb": 7329,
      "Ø¨ÙĦ": 7330,
      "ĠCuaj": 7331,
      "ãĤ¤": 7332,
      "ÙĥÛİØªÛĮ": 7333,
      "ÙĪÙĦØª": 7334,
      "wood": 7335,
      "Ġpannel": 7336,
      "878": 7337,
      "gb": 7338,
      "ius": 7339,
      "ĠNWS": 7340,
      "ÙĨØ¯Ø§ÙĨ": 7341,
      "833": 7342,
      "eless": 7343,
      "Ġntsha": 7344,
      "ĠCaij": 7345,
      "ĠTxhawb": 7346,
      "ĠNiaj": 7347,
      "2427": 7348,
      "ÙĨÛĮØ´": 7349,
      "Ġtxeeb": 7350,
      "ĠØªØ§Ù¾": 7351,
      "Ø±ÛĮÙħ": 7352,
      "869": 7353,
      "Ø±ÙĨØ§ÙħÙĩ": 7354,
      "etos": 7355,
      "761": 7356,
      "greenkeeper": 7357,
      "Ġnm": 7358,
      "ĠØ¨ÙĢÙĢ": 7359,
      "ĠThoob": 7360,
      "Ø±Ø§ÙĪÛķ": 7361,
      "Ġ113": 7362,
      "CG": 7363,
      "MO": 7364,
      "ĠSal": 7365,
      "][/": 7366,
      "ris": 7367,
      "Ø±Ø¬": 7368,
      "Ø¯Ø§ÛĮÙĩ": 7369,
      "554": 7370,
      "Ġqe": 7371,
      "Ø±Ø®": 7372,
      "1929": 7373,
      "avel": 7374,
      "akh": 7375,
      "ĠBDBM": 7376,
      "Ġlike": 7377,
      "ĠØ¦ÛķÙĪÛķ": 7378,
      "Ð»ÑĮ": 7379,
      "Ġï¿½ï¿½ï¿½ï¿½ï¿½ï¿½ï¿½ï¿½ï¿½ï¿½.": 7380,
      "ĠÙĨÛĮÙĨ": 7381,
      "RÂµS": 7382,
      "YS": 7383,
      "à·": 7384,
      "ĠRIS": 7385,
      "Ġmg": 7386,
      "ĠPaul": 7387,
      "Ø§Ø±Ùī": 7388,
      "ĠÙģÙĨØ§ÙĪØ±ÛĮ": 7389,
      "Ġï¿½ï¿½ï¿½ï¿½ï¿½ï¿½ï¿½ï¿½ï¿½:": 7390,
      "kl": 7391,
      "pc": 7392,
      "393": 7393,
      "ãĥĪ": 7394,
      "853": 7395,
      "ĠÙĨÛĮØ´Øª": 7396,
      "urrent": 7397,
      "ĠMicrosoft": 7398,
      "xi": 7399,
      "ĠØ¨Ø¯ÙĪÙĨ": 7400,
      "Tub": 7401,
      "Ġxyuam": 7402,
      "Shan": 7403,
      "544": 7404,
      "ĠÙ¾ÛİÙĪÛĮØ³ØªÙĩ": 7405,
      "1126": 7406,
      "768": 7407,
      "Dong": 7408,
      "tain": 7409,
      "Ġlwj": 7410,
      "Ġqhev": 7411,
      "Ġ[+": 7412,
      "Ð¨Ñ": 7413,
      "cuss": 7414,
      "ĠOEM": 7415,
      "ĠCheat": 7416,
      "1516": 7417,
      "Ø®ØªÛĮ": 7418,
      "ĠEp": 7419,
      "ĠØ§ÚĨ": 7420,
      "ĠÙħÙĪØ³": 7421,
      "________________": 7422,
      "Ø¨Úķ": 7423,
      "Ú¾": 7424,
      "ĠØ¹Ø§Ø´": 7425,
      "Ġ----": 7426,
      "ÙĨØ¯Ú¯ÛĮ": 7427,
      "Ġblog": 7428,
      "Ġxyeem": 7429,
      "AUM": 7430,
      "ĠØ¯Ø§Ø´": 7431,
      "uns": 7432,
      "ĠØ¨Ø±ÛĮ": 7433,
      "Ġ101": 7434,
      "523": 7435,
      "ĠTi": 7436,
      "ĠÚ¯Ø±ÙĨÚ¯": 7437,
      "ĠRB": 7438,
      "xb": 7439,
      "Ġgame": 7440,
      "Ġfiber": 7441,
      "chuav": 7442,
      "ĠWill": 7443,
      "ĠSpank": 7444,
      "824": 7445,
      "949": 7446,
      "ĠFB": 7447,
      "ĠEV": 7448,
      "Ú¯ÙĪ": 7449,
      "Yug": 7450,
      "inter": 7451,
      "ÃŁ": 7452,
      "ĠÚ©ÛĮÙģÛĮØª": 7453,
      "Ġtibneeg": 7454,
      "1600": 7455,
      "ĠState": 7456,
      "Ġstyle": 7457,
      "058": 7458,
      "NB": 7459,
      "eep": 7460,
      "RZ": 7461,
      "ĠRX": 7462,
      "ĠØ®ÛĮ": 7463,
      "ĠØªÙĪØ±Ú©": 7464,
      "565": 7465,
      "ĠPhone": 7466,
      "ĠLeg": 7467,
      "1739": 7468,
      "ĠLife": 7469,
      "5085": 7470,
      "722": 7471,
      "899": 7472,
      "Google": 7473,
      "IO": 7474,
      "ĠPRO": 7475,
      "Â£": 7476,
      "1222": 7477,
      "ĠZam": 7478,
      "ÛĮÙĨØ¯Ø§": 7479,
      "ÙĤÙĦ": 7480,
      "à¹Ī": 7481,
      "ĠBiography": 7482,
      "Ġnyuag": 7483,
      "034": 7484,
      "Ġ???": 7485,
      "4350": 7486,
      "Ġ195": 7487,
      "ĠÙĪÛķÚ©": 7488,
      "Ġfoom": 7489,
      "||": 7490,
      "ĠØ³ÙĪÙĪ": 7491,
      "ĠÙģÛĮØ´": 7492,
      "075": 7493,
      "ĠÙĩÙħÙĩ": 7494,
      "ĠSpankwire": 7495,
      "AUS": 7496,
      "txuj": 7497,
      "eaming": 7498,
      "840": 7499,
      "ooth": 7500,
      "ĠNK": 7501,
      "ĠDAB": 7502,
      "ĠØªÛķ": 7503,
      "ache": 7504,
      "ĠPhi": 7505,
      "ĠEXC": 7506,
      "Ġ---": 7507,
      "Ġsw": 7508,
      "hol": 7509,
      "dm": 7510,
      "Ġnpo": 7511,
      "ÙĬØ¯": 7512,
      "IG": 7513,
      "ĠSn": 7514,
      "582": 7515,
      "056": 7516,
      "uts": 7517,
      "ĠÙ¾ÛĮØ§Ùħ": 7518,
      "ĠCasino": 7519,
      "Mus": 7520,
      "kr": 7521,
      "ÙĩÛİ": 7522,
      "ĠAL": 7523,
      "ds": 7524,
      "ĠSAS": 7525,
      "ĠYud": 7526,
      "ĠSIAB": 7527,
      "ĠRGB": 7528,
      "à¸Ń": 7529,
      "ability": 7530,
      "886": 7531,
      "7555": 7532,
      "ĠZhongShan": 7533,
      "Ġnplej": 7534,
      "Ø±ÚĨØ§ÙĪÙĩ": 7535,
      "ĠGuangDong": 7536,
      "ĠÚ©Ø§ØªÛİÚ©": 7537,
      "ĠKar": 7538,
      "!!!!": 7539,
      "Ġmelod": 7540,
      "otion": 7541,
      "ĠME": 7542,
      "871": 7543,
      "irtual": 7544,
      "ĠÐ¨ÐĦÐ¨": 7545,
      "Ø§ÙĨØ³": 7546,
      "amily": 7547,
      "ĠJack": 7548,
      "671": 7549,
      "ĠÙĦØ¨Ø§Ø³": 7550,
      "ĠÙħÛİÚĺÙĪÙĪ": 7551,
      "928": 7552,
      "Ð¨ÑĸÐ¨": 7553,
      "Ġ438": 7554,
      "Ġti": 7555,
      "Ġï¿½ï¿½ï¿½ï¿½ï¿½ï¿½ï¿½ï¿½ï¿½ï¿½ï¿½,": 7556,
      "ĠØ´ÙĩØ±ÛĮ": 7557,
      "enue": 7558,
      "Dr": 7559,
      "Ø§ÚµÙħ": 7560,
      "Ġsuas": 7561,
      "2428": 7562,
      "ØºØ¯Ø§": 7563,
      "Ù¾ÛİÛĮ": 7564,
      "ĠHaum": 7565,
      "Ġclass": 7566,
      "Û¸": 7567,
      "1444": 7568,
      "ÙĢÙĢÙĨ": 7569,
      "ever": 7570,
      "ĠâĢĿ": 7571,
      "ĠÙ¾Ø§ÛĮ": 7572,
      "Ù¾ÛĨ": 7573,
      "ĠTB": 7574,
      "1048": 7575,
      "izer": 7576,
      "ÙĨØ¯ÛĮÛĮÙĩ": 7577,
      "Ġsrc": 7578,
      "3232": 7579,
      "ĠØ¦Ø§Ø²Ø§Ø¯": 7580,
      "ĠØªÙĦÙģÙĨ": 7581,
      "728": 7582,
      "src": 7583,
      "ĠPas": 7584,
      "803": 7585,
      "HIA": 7586,
      "Ġ[+]": 7587,
      "1225": 7588,
      "ĠÙħØ®": 7589,
      "ĠMeskas": 7590,
      "074": 7591,
      "ĠCatholiqueMessages": 7592,
      "2269": 7593,
      "icks": 7594,
      "Ġvas": 7595,
      "RÐħRÑĳ": 7596,
      "ĠKe": 7597,
      "ĠPlayer": 7598,
      "ĠØ¯ÛĮÙĥÙĩ": 7599,
      "ÛķÚ©ÛķÛĮ": 7600,
      "ÙĨÙĪÙĪØ³": 7601,
      "ĠÙĨÛĮÙĩ": 7602,
      "Ġ/>": 7603,
      "ĠTshooj": 7604,
      "868": 7605,
      "ĠØ¯Ø§Ú¯ÛĮØ±": 7606,
      "ĠÚ©Ø±Ø¯Ùĩ": 7607,
      "ĠArab": 7608,
      "Ġtem": 7609,
      "ĠNtev": 7610,
      "ĠÙħÙĩÙĨØ¯": 7611,
      "uminium": 7612,
      "1189": 7613,
      "2500": 7614,
      "Ġqua": 7615,
      "thony": 7616,
      "ĠÙģÙĪÙĦ": 7617,
      "itcoin": 7618,
      "KB": 7619,
      "Ġnyuab": 7620,
      "Ġ320": 7621,
      "ÙĦÛĮØº": 7622,
      "Ġmusicas": 7623,
      "ÙĪØ§Ø¯": 7624,
      "292": 7625,
      "Ġmelodias": 7626,
      "ĠNqi": 7627,
      "Ġmelodiasas": 7628,
      "ĠWi": 7629,
      "ĠSign": 7630,
      "Ġapk": 7631,
      "Wolf": 7632,
      "ØªØ§ÛĮØ¨Ùĩ": 7633,
      "Ġnam": 7634,
      "ĠØ¯Ø§Ùħ": 7635,
      "Ø³ØªØ§ÙĨÙĩ": 7636,
      "Km": 7637,
      "uer": 7638,
      "Ġsupport": 7639,
      "ĠSpr": 7640,
      "3319": 7641,
      "ÙĪØ´Ùĩ": 7642,
      "717": 7643,
      "ĠCAI": 7644,
      "title": 7645,
      "Ø±Ø§ÙĨÙĩ": 7646,
      "Ġyears": 7647,
      "ĠTxuj": 7648,
      "ĠÙĦÛİØ±Ùĩ": 7649,
      "4443": 7650,
      "Ġpliag": 7651,
      "ĠÐ¾": 7652,
      "Ø±ÙħØ§ÛĮÙĩ": 7653,
      "ĠTxhob": 7654,
      "ĠTuag": 7655,
      "Ġkhuv": 7656,
      "music": 7657,
      "irus": 7658,
      "ĠPOS": 7659,
      "ÙĨØ¬ÛĮ": 7660,
      "ĠØ§Ø±Ø³Ø§ÙĦ": 7661,
      "phone": 7662,
      "Ú¯Ø±ÙĨ": 7663,
      "ĠProduct": 7664,
      "ĠÙĨØ§Ú©": 7665,
      "ĠÚ¯ÛĨØ±": 7666,
      "Ġwho": 7667,
      "Ġsil": 7668,
      "1110": 7669,
      "urity": 7670,
      "ØªÛĮÛĮ": 7671,
      "FM": 7672,
      "1677": 7673,
      "ĠCel": 7674,
      "898": 7675,
      "evelop": 7676,
      "ĠÚĺÙĨØ§ÙĨ": 7677,
      "%)": 7678,
      "ĠDB": 7679,
      "Ġbackup": 7680,
      "ĠQib": 7681,
      "ĠØ´ÙĨØ¨Ùĩ": 7682,
      "598": 7683,
      "Ġkiv": 7684,
      "ĠÙĪØ§ØªÙĩ": 7685,
      "DT": 7686,
      "ÙĩÛİØ²": 7687,
      "etting": 7688,
      "ĠØ³Ù¾": 7689,
      "ÛĨÚµÛĮ": 7690,
      "3915": 7691,
      "ĠØ¸": 7692,
      "ĠAt": 7693,
      "ĠXY": 7694,
      "ĠØ§ÛĮÙĦÙĩ": 7695,
      "MX": 7696,
      "ĠÙĦÛķØ³ÛķØ±": 7697,
      "Ġsite": 7698,
      "ĠLevel": 7699,
      "Ġlisht": 7700,
      "nesota": 7701,
      "602": 7702,
      "ĠØ®Ø¯Ùħ": 7703,
      "ĠMens": 7704,
      "orth": 7705,
      "2555": 7706,
      "767": 7707,
      "781": 7708,
      "ĠRÐİ": 7709,
      "JB": 7710,
      "6628": 7711,
      "ØµÛĮ": 7712,
      "ĠUnlim": 7713,
      "ĠÙĥØ§Ø±Ùĩ": 7714,
      "irls": 7715,
      "ĠÙĪØ§Øª": 7716,
      "\"]": 7717,
      "972": 7718,
      "533": 7719,
      "815": 7720,
      "----------": 7721,
      "961": 7722,
      "2569": 7723,
      "ÚµÙĥ": 7724,
      "Ġsol": 7725,
      "ÙĦÛĮØª": 7726,
      "anda": 7727,
      "ept": 7728,
      "gn": 7729,
      "ĠPat": 7730,
      "041": 7731,
      "ĠÙ¾ÙĦØ§Ø³": 7732,
      "ĠØ´ÙĪÛİÙĨ": 7733,
      "ĠOP": 7734,
      "ĠØ«Ø¨Øª": 7735,
      "ĠØ®Ø²ÙħÙĩ": 7736,
      "Ú¯ÛķÛĮ": 7737,
      "iginal": 7738,
      "032": 7739,
      "ĠØ¬ÛĮÙĩØ§ÙĨ": 7740,
      "des": 7741,
      "aining": 7742,
      "ĠChiv": 7743,
      "4433": 7744,
      "ÙĤØª": 7745,
      "ĠÙĥÛİØ´Ùĩ": 7746,
      "vo": 7747,
      "ĠHNUB": 7748,
      "Ø´Ø±": 7749,
      "ĠØ¯Ø§ÙĪØ§ÛĮ": 7750,
      "ENT": 7751,
      "onic": 7752,
      "ĠMA": 7753,
      "ĠRa": 7754,
      "ØŃÙħÙĩ": 7755,
      "Ġcode": 7756,
      "Ø´ÛİÙĪÙĩ": 7757,
      "ÙĪÙĦÙĪÚĺÛĮ": 7758,
      "Ġvoj": 7759,
      "ĠHnab": 7760,
      "Ø¯ÛĮÙĨ": 7761,
      "ĠLove": 7762,
      "ĠAcc": 7763,
      "ĠDo": 7764,
      "ident": 7765,
      "HC": 7766,
      "RyeS": 7767,
      "ĠHomes": 7768,
      "met": 7769,
      "ĠIST": 7770,
      "ĠKhaub": 7771,
      "Time": 7772,
      "6878": 7773,
      "ĠReview": 7774,
      "iya": 7775,
      "NO": 7776,
      "hoodie": 7777,
      "1622": 7778,
      "ĠÙĪÚµØ§ØªÙĩ": 7779,
      "FD": 7780,
      "azon": 7781,
      "PR": 7782,
      "604": 7783,
      "itr": 7784,
      "ĠGuests": 7785,
      "Ġvinaphone": 7786,
      "ĠPa": 7787,
      "2829": 7788,
      "ĠShop": 7789,
      "081": 7790,
      "Ø§Ø¯Ø±": 7791,
      "ĠRoy": 7792,
      "Ġba": 7793,
      "zoonraug": 7794,
      "par": 7795,
      "673": 7796,
      "Ġlaser": 7797,
      "Îķ": 7798,
      "ÙħÙĪÙĪÙĨÙĩ": 7799,
      "IQ": 7800,
      "ĠÙħØµ": 7801,
      "ĠBuy": 7802,
      "ele": 7803,
      "ĠKhetos": 7804,
      "ÙĪØ²Ùĩ": 7805,
      "ĠØ¦Ø§Ø¨ÙĪÙĪØ±ÛĮ": 7806,
      "836": 7807,
      "Ġint": 7808,
      "ĠÛ°": 7809,
      "Ġcap": 7810,
      "ÙĤÛĮÙħ": 7811,
      "led": 7812,
      "trike": 7813,
      "ĠSMS": 7814,
      "æľĪ": 7815,
      ".......": 7816,
      "''": 7817,
      "ĠØ¯Ø³ØªÙĩ": 7818,
      "036": 7819,
      "7904": 7820,
      "ĠÚķÛĨÚĺÛĮ": 7821,
      "3026": 7822,
      "ified": 7823,
      "Cloud": 7824,
      "ĠLom": 7825,
      "ĠÙĪÙĦ": 7826,
      "à¸ĩ": 7827,
      "ĠØªÙĪÙĦÛĮØ¯": 7828,
      "ĠMia": 7829,
      "ati": 7830,
      "Ø³ÙĪÙĨ": 7831,
      "ĠÙĨØ§ØªÙĪØ§ÙĨ": 7832,
      "ĠØ¬ÛĮØ§ÙĪØ§Ø²": 7833,
      "ÚĺÙħ": 7834,
      "ento": 7835,
      "738": 7836,
      "ĠLEEJ": 7837,
      "ĠScreen": 7838,
      "alis": 7839,
      "920": 7840,
      "ĠØ¨Ø§ÙĪÙĩ": 7841,
      "go": 7842,
      "yuav": 7843,
      "ili": 7844,
      "ĠØ·Ø±Ø§ØŃÛĮ": 7845,
      "Ġrem": 7846,
      "ĠMT": 7847,
      "1433": 7848,
      "6077": 7849,
      "ĠÙĦÛķÚ¯ÛķÚµ": 7850,
      "Ġfeb": 7851,
      "3728": 7852,
      "Ġ2001": 7853,
      "Ø§ÙĨØ¯ÙĨÛĮ": 7854,
      "colate": 7855,
      "3529": 7856,
      "aya": 7857,
      "Ú¯Ø±ÛİØª": 7858,
      "BE": 7859,
      "ĠTubeWolf": 7860,
      "ĠÙ¾Ø§ÙĪ": 7861,
      "ĠCNC": 7862,
      "povtxuj": 7863,
      "ĠØªÛİÚ©": 7864,
      "541": 7865,
      "illa": 7866,
      "Ø³Ø§ÙĨÙĩ": 7867,
      "061": 7868,
      "ML": 7869,
      "1113": 7870,
      "ĠUnlimited": 7871,
      "Free": 7872,
      "ored": 7873,
      "ĠBen": 7874,
      "4916": 7875,
      "ĠPCB": 7876,
      "ĠØªÙĪÙĨØ¯": 7877,
      "ĠØŁ": 7878,
      "Ġmp": 7879,
      "ĠEr": 7880,
      "pson": 7881,
      "ĠBel": 7882,
      "achine": 7883,
      "Ø±ÛİÙĨ": 7884,
      "ĠSony": 7885,
      "osh": 7886,
      "Ġdet": 7887,
      "783": 7888,
      "ĠØ¯Ø§ÙĪÙĩ": 7889,
      "ĠHAIS": 7890,
      "ĠÙħÛĮØ±": 7891,
      "ĠIsland": 7892,
      "553": 7893,
      "Ð°ÑĢ": 7894,
      "ross": 7895,
      "Ġsec": 7896,
      "leej": 7897,
      "Ġ433": 7898,
      "AUJ": 7899,
      "ÛķØ¨": 7900,
      "ÛķÚ©ÛĮ": 7901,
      "ĠRub": 7902,
      "098": 7903,
      "vs": 7904,
      "Ġpc": 7905,
      "ÙĪÛĮØ´": 7906,
      "PN": 7907,
      "980": 7908,
      "idg": 7909,
      "ÐµÐ½ÑĮ": 7910,
      "ĠVegas": 7911,
      "Ġ388": 7912,
      "Ø±ÛĮØ´": 7913,
      "Ġ122": 7914,
      "ender": 7915,
      "0017": 7916,
      "Ġntub": 7917,
      "\":[": 7918,
      "4827": 7919,
      "Ġyaam": 7920,
      "No": 7921,
      "ÙĪØ§Ø±ÛĮ": 7922,
      "ivate": 7923,
      "Hnub": 7924,
      "ÙĩØ§Øª": 7925,
      "ĠØŃØ³ÛĮÙĨ": 7926,
      "ĠTsoom": 7927,
      "ĠMO": 7928,
      "ĠRog": 7929,
      "0055": 7930,
      "KE": 7931,
      "Ġdib": 7932,
      "571": 7933,
      "KS": 7934,
      "ects": 7935,
      "ĠØ§Ø³ØªØ®Ø¯Ø§Ùħ": 7936,
      "ĠÙ¾ÛķØ±": 7937,
      "ĠXam": 7938,
      "ÉĻr": 7939,
      ",(": 7940,
      "ÙĪÙĦÛİØ±": 7941,
      "Mas": 7942,
      "DC": 7943,
      "ĠÚ¯ÙĪÛİ": 7944,
      "ĠÙ¾ÛİÙĥÙĩ": 7945,
      "1817": 7946,
      "ĠÙĩÛķÙħÙĪÙĪ": 7947,
      "ÙĥØ±Ø§": 7948,
      "ĠÙħÙĩØ¯ÛĮ": 7949,
      "ĠEdition": 7950,
      "Ġswb": 7951,
      "ĠMau": 7952,
      "ĠMes": 7953,
      "1899": 7954,
      "ĠTxwv": 7955,
      "ÙħÙħÙĩ": 7956,
      "Ú©Ø±Ø§ØªÛĮ": 7957,
      "ĠØ¯Ø§ÙĨÛĮØ´Øª": 7958,
      "051": 7959,
      "ĠØ§ÙĦÚ©ØªØ±ÙĪÙĨÛĮ": 7960,
      "ario": 7961,
      "utter": 7962,
      "Ø±ÛĨÙĥÛĮ": 7963,
      "Ġæ": 7964,
      "ĠNext": 7965,
      "ĠMa": 7966,
      "Ġpool": 7967,
      "968": 7968,
      "istory": 7969,
      "6547": 7970,
      "Ġta": 7971,
      "Ġqaub": 7972,
      "ĠJames": 7973,
      "Ġbabe": 7974,
      "Ú¯Ø±ØªÙĨÛĮ": 7975,
      "LQ": 7976,
      "4895": 7977,
      "tery": 7978,
      "ĠÚ©Ø§Ø±Ø¨": 7979,
      "043": 7980,
      "516": 7981,
      "Ġxuas": 7982,
      "ĠØ§Ø¹": 7983,
      "Ġbox": 7984,
      "ÛķÙħÛķ": 7985,
      "ĠAmerica": 7986,
      "ĠÚ¯Ø¦": 7987,
      "ĠØ¨Ø±Ø¯": 7988,
      "ĠAk": 7989,
      "ĠMy": 7990,
      "fn": 7991,
      "ĠÚķÛİÙĥ": 7992,
      "Ġlej": 7993,
      "Ú©Ø±Ø§": 7994,
      "ÙģØ§Ø¯Ùĩ": 7995,
      "20170": 7996,
      "ĠØ±ÛİÙĥ": 7997,
      "Ġmult": 7998,
      "Ġthooj": 7999,
      "6844": 8000,
      "ĠOver": 8001,
      "Ġï¿½ï¿½ï¿½ï¿½:": 8002,
      "ĠSoc": 8003,
      "Ø®ÛĨÛĮ": 8004,
      "SX": 8005,
      "Ġqeeb": 8006,
      "ĠCheeb": 8007,
      "Ġ672": 8008,
      "room": 8009,
      "ĠTM": 8010,
      "ĠThiaj": 8011,
      "ÙģÙĨØ¯": 8012,
      "ickness": 8013,
      "LO": 8014,
      "ĠÙĩÛİØ´Øª": 8015,
      "atuit": 8016,
      "SÐĥSÐı": 8017,
      "ministration": 8018,
      "ÙĨØ¯ÛİÚ©": 8019,
      "ĠRailway": 8020,
      "2765": 8021,
      "arge": 8022,
      "7619": 8023,
      "search": 8024,
      "Ġcre": 8025,
      "895": 8026,
      "ĠKit": 8027,
      "Û¶": 8028,
      "Ġref": 8029,
      "ĠTubzoonraug": 8030,
      "Ø±Ø¨Ø§Ø²ÛĮ": 8031,
      "ington": 8032,
      "ĠÙĤÛĨÙĨ": 8033,
      "tic": 8034,
      "Ġwashington": 8035,
      "lu": 8036,
      "usion": 8037,
      "ura": 8038,
      "Ã±": 8039,
      "ĠTxiav": 8040,
      "ÙģØ±ÛĮ": 8041,
      "ĠHluas": 8042,
      "Ġspec": 8043,
      "ĠMini": 8044,
      "Ġnplhaib": 8045,
      "7779": 8046,
      "Ġkhav": 8047,
      "73399": 8048,
      "Ġ364": 8049,
      "731": 8050,
      "ĠSO": 8051,
      "741": 8052,
      "JG": 8053,
      "ĠNV": 8054,
      "ĠGA": 8055,
      "ÛĮÙĨØ¯Ùĩ": 8056,
      "vb": 8057,
      "1078": 8058,
      "ĠDim": 8059,
      "Ġberandal": 8060,
      "Tej": 8061,
      "ÙĨÙģ": 8062,
      "1515": 8063,
      "ĠØªØ¬": 8064,
      "ĠØ±Ø²": 8065,
      "à¸ģ": 8066,
      "Ú©Ø±ÛĮ": 8067,
      "ÙĨÛķ": 8068,
      "ĠDep": 8069,
      "Saib": 8070,
      "ÎĿ": 8071,
      "Ġlawd": 8072,
      "071": 8073,
      "ØºØ§ÙĨ": 8074,
      "Ð¨ÐĬ": 8075,
      "ÙĩÛĮ": 8076,
      "his": 8077,
      "Ġ109": 8078,
      "ĠFiber": 8079,
      "Ġï¿½ï¿½.": 8080,
      "ĠÙĨÙĪÛİÙĨÙĩ": 8081,
      "Tshia": 8082,
      "light": 8083,
      "Ġdec": 8084,
      "ĠØ´ÛĨÚķØ´": 8085,
      "hee": 8086,
      "047": 8087,
      "Ø¨Ø§ÛĮ": 8088,
      "4975": 8089,
      "ĠØªÙĪØ³Ø·": 8090,
      "514": 8091,
      "Am": 8092,
      "1835": 8093,
      "ĠFound": 8094,
      "6069": 8095,
      "utor": 8096,
      "Ġaws": 8097,
      "ĠCeev": 8098,
      "ĠMinnesota": 8099,
      "ÛĨØªÙĩ": 8100,
      "1090": 8101,
      "Ġform": 8102,
      "Ø±ÛİØªÙĩ": 8103,
      "ĠLav": 8104,
      "ĠØ¬ÙĪØ§ÙĨ": 8105,
      "ĠÙĨÙħ": 8106,
      "GP": 8107,
      "Ð¨ÐĩÐ©": 8108,
      "ume": 8109,
      "oster": 8110,
      "ilar": 8111,
      "Ġfeature": 8112,
      "ĠShoes": 8113,
      "944": 8114,
      "GN": 8115,
      "ĠØ¨ÙĢ": 8116,
      "-Â®": 8117,
      "877": 8118,
      "ĠNas": 8119,
      "agTshia": 8120,
      "Ġfull": 8121,
      "ĠShen": 8122,
      "Ú¤ÛĮ": 8123,
      "XC": 8124,
      "ĠRaug": 8125,
      "ĠSur": 8126,
      "ĠÙĤÙĪØª": 8127,
      "ĠØ¢Ø®Ø±ÛĮÙĨ": 8128,
      "ĠLee": 8129,
      ".âĢĻ": 8130,
      "ĠØ§Ø¤": 8131,
      "ĠÐ©ÐĥÐ©Ðī": 8132,
      "iness": 8133,
      "1119": 8134,
      "å¹": 8135,
      "ĠPawg": 8136,
      "1513": 8137,
      "ova": 8138,
      "903": 8139,
      "Ġxyov": 8140,
      "ĠMount": 8141,
      "bad": 8142,
      "ĠØ¦ÛİØ³Øª": 8143,
      "Ø±ÚĺÙĩ": 8144,
      "ØªÙħØ§": 8145,
      "bi": 8146,
      "ums": 8147,
      "Ġsch": 8148,
      "Ø§Ø¨ÙĦ": 8149,
      "ĠNEW": 8150,
      "App": 8151,
      "ĠØ¹ÛĮØ±Ø§ÙĤ": 8152,
      "ĠRW": 8153,
      "ÙĦÛĮØ³": 8154,
      "ished": 8155,
      "6868": 8156,
      "Ø±ÙģÙĩ": 8157,
      "ĠCirc": 8158,
      "ĠÙ¾ÛİÚ©Ùĩ": 8159,
      "Ù¾ÛİØ´": 8160,
      "ĠØ¦Ø§Ú¯Ø§Ø¯": 8161,
      "891": 8162,
      "Ø®ØªØ±": 8163,
      "ÚķÙĪÙĪ": 8164,
      "ĠSheet": 8165,
      "ĠÙħØ³ØªÙĤÛĮÙħ": 8166,
      "6622": 8167,
      "unette": 8168,
      "Ġ102": 8169,
      "ĠSS": 8170,
      "Ø²ÙĨ": 8171,
      "ĠURL": 8172,
      "iforn": 8173,
      "vc": 8174,
      "]/": 8175,
      "ĠLAL": 8176,
      "18625": 8177,
      "851": 8178,
      "973855": 8179,
      "Ġhov": 8180,
      "ÙĴ": 8181,
      "ĠØ¯ÛĮÙĨ": 8182,
      "4064": 8183,
      "shan": 8184,
      "875": 8185,
      "Ġabout": 8186,
      "Ġcuav": 8187,
      "ÙĬØ±": 8188,
      "Ú©Ø§ÙĨÙī": 8189,
      "579": 8190,
      "Ġour": 8191,
      "nike": 8192,
      "ÙĪÙĥ": 8193,
      "Ġ350": 8194,
      "Ġnpua": 8195,
      "Cia": 8196,
      "ĠMont": 8197,
      "zhou": 8198,
      "ĠØ§Ø¤Ø²": 8199,
      "Ġ:âĢ¬": 8200,
      "ĠØ®ÛĨÙħ": 8201,
      "Thov": 8202,
      "dh": 8203,
      "1528": 8204,
      "ĠMloog": 8205,
      "Ø§Ø±Ûķ": 8206,
      "Co": 8207,
      "ĠKO": 8208,
      "ĠÚĨÙĩØ§Ø±": 8209,
      "ger": 8210,
      "Ġ1440": 8211,
      "3714": 8212,
      "ĠTshuag": 8213,
      "ĠØ°": 8214,
      "Ú¯ÛķØ±": 8215,
      "LED": 8216,
      "ĠBh": 8217,
      "Ġcomm": 8218,
      "ĠCre": 8219,
      "ĠØ¦Ø§ÛĮØ§": 8220,
      "ga": 8221,
      "DS": 8222,
      "Äĥ": 8223,
      "Np": 8224,
      "ĠMug": 8225,
      "ĠMicro": 8226,
      "ĠÚ©Ø±ÛİÚ©": 8227,
      "1978": 8228,
      "1175": 8229,
      "545": 8230,
      "3016": 8231,
      "Txhob": 8232,
      "Ġrhaub": 8233,
      "ĠØ¯ÙĪØ§ØªØ±": 8234,
      "Ġ256": 8235,
      "ifornia": 8236,
      "0013": 8237,
      "ĠQee": 8238,
      "ĠÙħØ§Ø´": 8239,
      "ĠÙħØ¯Ø§Ø±": 8240,
      "muaj": 8241,
      "ĠUAE": 8242,
      "formation": 8243,
      "apiens": 8244,
      "ÒĲ": 8245,
      "ocation": 8246,
      "844": 8247,
      "Ġtshaib": 8248,
      "porno": 8249,
      "eff": 8250,
      "Ġhaj": 8251,
      "ĠMOV": 8252,
      "ĠLed": 8253,
      "4993": 8254,
      "aka": 8255,
      "GHz": 8256,
      "ĠÙħØŃÙĩ": 8257,
      "Ġè": 8258,
      "Ġnrug": 8259,
      "6814": 8260,
      "ĠPal": 8261,
      "ĠLin": 8262,
      "548": 8263,
      "BX": 8264,
      "fwv": 8265,
      "ĠØ¨ÛĮÙħ": 8266,
      "ĠWest": 8267,
      "ental": 8268,
      "pur": 8269,
      "Ã¥": 8270,
      "1713": 8271,
      "wa": 8272,
      "ĠCode": 8273,
      "Ġ029": 8274,
      "ÚµÛİÙĨ": 8275,
      "Ø±Ø§ÙĤÛĮ": 8276,
      "Ġdeleted": 8277,
      "ĠNd": 8278,
      "ĠØ¦ÛĮØ³": 8279,
      "1997": 8280,
      "ĠAVI": 8281,
      "4978": 8282,
      "ĠIT": 8283,
      "567": 8284,
      "ÙĢÙħ": 8285,
      "3044": 8286,
      "Ġsapiens": 8287,
      "ants": 8288,
      "ĠThaj": 8289,
      "ĠTXOJ": 8290,
      "ella": 8291,
      "IX": 8292,
      "tshiab": 8293,
      "ĠCi": 8294,
      "2216": 8295,
      "ĠFil": 8296,
      "ĠØ®Ø§": 8297,
      "ĠQAD": 8298,
      "ĠInst": 8299,
      "ÎŁÎ£": 8300,
      "Ø´Ø¯": 8301,
      "Ù¾ÛĮØ´": 8302,
      "Ġ104": 8303,
      "Ġxuab": 8304,
      "ĠOut": 8305,
      "ford": 8306,
      "ÙĪÙĪÙĨÙĩ": 8307,
      "UP": 8308,
      "nws": 8309,
      "Ġyom": 8310,
      "6566": 8311,
      "iqdb": 8312,
      "iron": 8313,
      "ÐµÐ´": 8314,
      "Ã¨": 8315,
      "Ġone": 8316,
      "ĠYork": 8317,
      "3477": 8318,
      "Ġtshab": 8319,
      "892": 8320,
      "ĠFlor": 8321,
      "749": 8322,
      "ĠØ´ÛĮØ±": 8323,
      "ĠMaj": 8324,
      "arma": 8325,
      "ĠSunporno": 8326,
      "3023": 8327,
      "ï¿½ï¿½ï¿½ï¿½ï¿½ï¿½ï¿½ï¿½ï¿½ï¿½ï¿½": 8328,
      "Ġnpoo": 8329,
      "ĠServer": 8330,
      "ĠØ§ÙħÛĮØ±": 8331,
      "KM": 8332,
      "edic": 8333,
      "Ġnuav": 8334,
      "Ġnpawb": 8335,
      "ĠÙ¾Ø±ÙĪÚĺÙĩ": 8336,
      "Ø§ÙĬ": 8337,
      "1016": 8338,
      "ĠØ¹Ú©Ø³": 8339,
      "ancer": 8340,
      "ĠRH": 8341,
      "KH": 8342,
      "Ġhunter": 8343,
      "3815": 8344,
      "actory": 8345,
      "ĠÙħØ´ÙĩØ¯": 8346,
      "Ġmiles": 8347,
      "ÙĦØ§Ú¯": 8348,
      "ĠSmart": 8349,
      "Sauce": 8350,
      "entral": 8351,
      "ĠLais": 8352,
      "ĠVang": 8353,
      "Ġsa": 8354,
      "ecision": 8355,
      "erB": 8356,
      "9745": 8357,
      "ÛİÚĺÙĩ": 8358,
      "KA": 8359,
      "áĢ": 8360,
      "4010": 8361,
      "ĠJizz": 8362,
      "ulation": 8363,
      "3955": 8364,
      "rees": 8365,
      "Ú¯Ø§ÙĨÙĩ": 8366,
      "ÙĪØªÙĨÛĮ": 8367,
      "ovie": 8368,
      "ĠLead": 8369,
      "ĠØ¹Ø¨": 8370,
      "Ġncuab": 8371,
      "Ø§ÙĩÛĮ": 8372,
      "ãĥĥ": 8373,
      "txib": 8374,
      "0028": 8375,
      "ature": 8376,
      "3500": 8377,
      "iki": 8378,
      "ming": 8379,
      "ĠØ¦ÛĮØ¯": 8380,
      "ĠØªÙĨ": 8381,
      "ĠRM": 8382,
      "1650": 8383,
      "Fi": 8384,
      "Ø³ØªÙĨ": 8385,
      "elcome": 8386,
      "CV": 8387,
      "Ġtshooj": 8388,
      "ĠÙħÛİÚĺÙĪÙĪÛĮ": 8389,
      "Ġago": 8390,
      "ĠBand": 8391,
      "031": 8392,
      "ĠLS": 8393,
      "ĠFOR": 8394,
      "Ġdep": 8395,
      "9918": 8396,
      "unity": 8397,
      "OOJ": 8398,
      "ĠØ¦ÛĮÙħ": 8399,
      "Ġengine": 8400,
      "ï¿½.": 8401,
      "...!": 8402,
      "ĠØ§Ø³ØªØ§ÙĨ": 8403,
      "ĠYawg": 8404,
      "1015": 8405,
      "RÑķRiRÑķ": 8406,
      "Ġhardcore": 8407,
      "ĠSoftware": 8408,
      "2722": 8409,
      "Ġ170": 8410,
      "iger": 8411,
      "ĠNpaj": 8412,
      "552": 8413,
      "ĠâĦ": 8414,
      "ÙĥÛİÙĥ": 8415,
      "oto": 8416,
      "ĠTxhim": 8417,
      ")....": 8418,
      "Û³": 8419,
      "Ġcons": 8420,
      "ami": 8421,
      "ĠLWW": 8422,
      "Ġgu": 8423,
      "ÛİÚ©Ùī": 8424,
      "ĠÙ¾Ø§Ø±Ø§Ø³Øª": 8425,
      "Xy": 8426,
      "ĠØªÙĪØ§ÙĨÛĮ": 8427,
      "3333": 8428,
      "ĠContin": 8429,
      "iant": 8430,
      "ĠColor": 8431,
      "1678": 8432,
      "CX": 8433,
      "UT": 8434,
      "1128": 8435,
      "LD": 8436,
      "vd": 8437,
      "ĠÚ©Ø±Ø¯ÙĪÙĪÙĩ": 8438,
      "1995": 8439,
      "Ġxab": 8440,
      "ĠLink": 8441,
      "ĠØ±ÙĪØ´": 8442,
      "Ġfac": 8443,
      "ATT": 8444,
      "Ġport": 8445,
      "1218": 8446,
      "ĠPrinting": 8447,
      "Û·": 8448,
      "ĠØªØ§Ø²Ùĩ": 8449,
      "ĠÙ¾Ø±Ø³": 8450,
      "adow": 8451,
      "924": 8452,
      "ĠCev": 8453,
      "And": 8454,
      "ules": 8455,
      "ĠLiv": 8456,
      "ĠOrl": 8457,
      "ĠCourt": 8458,
      "Ġ480": 8459,
      "ĠCav": 8460,
      "2329": 8461,
      "4933": 8462,
      "ĠWhats": 8463,
      "COM": 8464,
      "Ø§ÙħØ§ÙĨ": 8465,
      "3717": 8466,
      "ÛİÙĥØ¯Ø§": 8467,
      "ixel": 8468,
      "823": 8469,
      "ĠKir": 8470,
      "rt": 8471,
      "QI": 8472,
      "ĠTxaus": 8473,
      "Ø¯ÛĮÙĪ": 8474,
      "ĠØ±ÛİÚ©": 8475,
      "ĠØ¯ÙĪØ´": 8476,
      "rl": 8477,
      "ĠØ¨ÙĢÙĩ": 8478,
      "ĠNroog": 8479,
      "Û±": 8480,
      "Ġ673": 8481,
      "Ġtest": 8482,
      "Ġ900": 8483,
      "ĠÙħØ¯ÛĮØ±ÛĮØª": 8484,
      "ĠØ¹Ûķ": 8485,
      "RÐħSÐı": 8486,
      "ĠLanguage": 8487,
      "ĠÙĪØ±": 8488,
      "ØµØ¨": 8489,
      "andard": 8490,
      "0087": 8491,
      "eder": 8492,
      "Ú©ÛĮÙĦ": 8493,
      "ĠNTX": 8494,
      "Ġka": 8495,
      "ĠTeev": 8496,
      "1525": 8497,
      "1025": 8498,
      "574": 8499,
      "ĠLatest": 8500,
      "Ñī": 8501,
      "ĠCab": 8502,
      "1549": 8503,
      "KY": 8504,
      "4769": 8505,
      "ĠNtxhais": 8506,
      "íķ": 8507,
      "442": 8508,
      "Ø±Ø§Ø²": 8509,
      "Ġlegends": 8510,
      "rar": 8511,
      "Ëļ": 8512,
      "2369": 8513,
      "ĠiCloud": 8514,
      "nch": 8515,
      "gs": 8516,
      "Ġec": 8517,
      "Ø´Ø¨": 8518,
      "âĶ": 8519,
      "avy": 8520,
      "ĠÚ©ÛĮØ´": 8521,
      "Ġfound": 8522,
      "Ð¾ÑĢ": 8523,
      "Ġ430": 8524,
      "RgR": 8525,
      "1109": 8526,
      "Ġ434": 8527,
      "572": 8528,
      "2719": 8529,
      "Siab": 8530,
      "ĠÙĨØ³": 8531,
      "ÙĬÙĦ": 8532,
      "ĠMore": 8533,
      "ĠNtsuab": 8534,
      "Ġins": 8535,
      "Ø±ÛĮÙĩ": 8536,
      "643": 8537,
      "istan": 8538,
      "ĠØ¦ÛķÙĪÛķÛĮ": 8539,
      "Ġregistered": 8540,
      "gh": 8541,
      "Ġposts": 8542,
      "ĠÙ¾ÙĨØ¬": 8543,
      "ension": 8544,
      "bab": 8545,
      "ĠPassenger": 8546,
      "975": 8547,
      "sia": 8548,
      "....(": 8549,
      "ĠWsh": 8550,
      "ĠØŃÛĮ": 8551,
      "ĠRem": 8552,
      "ĠAfr": 8553,
      "ĠGall": 8554,
      "ĠVajlus": 8555,
      "Ġlaro": 8556,
      "Ġox": 8557,
      "Ġzom": 8558,
      "3816": 8559,
      "htub": 8560,
      "Ġshirt": 8561,
      "ØªØ±Ø³ÛĮ": 8562,
      "ĠWorld": 8563,
      "ĠCL": 8564,
      "Ø´Ø¯Ø§Ø±": 8565,
      "ÙħÙĪÙĨÙĩ": 8566,
      "1866": 8567,
      "IE": 8568,
      "âĻ": 8569,
      "Ġdef": 8570,
      "ĠRi": 8571,
      "inger": 8572,
      "news": 8573,
      "724": 8574,
      "ĠTsib": 8575,
      "4216": 8576,
      "ÙĦÛĮÙĦ": 8577,
      "star": 8578,
      "ĠPrevious": 8579,
      "ĠTR": 8580,
      "ouch": 8581,
      "KO": 8582,
      "yam": 8583,
      "Ú©ÙĪÙħÙĩ": 8584,
      "cart": 8585,
      "ĠRock": 8586,
      "872": 8587,
      "ÙĨØ¬Ø§": 8588,
      "Ġwatch": 8589,
      "></": 8590,
      "FR": 8591,
      "ni": 8592,
      "7744": 8593,
      "laug": 8594,
      "2670": 8595,
      "Ġriam": 8596,
      "Marcus": 8597,
      "ĠÙ¾Ø²": 8598,
      "ĺħ": 8599,
      "Ú©Ø§ÙĨØ¯Ø§": 8600,
      "ØµÙĦ": 8601,
      "ILES": 8602,
      "SÐĤS": 8603,
      "ĠNAB": 8604,
      "ĠÙĨÙħÛĮ": 8605,
      "CS": 8606,
      "©Ù": 8607,
      "Ġç": 8608,
      "ÙĥØ§Ø±Ùĩ": 8609,
      "PT": 8610,
      "ermal": 8611,
      "Ġdom": 8612,
      "ĠÛĮØ§Ø®": 8613,
      "ä¸Ń": 8614,
      "ĠChev": 8615,
      "4083": 8616,
      "094": 8617,
      "ĠJohnson": 8618,
      "!-!": 8619,
      "lay": 8620,
      "ĠÙħÛĮØ´": 8621,
      "ĠØ³Ø¹": 8622,
      "Ø®ÛĨØ´ÛĮ": 8623,
      "Ġ490": 8624,
      "ĠÙ¾Ø§Ø±Ùĩ": 8625,
      "Ġfwv": 8626,
      "ĠÚ©Ø§Ø±Øª": 8627,
      "Ġiphone": 8628,
      "1014": 8629,
      "ĠÚ¯Ø´Øª": 8630,
      "ĠNtsuas": 8631,
      "ĠWilliam": 8632,
      "Ġ956": 8633,
      "Ø²ÛĮÙĨ": 8634,
      "ĠPay": 8635,
      "Ø±ÛĮÛĮÙĩ": 8636,
      "lh": 8637,
      "ĠØªÚ©ÙĨ": 8638,
      "982": 8639,
      "1376": 8640,
      "ĠDhau": 8641,
      "Ġvar": 8642,
      "935": 8643,
      "astic": 8644,
      "Ú¤Ùĩ": 8645,
      "Ġpog": 8646,
      "ĠØ¯Ø§Ø¨Ùĩ": 8647,
      "ĠÛ¹Û": 8648,
      "ission": 8649,
      "GM": 8650,
      "ÙĥØ§ÙĨØ¯Ø§": 8651,
      "2930": 8652,
      "XY": 8653,
      "Ġep": 8654,
      "ĠØ¢Ø±": 8655,
      "ĠSale": 8656,
      "Ġ((": 8657,
      "3375": 8658,
      "Ġpo": 8659,
      "1326": 8660,
      "ĠSeason": 8661,
      "0016": 8662,
      "ĠYooj": 8663,
      "ĠØ²ÛĨØ±Ø¨Ùĩ": 8664,
      "ĠÐĲ": 8665,
      "FO": 8666,
      "xED": 8667,
      "Ġlot": 8668,
      "Ġ106": 8669,
      "Ø±Ø§Ú©": 8670,
      "azing": 8671,
      "ĠÙĪØ§ÛĮÙĩ": 8672,
      "Ġï¿½ï¿½ï¿½ï¿½ï¿½ï¿½ï¿½ï¿½ï¿½ï¿½ï¿½ï¿½ï¿½ï¿½ï¿½ï¿½ï¿½": 8673,
      "ALL": 8674,
      "ĠØ¨Ø³ØªÙĩ": 8675,
      "1745": 8676,
      "Ġpaid": 8677,
      "1388": 8678,
      "2221": 8679,
      "04196": 8680,
      "1869": 8681,
      "ĠTime": 8682,
      "ĠHou": 8683,
      "rec": 8684,
      "Ġkhawb": 8685,
      "ĠQHOV": 8686,
      "ĠØªÙĪØ±Ú©ÛĮØ§": 8687,
      "ĠCenter": 8688,
      "3528": 8689,
      "ĠTseg": 8690,
      "ĠØŃØ§": 8691,
      "7922": 8692,
      "ĠThoj": 8693,
      "fig": 8694,
      "Ø¨Ø§Ø´": 8695,
      "ĠAN": 8696,
      "ÙĦØ±ÛĮ": 8697,
      "ĠVaaj": 8698,
      "ÙĪÙĪÙĨÛĮ": 8699,
      "Ġro": 8700,
      "ĠÙ¾ÙĪ": 8701,
      "otify": 8702,
      "ĠÙ¾ÛķÛĮ": 8703,
      "1150": 8704,
      "1998": 8705,
      "1409": 8706,
      "ĠØ¨Ø±ÙĤ": 8707,
      "qab": 8708,
      "Ø³Ûķ": 8709,
      "58973855": 8710,
      "ÙĪØ±ÙĪÙ¾": 8711,
      "8275377": 8712,
      "443718625": 8713,
      "7679443718625": 8714,
      "589738558275377": 8715,
      "767944371862557": 8716,
      "ĠÛĮØ§Ø¯": 8717,
      "ulture": 8718,
      "bs": 8719,
      "abol": 8720,
      "Ġ310": 8721,
      "ĠÚ¯ÙĪØª": 8722,
      "ĠAsh": 8723,
      "ĠÙģØ±Ùĩ": 8724,
      "ondon": 8725,
      "Ġass": 8726,
      "ĠSW": 8727,
      "ÛķØªÛķÙĪÛķ": 8728,
      "eries": 8729,
      "1029": 8730,
      "laj": 8731,
      "Ġcop": 8732,
      "ĠØ¦ÛĮÙĨÚ¯": 8733,
      "ĠÙ¾Ø³Øª": 8734,
      "6664": 8735,
      "ĠRand": 8736,
      "7546": 8737,
      "ĠØ®ÙĪØ´": 8738,
      "Ġmicro": 8739,
      "DL": 8740,
      "Ġ155": 8741,
      "ĠÙ¾Ø§": 8742,
      "Ġnkaug": 8743,
      "ĠDelux": 8744,
      "âĢĮ)": 8745,
      "ĠNpuag": 8746,
      "ĠÙĦÙ¾": 8747,
      "2522": 8748,
      "ĠÙħØ·Ø§ÙĦ": 8749,
      "ÙĦØ§Ø±ÛĮ": 8750,
      "ĠVajntxwv": 8751,
      "ĀĀĀĀ": 8752,
      "lon": 8753,
      "Ø³Ø§Úµ": 8754,
      "193": 8755,
      "ĠCalled": 8756,
      "Ø³Ûİ": 8757,
      "ĠXib": 8758,
      "Professional": 8759,
      "rame": 8760,
      "Txiv": 8761,
      "---|---|": 8762,
      "Ġcat": 8763,
      "ÛķÛĮÛķÚ©ÛĮ": 8764,
      "Îļ": 8765,
      "5088": 8766,
      "595": 8767,
      "eon": 8768,
      "1258": 8769,
      "ĠØ¬Ú¯Ùĩ": 8770,
      "ĠÚ©ÛĨÙħÛķÚµ": 8771,
      "yp": 8772,
      "well": 8773,
      "iveaway": 8774,
      "0048": 8775,
      "Ġthim": 8776,
      "ĠØ¯ÙĨ": 8777,
      "Ġ0936": 8778,
      "unny": 8779,
      "Ġhaib": 8780,
      "plig": 8781,
      "Ġadd": 8782,
      "âĢĮ\"": 8783,
      "ĠBR": 8784,
      "3415": 8785,
      "592": 8786,
      "NV": 8787,
      "Ġclub": 8788,
      "977": 8789,
      "3618": 8790,
      "ĠØªØ±Ú©ÛĮ": 8791,
      "ĠÙ¾ÛİØ´ÙħÙĩ": 8792,
      "inton": 8793,
      "ustrial": 8794,
      "828": 8795,
      "ĠNone": 8796,
      "elo": 8797,
      "ĠTFT": 8798,
      "2299": 8799,
      "ĠÐ¨ÐģÐ¨": 8800,
      "ĠMachinery": 8801,
      "3027": 8802,
      "Ġflash": 8803,
      "1828": 8804,
      "Ø§ÛĮÙĨ": 8805,
      "ĠMotor": 8806,
      "ĠØ¨Ø§ÙĦ": 8807,
      "Ġ290": 8808,
      "6816": 8809,
      "ĠÚĨØ§ÙĪÙĩ": 8810,
      "Ġdesign": 8811,
      "ĠØ¦ÛĮØ³ÙĦØ§Ùħ": 8812,
      "ĠVajluskub": 8813,
      "utt": 8814,
      "6615": 8815,
      "3419": 8816,
      "Ġ750": 8817,
      "Ġ640": 8818,
      "Ġsaw": 8819,
      "Ð¾Ð±": 8820,
      "ĠDar": 8821,
      "Ð»Ð¸": 8822,
      "MOS": 8823,
      "qf": 8824,
      "945": 8825,
      "Ø§ÛĮÛĮÙĩ": 8826,
      "1407": 8827,
      "ĠNtej": 8828,
      "à¸Ĺ": 8829,
      "Ø¬ÙĩÛĮØ²": 8830,
      "trib": 8831,
      "Ġtitanium": 8832,
      "Ġ144": 8833,
      "ECB": 8834,
      "Homo": 8835,
      "561": 8836,
      "Niam": 8837,
      "ĠHealth": 8838,
      "bp": 8839,
      "Ġthev": 8840,
      "5000": 8841,
      "link": 8842,
      "4817": 8843,
      "Ø±Ø¯Ø§ÙĨÛĮ": 8844,
      "ÛķØªÛķ": 8845,
      "?âĢĿ": 8846,
      "6055": 8847,
      "ante": 8848,
      "Ġtra": 8849,
      "Ġru": 8850,
      "ĠTXOG": 8851,
      "Kevin": 8852,
      "6767": 8853,
      "RÂµRÑĺ": 8854,
      "6345": 8855,
      "1799": 8856,
      "Vaj": 8857,
      "ÛĮØ§": 8858,
      "ĠSMILES": 8859,
      "ÙĪÛĮÙĩ": 8860,
      "Rau": 8861,
      "pok": 8862,
      "awn": 8863,
      "ĠHwm": 8864,
      "1438": 8865,
      "ĠÛĮØ§ÙĨÙĩ": 8866,
      "ĠØ§Ø±ØªØ¨Ø§Ø·Ø§Øª": 8867,
      "PB": 8868,
      "4045": 8869,
      "âĢĮâĢª.âĢ¬âĢ¬": 8870,
      "Ġtshirts": 8871,
      "HY": 8872,
      "6539": 8873,
      "3460": 8874,
      "3200": 8875,
      "CCB": 8876,
      "Ġntxhuav": 8877,
      "ÙĪØ§Ø¹": 8878,
      "ÙĦØ§ÛĮÙĨ": 8879,
      "Ġhand": 8880,
      "ĠSame": 8881,
      "2580": 8882,
      "ĠUta": 8883,
      "arger": 8884,
      "ector": 8885,
      "illion": 8886,
      "ĠTO": 8887,
      "0059": 8888,
      "ĠRFID": 8889,
      "ney": 8890,
      "1766": 8891,
      "Ġ(+": 8892,
      "ĠTshwj": 8893,
      "563": 8894,
      "ĠÙĨÙħÙĪÙĪÙĨÙĩ": 8895,
      "Ġproject": 8896,
      "ĠNot": 8897,
      "anb": 8898,
      "ĠÙĪÛĮØ±": 8899,
      "alian": 8900,
      "ĠFD": 8901,
      "2799": 8902,
      "ĠÐĳ": 8903,
      "Ġediting": 8904,
      "Ġï»¿": 8905,
      "Le": 8906,
      "ÏĢ": 8907,
      "ĠPheej": 8908,
      "MET": 8909,
      "Ø±ÛĮÚ©": 8910,
      "ĠØ¯ÙĪÙħ": 8911,
      "1935": 8912,
      "ĠAh": 8913,
      "ĠÚķÛĮ": 8914,
      "lass": 8915,
      "rw": 8916,
      "ĠEast": 8917,
      "ĠRL": 8918,
      "Ġmoney": 8919,
      "ĠØ´Ûķ": 8920,
      "ĠMekas": 8921,
      "xF": 8922,
      "TL": 8923,
      "Ġcal": 8924,
      "ela": 8925,
      "ĠPrem": 8926,
      "ĠUnt": 8927,
      "0726": 8928,
      "Ġpejxeem": 8929,
      "apanese": 8930,
      "à®": 8931,
      "1595": 8932,
      "Ġhuvsi": 8933,
      "ĠDigital": 8934,
      "ÙĨØ§ÙĪÛĮ": 8935,
      "ĠTunes": 8936,
      "ĠØ¨ÛĮØ´": 8937,
      "5077": 8938,
      "Ġgold": 8939,
      "Ġnrawm": 8940,
      "ĠNres": 8941,
      "042": 8942,
      "ret": 8943,
      "arz": 8944,
      "ĠNyuam": 8945,
      "046": 8946,
      "ĠFM": 8947,
      "2938": 8948,
      "4449": 8949,
      "4572": 8950,
      "1144": 8951,
      "ĠWashington": 8952,
      "Ú©ÙĪÙħ": 8953,
      "ĠPNR": 8954,
      "3644": 8955,
      "ahaha": 8956,
      "KI": 8957,
      "mi": 8958,
      "ĠØ¨ÛķÚµØ§Ùħ": 8959,
      "ators": 8960,
      "ras": 8961,
      "ĠAdd": 8962,
      "àº²": 8963,
      "4446": 8964,
      "ĠYug": 8965,
      "Ġâī": 8966,
      "Luag": 8967,
      "ĠHar": 8968,
      "ĠØ³ÙĢ": 8969,
      "1026": 8970,
      "RJ": 8971,
      "Ġpat": 8972,
      "ipp": 8973,
      "1023": 8974,
      "ĠTxawv": 8975,
      "Ġ1999": 8976,
      "3979": 8977,
      "Ġkhoob": 8978,
      "ĠLaser": 8979,
      "ĠTem": 8980,
      "ased": 8981,
      "à¹ī": 8982,
      "jackets": 8983,
      "Ġxauv": 8984,
      "media": 8985,
      "ĠÚ©Ø±Ùĩ": 8986,
      "ĠÙĤÛĨÙĨØ§Øº": 8987,
      "omot": 8988,
      "ĠØ¯Ø®ØªØ±": 8989,
      "Ġuse": 8990,
      "Â¹": 8991,
      "ĠØ´ÙĩØ±": 8992,
      "ĠÚ©Ø§Ú©": 8993,
      "ĠRead": 8994,
      "ĠOnly": 8995,
      "ĠSpecification": 8996,
      "cussion": 8997,
      "ĠPornerB": 8998,
      "Ġuser": 8999,
      "ĠPornerBros": 9000,
      "Ġname": 9001,
      "ĠKua": 9002,
      "à¸¡": 9003,
      "à¸µ": 9004,
      "Xv": 9005,
      "Ġcredit": 9006,
      "NAO": 9007,
      "813": 9008,
      "Ġexpor": 9009,
      "Ġetc": 9010,
      "itten": 9011,
      "ĠÙħØ¯Ø§": 9012,
      "ĠGraph": 9013,
      "ÙłÙ¡Ù": 9014,
      "919": 9015,
      "VB": 9016,
      "Ġinv": 9017,
      "Download": 9018,
      "tu": 9019,
      "Ð¼Ð°": 9020,
      "ombie": 9021,
      "ÎĹ": 9022,
      "ĠLev": 9023,
      "æĸĩ": 9024,
      "Ġlem": 9025,
      "Ġbat": 9026,
      "ĠØ¨Ø§Ø±Ùĩ": 9027,
      "0005": 9028,
      "xxxx": 9029,
      "Ġsuper": 9030,
      "Ġseeb": 9031,
      "Ġntxhi": 9032,
      "ging": 9033,
      "293": 9034,
      "PI": 9035,
      "ĠÐ¼": 9036,
      "ĠNcaws": 9037,
      "âĢ¢": 9038,
      "ago": 9039,
      "ĠØ³Ùģ": 9040,
      "Ġalbum": 9041,
      "45818": 9042,
      "4880": 9043,
      "Ġimport": 9044,
      "ĠãĤ": 9045,
      "Ġsaj": 9046,
      "Ġrad": 9047,
      "mark": 9048,
      "ĠNational": 9049,
      "bv": 9050,
      "Ed": 9051,
      "ĠDay": 9052,
      "nrho": 9053,
      "ahli": 9054,
      "Ġmiv": 9055,
      "Ġtabtom": 9056,
      "1170": 9057,
      "Ġvuam": 9058,
      "Ø§ÙĪÙĨ": 9059,
      "Ġnike": 9060,
      "ĠTaw": 9061,
      "ĠØ¨ØªÙĪØ§ÙĨ": 9062,
      "igger": 9063,
      "ĠØ¦ÛİÙĪÙĩ": 9064,
      "KG": 9065,
      "VE": 9066,
      "eme": 9067,
      "7755": 9068,
      "ĠTOS": 9069,
      "RMLS": 9070,
      "topic": 9071,
      "ÄŁ": 9072,
      "âĢİ": 9073,
      "ĠØ´Ú©": 9074,
      "ĠÚĨÛķÙĨØ¯": 9075,
      "597": 9076,
      "rid": 9077,
      "Ġê": 9078,
      "ANG": 9079,
      "evas": 9080,
      "iplus": 9081,
      "ÙħØ§ÙĦ": 9082,
      "4844": 9083,
      "ĠØ§ÙĪØ±": 9084,
      "586": 9085,
      "ĠSMD": 9086,
      "haus": 9087,
      "YB": 9088,
      "iche": 9089,
      "1112": 9090,
      "unge": 9091,
      "å¹´": 9092,
      "ĠÚ©ÙĨÙĨØ¯Ùĩ": 9093,
      "1378": 9094,
      "ĠÙĤØ±Ø§Ø±": 9095,
      "fin": 9096,
      "nk": 9097,
      "Î³": 9098,
      "onics": 9099,
      "ĠMat": 9100,
      "Ġvisits": 9101,
      "Ne": 9102,
      "ÙĥØª": 9103,
      "873": 9104,
      "TER": 9105,
      "âĢ¦âĢ¦âĢ¦âĢ¦âĢ¦âĢ¦âĢ¦âĢ¦": 9106,
      "ĠÚĨÙĪÙĨÚ©Ùĩ": 9107,
      "iqdbSauce": 9108,
      "ĠSameGoogle": 9109,
      "iqdbSauceNAO": 9110,
      "4828": 9111,
      "ĠÙĩÛķÙĪ": 9112,
      "1040": 9113,
      "ĠNow": 9114,
      "ĠLiaj": 9115,
      "Ġï¿½ï¿½,": 9116,
      "egory": 9117,
      "Nyiag": 9118,
      "ĠØ²ÛĮØ§Ø¯": 9119,
      "Cas": 9120,
      "ĠSen": 9121,
      "ĠVam": 9122,
      "Ø³Ø§Ø²ÛĮ": 9123,
      "2099": 9124,
      "Ġinstall": 9125,
      "Ú¯Ø±ØªÙĪÙĪÙĩ": 9126,
      "Î¥": 9127,
      "ĠÙħÙĦ": 9128,
      "56127": 9129,
      "ĠÙĥÙĪØ±Ø¯ÛĮ": 9130,
      "Ġdownloaded": 9131,
      "ĠPosts": 9132,
      "ÛĮÙĨØ¯": 9133,
      "ÚµÙĥÛĮ": 9134,
      "ĠDeluxe": 9135,
      "037": 9136,
      "ĠRÑŁ": 9137,
      "ĠØ±ÛĨÚĺÛĮ": 9138,
      "Ù¬": 9139,
      "ĠCATH": 9140,
      "1990": 9141,
      "thon": 9142,
      "ega": 9143,
      "download": 9144,
      "ĠÚ¯ÙĪØ´": 9145,
      "ĠØ¬ÙĪ": 9146,
      "????????????????????????????????": 9147,
      "giang": 9148,
      "egiveaway": 9149,
      "6277": 9150,
      "adstshirt": 9151,
      "adsjackets": 9152,
      "menow": 9153,
      "cartmenow": 9154,
      "pokegiveaway": 9155,
      "ahliqq": 9156,
      "giangiplus": 9157,
      "adsjacketswomens": 9158,
      "Ġrawv": 9159,
      "ĠGas": 9160,
      "ÙĨÚ¯Ø±Ùĩ": 9161,
      "Txawm": 9162,
      "088": 9163,
      "Ġ--------": 9164,
      "ĠDiamond": 9165,
      "097": 9166,
      "ables": 9167,
      "2905": 9168,
      "7845": 9169,
      "ense": 9170,
      "ture": 9171,
      "ĠBa": 9172,
      "ĠShenzhen": 9173,
      "ĠRN": 9174,
      "Ð¨ÑĸÐ©": 9175,
      "ĠSATA": 9176,
      "ĠLA": 9177,
      "734": 9178,
      "Ġnyom": 9179,
      "ĠCATHOL": 9180,
      "4899": 9181,
      "56086": 9182,
      "932": 9183,
      "ĠØ®ÛĨÙħØ§ÙĨ": 9184,
      "avor": 9185,
      "ĠBU": 9186,
      "ĠXeev": 9187,
      "Ú©ÙĪØ±Ø¯": 9188,
      "Ġbet": 9189,
      "lb": 9190,
      "Î¬": 9191,
      "Ú¯ÙĨ": 9192,
      "841": 9193,
      "ĠØ³ÛĮØ³ØªÙĩ": 9194,
      "Ġxibhwb": 9195,
      "Ø¬ÙĩÛĮØ²Ø§Øª": 9196,
      "Share": 9197,
      "ØªÙĪØ§ÙĨÛĮ": 9198,
      "SÐĥR": 9199,
      "ĠTunesGo": 9200,
      "ĠÙĪØ±Ø¯Ù¾Ø±Ø³": 9201,
      "ĠHel": 9202,
      "Ġvwm": 9203,
      "ials": 9204,
      "ful": 9205,
      "Ġraw": 9206,
      "ĠØ¹Ø§Ø´ÙĤ": 9207,
      "On": 9208,
      "ĠØ¯ÙĪØ±Ùĩ": 9209,
      "Administration": 9210,
      "Ġcod": 9211,
      "1066": 9212,
      "ĠÙĩÛķÛĮÛķ": 9213,
      "ĠÙĨØ§ÚĨ": 9214,
      "ÙĪØ§Úµ": 9215,
      "ÛİØ±Ùĩ": 9216,
      "1159": 9217,
      "ĠEy": 9218,
      "ĠØ¬ÛİØ¨Ùĩ": 9219,
      "ti": 9220,
      "Ġthere": 9221,
      "ONE": 9222,
      "ĠAlb": 9223,
      "547": 9224,
      "Paj": 9225,
      "ito": 9226,
      "FS": 9227,
      "ĠHard": 9228,
      "ĠÙĪØ´Ùĩ": 9229,
      "4600": 9230,
      "ĠMp": 9231,
      "6598": 9232,
      "ĠCE": 9233,
      "ĠSR": 9234,
      "ĠDa": 9235,
      "ĠÐ¸": 9236,
      "cons": 9237,
      "Ã®": 9238,
      "Ġpower": 9239,
      "ĠÙħØŃØ±Ùħ": 9240,
      "3595": 9241,
      "Ø±ÛĮÚ©Ø§": 9242,
      "ĠØ±ÙĨÚ¯": 9243,
      "Ù¾Ø§": 9244,
      "xis": 9245,
      "1969": 9246,
      "oda": 9247,
      "ĠÚ©Ø§ÙħÙĦ": 9248,
      "WD": 9249,
      "ÛİÚĺÛĮ": 9250,
      "ĠMi": 9251,
      "861": 9252,
      "ĠReading": 9253,
      "ĠØ¯ÛĮØ¯Ú¯Ø§Ùĩ": 9254,
      "Pol": 9255,
      "Ġ107": 9256,
      "1387": 9257,
      "ĠGame": 9258,
      "3377": 9259,
      "adem": 9260,
      "ĠTxhiaj": 9261,
      "Ġconverter": 9262,
      "ĠTattoo": 9263,
      "tainment": 9264,
      "3809": 9265,
      "Ø¢Ùħ": 9266,
      "ĠED": 9267,
      "ĠCalifornia": 9268,
      "8599": 9269,
      "ĠØªØŃÙĤÛĮÙĤ": 9270,
      "1100": 9271,
      "Ġnkeeg": 9272,
      "ĠOne": 9273,
      "ĠÙħØ§ÙĨÚ¯ÛĮ": 9274,
      "ÙĪØ§ÙĦ": 9275,
      "ĠØ¯ÛĮØ±": 9276,
      "Ø´ÛĮØ§ÙĨ": 9277,
      "ench": 9278,
      "Ġntsiag": 9279,
      "index": 9280,
      "BU": 9281,
      "ĠHam": 9282,
      "ĠFilm": 9283,
      "ĠNtim": 9284,
      "ĠÚ©ØªÛİ": 9285,
      "711114": 9286,
      "ared": 9287,
      "Ġbut": 9288,
      "50568": 9289,
      "ĠØªÛİØ¯Ø§": 9290,
      "ĠØ®Ø§Ø±Ø¬ÛĮ": 9291,
      "49885": 9292,
      "ĠÚķÛĨÚĺÙĨØ§ÙħÙĩ": 9293,
      "Ð©ÐĥÐ¨": 9294,
      "ĠRos": 9295,
      "7771": 9296,
      "ĠðŁĳ": 9297,
      "New": 9298,
      "4095": 9299,
      "Ġntxawm": 9300,
      "Thiab": 9301,
      "Ġbrunette": 9302,
      "Ġtawb": 9303,
      "alty": 9304,
      "='": 9305,
      "34904196": 9306,
      "259749885": 9307,
      "SÐĥSÐĬRye": 9308,
      "711114259749885": 9309,
      "5056834904196": 9310,
      "505683490419627": 9311,
      "1512": 9312,
      "Ġtxhawm": 9313,
      "ĠImage": 9314,
      "color": 9315,
      "hq": 9316,
      "Booking": 9317,
      "Ø±Ú¯ÛĮ": 9318,
      "ĠLab": 9319,
      "2769": 9320,
      "Ø¨ÙĨÙĩ": 9321,
      "ĠØ¢Øº": 9322,
      "ply": 9323,
      "ĠNTSHIAB": 9324,
      "ĠØ§ÙĨØªØ´Ø§Ø±": 9325,
      "emb": 9326,
      "3744": 9327,
      "Ġadv": 9328,
      "overy": 9329,
      "ÙĥØ§ÙĨÙĩ": 9330,
      "943": 9331,
      "prise": 9332,
      "ĠDev": 9333,
      "uma": 9334,
      "7066": 9335,
      "ÑģÑĤ": 9336,
      "ĠØ¯ÙĪÙĪØ±": 9337,
      "Hais": 9338,
      "aby": 9339,
      "ĠØ¨ÙĪÙĪÙĨÙĩ": 9340,
      "Ġupload": 9341,
      "Ġanti": 9342,
      "2006": 9343,
      "6676": 9344,
      "ato": 9345,
      "ĠØ³ÛĮÙħ": 9346,
      "ĠSchool": 9347,
      "obe": 9348,
      "ĠDiam": 9349,
      "ulf": 9350,
      "Ġntua": 9351,
      "ĠØ§ÙĦÛĮ": 9352,
      "ĠØ¬Ø§": 9353,
      "Ø§Ø±Ø¯ÙĨ": 9354,
      "ĠTablet": 9355,
      "ĠUntold": 9356,
      "Ġtho": 9357,
      "ĠRay": 9358,
      "Ġntaj": 9359,
      "2312": 9360,
      "ĠNrab": 9361,
      "Ces": 9362,
      "ĠÙĦÛİÙĥ": 9363,
      "PEG": 9364,
      "PY": 9365,
      "nis": 9366,
      "ÙĪÙĨØ¯": 9367,
      "Ġntus": 9368,
      "3650": 9369,
      "ĠØ¨ÚķÛĮØ§Ø±": 9370,
      "Ġ1080": 9371,
      "ĠØµÙĪØ±Øª": 9372,
      "rown": 9373,
      "ĠRÐĪ": 9374,
      "pool": 9375,
      "iw": 9376,
      "ĠMah": 9377,
      "ĠÚ©Ø§": 9378,
      "Ġnrauj": 9379,
      "6068": 9380,
      "ÙĢÙĢØ±": 9381,
      "ĠAli": 9382,
      "Txhua": 9383,
      "ĠÙĦÛĮØ³Øª": 9384,
      "Paul": 9385,
      "ÛİÙĦ": 9386,
      "ured": 9387,
      "Ġvalve": 9388,
      "tv": 9389,
      "ĠUV": 9390,
      "Ø§ÙĩÙĩ": 9391,
      "ĠâĻ": 9392,
      "ÛĨØ´": 9393,
      "7699": 9394,
      "ĠÚķØ§Ú¯Ùĩ": 9395,
      "ĠContinue": 9396,
      "Ġer": 9397,
      "2413": 9398,
      "ĠPanasonic": 9399,
      "burg": 9400,
      "Ġ280": 9401,
      "ĠÙĤØ§ÙĦØ¨": 9402,
      "ĠAustralia": 9403,
      "3055": 9404,
      "Ø³ØªÛĮÛĮÙĩ": 9405,
      "ÐĶ": 9406,
      "2097": 9407,
      "Ú¯ÛİÚķ": 9408,
      "6629": 9409,
      "Ø¯ÙĪØ§ÛĮ": 9410,
      "4213": 9411,
      "Ġkoobpovtxuj": 9412,
      "Ú©Ø±Ûİ": 9413,
      "Ù¾Øª": 9414,
      "iation": 9415,
      "ĠØ¦Ø§Ø³ØªÛĮ": 9416,
      "Ú©Ø³ÛĮ": 9417,
      "1370": 9418,
      "1390": 9419,
      "4440": 9420,
      "7776": 9421,
      "ĠEL": 9422,
      "âķ£": 9423,
      "ĠDan": 9424,
      "3275": 9425,
      "deer": 9426,
      "ĠÙĩÛİØ²ÛĮ": 9427,
      "ĠAtt": 9428,
      "2733": 9429,
      "chain": 9430,
      "CM": 9431,
      "IBM": 9432,
      "ĠÙĩØ§ÙĪØ¨Ùĩ": 9433,
      "Ġntswg": 9434,
      "2612": 9435,
      "ted": 9436,
      "Ġanal": 9437,
      "words": 9438,
      "ÑĦ": 9439,
      "Ùĳ": 9440,
      "RÑķRye": 9441,
      "ĠÚķÛİÚ¯Ùĩ": 9442,
      "((": 9443,
      "aff": 9444,
      "ĠØ¬Ø´ÙĨ": 9445,
      "ĠNtsuam": 9446,
      "./": 9447,
      "1748": 9448,
      "2739": 9449,
      "ĠÙĤØ§ÙĨ": 9450,
      "Ø±ÛĮØªØ§ÙĨÛĮ": 9451,
      "CL": 9452,
      "1989": 9453,
      "3344": 9454,
      "rylic": 9455,
      "201800": 9456,
      "Ntxiv": 9457,
      "636": 9458,
      "ĠInv": 9459,
      "Ø§Ø¨Ø¹": 9460,
      "ising": 9461,
      "4945": 9462,
      "Ø§ÙĦÛĮØ§": 9463,
      "âĢ³": 9464,
      "ĠÛĮØ§Ø³Ø§": 9465,
      "ĠPublic": 9466,
      "ÙĤØ§Ùħ": 9467,
      "WN": 9468,
      "4622": 9469,
      "Ġrest": 9470,
      "1088": 9471,
      "ĠâĢ¬": 9472,
      "Ġpara": 9473,
      "anp": 9474,
      "Ġ225": 9475,
      "7711": 9476,
      "9999": 9477,
      "ĠDirect": 9478,
      "ireless": 9479,
      "ÙħØ¬": 9480,
      "ĠMam": 9481,
      "ĠRun": 9482,
      "4808": 9483,
      "ĠÙĨÙĪÛĮØ³": 9484,
      "Ġ580": 9485,
      "ĠÚ©ÛİØ´Ùĩ": 9486,
      "ĠBrand": 9487,
      "ĠØŃÚ©ÙĪÙħÙĩ": 9488,
      "asher": 9489,
      "ĠÙħÙĨØª": 9490,
      "%,": 9491,
      "vel": 9492,
      "2365": 9493,
      "las": 9494,
      "ÛİÙĨØ§ÙĨ": 9495,
      "819": 9496,
      "Aug": 9497,
      "Ġche": 9498,
      "wp": 9499,
      "ĠTU": 9500,
      "Ġqus": 9501,
      "ĠÙħØ§Ø¯": 9502,
      "ĠBB": 9503,
      "ido": 9504,
      "Ġ126": 9505,
      "7540": 9506,
      "Ø§ÙĨÛĮØ§ÙĨ": 9507,
      "istics": 9508,
      "ĠEnd": 9509,
      "ĠXes": 9510,
      "irater": 9511,
      "Ø±ÙĪØ²": 9512,
      "><": 9513,
      "google": 9514,
      "1777": 9515,
      "Ġconnect": 9516,
      "1188": 9517,
      "edd": 9518,
      "ÛĨÙĥ": 9519,
      "7559": 9520,
      "5714": 9521,
      "ĠRÑļ": 9522,
      "quot": 9523,
      "Ġ205": 9524,
      "ÙħØŃ": 9525,
      "ivo": 9526,
      "date": 9527,
      "ØºÙĩ": 9528,
      "photo": 9529,
      "Ġconversion": 9530,
      "ĠØªØ¬ÙĩÛĮØ²Ø§Øª": 9531,
      "3233": 9532,
      "Ġ1680": 9533,
      "ÚµÚ©ÙĪ": 9534,
      "ĠÙĥØ±Ø¯Ùĩ": 9535,
      "021": 9536,
      "6627": 9537,
      "3279": 9538,
      "ØªÙħÙĩ": 9539,
      "0319": 9540,
      "ĠPhaj": 9541,
      "ĠÙĨÙĪÙĪØ³Ùĩ": 9542,
      "eve": 9543,
      "Ġhoob": 9544,
      "Ø´ÛĮÙĨ": 9545,
      "1888": 9546,
      "aptop": 9547,
      "ĠØ±Ø§Ø³Øª": 9548,
      "Ø®ÙĨÙĩ": 9549,
      "Ġspins": 9550,
      "Ġsho": 9551,
      "1495": 9552,
      "4969": 9553,
      "Ø®Ø±Ø§ÙĪÙĩ": 9554,
      "su": 9555,
      "Ġany": 9556,
      "Ġmil": 9557,
      "Ġ439": 9558,
      "ĠØ§ÛĮÙĦ": 9559,
      "Ġyear": 9560,
      "8429": 9561,
      "ĠHLUB": 9562,
      "ĠFX": 9563,
      "ĠEU": 9564,
      "6313": 9565,
      "-]": 9566,
      "Ġ147": 9567,
      "Ġtxuam": 9568,
      "icol": 9569,
      "Ġqw": 9570,
      "874": 9571,
      "ĠØŃÙĤÙĪÙĤ": 9572,
      "ĠWood": 9573,
      "ĠØ³Ø§ÚµÙĩ": 9574,
      "Ú¯ÙĦ": 9575,
      "ĠWatch": 9576,
      "ĠÙĤÛĮ": 9577,
      "antic": 9578,
      "Ġdhos": 9579,
      "Ġhydraulic": 9580,
      "ĠØ¯Ø±Ø¯": 9581,
      "1875": 9582,
      "0001": 9583,
      "------------------------": 9584,
      "ĠÙģØ±ÙĪØ´Ú¯Ø§Ùĩ": 9585,
      "ĠKr": 9586,
      "apter": 9587,
      "ĠÙĥØ±Ø§ÙĪÙĩ": 9588,
      "ĠBangs": 9589,
      "ÙĨØªÛĮ": 9590,
      "ÛİÛĮ": 9591,
      "Ab": 9592,
      "Ġï¿½ï¿½ï¿½ï¿½ï¿½-": 9593,
      "ĠShah": 9594,
      "818": 9595,
      "Ġ121": 9596,
      "Ø§ÙĨÛķÛĮ": 9597,
      "976": 9598,
      "ople": 9599,
      "Ø¨Ø§Ø²": 9600,
      "ENS": 9601,
      "osterone": 9602,
      "ced": 9603,
      "Ġ124": 9604,
      "ĠØ¯Ø§Ø±Ø¯": 9605,
      "aga": 9606,
      "6663": 9607,
      "ĠTXAIS": 9608,
      "hu": 9609,
      "Ġmoj": 9610,
      "ĠRAC": 9611,
      "ĠÂ±": 9612,
      "onda": 9613,
      "Â³": 9614,
      "ĠFawb": 9615,
      "ÙĪÙĨÙĪ": 9616,
      "Ġvang": 9617,
      "ĠØªØ§ÙĪØ§ÙĨ": 9618,
      "Ø¦Ø§": 9619,
      "ĠÙĪÛİ": 9620,
      "3927": 9621,
      "ÛķØ²": 9622,
      "4922": 9623,
      "ĠChoj": 9624,
      "De": 9625,
      "ĠPV": 9626,
      "ĠØ§Ø´": 9627,
      "ĠWomen": 9628,
      "Wh": 9629,
      "7916": 9630,
      "xus": 9631,
      "artment": 9632,
      "2377": 9633,
      "2647": 9634,
      "ÙĨØ¯Ø±ÙĪ": 9635,
      "ĠØ§ÙģØ²": 9636,
      "AAG": 9637,
      "ĠMLB": 9638,
      "ĠImp": 9639,
      "eeve": 9640,
      "ARD": 9641,
      "ĠØªÚ©ÙĨÙĪÙĦÙĪÚĺÛĮ": 9642,
      "ZZ": 9643,
      "3517": 9644,
      "Ġciam": 9645,
      "ĠØ¨ÙĥØ±ÛİØª": 9646,
      "...)": 9647,
      "7899": 9648,
      "845": 9649,
      "Ġgo": 9650,
      "Ð¾Ð¹": 9651,
      "xFFFF": 9652,
      "ÙĪÛĮØ³ÛĮ": 9653,
      "ĠRaj": 9654,
      "8529": 9655,
      "ĠGeorge": 9656,
      "====": 9657,
      "May": 9658,
      "ĠKn": 9659,
      "ĠCount": 9660,
      "ĠÚ©ÛĮÙħÛĮ": 9661,
      "ĠÙħÙĩÙĨØ¯Ø³ÛĮ": 9662,
      "ĠVaajtswv": 9663,
      "Ġntxeev": 9664,
      "ÙĪØ¯ÛĨ": 9665,
      "ĠRÑĻ": 9666,
      "Ġsmart": 9667,
      "Ġid": 9668,
      "ĠChamp": 9669,
      "ĠØŃÙĥÙĪÙĪÙħÙĩ": 9670,
      "ker": 9671,
      "ĠLuck": 9672,
      "ĠBill": 9673,
      "ĠQhib": 9674,
      "cor": 9675,
      "5834": 9676,
      "Ð½Ñĭ": 9677,
      "ĠØ¨ÛĮØ³Øª": 9678,
      "ĠNyiam": 9679,
      "Ġtabsis": 9680,
      "ĠPAJ": 9681,
      "7716": 9682,
      "ĠWall": 9683,
      "ĠRich": 9684,
      "NK": 9685,
      "Ġha": 9686,
      "ĠÙ¾ÛİÙĨØ¬": 9687,
      "RTF": 9688,
      "ĠPhab": 9689,
      "ĠØ¯ÙĨÛĮØ§": 9690,
      "ĠHuv": 9691,
      "1946": 9692,
      "ME": 9693,
      "Ġtxwj": 9694,
      "sy": 9695,
      "formance": 9696,
      "cli": 9697,
      "sdh": 9698,
      "588": 9699,
      "1834": 9700,
      "ĠTxawj": 9701,
      "ĠMaster": 9702,
      "gl": 9703,
      "4415": 9704,
      "âĢ¦.": 9705,
      "ĠÙħÛĮÚ©": 9706,
      "Ø§Ø±Øª": 9707,
      "Ð»Ðµ": 9708,
      "egr": 9709,
      "ahoo": 9710,
      "Äĥm": 9711,
      "ength": 9712,
      "ĠØ¢Ø°Ø±Ø¨Ø§ÛĮØ¬Ø§ÙĨ": 9713,
      "USD": 9714,
      "Ġtraffic": 9715,
      "Ġ175": 9716,
      "ĠDH": 9717,
      "ales": 9718,
      "Ø§ØªØ±ÛĮ": 9719,
      "Ġexp": 9720,
      "ĠRAID": 9721,
      "Ġzwm": 9722,
      "eno": 9723,
      "6245": 9724,
      "ĠMel": 9725,
      "ĠLaus": 9726,
      "ĠÙĪØ¦": 9727,
      "Ø§Ø±Ø§": 9728,
      "3318": 9729,
      "ĠFaj": 9730,
      "ÙħØ±ÛĮÙĥØ§": 9731,
      "El": 9732,
      "chi": 9733,
      "ĠFrom": 9734,
      "?...": 9735,
[...]
