{
  "version": "1.0",
  "truncation": null,
  "padding": null,
  "added_tokens": [
    {
      "id": 0,
      "content": "<s>",
      "single_word": false,
      "lstrip": false,
      "rstrip": false,
      "normalized": false,
      "special": true
    },
    {
      "id": 1,
      "content": "<pad>",
      "single_word": false,
      "lstrip": false,
      "rstrip": false,
      "normalized": false,
      "special": true
    },
    {
      "id": 2,
      "content": "</s>",
      "single_word": false,
      "lstrip": false,
      "rstrip": false,
      "normalized": false,
      "special": true
    },
    {
      "id": 3,
      "content": "<unk>",
      "single_word": false,
      "lstrip": false,
      "rstrip": false,
      "normalized": false,
      "special": true
    },
    {
      "id": 4,
      "content": "<mask>",
      "single_word": false,
      "lstrip": false,
      "rstrip": false,
      "normalized": false,
      "special": true
    }
  ],
  "normalizer": null,
  "pre_tokenizer": {
    "type": "ByteLevel",
    "add_prefix_space": true,
    "trim_offsets": true,
    "use_regex": true
  },
  "post_processor": {
    "type": "RobertaProcessing",
    "sep": [
      "</s>",
      2
    ],
    "cls": [
      "<s>",
      0
    ],
    "trim_offsets": true,
    "add_prefix_space": true
  },
  "decoder": {
    "type": "ByteLevel",
    "add_prefix_space": true,
    "trim_offsets": true,
    "use_regex": true
  },
  "model": {
    "type": "BPE",
    "dropout": null,
    "unk_token": null,
    "continuing_subword_prefix": null,
    "end_of_word_suffix": null,
    "fuse_unk": false,
    "byte_fallback": false,
    "vocab": {
      "<s>": 0,
      "<pad>": 1,
      "</s>": 2,
      "<unk>": 3,
      "<mask>": 4,
      "!": 5,
      "\"": 6,
      "#": 7,
      "$": 8,
      "%": 9,
      "&": 10,
      "'": 11,
      "(": 12,
      ")": 13,
      "*": 14,
      "+": 15,
      ",": 16,
      "-": 17,
      ".": 18,
      "/": 19,
      "0": 20,
      "1": 21,
      "2": 22,
      "3": 23,
      "4": 24,
      "5": 25,
      "6": 26,
      "7": 27,
      "8": 28,
      "9": 29,
      ":": 30,
      ";": 31,
      "<": 32,
      "=": 33,
      ">": 34,
      "?": 35,
      "@": 36,
      "A": 37,
      "B": 38,
      "C": 39,
      "D": 40,
      "E": 41,
      "F": 42,
      "G": 43,
      "H": 44,
      "I": 45,
      "J": 46,
      "K": 47,
      "L": 48,
      "M": 49,
      "N": 50,
      "O": 51,
      "P": 52,
      "Q": 53,
      "R": 54,
      "S": 55,
      "T": 56,
      "U": 57,
      "V": 58,
      "W": 59,
      "X": 60,
      "Y": 61,
      "Z": 62,
      "[": 63,
      "\\": 64,
      "]": 65,
      "^": 66,
      "_": 67,
      "`": 68,
      "a": 69,
      "b": 70,
      "c": 71,
      "d": 72,
      "e": 73,
      "f": 74,
      "g": 75,
      "h": 76,
      "i": 77,
      "j": 78,
      "k": 79,
      "l": 80,
      "m": 81,
      "n": 82,
      "o": 83,
      "p": 84,
      "q": 85,
      "r": 86,
      "s": 87,
      "t": 88,
      "u": 89,
      "v": 90,
      "w": 91,
      "x": 92,
      "y": 93,
      "z": 94,
      "{": 95,
      "|": 96,
      "}": 97,
      "~": 98,
      "¡": 99,
      "¢": 100,
      "£": 101,
      "¤": 102,
      "¥": 103,
      "¦": 104,
      "§": 105,
      "¨": 106,
      "©": 107,
      "ª": 108,
      "«": 109,
      "¬": 110,
      "®": 111,
      "¯": 112,
      "°": 113,
      "±": 114,
      "²": 115,
      "³": 116,
      "´": 117,
      "µ": 118,
      "¶": 119,
      "·": 120,
      "¸": 121,
      "¹": 122,
      "º": 123,
      "»": 124,
      "¼": 125,
      "½": 126,
      "¾": 127,
      "¿": 128,
      "À": 129,
      "Á": 130,
      "Â": 131,
      "Ã": 132,
      "Ä": 133,
      "Å": 134,
      "Æ": 135,
      "Ç": 136,
      "È": 137,
      "É": 138,
      "Ê": 139,
      "Ë": 140,
      "Ì": 141,
      "Í": 142,
      "Î": 143,
      "Ï": 144,
      "Ð": 145,
      "Ñ": 146,
      "Ò": 147,
      "Ó": 148,
      "Ô": 149,
      "Õ": 150,
      "Ö": 151,
      "×": 152,
      "Ø": 153,
      "Ù": 154,
      "Ú": 155,
      "Û": 156,
      "Ü": 157,
      "Ý": 158,
      "Þ": 159,
      "ß": 160,
      "à": 161,
      "á": 162,
      "â": 163,
      "ã": 164,
      "ä": 165,
      "å": 166,
      "æ": 167,
      "ç": 168,
      "è": 169,
      "é": 170,
      "ê": 171,
      "ë": 172,
      "ì": 173,
      "í": 174,
      "î": 175,
      "ï": 176,
      "ð": 177,
      "ñ": 178,
      "ò": 179,
      "ó": 180,
      "ô": 181,
      "õ": 182,
      "ö": 183,
      "÷": 184,
      "ø": 185,
      "ù": 186,
      "ú": 187,
      "û": 188,
      "ü": 189,
      "ý": 190,
      "þ": 191,
      "ÿ": 192,
      "Ā": 193,
      "ā": 194,
      "Ă": 195,
      "ă": 196,
      "Ą": 197,
      "ą": 198,
      "Ć": 199,
      "ć": 200,
      "Ĉ": 201,
      "ĉ": 202,
      "Ċ": 203,
      "ċ": 204,
      "Č": 205,
      "č": 206,
      "Ď": 207,
      "ď": 208,
      "Đ": 209,
      "đ": 210,
      "Ē": 211,
      "ē": 212,
      "Ĕ": 213,
      "ĕ": 214,
      "Ė": 215,
      "ė": 216,
      "Ę": 217,
      "ę": 218,
      "Ě": 219,
      "ě": 220,
      "Ĝ": 221,
      "ĝ": 222,
      "Ğ": 223,
      "ğ": 224,
      "Ġ": 225,
      "ġ": 226,
      "Ģ": 227,
      "ģ": 228,
      "Ĥ": 229,
      "ĥ": 230,
      "Ħ": 231,
      "ħ": 232,
      "Ĩ": 233,
      "ĩ": 234,
      "Ī": 235,
      "ī": 236,
      "Ĭ": 237,
      "ĭ": 238,
      "Į": 239,
      "į": 240,
      "İ": 241,
      "ı": 242,
      "Ĳ": 243,
      "ĳ": 244,
      "Ĵ": 245,
      "ĵ": 246,
      "Ķ": 247,
      "ķ": 248,
      "ĸ": 249,
      "Ĺ": 250,
      "ĺ": 251,
      "Ļ": 252,
      "ļ": 253,
      "Ľ": 254,
      "ľ": 255,
      "Ŀ": 256,
      "ŀ": 257,
      "Ł": 258,
      "ł": 259,
      "Ń": 260,
      "Ġa": 261,
      "ch": 262,
      "ea": 263,
      "ai": 264,
      "dh": 265,
      "Ġan": 266,
      "ir": 267,
      "th": 268,
      "bh": 269,
      "na": 270,
      "Ġs": 271,
      "Ãł": 272,
      "nn": 273,
      "gu": 274,
      "Ġd": 275,
      "Ġc": 276,
      "il": 277,
      "an": 278,
      "Ġair": 279,
      "ach": 280,
      "Ġna": 281,
      "Ġf": 282,
      "ar": 283,
      "adh": 284,
      "each": 285,
      "ean": 286,
      "Ġt": 287,
      "gh": 288,
      "Ġm": 289,
      "Ġth": 290,
      "is": 291,
      "Ġbh": 292,
      "Ġl": 293,
      "Ã²": 294,
      "aidh": 295,
      "Ġch": 296,
      "mh": 297,
      "gus": 298,
      "ĠC": 299,
      "in": 300,
      "Ġb": 301,
      "Ġe": 302,
      "idh": 303,
      "Ġann": 304,
      "Ġr": 305,
      "Ġagus": 306,
      "inn": 307,
      "ĠT": 308,
      "ha": 309,
      "on": 310,
      "Ã¬": 311,
      "ĠA": 312,
      "ig": 313,
      "âĢ": 314,
      "air": 315,
      "as": 316,
      "Ã¨": 317,
      "Ġdh": 318,
      "Ġgu": 319,
      "Ã¹": 320,
      "io": 321,
      "aich": 322,
      "ĠB": 323,
      "ad": 324,
      "ĠS": 325,
      "eachd": 326,
      "Ġtha": 327,
      "ail": 328,
      "Ġ'": 329,
      "âĢĻ": 330,
      "ĠG": 331,
      "ith": 332,
      "ao": 333,
      "al": 334,
      "ĠM": 335,
      "te": 336,
      "ĠTha": 337,
      "id": 338,
      "ear": 339,
      "eal": 340,
      "Ġle": 341,
      "Ãłr": 342,
      "Ġi": 343,
      "Ġg": 344,
      "ĠD": 345,
      "eo": 346,
      "eadh": 347,
      "ainn": 348,
      "ur": 349,
      "Ã²r": 350,
      "Ġp": 351,
      "Ã¬o": 352,
      "ĠL": 353,
      "ain": 354,
      "achd": 355,
      "Ġco": 356,
      "Ġde": 357,
      "eas": 358,
      "ile": 359,
      "Ġh": 360,
      "ich": 361,
      "Ġn": 362,
      "ĠCh": 363,
      "eil": 364,
      "or": 365,
      "Ġaig": 366,
      "son": 367,
      "igh": 368,
      "Ġfh": 369,
      "achadh": 370,
      "Ġ1": 371,
      "Ġseo": 372,
      "Ġcu": 373,
      "ais": 374,
      "ĠN": 375,
      "am": 376,
      "oir": 377,
      "ath": 378,
      "ĠF": 379,
      "eu": 380,
      "Ġdo": 381,
      "aigh": 382,
      "Ãłidh": 383,
      "Ġam": 384,
      "ĠR": 385,
      "ĠI": 386,
      "Ġsg": 387,
      "ill": 388,
      "ĠÃł": 389,
      "Ġag": 390,
      "ta": 391,
      "Ġairson": 392,
      "chd": 393,
      "Ġri": 394,
      "ana": 395,
      "arr": 396,
      "ĠP": 397,
      "Ġiad": 398,
      "ro": 399,
      "aichean": 400,
      "ĠBh": 401,
      "Ġbhith": 402,
      "aid": 403,
      "Ġo": 404,
      "Ġmu": 405,
      "st": 406,
      "ead": 407,
      "uir": 408,
      "eag": 409,
      "ĠGÃłidh": 410,
      "Ġ2": 411,
      "Ġmar": 412,
      "Ġu": 413,
      "Ġcl": 414,
      "og": 415,
      "Ġro": 416,
      "ibh": 417,
      "Ġsin": 418,
      "ĠE": 419,
      "Ġis": 420,
      "eann": 421,
      "Ġ(": 422,
      "ann": 423,
      "ic": 424,
      "ios": 425,
      "ĠâĢ": 426,
      "Ġeile": 427,
      "lb": 428,
      "ine": 429,
      "Ġbheil": 430,
      "lig": 431,
      "Ġthu": 432,
      "Ġbu": 433,
      "le": 434,
      "eachadh": 435,
      "re": 436,
      "ĠÃ": 437,
      "agh": 438,
      "imh": 439,
      "ĠdÃ¨": 440,
      "Ġbha": 441,
      "ac": 442,
      "ru": 443,
      "it": 444,
      "eir": 445,
      "Ġmi": 446,
      "Ġst": 447,
      "nach": 448,
      "Ġgh": 449,
      "rÃ¬o": 450,
      "Ġanns": 451,
      "ĠTh": 452,
      "Ġcho": 453,
      "li": 454,
      "Ġmh": 455,
      "Ġ-": 456,
      "ol": 457,
      "lba": 458,
      "ĠÃ¹": 459,
      "Ġgun": 460,
      "Ġlu": 461,
      "oirt": 462,
      "ĠGh": 463,
      "iÃ¹": 464,
      "Ġbho": 465,
      "abh": 466,
      "aichte": 467,
      "sa": 468,
      "Ġnan": 469,
      "..": 470,
      "br": 471,
      "Ġcuid": 472,
      "im": 473,
      "Ãłir": 474,
      "ĠSg": 475,
      "sg": 476,
      "BC": 477,
      "eis": 478,
      "oil": 479,
      "Ġsinn": 480,
      "om": 481,
      "Ġio": 482,
      "nan": 483,
      "Ġtu": 484,
      "Ġchu": 485,
      "Ġtr": 486,
      "Ġdu": 487,
      "Ġeil": 488,
      "ĠGÃłidhlig": 489,
      "Ġach": 490,
      "tas": 491,
      "aic": 492,
      "Ġph": 493,
      "eÃ²": 494,
      "er": 495,
      "all": 496,
      "Ġ\"": 497,
      "anamh": 498,
      "Ġno": 499,
      "Ġfo": 500,
      "ll": 501,
      "ĠAn": 502,
      "liadh": 503,
      "ag": 504,
      "aidhean": 505,
      "iu": 506,
      "airt": 507,
      "Ġsh": 508,
      "Ġ20": 509,
      "ĠBhBC": 510,
      "amh": 511,
      "Ġ19": 512,
      "ĠH": 513,
      "ĠDh": 514,
      "uair": 515,
      "org": 516,
      "Ġsan": 517,
      "Ġas": 518,
      "ĠlÃł": 519,
      "Ġluchd": 520,
      "Ġrobh": 521,
      "Ã²mh": 522,
      "eum": 523,
      "aidheachd": 524,
      "Ġchaidh": 525,
      "Ġnach": 526,
      "ĠO": 527,
      "Ġchl": 528,
      "en": 529,
      "ra": 530,
      "tachd": 531,
      "ĠChaidh": 532,
      "isean": 533,
      "lt": 534,
      "??": 535,
      "ealbh": 536,
      "fh": 537,
      "liadhna": 538,
      "Ġgus": 539,
      "eang": 540,
      "la": 541,
      "ne": 542,
      "aobh": 543,
      "Ġdhu": 544,
      "ĠBha": 545,
      "uidh": 546,
      "ĠmÃ²r": 547,
      "ealtachd": 548,
      "lan": 549,
      "Ġ/": 550,
      "aoil": 551,
      "eachdadh": 552,
      "Ã²is": 553,
      "ĠdÃł": 554,
      "Ġru": 555,
      "eadar": 556,
      "Ġbith": 557,
      "ĠMh": 558,
      "aibh": 559,
      "se": 560,
      "las": 561,
      "mach": 562,
      "ist": 563,
      "rÃ¬obh": 564,
      "ite": 565,
      "rÃł": 566,
      "bair": 567,
      "aile": 568,
      "eul": 569,
      "ĠâĢĻ": 570,
      "Alba": 571,
      "Ġris": 572,
      "omh": 573,
      "uirt": 574,
      "steach": 575,
      "Ġlea": 576,
      "ĠÃĢ": 577,
      "Ã¬omh": 578,
      "Ġsa": 579,
      "lu": 580,
      "aoine": 581,
      "Ãłin": 582,
      "ionn": 583,
      "Ġchur": 584,
      "ĠâĢĺ": 585,
      "00": 586,
      "och": 587,
      "Ġeadar": 588,
      "ca": 589,
      "Ġgum": 590,
      "ĠU": 591,
      "tean": 592,
      "ĠPh": 593,
      "Ã¨anamh": 594,
      "Ã¨in": 595,
      "tha": 596,
      "ĠdÃ²": 597,
      "asg": 598,
      "achaidh": 599,
      "ĠCu": 600,
      "Ġfha": 601,
      "aig": 602,
      "Ġtaobh": 603,
      "ĠIn": 604,
      "nas": 605,
      "Ġaon": 606,
      "ĠMac": 607,
      "ireadh": 608,
      "Ã¬r": 609,
      "ilean": 610,
      "iodh": 611,
      "ĠSt": 612,
      "nadh": 613,
      "Ġleis": 614,
      "Ġcuideachd": 615,
      "es": 616,
      "Ġcom": 617,
      "ĠSgaoil": 618,
      "at": 619,
      "ĠAir": 620,
      "ĠGÃłidhealtachd": 621,
      "Ãłirt": 622,
      "eamh": 623,
      "ĠdÃ¹": 624,
      "Ġur": 625,
      "if": 626,
      "Ġsam": 627,
      "san": 628,
      "Ã¬re": 629,
      "ĠAlba": 630,
      "ĠÃłs": 631,
      "Ġath": 632,
      "ĠdhÃ¨anamh": 633,
      "eÃłr": 634,
      "eam": 635,
      "Ġthoirt": 636,
      "ĠÃ¹r": 637,
      "us": 638,
      "Ġiom": 639,
      "ĠCha": 640,
      "Ã¬n": 641,
      "ichean": 642,
      "ladh": 643,
      "Ġ/>": 644,
      "Ġ201": 645,
      "Ġfios": 646,
      "ogail": 647,
      "Ġmo": 648,
      "idhinn": 649,
      "ĠCl": 650,
      "eirbh": 651,
      "ion": 652,
      "ois": 653,
      "Ġobair": 654,
      "eat": 655,
      "Ġfar": 656,
      "ĠclÃłr": 657,
      "bhir": 658,
      "...": 659,
      "ichte": 660,
      "inne": 661,
      "Ġaca": 662,
      "rainn": 663,
      "aidheachdan": 664,
      "eac": 665,
      "innt": 666,
      "airean": 667,
      "ĠGhÃłidh": 668,
      "Ãłs": 669,
      "easg": 670,
      "od": 671,
      "eirbheis": 672,
      "ĠInbhir": 673,
      "Ã¨id": 674,
      "ĠlÃłr": 675,
      "Ã²ir": 676,
      "ing": 677,
      "Ġbliadhna": 678,
      "earan": 679,
      "Ġlorg": 680,
      "pan": 681,
      "ot": 682,
      "ĠIs": 683,
      "mail": 684,
      "oidh": 685,
      "Ġden": 686,
      "aighinn": 687,
      "ĠNaidheachdan": 688,
      "ia": 689,
      "Ġdealbh": 690,
      "Ã¨idh": 691,
      "ge": 692,
      "Ġnam": 693,
      "Ġtoirt": 694,
      "aoin": 695,
      "Ġmath": 696,
      "Ġbi": 697,
      "Ã¨ir": 698,
      "nns": 699,
      "Ġ3": 700,
      "uras": 701,
      "rom": 702,
      "Ġnas": 703,
      "ĠdÃ¨idh": 704,
      "de": 705,
      "illeadh": 706,
      "Ġdhan": 707,
      "Ġsgeul": 708,
      "ĠChan": 709,
      "arrachd": 710,
      "art": 711,
      "ĠfhÃ¨in": 712,
      "Ġceang": 713,
      "Ġdol": 714,
      "un": 715,
      "iad": 716,
      "Ġcha": 717,
      "ĠLoch": 718,
      "ĠÃĢir": 719,
      "Ġcleachdadh": 720,
      "Ãłrd": 721,
      "inm": 722,
      "Ġ18": 723,
      "ĠRo": 724,
      "Ġar": 725,
      "Ġcur": 726,
      "Ġsgeulachd": 727,
      "ĠCo": 728,
      "Ġagad": 729,
      "ĠW": 730,
      "ug": 731,
      "Ã²rd": 732,
      "ip": 733,
      "Ġuair": 734,
      "ast": 735,
      "Ġurrainn": 736,
      "aod": 737,
      "ed": 738,
      "eÃłrr": 739,
      "Ġdaoine": 740,
      "than": 741,
      "uile": 742,
      "ĠcÃ²mh": 743,
      "Ġadh": 744,
      "Ġseach": 745,
      "Ġgn": 746,
      "Ġ<": 747,
      "iÃ¹ireadh": 748,
      "Ġdha": 749,
      "raidh": 750,
      "ĠrÃł": 751,
      "chu": 752,
      "ĠNis": 753,
      "CH": 754,
      "Ġpr": 755,
      "ĠAgus": 756,
      "nachd": 757,
      "el": 758,
      "aing": 759,
      "Ġgach": 760,
      "Ġnuair": 761,
      "Ġmeasg": 762,
      "ĠÃłite": 763,
      "ĠClÃłr": 764,
      "Ã¨ile": 765,
      "Ã²n": 766,
      "tan": 767,
      "ĠrÃłdh": 768,
      "abhail": 769,
      "Ġainm": 770,
      "ruth": 771,
      "airle": 772,
      "laidh": 773,
      "Ã¬os": 774,
      "Ġagainn": 775,
      "panaidh": 776,
      "ACH": 777,
      "Ġfal": 778,
      "Ġfear": 779,
      "illeag": 780,
      "lais": 781,
      "laichean": 782,
      "gr": 783,
      "ĠcÃ¹": 784,
      "Ġiarr": 785,
      "rÃ¬omh": 786,
      "Ġfeum": 787,
      "eanan": 788,
      "nad": 789,
      "Ġduine": 790,
      "ĠâĢĵ": 791,
      "ĠAr": 792,
      "ĠThuirt": 793,
      "ĠclÃłraichte": 794,
      "Ġcar": 795,
      "Ġbhon": 796,
      "ĠSC": 797,
      "Ãłth": 798,
      "ĠMu": 799,
      "ĠEilean": 800,
      "Ġdhe": 801,
      "rio": 802,
      "mu": 803,
      "ok": 804,
      "Ã¹n": 805,
      "lach": 806,
      "Na": 807,
      "Ġbeag": 808,
      "ĠFad": 809,
      "ĠCumh": 810,
      "eannach": 811,
      "radh": 812,
      "aiche": 813,
      "ĠAch": 814,
      "ĠBidh": 815,
      "aighean": 816,
      "Ġfad": 817,
      "Ġbuadh": 818,
      "Ġor": 819,
      "eath": 820,
      "Ġdhut": 821,
      "iugh": 822,
      "Ġchan": 823,
      "Ġinn": 824,
      "Ãłinig": 825,
      "ĠCumhaichean": 826,
      "iseanta": 827,
      "ighinn": 828,
      "lÃ¬n": 829,
      "Ġbuadhan": 830,
      "obh": 831,
      "ĠGhÃłidhlig": 832,
      "ise": 833,
      "ĠÃłir": 834,
      "Ġso": 835,
      "ĠsgrÃ¬obh": 836,
      "ĠcÃł": 837,
      "aisg": 838,
      "lam": 839,
      "Ġthogail": 840,
      "iar": 841,
      "ĠCom": 842,
      "rachadh": 843,
      "ĠMar": 844,
      "ĠÂ": 845,
      "ears": 846,
      "Ġ4": 847,
      "Ġ5": 848,
      "Ġrud": 849,
      "cha": 850,
      "uas": 851,
      "ĠdÃ¨anamh": 852,
      "ri": 853,
      "Ġ_": 854,
      "eart": 855,
      "Ġseachad": 856,
      "omhairle": 857,
      "Ġneach": 858,
      "ĠdÃ²igh": 859,
      "oidhne": 860,
      "fha": 861,
      "ĠmhÃ²r": 862,
      "iubh": 863,
      "Ġneo": 864,
      "Ġfaic": 865,
      "eud": 866,
      "aran": 867,
      "aint": 868,
      "Ġcoimh": 869,
      "ghaidh": 870,
      "rr": 871,
      "Ġsp": 872,
      "Ġduilleag": 873,
      "eall": 874,
      "Ġseirbheis": 875,
      "atha": 876,
      "Ġbhios": 877,
      "ĠAirson": 878,
      "obr": 879,
      "Ġchuir": 880,
      "ĠÃłm": 881,
      "ĠLorg": 882,
      "annach": 883,
      "Ġfosg": 884,
      "mag": 885,
      "oireas": 886,
      "Ġcr": 887,
      "ris": 888,
      "Ġma": 889,
      "muigh": 890,
      "aist": 891,
      "Ġbhu": 892,
      "ĠSh": 893,
      "ĠJ": 894,
      "throm": 895,
      "ran": 896,
      "raichte": 897,
      "rd": 898,
      "easachadh": 899,
      "Ãłiseanta": 900,
      "ĠâĢľ": 901,
      "Ġbidh": 902,
      "ĠSgaoileadh": 903,
      "Ã²rr": 904,
      "eagh": 905,
      "oc": 906,
      "Ġchiad": 907,
      "Ġoir": 908,
      "01": 909,
      "arrachadh": 910,
      "Ġgur": 911,
      "diugh": 912,
      "aith": 913,
      "ĠAlb": 914,
      "Ġfhaighinn": 915,
      "Ã¬on": 916,
      "Ġsibh": 917,
      "aidean": 918,
      "ĠFh": 919,
      "Ġga": 920,
      "sh": 921,
      "ĠRi": 922,
      "ĠAnn": 923,
      "aill": 924,
      "ĠÃ¹ir": 925,
      "anns": 926,
      "âĢĿ": 927,
      "aghal": 928,
      "bhar": 929,
      "eur": 930,
      "Ġais": 931,
      "Ġiarraidh": 932,
      "aim": 933,
      "Ġthuirt": 934,
      "eireadh": 935,
      "Ġtaic": 936,
      "Ġrinn": 937,
      "ĠstÃ¨idh": 938,
      "ura": 939,
      "ie": 940,
      "asach": 941,
      "Ã²rsa": 942,
      "nis": 943,
      "cl": 944,
      "Ġfeadh": 945,
      "Ġdr": 946,
      "eatha": 947,
      "ĠAm": 948,
      "ĠsgÃ¬re": 949,
      "ĠAon": 950,
      "Ġleth": 951,
      "Ġcuir": 952,
      "achas": 953,
      "earsnachd": 954,
      "ĠÃ¬omh": 955,
      "aogh": 956,
      "Ġaige": 957,
      "thast": 958,
      "Ã¬s": 959,
      "ob": 960,
      "ĠÃłrd": 961,
      "Ãłg": 962,
      "Ġfhathast": 963,
      "sta": 964,
      "ph": 965,
      "Ġbeachd": 966,
      "roch": 967,
      "ara": 968,
      "Ġtagh": 969,
      "Ã¬or": 970,
      "Ġcook": 971,
      "Ġtro": 972,
      "ĠdÃ¹th": 973,
      "Ġtaigh": 974,
      "Ġgl": 975,
      "ailte": 976,
      "ĠNa": 977,
      "ĠTu": 978,
      "ĠmÃ²ran": 979,
      "ĠstiÃ¹ireadh": 980,
      "oill": 981,
      "Ġseal": 982,
      "Ġaghaidh": 983,
      "ĠfheÃłrr": 984,
      "tainn": 985,
      "ĠDe": 986,
      "Tha": 987,
      ").": 988,
      "ter": 989,
      "einn": 990,
      "Ãłip": 991,
      "Ġceanglaichean": 992,
      "AI": 993,
      "pÃłirt": 994,
      "ĠThug": 995,
      "???": 996,
      "ap": 997,
      "Ġceann": 998,
      "ĠLu": 999,
      "Ġtuilleadh": 1000,
      "iob": 1001,
      "Ġaith": 1002,
      "Ġdeach": 1003,
      "Ġgoireas": 1004,
      "rith": 1005,
      "obrach": 1006,
      "Ġsgoil": 1007,
      "Ġuile": 1008,
      "isge": 1009,
      "DH": 1010,
      "sp": 1011,
      "usb": 1012,
      "eic": 1013,
      "ĠAlbannach": 1014,
      "ies": 1015,
      "Ġdheireadh": 1016,
      "Ġmun": 1017,
      "Ġionns": 1018,
      "rÃ¹": 1019,
      "Ġcothrom": 1020,
      "um": 1021,
      "usbaint": 1022,
      "Ġdhen": 1023,
      "aghaltas": 1024,
      "Ġdeas": 1025,
      "ib": 1026,
      "ĠlÃłrach": 1027,
      "aodaidh": 1028,
      "naidheachd": 1029,
      "Ġchuid": 1030,
      "ĠÃĻ": 1031,
      "ĠdÃłta": 1032,
      "urasta": 1033,
      "Ġbiodh": 1034,
      "Ġcompanaidh": 1035,
      "Ġlinn": 1036,
      "Ã¬reach": 1037,
      "Ġsm": 1038,
      "aon": 1039,
      "Ġdhaoine": 1040,
      "ĠcÃ²mhla": 1041,
      "ĠchÃ²ir": 1042,
      "Ġfurasta": 1043,
      "tion": 1044,
      "ĠTaigh": 1045,
      "eibh": 1046,
      "Ġthug": 1047,
      "Ġdon": 1048,
      "aor": 1049,
      "Ġtaghadh": 1050,
      "Ã¹th": 1051,
      "ĠHigh": 1052,
      "Ġbharrachd": 1053,
      "Ġadhart": 1054,
      "ĠchÃ¹": 1055,
      "Ġmha": 1056,
      "reat": 1057,
      "eachdain": 1058,
      "ithean": 1059,
      "reag": 1060,
      "rÃ¬obhaid": 1061,
      "Ġcomh": 1062,
      "land": 1063,
      "Ġin": 1064,
      "Ġsuas": 1065,
      "Ġleanas": 1066,
      "Ġtighinn": 1067,
      "ĠLog": 1068,
      "07": 1069,
      "ĠgnÃ¬omh": 1070,
      "anach": 1071,
      "imhe": 1072,
      "Ġbhaile": 1073,
      "ĠÃĪ": 1074,
      "Ã²nraichte": 1075,
      "iche": 1076,
      "ost": 1077,
      "Ã¬ogh": 1078,
      "earbh": 1079,
      "Ġsusbaint": 1080,
      "ltainn": 1081,
      "pa": 1082,
      "teach": 1083,
      "Ġson": 1084,
      "Ġlatha": 1085,
      "ighe": 1086,
      "ĠMa": 1087,
      "nall": 1088,
      "Ġgoireasan": 1089,
      "aireachd": 1090,
      "chas": 1091,
      "Ã¨is": 1092,
      "25": 1093,
      "Ġbhiodh": 1094,
      "Ġ6": 1095,
      "idir": 1096,
      "ĠDu": 1097,
      "Ġchionn": 1098,
      "04": 1099,
      "ĠeÃ²": 1100,
      "inneig": 1101,
      "ĠFios": 1102,
      "oth": 1103,
      "ort": 1104,
      "Ġfaisg": 1105,
      "mhachd": 1106,
      "Ġbarrachd": 1107,
      "Ġuinneig": 1108,
      "93": 1109,
      "Ġrath": 1110,
      "Ġfosglaidh": 1111,
      "Ġionad": 1112,
      "ĠK": 1113,
      "eanach": 1114,
      "Ġ7": 1115,
      "ille": 1116,
      "ĠdÃ¬reach": 1117,
      "Ġchleachdadh": 1118,
      "Ã²isich": 1119,
      "Ġsuidh": 1120,
      "itean": 1121,
      "ĠÃĴ": 1122,
      "Ġmura": 1123,
      "ruinn": 1124,
      "ĠIain": 1125,
      "fhaod": 1126,
      "ĠComhairle": 1127,
      "annan": 1128,
      "Ãłipearan": 1129,
      "euch": 1130,
      "che": 1131,
      "co": 1132,
      "lamaid": 1133,
      "Ġleu": 1134,
      "ĠÂ£": 1135,
      "pÃłirtichean": 1136,
      "Ġdhuinn": 1137,
      "eadhan": 1138,
      "ainnean": 1139,
      "ruidhinn": 1140,
      "Ġear": 1141,
      "ĠÃ¬re": 1142,
      "Ġsl": 1143,
      "iv": 1144,
      "Ġclu": 1145,
      "da": 1146,
      "gaidh": 1147,
      "ĠTagh": 1148,
      "AIDH": 1149,
      "Ġraoin": 1150,
      "riomag": 1151,
      "Ãłrlamaid": 1152,
      "Ġbuidh": 1153,
      "Ġthaobh": 1154,
      "ice": 1155,
      "ileanan": 1156,
      "Ġphr": 1157,
      "Ġdhaibh": 1158,
      "Ã¬th": 1159,
      "Ġgabhail": 1160,
      "riomagan": 1161,
      "Ġagam": 1162,
      "ids": 1163,
      "Ġraointean": 1164,
      "igeadh": 1165,
      "ibhr": 1166,
      "ĠRiaghaltas": 1167,
      "Ġfu": 1168,
      "ĠrÃ¨ir": 1169,
      "Ġ,": 1170,
      "eurla": 1171,
      "ĠÃłireamh": 1172,
      "ĠIar": 1173,
      "ian": 1174,
      "eÃ²l": 1175,
      "Ġmeasgachadh": 1176,
      "OS": 1177,
      "ĠlÃłimh": 1178,
      "Ġtuath": 1179,
      "aire": 1180,
      "uireach": 1181,
      "ealan": 1182,
      "ona": 1183,
      "EACH": 1184,
      "Ġ:": 1185,
      "Ġ17": 1186,
      "bhr": 1187,
      "ife": 1188,
      "osg": 1189,
      "ĠÃ²": 1190,
      "ĠLe": 1191,
      "oiseach": 1192,
      "Ġturas": 1193,
      "thannas": 1194,
      "Ġcoimhead": 1195,
      "iof": 1196,
      "Ġdhol": 1197,
      "),": 1198,
      "ĠÃ¬omhaighean": 1199,
      "ĠV": 1200,
      "ĠthÃłinig": 1201,
      "Ġ8": 1202,
      "ĠRoinn": 1203,
      "laschu": 1204,
      "Ġfalamh": 1205,
      "lachd": 1206,
      "rach": 1207,
      "ĠdÃ¹il": 1208,
      "rÃ¬obhaideachd": 1209,
      "Ġcuibhr": 1210,
      "ĠmÃ¬": 1211,
      "Ġranns": 1212,
      ".âĢĻ": 1213,
      "Ġ;": 1214,
      "athar": 1215,
      "ealain": 1216,
      "Com": 1217,
      "ĠNic": 1218,
      "rÃ¨": 1219,
      "Ġcarthannas": 1220,
      "tach": 1221,
      "Ġleasachadh": 1222,
      "anan": 1223,
      "Ã¹il": 1224,
      "asan": 1225,
      ".<": 1226,
      "Eileanan": 1227,
      "eanadh": 1228,
      "Ġ[": 1229,
      "ĠdÃ²cha": 1230,
      "eachan": 1231,
      "Ã¬gh": 1232,
      "ĠsÃ²nraichte": 1233,
      "lann": 1234,
      "ilth": 1235,
      "ĠLife": 1236,
      "Ġcookies": 1237,
      "ĠClÃłraich": 1238,
      "Ġbhi": 1239,
      "arantas": 1240,
      "Ġairg": 1241,
      "Ã²iseac": 1242,
      "ĠRÃ¬ogh": 1243,
      "ĠcÃ²": 1244,
      "Ġchom": 1245,
      "ruthachadh": 1246,
      "ige": 1247,
      "allach": 1248,
      "Cuir": 1249,
      "Mu": 1250,
      "Ãłil": 1251,
      "Ġbaile": 1252,
      "ĠBBC": 1253,
      "ĠPrÃ¬obhaideachd": 1254,
      "011": 1255,
      "lÃł": 1256,
      "isg": 1257,
      "ĠprÃ¬omh": 1258,
      "RACH": 1259,
      "saogh": 1260,
      "asad": 1261,
      "Ġfaicibh": 1262,
      "seachadh": 1263,
      "Ġtogail": 1264,
      "igin": 1265,
      "os": 1266,
      "dadh": 1267,
      "alach": 1268,
      "ĠCriomagan": 1269,
      "Ġcuibhrichte": 1270,
      "rachaidh": 1271,
      "IOS": 1272,
      "romach": 1273,
      "Ġbharantas": 1274,
      "407": 1275,
      "ĠThugainn": 1276,
      "ĠPhÃłipearan": 1277,
      "ĠDeidhinn": 1278,
      "2593": 1279,
      "042593": 1280,
      "407011": 1281,
      "ichead": 1282,
      "ĠNEACH": 1283,
      "eachdaidh": 1284,
      "IOSRACH": 1285,
      "Ġmotha": 1286,
      "ithe": 1287,
      "iofar": 1288,
      "FIOSRACH": 1289,
      "FIOSRACHAIDH": 1290,
      "iÃ¹ir": 1291,
      "Ã¨isean": 1292,
      "ĠChu": 1293,
      "Ġfhuair": 1294,
      "ghadh": 1295,
      "Ãłgail": 1296,
      "oirbh": 1297,
      "ĠtrÃ¬": 1298,
      "Ġatharrachadh": 1299,
      "Ã¹r": 1300,
      "ow": 1301,
      "Ġfalbh": 1302,
      "Ġ10": 1303,
      "Ġsgiob": 1304,
      "fhaodadh": 1305,
      "iall": 1306,
      "Ġchumail": 1307,
      "ogadh": 1308,
      "rath": 1309,
      "000": 1310,
      "ĠtÃ¨id": 1311,
      "ĠDÃ¨": 1312,
      "Ġrogh": 1313,
      "ighean": 1314,
      "Ġcinnt": 1315,
      "Ġbeagan": 1316,
      "to": 1317,
      "Ġfaighinn": 1318,
      "Ġthe": 1319,
      "Ġof": 1320,
      "Ġroinn": 1321,
      "Ġfuireach": 1322,
      "ĠAonaichte": 1323,
      "ĠTuath": 1324,
      "uch": 1325,
      "inntinn": 1326,
      "Ġchun": 1327,
      "gram": 1328,
      "Ġorra": 1329,
      "Ã²mhnall": 1330,
      "ĠRu": 1331,
      "Ġ14": 1332,
      "Ġbhliadhna": 1333,
      "ĠthÃ¨id": 1334,
      "eama": 1335,
      "ros": 1336,
      "ĠÃ¨": 1337,
      "airg": 1338,
      "Ġoidh": 1339,
      "ghd": 1340,
      "Ġlean": 1341,
      "man": 1342,
      "Ġghabh": 1343,
      "Ġcud": 1344,
      "ĠfÃ¬or": 1345,
      "ĠMÃ²r": 1346,
      "liadhn": 1347,
      "ior": 1348,
      "ithid": 1349,
      "nachadh": 1350,
      "earachd": 1351,
      "Ġstu": 1352,
      "ainm": 1353,
      "Ġ...": 1354,
      "athair": 1355,
      "Ġsealltainn": 1356,
      "amara": 1357,
      "Ã²rs": 1358,
      "Ġdheidhinn": 1359,
      "ifig": 1360,
      "eachaidh": 1361,
      "ĠNÃłiseanta": 1362,
      "Ġiar": 1363,
      "bar": 1364,
      "luasad": 1365,
      "Ã²mhn": 1366,
      "Ġleithid": 1367,
      "Ġbhuidh": 1368,
      "eith": 1369,
      "Ġ9": 1370,
      "ĠSp": 1371,
      "oinn": 1372,
      "Ġiomadh": 1373,
      "gan": 1374,
      "Ġfac": 1375,
      "loidhne": 1376,
      "adair": 1377,
      "artas": 1378,
      "cot": 1379,
      "reatainn": 1380,
      "Ã©": 1381,
      "arra": 1382,
      "ĠRÃ¨ile": 1383,
      "Ġcinnteach": 1384,
      "sinn": 1385,
      "Ġtach": 1386,
      "imhearsnachd": 1387,
      "Ġdiofar": 1388,
      "ĠMgr": 1389,
      "lana": 1390,
      "Ġbruidhinn": 1391,
      "Ãłrt": 1392,
      "ĠDÃ¹n": 1393,
      "Ġfiosrachadh": 1394,
      "mhÃłin": 1395,
      "ĠGu": 1396,
      "Ġbheachd": 1397,
      "ĠfÃ¨in": 1398,
      "idhe": 1399,
      "ĠSiar": 1400,
      "Ġ11": 1401,
      "Ġion": 1402,
      "ĠtrÃ¨": 1403,
      "lean": 1404,
      "et": 1405,
      "Ġnochd": 1406,
      "ĠBu": 1407,
      "ealta": 1408,
      "imp": 1409,
      "arraing": 1410,
      "Ãłmh": 1411,
      "Ãłn": 1412,
      "Ãłigh": 1413,
      "ĠEad": 1414,
      "ĠLuchd": 1415,
      "ilthigh": 1416,
      "leas": 1417,
      "iÃ¹il": 1418,
      "Ġdearbh": 1419,
      "ionns": 1420,
      "Ġcheannach": 1421,
      "Ġ200": 1422,
      "eachdraidh": 1423,
      "toirt": 1424,
      "Ãłta": 1425,
      "iochd": 1426,
      "Ã²gram": 1427,
      "Ġ&": 1428,
      "bad": 1429,
      "Ġbheir": 1430,
      "ĠstÃ¨idheachadh": 1431,
      "ĠStiÃ¹ireadh": 1432,
      "aicinn": 1433,
      "Ġsna": 1434,
      "Ġobr": 1435,
      "ut": 1436,
      "Ġ15": 1437,
      "ochd": 1438,
      "ĠGhÃłidhealtachd": 1439,
      "nntas": 1440,
      "aisb": 1441,
      "roit": 1442,
      "Ġteachd": 1443,
      "Ġcumail": 1444,
      "nÃ¬omh": 1445,
      "Ġleabhar": 1446,
      "nard": 1447,
      "lac": 1448,
      "Ġcumhachd": 1449,
      "ĠDÃ²mhnall": 1450,
      "Ġte": 1451,
      "Ãłbh": 1452,
      "ĠleÃ²r": 1453,
      "ĠÃ¹ra": 1454,
      "Ġfiosrachaidh": 1455,
      "rithist": 1456,
      "airis": 1457,
      "euchd": 1458,
      "onn": 1459,
      "staigh": 1460,
      "ce": 1461,
      "'s": 1462,
      "ilm": 1463,
      "Ġtoiseach": 1464,
      "Ġpost": 1465,
      "dair": 1466,
      "ĠcÃ²rr": 1467,
      "ideann": 1468,
      "Ġcheann": 1469,
      "Ġceangal": 1470,
      "ithear": 1471,
      "neachd": 1472,
      "ĠÃ²r": 1473,
      "eÃ²rsa": 1474,
      "ĠAnns": 1475,
      "ĠbeÃ²": 1476,
      "nar": 1477,
      "Ġfaodaidh": 1478,
      "rann": 1479,
      "asgaidh": 1480,
      "ĠsÃłs": 1481,
      "Ġtoil": 1482,
      "Ġbuaidh": 1483,
      "sl": 1484,
      "Ġloidhne": 1485,
      "Ġgabh": 1486,
      "Ġgheibh": 1487,
      "rÃ¬och": 1488,
      "Ġtog": 1489,
      "oirid": 1490,
      "Ġbun": 1491,
      "ĠpÃłirt": 1492,
      "ĠBaile": 1493,
      "Ġdhomh": 1494,
      "Ġ12": 1495,
      "arrach": 1496,
      "drÃł": 1497,
      "oileas": 1498,
      "achaigh": 1499,
      "Ġcomasach": 1500,
      "ealach": 1501,
      "Ġeag": 1502,
      "Ġcolt": 1503,
      "Ch": 1504,
      "Ġdhiubh": 1505,
      "ga": 1506,
      "ĠsgrÃ¬obhadh": 1507,
      "Ġâ": 1508,
      ",\"": 1509,
      "ram": 1510,
      "ct": 1511,
      "ive": 1512,
      "inntir": 1513,
      "Ġeachdraidh": 1514,
      "ÂŃ": 1515,
      "Ġinnse": 1516,
      "ss": 1517,
      "ogh": 1518,
      "iom": 1519,
      "Ġceart": 1520,
      "thair": 1521,
      "Ġleig": 1522,
      "Ã¬rean": 1523,
      "Ġdroch": 1524,
      "Ġ16": 1525,
      "dan": 1526,
      ".[": 1527,
      "ĠSte": 1528,
      "Ġrathad": 1529,
      "seÃ²rsa": 1530,
      "aglais": 1531,
      "ent": 1532,
      "eannard": 1533,
      "ĠGa": 1534,
      "Ã¹s": 1535,
      "ĠÃĪideann": 1536,
      "aisean": 1537,
      "ĠphÃłirt": 1538,
      "Ġged": 1539,
      "iost": 1540,
      "thar": 1541,
      "aoineachadh": 1542,
      "Ġmion": 1543,
      "irt": 1544,
      "ĠSe": 1545,
      "inist": 1546,
      "ĠÃ¹ine": 1547,
      "Ã¬de": 1548,
      "Ġiasg": 1549,
      "aol": 1550,
      "Ġdeireadh": 1551,
      "Ġge": 1552,
      "Ġsgioba": 1553,
      "Ã¬sean": 1554,
      "ĠlÃłn": 1555,
      "ĠlÃłraichean": 1556,
      "Ġthairis": 1557,
      "Ġseirbheisean": 1558,
      "mar": 1559,
      "ĠchÃ¨ile": 1560,
      "ĠEadar": 1561,
      "ĠdÃ²chas": 1562,
      "ĠlÃłraich": 1563,
      "ino": 1564,
      "eumas": 1565,
      "Ġbeatha": 1566,
      "Ġrannsachadh": 1567,
      "ĠIo": 1568,
      "ĠfÃłs": 1569,
      "neachadh": 1570,
      "Ġbr": 1571,
      "ĠCeann": 1572,
      "Ġruith": 1573,
      "Ġon": 1574,
      "ĠPÃłrlamaid": 1575,
      "Ġcoimhearsnachd": 1576,
      "cleachdaidh": 1577,
      "Ġfada": 1578,
      "Ġroghainnean": 1579,
      "iorr": 1580,
      "Ġfeuch": 1581,
      "iubhail": 1582,
      "ĠtÃ²rr": 1583,
      "ĠLeÃ²": 1584,
      "ailt": 1585,
      "ĠScot": 1586,
      "Ġmus": 1587,
      "Ġionnsachadh": 1588,
      "Ġfaigh": 1589,
      "Ã²t": 1590,
      "ars": 1591,
      "anachd": 1592,
      "ĠGhear": 1593,
      "Ġmise": 1594,
      "ay": 1595,
      "Ġfhaicinn": 1596,
      "ĠsÃ¬os": 1597,
      "arraich": 1598,
      "com": 1599,
      "Ġand": 1600,
      "Ġw": 1601,
      "ĠBÃ²rd": 1602,
      "iam": 1603,
      "nean": 1604,
      "Ġrudan": 1605,
      "ĠSgith": 1606,
      "drÃłsta": 1607,
      "ĠThÃ¨id": 1608,
      "ĠtÃ¨": 1609,
      "rÃ¹dadh": 1610,
      "Ġchr": 1611,
      "Ġreic": 1612,
      "rÃłid": 1613,
      "Ġcudromach": 1614,
      "nabh": 1615,
      "ĠSan": 1616,
      "Ġto": 1617,
      "eannaich": 1618,
      "oillseachadh": 1619,
      "ĠprÃ²iseac": 1620,
      "Ġfreag": 1621,
      "Ã¹bh": 1622,
      "Ġiomairt": 1623,
      "eadhanan": 1624,
      "Ã²iseachadh": 1625,
      "mon": 1626,
      "ailtean": 1627,
      "eachas": 1628,
      "elic": 1629,
      "Ġghabhail": 1630,
      "Ġroimhe": 1631,
      "Ġriochd": 1632,
      "ĠSgitheanach": 1633,
      "theang": 1634,
      "Ġdheth": 1635,
      "ibhist": 1636,
      "bu": 1637,
      "eist": 1638,
      "ĠÃĢrd": 1639,
      "ĠsÃ¹il": 1640,
      "Ġchomh": 1641,
      "ĠChuir": 1642,
      "Ġgan": 1643,
      "ĠCam": 1644,
      "Ġuisge": 1645,
      "Ġcoltach": 1646,
      "oladh": 1647,
      "Ġ#": 1648,
      "ord": 1649,
      "Ġlit": 1650,
      "ĠSl": 1651,
      "ĠlÃ¨ir": 1652,
      "anadh": 1653,
      "ĠEÃ²r": 1654,
      "ou": 1655,
      "Ãłird": 1656,
      "sgoil": 1657,
      "ĠLeÃ²dh": 1658,
      "Ġfhios": 1659,
      "ĠOilthigh": 1660,
      "Ġchoimhearsnachd": 1661,
      "Ãłite": 1662,
      "ĠAth": 1663,
      "reachd": 1664,
      "aisteal": 1665,
      "Ġteagh": 1666,
      "ab": 1667,
      "Ãłrna": 1668,
      "iallachadh": 1669,
      "Ġcap": 1670,
      "Ġ13": 1671,
      "Ġuallach": 1672,
      "ĠglÃ¨": 1673,
      "Ġcoinn": 1674,
      "ĠGlaschu": 1675,
      "ĠNuair": 1676,
      "eÃ²las": 1677,
      "ĠImag": 1678,
      "Ġidir": 1679,
      "asino": 1680,
      "earr": 1681,
      "Ġfogh": 1682,
      "uidhe": 1683,
      "ĠMhic": 1684,
      "Ġ194": 1685,
      "eadhainn": 1686,
      "Ġteag": 1687,
      "Ġos": 1688,
      "Ã¨ill": 1689,
      "ĠdhÃł": 1690,
      "tair": 1691,
      "daidh": 1692,
      "leann": 1693,
      "iostam": 1694,
      "ĠImage": 1695,
      "Ãłd": 1696,
      "Ġsaor": 1697,
      "Ġriagh": 1698,
      "mp": 1699,
      "tasgaidh": 1700,
      "Ġchruthachadh": 1701,
      "aiste": 1702,
      "Ġoidhche": 1703,
      "Ġcaption": 1704,
      "ĠlÃ¹": 1705,
      "ĠUibhist": 1706,
      "cu": 1707,
      "ĠÃłit": 1708,
      "Ġball": 1709,
      "Ġcuideachadh": 1710,
      "ĠÃłr": 1711,
      "liadhnaichean": 1712,
      "ire": 1713,
      "ĠLÃ¹": 1714,
      "Ġfhoillseachadh": 1715,
      "Ġdhealbh": 1716,
      "tÃł": 1717,
      "Ġairgead": 1718,
      "ĠCal": 1719,
      "Ġfheadhainn": 1720,
      "eagan": 1721,
      "imeil": 1722,
      "ĠseÃ²": 1723,
      "ĠAlas": 1724,
      "ĠchlÃłr": 1725,
      "Ġcuairt": 1726,
      "lbh": 1727,
      "ruinneachadh": 1728,
      "Ġ195": 1729,
      ".\"": 1730,
      "Ã¹nadh": 1731,
      "seirbheis": 1732,
      "Ġchlu": 1733,
      "Ġtat": 1734,
      "chuid": 1735,
      "ĠGed": 1736,
      "Ġchleachd": 1737,
      "Ġdragh": 1738,
      "nu": 1739,
      "Ġbl": 1740,
      "ĠdÃ¹thaich": 1741,
      "Ġgru": 1742,
      "Ġ2018": 1743,
      "Su": 1744,
      "Ġthach": 1745,
      "luagh": 1746,
      "Ġseann": 1747,
      "ighear": 1748,
      "ĠSeo": 1749,
      "uist": 1750,
      "aisbeanadh": 1751,
      "sean": 1752,
      "Ġmhath": 1753,
      "Ġcead": 1754,
      "Ġtal": 1755,
      "Ġlagh": 1756,
      "pais": 1757,
      "raich": 1758,
      "Ġionadail": 1759,
      "bhann": 1760,
      "orm": 1761,
      "est": 1762,
      "Ġfaod": 1763,
      "Ġtric": 1764,
      "ĠstÃ¨idhichte": 1765,
      "ĠRÃ¬gh": 1766,
      "oile": 1767,
      "dhiÃ¹": 1768,
      "Ġthar": 1769,
      "ĠgnÃ¬omhachas": 1770,
      "ĠSgoil": 1771,
      "Ġleas": 1772,
      "ĠspÃ²rs": 1773,
      "abhairt": 1774,
      "eana": 1775,
      "ers": 1776,
      "Ãłinte": 1777,
      "ĠÃłirde": 1778,
      "Ġchum": 1779,
      "igsinn": 1780,
      "leir": 1781,
      "airl": 1782,
      "ish": 1783,
      "oll": 1784,
      "Ġcun": 1785,
      "Ġaice": 1786,
      "reath": 1787,
      "Ġleughadh": 1788,
      "eithir": 1789,
      "ĠfhÃłgail": 1790,
      "eisimeil": 1791,
      "ait": 1792,
      "ĠAig": 1793,
      "ĠlÃłidir": 1794,
      "saoghail": 1795,
      "unn": 1796,
      "iorrachd": 1797,
      "eirm": 1798,
      "ul": 1799,
      "fe": 1800,
      "Ã²isealta": 1801,
      "ĠAlasdair": 1802,
      "Ġ2017": 1803,
      "ÃĢ": 1804,
      "ataidh": 1805,
      "Ġbathar": 1806,
      "Ġeis": 1807,
      "eigin": 1808,
      "Ġbeachdan": 1809,
      "adal": 1810,
      "Ãłilte": 1811,
      "ĠCr": 1812,
      "tt": 1813,
      "Ãłitean": 1814,
      "ĠcÃłil": 1815,
      "Ġdeagh": 1816,
      "Ġainmeil": 1817,
      "oileasaidh": 1818,
      "Ġ.": 1819,
      "ang": 1820,
      "Gh": 1821,
      "ĠDÃ¹bh": 1822,
      "cheall": 1823,
      "Ã²s": 1824,
      "ĠdÃ¹thcha": 1825,
      "ein": 1826,
      "Ġduil": 1827,
      "Ġfaicinn": 1828,
      "Ġ191": 1829,
      "ighreachd": 1830,
      "ĠrÃ¨": 1831,
      "Ġni": 1832,
      "Ġinntinn": 1833,
      "ĠceÃ²l": 1834,
      "Ġfhear": 1835,
      "op": 1836,
      "ĠLÃł": 1837,
      "Ġtron": 1838,
      "Th": 1839,
      "Ġceud": 1840,
      "Ġchompanaidh": 1841,
      "ĠmÃ²ra": 1842,
      "Ġstuthan": 1843,
      "arbh": 1844,
      "idheadh": 1845,
      "Ġpro": 1846,
      "righ": 1847,
      "gmh": 1848,
      "ĠstÃ¨isean": 1849,
      "ĠthÃ²isich": 1850,
      "Ġdhuibh": 1851,
      "ĠFaodaidh": 1852,
      "ke": 1853,
      "ĠdhÃ¬th": 1854,
      "achail": 1855,
      "ras": 1856,
      "Ġagaibh": 1857,
      "ĠeÃ²las": 1858,
      "taichean": 1859,
      "nain": 1860,
      "bhaist": 1861,
      "Ġ??": 1862,
      "Ġsgaoil": 1863,
      "ĠY": 1864,
      "Ġluath": 1865,
      "ĠRÃ¬oghachd": 1866,
      "Ġuairean": 1867,
      "ĠAll": 1868,
      "MS": 1869,
      "Ġgluasad": 1870,
      "Ġ193": 1871,
      "Ġcosg": 1872,
      "Ġfeumaidh": 1873,
      "inistear": 1874,
      "uisge": 1875,
      "impleir": 1876,
      "reid": 1877,
      "iamar": 1878,
      "Dh": 1879,
      "iadh": 1880,
      "ĠCol": 1881,
      "Ã¬osan": 1882,
      "annaich": 1883,
      "Ġcru": 1884,
      "Ã²d": 1885,
      "imhead": 1886,
      "ĠâĢ¢": 1887,
      "'m": 1888,
      "ĠRÃ¬oghail": 1889,
      "Ġleam": 1890,
      "Ã²id": 1891,
      "ĠDÃ¹bhlachd": 1892,
      "dheal": 1893,
      "seo": 1894,
      "Ġleantainn": 1895,
      "eachail": 1896,
      "Ġtaighean": 1897,
      "ĠSteÃ²r": 1898,
      "cheang": 1899,
      "Ġmach": 1900,
      "Ġmuinntir": 1901,
      "Ġtor": 1902,
      "sgrÃ¬obh": 1903,
      "ĠDeas": 1904,
      "Ġgnoth": 1905,
      "ĠEaglais": 1906,
      "ĠBeurla": 1907,
      "ĠSteÃ²rnabh": 1908,
      "ard": 1909,
      "ĠbhÃ²t": 1910,
      "Ġboir": 1911,
      "ĠCho": 1912,
      "LeÃ²": 1913,
      "mailt": 1914,
      "ĠFeum": 1915,
      "ĠlÃ¬on": 1916,
      "ĠCuir": 1917,
      "ĠBhiodh": 1918,
      "ĠÃ¬omhaigh": 1919,
      "ĠChomhairle": 1920,
      "ĠdÃłrna": 1921,
      "Ġdreuchd": 1922,
      "imcheall": 1923,
      "gadh": 1924,
      "ĠtÃ¬r": 1925,
      "cleachdadh": 1926,
      "seachdain": 1927,
      "ĠGha": 1928,
      "bo": 1929,
      "Ġeac": 1930,
      "adhail": 1931,
      "Ġdealbhan": 1932,
      "Ġcuimh": 1933,
      "ĠDhÃ¹n": 1934,
      "ĠcÃłnain": 1935,
      "iarr": 1936,
      "aide": 1937,
      "ĠChom": 1938,
      "ĠStÃłitean": 1939,
      "achais": 1940,
      "tanach": 1941,
      "Ġcookie": 1942,
      "anas": 1943,
      "ĠComann": 1944,
      "ĠsgÃłth": 1945,
      "ĠRois": 1946,
      "Ġsu": 1947,
      "Ġao": 1948,
      "rosnachadh": 1949,
      "nÃłiseanta": 1950,
      "ĠBhreatainn": 1951,
      "and": 1952,
      "ĠÃĮ": 1953,
      "ghdarr": 1954,
      "Ġmeadhan": 1955,
      "aladh": 1956,
      "ĠnÃ¬": 1957,
      "Ġamas": 1958,
      "LeÃ²id": 1959,
      "airm": 1960,
      "eathain": 1961,
      "ĠlÃłmh": 1962,
      "ĠBl": 1963,
      "ĠseÃ²rsa": 1964,
      "achan": 1965,
      "Ġnochdadh": 1966,
      "Ã²sta": 1967,
      "ĠlÃłithean": 1968,
      ".âĢĿ": 1969,
      "Ã¨itean": 1970,
      "Ġclas": 1971,
      "ltain": 1972,
      "ĠprÃ²gram": 1973,
      "ĠRinn": 1974,
      "ĠtÃ²iseachadh": 1975,
      "ithis": 1976,
      "Ġ199": 1977,
      "ĠâĨ": 1978,
      "eistean": 1979,
      "Ġseachd": 1980,
      "iseil": 1981,
      "Ġseachdain": 1982,
      "ĠsgrÃ¹dadh": 1983,
      "Ġeilean": 1984,
      "Ġeisimpleir": 1985,
      "Ġthog": 1986,
      "Ġcionn": 1987,
      "Ġthig": 1988,
      "stal": 1989,
      "Ġchar": 1990,
      "ĠcÃ²ig": 1991,
      "ma": 1992,
      "Ġgrunn": 1993,
      "naidh": 1994,
      "Ġbheag": 1995,
      "Ġtarraing": 1996,
      "ĠFac": 1997,
      "ĠchÃ¹is": 1998,
      "annachd": 1999,
      "ĠThÃłinig": 2000,
      "Ġbuidheann": 2001,
      "ĠGear": 2002,
      "Ãłrtaidh": 2003,
      "rÃ¬": 2004,
      "Ġtur": 2005,
      "Ġtachartas": 2006,
      "oilis": 2007,
      "ĠcrÃ¬och": 2008,
      "ealladh": 2009,
      "uinn": 2010,
      "thas": 2011,
      "bhainn": 2012,
      "Ġsha": 2013,
      "eirmichean": 2014,
      "Ġsmaoineachadh": 2015,
      "lanaichean": 2016,
      "ĠLÃ¹na": 2017,
      "âĢ¦": 2018,
      "Samh": 2019,
      "ĠPr": 2020,
      "gmhios": 2021,
      "Ġthall": 2022,
      "chaidh": 2023,
      "Ġ24": 2024,
      "ĠFhuair": 2025,
      "18": 2026,
      "nich": 2027,
      "Ãłnan": 2028,
      "illeir": 2029,
      "oblach": 2030,
      "Ġsuidheachadh": 2031,
      "Ġchithear": 2032,
      "ĠÃłbhaist": 2033,
      "eid": 2034,
      "dach": 2035,
      "Ġsoirbh": 2036,
      "Ġcroit": 2037,
      "bha": 2038,
      "Ġciallachadh": 2039,
      "adach": 2040,
      "adhal": 2041,
      "ltar": 2042,
      "ĠsgÃ¬rean": 2043,
      "Ãłigheadh": 2044,
      "dÃ¨anamh": 2045,
      "nalt": 2046,
      "ĠPort": 2047,
      "Ġluach": 2048,
      "ld": 2049,
      "Ġoifig": 2050,
      "Ġtalamh": 2051,
      "ĠBun": 2052,
      "ÃĴ": 2053,
      "Ġceithir": 2054,
      "saoghal": 2055,
      "Ġsmachd": 2056,
      "Ġre": 2057,
      "Ġfa": 2058,
      "bhraichean": 2059,
      "ĠstÃ²r": 2060,
      "ĠUill": 2061,
      "Ġfir": 2062,
      "lainn": 2063,
      "Ġesan": 2064,
      "raidhean": 2065,
      "ĠtÃ¹s": 2066,
      "baid": 2067,
      "Ġac": 2068,
      "igeach": 2069,
      "Ġ2016": 2070,
      "'.": 2071,
      "19": 2072,
      "ĠÃ¹idh": 2073,
      "Ġsealladh": 2074,
      "Ġbhuidheann": 2075,
      "EA": 2076,
      "oire": 2077,
      "are": 2078,
      "raiche": 2079,
      "Ġfeadhainn": 2080,
      "ĠcÃłnan": 2081,
      "Ġtoir": 2082,
      "ĠTighear": 2083,
      "theangachadh": 2084,
      "ogaidh": 2085,
      "tais": 2086,
      "Ġ196": 2087,
      "luaigh": 2088,
      "ĠSiorrachd": 2089,
      "lain": 2090,
      "ala": 2091,
      "Ġ192": 2092,
      "Ġ0": 2093,
      "Ãłidhlig": 2094,
      "ĠcÃ¹l": 2095,
      "ban": 2096,
      "',": 2097,
      "dÃ¨": 2098,
      "ĠLMS": 2099,
      "nal": 2100,
      "ĠThe": 2101,
      "ĠSeumas": 2102,
      "rsa": 2103,
      "ĠGhlaschu": 2104,
      "ĠphrÃ¬omh": 2105,
      "ĠGaelic": 2106,
      "lÃ¨": 2107,
      "ĠÃĪir": 2108,
      "ell": 2109,
      "ĠDi": 2110,
      "Ġseas": 2111,
      "Ã¬dh": 2112,
      "ĠbÃł": 2113,
      "eicn": 2114,
      "Ã²mhnaill": 2115,
      "ĠSha": 2116,
      "ĠCasino": 2117,
      "Ġleud": 2118,
      "Ġsol": 2119,
      "ack": 2120,
      "ron": 2121,
      "gha": 2122,
      "ĠJo": 2123,
      "ĠMha": 2124,
      "ĠLÃ¹nastal": 2125,
      "aois": 2126,
      "laich": 2127,
      "otha": 2128,
      "dhealaichte": 2129,
      "Ġsiostam": 2130,
      "roinn": 2131,
      "Ġfhad": 2132,
      "Ġdithis": 2133,
      "ĠTaobh": 2134,
      "rea": 2135,
      "slighe": 2136,
      "Ġairgid": 2137,
      "ĠGÃłidheal": 2138,
      "Ġtogalach": 2139,
      "ver": 2140,
      "ew": 2141,
      "Ġdeiseil": 2142,
      "ĠBhaile": 2143,
      "ĠCar": 2144,
      "ĠLea": 2145,
      "Ġainmeachadh": 2146,
      "Ġ`": 2147,
      "ĠUrr": 2148,
      "ĠDealbh": 2149,
      "ĠgrÃł": 2150,
      "inneach": 2151,
      "ĠEile": 2152,
      "imisean": 2153,
      "Ġtoilichte": 2154,
      "BA": 2155,
      "ama": 2156,
      "ĠâĢĭ": 2157,
      "siubhail": 2158,
      "Bh": 2159,
      "ĠGo": 2160,
      "iot": 2161,
      "Ãłraidh": 2162,
      "ugh": 2163,
      "rochaid": 2164,
      "Ġ25": 2165,
      "\",": 2166,
      "Ġcruth": 2167,
      "mhainn": 2168,
      "Ãłit": 2169,
      "mhor": 2170,
      "ĠFaigh": 2171,
      "sm": 2172,
      "uil": 2173,
      "ton": 2174,
      "eachdan": 2175,
      "ĠInn": 2176,
      "Ġcluich": 2177,
      "Ġcois": 2178,
      "Ġ30": 2179,
      "Ġbuidhnean": 2180,
      "labhairt": 2181,
      "Ġtag": 2182,
      "Ġsuidhichte": 2183,
      "rain": 2184,
      "ĠPrÃ¬omh": 2185,
      "laid": 2186,
      "achaidhean": 2187,
      "igr": 2188,
      "ĠGaidh": 2189,
      "ĠfiÃ¹": 2190,
      "ĠFeumaidh": 2191,
      "alairt": 2192,
      "ik": 2193,
      "Ġmheadhan": 2194,
      "ĠDÃłmh": 2195,
      "aithris": 2196,
      "leasachaidh": 2197,
      "Ġtimcheall": 2198,
      "cur": 2199,
      "aib": 2200,
      "Ġfoghlam": 2201,
      "ĠCeang": 2202,
      "iarainn": 2203,
      "Ġmoladh": 2204,
      "ĠNeach": 2205,
      "An": 2206,
      "oinne": 2207,
      "Ġdeug": 2208,
      "Ãłill": 2209,
      "Ġsgeama": 2210,
      "ĠcÃłr": 2211,
      "Ġfosgailte": 2212,
      "ĠGheibh": 2213,
      "ĠGleann": 2214,
      "ritheal": 2215,
      "ĠdÃ¨an": 2216,
      "Ġfeuchainn": 2217,
      "aids": 2218,
      "ĠBreatainn": 2219,
      "ĠDÃłmhair": 2220,
      "âĢĭ": 2221,
      "Ġoirre": 2222,
      "ĠMhÃ²r": 2223,
      "ĠrÃ¨ile": 2224,
      "ĠsÃłbh": 2225,
      "idhean": 2226,
      "ĠIom": 2227,
      "ren": 2228,
      "deigin": 2229,
      "Ã³": 2230,
      "oin": 2231,
      "Ġ?": 2232,
      "saichean": 2233,
      "ĠMhÃ²ir": 2234,
      "aoch": 2235,
      "Ãłran": 2236,
      "ilbh": 2237,
      "leidheadh": 2238,
      "Ãłrdachd": 2239,
      "Ġriamh": 2240,
      "ĠSaor": 2241,
      "ĠmÃ¬le": 2242,
      "ailteach": 2243,
      "Sultain": 2244,
      "ghas": 2245,
      "eacsa": 2246,
      "llach": 2247,
      "ĠfÃłgail": 2248,
      "Ġmeas": 2249,
      "Ġbheatha": 2250,
      "Ġghoirid": 2251,
      "raichean": 2252,
      "ĠMo": 2253,
      "Sh": 2254,
      "uiridh": 2255,
      "illse": 2256,
      "Ġsoilleir": 2257,
      "Ġdachaigh": 2258,
      "arain": 2259,
      "Ġrudeigin": 2260,
      "ĠAL": 2261,
      "ĠLeÃ²dhas": 2262,
      "Ġteaghlach": 2263,
      "Ġcor": 2264,
      "aireachdainn": 2265,
      "fhios": 2266,
      "Ġbhr": 2267,
      "airtean": 2268,
      "ealltainn": 2269,
      "Ãłiri": 2270,
      "aoghal": 2271,
      "ba": 2272,
      "ĠâĢĭâĢĭ": 2273,
      "raig": 2274,
      "Ġraon": 2275,
      "ĠDia": 2276,
      "ĠÃĻr": 2277,
      "ĠChl": 2278,
      "alchas": 2279,
      "Ġeaglais": 2280,
      "tur": 2281,
      "ĠbÃłs": 2282,
      "aigeach": 2283,
      "ĠcÃ¹isean": 2284,
      "ifis": 2285,
      "santa": 2286,
      "noth": 2287,
      "ĠSrÃłid": 2288,
      "Ġfilm": 2289,
      "ionnsa": 2290,
      "Ġbhuaidh": 2291,
      "Ġ2014": 2292,
      "Ġplanaichean": 2293,
      "Ġiarrtas": 2294,
      "lair": 2295,
      "ĠIonad": 2296,
      "Ġmhu": 2297,
      "ĠCon": 2298,
      "ĠALBA": 2299,
      "Ã¬osal": 2300,
      "Ġseinn": 2301,
      "Ġdor": 2302,
      "iosta": 2303,
      "iblean": 2304,
      "ĠprÃ²iseactan": 2305,
      "raph": 2306,
      "iligeadh": 2307,
      "Ġceum": 2308,
      "Ġtadhal": 2309,
      "Ġmara": 2310,
      "ĠghnÃ¬omh": 2311,
      "tanas": 2312,
      "Ġinneal": 2313,
      "ĠFear": 2314,
      "Ġcunnar": 2315,
      "ciÃ¹il": 2316,
      "eilbh": 2317,
      "aighd": 2318,
      "ve": 2319,
      "ĠSu": 2320,
      "Ġiongan": 2321,
      "clu": 2322,
      "Ã¹ir": 2323,
      "ĠdrÃł": 2324,
      "Ġstad": 2325,
      "Ġta": 2326,
      "ĠRath": 2327,
      "ff": 2328,
      "cheangailte": 2329,
      "ĠlÃ¬": 2330,
      "ĠRe": 2331,
      "Ġ21": 2332,
      "Ġaithris": 2333,
      "oirm": 2334,
      "ĠCÃ²mh": 2335,
      "ĠBeinn": 2336,
      "ĠdÃ¹thch": 2337,
      "ĠdÃ¬on": 2338,
      "neach": 2339,
      "ĠstiÃ¹ir": 2340,
      "spadal": 2341,
      "ĠcÃ²ir": 2342,
      "ĠSteÃ²rnabhagh": 2343,
      "nnaic": 2344,
      "ĠEarra": 2345,
      "uchar": 2346,
      "Ġlitr": 2347,
      "beul": 2348,
      "fhÃłg": 2349,
      "ĠOst": 2350,
      "\".": 2351,
      "Ã¹in": 2352,
      "ĠnÃłd": 2353,
      "Ġloch": 2354,
      "eamhan": 2355,
      "atharraich": 2356,
      "Ġbuil": 2357,
      "ĠMacI": 2358,
      "dhÃ¹nadh": 2359,
      "ĠMur": 2360,
      "Ãłna": 2361,
      "eÃ²r": 2362,
      "Ġtaisbeanadh": 2363,
      "ĠDÃ²mhnallach": 2364,
      "\\\\": 2365,
      "ĠEilein": 2366,
      "Ġgear": 2367,
      "ĠDrochaid": 2368,
      "Ġlugha": 2369,
      "ins": 2370,
      "Ġfars": 2371,
      "alaichean": 2372,
      "Ġfhaide": 2373,
      "Ġort": 2374,
      "ĠsÃ²isealta": 2375,
      "ĠÃ²rd": 2376,
      "Ġbliadhnaichean": 2377,
      "abhal": 2378,
      "Ġgabhaidh": 2379,
      "Ġcol": 2380,
      "Ġnaidheachd": 2381,
      "Ġ22": 2382,
      "ĠObar": 2383,
      "ber": 2384,
      "Ġv": 2385,
      "Ġorm": 2386,
      "ĠFha": 2387,
      "Ġfao": 2388,
      "Ġleigeil": 2389,
      "Ġ197": 2390,
      "ĠfÃ²n": 2391,
      "ĠtrÃ¨ana": 2392,
      "ĠAllt": 2393,
      "ĠSgrÃ¬obh": 2394,
      "ĠTuilleadh": 2395,
      "Ġcusp": 2396,
      "Ġinbh": 2397,
      "ĠAc": 2398,
      "ighland": 2399,
      "eairt": 2400,
      "Ġbhid": 2401,
      "Ġbeul": 2402,
      "ĠEÃ²rp": 2403,
      "icheadh": 2404,
      "dal": 2405,
      "ĠtrÃłth": 2406,
      "coimhead": 2407,
      "Ġaithisg": 2408,
      "Ġceannard": 2409,
      "oileat": 2410,
      "Ġamh": 2411,
      "Ġloc": 2412,
      "Ġghl": 2413,
      "agha": 2414,
      "oid": 2415,
      "ĠGrann": 2416,
      "Ã¬ch": 2417,
      "dail": 2418,
      "igridh": 2419,
      "camara": 2420,
      "ĠfÃłilte": 2421,
      "eisimeileachd": 2422,
      "ĠnÃłiseanta": 2423,
      "oinnich": 2424,
      "ĠBan": 2425,
      "Ġadhbhar": 2426,
      "km": 2427,
      "ilidh": 2428,
      "ogle": 2429,
      "ĠFaic": 2430,
      "ĠprÃ¬sean": 2431,
      "dol": 2432,
      "Ġuachd": 2433,
      "Ġ2015": 2434,
      "ĠdhÃ²": 2435,
      "Ġplana": 2436,
      "Ġcamara": 2437,
      "Ġ187": 2438,
      "aimbeul": 2439,
      "eanamh": 2440,
      "ĠAillse": 2441,
      "Samhain": 2442,
      "pp": 2443,
      "Ġinnealan": 2444,
      "Ã¡": 2445,
      "ĠÃĻraichte": 2446,
      "Ãłis": 2447,
      "alla": 2448,
      "Ġteacsa": 2449,
      "Ġaois": 2450,
      "ollais": 2451,
      "ue": 2452,
      "adairean": 2453,
      "dhail": 2454,
      "Ġfor": 2455,
      "fhalbh": 2456,
      "Ġaire": 2457,
      "Ġgoirid": 2458,
      "Ġclann": 2459,
      "Ġdeich": 2460,
      "Ġriu": 2461,
      "Ġthachair": 2462,
      "ĠBr": 2463,
      "Ġchois": 2464,
      "laim": 2465,
      "itch": 2466,
      "ĠNu": 2467,
      "Ġria": 2468,
      "Ġ189": 2469,
      "aodar": 2470,
      "Ġbuannachd": 2471,
      "oine": 2472,
      "Ġsgoiltean": 2473,
      "osgladh": 2474,
      "ĠHR": 2475,
      "Ġiongantach": 2476,
      "Ġuidh": 2477,
      "Ġghleidheadh": 2478,
      "Ġbiadh": 2479,
      "ĠbÃłta": 2480,
      "ck": 2481,
      "Ġ198": 2482,
      "eadair": 2483,
      "panaidhean": 2484,
      "irp": 2485,
      "ĠHear": 2486,
      "isteachd": 2487,
      "chadh": 2488,
      "Ġceistean": 2489,
      "ĠFaodar": 2490,
      "Ġgeam": 2491,
      "Ġleudachadh": 2492,
      "rÃłth": 2493,
      "ograph": 2494,
      "ĠMacLeÃ²id": 2495,
      "Ġinntinneach": 2496,
      "adain": 2497,
      "ugadh": 2498,
      "Ġriar": 2499,
      "deas": 2500,
      "Ġceannach": 2501,
      "ghead": 2502,
      "ĠScott": 2503,
      "innis": 2504,
      "Ġchead": 2505,
      "ĠseÃ²ladh": 2506,
      "Ġeacona": 2507,
      "lar": 2508,
      "maidh": 2509,
      "Ġ23": 2510,
      "bhaile": 2511,
      "ĠLÃłr": 2512,
      "orth": 2513,
      "Ġfhada": 2514,
      "Ġsgaoileadh": 2515,
      "eanas": 2516,
      "arpais": 2517,
      "Ġsaoghal": 2518,
      "Ġthabhann": 2519,
      "eug": 2520,
      "illean": 2521,
      "anar": 2522,
      "Ġteicn": 2523,
      "ĠGall": 2524,
      "ĠMura": 2525,
      "ĠMÃłiri": 2526,
      "anaichean": 2527,
      "eagaisg": 2528,
      "sluaigh": 2529,
      "Ġsia": 2530,
      "Ġpoblach": 2531,
      "ĠÃ²g": 2532,
      "sin": 2533,
      "ĠLunn": 2534,
      "ĠEÃ²": 2535,
      "ĠComunn": 2536,
      "lacadh": 2537,
      "uath": 2538,
      "Ġchoinn": 2539,
      "Ġfarsaing": 2540,
      "</": 2541,
      "be": 2542,
      "ĠÃłiteachan": 2543,
      "ĠâĨĴ": 2544,
      "ĠStÃ²r": 2545,
      "mhnan": 2546,
      "Ġduais": 2547,
      "Ġdealbhadh": 2548,
      "Ġmac": 2549,
      "Ġ2013": 2550,
      "uk": 2551,
      "Ġmharbh": 2552,
      "Ġsn": 2553,
      "ĠThÃ²isich": 2554,
      "ĠBhr": 2555,
      "eanntan": 2556,
      "30": 2557,
      "omot": 2558,
      "nag": 2559,
      "Ġdearbhadh": 2560,
      "Ġcomharrachadh": 2561,
      "Ġiadsan": 2562,
      "Ġchosg": 2563,
      "asglann": 2564,
      "mons": 2565,
      "reith": 2566,
      "Ġleabhraichean": 2567,
      "Ġstuth": 2568,
      "Ġfaotainn": 2569,
      "seach": 2570,
      "ĠCaol": 2571,
      "ĠdÃ²ighean": 2572,
      "ĠDis": 2573,
      "iath": 2574,
      "eim": 2575,
      "cois": 2576,
      "ĠlÃłthair": 2577,
      "Ġrannsachaidh": 2578,
      "araidh": 2579,
      "iubhal": 2580,
      "ww": 2581,
      "Ã¬neachadh": 2582,
      "otograph": 2583,
      "ĠOstaig": 2584,
      "sair": 2585,
      "Ġcomas": 2586,
      "eisean": 2587,
      "Ġghabhas": 2588,
      "Ġfacal": 2589,
      "ĠCÃ¹": 2590,
      "Ġfollais": 2591,
      "uidheachadh": 2592,
      "du": 2593,
      "Ġfreagarrach": 2594,
      "GhÃłidh": 2595,
      "gabhail": 2596,
      "ĠGÃłidhealach": 2597,
      "ĠÃłrainn": 2598,
      "Ġdl": 2599,
      "easan": 2600,
      "chive": 2601,
      "Ġteine": 2602,
      "acadh": 2603,
      "ĠthÃ¬de": 2604,
      "ĠRugadh": 2605,
      "inneimh": 2606,
      "fhiosrachadh": 2607,
      "rÃ¬os": 2608,
      "Ph": 2609,
      "ly": 2610,
      "Ġcoltas": 2611,
      "turais": 2612,
      "Ġbeaga": 2613,
      "Ġobrachadh": 2614,
      "oradh": 2615,
      "baidh": 2616,
      "ĠMor": 2617,
      "Ġ100": 2618,
      "Ġsreath": 2619,
      "Ãłrr": 2620,
      "idseat": 2621,
      "ĠLunnainn": 2622,
      "taich": 2623,
      "Ãĥ": 2624,
      "Ġrathaidean": 2625,
      "ĠlÃ¬bhr": 2626,
      "aoir": 2627,
      "Ġdubh": 2628,
      "Ġbuill": 2629,
      "Ġsgoilearan": 2630,
      "Ġciamar": 2631,
      "achdraidh": 2632,
      "Ġfoill": 2633,
      "Ġleat": 2634,
      "ĠHighland": 2635,
      "ilig": 2636,
      "ĠDr": 2637,
      "ĠDheathain": 2638,
      "nise": 2639,
      "adan": 2640,
      "ĠDÃł": 2641,
      "ĠtatÃ¹": 2642,
      "17": 2643,
      "Ã²iseact": 2644,
      "Ã²m": 2645,
      "ĠAbhainn": 2646,
      "ĠBheurla": 2647,
      "ong": 2648,
      "uing": 2649,
      "Ã¹ine": 2650,
      "uidheann": 2651,
      "ĠdÃ¬": 2652,
      "Ġcunntas": 2653,
      "Ġse": 2654,
      "50": 2655,
      "ĠFÃ¨is": 2656,
      "Ġuabh": 2657,
      "easgar": 2658,
      "otographic": 2659,
      "sich": 2660,
      "Ġslighe": 2661,
      "ĠdÃ¨iligeadh": 2662,
      "Ġphoileasaidh": 2663,
      "ĠMacA": 2664,
      "iotal": 2665,
      "Ãłl": 2666,
      "bs": 2667,
      "Ġneart": 2668,
      "ĠChaol": 2669,
      "Ãłrantan": 2670,
      "Ġcruaidh": 2671,
      "leachd": 2672,
      "Ġdhr": 2673,
      "Ġtharraing": 2674,
      "ĠâĢĶ": 2675,
      "riseadh": 2676,
      "ĠeÃ²lach": 2677,
      "isein": 2678,
      "ref": 2679,
      "10": 2680,
      "Ġthuilleadh": 2681,
      "Beurla": 2682,
      "Ġfhichead": 2683,
      "osgail": 2684,
      "ĠprÃ²iseact": 2685,
      "Ġcheud": 2686,
      "naich": 2687,
      "Ġcruthachadh": 2688,
      "athairne": 2689,
      "ĠchÃłnan": 2690,
      "ĠEachdraidh": 2691,
      "Ġbuailteach": 2692,
      "fhÃłs": 2693,
      "ĠDubh": 2694,
      "asdan": 2695,
      "ĠGhearmailt": 2696,
      "ĠSk": 2697,
      "ĠSabhal": 2698,
      "ĠmÃ¬osan": 2699,
      "ĠfhÃ¬n": 2700,
      "ts": 2701,
      "ĠCaisteal": 2702,
      "Ġ190": 2703,
      "ĠHearadh": 2704,
      "ĠclÃłradh": 2705,
      "av": 2706,
      "Ġdeuch": 2707,
      "anaich": 2708,
      "inig": 2709,
      "ation": 2710,
      "lÃłimhe": 2711,
      "Ġcheart": 2712,
      "les": 2713,
      "Ã¹naire": 2714,
      "uain": 2715,
      "arc": 2716,
      "otainn": 2717,
      "Ġfuasg": 2718,
      "ĠCommons": 2719,
      "Chan": 2720,
      "hn": 2721,
      "Ġcoinneachadh": 2722,
      "ĠEÃ²rpa": 2723,
      "Ġtreas": 2724,
      "Ġriaraichte": 2725,
      "Eilean": 2726,
      "nuas": 2727,
      "ĠÃ¨ir": 2728,
      "ĠgnÃłth": 2729,
      "eoin": 2730,
      "Ġdeasbad": 2731,
      "iz": 2732,
      "Ġfon": 2733,
      "adhair": 2734,
      "Ġeadh": 2735,
      "Ġtrice": 2736,
      "Ġtachairt": 2737,
      "Ġdealain": 2738,
      "Ġdheasachadh": 2739,
      "Ġtub": 2740,
      "Ġchumhachd": 2741,
      "Ġmeadhanan": 2742,
      "haoine": 2743,
      "ianais": 2744,
      "Ġnighean": 2745,
      "ĠÃĴgmhios": 2746,
      "rÃ¬r": 2747,
      "ress": 2748,
      "Ġcultar": 2749,
      "Ġhref": 2750,
      "aighe": 2751,
      "ĠGoogle": 2752,
      "ĠlÃ¬n": 2753,
      "ĠComh": 2754,
      "Ġsois": 2755,
      "Ġmheadhanan": 2756,
      "riath": 2757,
      "GhÃłidheal": 2758,
      "ĠEÃ²rpach": 2759,
      "bog": 2760,
      "eoth": 2761,
      "ure": 2762,
      "DhÃ²mhnaill": 2763,
      "ĠUrras": 2764,
      "aoithe": 2765,
      "ĠNao": 2766,
      "agan": 2767,
      "luais": 2768,
      "naltradh": 2769,
      "omotaibh": 2770,
      "Ãłnain": 2771,
      "Ã¬ob": 2772,
      "Ġfhaotainn": 2773,
      "ĠSgithean": 2774,
      "Ġuabhasach": 2775,
      "Ġtig": 2776,
      "Ġ28": 2777,
      "ov": 2778,
      "anaidh": 2779,
      "ĠSir": 2780,
      "reids": 2781,
      "Ã²rdadh": 2782,
      "ionnsachaidh": 2783,
      "tachadh": 2784,
      "manta": 2785,
      "Ġuidheam": 2786,
      "PA": 2787,
      "uirich": 2788,
      "Ġliosta": 2789,
      "ĠCuid": 2790,
      "mailto": 2791,
      "Ġ*": 2792,
      "chiad": 2793,
      "cas": 2794,
      "ry": 2795,
      "ĠLÃłbar": 2796,
      "Ġbhean": 2797,
      "Ãłirc": 2798,
      "ĠSgitheanaich": 2799,
      "Ġsgu": 2800,
      "Ġbhog": 2801,
      "Ġgin": 2802,
      "Ġtatto": 2803,
      "Ġchunnaic": 2804,
      "cal": 2805,
      "one": 2806,
      "Ġoidhirp": 2807,
      "raing": 2808,
      "nam": 2809,
      "Ġtilleadh": 2810,
      "bliadhna": 2811,
      "Ġdealan": 2812,
      "Ġsinne": 2813,
      "Ġfeumail": 2814,
      "riamh": 2815,
      "Ġgre": 2816,
      "Ġ186": 2817,
      "ind": 2818,
      "ĠTr": 2819,
      "ĠCor": 2820,
      "ĠNew": 2821,
      "ionndadh": 2822,
      "ĠCamanachd": 2823,
      "dean": 2824,
      "Ġcruinneachadh": 2825,
      "eirbheisean": 2826,
      "Ġbeachdachadh": 2827,
      "Ġoirnn": 2828,
      "Ġcos": 2829,
      "Ġfaclan": 2830,
      "daoin": 2831,
      "suidhe": 2832,
      "ide": 2833,
      "Ġcleachd": 2834,
      "ĠTighearna": 2835,
      "Ġlogadh": 2836,
      "achdan": 2837,
      "=\"": 2838,
      "ĠbÃ²rd": 2839,
      "nichean": 2840,
      "Ġmeud": 2841,
      "imhne": 2842,
      "ileanadh": 2843,
      "ĠSas": 2844,
      "ĠÃ¬": 2845,
      "bhu": 2846,
      "ĠAg": 2847,
      "Ã²mhnaidh": 2848,
      "Ġobrach": 2849,
      "Ġull": 2850,
      "onadh": 2851,
      "ĠChr": 2852,
      "Ġban": 2853,
      "ifeachd": 2854,
      "ĠÃĢird": 2855,
      "oghlam": 2856,
      "ĠBho": 2857,
      "Ġochd": 2858,
      "Ġ26": 2859,
      "Ġsgeulachdan": 2860,
      "ĠlÃ¹ib": 2861,
      "ĠLeas": 2862,
      "Ġfhe": 2863,
      "Ġriutha": 2864,
      "Ġfhu": 2865,
      "Ġtriob": 2866,
      "20": 2867,
      "Ġcro": 2868,
      "Ġruige": 2869,
      "ola": 2870,
      "riog": 2871,
      "ĠchlÃłradh": 2872,
      "ĠDÃ¹th": 2873,
      "ĠRoinnean": 2874,
      "aideach": 2875,
      "aidheans": 2876,
      "Ġsgr": 2877,
      "Ġchuairt": 2878,
      "ĠUilleam": 2879,
      "\">": 2880,
      "ĠÃ²rain": 2881,
      "ĠchÃ²mh": 2882,
      "Ġduilghead": 2883,
      "Ġcunnart": 2884,
      "ĠDisathairne": 2885,
      "ilg": 2886,
      "ĠPhÃłrlamaid": 2887,
      "cair": 2888,
      "iasg": 2889,
      "ĠsÃ¹": 2890,
      "ĠAN": 2891,
      "ĠDonn": 2892,
      "ĠDhÃ¨": 2893,
      "Ġbithidh": 2894,
      "ĠAchd": 2895,
      "ruct": 2896,
      "ĠÃ¹ghdarr": 2897,
      "Ġdrochaid": 2898,
      "af": 2899,
      "Ġtabh": 2900,
      "ĠÃłrdachadh": 2901,
      "Ġlitir": 2902,
      "Ġtaing": 2903,
      "iteach": 2904,
      "ĠWest": 2905,
      "ĠphrÃ²gram": 2906,
      "15": 2907,
      "ï¿": 2908,
      "Ġthaghadh": 2909,
      "Ġriaghaltas": 2910,
      "ĠAonghas": 2911,
      "Ġbe": 2912,
      "teagaisg": 2913,
      "ĠCaimbeul": 2914,
      "Ġsgilean": 2915,
      "ĠmhÃ¬os": 2916,
      "ĠMacC": 2917,
      "Ġgam": 2918,
      "Ãłladh": 2919,
      "bhair": 2920,
      "Ġ188": 2921,
      "ĠChithear": 2922,
      "illeach": 2923,
      "ĠAinm": 2924,
      "Ġmis": 2925,
      "Ġfhosgladh": 2926,
      "ĠStiÃ¹": 2927,
      "ĠÂ»": 2928,
      "ï¿½": 2929,
      "alt": 2930,
      "eireag": 2931,
      "lidh": 2932,
      "Ġriochdachadh": 2933,
      "airc": 2934,
      "ruim": 2935,
      "taic": 2936,
      "Ġchunntas": 2937,
      "ĠlÃ¬bhrigeadh": 2938,
      "no": 2939,
      "ÃŃ": 2940,
      "ĠÃ¹ire": 2941,
      "ĠGhobh": 2942,
      "rian": 2943,
      "unt": 2944,
      "Ġchall": 2945,
      "Ġdath": 2946,
      "Fh": 2947,
      "Ġchaill": 2948,
      "ĠEar": 2949,
      "aghaltais": 2950,
      "ĠLeabhar": 2951,
      "rÃ¬ribh": 2952,
      "bl": 2953,
      "Ġ+": 2954,
      "ĠÃ²ga": 2955,
      "can": 2956,
      "qu": 2957,
      "ick": 2958,
      "Ġionmh": 2959,
      "aind": 2960,
      "ĠNA": 2961,
      "act": 2962,
      "thÃł": 2963,
      "ĠDo": 2964,
      "ĠcliÃ¹": 2965,
      "ĠEal": 2966,
      "Ġduilleagan": 2967,
      "nuadh": 2968,
      "Ġmharbhadh": 2969,
      "ireachd": 2970,
      "Ġthoiseach": 2971,
      "Ġ27": 2972,
      "ĠChÃ¨itean": 2973,
      "Ġfheum": 2974,
      "fhosgail": 2975,
      "Ġiomradh": 2976,
      "Ġcoimhearsnachdan": 2977,
      "cÃ²mhnaidh": 2978,
      "Ġsluagh": 2979,
      "Ġcluichead": 2980,
      "Ġfaodadh": 2981,
      "ĠIomairt": 2982,
      "oi": 2983,
      "per": 2984,
      "ĠCoimisean": 2985,
      "ĠcÃ¹rsa": 2986,
      "Ġdhi": 2987,
      "bur": 2988,
      "bhail": 2989,
      "Ġcall": 2990,
      "asaid": 2991,
      "ĠSin": 2992,
      "Ġseasamh": 2993,
      "ĠRathad": 2994,
      "aithe": 2995,
      "em": 2996,
      "Ġaod": 2997,
      "earsanta": 2998,
      "ity": 2999,
      "ĠPheo": 3000,
      "Ġionnsaigh": 3001,
      "lÃ¬on": 3002,
      "Ġthathar": 3003,
      "Ã²nach": 3004,
      "Ġsoisealta": 3005,
      "Ġteagamh": 3006,
      "ĠTw": 3007,
      "ĠStÃ¨isean": 3008,
      "ĠBo": 3009,
      "ĠRÃ¹naire": 3010,
      "ĠNo": 3011,
      "aga": 3012,
      "ĠslÃłinte": 3013,
      "ealaich": 3014,
      "reidsinn": 3015,
      "Ġainmean": 3016,
      "Ãłire": 3017,
      "Ãłthair": 3018,
      "ÃĪ": 3019,
      "ĠClu": 3020,
      "ĠSa": 3021,
      "ghdachadh": 3022,
      "ĠDiar": 3023,
      "samh": 3024,
      "ĠsÃłr": 3025,
      "itter": 3026,
      "Ġeinn": 3027,
      "Ġnis": 3028,
      "itcheann": 3029,
      "Ġfichead": 3030,
      "Ġcarson": 3031,
      "Ġsoirbheachail": 3032,
      "Ġcheang": 3033,
      "aoth": 3034,
      "Ġdeasaich": 3035,
      "Ġ29": 3036,
      "Ġeagal": 3037,
      "Ġtlachd": 3038,
      "Ġteirmichean": 3039,
      "urt": 3040,
      "nochd": 3041,
      "Ãłgh": 3042,
      "onaidh": 3043,
      "Ġ50": 3044,
      "Ġsireadh": 3045,
      "dha": 3046,
      "ĠthÃ¹s": 3047,
      "ĠCat": 3048,
      "Ġrium": 3049,
      "Ġfarpais": 3050,
      "Ġbailtean": 3051,
      "Ġit": 3052,
      "aidiseanta": 3053,
      "amach": 3054,
      "Ġfi": 3055,
      "Ġlocomotaibh": 3056,
      "Ãłipear": 3057,
      "athraiche": 3058,
      "tin": 3059,
      "ĠPoilis": 3060,
      "ileanaich": 3061,
      "Ġiasgach": 3062,
      "ĠSE": 3063,
      "Ġdeilbh": 3064,
      "Ġ2012": 3065,
      "ĠBliadhna": 3066,
      "Ġboireannaich": 3067,
      "Ã²ram": 3068,
      "aindeoin": 3069,
      "ĠÃĪirinn": 3070,
      "ĠgrÃ¨": 3071,
      "Ġcridhe": 3072,
      "ĠbÃ²": 3073,
      "Ãłraid": 3074,
      "Ġcreid": 3075,
      "amaidh": 3076,
      "Ġmarbh": 3077,
      "Ġcuideigin": 3078,
      "Ġfreagairt": 3079,
      "Ġmullach": 3080,
      "Ġcomhairle": 3081,
      "anaids": 3082,
      "ĠRA": 3083,
      "aigs": 3084,
      "ock": 3085,
      "Ġthugainn": 3086,
      "ĠComataidh": 3087,
      "gaid": 3088,
      "ĠDhu": 3089,
      "ĠPheofh": 3090,
      "earg": 3091,
      "ĠÃ²ran": 3092,
      "Ġsealbh": 3093,
      "Ġron": 3094,
      "ĠDihaoine": 3095,
      "Ġcinn": 3096,
      "ĠBhu": 3097,
      "201": 3098,
      "ĠChol": 3099,
      "Ãłirdean": 3100,
      "rithealadh": 3101,
      "oifig": 3102,
      "Ġdad": 3103,
      "adail": 3104,
      "ĠLeÃ²dhais": 3105,
      "eachaidhean": 3106,
      "Ġbhl": 3107,
      "Ġoighreachd": 3108,
      "Ġmoth": 3109,
      "Ġfuaim": 3110,
      "ĠAtt": 3111,
      "aoladh": 3112,
      "ribu": 3113,
      "ĠSpÃł": 3114,
      "AN": 3115,
      "ĠciÃ¹il": 3116,
      "aisbean": 3117,
      "ĠCreat": 3118,
      "Ġfhreag": 3119,
      "Ġriatanach": 3120,
      "book": 3121,
      "Ġcheadachas": 3122,
      "Ġfearann": 3123,
      "eitheamh": 3124,
      "ĠNuadh": 3125,
      "ud": 3126,
      "Ġdoirbh": 3127,
      "Ġmalairt": 3128,
      "oisg": 3129,
      "ĠAl": 3130,
      "ĠSrath": 3131,
      "arran": 3132,
      "iadain": 3133,
      "Ġuairsin": 3134,
      "ĠÃłbhaisteach": 3135,
      "Ġceangailte": 3136,
      "rÃ¬obhaideach": 3137,
      "Ġsgoile": 3138,
      "Ġtuigsinn": 3139,
      "ĠRob": 3140,
      "Ġcus": 3141,
      "Ġcorp": 3142,
      "fr": 3143,
      "ĠlÃ¬o": 3144,
      "ribution": 3145,
      "sir": 3146,
      "Ġcruinn": 3147,
      "ĠCreative": 3148,
      "ibhidh": 3149,
      "ĠghnÃ¬omhachas": 3150,
      "Ġteagasg": 3151,
      "Ġsmaoin": 3152,
      "Ġcompanaidhean": 3153,
      "chan": 3154,
      "asgadh": 3155,
      "ft": 3156,
      "noc": 3157,
      "ĠIuchar": 3158,
      "GÃłidhlig": 3159,
      "ĠOir": 3160,
      "Ġtachartasan": 3161,
      "Ġda": 3162,
      "ĠSal": 3163,
      "onald": 3164,
      "Eaglais": 3165,
      "iuth": 3166,
      "Share": 3167,
      "Ġdhachaigh": 3168,
      "Ġcumanta": 3169,
      "ĠZ": 3170,
      "alaich": 3171,
      "Ġtuit": 3172,
      "Ġmhad": 3173,
      "Ġ\\\\": 3174,
      "Ġcothroman": 3175,
      "thoil": 3176,
      "adamaidh": 3177,
      "Ġshl": 3178,
      "ĠRos": 3179,
      "ĠTe": 3180,
      "arraigh": 3181,
      "eallaidhean": 3182,
      "Ġbhliadhnaichean": 3183,
      "12": 3184,
      "Ġceist": 3185,
      "ĠBro": 3186,
      "ĠDim": 3187,
      "MA": 3188,
      "pe": 3189,
      "Ġfhars": 3190,
      "der": 3191,
      "ĠsgrÃ¬obhadair": 3192,
      "Ġchairt": 3193,
      "ĠThathar": 3194,
      "ĠJohn": 3195,
      "Ġsean": 3196,
      "eathr": 3197,
      "ks": 3198,
      "Ġbochd": 3199,
      "impiu": 3200,
      "nÃłth": 3201,
      "Ġghear": 3202,
      "Ġdhreuchd": 3203,
      "ĠAttribution": 3204,
      "ĠbÃłrdachd": 3205,
      "olaidhean": 3206,
      "Ġthoradh": 3207,
      "ĠSN": 3208,
      "Ġgeama": 3209,
      "ĠEn": 3210,
      "mhnant": 3211,
      "Ġcon": 3212,
      "ĠLÃ¬o": 3213,
      "Ġchleachdaidh": 3214,
      "fheumas": 3215,
      "ĠBuidheann": 3216,
      "Ã¹rlar": 3217,
      "ĠGhobhainn": 3218,
      "ĠshÃ²nraichte": 3219,
      "Ġaithneachadh": 3220,
      "taig": 3221,
      "ĠâĢ¦": 3222,
      "ĠÃłrainneachd": 3223,
      "Ġby": 3224,
      "Ã¬le": 3225,
      "bal": 3226,
      "Ġbrosnachadh": 3227,
      "ore": 3228,
      "ĠDiardaoin": 3229,
      "like": 3230,
      "ĠgnÃ¨": 3231,
      "ĠphrÃ²is": 3232,
      "annsa": 3233,
      "Ġaontachadh": 3234,
      "ĠÃ²rdugh": 3235,
      "Ġtubaist": 3236,
      "AS": 3237,
      "ĠmÃ¬os": 3238,
      "Ġpuist": 3239,
      "Ġsiubhal": 3240,
      "Ġmad": 3241,
      "ĠCÃ¨itean": 3242,
      "eata": 3243,
      "Ġdiugh": 3244,
      "ĠbÃ¹th": 3245,
      "ĠTasglann": 3246,
      "ĠLeis": 3247,
      "ĠbÃłtaichean": 3248,
      "iod": 3249,
      "ĠMÃ²d": 3250,
      "ĠchÃ¬": 3251,
      "ĠdhÃ¨": 3252,
      "aibhidh": 3253,
      "Alike": 3254,
      "alch": 3255,
      "ĠFl": 3256,
      "ĠdÃ¹in": 3257,
      "ĠprÃ¬s": 3258,
      "ShareAlike": 3259,
      "lebh": 3260,
      "oillsich": 3261,
      "ĠpÃłigheadh": 3262,
      "amp": 3263,
      "nichte": 3264,
      "Ġtheirmichean": 3265,
      "Ġroghainn": 3266,
      "Ġchlas": 3267,
      "Ġchluich": 3268,
      "bhairt": 3269,
      "latha": 3270,
      "earbhadh": 3271,
      "ĠGhiblean": 3272,
      "Ãłsaich": 3273,
      "Ġ)": 3274,
      "ĠGhl": 3275,
      "14": 3276,
      "ideachadh": 3277,
      "IR": 3278,
      "Ġthr": 3279,
      "ĠLit": 3280,
      "Ġgeamannan": 3281,
      "Ġcosgaisean": 3282,
      "ĠchÃłr": 3283,
      "Ġghluasad": 3284,
      "Ġriaghladh": 3285,
      "ibhe": 3286,
      "Ġduilich": 3287,
      "Ġfaireachdainn": 3288,
      "ĠTwitter": 3289,
      "ĠtÃłinig": 3290,
      "edia": 3291,
      "ruthaich": 3292,
      "ĠDimÃłirt": 3293,
      "airgead": 3294,
      "ĠQ": 3295,
      "Ġathair": 3296,
      "The": 3297,
      "Ġiasgaich": 3298,
      "Ġthighinn": 3299,
      "Ġoileanaich": 3300,
      "'t": 3301,
      "tor": 3302,
      "iste": 3303,
      "ĠdhÃ¹nadh": 3304,
      "eileanan": 3305,
      "ĠGeÃłrr": 3306,
      "Ġ\"'": 3307,
      "ime": 3308,
      "Ġleotha": 3309,
      "Ġiomchaidh": 3310,
      "Ġfollaiseach": 3311,
      "ĠBheag": 3312,
      "iluain": 3313,
      "ĠtrÃł": 3314,
      "Ġfianais": 3315,
      "baireachd": 3316,
      "Ġproif": 3317,
      "faighinn": 3318,
      "ghearr": 3319,
      "Ġbeanntan": 3320,
      "illeagan": 3321,
      "ate": 3322,
      "ĠÃ¨ig": 3323,
      "16": 3324,
      "arrachaidhean": 3325,
      "ĠAs": 3326,
      "Ġfeasgar": 3327,
      "ĠMe": 3328,
      "ĠMus": 3329,
      "Ġ2011": 3330,
      "Ã¨irich": 3331,
      "Ġrabh": 3332,
      "ainnt": 3333,
      ",âĢĿ": 3334,
      "Ġdheas": 3335,
      "ĠChinn": 3336,
      "sgoile": 3337,
      "Ġsheas": 3338,
      "Ġaonta": 3339,
      "HS": 3340,
      "ĠÃ¨isteachd": 3341,
      "aghaidh": 3342,
      "Ġchuideachadh": 3343,
      "ĠAnna": 3344,
      "ĠcÃłileachd": 3345,
      "seanan": 3346,
      "ional": 3347,
      "Ġdualchas": 3348,
      "Ġblog": 3349,
      "ĠdhÃ²igh": 3350,
      "our": 3351,
      "ĠphrÃ²iseact": 3352,
      "Ġdaon": 3353,
      "ĠGus": 3354,
      "badh": 3355,
      "ĠThathas": 3356,
      "Ġconaltradh": 3357,
      "reic": 3358,
      "ĠCalum": 3359,
      "Ġcas": 3360,
      "ruidh": 3361,
      "eig": 3362,
      "Ġdeal": 3363,
      "Ġread": 3364,
      "aiteach": 3365,
      "ĠstrÃ¬": 3366,
      "iud": 3367,
      "mhÃ²r": 3368,
      "loch": 3369,
      "Ġsamh": 3370,
      "ĠcÃ¨ill": 3371,
      "ĠChuim": 3372,
      "coise": 3373,
      "Ġriaghailtean": 3374,
      "ĠBeag": 3375,
      "ĠFilm": 3376,
      "ÃĮ": 3377,
      "Ġeadhon": 3378,
      "Bha": 3379,
      "Ġsanas": 3380,
      "eadhanach": 3381,
      "ĠBhÃ²id": 3382,
      "ĠdÃ¹thchannan": 3383,
      "neachda": 3384,
      "ĠScotland": 3385,
      "Ġrim": 3386,
      "Ġbhonn": 3387,
      "Ãłirce": 3388,
      "oileataigs": 3389,
      "tadh": 3390,
      "agus": 3391,
      "ĠFran": 3392,
      "eaglais": 3393,
      "Ã¹ird": 3394,
      "deasaich": 3395,
      "IL": 3396,
      "ĠPro": 3397,
      "ĠFao": 3398,
      "annsachaidh": 3399,
      "Ġmhuinntir": 3400,
      "ĠScottish": 3401,
      "iomairt": 3402,
      "rig": 3403,
      "bhart": 3404,
      "Ġarm": 3405,
      "ĠcÃ¹ram": 3406,
      "Ġ40": 3407,
      "Ġeu": 3408,
      "ĠlÃ¬onra": 3409,
      "Ġast": 3410,
      "ĠOut": 3411,
      "Ġcuiridh": 3412,
      "orn": 3413,
      "ley": 3414,
      "ĠCupa": 3415,
      "eugh": 3416,
      "Ġchothrom": 3417,
      "rÃłdh": 3418,
      "Ġghnoth": 3419,
      "ĠlÃłith": 3420,
      "thuath": 3421,
      "rÃ¨ir": 3422,
      "ĠCheann": 3423,
      "rÃ¨agha": 3424,
      "aisteil": 3425,
      "earsain": 3426,
      "ĠdlÃ¹th": 3427,
      "Ġpearsanta": 3428,
      "ltean": 3429,
      "Ġtru": 3430,
      "ĠpÃ¬os": 3431,
      "Ġchuireas": 3432,
      "annachadh": 3433,
      "ĠNach": 3434,
      "airlichean": 3435,
      "Air": 3436,
      "ĠCe": 3437,
      "Ġbeath": 3438,
      "iÃ¹c": 3439,
      "Ġcoinneamh": 3440,
      "ĠÃ¨irigh": 3441,
      "tinue": 3442,
      "Ġannta": 3443,
      "ĠlÃ¹ghdachadh": 3444,
      "Ã¬mp": 3445,
      "tions": 3446,
      "Ġoifigeil": 3447,
      "aradh": 3448,
      "iÃ¹lan": 3449,
      "ĠGhall": 3450,
      "ĠTÃ²isich": 3451,
      "ĠLib": 3452,
      "Ġmhotha": 3453,
      "ĠglÃ¨idh": 3454,
      "ĠCÃ²": 3455,
      "Ġpoilis": 3456,
      "ĠdÃ¹bh": 3457,
      "ĠFhaoill": 3458,
      "Ġtheagh": 3459,
      "earc": 3460,
      "orra": 3461,
      "Ġbhuannaich": 3462,
      "ĠÃ¨ifeachd": 3463,
      "Ġbhrosnachadh": 3464,
      "ĠChille": 3465,
      "Ġud": 3466,
      "ĠTheÃ²rsa": 3467,
      "ĠprÃ²is": 3468,
      "aoidh": 3469,
      "anaidsear": 3470,
      "Ġreading": 3471,
      "13": 3472,
      "ĠbÃ¹": 3473,
      "eisteanas": 3474,
      "ĠContinue": 3475,
      "ĠPhrÃ¬omh": 3476,
      "iÃ¹iridh": 3477,
      "ebook": 3478,
      "ĠGun": 3479,
      "Ġinnte": 3480,
      "Ġtraidiseanta": 3481,
      "rÃ¹daidh": 3482,
      "Ã²g": 3483,
      "ĠCroit": 3484,
      "Ġtattoo": 3485,
      "ĠCeil": 3486,
      "ĠSEO": 3487,
      "Ġuir": 3488,
      "beatha": 3489,
      "ĠDiluain": 3490,
      "seann": 3491,
      "ĠsÃ¬or": 3492,
      "Ġtoradh": 3493,
      "Ġboireannach": 3494,
      "fheum": 3495,
      "Ġullachadh": 3496,
      "ĠAcadamaidh": 3497,
      "ĠClann": 3498,
      "Ġ31": 3499,
      "ollaig": 3500,
      "Ġinbhe": 3501,
      "ĠUn": 3502,
      "ings": 3503,
      "ĠsÃłbhailte": 3504,
      "eile": 3505,
      "Ġospadal": 3506,
      "ĠFaoilleach": 3507,
      "lle": 3508,
      "ĠDonald": 3509,
      "oidhnichean": 3510,
      "shron": 3511,
      "Ġfiadh": 3512,
      "Ã²in": 3513,
      "ainne": 3514,
      "ĠLatha": 3515,
      "Ġdhealbhan": 3516,
      "Ġmhadainn": 3517,
      "tu": 3518,
      "iÃ¹lt": 3519,
      "Ġgheama": 3520,
      "Ġturasachd": 3521,
      "bhliadhna": 3522,
      "Ġfeitheamh": 3523,
      "ĠCille": 3524,
      "ĠteicneÃ²las": 3525,
      "ina": 3526,
      "thaich": 3527,
      "Ġnaomh": 3528,
      "Ġfaidh": 3529,
      "Ġfhaod": 3530,
      "Ġbhuidhinn": 3531,
      "Ġcoiseachd": 3532,
      "chomh": 3533,
      "ĠPar": 3534,
      "lie": 3535,
      "age": 3536,
      "ĠBlÃłr": 3537,
      "mÃ²r": 3538,
      "dhealbh": 3539,
      "aine": 3540,
      "illeas": 3541,
      "ĠLa": 3542,
      "eus": 3543,
      "ĠPhort": 3544,
      "ĠÃĻige": 3545,
      "ĠSlÃłinte": 3546,
      "ĠFÃ²ram": 3547,
      "ĠphÃłigheadh": 3548,
      "lat": 3549,
      "ĠBheir": 3550,
      "ĠCiamar": 3551,
      "ĠNochd": 3552,
      "Ġdhuine": 3553,
      "inster": 3554,
      "ĠEd": 3555,
      "aighdearan": 3556,
      "ĠFhaoilleach": 3557,
      "Ġj": 3558,
      "ĠdeÃ²nach": 3559,
      "Ġcuimhne": 3560,
      "airgse": 3561,
      "ĠWestm": 3562,
      "iseig": 3563,
      "feren": 3564,
      "ĠCogadh": 3565,
      "Ã¬ona": 3566,
      "ĠRuis": 3567,
      "Ġtaisbean": 3568,
      "ment": 3569,
      "ĠceÃłr": 3570,
      "ichidh": 3571,
      "ĠFo": 3572,
      "Ġchusp": 3573,
      "ĠNHS": 3574,
      "eÃłrlach": 3575,
      "tighinn": 3576,
      "lang": 3577,
      "ĠOighreachd": 3578,
      "obrachadh": 3579,
      "liadhnail": 3580,
      "iel": 3581,
      "Ġbhall": 3582,
      "alta": 3583,
      "ealla": 3584,
      "euchainn": 3585,
      "ĠDic": 3586,
      "Ġteachdaireachd": 3587,
      "ford": 3588,
      "innleachd": 3589,
      "Ġ184": 3590,
      "Ġtelebh": 3591,
      "ailteachd": 3592,
      "Ġchomharrachadh": 3593,
      "tadhail": 3594,
      "Ġealain": 3595,
      "Ġbhathar": 3596,
      "eilge": 3597,
      "Ġbhideo": 3598,
      "ĠWestminster": 3599,
      "Ġcasg": 3600,
      "airgid": 3601,
      "obair": 3602,
      "ĠMG": 3603,
      "Ġfhaigh": 3604,
      "Ġspior": 3605,
      "seachd": 3606,
      "Ġiomadach": 3607,
      "chl": 3608,
      "Ġbathair": 3609,
      "laiche": 3610,
      "Ġdheanamh": 3611,
      "adio": 3612,
      "ĠAd": 3613,
      "Ġmeat": 3614,
      "ĠNollaig": 3615,
      "Ġtoigh": 3616,
      "lin": 3617,
      "Ġcroitearachd": 3618,
      "ĠFÃłilte": 3619,
      "Ġshon": 3620,
      "ĠCeanglaichean": 3621,
      "lea": 3622,
      "innidh": 3623,
      "ĠPlana": 3624,
      "ĠFoghlam": 3625,
      "lm": 3626,
      "ĠsgrÃ¬o": 3627,
      "Ġ!": 3628,
      "ĠgnÃ¬omhachasan": 3629,
      "ĠStiÃ¹bhart": 3630,
      "ĠMacIll": 3631,
      "ĠnÃł": 3632,
      "eachais": 3633,
      "ĠdhÃ¬on": 3634,
      "ileanach": 3635,
      "Ġcoim": 3636,
      "ĠÃĢs": 3637,
      "ĠSeirbheis": 3638,
      "ĠnÃ¨": 3639,
      "Ġchud": 3640,
      "Ġphlana": 3641,
      "way": 3642,
      "Ġcuspair": 3643,
      "ĠFar": 3644,
      "Ġadhbh": 3645,
      "ĠBe": 3646,
      "Ġurram": 3647,
      "ĠÃ¨is": 3648,
      "ĠFacebook": 3649,
      "Ġmolaidhean": 3650,
      "itheach": 3651,
      "icip": 3652,
      "ĠÂ·": 3653,
      "Ãłireamh": 3654,
      "near": 3655,
      "ĠSasainn": 3656,
      "Ãłirde": 3657,
      "reap": 3658,
      "ĠGhabh": 3659,
      "ĠchlÃ¬": 3660,
      "ĠtrÃ¨anadh": 3661,
      "ium": 3662,
      "ĠGranndach": 3663,
      "ĠCoimhearsnachd": 3664,
      "ĠDuais": 3665,
      "ĠRubha": 3666,
      "ĠGheibhear": 3667,
      "Ġdeuchainn": 3668,
      "ĠÃ¬s": 3669,
      "Ġ('": 3670,
      "Ġearrann": 3671,
      "eisimeileach": 3672,
      "ĠFhraing": 3673,
      "ttp": 3674,
      "Ã¬mplidh": 3675,
      "ĠAtharraich": 3676,
      "ĠghlÃ¨idh": 3677,
      "ĠPhr": 3678,
      "ĠsgrÃ¬obhte": 3679,
      "Ġtuig": 3680,
      "Ġsheirbheisean": 3681,
      "fhoillsich": 3682,
      "eabh": 3683,
      "ther": 3684,
      "ĠceÃłrr": 3685,
      "Ġoilthigh": 3686,
      "ull": 3687,
      "ork": 3688,
      "Ġcuireadh": 3689,
      "ĠIosa": 3690,
      "//": 3691,
      "ireach": 3692,
      "Ġsiar": 3693,
      "Ġcanar": 3694,
      "Ġmhuir": 3695,
      "sag": 3696,
      "ted": 3697,
      "ĠPheofharain": 3698,
      "chÃłna": 3699,
      "ĠchrÃ¬och": 3700,
      "ĠpÃłrantan": 3701,
      "Ġmhar": 3702,
      "eimig": 3703,
      "ĠDonnchadh": 3704,
      "dum": 3705,
      "://": 3706,
      "rachd": 3707,
      "Ġy": 3708,
      "ĠTÃ¬r": 3709,
      "Ġthathas": 3710,
      "ĠThoir": 3711,
      "Ġeaconamaidh": 3712,
      "omhas": 3713,
      "Ġbhoir": 3714,
      "Ġbriseadh": 3715,
      "ĠclÃ²": 3716,
      "iosd": 3717,
      "ĠprÃ¬obhaideach": 3718,
      "EÃ²r": 3719,
      "pt": 3720,
      "sainn": 3721,
      "II": 3722,
      "ĠCru": 3723,
      "oidhle": 3724,
      "Ġcarbad": 3725,
      "ĠCuideachd": 3726,
      "cr": 3727,
      "lo": 3728,
      "Ġdeo": 3729,
      "eanaich": 3730,
      "ĠTÃ²r": 3731,
      "Ġmheud": 3732,
      "Ġ$": 3733,
      "Ġcairt": 3734,
      "life": 3735,
      "achair": 3736,
      "Ġnithean": 3737,
      "az": 3738,
      "ionad": 3739,
      "oidhche": 3740,
      "11": 3741,
      "aille": 3742,
      "ĠOifis": 3743,
      "Ġtuiteam": 3744,
      "dhÃł": 3745,
      "Ġbhun": 3746,
      "Ġchor": 3747,
      "Ġcluicheadairean": 3748,
      "Ġchloinn": 3749,
      "ĠCuim": 3750,
      "ĠÃ¹rachadh": 3751,
      "Highland": 3752,
      "Ġchoir": 3753,
      "Ġeilein": 3754,
      "ĠAnd": 3755,
      "Ġchlann": 3756,
      "gy": 3757,
      "ĠTeÃłrlach": 3758,
      "ĠtriÃ¹ir": 3759,
      "eÃ²ladh": 3760,
      "Ġsao": 3761,
      "ailean": 3762,
      "ĠDhealbh": 3763,
      "ĠprÃ²graman": 3764,
      "ĠArc": 3765,
      "Ġcroitearan": 3766,
      "ferendum": 3767,
      "ĠfhÃłs": 3768,
      "muain": 3769,
      "Ġmhac": 3770,
      "Ġrathaid": 3771,
      "leastanas": 3772,
      "ĠrÃ¬ogh": 3773,
      "ĠMhinistear": 3774,
      "ĠPhearsain": 3775,
      "high": 3776,
      "aimh": 3777,
      "ĠthÃł": 3778,
      "ii": 3779,
      "laidhean": 3780,
      "ĠAst": 3781,
      "Ġleasachaidhean": 3782,
      "ĠChat": 3783,
      "Ġionnsuidh": 3784,
      "Ġgheibhear": 3785,
      "arsainn": 3786,
      "ĠAmeireag": 3787,
      "Ġir": 3788,
      "Ġsruth": 3789,
      "Ġlaighe": 3790,
      "ĠÃ²igridh": 3791,
      "ÃĴgmhios": 3792,
      "cho": 3793,
      "chom": 3794,
      "ireann": 3795,
      "Ġtionndadh": 3796,
      "ĠHol": 3797,
      "ĠCompanaidh": 3798,
      "ĠCeannard": 3799,
      "Ġbonn": 3800,
      "ĠFheÃłrr": 3801,
      "In": 3802,
      "daich": 3803,
      "Ã¬rinn": 3804,
      "âĢĿ.": 3805,
      "highland": 3806,
      "aighst": 3807,
      "Ġfoghlaim": 3808,
      "ĠLÃłbarach": 3809,
      "ĠX": 3810,
      "ĠSNP": 3811,
      "eadairean": 3812,
      "su": 3813,
      "Ġruig": 3814,
      "eap": 3815,
      "ĠNorth": 3816,
      "lay": 3817,
      "ĠUr": 3818,
      "ĠshÃłbh": 3819,
      "ĠLean": 3820,
      "ĠDiciadain": 3821,
      "Ġnaidheachdan": 3822,
      "Ġmhair": 3823,
      "chunntas": 3824,
      "Ġbuidhne": 3825,
      "tinn": 3826,
      "oireasdan": 3827,
      "ĠDaibhidh": 3828,
      "Ġ2010": 3829,
      "ĠDÃ¨an": 3830,
      "Ġphost": 3831,
      "obar": 3832,
      "eict": 3833,
      "Ġceudna": 3834,
      "ĠdÃ¹inte": 3835,
      "ĠMi": 3836,
      "ĠLod": 3837,
      "ĠphrÃ¬sean": 3838,
      "mond": 3839,
      "Ġtug": 3840,
      "ĠchÃ¹l": 3841,
      "lifehighland": 3842,
      "highlifehighland": 3843,
      "22": 3844,
      "Ġchru": 3845,
      "Ġsiubhail": 3846,
      "Ġreu": 3847,
      "Ġdheir": 3848,
      "Ġgeal": 3849,
      "ĠGhearran": 3850,
      "Mh": 3851,
      "ciallachadh": 3852,
      "buig": 3853,
      "ĠbrÃ¨agha": 3854,
      "stiÃ¹iridh": 3855,
      "Ġfuasgladh": 3856,
      "Ġcasino": 3857,
      "Ġfoirm": 3858,
      "Ġbean": 3859,
      "ĠChlu": 3860,
      "Ġtagradh": 3861,
      "Ġbuileach": 3862,
      "ker": 3863,
      "iog": 3864,
      "eiseanta": 3865,
      "Ġchruinneachadh": 3866,
      "idio": 3867,
      "ĠbhÃ¹th": 3868,
      "ĠMair": 3869,
      "Ġuinn": 3870,
      "ĠgnÃ¬omhachais": 3871,
      "naltraidh": 3872,
      "icipeid": 3873,
      "Ġurra": 3874,
      "idsearan": 3875,
      "ĠCamshron": 3876,
      "ĠmÃ¬neachadh": 3877,
      "Ġchoinneimh": 3878,
      "ĠDonaldson": 3879,
      "ĠMan": 3880,
      "Ġclach": 3881,
      "Ġastar": 3882,
      "Ġtrang": 3883,
      "ĠÃĴban": 3884,
      "Ġgnothaichean": 3885,
      "MAG": 3886,
      "ĠGnÃ¬omh": 3887,
      "Ġcuideam": 3888,
      "iph": 3889,
      "Ãłith": 3890,
      "ics": 3891,
      "Ġmodh": 3892,
      "Ġfoillseachadh": 3893,
      "Ġbacadh": 3894,
      "ĠAinmean": 3895,
      "HI": 3896,
      "saich": 3897,
      "ĠMacG": 3898,
      "EAN": 3899,
      "end": 3900,
      "Ġruighinn": 3901,
      "ainteachd": 3902,
      "Ġbhuin": 3903,
      "artasan": 3904,
      "ĠÃ²raid": 3905,
      "rich": 3906,
      "Ġcan": 3907,
      "ĠLeugh": 3908,
      "ĠNar": 3909,
      "ĠArm": 3910,
      "Ġgnothach": 3911,
      "cluiche": 3912,
      "IMAG": 3913,
      "Ġtar": 3914,
      "Ã¹m": 3915,
      "ĠSm": 3916,
      "Ġchoinneamh": 3917,
      "ess": 3918,
      "ĠtÃ¨ar": 3919,
      "Ġphob": 3920,
      "Ġchuireadh": 3921,
      "Ġthogadh": 3922,
      "ilia": 3923,
      "Ġfrithealadh": 3924,
      "Ġcum": 3925,
      "Ġoifis": 3926,
      "Ġghluais": 3927,
      "ĠChaoch": 3928,
      "Ġcudrom": 3929,
      "Ġlaghail": 3930,
      "ball": 3931,
      "uth": 3932,
      "ĠPÃłrtaidh": 3933,
      "ander": 3934,
      "Ġgreis": 3935,
      "Ġmor": 3936,
      "ĠchÃłnain": 3937,
      "Ġadhair": 3938,
      "ĠgrÃłdh": 3939,
      "ĠMacCoinnich": 3940,
      "gl": 3941,
      "Ġcuirm": 3942,
      "eÃ²mar": 3943,
      "Ãłireach": 3944,
      "uairidh": 3945,
      "ness": 3946,
      "rÃłthair": 3947,
      "ĠLÃłraich": 3948,
      "sluagh": 3949,
      "Ġgr": 3950,
      "togail": 3951,
      "ĠchÃ²rr": 3952,
      "ĠAghaidh": 3953,
      "ĠNaomh": 3954,
      "Ãłm": 3955,
      "Ã¨idio": 3956,
      "earraidhean": 3957,
      "Ã²ras": 3958,
      "ĠChrom": 3959,
      "Ãłlaidh": 3960,
      "ĠDhia": 3961,
      "Ġdreach": 3962,
      "baig": 3963,
      "ĠLoidhne": 3964,
      "Ġcluinntinn": 3965,
      "Ġcuspairean": 3966,
      "Ach": 3967,
      "Ġfr": 3968,
      "Ġbog": 3969,
      "Ġbrath": 3970,
      "Ġpoileasaidh": 3971,
      "laidean": 3972,
      "tairean": 3973,
      "ĠÃĴran": 3974,
      "Ġreferendum": 3975,
      "ĠgrÃ¨im": 3976,
      ".)": 3977,
      "Ġthoil": 3978,
      "ĠMal": 3979,
      "ĠChogaidh": 3980,
      "chamara": 3981,
      "âĢİ": 3982,
      "Ġdhearbhadh": 3983,
      "abhsair": 3984,
      "Ġcraobh": 3985,
      "ĠDuilleagan": 3986,
      "Sg": 3987,
      "Ġfealla": 3988,
      "ĠgnÃłthaichte": 3989,
      "Ġmair": 3990,
      "ial": 3991,
      "leasachadh": 3992,
      "iseach": 3993,
      "ĠdÃłil": 3994,
      "aithghearr": 3995,
      "ĠCroitearachd": 3996,
      "Cha": 3997,
      "Ġcreidsinn": 3998,
      "ĠCrÃ¬os": 3999,
      "âĢĻ,": 4000,
      "ĠThu": 4001,
      "iona": 4002,
      "Ġrabhadh": 4003,
      "ĠSgu": 4004,
      "Ġtraf": 4005,
      "Ġfaodar": 4006,
      "Ġtinn": 4007,
      "Ġsgrios": 4008,
      "Ġguth": 4009,
      "Ġiomallach": 4010,
      "ĠLeasachaidh": 4011,
      "ys": 4012,
      "ideo": 4013,
      "ĠBhÃ²rd": 4014,
      "ionnsuidh": 4015,
      "Ġchridhe": 4016,
      "bheatha": 4017,
      "Ġleigh": 4018,
      "Ġfosgladh": 4019,
      "ionnsaigh": 4020,
      "ĠTighearn": 4021,
      "Ġbhidio": 4022,
      "aighstir": 4023,
      "Ġport": 4024,
      "ĠGearran": 4025,
      "Ġsolar": 4026,
      "ĠcÃ¨": 4027,
      "Ġmillean": 4028,
      "Ġchreid": 4029,
      "igheachd": 4030,
      "Ġchoileanadh": 4031,
      "ĠcÃ¹r": 4032,
      "ĠGrannd": 4033,
      "ĠGhaidh": 4034,
      "ĠdÃłimh": 4035,
      "ĠcÃ²mhradh": 4036,
      "rochadh": 4037,
      "Ġdheis": 4038,
      "Ġdeidh": 4039,
      "iosa": 4040,
      "lack": 4041,
      "ĠHe": 4042,
      "ier": 4043,
      "Ġdara": 4044,
      "ĠGabh": 4045,
      "ĠneÃ²": 4046,
      "Ġghlacadh": 4047,
      "ĠCoinneach": 4048,
      "osgadh": 4049,
      "ĠNicDhÃ²mhnaill": 4050,
      "thromach": 4051,
      "ĠColaiste": 4052,
      "Ġk": 4053,
      "Ã²l": 4054,
      "Ġsgrio": 4055,
      "ĠclÃłran": 4056,
      "ĠnÃłdarra": 4057,
      "Ġghearradh": 4058,
      "ĠChaochail": 4059,
      "adaich": 4060,
      "ĠMoir": 4061,
      "icheas": 4062,
      "Ġteisteanas": 4063,
      "Ġmur": 4064,
      "Ġchaoch": 4065,
      "ĠbhÃ²tadh": 4066,
      "Ġcosnadh": 4067,
      "EÃ²rpa": 4068,
      "Urr": 4069,
      "neachaidh": 4070,
      "anca": 4071,
      "ons": 4072,
      "riagh": 4073,
      "Ġtogalaichean": 4074,
      "Ġleasachaidh": 4075,
      "Ġtoraidhean": 4076,
      "onom": 4077,
      "ĠpÃ¬o": 4078,
      "ĠArchive": 4079,
      "ĠThig": 4080,
      "apadh": 4081,
      "sheachdain": 4082,
      "cumail": 4083,
      "ĠSealladh": 4084,
      "ĠUicipeid": 4085,
      "Ġtarraingeach": 4086,
      "idseatach": 4087,
      "Ġlocomotaibhean": 4088,
      "GH": 4089,
      "chlu": 4090,
      "ĠsÃ¬mplidh": 4091,
      "Ġbru": 4092,
      "ĠFris": 4093,
      "ĠGÃłidheil": 4094,
      "Ġsanasachd": 4095,
      "und": 4096,
      "St": 4097,
      "ĠcÃ²rdadh": 4098,
      "inner": 4099,
      "ash": 4100,
      "Ġpuing": 4101,
      "Ġhttp": 4102,
      "ĠDhealbhan": 4103,
      "ĠsÃ¬th": 4104,
      "Ġ60": 4105,
      "ary": 4106,
      "ĠcÃ¹is": 4107,
      "ester": 4108,
      "ah": 4109,
      "ĠRiaghaltais": 4110,
      "ĠSeÃ²ras": 4111,
      "Ġcaisteal": 4112,
      "ĠAilig": 4113,
      "ĠFu": 4114,
      "ĠRaib": 4115,
      "ĠRiagh": 4116,
      "Ġfharsaing": 4117,
      "âĢĻ.": 4118,
      "ĠLinne": 4119,
      "ĠMhoir": 4120,
      "ionndaidh": 4121,
      "Ġaiseig": 4122,
      "ĠCana": 4123,
      "amaid": 4124,
      "stÃ¨idh": 4125,
      "Ġcunbh": 4126,
      "Ġtiotal": 4127,
      "27": 4128,
      "ĠÃłlainn": 4129,
      "Ġ70": 4130,
      "Ġaodach": 4131,
      "Ġad": 4132,
      "ghain": 4133,
      "ĠNiall": 4134,
      "ainig": 4135,
      "ight": 4136,
      "Ġstruct": 4137,
      "ĠmhÃ²ir": 4138,
      "annsachadh": 4139,
      "ĠmÃ¬ltean": 4140,
      "Ġmarg": 4141,
      "Agus": 4142,
      "reachas": 4143,
      "ĠrÃ¬gh": 4144,
      "ĠMÃłrt": 4145,
      "Ġfhasa": 4146,
      "Ã¼": 4147,
      "Ġthubhairt": 4148,
      "Alb": 4149,
      "Ġaithnichte": 4150,
      "Ġaim": 4151,
      "arach": 4152,
      "ĠMinistear": 4153,
      "ĠRadio": 4154,
      "ormod": 4155,
      "teas": 4156,
      "ĠÃ²ir": 4157,
      "ĠLinn": 4158,
      "ĠWord": 4159,
      "archive": 4160,
      "ĠtrÃ¨anaichean": 4161,
      "ĠCarson": 4162,
      "lichean": 4163,
      "nuair": 4164,
      "ĠPhotographic": 4165,
      "Ġobraichean": 4166,
      "rannsachaidh": 4167,
      "ĠChar": 4168,
      "Ġphotographic": 4169,
      "dheas": 4170,
      "Ġchloinne": 4171,
      "phr": 4172,
      "ĠNam": 4173,
      "ibr": 4174,
      "yn": 4175,
      "bheoth": 4176,
      "Ġstaid": 4177,
      "Ġ2009": 4178,
      "Ġglan": 4179,
      "ĠOn": 4180,
      "sgrÃ¬obhadh": 4181,
      "ĠGe": 4182,
      "eusan": 4183,
      "Ġduilgheadasan": 4184,
      "ling": 4185,
      "sach": 4186,
      "Ġlo": 4187,
      "ĠGiblean": 4188,
      "eamp": 4189,
      "gaidhlig": 4190,
      "oghlaim": 4191,
      "eilean": 4192,
      "gaoithe": 4193,
      "ĠEas": 4194,
      "sgrÃ¹dadh": 4195,
      "wn": 4196,
      "Ġsiud": 4197,
      "Ġmaille": 4198,
      "idsear": 4199,
      "oblachd": 4200,
      "sreath": 4201,
      "ĠAonadh": 4202,
      "airginn": 4203,
      "ĠLÃłrach": 4204,
      "bia": 4205,
      "ĠBÃłgh": 4206,
      "fhuair": 4207,
      "Ġtabhann": 4208,
      "ceannach": 4209,
      "Ġceathr": 4210,
      "ĠAdh": 4211,
      "ĠAfr": 4212,
      "ĠBall": 4213,
      "mo": 4214,
      "ĠAbar": 4215,
      "ĠMc": 4216,
      ",[": 4217,
      "Ġthuit": 4218,
      "ĠAstrÃł": 4219,
      "45": 4220,
      "thach": 4221,
      "Ġsear": 4222,
      "Ġatharrachaidhean": 4223,
      "Ġearrainn": 4224,
      "Ġbhuidhnean": 4225,
      "'d": 4226,
      "Ġseallaidhean": 4227,
      "Ġtrom": 4228,
      "ĠMhÃ²id": 4229,
      "Ġtarsainn": 4230,
      "ĠTormod": 4231,
      "ĠMad": 4232,
      "Ġdaonnan": 4233,
      "Ġcam": 4234,
      "Ġbhruidhinn": 4235,
      "ney": 4236,
      "ĠdrÃłibh": 4237,
      "23": 4238,
      "Ġdhuit": 4239,
      "Ãłdraig": 4240,
      "ĠOifig": 4241,
      "dell": 4242,
      "ĠchÃ¹rsa": 4243,
      "ĠCreag": 4244,
      "athan": 4245,
      "eamaid": 4246,
      "Ġtrioblaid": 4247,
      "cluich": 4248,
      "ĠSta": 4249,
      "len": 4250,
      "Ġioma": 4251,
      "Mha": 4252,
      "dra": 4253,
      "ĠGhleann": 4254,
      "ĠMoireasdan": 4255,
      "ĠbhÃłta": 4256,
      "Ġuiread": 4257,
      "Ġmothachail": 4258,
      "ĠRaibeart": 4259,
      "40": 4260,
      "Ġdannsa": 4261,
      "ĠCeÃ²l": 4262,
      "ĠMic": 4263,
      "me": 4264,
      "ĠtÃ²isich": 4265,
      "Ġchroit": 4266,
      "'-": 4267,
      "Ġfl": 4268,
      "odh": 4269,
      "Ġteas": 4270,
      "ĠdhÃ¹th": 4271,
      "Ġoileanach": 4272,
      "ĠcÃ²mhnaidh": 4273,
      "ĠeÃ²laiche": 4274,
      "Ġuaireannan": 4275,
      "ĠDÃ¹thch": 4276,
      "don": 4277,
      "raf": 4278,
      "Ġoirbh": 4279,
      "ee": 4280,
      "ĠGr": 4281,
      "Ġiomlan": 4282,
      "ghais": 4283,
      "ĠBlog": 4284,
      "ĠÃ¨iginn": 4285,
      "ĠMhÃłrt": 4286,
      "ĠdÃ¹nadh": 4287,
      "Ġfeartan": 4288,
      "ĠCeangalaichean": 4289,
      "Ġchudromach": 4290,
      "fu": 4291,
      "ĠDheas": 4292,
      "Ġroinnean": 4293,
      "rean": 4294,
      "mhach": 4295,
      "Ġrianachd": 4296,
      "lap": 4297,
      "illeasbuig": 4298,
      "HR": 4299,
      "IS": 4300,
      "Ġrachadh": 4301,
      "aoibh": 4302,
      "Ãłirtean": 4303,
      "ratach": 4304,
      "Ġ@": 4305,
      "ĠTat": 4306,
      "Ġionadan": 4307,
      "lÃłithean": 4308,
      "ant": 4309,
      "Ġcheum": 4310,
      "ĠTrÃ¨": 4311,
      "Ã¨ite": 4312,
      "iteachadh": 4313,
      "Ġproth": 4314,
      "alchais": 4315,
      "ĠlÃ¬onadh": 4316,
      "Loch": 4317,
      "ĠChaisteil": 4318,
      "Ġmheas": 4319,
      "Ãłireamhan": 4320,
      "fharpais": 4321,
      "ĠLÃ¬og": 4322,
      "ĠnÃ¨amh": 4323,
      "mraichean": 4324,
      "nÃł": 4325,
      "Ġha": 4326,
      "Ġithe": 4327,
      "ĠGrÃł": 4328,
      "fhaodas": 4329,
      "Ġchruthaich": 4330,
      "ĠPrionnsa": 4331,
      "alachdan": 4332,
      "Ãłrtainn": 4333,
      "ĠnÃłdar": 4334,
      "Ġmearachd": 4335,
      "ĠGl": 4336,
      "rÃ¬onadh": 4337,
      "eature": 4338,
      "ĠRuairidh": 4339,
      "Ġaithne": 4340,
      "ĠseÃ²mar": 4341,
      "null": 4342,
      "Ġtaisbeanaidhean": 4343,
      "SlÃ¨": 4344,
      "fo": 4345,
      "ĠClas": 4346,
      "inistearan": 4347,
      "ĠChataibh": 4348,
      "ec": 4349,
      "Ġriut": 4350,
      "Ġ185": 4351,
      "Ġriochdairean": 4352,
      "Ġcosgais": 4353,
      "ealtainn": 4354,
      "Ġbheachdan": 4355,
      "Eaglaise": 4356,
      "Ġeas": 4357,
      "Ġseilbh": 4358,
      "ĠPheairt": 4359,
      "ĠFeature": 4360,
      "Ġfuar": 4361,
      "iÃ¹iriche": 4362,
      "Ġbuntainn": 4363,
      "ĠSteÃ²rnabhaigh": 4364,
      "Ġcheangal": 4365,
      "ĠIT": 4366,
      "ĠbhÃłsaich": 4367,
      "ĠPre": 4368,
      "ĠtÃł": 4369,
      "Ġbriath": 4370,
      "ĠgÃłr": 4371,
      "ĠpÃłipear": 4372,
      "lex": 4373,
      "rÃ¬osan": 4374,
      "ung": 4375,
      "Ġmadainn": 4376,
      "Ġab": 4377,
      "ĠcÃ¹mhnant": 4378,
      "Ġfharpais": 4379,
      "Ãłineadh": 4380,
      "Ġ1950": 4381,
      "suidheachadh": 4382,
      "Ġblas": 4383,
      "ĠCur": 4384,
      "ĠBru": 4385,
      "Ġcoimpiu": 4386,
      "Ġghr": 4387,
      "smaoineachadh": 4388,
      "Oll": 4389,
      "Ġbros": 4390,
      "allamh": 4391,
      "bhreac": 4392,
      "ĠlÃłmhan": 4393,
      "ĠcÃłird": 4394,
      "ĠfÃ¨ill": 4395,
      "Ġmeur": 4396,
      "ĠdrÃłma": 4397,
      "Ġreachd": 4398,
      "ten": 4399,
      "Ġdeigh": 4400,
      "ĠNeo": 4401,
      "ĠFionn": 4402,
      "ĠlÃłimhe": 4403,
      "bailte": 4404,
      "urrainn": 4405,
      "Ã²raichean": 4406,
      "ory": 4407,
      "ĠPeairt": 4408,
      "uirg": 4409,
      "Ġshealltainn": 4410,
      "ĠOspadal": 4411,
      "Ġsgiobaidhean": 4412,
      "Ġdeoch": 4413,
      "sgaidh": 4414,
      "ens": 4415,
      "Ã²sadh": 4416,
      "ĠFriseal": 4417,
      "Ġfhir": 4418,
      "eamaichean": 4419,
      "poileataigs": 4420,
      "ĠThog": 4421,
      "Ġspr": 4422,
      "ĠFir": 4423,
      "chÃłnanach": 4424,
      "yd": 4425,
      "Ġleanabh": 4426,
      "Ġeachdraidheil": 4427,
      "ĠSem": 4428,
      "Ã²mas": 4429,
      "lagh": 4430,
      "Ġtre": 4431,
      "Ġrugadh": 4432,
      "Ġtrafaig": 4433,
      "iana": 4434,
      "Ġdeadh": 4435,
      "ĠmÃ²": 4436,
      "Ġcheannard": 4437,
      "Ġbreith": 4438,
      "ĠSol": 4439,
      "Ġcuimhneachadh": 4440,
      "Ġsmuain": 4441,
      "Ġchos": 4442,
      "apan": 4443,
      "Ġcion": 4444,
      "ĠthrÃłth": 4445,
      "Ã²bh": 4446,
      "ĠAim": 4447,
      "Ġdheagh": 4448,
      "ĠgnÃ¬omhan": 4449,
      "Ġbunaiteach": 4450,
      "ĠMuir": 4451,
      "tag": 4452,
      "let": 4453,
      "Ġbeulaibh": 4454,
      "Ã²isir": 4455,
      "oisich": 4456,
      "mantan": 4457,
      "ĠlÃłitheil": 4458,
      "Ġtheaghlach": 4459,
      "Ġadhbharan": 4460,
      "gÃłidhlig": 4461,
      "Ġleag": 4462,
      "Ã³r": 4463,
      "ĠNAB": 4464,
      "Ġlosgadh": 4465,
      "iolm": 4466,
      "ĠChaill": 4467,
      "Ġ2005": 4468,
      "Ġcunbhalach": 4469,
      "ĠCÃ¹r": 4470,
      "ĠSer": 4471,
      "ĠpÃłipearan": 4472,
      "ĠIasg": 4473,
      "Ġcloinne": 4474,
      "nnsp": 4475,
      "SlÃ¨ibh": 4476,
      "60": 4477,
      "cast": 4478,
      "mara": 4479,
      "ĠBarraigh": 4480,
      "imhir": 4481,
      "ĠDhe": 4482,
      "ĠFiosrachadh": 4483,
      "Ġdona": 4484,
      "Ġromhainn": 4485,
      "Ġduaisean": 4486,
      "Ġshuidh": 4487,
      "Ġgearain": 4488,
      "cy": 4489,
      "Ġcheist": 4490,
      "ĠCumantan": 4491,
      "ghdarras": 4492,
      "Press": 4493,
      "dÃłta": 4494,
      "adaidh": 4495,
      "ĠÃłireamhan": 4496,
      "ĠCoire": 4497,
      "Ġcoinneimh": 4498,
      "Ġrinneadh": 4499,
      "Ġghairm": 4500,
      "Ġadhartas": 4501,
      "imhnich": 4502,
      "ĠHam": 4503,
      "Ġfhacal": 4504,
      "Ġmionaideach": 4505,
      "Ġchleachdas": 4506,
      "Nuair": 4507,
      "saidh": 4508,
      "ĠrÃłinig": 4509,
      "200": 4510,
      "ĠPe": 4511,
      "Ġdeanamh": 4512,
      "ĠfÃ¨": 4513,
      "arm": 4514,
      "ĠDÃłrna": 4515,
      "Ġsteach": 4516,
      "aw": 4517,
      "iÃ¹lain": 4518,
      "rab": 4519,
      "Iuchar": 4520,
      "Ġdho": 4521,
      "Ġgaol": 4522,
      "ĠDol": 4523,
      "ĠPÃłirce": 4524,
      "Ġstoidhle": 4525,
      "Ġleugh": 4526,
      "Ġcharaid": 4527,
      "Ġbuannachdan": 4528,
      "ĠMacAoidh": 4529,
      "ĠtÃ¨arainteachd": 4530,
      "sadh": 4531,
      "ty": 4532,
      "Ġeach": 4533,
      "Ġproifeiseanta": 4534,
      "ĠCathraiche": 4535,
      "Ġ2001": 4536,
      "ĠUlap": 4537,
      "eudar": 4538,
      "Ġchinn": 4539,
      "Ġduille": 4540,
      "Ġsolas": 4541,
      "iasgaich": 4542,
      "ood": 4543,
      "ĠmÃłl": 4544,
      "eÃ²lais": 4545,
      "ĠChaoil": 4546,
      "Ġ179": 4547,
      "gaidean": 4548,
      "ĠLin": 4549,
      "Ġghoireas": 4550,
      "ĠGaidhlig": 4551,
      "ĠAstrÃłilia": 4552,
      "aolas": 4553,
      "ower": 4554,
      "eÃ²rachadh": 4555,
      "Ġshoirbh": 4556,
      "phuist": 4557,
      "ĠSalmond": 4558,
      "Ġnar": 4559,
      "innse": 4560,
      "ĠBlack": 4561,
      "Ġfhein": 4562,
      "Ġchuala": 4563,
      "ĠFilmG": 4564,
      "Ġtuigse": 4565,
      "Ġaona": 4566,
      "ĠTÃ²mas": 4567,
      "aicheas": 4568,
      "Ġgeall": 4569,
      "ler": 4570,
      "Ġfois": 4571,
      "Ġ1912": 4572,
      "ĠFaclair": 4573,
      "ĠMeadhan": 4574,
      "ĠCÃ²mhdhail": 4575,
      "nÃ¨": 4576,
      "oim": 4577,
      "aras": 4578,
      "ĠtrÃłigh": 4579,
      "Ġsuidhe": 4580,
      "Ġeinnsean": 4581,
      "gnadh": 4582,
      "line": 4583,
      "ool": 4584,
      "tr": 4585,
      "Ġnad": 4586,
      "aiseig": 4587,
      "ĠPost": 4588,
      "Ġaonais": 4589,
      "niste": 4590,
      "oifigeil": 4591,
      "Ġlabhairt": 4592,
      "idheach": 4593,
      "own": 4594,
      "sgrÃ¬obhaidh": 4595,
      "ĠCanada": 4596,
      "aisge": 4597,
      "oilit": 4598,
      "obhar": 4599,
      "Ġteaghlaichean": 4600,
      "ĠtrÃłithe": 4601,
      "ĠNarann": 4602,
      "ky": 4603,
      "ĠSÃ¬": 4604,
      "ĠSkinner": 4605,
      "Ġdhealbhadh": 4606,
      "anais": 4607,
      "nachan": 4608,
      "Ġluaithe": 4609,
      "eÃ²ir": 4610,
      "rÃłigh": 4611,
      "ĠUisge": 4612,
      "nuadhachail": 4613,
      "idhche": 4614,
      "ĠTalla": 4615,
      "Ã¨isein": 4616,
      "ĠBail": 4617,
      "Ġola": 4618,
      "ĠdÃ¨igh": 4619,
      "tÃ¬re": 4620,
      "ilt": 4621,
      "Ġnaoi": 4622,
      "rog": 4623,
      "ĠSgiob": 4624,
      "Ġuinneag": 4625,
      "bain": 4626,
      "oo": 4627,
      "ĠSamh": 4628,
      "Ġfhaic": 4629,
      "bheothachadh": 4630,
      "HA": 4631,
      "idinn": 4632,
      "ĠFeuch": 4633,
      "ĠCum": 4634,
      "ileanta": 4635,
      "coir": 4636,
      "lagha": 4637,
      "Ġdleastanas": 4638,
      "Ġamannan": 4639,
      "ots": 4640,
      "ĠIonns": 4641,
      "ĠAfraga": 4642,
      "ghnÃłth": 4643,
      "ĠgÃ¨": 4644,
      "Ġfharsaingeachd": 4645,
      "Ġim": 4646,
      "ĠCriosd": 4647,
      "21": 4648,
      "raid": 4649,
      "Ã²rain": 4650,
      "ĠWh": 4651,
      "ĠÂ©": 4652,
      "Ġadhartach": 4653,
      "ĠDhubh": 4654,
      "Ġaimsir": 4655,
      "nanan": 4656,
      "ones": 4657,
      "Ġsine": 4658,
      "Ġcudromaiche": 4659,
      "laint": 4660,
      "ĠChiad": 4661,
      "Ġfearainn": 4662,
      "Ġclasaichean": 4663,
      "ĠWordPress": 4664,
      "Scot": 4665,
      "Ġchruinn": 4666,
      "ĠFÃ¨isean": 4667,
      "ĠMacN": 4668,
      "ĠCholaiste": 4669,
      "sol": 4670,
      "ĠbÃłrd": 4671,
      "Ġcoitcheann": 4672,
      "ĠWik": 4673,
      "ĠCÃ²mhla": 4674,
      "ĠCeilteach": 4675,
      "39": 4676,
      "ON": 4677,
      "ĠÃ¬rean": 4678,
      "Ġartaig": 4679,
      "ows": 4680,
      "Ġamharc": 4681,
      "ÃĪireann": 4682,
      "dhÃ¹n": 4683,
      "Ġcogadh": 4684,
      "Ġise": 4685,
      "Ġmholadh": 4686,
      "Ġtroigh": 4687,
      "reach": 4688,
      "earn": 4689,
      "Ġthuath": 4690,
      "Ġfodha": 4691,
      "ĠObair": 4692,
      "Ã²mhnaich": 4693,
      "uis": 4694,
      "Ġdhith": 4695,
      "ĠRannsachadh": 4696,
      "Ġfeumalachdan": 4697,
      "Ġ2003": 4698,
      "ĠÃĮle": 4699,
      "46": 4700,
      "measg": 4701,
      "wik": 4702,
      "ĠBheinn": 4703,
      "iÃ¹ltadh": 4704,
      "clan": 4705,
      "Ġcriomagan": 4706,
      "isdean": 4707,
      "ĠMas": 4708,
      "ĠDan": 4709,
      "ĠpÃ¬osan": 4710,
      "eÃ²il": 4711,
      "ĠWind": 4712,
      "ĠNe": 4713,
      "Ġ--": 4714,
      "Ġtairgse": 4715,
      "ĠFor": 4716,
      "illte": 4717,
      "Ġcleas": 4718,
      "Ġmhion": 4719,
      "eamhraidh": 4720,
      "ĠcÃ²mhraidhean": 4721,
      "Ġaiseag": 4722,
      "ĠAmaz": 4723,
      "Ġfhreagairt": 4724,
      "ds": 4725,
      "Ġthaisbeanadh": 4726,
      "ĠSeall": 4727,
      "ĠstÃ¨is": 4728,
      "Ġleinn": 4729,
      "ora": 4730,
      "tabhann": 4731,
      "Ġcuiribh": 4732,
      "ĠblÃłth": 4733,
      "Ġcoimeas": 4734,
      "ĠGrÃłmar": 4735,
      "mÃłireach": 4736,
      "Ġdaing": 4737,
      "Ġtasgadh": 4738,
      "Ġmuir": 4739,
      "Ġsaighdearan": 4740,
      "ĠNob": 4741,
      "ĠEx": 4742,
      "oileanaich": 4743,
      "ĠLeabharlann": 4744,
      "ĠArcaibh": 4745,
      "26": 4746,
      "mhais": 4747,
      "ĠWill": 4748,
      "Ġfeumar": 4749,
      "ĠAlbannaich": 4750,
      "neachan": 4751,
      "ĠGilleasbuig": 4752,
      "Ġfhi": 4753,
      "ĠfhÃ¨is": 4754,
      "ibhinn": 4755,
      "ĠSgÃ¬re": 4756,
      "taice": 4757,
      "Ill": 4758,
      "ianach": 4759,
      "Ġdar": 4760,
      "ĠCa": 4761,
      "Ġluchdachadh": 4762,
      "Ġchuspair": 4763,
      "ĠsgrÃ¬obadh": 4764,
      "ĠdÃ¬o": 4765,
      "Ġciad": 4766,
      "Ġfiodh": 4767,
      "Ġrang": 4768,
      "ĠLeath": 4769,
      "Ġiomall": 4770,
      "Ġcrann": 4771,
      "ĠHighlands": 4772,
      "RA": 4773,
      "faireachdainn": 4774,
      "ĠTaic": 4775,
      "ĠNÃ¬": 4776,
      "Ġshuidheachadh": 4777,
      "US": 4778,
      "paisean": 4779,
      "ĠthrÃ¨": 4780,
      "stadh": 4781,
      "Ġluaidh": 4782,
      "ĠJu": 4783,
      "gaelic": 4784,
      "inns": 4785,
      "eallach": 4786,
      "Ġfhilm": 4787,
      "ĠeÃ²laichean": 4788,
      "Ġearb": 4789,
      "Ãłbaid": 4790,
      "Ġdeasachadh": 4791,
      "Ã²c": 4792,
      "Ġpeac": 4793,
      "ĠSgeul": 4794,
      "Ġbhuannachadh": 4795,
      "Am": 4796,
      "Ãłile": 4797,
      "ĠBer": 4798,
      "Ġpiseach": 4799,
      "rÃ¹in": 4800,
      "fheumadh": 4801,
      "Ar": 4802,
      "Ġbheinn": 4803,
      "ithichean": 4804,
      "ĠIon": 4805,
      "ree": 4806,
      "Ġ2007": 4807,
      "!!": 4808,
      "Mac": 4809,
      "ham": 4810,
      "Ġcaoch": 4811,
      "Ġthill": 4812,
      "Ġspam": 4813,
      "airliche": 4814,
      "Ġbroinn": 4815,
      "aom": 4816,
      "Ġruigsinn": 4817,
      "Ġwww": 4818,
      "Ġfilmichean": 4819,
      "ĠGhlinne": 4820,
      "Ġchaochail": 4821,
      "rÃ¨ile": 4822,
      "ĠbÃłrr": 4823,
      "Ġuaireigin": 4824,
      "ĠseÃ²l": 4825,
      "Ġrithe": 4826,
      "ĠIapan": 4827,
      "Ġbheireadh": 4828,
      "ĠAbair": 4829,
      "nochdadh": 4830,
      "eanbh": 4831,
      "Ã²rdan": 4832,
      "ĠGallaibh": 4833,
      "Ġcaill": 4834,
      "Ġdhroch": 4835,
      "ĠcrÃ¬ochan": 4836,
      "Ġgearradh": 4837,
      "TC": 4838,
      "ĠBPA": 4839,
      "ĠNas": 4840,
      "Ġsheachdain": 4841,
      "ĠGearmailt": 4842,
      "ĠShasainn": 4843,
      "ĠChuimrigh": 4844,
      "ĠSemalt": 4845,
      "ater": 4846,
      "oft": 4847,
      "Ġseirbh": 4848,
      "isgeul": 4849,
      "Ġneartachadh": 4850,
      "ĠCarr": 4851,
      "Ġmhaoin": 4852,
      "ĠDÃłibhidh": 4853,
      "Ġtrioblaidean": 4854,
      "ĠstÃ¨iseanan": 4855,
      "sal": 4856,
      "ĠCham": 4857,
      "ĠCoinn": 4858,
      "Suain": 4859,
      "Ġlitrichean": 4860,
      "Ġeaconamach": 4861,
      "Ġmas": 4862,
      "ĠCÃłnan": 4863,
      "eagasg": 4864,
      "ĠTuras": 4865,
      "Ġ1960": 4866,
      "ak": 4867,
      "ĠAmazon": 4868,
      "ĠBile": 4869,
      "ĠshÃ²isealta": 4870,
      "aoilidh": 4871,
      "28": 4872,
      "innear": 4873,
      "ĠBre": 4874,
      "Ġteaghlaich": 4875,
      "Ġcidhe": 4876,
      "ĠphÃłrtaidh": 4877,
      "ĠLeabhraichean": 4878,
      "ĠMurchan": 4879,
      "gach": 4880,
      "ĠAith": 4881,
      "ithidh": 4882,
      "ĠDun": 4883,
      "eumh": 4884,
      "leantainn": 4885,
      "Ġmiosa": 4886,
      "ĠSÃ¬ona": 4887,
      "ĠII": 4888,
      "Ġromh": 4889,
      "ltair": 4890,
      "Ġdreuchdan": 4891,
      "ĠMairead": 4892,
      "ey": 4893,
      "ĠPÃłirc": 4894,
      "lannach": 4895,
      "Ġcron": 4896,
      "eÃ²rs": 4897,
      "Ġtigh": 4898,
      "Ġtadhail": 4899,
      "ĠCnoc": 4900,
      "Ã²ran": 4901,
      "aca": 4902,
      "ĠHior": 4903,
      "Ġfulang": 4904,
      "Ġ80": 4905,
      "oinneil": 4906,
      "Ġsheach": 4907,
      "Ã©in": 4908,
      "Ġionmhas": 4909,
      "ĠLodair": 4910,
      "ĠPoblachd": 4911,
      "Ġsabaid": 4912,
      "Ã¬odh": 4913,
      "Ġcraoladh": 4914,
      "ĠCorp": 4915,
      "Ġbeathaichean": 4916,
      "eimh": 4917,
      "ĠcÃ¬sean": 4918,
      "iss": 4919,
      "eÃłrn": 4920,
      "ĠAchadh": 4921,
      "ĠsrÃłid": 4922,
      "airlean": 4923,
      "ĠBhan": 4924,
      "Ġ35": 4925,
      "Ġ1949": 4926,
      "ĠLitir": 4927,
      "Sabhail": 4928,
      "Ġbhithinn": 4929,
      "Ġclachan": 4930,
      "amhairc": 4931,
      "ven": 4932,
      "Ġtomhas": 4933,
      "airleachadh": 4934,
      "Ġfeachdan": 4935,
      "ĠTom": 4936,
      "ĠDail": 4937,
      "oileataigeach": 4938,
      "Ġionmhais": 4939,
      "daidhean": 4940,
      "raoir": 4941,
      "ĠGre": 4942,
      "ĠAlex": 4943,
      "ĠIsra": 4944,
      "Ġ2008": 4945,
      "ĠphrÃ²iseict": 4946,
      "ĠtÃ¬": 4947,
      "ĠSeum": 4948,
      "Ġcheannaich": 4949,
      "Ġat": 4950,
      "Ġthusa": 4951,
      "oilf": 4952,
      "Ġcomataidh": 4953,
      "Ġiarrtasan": 4954,
      "fin": 4955,
      "Ġcrochadh": 4956,
      "Ġloidhnichean": 4957,
      "Ã¬l": 4958,
      "ĠAIR": 4959,
      "ĠThaigh": 4960,
      "....": 4961,
      "Ġnobhail": 4962,
      "ĠNicLeÃ²id": 4963,
      "Ġthaigh": 4964,
      "chell": 4965,
      "ĠRuadh": 4966,
      "Ġsheinn": 4967,
      "ĠOr": 4968,
      "aoraich": 4969,
      "osglaidh": 4970,
      "Ġacair": 4971,
      "Ġceannardan": 4972,
      "Ġal": 4973,
      "Ãłt": 4974,
      "Ġleum": 4975,
      "Ġdeir": 4976,
      "liadhnachan": 4977,
      "Ã²iseachaidh": 4978,
      "Ġfaighneachd": 4979,
      "thoileach": 4980,
      "ere": 4981,
      "ĠsÃ¬o": 4982,
      "ĠdÃ¬omh": 4983,
      "nnseachan": 4984,
      "Ġaiste": 4985,
      "Ġchli": 4986,
      "ĠGeo": 4987,
      "Ġcoileanadh": 4988,
      "ston": 4989,
      "eadaireachd": 4990,
      "ĠOs": 4991,
      "nidh": 4992,
      "Ġradh": 4993,
      "ĠRathar": 4994,
      "eamhradh": 4995,
      "Ġcomhairlichean": 4996,
      "Ġuachdar": 4997,
      "ĠcrÃ¬onadh": 4998,
      "aolaidh": 4999,
      "Ġtuair": 5000,
      "ĠDualchas": 5001,
      "ĠDealbhan": 5002,
      "ĠSgioba": 5003,
      "up": 5004,
      "ĠBar": 5005,
      "ĠfhÃ¬or": 5006,
      "mailteach": 5007,
      "ĠstiÃ¹iriche": 5008,
      "tal": 5009,
      "Ġdidseatach": 5010,
      "ĠmhÃłthair": 5011,
      "nasach": 5012,
      "ĠlÃ¨irsinn": 5013,
      "Ġteagaisg": 5014,
      "iphit": 5015,
      "ĠCill": 5016,
      "ĠAilean": 5017,
      "ĠÃ²ige": 5018,
      "Ġtelebhisean": 5019,
      "29": 5020,
      "ual": 5021,
      "Ġthaighean": 5022,
      "Ġla": 5023,
      "ĠCinn": 5024,
      "Ġcomharr": 5025,
      "Ġdoras": 5026,
      "76": 5027,
      "risean": 5028,
      "Ġmaith": 5029,
      "nachaidh": 5030,
      "ĠLeig": 5031,
      "idheall": 5032,
      "igearan": 5033,
      "ica": 5034,
      "itchell": 5035,
      "old": 5036,
      "Ã¶": 5037,
      "ans": 5038,
      "Ġthuras": 5039,
      "aichidh": 5040,
      "Ġchlach": 5041,
      "ĠcÃ²mhlan": 5042,
      "sgrÃ¬obhte": 5043,
      "ĠSw": 5044,
      "urge": 5045,
      "ĠphrÃ²graman": 5046,
      "AR": 5047,
      "ĠbhÃ²rd": 5048,
      "Ãłraich": 5049,
      "Ġgabhadh": 5050,
      "Ġmionaid": 5051,
      "Ġ1923": 5052,
      "ĠChlÃłir": 5053,
      "leach": 5054,
      "Ġtiodh": 5055,
      "ĠÃłird": 5056,
      "Ġtaighe": 5057,
      "Ã¬dhl": 5058,
      "thain": 5059,
      "Ġiongnadh": 5060,
      "ĠGhearasdan": 5061,
      "Ġtoireadh": 5062,
      "ĠshÃłbhaladh": 5063,
      "Sr": 5064,
      "Ġdhoibh": 5065,
      "sealltainn": 5066,
      "the": 5067,
      "Ġairidh": 5068,
      "Ã¹is": 5069,
      "ĠLaid": 5070,
      "ĠNÃł": 5071,
      "Ãłirn": 5072,
      "Ġleatha": 5073,
      "iomlan": 5074,
      "Ġseachdainean": 5075,
      "ĠdhÃ²ighean": 5076,
      "ĠÃ¬sle": 5077,
      "88": 5078,
      "Ġtri": 5079,
      "Ġshean": 5080,
      "ĠAnndra": 5081,
      "ĠSpÃ²rs": 5082,
      "ĠcÃ¹laibh": 5083,
      "ĠTor": 5084,
      "ĠDachaigh": 5085,
      "eadachadh": 5086,
      "Ġfhearann": 5087,
      "24": 5088,
      "fuireach": 5089,
      "ileag": 5090,
      "ĠDealan": 5091,
      "ĠâĢİ": 5092,
      "eidigeach": 5093,
      "Ga": 5094,
      "ĠbrÃłth": 5095,
      "Ġeun": 5096,
      "pÃłirteachas": 5097,
      "ĠcÃ¹rsaichean": 5098,
      "Ma": 5099,
      "dealbh": 5100,
      "ĠÃ¬osal": 5101,
      "adar": 5102,
      "ĠFr": 5103,
      "Ġchluinntinn": 5104,
      "chluich": 5105,
      "inbh": 5106,
      "idge": 5107,
      "Ġleisg": 5108,
      "osa": 5109,
      "ĠSc": 5110,
      "Ġpailt": 5111,
      "omhais": 5112,
      "Ãłrtaidhean": 5113,
      "ĠGaeilge": 5114,
      "Ġabhainn": 5115,
      "aip": 5116,
      "Ã¹rr": 5117,
      "ĠBon": 5118,
      "roid": 5119,
      "edon": 5120,
      "Ġainmeile": 5121,
      "ĠGaidhealtachd": 5122,
      "Mar": 5123,
      "TE": 5124,
      "tar": 5125,
      "ĠSM": 5126,
      "illidh": 5127,
      "Ãłbhaist": 5128,
      "EAL": 5129,
      "dr": 5130,
      "ĠTobar": 5131,
      "ĠDav": 5132,
      "Ġdeuchainnean": 5133,
      "ĠÃ¨ifeachdach": 5134,
      "urgeon": 5135,
      "bail": 5136,
      "deug": 5137,
      "ĠlÃłimhseachadh": 5138,
      "ĠSky": 5139,
      "ĠEalain": 5140,
      "gyll": 5141,
      "35": 5142,
      "LI": 5143,
      "oich": 5144,
      "iogh": 5145,
      "ĠGach": 5146,
      "Ġsgoinneil": 5147,
      "ĠEarr": 5148,
      "ĠGhr": 5149,
      "ĠAonaidh": 5150,
      "ĠSpÃ¨": 5151,
      "Ġsheachnadh": 5152,
      "ĠrÃ¨idio": 5153,
      "anasan": 5154,
      "Ġnot": 5155,
      "Se": 5156,
      "Ġceudan": 5157,
      "Ġmisneachd": 5158,
      "ĠSgurr": 5159,
      ".,": 5160,
      "Ġain": 5161,
      "ĠrÃ¨is": 5162,
      "astan": 5163,
      "ĠÃ²l": 5164,
      "Ġsoirbheachadh": 5165,
      "mair": 5166,
      "chomhairle": 5167,
      "Ġsgaradh": 5168,
      "Ġun": 5169,
      "ĠdÃ¨anadh": 5170,
      "ĠSturgeon": 5171,
      "ĠIsland": 5172,
      "ĠcÃ²mhdhail": 5173,
      "ionnsaich": 5174,
      "Ġleigheas": 5175,
      "ti": 5176,
      "adaichean": 5177,
      "Ġ1997": 5178,
      "Ġduilgheadas": 5179,
      "ĠÃ¹ghdarras": 5180,
      "ĠÃ¹ghdarrasan": 5181,
      "ioll": 5182,
      "ĠDiÃ¹c": 5183,
      "ĠEilidh": 5184,
      "ĠAnge": 5185,
      "ĠdÃłn": 5186,
      "ĠMhÃ²d": 5187,
      "Ġcaran": 5188,
      "ruith": 5189,
      "ĠYork": 5190,
      "Ġturais": 5191,
      "ĠtÃ¹sail": 5192,
      "Ġchoisinn": 5193,
      "ĠCataibh": 5194,
      "ĠghlÃ¨idheadh": 5195,
      "Ġcraobhan": 5196,
      "Ġgairm": 5197,
      "ĠSgÃ¹rr": 5198,
      "Ġlinntean": 5199,
      "ĠtrÃ¨anaidh": 5200,
      "ouse": 5201,
      "ĠLÃłbaraich": 5202,
      "ĠWindows": 5203,
      "ĠSeumasach": 5204,
      "80": 5205,
      "IDH": 5206,
      "Ã¨ilidh": 5207,
      "ĠDruim": 5208,
      "luim": 5209,
      "ĠStÃ¨idh": 5210,
      "Ġbhuannachd": 5211,
      "ĠdÃ¹bhlan": 5212,
      "SE": 5213,
      "Â´": 5214,
      "Ġcairtean": 5215,
      "Ġleibh": 5216,
      "cheangal": 5217,
      "Ġ1908": 5218,
      "ĠHiort": 5219,
      "siostam": 5220,
      "Ġmaoineachadh": 5221,
      "innealan": 5222,
      "Ġiasad": 5223,
      "ainmh": 5224,
      "ĠChrÃ¹in": 5225,
      "ĠÃĢireamh": 5226,
      "ĠChuain": 5227,
      "Ġchomhairle": 5228,
      "Ġlitreachas": 5229,
      "Ã²ig": 5230,
      "ailear": 5231,
      "Ġfhaisge": 5232,
      "ĠDhÃ²mhnaill": 5233,
      "ĠMhÃłirt": 5234,
      "ĠprÃ¬omhachas": 5235,
      "ĠNaoimh": 5236,
      "au": 5237,
      "neas": 5238,
      "Ġanam": 5239,
      "ĠCan": 5240,
      "ĠSeann": 5241,
      "Ġnu": 5242,
      "ome": 5243,
      "Ġsheann": 5244,
      "ĠStiÃ¹iriche": 5245,
      "ĠCro": 5246,
      "ĠmhÃ¬": 5247,
      "ĠslÃłn": 5248,
      "ĠFhear": 5249,
      "ĠMay": 5250,
      "gaideachd": 5251,
      "ĠstiÃ¹": 5252,
      "asgladh": 5253,
      "astle": 5254,
      "laiste": 5255,
      "ĠChluaidh": 5256,
      "Ġsag": 5257,
      "ĠBhl": 5258,
      "burg": 5259,
      "ield": 5260,
      "Ġsaidheans": 5261,
      "urn": 5262,
      "fhor": 5263,
      "ĠTÃ²raidhean": 5264,
      "IN": 5265,
      "ĠbhÃ²": 5266,
      "Ġbhliadhnail": 5267,
      "itco": 5268,
      "ĠphÃłrantan": 5269,
      "Ġiomain": 5270,
      "ĠcÃ²d": 5271,
      "ĠInnse": 5272,
      "ĠGhallaibh": 5273,
      "angu": 5274,
      "rÃłith": 5275,
      "Ġeaconom": 5276,
      "ĠsÃłbhailteachd": 5277,
      "Ġsmaointinn": 5278,
      "Ġrangachadh": 5279,
      "ĠlÃ¹th": 5280,
      "liabh": 5281,
      "Ġfhastadh": 5282,
      "Ġinnt": 5283,
      "bhadh": 5284,
      "ĠbhÃłis": 5285,
      "Ġbhitheas": 5286,
      "ĠRothach": 5287,
      "Ġfuasglaidhean": 5288,
      "eimigear": 5289,
      "Ġbhuineas": 5290,
      "09": 5291,
      "ble": 5292,
      "Ġconnsp": 5293,
      "ĠRed": 5294,
      "aoghail": 5295,
      "Ġ1958": 5296,
      "Ġearbsa": 5297,
      "ĠCaolas": 5298,
      "Ġriaghaltais": 5299,
      "bÃ¬dh": 5300,
      "oiche": 5301,
      "ineadh": 5302,
      "ĠgiÃ¹lan": 5303,
      "aithne": 5304,
      "Ġcomharra": 5305,
      "ĠStÃ²rlann": 5306,
      "Ġcarbadan": 5307,
      "ĠMhoireibh": 5308,
      "uachd": 5309,
      "athain": 5310,
      "ĠMorair": 5311,
      "ĠMoireach": 5312,
      "44": 5313,
      "eg": 5314,
      "ect": 5315,
      "Ġchothroman": 5316,
      "MH": 5317,
      "ste": 5318,
      "ĠCeÃłr": 5319,
      "ĠIP": 5320,
      "sgadh": 5321,
      "Ġchuimh": 5322,
      "Ġcaraidean": 5323,
      "Â²": 5324,
      "ĠChill": 5325,
      "ĠÃłicheadh": 5326,
      "bhualadh": 5327,
      "Rath": 5328,
      "Ġgearraidhean": 5329,
      "ĠBhon": 5330,
      "ington": 5331,
      "Ġ32": 5332,
      "Ġceangail": 5333,
      "aontaich": 5334,
      "ĠbhrÃ¬gh": 5335,
      "ĠchÃłirdean": 5336,
      "Ã¨isteachd": 5337,
      "anam": 5338,
      "ltic": 5339,
      "ĠcÃłite": 5340,
      "SS": 5341,
      "Ġeus": 5342,
      "ĠrÃ¨idh": 5343,
      "ĠGheÃłrr": 5344,
      "chompanaidh": 5345,
      "Ġthainig": 5346,
      "mheas": 5347,
      "Ġbeann": 5348,
      "ĠmhÃ¬le": 5349,
      "Ġlusan": 5350,
      "Ġslighean": 5351,
      "Ġmionaidean": 5352,
      "ĠChomataidh": 5353,
      "bert": 5354,
      "samhradh": 5355,
      "xit": 5356,
      "thail": 5357,
      "Ġdi": 5358,
      "ĠTran": 5359,
      "ĠseÃ²mraichean": 5360,
      "ĠCÃ¹irt": 5361,
      "naigh": 5362,
      "Ġthoir": 5363,
      "eadan": 5364,
      "astadh": 5365,
      "ĠSlÃ¨ite": 5366,
      "Ġleagail": 5367,
      "Ġtuairisgeul": 5368,
      "cail": 5369,
      "ĠLÃ¬on": 5370,
      "stit": 5371,
      "ĠstÃłit": 5372,
      "ĠMhgr": 5373,
      "oilleir": 5374,
      "Ġiris": 5375,
      "43": 5376,
      "Bidh": 5377,
      "ĠOidhche": 5378,
      "Ġ37": 5379,
      "ĠsgrÃ¬obhainn": 5380,
      "aitheamh": 5381,
      "Ġchluichead": 5382,
      "Ġtursan": 5383,
      "rithealaidh": 5384,
      "ĠÃ¨isg": 5385,
      "dhÃ¹naidhean": 5386,
      "bruidhinn": 5387,
      "Ġ01": 5388,
      "Ġteann": 5389,
      "ĠThogadh": 5390,
      "ĠMacDhÃ²mhnaill": 5391,
      "einnseanan": 5392,
      "Ġcasinoan": 5393,
      "oimbia": 5394,
      "Ġfein": 5395,
      "ĠchÃł": 5396,
      "ĠInde": 5397,
      "Ġcruthachail": 5398,
      "yro": 5399,
      "Ġea": 5400,
      "Ġlabh": 5401,
      "Ġgal": 5402,
      "athadh": 5403,
      "Ġbualadh": 5404,
      "aibhne": 5405,
      "Ã¬orbhail": 5406,
      "Ãłiteachan": 5407,
      "ĠRobasdan": 5408,
      "eb": 5409,
      "lich": 5410,
      "bhaidh": 5411,
      "ĠGlas": 5412,
      "tes": 5413,
      "eard": 5414,
      "ĠDÃ¬on": 5415,
      "ĠChogadh": 5416,
      "struct": 5417,
      "sgrÃ¹daidh": 5418,
      "Ġcaraid": 5419,
      "ĠDualchais": 5420,
      "Ġoifigearan": 5421,
      "ĠInnis": 5422,
      "Ġuachdaran": 5423,
      "ĠprÃ²iseas": 5424,
      "Ġcumadh": 5425,
      "ĠRatharsair": 5426,
      "sha": 5427,
      "ĠSo": 5428,
      "ĠGorm": 5429,
      "eallaidh": 5430,
      "icsean": 5431,
      "ĠHer": 5432,
      "Ġfhalbh": 5433,
      "iew": 5434,
      "Ġriochdachaidh": 5435,
      "ĠCuiridh": 5436,
      "Fhion": 5437,
      "Ġduilleig": 5438,
      "alachd": 5439,
      "Ġpoileas": 5440,
      "Ġcoireach": 5441,
      "ĠstÃłite": 5442,
      "ĠmhÃłin": 5443,
      "Ġ45": 5444,
      "Ġcreagan": 5445,
      "ÌĢ": 5446,
      "ĠLochlannach": 5447,
      "ĠBrit": 5448,
      "ilte": 5449,
      "Ġmin": 5450,
      "ĠMitchell": 5451,
      "eadhain": 5452,
      "Ġeileanan": 5453,
      "Ġagainne": 5454,
      "www": 5455,
      "Ġeinnseanan": 5456,
      "Ġeucoir": 5457,
      "500": 5458,
      "âĢĵ": 5459,
      "oriz": 5460,
      "ĠWal": 5461,
      "Ã²rdain": 5462,
      "rosoft": 5463,
      "dealain": 5464,
      "well": 5465,
      "eair": 5466,
      "ĠPÃłdraig": 5467,
      "ĠMhoire": 5468,
      "ĠEadailt": 5469,
      "Ġsheasamh": 5470,
      "UTC": 5471,
      "mer": 5472,
      "ĠMon": 5473,
      "ĠsgÃ¬th": 5474,
      "Sgoil": 5475,
      "ĠNobel": 5476,
      "Ãłradh": 5477,
      "ingeal": 5478,
      "Ġ2006": 5479,
      "Ġpuingean": 5480,
      ".'": 5481,
      "Ġnigh": 5482,
      "ĠUHI": 5483,
      "Ġ36": 5484,
      "Ġcaract": 5485,
      "ĠcÃłnanan": 5486,
      "38": 5487,
      "lachadh": 5488,
      "ĠtÃ¹r": 5489,
      "Ġbhriseadh": 5490,
      "Ġleabaidh": 5491,
      "Ġfeumach": 5492,
      "ĠChuan": 5493,
      "Ġfaigheadh": 5494,
      "ĠEÃ²las": 5495,
      "ĠCathair": 5496,
      "Ã¨inn": 5497,
      "Ġuamh": 5498,
      "ĠÃ¨ibhinn": 5499,
      "Ġriatanas": 5500,
      "Is": 5501,
      "Ġbhad": 5502,
      "ĠJones": 5503,
      "Ġghabhadh": 5504,
      "Ãłireamhachadh": 5505,
      "Ġeachd": 5506,
      "Ġmilleadh": 5507,
      "Ġchas": 5508,
      "fheuch": 5509,
      "Ġaonad": 5510,
      "naidhean": 5511,
      "Ġciod": 5512,
      "ghluasad": 5513,
      "Ġionn": 5514,
      "eacail": 5515,
      "ĠMalaig": 5516,
      "Ru": 5517,
      "fÃłs": 5518,
      "neachail": 5519,
      "so": 5520,
      "chur": 5521,
      "Ġnithe": 5522,
      "Ġ2000": 5523,
      "âĢĿ,": 5524,
      "ÃĢite": 5525,
      "finite": 5526,
      "iosgaidean": 5527,
      "ĠNicola": 5528,
      "ĠdÃ¹thchail": 5529,
      "coiseachd": 5530,
      "ĠMacIlleathain": 5531,
      "Ġmaoin": 5532,
      "ĠchÃ²rd": 5533,
      "ĠcheÃ²l": 5534,
      "ĠplÃ¨": 5535,
      "imedia": 5536,
      "Ġinnl": 5537,
      "ĠSpior": 5538,
      "itcoin": 5539,
      "fuirich": 5540,
      "dhu": 5541,
      "Ġlas": 5542,
      "alaidh": 5543,
      "fhillte": 5544,
      "eatamach": 5545,
      "ĠcrÃ¬ch": 5546,
      "ĠStÃ²ras": 5547,
      "Ġbhlog": 5548,
      "Ġstructar": 5549,
      "saidheans": 5550,
      "ĠGhrann": 5551,
      "Ġshol": 5552,
      "Ġinns": 5553,
      "Ġsiostaman": 5554,
      "col": 5555,
      "adhbhar": 5556,
      "Ġbheul": 5557,
      "ĠTru": 5558,
      "ioc": 5559,
      "ĠfhÃ¬rinn": 5560,
      "ĠRigh": 5561,
      "illtean": 5562,
      "ĠChal": 5563,
      "ĠeÃ²in": 5564,
      "ĠMicrosoft": 5565,
      "Ġgas": 5566,
      "Ġbuidseat": 5567,
      "eamannan": 5568,
      "Ġbhuill": 5569,
      "ĠCaledon": 5570,
      "ĠÃ¡": 5571,
      "ĠRoss": 5572,
      "ĠCount": 5573,
      "Ġtalmhainn": 5574,
      "samhraidh": 5575,
      "ĠCrÃ¬osd": 5576,
      "char": 5577,
      "ĠbhÃłrdachd": 5578,
      "alan": 5579,
      "Ġagallamh": 5580,
      "res": 5581,
      "ĠRuaidh": 5582,
      "cuimhne": 5583,
      "dÃ¨ilig": 5584,
      "Ġseinneadair": 5585,
      "Aoidh": 5586,
      "ev": 5587,
      "ĠrÃ¹n": 5588,
      "ĠBeachdan": 5589,
      "ĠMV": 5590,
      "Ġbus": 5591,
      "Ġeuslaint": 5592,
      "Ġdanns": 5593,
      "Ġchogaidh": 5594,
      "mhÃ¬os": 5595,
      "ĠTim": 5596,
      "ĠMeadhanan": 5597,
      "ern": 5598,
      "llap": 5599,
      "Ġchraobh": 5600,
      "ĠPhrionnsa": 5601,
      "Ġbhoireannach": 5602,
      "ĠIndefinite": 5603,
      "Ġ>": 5604,
      "eudachadh": 5605,
      "ealls": 5606,
      "Ġchompanaidhean": 5607,
      "Ġciall": 5608,
      "Ġthachartasan": 5609,
      "we": 5610,
      "ÃĻ": 5611,
      "Ġdean": 5612,
      "ĠHI": 5613,
      "Ġdhuil": 5614,
      "ĠCleachd": 5615,
      "ĠBrown": 5616,
      "anderings": 5617,
      "Ġfigearan": 5618,
      "Ġcunn": 5619,
      "Ġdraghan": 5620,
      "ĠcÃ²raichean": 5621,
      "Ġbheath": 5622,
      "ĠMÃłrtainn": 5623,
      "Ġiomairtean": 5624,
      "32": 5625,
      "78": 5626,
      "Ben": 5627,
      "ĠpÃłirtean": 5628,
      "ochairean": 5629,
      "ĠÃĴbain": 5630,
      "ĠGaidheal": 5631,
      "05": 5632,
      "ka": 5633,
      "my": 5634,
      "ĠBi": 5635,
      "aistean": 5636,
      "ĠâĨĳ": 5637,
      "ĠphrÃ²iseas": 5638,
      "fhortanach": 5639,
      "bb": 5640,
      "ware": 5641,
      "chinnt": 5642,
      "ĠpÃłrtaidh": 5643,
      "aicheantas": 5644,
      "ĠBharraigh": 5645,
      "icel": 5646,
      "Ġionnsachaidh": 5647,
      "dain": 5648,
      "Ġthilg": 5649,
      "inc": 5650,
      "Ġribh": 5651,
      "Ġchosta": 5652,
      "Ġitealain": 5653,
      "Ġmhargaidh": 5654,
      "Ġasgaidh": 5655,
      "Ġcobhair": 5656,
      "ĠRod": 5657,
      "ĠstÃłladh": 5658,
      "Ġthugam": 5659,
      "Ġchruaidh": 5660,
      "ĠneÃ²nach": 5661,
      "yrood": 5662,
      "ĠBitcoin": 5663,
      "Ã¬obair": 5664,
      "Ġphoblach": 5665,
      "omhair": 5666,
      "ainmean": 5667,
      "tis": 5668,
      "Ġfiolm": 5669,
      "Ġtigeadh": 5670,
      "ĠSea": 5671,
      "Ġgar": 5672,
      "Ġdotair": 5673,
      "ĠChaluim": 5674,
      "ĠWil": 5675,
      "Ġors": 5676,
      "ĠChoimisean": 5677,
      "Ġphostadh": 5678,
      "icelist": 5679,
      "ADH": 5680,
      "ĠBagh": 5681,
      "ĠBÃłn": 5682,
      "ĠpÃłigh": 5683,
      "ĠChlann": 5684,
      "99": 5685,
      "ĠMy": 5686,
      "Ġgann": 5687,
      "rum": 5688,
      "ĠcÃ²mhdach": 5689,
      "Ġsagart": 5690,
      "td": 5691,
      "ealachd": 5692,
      "ĠLeasachadh": 5693,
      "Ġghrian": 5694,
      "Ġchro": 5695,
      "ĠDar": 5696,
      "ĠChaisteal": 5697,
      "aorach": 5698,
      "Ġcumhachdan": 5699,
      "ighearna": 5700,
      "Ġsuim": 5701,
      "Ã¬cheal": 5702,
      "ĠHolyrood": 5703,
      "ĠflÃ¹r": 5704,
      "Ġcaochladh": 5705,
      "nachainn": 5706,
      "odach": 5707,
      "Ġ1876": 5708,
      "ĠChÃ¹il": 5709,
      "Ġfortanach": 5710,
      "Ġspiorad": 5711,
      "ĠCuimrigh": 5712,
      "ĠdÃ©": 5713,
      "Ġtobh": 5714,
      "ghnÃ¬omh": 5715,
      "ĠCruinn": 5716,
      "ĠdhÃ¬o": 5717,
      "amaichean": 5718,
      "ĠÃ¹ghd": 5719,
      "Ġpricelist": 5720,
      "Ã¬cheil": 5721,
      "ĠSpÃłinnt": 5722,
      "Inbhir": 5723,
      "36": 5724,
      "56": 5725,
      "deachd": 5726,
      "iann": 5727,
      "Ĥ¬": 5728,
      "ĠRÃ²": 5729,
      "ĠIor": 5730,
      "aighdear": 5731,
      "Ġcleachdaidhean": 5732,
      "ĠBhuannaich": 5733,
      "ĠTÃ²isichidh": 5734,
      "ailc": 5735,
      "athas": 5736,
      "Ġchoimhead": 5737,
      "ĠHar": 5738,
      "inge": 5739,
      "Ġbhuil": 5740,
      "ĠShlÃ¨": 5741,
      "Ġcharbad": 5742,
      "Ġmeasail": 5743,
      "Ã²lainn": 5744,
      "Ġex": 5745,
      "ithtean": 5746,
      "Ġpoileataigeach": 5747,
      "nuic": 5748,
      "BH": 5749,
      "ric": 5750,
      "tÃ²iseachadh": 5751,
      "uin": 5752,
      "Â°": 5753,
      "ÂĴ": 5754,
      "ĠdÃ¬th": 5755,
      "ĠstÃ¨idhich": 5756,
      "Ġchraoladh": 5757,
      "ĠChomann": 5758,
      "):": 5759,
      "ita": 5760,
      "airb": 5761,
      "ĠBathar": 5762,
      "atharrachadh": 5763,
      "ĠBhic": 5764,
      "Ġthuige": 5765,
      "Ġarg": 5766,
      "reatannach": 5767,
      "Ġluachmhor": 5768,
      "ĠMurchadh": 5769,
      "Ġchosnadh": 5770,
      "nuidh": 5771,
      "sao": 5772,
      "nnaidh": 5773,
      "ĠChÃ¬": 5774,
      "lus": 5775,
      "sheÃ²ladh": 5776,
      "Ġtroimhe": 5777,
      "Ġsgoilear": 5778,
      "oidte": 5779,
      "Ġsguir": 5780,
      "Ġchoireigin": 5781,
      "bt": 5782,
      "aicheadh": 5783,
      "ĠDÃ¬reach": 5784,
      "ĠGhiuth": 5785,
      "allaidh": 5786,
      "uidhle": 5787,
      "Ġaithrisean": 5788,
      "Ġchomataidh": 5789,
      "Ġcumhachdach": 5790,
      "rainge": 5791,
      "ĠtÃłladh": 5792,
      "ĠEileanan": 5793,
      "ĠchlÃ²": 5794,
      "Ġ500": 5795,
      "shealladh": 5796,
      "ĠChunnaic": 5797,
      "Ġballrachd": 5798,
      "Ġthachras": 5799,
      "Ġmhullach": 5800,
      "iriodh": 5801,
      "Ġbriog": 5802,
      "ĠSean": 5803,
      "ĠDid": 5804,
      "Ġgheall": 5805,
      "again": 5806,
      "riochd": 5807,
      "rachais": 5808,
      "ĠdhÃ¨anadh": 5809,
      "eacop": 5810,
      "Ġearbs": 5811,
      "ĠstÃ²radh": 5812,
      "Ġuidheamachd": 5813,
      "tio": 5814,
      "thann": 5815,
      "ĠST": 5816,
      "ĠDaoine": 5817,
      "ionnan": 5818,
      "Ġcraic": 5819,
      "AIR": 5820,
      "Ġsuidheachaidhean": 5821,
      "Ġmeasadh": 5822,
      "ĠUlapul": 5823,
      "Ã¬orbhaileach": 5824,
      "?\"": 5825,
      "eileacop": 5826,
      "Ġstigh": 5827,
      "03": 5828,
      "ES": 5829,
      "eh": 5830,
      "ĠbhrÃłthair": 5831,
      "Ġbann": 5832,
      "eÃ²laiche": 5833,
      "Ġbhiadh": 5834,
      "ĠYou": 5835,
      "Ġ1930": 5836,
      "ĠCruinne": 5837,
      "Ġtheir": 5838,
      "Ġcluiche": 5839,
      "Ġwh": 5840,
      "ĠstÃ²ras": 5841,
      "ealg": 5842,
      "ĠDhÃ¹in": 5843,
      "rainneachd": 5844,
      "ĠIarla": 5845,
      "Ġfaidhle": 5846,
      "ĠSÃ¬ne": 5847,
      "dÃ¨iligidh": 5848,
      "ĠleÃ²n": 5849,
      "Ġsolais": 5850,
      "car": 5851,
      "cruthachadh": 5852,
      "chÃ²rd": 5853,
      "irinn": 5854,
      "Ġtalla": 5855,
      "Ġbo": 5856,
      "ĠghrÃłdh": 5857,
      "ĠGheÃłrrloch": 5858,
      "cÃ²rdadh": 5859,
      "Ġdearg": 5860,
      "Ġnaoidh": 5861,
      "ĠApp": 5862,
      "ĠPÃ²l": 5863,
      "ĠdÃ²ch": 5864,
      "ĠBuaidh": 5865,
      "uilinn": 5866,
      "ĠrÃ¬oghachd": 5867,
      "Io": 5868,
      "feuchainn": 5869,
      "Ġachadh": 5870,
      "eÃ²th": 5871,
      "ĠsheÃ²rsa": 5872,
      "ĠLochan": 5873,
      "ĠSlighe": 5874,
      "luirg": 5875,
      "Ġfall": 5876,
      "ghlan": 5877,
      "Ġbhur": 5878,
      "ĠAo": 5879,
      "iorram": 5880,
      "Ġ2002": 5881,
      "ĠAndroid": 5882,
      "Sp": 5883,
      "TM": 5884,
      "Ġaobhar": 5885,
      "Ġdeatamach": 5886,
      "ĠTiotal": 5887,
      "ĠdhÃ¬": 5888,
      "ĠMart": 5889,
      "ruthachail": 5890,
      "Ġbhuail": 5891,
      "ĠTro": 5892,
      "shÃ¬de": 5893,
      "Ġfireannach": 5894,
      "aidsearachd": 5895,
      "naichte": 5896,
      "oigh": 5897,
      "Ġaideachadh": 5898,
      "asdail": 5899,
      "ĠBog": 5900,
      "ĠgeÃłrr": 5901,
      "ator": 5902,
      "ĠchÃ¹m": 5903,
      "ĠSeile": 5904,
      "Ġmargaidheachd": 5905,
      "Mhathain": 5906,
      "ix": 5907,
      "thir": 5908,
      "Ġbhan": 5909,
      "Ġgaisg": 5910,
      "ĠpÃ²sadh": 5911,
      "ĠChoinnich": 5912,
      "ĠFrainge": 5913,
      "ĠEilg": 5914,
      "ĠMhor": 5915,
      "Ã²nrachadh": 5916,
      "Ã¹raim": 5917,
      "ĠShlÃ¨ite": 5918,
      "Saoghail": 5919,
      "ĠtÃ¬odh": 5920,
      "ĠNan": 5921,
      "ace": 5922,
      "Ġghin": 5923,
      "Ġghru": 5924,
      "Ġchoim": 5925,
      "Ġ33": 5926,
      "Ġfhiosrachadh": 5927,
      "gnÃ¬omh": 5928,
      "Ġministearan": 5929,
      "Ġuaine": 5930,
      "ĠMhan": 5931,
      "mhnantan": 5932,
      "anguage": 5933,
      "Ġcear": 5934,
      "Ġtidsearan": 5935,
      "Ã¹id": 5936,
      "ĠrÃ¨iteachadh": 5937,
      "comh": 5938,
      "oighreachd": 5939,
      "Ġau": 5940,
      "ĠLann": 5941,
      "Ġsgeamaichean": 5942,
      "ical": 5943,
      "reige": 5944,
      "oirteachadh": 5945,
      "Ġchladach": 5946,
      "ĠMacL": 5947,
      "ĠsgrÃ¬obhaidh": 5948,
      "ĠCeltic": 5949,
      "Aon": 5950,
      "Innseachan": 5951,
      "den": 5952,
      "Ãłtaichean": 5953,
      "ĠrÃ¹m": 5954,
      "ale": 5955,
      "ĠMÃ¬cheal": 5956,
      "Ġheileacop": 5957,
      "ĠBhriuth": 5958,
      "ĠChrist": 5959,
      "ĠfÃłire": 5960,
      "Ġlom": 5961,
      "Ġstoc": 5962,
      "ĠphÃ¬os": 5963,
      "uchair": 5964,
      "aomainn": 5965,
      ":<": 5966,
      "Ġcail": 5967,
      "ĠbÃłr": 5968,
      "Ġet": 5969,
      "ĠLach": 5970,
      "lum": 5971,
      "otrom": 5972,
      "ĠspÃ¨is": 5973,
      "Ġ1970": 5974,
      "chomhairleachadh": 5975,
      "ĠCaledonian": 5976,
      "pr": 5977,
      "nap": 5978,
      "Ġpheac": 5979,
      "Ġfiadhaich": 5980,
      "seachdamh": 5981,
      "North": 5982,
      "laith": 5983,
      "Ã²cair": 5984,
      "ĠCruinneachadh": 5985,
      "idhlig": 5986,
      "Ġrigh": 5987,
      "ĠSA": 5988,
      "Ġchoimhearsnachdan": 5989,
      "ĠUrch": 5990,
      "wiki": 5991,
      "neis": 5992,
      "Ġachd": 5993,
      "ĠmÃłthair": 5994,
      "ison": 5995,
      "Ġbot": 5996,
      "ĠSam": 5997,
      "ĠBhÃłn": 5998,
      "Ġcholbh": 5999,
      "Ġtinneas": 6000,
      "riaghlaidh": 6001,
      "leu": 6002,
      "ĠGÃ²rdan": 6003,
      "Ġcladh": 6004,
      "Ġcladach": 6005,
      "rat": 6006,
      "ĠCothrom": 6007,
      "Ġcry": 6008,
      "Ġcorporra": 6009,
      "Ġceathrar": 6010,
      "bor": 6011,
      "yt": 6012,
      "Ġdach": 6013,
      "Ġcarr": 6014,
      "ĠcÃ¬s": 6015,
      "ĠChÃ²ir": 6016,
      "eumaidh": 6017,
      "theangachaidhean": 6018,
      "ĠAmeireaganach": 6019,
      "Ġartaigil": 6020,
      "Ġfhiach": 6021,
      "rachas": 6022,
      "Ġaibh": 6023,
      "ĠfÃ²": 6024,
      "ĠdhÃ¨idh": 6025,
      "saa": 6026,
      "ĠDhearbh": 6027,
      "Ġ90": 6028,
      "Ġiasgairean": 6029,
      "ĠAllan": 6030,
      "ĠCÃ¹l": 6031,
      "sÃ¬de": 6032,
      "ĠCoir": 6033,
      "ĠMheadhan": 6034,
      "ĠShrath": 6035,
      "ĠlÃ¬og": 6036,
      "47": 6037,
      "aul": 6038,
      "form": 6039,
      "puist": 6040,
      "Ġcabh": 6041,
      "ĠbhÃłs": 6042,
      "ĠTop": 6043,
      "Ġpm": 6044,
      "ĠLtd": 6045,
      "Ġfheudar": 6046,
      "ifisean": 6047,
      "Ãłthar": 6048,
      "allachan": 6049,
      "Ġcoltais": 6050,
      "ĠChomuinn": 6051,
      "Ġgreim": 6052,
      "dhealbhachd": 6053,
      "Ġreusanta": 6054,
      "eallsanachd": 6055,
      "field": 6056,
      "ĠMuile": 6057,
      "ĠLoc": 6058,
      "Ġlethbhreac": 6059,
      "ĠchÃ¹isean": 6060,
      "ĠseÃ²rs": 6061,
      "Ãłid": 6062,
      "Ġcal": 6063,
      "ĠTigh": 6064,
      "ĠTairb": 6065,
      "airbh": 6066,
      "ĠOff": 6067,
      "aireannach": 6068,
      "ĠGhiuthsaich": 6069,
      "do": 6070,
      "Ã¨ith": 6071,
      "Ġdhiofar": 6072,
      "ĠMag": 6073,
      "ĠMeall": 6074,
      "Ġglas": 6075,
      "Ġpo": 6076,
      "ĠLong": 6077,
      "ĠChaimbeul": 6078,
      "igheach": 6079,
      "ĠBhÃ¹ird": 6080,
      "ĠghrÃł": 6081,
      "ius": 6082,
      "fheÃłrr": 6083,
      "Ġsoitheach": 6084,
      "ĠShaor": 6085,
      "Ġdheireannaich": 6086,
      "Ġailt": 6087,
      "mhain": 6088,
      "ĠCogaidh": 6089,
      "ĠMich": 6090,
      "Ġgearan": 6091,
      "Ġpar": 6092,
      "Ġnur": 6093,
      "eilg": 6094,
      "Ġthuigsinn": 6095,
      "ĠThachair": 6096,
      "Ġdeasbaireachd": 6097,
      "Ġfaidhlichean": 6098,
      "Ġsruthadh": 6099,
      "ĠJam": 6100,
      "iorraidh": 6101,
      "ghdarrasan": 6102,
      "ĠcrÃ¬ochnachadh": 6103,
      "ĠMacIlle": 6104,
      "ASG": 6105,
      "ĠLaideann": 6106,
      "ĠBhriuthainn": 6107,
      "ĠTasgaidh": 6108,
      "ĠIarr": 6109,
      "Ġcomasan": 6110,
      "Ġclub": 6111,
      "Ġbliadhnachan": 6112,
      "ĠBarr": 6113,
      "ĠphÃ²s": 6114,
      "anachadh": 6115,
      "Ġshaoil": 6116,
      "Ġseasmhach": 6117,
      "ĠIonadail": 6118,
      "laghail": 6119,
      "AL": 6120,
      "Ġ55": 6121,
      "apa": 6122,
      "ĠgrÃ¨ine": 6123,
      "Ġghnothach": 6124,
      "leath": 6125,
      "ĠthÃ²iseachadh": 6126,
      "Ġnotaichean": 6127,
      "Ġlochan": 6128,
      "Ġdheasbad": 6129,
      "Ġmeatair": 6130,
      "lairean": 6131,
      "dhÃ¹in": 6132,
      "Ġfidheall": 6133,
      "Ġchaisteal": 6134,
      "ĠCli": 6135,
      "ĠRiochd": 6136,
      "illt": 6137,
      "Ġphro": 6138,
      "Ġphort": 6139,
      "Ġshuas": 6140,
      "ĠCultar": 6141,
      "ĠÃĴg": 6142,
      "ĠTaghadh": 6143,
      "ĠÃłireamhachadh": 6144,
      "ĠMadadh": 6145,
      "ĠIonmhais": 6146,
      "06": 6147,
      "37": 6148,
      "Ġbhalach": 6149,
      "Ġfhearr": 6150,
      "eataichean": 6151,
      "Ġaoigheachd": 6152,
      "sk": 6153,
      "ĠAu": 6154,
      "Ġsheirbheis": 6155,
      "ĠcÃłball": 6156,
      "Ġgnothachas": 6157,
      "Ġgeamaichean": 6158,
      "ĠOifigear": 6159,
      "paichean": 6160,
      "Ġsreap": 6161,
      "ĠCair": 6162,
      "Ã¨ine": 6163,
      "idse": 6164,
      "eadhon": 6165,
      "Ġcothromach": 6166,
      "ĠIV": 6167,
      "ĠÃĵ": 6168,
      "Ġcreag": 6169,
      "aitlig": 6170,
      "cinn": 6171,
      "Ãº": 6172,
      "ĠrÃ¹": 6173,
      "urren": 6174,
      "easach": 6175,
      "Ġroimh": 6176,
      "spÃ¨": 6177,
      "Ġfhearainn": 6178,
      "earcall": 6179,
      "nÃłmh": 6180,
      "out": 6181,
      "Ġfrom": 6182,
      "eanta": 6183,
      "Ġbinn": 6184,
      "ĠSeirbheisean": 6185,
      "ert": 6186,
      "pÃłirtiche": 6187,
      "ĠChuala": 6188,
      "ĠcliÃ¹iteach": 6189,
      "Ġfreumh": 6190,
      "Ãłbhaisteach": 6191,
      "ĠDavid": 6192,
      "log": 6193,
      "Ġannasach": 6194,
      "Ã²gan": 6195,
      "ĠBeat": 6196,
      "Ġaidh": 6197,
      "irr": 6198,
      "bhal": 6199,
      "Ġca": 6200,
      "ĠPhil": 6201,
      "eathraichean": 6202,
      "ĠchÃ¹irt": 6203,
      "Ġearran": 6204,
      "Ġâĸ": 6205,
      "ĠSultain": 6206,
      "ĠDidÃ²mhnaich": 6207,
      "thogail": 6208,
      "ĠAG": 6209,
      "Ã¹gh": 6210,
      "ĠMun": 6211,
      "Ġpeata": 6212,
      "tann": 6213,
      "aidreachas": 6214,
      "aclan": 6215,
      "Ġionaltraidh": 6216,
      "Ã¬neadh": 6217,
      "lÃłimh": 6218,
      "ĠÃĪireann": 6219,
      "ĠChaolais": 6220,
      "ptoc": 6221,
      "Ġbile": 6222,
      "ĠTapadh": 6223,
      "ĠAnal": 6224,
      "igidh": 6225,
      "ĠpÃłrtaidhean": 6226,
      "Ġbheilear": 6227,
      "Ġthuca": 6228,
      "ĠphrÃ¬osan": 6229,
      "Ġshuidhe": 6230,
      "fhaid": 6231,
      "Ġfarpaisean": 6232,
      "ĠspÃ²rsail": 6233,
      "Ġcorra": 6234,
      "Ġbhradain": 6235,
      "seachadan": 6236,
      "paidsearachd": 6237,
      "Ġthigeadh": 6238,
      "Ġchasaid": 6239,
      "ĠCrom": 6240,
      "ĠBen": 6241,
      "Ġmhinistear": 6242,
      "Ġglacadh": 6243,
      "badaich": 6244,
      "Ġcoinneamhan": 6245,
      "ĠNorthw": 6246,
      "ĠOnline": 6247,
      "Fhionghain": 6248,
      "nnan": 6249,
      "cheud": 6250,
      "bheachd": 6251,
      "Ġloisg": 6252,
      "Ġchanas": 6253,
      "inis": 6254,
      "Ġpoilit": 6255,
      "ilthighean": 6256,
      "lÃłn": 6257,
      "ĠGood": 6258,
      "Ġcunntasan": 6259,
      "Ġtelebhisein": 6260,
      "Ġdeireannach": 6261,
      "Iain": 6262,
      "hi": 6263,
      "ms": 6264,
      "mhlachd": 6265,
      "ĠBat": 6266,
      "imich": 6267,
      "ĠMara": 6268,
      "Ġionnsaighean": 6269,
      "ĠBanca": 6270,
      "ÃŃn": 6271,
      "Ġcluicheadair": 6272,
      "Ġchorp": 6273,
      "ptocurren": 6274,
      "02": 6275,
      "caichean": 6276,
      "laigh": 6277,
      "moladh": 6278,
      "aidich": 6279,
      "Ġstoirm": 6280,
      "ĠmhÃ¬neachadh": 6281,
      "Ġ1900": 6282,
      "ĠMhonaidh": 6283,
      "eamoc": 6284,
      "ĠÃĻisdean": 6285,
      "Ġcruinne": 6286,
      "ĠcÃ²irichean": 6287,
      "oisgeil": 6288,
      "08": 6289,
      "?âĢĿ": 6290,
      "Fosglaidh": 6291,
      "malairt": 6292,
      "ĠfÃł": 6293,
      "Ġbalaich": 6294,
      "Ġdham": 6295,
      "ĠGen": 6296,
      "igheadh": 6297,
      "ĠÃłith": 6298,
      "cuideachadh": 6299,
      "ĠsÃłmh": 6300,
      "Ã²igh": 6301,
      "Ã¹l": 6302,
      "ĠDamh": 6303,
      "ĠLÃ¬": 6304,
      "ĠChor": 6305,
      "orld": 6306,
      "ĠfhÃ©in": 6307,
      "ering": 6308,
      "Ġfhaclan": 6309,
      "ĠWater": 6310,
      "Ġoifigear": 6311,
      "ĠGeor": 6312,
      "42": 6313,
      "drainn": 6314,
      "sda": 6315,
      "xt": 6316,
      "Ġcao": 6317,
      "Ġcart": 6318,
      "âĢĶ": 6319,
      "ĠVal": 6320,
      "ĠbÃ²nas": 6321,
      "ĠtÃłlan": 6322,
      "ĠBonus": 6323,
      "Ġtasglann": 6324,
      "ĠthrÃ¬": 6325,
      "ĠbheÃ²": 6326,
      "Ġleann": 6327,
      "Ġcheistean": 6328,
      "ĠDor": 6329,
      "stail": 6330,
      "olog": 6331,
      "sgeul": 6332,
      "erv": 6333,
      "lasach": 6334,
      "obraichean": 6335,
      "ĠchÃ¹ram": 6336,
      "ĠbeÃ²thail": 6337,
      "smÃłlaidh": 6338,
      "Ġthric": 6339,
      "lette": 6340,
      "Deas": 6341,
      "Inn": 6342,
      "Ġapp": 6343,
      "ĠchÃ²ig": 6344,
      "ĠCath": 6345,
      "Ġchuimhne": 6346,
      "Ġsoithichean": 6347,
      "Ġsaorsa": 6348,
      "Ġleantainneach": 6349,
      "NA": 6350,
      "Saoir": 6351,
      "eannan": 6352,
      "Ġeireachd": 6353,
      "adcast": 6354,
      "stri": 6355,
      "Ġbuair": 6356,
      "chuairt": 6357,
      "ĠMary": 6358,
      "Eiphit": 6359,
      "Ġdhachaidh": 6360,
      "Ġmargaidh": 6361,
      "Ġeileanach": 6362,
      "Ġbriosgaidean": 6363,
      "ĠÃĮre": 6364,
      "Ġghoireasan": 6365,
      "ek": 6366,
      "uisg": 6367,
      "Ġtior": 6368,
      "Ġpol": 6369,
      "ainge": 6370,
      "ĠChiar": 6371,
      "Ġmhilleadh": 6372,
      "eatair": 6373,
      "Ã¬obairt": 6374,
      "ĠMacGill": 6375,
      "Ġaonar": 6376,
      "faidh": 6377,
      "lighe": 6378,
      "chain": 6379,
      "bhidh": 6380,
      "Ġseusan": 6381,
      "Ġcaoraich": 6382,
      "anna": 6383,
      "ĠTeicn": 6384,
      "Ġstailc": 6385,
      "fhaoidte": 6386,
      "Ã²taidh": 6387,
      "sgoiltean": 6388,
      "bhanntachd": 6389,
      "Ãłrant": 6390,
      "cinnidh": 6391,
      "laig": 6392,
      "Ġtheagasg": 6393,
      "Ġbris": 6394,
      "idheil": 6395,
      "ass": 6396,
      "Ġsgeadachadh": 6397,
      "asgan": 6398,
      "ĠphrÃ¬s": 6399,
      "Ġ1948": 6400,
      "raingis": 6401,
      "ĠNorthwest": 6402,
      "ger": 6403,
      "oy": 6404,
      "taireachd": 6405,
      "ĠthrÃł": 6406,
      "iseal": 6407,
      "Ġcuidh": 6408,
      "Ġcuide": 6409,
      "ĠglÃ²ir": 6410,
      "ĠChupa": 6411,
      "Ġchunnar": 6412,
      "Ġ1940": 6413,
      "Ġchoinnich": 6414,
      "ĠdhÃ¹thch": 6415,
      "rogaichean": 6416,
      "lit": 6417,
      "rinn": 6418,
      "Ġchidhe": 6419,
      "itheadh": 6420,
      "ĠMod": 6421,
      "Ġpuirt": 6422,
      "fhuirich": 6423,
      "fhurt": 6424,
      "Ġacasan": 6425,
      "Ãłnanan": 6426,
      "Ġsnog": 6427,
      "nuadhachadh": 6428,
      "pen": 6429,
      "rail": 6430,
      "ĠCH": 6431,
      "onna": 6432,
      "ĠLou": 6433,
      "ĠPoileas": 6434,
      "eiridinn": 6435,
      "ĠghnÃ¨": 6436,
      "ĠUK": 6437,
      "nasdal": 6438,
      "artaig": 6439,
      "reagairt": 6440,
      "Ġfacail": 6441,
      "ĠTÃ²raidh": 6442,
      "rafaig": 6443,
      "trÃ¨": 6444,
      "arast": 6445,
      "Ġthilleadh": 6446,
      "ĠBriath": 6447,
      "Ġthuig": 6448,
      "liuch": 6449,
      "Ġtramaichean": 6450,
      "ĠHaw": 6451,
      "Ġdealbhachadh": 6452,
      "ives": 6453,
      "Ã²iseactan": 6454,
      "mm": 6455,
      "eamach": 6456,
      "ĠchÃ²d": 6457,
      "ĠTur": 6458,
      "ĠRÃ¨": 6459,
      "unc": 6460,
      "Ġchroitearan": 6461,
      "51": 6462,
      "82": 6463,
      "90": 6464,
      "lorg": 6465,
      "ps": 6466,
      "ĠMat": 6467,
      "ĠNor": 6468,
      "ĠGhÃ²rdain": 6469,
      "Ġtuathanaich": 6470,
      "31": 6471,
      "dar": 6472,
      "lis": 6473,
      "seÃ²mar": 6474,
      "yth": 6475,
      "Ġcainnt": 6476,
      "Ġmill": 6477,
      "Ġbar": 6478,
      "staile": 6479,
      "ĠNuaidh": 6480,
      "Ġgealltanas": 6481,
      "Ġcryptocurren": 6482,
      "Tu": 6483,
      "par": 6484,
      "Ġseall": 6485,
      "ĠtÃłmh": 6486,
      "Ġmeadhanach": 6487,
      "Ã¨arr": 6488,
      "ĠDÃ²r": 6489,
      "Ã²raidh": 6490,
      "ĠclÃ¬": 6491,
      "ĠstÃ¨isein": 6492,
      "riod": 6493,
      "rie": 6494,
      "Ġcomhairlean": 6495,
      "rÃ¬gh": 6496,
      "ĠbrÃłthair": 6497,
      "ĠdhÃ¹in": 6498,
      "ĠMath": 6499,
      "ĠpÃłirc": 6500,
      "Ġmiann": 6501,
      "aonais": 6502,
      "Ġslaod": 6503,
      "ĠglÃ¨idhte": 6504,
      "ĠAmeireaga": 6505,
      "Ġdheireannach": 6506,
      "][": 6507,
      "bhach": 6508,
      "otair": 6509,
      "Ġchuirm": 6510,
      "Ġchomhairlichean": 6511,
      "Ġshlighe": 6512,
      "sneachda": 6513,
      "Ġtasg": 6514,
      "aise": 6515,
      "ĠFÃ¨ill": 6516,
      "ĠEilbh": 6517,
      "ĠInstit": 6518,
      "Ġurrainnear": 6519,
      "ĠÃłraid": 6520,
      "ĠMhanachainn": 6521,
      "bling": 6522,
      "Ġcreideamh": 6523,
      "Ġdarna": 6524,
      "bro": 6525,
      "Ġlag": 6526,
      "ĠNat": 6527,
      "Ġamasan": 6528,
      "ĠIS": 6529,
      "ĠÃĢite": 6530,
      "ĠÃĴrain": 6531,
      "iarrtas": 6532,
      "Ġshaor": 6533,
      "ĠMacIain": 6534,
      "Ġitealan": 6535,
      "ments": 6536,
      "ien": 6537,
      "po": 6538,
      "idean": 6539,
      "Ġgealltainn": 6540,
      "Ġcumh": 6541,
      "iuthar": 6542,
      "ĠDuaisean": 6543,
      "ĠÃĴigridh": 6544,
      "Ġlagha": 6545,
      "Ġmothachadh": 6546,
      "ĠGeÃłrrloch": 6547,
      "ĠsprÃ¨idh": 6548,
      "55": 6549,
      "87": 6550,
      "AT": 6551,
      "Eathain": 6552,
      "Ġap": 6553,
      "Ġsochairean": 6554,
      "eannachd": 6555,
      "Ġchao": 6556,
      "Ġen": 6557,
      "Ġchoimh": 6558,
      "net": 6559,
      "ĠAlbainn": 6560,
      "rathad": 6561,
      "Ġ146": 6562,
      "ĠEÃ²gh": 6563,
      "Ġfhuasgladh": 6564,
      "ĠBaghasdail": 6565,
      "ata": 6566,
      "py": 6567,
      "ĠcÃłineadh": 6568,
      "Ġcheithir": 6569,
      "ĠCastle": 6570,
      "Ã¹ide": 6571,
      "ĠBill": 6572,
      "ĠsgrÃ¹daidh": 6573,
      "onnchaidh": 6574,
      "ÃĢrd": 6575,
      "ĠSpÃłinn": 6576,
      "Gaelic": 6577,
      "dy": 6578,
      "Ġministear": 6579,
      "Ġtun": 6580,
      "Ġchultar": 6581,
      "Ġtaghaidh": 6582,
      "ĠRuaraidh": 6583,
      "Ġlaghan": 6584,
      "Ġuachdarain": 6585,
      "Ġginealach": 6586,
      "Ãłithn": 6587,
      "Feumaidh": 6588,
      "Ġ^": 6589,
      "ĠmÃ¬orbhaileach": 6590,
      "Ã¬se": 6591,
      "oille": 6592,
      "rathaid": 6593,
      "ĠMuseum": 6594,
      "Ġeireachdail": 6595,
      "Ġme": 6596,
      "Ġmhic": 6597,
      "Ġchladh": 6598,
      "Ġprionnsa": 6599,
      "ĠDÃ¹thaich": 6600,
      "ĠChiarain": 6601,
      "Ġabair": 6602,
      "ĠtÃ¬re": 6603,
      "Ġchogadh": 6604,
      "Ġbro": 6605,
      "Ġpu": 6606,
      "ĠRogh": 6607,
      "clair": 6608,
      "ĠgnÃ¬omhach": 6609,
      "Ġsuaicheantas": 6610,
      "ĠCeit": 6611,
      "Ġfoirmeil": 6612,
      "dello": 6613,
      "Ġprothaid": 6614,
      "ls": 6615,
      "ulette": 6616,
      "ĠSeachdain": 6617,
      "Ġgad": 6618,
      "ĠLE": 6619,
      "Ġcorr": 6620,
      "eun": 6621,
      "innein": 6622,
      "Ġinnis": 6623,
      "Ġriochdaire": 6624,
      "ĠÃłraidh": 6625,
      "Ġchumadh": 6626,
      "ĠsÃ¹ilean": 6627,
      "Ġbhoireannaich": 6628,
      "Ġdio": 6629,
      "ĠBriog": 6630,
      "Ã²rn": 6631,
      "ĠRail": 6632,
      "ibheis": 6633,
      "ĠcÃ²mhnuidh": 6634,
      "ĠLuchdaich": 6635,
      "Ġdhomhsa": 6636,
      "ĠcÃłraichean": 6637,
      "ĠsnÃłmh": 6638,
      "gar": 6639,
      "Ġfastadh": 6640,
      "ĠTag": 6641,
      "ondello": 6642,
      "ĠSou": 6643,
      "albh": 6644,
      "ĠPaul": 6645,
      "ĠBhun": 6646,
      "Ġuimhir": 6647,
      "ruaidh": 6648,
      "ĠshÃ¹": 6649,
      "ĠLochlann": 6650,
      "ainmich": 6651,
      "Ġdhealbhachadh": 6652,
      "Ġ1990": 6653,
      "Ġchuspairean": 6654,
      "nathan": 6655,
      "ĠCeap": 6656,
      "ĠAora": 6657,
      "ĠManaidsear": 6658,
      "ĠRich": 6659,
      "Ġdhaibhsan": 6660,
      "ĠTatÃ¹": 6661,
      "ĠCÃ¹rsa": 6662,
      "ghluasadach": 6663,
      "chabhsair": 6664,
      "ĠbhÃłtaichean": 6665,
      "Ġbat": 6666,
      "ĠdhiÃ¹ltadh": 6667,
      "erry": 6668,
      "Ġ2004": 6669,
      "Ġtagraidhean": 6670,
      "Ġriatanasan": 6671,
      "fhurtail": 6672,
      "ih": 6673,
      "irean": 6674,
      "Ãłpa": 6675,
      "Ġthadhail": 6676,
      "ĠCÃłr": 6677,
      "Ġleigeas": 6678,
      "ĠScots": 6679,
      "Ġfarsaingeachd": 6680,
      "eamplaid": 6681,
      "Ġargamaid": 6682,
      "by": 6683,
      "Ġx": 6684,
      "Ġairm": 6685,
      "ĠCÃłnain": 6686,
      "ĠLÃ²": 6687,
      "ibhle": 6688,
      "ĠdÃ¨id": 6689,
      "fhu": 6690,
      "ĠcÃ¹ir": 6691,
      "Ġcomharran": 6692,
      "ÃĢir": 6693,
      "ĠgrÃłin": 6694,
      "seachad": 6695,
      "ĠNÃłdair": 6696,
      "Ġsneachda": 6697,
      "ileagan": 6698,
      "ĠBann": 6699,
      "easnachadh": 6700,
      "Ġol": 6701,
      "Ġmhol": 6702,
      "Ġfeart": 6703,
      "Ġ1936": 6704,
      "verness": 6705,
      "Ã²mais": 6706,
      "ĠClub": 6707,
      "thannais": 6708,
      "ĺħ": 6709,
      "Ġsc": 6710,
      "Ġbhathas": 6711,
      "ĠSn": 6712,
      "ĠPoileasaidh": 6713,
      "ĠDeÃ²rsa": 6714,
      "ĠLogan": 6715,
      "Ġsholar": 6716,
      "Ġheileacoptair": 6717,
      "48": 6718,
      "Ġthagr": 6719,
      "ĠChon": 6720,
      "ĠNirr": 6721,
      "eadais": 6722,
      "ledon": 6723,
      "Ġ300": 6724,
      "Ãłthadh": 6725,
      "ĠsnÃłith": 6726,
      "ioghachd": 6727,
      "moch": 6728,
      "ĠfÃ¨is": 6729,
      "Ġballachan": 6730,
      "Ġeich": 6731,
      "iotan": 6732,
      "ĠEabh": 6733,
      "eiseanan": 6734,
      "Ġshealladh": 6735,
      "ĠÃĴraid": 6736,
      "Ġ176": 6737,
      "Ãłiste": 6738,
      "Ġteicnigeach": 6739,
      "Ġbriathran": 6740,
      "CO": 6741,
      "ET": 6742,
      "cadh": 6743,
      "chairt": 6744,
      "dhealain": 6745,
      "bhÃ²taidh": 6746,
      "Ġdiof": 6747,
      "iltean": 6748,
      "ĠTog": 6749,
      "ĠSSE": 6750,
      "Ġcogaidh": 6751,
      "ĠChum": 6752,
      "ĠUachd": 6753,
      "Ġfact": 6754,
      "Ġcunnartach": 6755,
      "chlÃłr": 6756,
      "ways": 6757,
      "Ġetc": 6758,
      "Ã¤": 6759,
      "Ġste": 6760,
      "Ġcasan": 6761,
      "Ġfileanta": 6762,
      "ĠCC": 6763,
      "eada": 6764,
      "ĠPhlana": 6765,
      "eacs": 6766,
      "ĠEalan": 6767,
      "rÃłithrean": 6768,
      ");": 6769,
      "mus": 6770,
      "tich": 6771,
      "van": 6772,
      "ĠfÃłg": 6773,
      "Ġbhris": 6774,
      "ĠCO": 6775,
      "ĠSÃłbaid": 6776,
      "ĠRÃłth": 6777,
      "ĠEid": 6778,
      "ĠSgÃ¬th": 6779,
      "Ġaonadh": 6780,
      "Ġspioradail": 6781,
      "ailearaidh": 6782,
      "con": 6783,
      "ĠAb": 6784,
      "Ġphuing": 6785,
      "ĠUairean": 6786,
      "ĠMacMhathain": 6787,
      "Ã¬readh": 6788,
      "ĠStÃłite": 6789,
      "Ġgrunnan": 6790,
      "ĠPrÃ²iseact": 6791,
      "ĠQu": 6792,
      "ÃĮomhair": 6793,
      "ĠWilliam": 6794,
      "Cu": 6795,
      "cle": 6796,
      "lamh": 6797,
      "Ġmsaa": 6798,
      "Ġthimcheall": 6799,
      "Ġdheilbh": 6800,
      "ĠDiÃ¹": 6801,
      "Ġrian": 6802,
      "ĠBhrÃł": 6803,
      "aonta": 6804,
      "Ġiasgair": 6805,
      "ĠEÃ²rpaich": 6806,
      "eairteach": 6807,
      "Ġfallain": 6808,
      "Bu": 6809,
      "yle": 6810,
      "âĨ": 6811,
      "Ġall": 6812,
      "aism": 6813,
      "ray": 6814,
      "ĠUllap": 6815,
      "anachainn": 6816,
      "ĠSeonaidh": 6817,
      "arsaich": 6818,
      "Ġ1943": 6819,
      "Ġinbhich": 6820,
      "ockchain": 6821,
      "estern": 6822,
      "ĠDÃ¹thchail": 6823,
      "].": 6824,
      "cain": 6825,
      "lanach": 6826,
      "Ġman": 6827,
      "aird": 6828,
      "ĠBeachd": 6829,
      "ailis": 6830,
      "ĠChoire": 6831,
      "Ġuaigh": 6832,
      "ĠEth": 6833,
      "ĠsgrÃ¬obhaiche": 6834,
      "teachais": 6835,
      "lanadh": 6836,
      "ĠDÃ¹thchannan": 6837,
      "Ġnuadh": 6838,
      "ĠAnalyt": 6839,
      "bach": 6840,
      "pair": 6841,
      "chÃ¨ile": 6842,
      "ĠMaois": 6843,
      "leigh": 6844,
      "ĠsheÃ²rs": 6845,
      "seinnse": 6846,
      "slÃ¨": 6847,
      "Ġphoball": 6848,
      "ĠGabhaidh": 6849,
      "ĠSamhain": 6850,
      "enn": 6851,
      "Ġaite": 6852,
      "Ġcath": 6853,
      "ilis": 6854,
      "Ġthaic": 6855,
      "ĠCÃ²isir": 6856,
      "ĠDealain": 6857,
      "dhealachadh": 6858,
      "ĠTatto": 6859,
      "ĠWikimedia": 6860,
      "Ġfiodha": 6861,
      "Ġtiodhlac": 6862,
      "Ġearbsach": 6863,
      "Ġcat": 6864,
      "ĠMill": 6865,
      "ĠgiÃ¹lain": 6866,
      "ilem": 6867,
      "ruigh": 6868,
      "eÃ²in": 6869,
      "ĠChaledon": 6870,
      "ĠGhÃłidhealach": 6871,
      "riona": 6872,
      "rand": 6873,
      "ĠÃłrda": 6874,
      "ters": 6875,
      "Ãłileachd": 6876,
      "Ġâĺħ": 6877,
      "Ġ1919": 6878,
      "Ġchumhachdan": 6879,
      "chead": 6880,
      "ĠTadhail": 6881,
      "eartan": 6882,
      "ĠNot": 6883,
      "Ġmodail": 6884,
      "ĠArgyll": 6885,
      "Ġdathan": 6886,
      "ĠAimeireag": 6887,
      "Ġalt": 6888,
      "Ġfeur": 6889,
      "Ġmao": 6890,
      "ĠchÃ¬s": 6891,
      "Ġguidhe": 6892,
      "ĠSeÃ²": 6893,
      "ĠSoc": 6894,
      "Ġcoin": 6895,
      "Ġcuin": 6896,
      "amat": 6897,
      "Ã¨ideadh": 6898,
      "Ġspeur": 6899,
      "ĠIarainn": 6900,
      "Ġteth": 6901,
      "airleachaidh": 6902,
      "ĠÃĮosa": 6903,
      "Ġcrodh": 6904,
      "ĠrÃ¬oghail": 6905,
      "ĠFhearainn": 6906,
      "Cl": 6907,
      "nt": 6908,
      "isia": 6909,
      "ĠBonn": 6910,
      "ĠLas": 6911,
      "ors": 6912,
      "ĠRh": 6913,
      "red": 6914,
      "ĠMhu": 6915,
      "shire": 6916,
      "Ġceadaichte": 6917,
      "ÃĢIDH": 6918,
      "ĠPrÃ²gram": 6919,
      "Ġinbheach": 6920,
      "impiutair": 6921,
      "Ġsmuaintean": 6922,
      "ĠstiÃ¹idio": 6923,
      "Oifig": 6924,
      "cÃ¹raim": 6925,
      "gin": 6926,
      "eantadh": 6927,
      "ĠtÃ¬de": 6928,
      "Ġeir": 6929,
      "ĠSeach": 6930,
      "ĠRagh": 6931,
      "Ġuisg": 6932,
      "lla": 6933,
      "Ġwith": 6934,
      "mpidh": 6935,
      "Ġcoimpiutair": 6936,
      "ghnÃłthach": 6937,
      "Coinnich": 6938,
      "bn": 6939,
      "wis": 6940,
      "chleas": 6941,
      "Ġtir": 6942,
      "ĠCÃ²ir": 6943,
      "Ġgaoithe": 6944,
      "ĠChlach": 6945,
      "ĠEU": 6946,
      "Ġdhuinne": 6947,
      "Ġsealg": 6948,
      "teasairginn": 6949,
      "ĠCounty": 6950,
      "tle": 6951,
      "Ġsneachd": 6952,
      "Ġtidsear": 6953,
      "Ġdomhainn": 6954,
      "ĠsgrÃ¹": 6955,
      "ĠRoy": 6956,
      "aiseanta": 6957,
      "Ġriaghlaidh": 6958,
      "reatann": 6959,
      "Ġarmachd": 6960,
      "ĠchliÃ¹": 6961,
      "33": 6962,
      "Seann": 6963,
      "loc": 6964,
      "seilbh": 6965,
      "chr": 6966,
      "Ġmes": 6967,
      "Ġthidsearan": 6968,
      "ĠSealtainn": 6969,
      "ĠGam": 6970,
      "Ġleigeadh": 6971,
      "urr": 6972,
      "Ġghoirteachadh": 6973,
      "Ġtrad": 6974,
      "ĠMhair": 6975,
      "Ġiomagain": 6976,
      "ĠJack": 6977,
      "ĠChuilth": 6978,
      "ĠSeumasaich": 6979,
      "ĠchrÃ¬ochnachadh": 6980,
      "Ġseirbhis": 6981,
      "ĠAnalytics": 6982,
      "77": 6983,
      "Ġconaltraidh": 6984,
      "ĠBhru": 6985,
      "Ġsing": 6986,
      "els": 6987,
      "Ġthugadh": 6988,
      "Ãłilinn": 6989,
      "airgsinn": 6990,
      "Chaidh": 6991,
      "Ġfhicheadamh": 6992,
      "ĠSpÃłinne": 6993,
      "49": 6994,
      "faicinn": 6995,
      "Ã²im": 6996,
      "Ã¹irt": 6997,
      "ĠLes": 6998,
      "rÃ¬ona": 6999,
      "ĠshÃ¬os": 7000,
      "ĠshÃ¬de": 7001,
      "aige": 7002,
      "lÃłigh": 7003,
      "Ġcharaidean": 7004,
      "Ġromhpa": 7005,
      "Ġcuidhteas": 7006,
      "RL": 7007,
      "Ġsr": 7008,
      "Ġdear": 7009,
      "ĠTal": 7010,
      "igs": 7011,
      "aona": 7012,
      "Ãłrradh": 7013,
      "itle": 7014,
      "ition": 7015,
      "elford": 7016,
      "Ãłillidh": 7017,
      "ĠcÃłradh": 7018,
      "Ġfhaodadh": 7019,
      "ĠtÃ¬odhlacadh": 7020,
      "tic": 7021,
      "Ġcrio": 7022,
      "Ġbhro": 7023,
      "Ġcheathr": 7024,
      "ainneachd": 7025,
      "Ġcuim": 7026,
      "Ġ56": 7027,
      "ĠChuireadh": 7028,
      "ĠGhlinn": 7029,
      "Ġmodhan": 7030,
      "IP": 7031,
      "SA": 7032,
      "gun": 7033,
      "ĠthÃłladh": 7034,
      "ĠCity": 7035,
      "ĠBailtean": 7036,
      "ĠSear": 7037,
      "ĠLo": 7038,
      "ĠChrÃ¬os": 7039,
      "ĠInns": 7040,
      "ĠghnÃłth": 7041,
      "ltz": 7042,
      "ataidhean": 7043,
      "ĠSheum": 7044,
      "obrachail": 7045,
      "Ġ150": 7046,
      "ĠLÃ¹nasdal": 7047,
      "ep": 7048,
      "pl": 7049,
      "tÃ²iseachaidh": 7050,
      "Ġbainne": 7051,
      "ĠBhÃłsaich": 7052,
      "ĠObr": 7053,
      "ĠcÃ¹ise": 7054,
      "ĠbÃłsachadh": 7055,
      "Ġbanca": 7056,
      "ĠbÃ¹ithtean": 7057,
      "Ġdiadh": 7058,
      "ĠchÃ¬sean": 7059,
      "mhar": 7060,
      "Ġoilthighean": 7061,
      "fhaicinn": 7062,
      "Ġruadh": 7063,
      "ĠCunntas": 7064,
      "ĠsgrÃ¬obhadairean": 7065,
      "ThÃ²mais": 7066,
      "Ġamharas": 7067,
      "thoilichte": 7068,
      "Ġbogsa": 7069,
      "ĠDhubhthaich": 7070,
      "DÃ²mhnall": 7071,
      "ĠCrÃ¬och": 7072,
      "Ġmargaideachd": 7073,
      "Ġ(âĨ": 7074,
      "ĠVis": 7075,
      "Ġ1946": 7076,
      "ĠMhadaidh": 7077,
      "oidse": 7078,
      "ĠbÃ²idheach": 7079,
      "toria": 7080,
      "Ġmhaoineachadh": 7081,
      "ĠSpiorad": 7082,
      "Ġbhuileachadh": 7083,
      "Ġcraiceann": 7084,
      "Ã¨imh": 7085,
      "Ġbitheadh": 7086,
      "Ġmodal": 7087,
      "ĠWash": 7088,
      "ĠsgrÃ¬obhainnean": 7089,
      "ĠSheall": 7090,
      "einnsean": 7091,
      "ĠÃĻghdarras": 7092,
      "Ã¬thear": 7093,
      "ĠGnÃ¬omhachais": 7094,
      "ĠEthel": 7095,
      "taoibh": 7096,
      "Ġgorm": 7097,
      "eusl": 7098,
      "Ġsgiath": 7099,
      "ĠHack": 7100,
      "Ġrobhar": 7101,
      "Ġ54": 7102,
      "Ġaiseagan": 7103,
      "Ġballa": 7104,
      "ĠblÃłr": 7105,
      "ĠâĨĲ": 7106,
      "aibid": 7107,
      "Ġtattoos": 7108,
      "isteir": 7109,
      "glish": 7110,
      "salair": 7111,
      "ĠBas": 7112,
      "Ġplu": 7113,
      "arrais": 7114,
      "olm": 7115,
      "llaich": 7116,
      "Ġrug": 7117,
      "Ġ38": 7118,
      "Ġars": 7119,
      "ĠWestern": 7120,
      "Ġorsa": 7121,
      "ranais": 7122,
      "ĠLewis": 7123,
      "ĠNicIll": 7124,
      "nothaich": 7125,
      "ĠGhaidhealtachd": 7126,
      "ĠBriathrachais": 7127,
      "cheum": 7128,
      "Ġsios": 7129,
      "ĠbÃ¬dh": 7130,
      "ĠdhÃ¹": 7131,
      "Ġmheasg": 7132,
      "ĠJim": 7133,
      "osgailte": 7134,
      "gmhÃ¬os": 7135,
      "Ã¡n": 7136,
      "Ġhttps": 7137,
      "aitligeach": 7138,
      ")âĢİ": 7139,
      "gion": 7140,
      "Ġean": 7141,
      "adhla": 7142,
      "ĠBreatannach": 7143,
      "Ġuchd": 7144,
      "its": 7145,
      "ĠshÃłr": 7146,
      "Ġshealbh": 7147,
      "chuinge": 7148,
      "ĠeÃ²lais": 7149,
      "ĠBuill": 7150,
      "Ġprothaidean": 7151,
      "ĠcÃłirdeas": 7152,
      "Srath": 7153,
      "Ġslat": 7154,
      "ĠmÃ¨inn": 7155,
      "Ġliost": 7156,
      "âĢĺ": 7157,
      "ĠSÃ¬o": 7158,
      "Ġgeur": 7159,
      "ĠLÃ²bh": 7160,
      "ĠÃłitean": 7161,
      "Ġcloiche": 7162,
      "ibhne": 7163,
      "eirt": 7164,
      "Ġmhoth": 7165,
      "...]": 7166,
      "ĠArd": 7167,
      "ĠCamas": 7168,
      "ĠbÃłt": 7169,
      "arainte": 7170,
      "beltz": 7171,
      "Ġbeinne": 7172,
      "Ġmisneachail": 7173,
      "ĠchÃłraichean": 7174,
      "crip": 7175,
      "ĠdrÃłibheadh": 7176,
      "Ġshoirbhich": 7177,
      "ĠAlexander": 7178,
      "ĠIslands": 7179,
      "ĠCD": 7180,
      "ĠRuidhle": 7181,
      "Ġgheamhraidh": 7182,
      "ĠBhathar": 7183,
      "ĠÃĪireannach": 7184,
      "Ã¬oball": 7185,
      "kerbeltz": 7186,
      "ASGAIDH": 7187,
      "Gu": 7188,
      "rigeadh": 7189,
      "Ħ¢": 7190,
      "ĠAf": 7191,
      "Ã¹ghdarrasan": 7192,
      "eilteach": 7193,
      "ĠRaon": 7194,
      "ĠEu": 7195,
      "Ġshu": 7196,
      "Ġ57": 7197,
      "Ġ1952": 7198,
      "solais": 7199,
      "ËĪ": 7200,
      "Ġcathraiche": 7201,
      "ĠTrÃ¬": 7202,
      "ĠChÃłrr": 7203,
      "ĠPoll": 7204,
      "ĠdÃ¨idheil": 7205,
      "ĠRobert": 7206,
      "ĠphrÃ²iseactan": 7207,
      "ĠAtharrachadh": 7208,
      "Ġ1934": 7209,
      "deasachaidh": 7210,
      "burgh": 7211,
      "eimigeachd": 7212,
      "ĠBrexit": 7213,
      "ĠAGUS": 7214,
      "ĠWashington": 7215,
      "euslaint": 7216,
      "ĠfÃ¨idh": 7217,
      "Ġmanaidsear": 7218,
      "ĠbhÃ¹": 7219,
      "ĠCeum": 7220,
      "Ġbeart": 7221,
      "Ġmuil": 7222,
      "ĠMhuilinn": 7223,
      "chuimhnich": 7224,
      "ĠJan": 7225,
      "ctair": 7226,
      "ĠChoim": 7227,
      "ĠFearghas": 7228,
      "Ġcasaidean": 7229,
      "Ġmearachdan": 7230,
      "ĠCeÃłrdaich": 7231,
      "Ġchluicheadair": 7232,
      "ĠRÃłthaig": 7233,
      "ruighlea": 7234,
      "baigh": 7235,
      "frithealaidh": 7236,
      "adachd": 7237,
      "aoich": 7238,
      "Ġsgadain": 7239,
      "leth": 7240,
      "lia": 7241,
      "ĠGhiÃ¹": 7242,
      "imeid": 7243,
      "Ã¹rsa": 7244,
      "Ġbhuidhneachaidh": 7245,
      "Ġtogalaich": 7246,
      "Co": 7247,
      "Ġainn": 7248,
      "chuir": 7249,
      "Ġoifisean": 7250,
      "Ġchoille": 7251,
      "ĠGhluais": 7252,
      "Ġphlanaichean": 7253,
      "ĠcÃ¹mhnantan": 7254,
      "Ġchuidicheas": 7255,
      "ĠEÃ²in": 7256,
      "ĠchÃ²mhlan": 7257,
      "ĠsÃ¹bailte": 7258,
      "Ġcheanglaichean": 7259,
      "rigidh": 7260,
      "Ġleisgeul": 7261,
      "SP": 7262,
      "que": 7263,
      "eadhna": 7264,
      "eagal": 7265,
      "ĠEac": 7266,
      "ĠmhÃ¬osan": 7267,
      "rÃ¨am": 7268,
      "Ġleannan": 7269,
      "Ġ1980": 7270,
      "ĠDhuibh": 7271,
      "meas": 7272,
      "Ġkm": 7273,
      "aite": 7274,
      "Ã²gh": 7275,
      "mhath": 7276,
      "asta": 7277,
      "ĠChÃłr": 7278,
      "ĠNibheis": 7279,
      "imhneachadh": 7280,
      "Ġsguab": 7281,
      "fuaim": 7282,
      "faire": 7283,
      "Ġsi": 7284,
      "Ġcilem": 7285,
      "Ġmat": 7286,
      "ign": 7287,
      "ĠBR": 7288,
      "ĠBeatha": 7289,
      "abhas": 7290,
      "artais": 7291,
      "Ġcraolaidh": 7292,
      "easanta": 7293,
      "Ġmaireann": 7294,
      "aismeachd": 7295,
      "thag": 7296,
      "ileach": 7297,
      "ĠfÃ¬rinn": 7298,
      "ĠCailean": 7299,
      "inneal": 7300,
      "ĠAis": 7301,
      "âĢ²": 7302,
      "Ã¨ar": 7303,
      "ĠDÃ¼": 7304,
      "amas": 7305,
      "olaire": 7306,
      "eise": 7307,
      "Ġ39": 7308,
      "Ġ52": 7309,
      "aimsir": 7310,
      "ĠAmen": 7311,
      "bhraich": 7312,
      "ĠsÃ¹ileachadh": 7313,
      "Ġ1999": 7314,
      "ĠBanrigh": 7315,
      "100": 7316,
      "chainn": 7317,
      "Ġchathair": 7318,
      "ony": 7319,
      "ĠBell": 7320,
      "Ġcoilltean": 7321,
      "nachail": 7322,
      "iuc": 7323,
      "Ġrubha": 7324,
      "ĠMacÃĮomhair": 7325,
      "Ġ34": 7326,
      "aithnich": 7327,
      "Ġmeudachadh": 7328,
      "ĠsÃłmhach": 7329,
      "ĠsÃłill": 7330,
      "Ġmeidigeach": 7331,
      "Ġthis": 7332,
      "Ġbhus": 7333,
      "ĠCL": 7334,
      "Ġbrith": 7335,
      "ĠLos": 7336,
      "ĠChomh": 7337,
      "ĠPor": 7338,
      "Ġbuin": 7339,
      "Ġmhor": 7340,
      "Ġinnleachd": 7341,
      "Ġtroimh": 7342,
      "ĠIonnsachadh": 7343,
      "ĠLeathann": 7344,
      "Ġchuimhneachan": 7345,
      "Ġcaractaran": 7346,
      "Eain": 7347,
      "oogle": 7348,
      "mhara": 7349,
      "Ġbeinn": 7350,
      "ĠDearg": 7351,
      "ĠPat": 7352,
      "ĠphÃłipear": 7353,
      "ĠHD": 7354,
      "aonna": 7355,
      "Ġ08": 7356,
      "SrÃ²im": 7357,
      "GE": 7358,
      "Uisge": 7359,
      "Ġcoir": 7360,
      "ĠChÃ¹m": 7361,
      "nadach": 7362,
      "Ġtaghaidhean": 7363,
      "Ġbuidhe": 7364,
      "Ġ1942": 7365,
      "ĠbÃ¹than": 7366,
      "ĠRiaghlaidh": 7367,
      "Ġreachdas": 7368,
      "ĠCarrann": 7369,
      "Ionns": 7370,
      "wing": 7371,
      "Ġanmoch": 7372,
      "idheachd": 7373,
      "arradh": 7374,
      "ĠstÃłilinn": 7375,
      "ited": 7376,
      "ĠPhris": 7377,
      "ĠMark": 7378,
      "ets": 7379,
      "cuid": 7380,
      "ĠrÃ¨ite": 7381,
      "Ġ1927": 7382,
      "Ġdorch": 7383,
      "ĠBanks": 7384,
      "ĠMacNÃ¨ill": 7385,
      "IPA": 7386,
      "yr": 7387,
      "Ġsaoth": 7388,
      "Ġchrann": 7389,
      "ĠbÃłn": 7390,
      "ĠAt": 7391,
      "ĠNaidheachd": 7392,
      "ĠsgÃ¬r": 7393,
      "ĠghiÃ¹lan": 7394,
      "ĠThom": 7395,
      "Ġsheall": 7396,
      "ĠsheÃ²l": 7397,
      "rÃłma": 7398,
      "ĠClach": 7399,
      "Ġ[...]": 7400,
      "riogair": 7401,
      "Ġyou": 7402,
      "Ollamh": 7403,
      "Ġfhaicear": 7404,
      "TH": 7405,
      "gow": 7406,
      "bhreith": 7407,
      "isneachd": 7408,
      "ĠSÃłr": 7409,
      "ĠDal": 7410,
      "Ġbhochd": 7411,
      "eÃ²laichean": 7412,
      "fhaigh": 7413,
      "ĠPhÃłrtaidh": 7414,
      "naraigh": 7415,
      "ĠlÃłidire": 7416,
      "Ġtruagh": 7417,
      "ĠsrÃłidean": 7418,
      "41": 7419,
      "oimh": 7420,
      "tain": 7421,
      "Ġfeachd": 7422,
      "ĠfhÃłg": 7423,
      "taghadh": 7424,
      "rop": 7425,
      "ĠEur": 7426,
      "ĠCoille": 7427,
      "richean": 7428,
      "rack": 7429,
      "Ġ=": 7430,
      "Ġeat": 7431,
      "Ġbhalla": 7432,
      "Ã²igridh": 7433,
      "Ġchanadh": 7434,
      "idhchead": 7435,
      "oraidh": 7436,
      "arry": 7437,
      "Ġoisean": 7438,
      "eiridh": 7439,
      "ĠInter": 7440,
      "ĠColoimbia": 7441,
      "iarraidh": 7442,
      "ĠPrÃ¬omhaire": 7443,
      "Ġtlachdmhor": 7444,
      "Ġeaconomaidh": 7445,
      "rac": 7446,
      "Ġteirm": 7447,
      "ghÃłidh": 7448,
      "ini": 7449,
      "innl": 7450,
      "era": 7451,
      "ĠWat": 7452,
      "Ġbreac": 7453,
      "Ġmarbhadh": 7454,
      "ĠLibear": 7455,
      "ĠITIL": 7456,
      "ĠSheumais": 7457,
      "').": 7458,
      "DF": 7459,
      "caireachd": 7460,
      "Ġthoisich": 7461,
      "urtachd": 7462,
      "Ġpac": 7463,
      "Ġdonn": 7464,
      "ĠImp": 7465,
      "aoileadh": 7466,
      "isteadh": 7467,
      "Ġchomann": 7468,
      "ĠNews": 7469,
      "ĠdÃ¬omhair": 7470,
      "ĠWilson": 7471,
      "museum": 7472,
      "ĠChoimisein": 7473,
      "89": 7474,
      "mas": 7475,
      "ileadh": 7476,
      "isco": 7477,
      "Ġcosta": 7478,
      "ĠSgeama": 7479,
      "Ġtuin": 7480,
      "Ġsho": 7481,
      "ses": 7482,
      "Ġaran": 7483,
      "ĠConn": 7484,
      "Ġcridh": 7485,
      "shluagh": 7486,
      "Ġceathramh": 7487,
      "Ã¬dhlear": 7488,
      "dÃ¹il": 7489,
      "ous": 7490,
      "teadh": 7491,
      "anraig": 7492,
      "Ġbhreith": 7493,
      "ĠPÃłirt": 7494,
      "Ġsibhse": 7495,
      "Ġaoibh": 7496,
      "Ġ1995": 7497,
      "iotalan": 7498,
      "ĠSiria": 7499,
      "ĠChuimein": 7500,
      "Ġdhuilghead": 7501,
      "Ġnaoidheamh": 7502,
      "wood": 7503,
      "Ġseisean": 7504,
      "ĠSomhairle": 7505,
      "ĠSaidheans": 7506,
      "ĠGairm": 7507,
      "ĠfhÃ¨arr": 7508,
      "ĠFadhla": 7509,
      "ĠOf": 7510,
      "aithnichte": 7511,
      "phrÃ¬omh": 7512,
      "iver": 7513,
      "Ġ1965": 7514,
      "ĠStaf": 7515,
      "ĠTairbeart": 7516,
      "labh": 7517,
      "Ġdam": 7518,
      "ionadh": 7519,
      "Ġgille": 7520,
      "Ġuime": 7521,
      "Ġcholt": 7522,
      "ĠMacThÃ²mais": 7523,
      "nada": 7524,
      "aistinneach": 7525,
      "rant": 7526,
      "Ġtroighean": 7527,
      "ĠSlots": 7528,
      "ĠgÃłrradh": 7529,
      "ĠGeorge": 7530,
      "cÃ²mh": 7531,
      "mad": 7532,
      "Ġaotrom": 7533,
      "Ġsoidhnichean": 7534,
      "Ġgarbh": 7535,
      "Ġporn": 7536,
      "ĠLÃ¨ir": 7537,
      "Ġcoimisean": 7538,
      "ĠEach": 7539,
      "reit": 7540,
      "ĠshÃ¹il": 7541,
      "Ġbhuaithe": 7542,
      "ĠSheÃ²r": 7543,
      "ĠFhoghlaim": 7544,
      "ĠEalasaid": 7545,
      "Ġfiachan": 7546,
      "Ġbochdainn": 7547,
      "ĠdhÃ¹thaich": 7548,
      "54": 7549,
      "uill": 7550,
      "eau": 7551,
      "Ġcia": 7552,
      "ĠCeimigear": 7553,
      "ĠMain": 7554,
      "ĠDon": 7555,
      "ĠpÃłrlamaid": 7556,
      "Ġfhaidh": 7557,
      "ĠÃ©": 7558,
      "ĠphÃłigh": 7559,
      "rÃłin": 7560,
      "eannachadh": 7561,
      "ĠShrÃłid": 7562,
      "aireachdainnean": 7563,
      "aoladair": 7564,
      "ĠstÃ²ran": 7565,
      "ĠstiÃ¹iridh": 7566,
      "ĠdÃ¬leas": 7567,
      "tuigsinn": 7568,
      "ĠNollaige": 7569,
      "load": 7570,
      "ĠÃ¹ghdar": 7571,
      "chn": 7572,
      "Ġcathair": 7573,
      "Ġmic": 7574,
      "Ã¹san": 7575,
      "ĠMil": 7576,
      "ĠMiss": 7577,
      "ĠRÃłinig": 7578,
      "rek": 7579,
      "oss": 7580,
      "Ġfaclair": 7581,
      "ĠBroadcast": 7582,
      "ections": 7583,
      "70": 7584,
      "SC": 7585,
      "bag": 7586,
      "ceang": 7587,
      "press": 7588,
      "Ġz": 7589,
      "asal": 7590,
      "Ġdeidhinn": 7591,
      "Ġagamsa": 7592,
      "nagach": 7593,
      "Ġblogaichean": 7594,
      "ĠUrchadain": 7595,
      "ghe": 7596,
      "Ġrioghachd": 7597,
      "âĢ³": 7598,
      "Ã¹ghdarras": 7599,
      "ĠBus": 7600,
      "Ġgoilf": 7601,
      "illa": 7602,
      "Ġghaoth": 7603,
      "ĠdÃ¹n": 7604,
      "Ġ400": 7605,
      "ainmeachadh": 7606,
      "Ġtachair": 7607,
      "able": 7608,
      "oint": 7609,
      "eÃ²ragan": 7610,
      "eaglaise": 7611,
      "Ġbhuineadh": 7612,
      "ĠSgeulachd": 7613,
      "ction": 7614,
      "gen": 7615,
      "gairm": 7616,
      "tarraing": 7617,
      "Ġfior": 7618,
      "ĠIu": 7619,
      "Ġbhitheadh": 7620,
      "ĠCumhachd": 7621,
      "Ġoifigich": 7622,
      "Ġgambling": 7623,
      "ĠHIE": 7624,
      "NS": 7625,
      "Ġmaill": 7626,
      "Ġres": 7627,
      "ĠTuir": 7628,
      "ĠBithidh": 7629,
      "ithich": 7630,
      "illinn": 7631,
      "ĠUN": 7632,
      "Ġbhuapa": 7633,
      "Ġteicheadh": 7634,
      "Ġtoileachas": 7635,
      "Samhradh": 7636,
      "ĠFhad": 7637,
      "ĠfÃ²naichean": 7638,
      "ĠSgrÃ¬obhadair": 7639,
      "Ġmargaidhean": 7640,
      "euslaintich": 7641,
      "vent": 7642,
      "Ġealan": 7643,
      "Ġfrith": 7644,
      "Ġlaith": 7645,
      "ĠTiriodh": 7646,
      "ĠPC": 7647,
      "ĠBhig": 7648,
      "Ġtuarast": 7649,
      "nes": 7650,
      "ĠWell": 7651,
      "obhair": 7652,
      "Ġglic": 7653,
      "iÃ¹ird": 7654,
      "Ġfreagairtean": 7655,
      "right": 7656,
      "Ġ1939": 7657,
      "ĠchÃłradh": 7658,
      "ĠCÃ²ig": 7659,
      "orizons": 7660,
      "Ġcaileagan": 7661,
      "75": 7662,
      "gue": 7663,
      "ĠdÃ¬ogh": 7664,
      "ĠfÃłil": 7665,
      "Ġchruth": 7666,
      "ĠTaing": 7667,
      "ĠAp": 7668,
      "iomh": 7669,
      "eachdainn": 7670,
      "Ġ''": 7671,
      "ĠGeamannan": 7672,
      "ĠEideann": 7673,
      "ĠHal": 7674,
      "sel": 7675,
      "ĠInverness": 7676,
      "ĠgrÃłs": 7677,
      "ĠSaorsa": 7678,
      "Phone": 7679,
      "ĠComhann": 7680,
      "Ġoidhirpean": 7681,
      "ĠBhuineadh": 7682,
      "Ġthoilichte": 7683,
      "Urras": 7684,
      "ĠGearmailtis": 7685,
      "ĠSMO": 7686,
      "ainmhich": 7687,
      "ĠBhlÃłr": 7688,
      "ĠdÃ²chasach": 7689,
      "34": 7690,
      "Aonadh": 7691,
      "mat": 7692,
      "ym": 7693,
      "Ġseiseanan": 7694,
      "ĠFÃłs": 7695,
      "Ġlus": 7696,
      "err": 7697,
      "ĠDhÃ²mhnall": 7698,
      "istean": 7699,
      "ĠPheofhair": 7700,
      "Ġmoran": 7701,
      "ĠIsraeil": 7702,
      "ĠIsrael": 7703,
      "aiptean": 7704,
      "ĠLachlann": 7705,
      "ĠEilbheis": 7706,
      "ĠUaireannan": 7707,
      "beÃ²": 7708,
      "srÃłid": 7709,
      "naG": 7710,
      "naoi": 7711,
      "Ġtilg": 7712,
      "iginn": 7713,
      "ĠRes": 7714,
      "leidh": 7715,
      "nanaich": 7716,
      "ĠphÃłirc": 7717,
      "seph": 7718,
      "Ġchuideachd": 7719,
      "ĠchÃ¹r": 7720,
      "ogha": 7721,
      "Ġceumannan": 7722,
      "Ġ1874": 7723,
      "eimigeach": 7724,
      "ĠDubhthaich": 7725,
      "ĠEng": 7726,
      "Ġbrosnaichte": 7727,
      "ĠTrans": 7728,
      "Ġbheathaichean": 7729,
      "83": 7730,
      "Ġti": 7731,
      "Ġbhana": 7732,
      "ĠchiÃ¹il": 7733,
      "ĠIos": 7734,
      "eiseal": 7735,
      "Ġiomlaid": 7736,
      "oto": 7737,
      "Ġ51": 7738,
      "Ġinc": 7739,
      "Ġdorcha": 7740,
      "Ġadhbharachadh": 7741,
      "Ġcharbadan": 7742,
      "Ġâĸº": 7743,
      "bost": 7744,
      "ladair": 7745,
      "Ġanab": 7746,
      "ides": 7747,
      "amail": 7748,
      "ĠBhuidh": 7749,
      "Ġcloinn": 7750,
      "Ġ49": 7751,
      "Ġcuairtean": 7752,
      "Ġbhogsa": 7753,
      "Ġmadadh": 7754,
      "ĠChrombaidh": 7755,
      "ĠplÃ¨ana": 7756,
      "Oifigear": 7757,
      "breith": 7758,
      "Ġfan": 7759,
      "Ġlion": 7760,
      "airson": 7761,
      "Ġpha": 7762,
      "Ġconnaidh": 7763,
      "ĠRang": 7764,
      "reig": 7765,
      "Ġdusan": 7766,
      "Ġsgiobalta": 7767,
      "Ġ1947": 7768,
      "Ġ1917": 7769,
      "ĠTrip": 7770,
      "Ġtobhta": 7771,
      "comharrachadh": 7772,
      "ĠDamhair": 7773,
      "ĠEideard": 7774,
      "xy": 7775,
      "Ġcnoc": 7776,
      "ĠrÃ²": 7777,
      "Ã¨ifeachd": 7778,
      "ĠMalairt": 7779,
      "ĠPol": 7780,
      "Ġmhurt": 7781,
      "ĠOll": 7782,
      "eÃłrnaraigh": 7783,
      "inney": 7784,
      "ĠAmer": 7785,
      "ĠÃĻra": 7786,
      "Ġ75": 7787,
      "ionnsachadh": 7788,
      "dale": 7789,
      "leab": 7790,
      "ualainn": 7791,
      "Ġnigheanan": 7792,
      "Aibhne": 7793,
      "baist": 7794,
      "eit": 7795,
      "gluasad": 7796,
      "Ġcamp": 7797,
      "ĠCÃł": 7798,
      "Ġbana": 7799,
      "ĠAS": 7800,
      "aoire": 7801,
      "earrach": 7802,
      "ĠRun": 7803,
      "ĠMacDh": 7804,
      "Ã¬nich": 7805,
      "oker": 7806,
      "obraich": 7807,
      "Ġadhartachadh": 7808,
      "ĠÃ²rdachadh": 7809,
      "oifigear": 7810,
      "ĠlÃ¨irsinneach": 7811,
      "sichte": 7812,
      "ank": 7813,
      "Ġmean": 7814,
      "ĠmÃ¹th": 7815,
      "Ġmaireannach": 7816,
      "ink": 7817,
      "ĠbÃ¹ird": 7818,
      "ĠAC": 7819,
      "asdain": 7820,
      "ĠLios": 7821,
      "Ġchunn": 7822,
      "ĠCliog": 7823,
      "ĠchÃ¹mhnant": 7824,
      "Ġsliotan": 7825,
      "Ġcudthromach": 7826,
      "Ġeisimpleirean": 7827,
      "Ġshamh": 7828,
      "Ġcreideis": 7829,
      "ĠMcC": 7830,
      "coltach": 7831,
      "Ġ(âĨĲ": 7832,
      "'),": 7833,
      "leum": 7834,
      "tail": 7835,
      "Ġchamp": 7836,
      "Ġcoille": 7837,
      "ĠIÃ¹bh": 7838,
      "ĠUile": 7839,
      "Ġcomann": 7840,
      "ionnach": 7841,
      "ĠCoimhead": 7842,
      "ĠÃĻir": 7843,
      "Ġfuil": 7844,
      "Ġtuathanas": 7845,
      "ett": 7846,
      "Ġ1951": 7847,
      "Ġseachdainnean": 7848,
      "âĢ¦]": 7849,
      "Ġ1920": 7850,
      "ĠdÃ¹bhlain": 7851,
      "Ġfactaraidh": 7852,
      "gaidhean": 7853,
      "gie": 7854,
      "susbaint": 7855,
      "Ġchamara": 7856,
      "ĠAkerbeltz": 7857,
      "Ġgd": 7858,
      "urg": 7859,
      "lect": 7860,
      "rew": 7861,
      "Ġleac": 7862,
      "ionnadh": 7863,
      "Ġsocair": 7864,
      "ĠmhÃ²ran": 7865,
      "ĠShiorrachd": 7866,
      "ĠJav": 7867,
      "oghar": 7868,
      "Samhraidh": 7869,
      "Ġ1897": 7870,
      "2017": 7871,
      "Ġbuaireadh": 7872,
      "ĠTÃ²raidheach": 7873,
      "Ġsingilte": 7874,
      "ĠLÃ²bhat": 7875,
      "85": 7876,
      "86": 7877,
      "Ann": 7878,
      "Clan": 7879,
      "sruth": 7880,
      "wick": 7881,
      "Ġdruim": 7882,
      "ĠTach": 7883,
      "Ġfhuil": 7884,
      "ĠRannsachaidh": 7885,
      "stiÃ¹ireadh": 7886,
      "Ġ47": 7887,
      "utadh": 7888,
      "ĠbrÃ¬gh": 7889,
      "Ġtheaghlaichean": 7890,
      "Ġaplac": 7891,
      "!âĢĿ": 7892,
      "PI": 7893,
      "chiÃ¹il": 7894,
      "Ġdiubh": 7895,
      "Ġdheug": 7896,
      "ĠSinn": 7897,
      "ĠDes": 7898,
      "ĠnÃłire": 7899,
      "ĠSgoile": 7900,
      "cation": 7901,
      "Ġ1945": 7902,
      "Ġlitreachadh": 7903,
      "Ãłislig": 7904,
      "ĠÃ¨iginneach": 7905,
      "ĠFranc": 7906,
      "Big": 7907,
      "Suidhe": 7908,
      "Ġait": 7909,
      "Ġfliuch": 7910,
      "Ġthionndaidh": 7911,
      "Ġrin": 7912,
      "ald": 7913,
      "ĠMer": 7914,
      "ĠgÃłire": 7915,
      "ĠLiath": 7916,
      "Ġbusaichean": 7917,
      "Ġdual": 7918,
      "Ġdualch": 7919,
      "Ġphuist": 7920,
      "Ġshluagh": 7921,
      "Ġ42": 7922,
      "Ġthugaibh": 7923,
      "ĠtÃ¨arainte": 7924,
      "Ghaidh": 7925,
      "ĠglÃ¨idheadh": 7926,
      "ĠnÃłb": 7927,
      "ĠChrombaigh": 7928,
      "ĠEasbaig": 7929,
      "ĠgÃ¨am": 7930,
      "ĠSwinney": 7931,
      "port": 7932,
      "Ġdru": 7933,
      "Ġthru": 7934,
      "Ã²las": 7935,
      "eill": 7936,
      "ĠIII": 7937,
      "aideil": 7938,
      "stan": 7939,
      "ĠEige": 7940,
      "istory": 7941,
      "ĠInd": 7942,
      "easgair": 7943,
      "Ġfeumadh": 7944,
      "ĠÃłireimh": 7945,
      "ĠÃĻire": 7946,
      "ĠKar": 7947,
      "Ġ1745": 7948,
      "Ã©ir": 7949,
      "ĠGearasdan": 7950,
      "Ġ1962": 7951,
      "ĠThere": 7952,
      "ĠshÃ¹ilean": 7953,
      "Ġolc": 7954,
      "scot": 7955,
      "ĠcÃłirdean": 7956,
      "ild": 7957,
      "Ġlong": 7958,
      "ĠDÃ²": 7959,
      "Ġdeimh": 7960,
      "ĠRailt": 7961,
      "Ġ43": 7962,
      "Ġdeachaidh": 7963,
      "Ġ[âĢ¦]": 7964,
      "Ġchomas": 7965,
      "main": 7966,
      "neadh": 7967,
      "taidh": 7968,
      "Â¹": 7969,
      "chÃ¹is": 7970,
      "thsaich": 7971,
      "ĠdÃ²r": 7972,
      "Ġmall": 7973,
      "Ġbhanca": 7974,
      "Ġbalach": 7975,
      "ĠBarrachd": 7976,
      "ĠBÃłrdachd": 7977,
      "ĠIuchair": 7978,
      "Ġghuth": 7979,
      "lastaig": 7980,
      "Ġ144": 7981,
      "ĠcÃ²ignear": 7982,
      "Ġ1983": 7983,
      "Ġpoileasaidhean": 7984,
      "ĠMhanainn": 7985,
      "ology": 7986,
      "%.": 7987,
      "ael": 7988,
      "thiotalan": 7989,
      "Ġsaighdear": 7990,
      "ĠbhÃ¹ird": 7991,
      "Ġcost": 7992,
      "ĠFree": 7993,
      "Ġghlac": 7994,
      "enz": 7995,
      "Ġfhaca": 7996,
      "ĠStud": 7997,
      "eamainn": 7998,
      "ĠChanada": 7999,
      "artaidh": 8000,
      "ĠcÃłit": 8001,
      "ĠSheas": 8002,
      "Ġaisling": 8003,
      "iadhaich": 8004,
      "Ġmilleanan": 8005,
      "ĠNirribhidh": 8006,
      "ult": 8007,
      "ĠÃ¬obairt": 8008,
      "Ġthur": 8009,
      "inisteir": 8010,
      "ade": 8011,
      "Ġthagh": 8012,
      "ĠFiÃ¹": 8013,
      "ĠRÃ¨is": 8014,
      "Ġsgap": 8015,
      "aidne": 8016,
      "ĠdÃłin": 8017,
      "ĠÃĢisia": 8018,
      "ionnsg": 8019,
      "Ġfalach": 8020,
      "ĠCruith": 8021,
      "ĠTrÃ¨anaichean": 8022,
      "ĠJames": 8023,
      "ĠRailtrack": 8024,
      "Du": 8025,
      "TV": 8026,
      "thaireachd": 8027,
      "ĠSÃłbh": 8028,
      "aonadh": 8029,
      "ĠBhÃłin": 8030,
      "ĠHill": 8031,
      "ĠMacE": 8032,
      "ĠWol": 8033,
      "Ġ1944": 8034,
      "Ġ1953": 8035,
      "aitneach": 8036,
      "ĠChomraich": 8037,
      "reathan": 8038,
      "suim": 8039,
      "ĠSkype": 8040,
      "ĠAngeles": 8041,
      "slÃ¨ibhe": 8042,
      "reas": 8043,
      "uimhir": 8044,
      "Ġsearbh": 8045,
      "Ġtioc": 8046,
      "ĠBP": 8047,
      "oirb": 8048,
      "ĠFraingis": 8049,
      "ĠBhail": 8050,
      "aidse": 8051,
      "Ġmhearachd": 8052,
      "sgaoileadh": 8053,
      "agach": 8054,
      "uspair": 8055,
      "ĠcÃ¹m": 8056,
      "Ġ46": 8057,
      ").[": 8058,
      "slaodaidh": 8059,
      "ĠCalMac": 8060,
      "ĠYo": 8061,
      "Ġ1932": 8062,
      "Ġ1929": 8063,
      "ĠInnl": 8064,
      "ĠEachdraidheil": 8065,
      "ĠDÃ¹thcha": 8066,
      "ĠghrÃłidh": 8067,
      "Ġdachaighean": 8068,
      "Ġcarragh": 8069,
      "ĠDÃ¼bs": 8070,
      "rn": 8071,
      "Ġsaoilidh": 8072,
      "Ġcadal": 8073,
      "mha": 8074,
      "ĠBuidh": 8075,
      "aodh": 8076,
      "ĠiP": 8077,
      "ĠiPhone": 8078,
      "ĠgÃłird": 8079,
      "ĠDÃ²mhnaill": 8080,
      "ĠEl": 8081,
      "ĠcÃłch": 8082,
      "ĠDerek": 8083,
      "dÃ¨iligeadh": 8084,
      "nÃłimh": 8085,
      "Ġchruinnich": 8086,
      "Ġconnspaid": 8087,
      "ral": 8088,
      "ĠrÃ¬s": 8089,
      "Ġthalamh": 8090,
      "ĠGro": 8091,
      "ĠDown": 8092,
      "ainnead": 8093,
      "ĠpÃłt": 8094,
      "ĠPower": 8095,
      "ĠThill": 8096,
      "sage": 8097,
      "fhear": 8098,
      "Ġbithear": 8099,
      "Ġurras": 8100,
      "ĠChananaich": 8101,
      "ipp": 8102,
      "Ġfaiceallach": 8103,
      "onamaidh": 8104,
      "Ġ1863": 8105,
      "Ġmheudachadh": 8106,
      "go": 8107,
      "uchd": 8108,
      "mhair": 8109,
      "ĠTÃ¬re": 8110,
      "ithist": 8111,
      "Ġnew": 8112,
      "ĠÃłill": 8113,
      "ĠPo": 8114,
      "ĠBhealaich": 8115,
      "Ġluing": 8116,
      "ĠÃĢrainneachd": 8117,
      "ĠDeasbad": 8118,
      "ĠbÃłis": 8119,
      "ĠCatriona": 8120,
      "Ġghnothaich": 8121,
      "ĠParis": 8122,
      "ĠSolu": 8123,
      "ĠIasgach": 8124,
      "dealbhachaidh": 8125,
      "ĠpÃłighidh": 8126,
      "artaigil": 8127,
      "ĠLeslie": 8128,
      "ĠGhiÃ¹thsaich": 8129,
      "ĠSheÃ²rais": 8130,
      "cord": 8131,
      "dle": 8132,
      "rs": 8133,
      "Ġtaca": 8134,
      "ĠTrÃłigh": 8135,
      "ĠRus": 8136,
      "eirg": 8137,
      "lina": 8138,
      "imrich": 8139,
      "ĠHo": 8140,
      "istle": 8141,
      "ĠUime": 8142,
      "aigeann": 8143,
      "ĠStÃ¨isein": 8144,
      "AIL": 8145,
      "ibre": 8146,
      "Ġcomhairliche": 8147,
      "Ġchomhair": 8148,
      "Ġsgudal": 8149,
      "Ġaodaich": 8150,
      "dellÃŃn": 8151,
      "Ġcryptocurrency": 8152,
      "si": 8153,
      "Ġsal": 8154,
      "ĠMach": 8155,
      "Ġpasgan": 8156,
      "ĠFire": 8157,
      "Ġghleann": 8158,
      "Ġgheamhradh": 8159,
      "Ġgunna": 8160,
      "Ġchosgais": 8161,
      "ĠCatrÃ¬ona": 8162,
      "Ġproifeasanta": 8163,
      "Ġbhideothan": 8164,
      "Ġmhaireas": 8165,
      "Ġcuirmean": 8166,
      "ĠLoganair": 8167,
      "-'": 8168,
      "ER": 8169,
      "Sky": 8170,
      "taisbeanadh": 8171,
      "tomhais": 8172,
      "uabhas": 8173,
      "Ġci": 8174,
      "Ġthiodh": 8175,
      "Ã²gr": 8176,
      "ĠTitle": 8177,
      "ĠTelford": 8178,
      "imhreit": 8179,
      "sgaill": 8180,
      "ĠGhÃłidheil": 8181,
      "iety": 8182,
      "ĠÃĴrd": 8183,
      "Ġleabharlann": 8184,
      "Ġfaighear": 8185,
      "ĠÃłiteachais": 8186,
      "Ġtoraidh": 8187,
      "Ġ1896": 8188,
      "Ġbriste": 8189,
      "59": 8190,
      "Fur": 8191,
      "mi": 8192,
      "ple": 8193,
      "Ġfair": 8194,
      "Ġlanguage": 8195,
      "Ġdhearbh": 8196,
      "ĠLeo": 8197,
      "ĠThighearna": 8198,
      "rÃłibh": 8199,
      "ĠÃĢit": 8200,
      "ĠMacRath": 8201,
      "ĠWorld": 8202,
      "laistean": 8203,
      "ivers": 8204,
      "Ġ1914": 8205,
      "Ġ1931": 8206,
      "ĠBhraoin": 8207,
      "ĠEnglish": 8208,
      "ĠOifigeil": 8209,
      "ĠGoods": 8210,
      "Ġcilemeatair": 8211,
      "caidh": 8212,
      "tro": 8213,
      "ya": 8214,
      "Ġficsean": 8215,
      "ark": 8216,
      "ĠTaighean": 8217,
      "ĠGal": 8218,
      "ĠChÃ²mh": 8219,
      "Ġroinne": 8220,
      "ĠThun": 8221,
      "ĠtrÃłill": 8222,
      "ĠUS": 8223,
      "ĠCloinne": 8224,
      "eirbhis": 8225,
      "ĠNise": 8226,
      "eanalair": 8227,
      "Ġloco": 8228,
      "Ġcultarail": 8229,
      "ĠChriosd": 8230,
      "Ġdaonna": 8231,
      "chomharran": 8232,
      "Albann": 8233,
      "Ġchunnart": 8234,
      "Bat": 8235,
      "ward": 8236,
      "chives": 8237,
      "ĠciÃ¹": 8238,
      "Ġbhroinn": 8239,
      "Ġbeairteach": 8240,
      "Ġrach": 8241,
      "oni": 8242,
      "ĠMedia": 8243,
      "ĠRÃ²m": 8244,
      "Ġroman": 8245,
      "ĠÃī": 8246,
      "ago": 8247,
      "latan": 8248,
      "ĠPhuist": 8249,
      "eamaidean": 8250,
      "astair": 8251,
      "Ġ44": 8252,
      "Ġspama": 8253,
      "ĠGael": 8254,
      "ÃĢR": 8255,
      "rithealaiche": 8256,
      "Ġmalairteach": 8257,
      "ĠÃ²irleach": 8258,
      "Ġabairt": 8259,
      "ĠCorpas": 8260,
      "Ġuamhasach": 8261,
      "-)": 8262,
      "sle": 8263,
      "uich": 8264,
      "va": 8265,
      "Ġfeallsanachd": 8266,
      "Ġtean": 8267,
      "Ġgual": 8268,
      "ĠBÃ¹th": 8269,
      "ĠSch": 8270,
      "ĠGailearaidh": 8271,
      "ĠDara": 8272,
      "ĠCheannaich": 8273,
      "strÃ¬": 8274,
      "Ġleabhair": 8275,
      "Ġ48": 8276,
      "Ġbhuan": 8277,
      "ĠDuine": 8278,
      "ĠFiosrachaidh": 8279,
      "ĠChomunn": 8280,
      "ĠThuit": 8281,
      "Ġionmhasail": 8282,
      "ĠLÃ¬onra": 8283,
      "Deasbaireachd": 8284,
      "ĠTattoo": 8285,
      "Nam": 8286,
      "brosnachadh": 8287,
      "min": 8288,
      "sia": 8289,
      "Ġthionndadh": 8290,
      "ĠchÃłnanan": 8291,
      "Ġbre": 8292,
      "Ġback": 8293,
      "ĠTÃł": 8294,
      "igear": 8295,
      "ĠSÃ¹il": 8296,
      "Ġniuc": 8297,
      "ĠPR": 8298,
      "ĠPeadar": 8299,
      "ĠEwing": 8300,
      "ĠThar": 8301,
      "ĠSgrÃ¹dadh": 8302,
      "ĠFhÃ¨is": 8303,
      "Ġtuathanach": 8304,
      "Ġ1918": 8305,
      "ĠGaidhealach": 8306,
      "Ġtruaill": 8307,
      "ĠAithisg": 8308,
      "head": 8309,
      "hug": 8310,
      "yl": 8311,
      "eab": 8312,
      "ĠdiÃ¹ltadh": 8313,
      "Ġfoir": 8314,
      "ĠLiam": 8315,
      "ĠLiosta": 8316,
      "Ġcofhurtail": 8317,
      "Ġcuibh": 8318,
      "atharrachaidhean": 8319,
      "ĠsgÃ¨ith": 8320,
      "ĠHat": 8321,
      "eÃłrlaich": 8322,
      "ĠGhÃłidheal": 8323,
      "unna": 8324,
      "Ġaithghearr": 8325,
      "ĠVII": 8326,
      "ĠMacAon": 8327,
      "Ġcrois": 8328,
      "ĠCeiltis": 8329,
      "Ġearrannan": 8330,
      "Ġdiofraichte": 8331,
      "caid": 8332,
      "fÃ¨in": 8333,
      "ust": 8334,
      "yp": 8335,
      "za": 8336,
      "ism": 8337,
      "ĠbhÃłrd": 8338,
      "ĠTV": 8339,
      "ĠTaisbeanadh": 8340,
      "Ġghoid": 8341,
      "ĠOpen": 8342,
      "fhuireach": 8343,
      "Ġatharr": 8344,
      "Ġfaraidhean": 8345,
      "ĠÂ«": 8346,
      "ĠVideo": 8347,
      "ĠÃ²raidean": 8348,
      "unnd": 8349,
      "Ãłilliu": 8350,
      "Ġcroitean": 8351,
      "ĠbhlÃłr": 8352,
      "ĠceÃłrnagach": 8353,
      "Ġbriathrachas": 8354,
      "Ġspreadh": 8355,
      "Ġcomharraidhean": 8356,
      "Ġinnseadh": 8357,
      "ĠTeicneÃ²las": 8358,
      "600": 8359,
      "DÃłta": 8360,
      "Ġsanasan": 8361,
      "Ġteamp": 8362,
      "ĠBeul": 8363,
      "ĠSruth": 8364,
      "Ġfheuchainn": 8365,
      "eÃłrnan": 8366,
      "obrachaidh": 8367,
      "ĠShona": 8368,
      "Ġgleann": 8369,
      "ĠKing": 8370,
      "Ġchomharra": 8371,
      "Ġ1956": 8372,
      "Ġchumas": 8373,
      "Ã²saidh": 8374,
      "neachain": 8375,
      "ĠÃ¬mpidh": 8376,
      "Ġphoblaich": 8377,
      "Ġsolarachadh": 8378,
      "ĠcÃ¨ilidh": 8379,
      "Athair": 8380,
      "cess": 8381,
      "ĠCent": 8382,
      "âĢľ": 8383,
      "eala": 8384,
      "Ġgaoth": 8385,
      "Ã²rach": 8386,
      "orach": 8387,
      "sto": 8388,
      "Ġluibh": 8389,
      "Ġdhubh": 8390,
      "Ġiomr": 8391,
      "ĠCoin": 8392,
      "ĠfhÃłsach": 8393,
      "ĠchÃ¹laibh": 8394,
      "eth": 8395,
      "Ġdachaidh": 8396,
      "Ġcrainn": 8397,
      "eachain": 8398,
      "Ġmeanbh": 8399,
      "ĠTrÃłth": 8400,
      "ĠSeÃ²mar": 8401,
      "ĠGnoth": 8402,
      "eartas": 8403,
      "ĠsgÃł": 8404,
      "ĠIsle": 8405,
      "ianuis": 8406,
      "ĠBud": 8407,
      "Ġcruthan": 8408,
      "Ġgnothachais": 8409,
      "ĠRathaidean": 8410,
      "oirmeil": 8411,
      "berg": 8412,
      "Ġcosnaidh": 8413,
      "ĠBheagain": 8414,
      "Ġteasairginn": 8415,
      "ĠcÃłirdeil": 8416,
      "Ġcheathramh": 8417,
      "ĠmÃ¹thaidhean": 8418,
      "96": 8419,
      "pal": 8420,
      "chester": 8421,
      "aitean": 8422,
      "Ġbaidh": 8423,
      "ĠTar": 8424,
      "ĠTeachd": 8425,
      "ĠAlan": 8426,
      "igeil": 8427,
      "ĠLaomainn": 8428,
      "Ġne": 8429,
      "ĠFow": 8430,
      "Ġdotairean": 8431,
      "ĠBhÃłgh": 8432,
      "drÃłsda": 8433,
      "ĠbrÃ²gan": 8434,
      "ĠFeumar": 8435,
      "Ġ1894": 8436,
      "Ġdleastanasan": 8437,
      "ĠÃ¡s": 8438,
      "ĠBhÃłnrigh": 8439,
      "ĠLED": 8440,
      "ĠSolutions": 8441,
      "--": 8442,
      "92": 8443,
      "creidsinn": 8444,
      "bharan": 8445,
      "Ġseada": 8446,
      "ĠfÃ¬on": 8447,
      "ĠfÃ¨isean": 8448,
      "ĠBrÃ¹": 8449,
      "earraidh": 8450,
      "Ġpl": 8451,
      "ĠpÃ²": 8452,
      "Ġbuain": 8453,
      "Ġcholaiste": 8454,
      "Ġtaingeil": 8455,
      "Ġconnspaideach": 8456,
      "Ġchoimeas": 8457,
      "tional": 8458,
      "Ġorg": 8459,
      "ĠsÃ¬neadh": 8460,
      "Ġdhaing": 8461,
      "ĠFÃ¬o": 8462,
      "ines": 8463,
      "ruthan": 8464,
      "Ġshoilleir": 8465,
      "Ã¬omhaighean": 8466,
      "ĠclÃłraidh": 8467,
      "ĠShiubhail": 8468,
      "Ġtaiceil": 8469,
      "Ġbunait": 8470,
      "ĠEadarainn": 8471,
      "Ġpailteas": 8472,
      "leughaidh": 8473,
      "amataig": 8474,
      "Sneachda": 8475,
      "beag": 8476,
      "soisgeil": 8477,
      "Ġcala": 8478,
      "Ġfaire": 8479,
      "Ġfasgadh": 8480,
      "Ġtom": 8481,
      "ĠtÃ²ir": 8482,
      "Ġbheanntan": 8483,
      "mhnadh": 8484,
      "ĠSing": 8485,
      "Ġgidheadh": 8486,
      "Ġgleidheadh": 8487,
      "ĠFer": 8488,
      "ĠIÃ¹": 8489,
      "ĠsgÃ²": 8490,
      "Ġoideachadh": 8491,
      "ital": 8492,
      "bridge": 8493,
      "fhosgladh": 8494,
      "ĠMacFhionghain": 8495,
      "ĠChath": 8496,
      "Ġdealbhadair": 8497,
      "iet": 8498,
      "ĠstiÃ¹irichean": 8499,
      "ĠJulie": 8500,
      "ĠTrump": 8501,
      "ĠStafainn": 8502,
      "ĠTheresa": 8503,
      "?)": 8504,
      "lag": 8505,
      "thu": 8506,
      "Ġsaoil": 8507,
      "ĠfÃłidh": 8508,
      "Ġtanca": 8509,
      "ĠBal": 8510,
      "ada": 8511,
      "ithibh": 8512,
      "teg": 8513,
      "ĠIap": 8514,
      "uirbhidh": 8515,
      "ĠstÃł": 8516,
      "ĠgheÃłrr": 8517,
      "ĠPhÃ²lainn": 8518,
      "ĠGhÃłidhealaich": 8519,
      "Ġ58": 8520,
      "ĠDuibh": 8521,
      "Ã²mhnuidh": 8522,
      "theangair": 8523,
      "ĠdÃ¹thchasach": 8524,
      "ĠAdhair": 8525,
      "Ruibhe": 8526,
      "ĠLÃ²chaidh": 8527,
      "Further": 8528,
      "Wanderings": 8529,
      "ni": 8530,
      "Ġfaireachdainnean": 8531,
      "Ġtoll": 8532,
      "mhalairt": 8533,
      "Ġbeoth": 8534,
      "ĠGib": 8535,
      "ĠDlighe": 8536,
      "ĠPer": 8537,
      "Ġmhodh": 8538,
      "Ġachaidhean": 8539,
      "ned": 8540,
      "ĠMhuile": 8541,
      "Ġmapa": 8542,
      "Ġoirthir": 8543,
      "ibid": 8544,
      "Ġobraich": 8545,
      "ĠÃłitichean": 8546,
      "Ġ1957": 8547,
      "ĠRinneadh": 8548,
      "Ġ1870": 8549,
      "ĠBhreac": 8550,
      "Ġtargaid": 8551,
      "ĠHebr": 8552,
      "Ġchraobhan": 8553,
      "saora": 8554,
      "ĠLouis": 8555,
      "ĠHawth": 8556,
      "ĠRÃ²manach": 8557,
      "ĠMacAonghais": 8558,
      "NN": 8559,
      "Ri": 8560,
      "ns": 8561,
      "Ġana": 8562,
      "Ġfath": 8563,
      "gham": 8564,
      "Ġchon": 8565,
      "Ġbon": 8566,
      "ĠBlas": 8567,
      "ĠGold": 8568,
      "Ġsgillinn": 8569,
      "ĠDhonnchaidh": 8570,
      "Ġchloich": 8571,
      "ĠMhol": 8572,
      "ĠcÃ²mhd": 8573,
      "oireasan": 8574,
      "Ġriaghailt": 8575,
      "Ġgrunnd": 8576,
      "Ġfireannaich": 8577,
      "ĠCÃ¹isean": 8578,
      "ĠÃ¬ad": 8579,
      "ĠsgrÃ¬ob": 8580,
      "Ã¬leat": 8581,
      "itage": 8582,
      "ĠcartÃ¹n": 8583,
      "ĠCrÃ¬ochan": 8584,
      "!)": 8585,
      "!:": 8586,
      "MG": 8587,
      "anta": 8588,
      "ĠCead": 8589,
      "ĠCaidreachas": 8590,
      "ĠTeamplaid": 8591,
      "ĠBor": 8592,
      "imhneachd": 8593,
      "ĠIsea": 8594,
      "sheÃ²rs": 8595,
      "Ġglanadh": 8596,
      "Ãłipeir": 8597,
      "AICH": 8598,
      "ĠMÃ²ran": 8599,
      "ĠâĤ¬": 8600,
      "arsaid": 8601,
      "Ġeacarsaich": 8602,
      "Ġthogras": 8603,
      "Ġ1922": 8604,
      "ĠcÃ¹raim": 8605,
      "ĠpÃ¬oba": 8606,
      "Albannaich": 8607,
      "ĠIarrtas": 8608,
      "cript": 8609,
      "fhaighnich": 8610,
      "ceangal": 8611,
      "Sl": 8612,
      "fÃ²n": 8613,
      "gain": 8614,
      "sear": 8615,
      "view": 8616,
      "Â¨": 8617,
      "ĠCR": 8618,
      "ĠSr": 8619,
      "Ġfheasgar": 8620,
      "Ġcupa": 8621,
      "ĠFiona": 8622,
      "Ġgheur": 8623,
      "ĠThuath": 8624,
      "ĠThistle": 8625,
      "Ġatharraich": 8626,
      "eathar": 8627,
      "oirbheartan": 8628,
      "slÃłinte": 8629,
      "Ġchleachdaidhean": 8630,
      "iorramachd": 8631,
      ",'": 8632,
      "chair": 8633,
      "eak": 8634,
      "ĠcÃ²rd": 8635,
      "Ġfas": 8636,
      "eant": 8637,
      "Ġteis": 8638,
      "ĠBurn": 8639,
      "adas": 8640,
      "adaim": 8641,
      "aileiridh": 8642,
      "Ġcolbh": 8643,
      "ĠfhÃ¬dhlear": 8644,
      "Ġmhiann": 8645,
      "ĠOne": 8646,
      "ĠMhÃłrtainn": 8647,
      "seinn": 8648,
      "Ġ2019": 8649,
      "shluaigh": 8650,
      "clÃłraidh": 8651,
      "Ġglac": 8652,
      "spidh": 8653,
      "ĠVI": 8654,
      "laind": 8655,
      "Ã³n": 8656,
      "Ġciontach": 8657,
      "ĠseÃ²laidhean": 8658,
      "ĠsÃ¬ol": 8659,
      "inbhe": 8660,
      "Ġeuslaintich": 8661,
      "chÃ²rdte": 8662,
      "leathann": 8663,
      "ero": 8664,
      "gd": 8665,
      "ner": 8666,
      "of": 8667,
      "sy": 8668,
      "ird": 8669,
      "ĠCaill": 8670,
      "ĠprÃ¬osan": 8671,
      "ĠPut": 8672,
      "ĠOb": 8673,
      "Ġathar": 8674,
      "ionna": 8675,
      "ĠWanderings": 8676,
      "ĠFhionn": 8677,
      "Ġwill": 8678,
      "Ġ1964": 8679,
      "ĠpÃ¬obair": 8680,
      "egas": 8681,
      "ĠMainly": 8682,
      "Ġfhaidhle": 8683,
      "Ġlaithean": 8684,
      "Ġanabarrach": 8685,
      "Obr": 8686,
      "cro": 8687,
      "seachaidh": 8688,
      "ux": 8689,
      "ĠfÃ¬dhl": 8690,
      "Ġbhile": 8691,
      "Ġchi": 8692,
      "ĠCanan": 8693,
      "ĠSQ": 8694,
      "ĠMeadhanach": 8695,
      "ĠFly": 8696,
      "eÃ²la": 8697,
      "raw": 8698,
      "iteil": 8699,
      "luic": 8700,
      "ĠPhar": 8701,
      "ĠlÃłraidh": 8702,
      "roma": 8703,
      "ĠAonghais": 8704,
      "nary": 8705,
      "iomnadh": 8706,
      "ĠstÃ²raidh": 8707,
      "ĠCluich": 8708,
      "ĠshlÃłinte": 8709,
      "Ġadhbhrachadh": 8710,
      "Scotland": 8711,
      "Ġpeacadh": 8712,
      "riochdachadh": 8713,
      "Ġtioram": 8714,
      "ĠRunrig": 8715,
      "PÃłrlamaid": 8716,
      "gg": 8717,
      "vis": 8718,
      "bhaig": 8719,
      "Ġlog": 8720,
      "ĠCeÃ²las": 8721,
      "adaireachd": 8722,
      "ĠSeÃ²ladh": 8723,
      "Ġleo": 8724,
      "aiseag": 8725,
      "ĠÃĥ": 8726,
      "ĠTheÃłrlaich": 8727,
      "Ġsheachd": 8728,
      "ĠMhuir": 8729,
      "ĠCuimhnich": 8730,
      "ĠCoitcheann": 8731,
      "Ġ53": 8732,
      "ĠShir": 8733,
      "aibeal": 8734,
      "Ġcleachdte": 8735,
      "ĠmhÃ¬ltean": 8736,
      "ĠGlasgow": 8737,
      "gov": 8738,
      "pach": 8739,
      "ĠfÃ¬r": 8740,
      "ĠleÃ²mh": 8741,
      "ĠPet": 8742,
      "ĠtrÃłil": 8743,
      "ĠphÃ¬ob": 8744,
      "Ġ1901": 8745,
      "Ġarc": 8746,
      "coinn": 8747,
      "Ġbradan": 8748,
      "ĠEÃ²lais": 8749,
      "Ġdathte": 8750,
      "Ġsamhla": 8751,
      "Ġseirbhisean": 8752,
      "Ille": 8753,
      "ST": 8754,
      "mÃ¬neachadh": 8755,
      "cheann": 8756,
      "bhran": 8757,
      "Ġdaor": 8758,
      "ĠfÃ¬dh": 8759,
      "araich": 8760,
      "ĠtÃ²iseachaidh": 8761,
      "ĠAE": 8762,
      "ĠChris": 8763,
      "ĠBhio": 8764,
      "Ġcluas": 8765,
      "acob": 8766,
      "ĠGhoogle": 8767,
      "set": 8768,
      "luchd": 8769,
      "ĠCuairt": 8770,
      "ĠCleachdadh": 8771,
      "Ġsoc": 8772,
      "ĠShe": 8773,
      "oillspidh": 8774,
      "Ġ66": 8775,
      "Ġ1903": 8776,
      "Ġsaoire": 8777,
      "Ġshuidheachaidhean": 8778,
      "oirbeis": 8779,
      "Skye": 8780,
      "52": 8781,
      "57": 8782,
      "ez": 8783,
      "ng": 8784,
      "Â®": 8785,
      "Ġcean": 8786,
      "ĠbrÃ¹": 8787,
      "iobair": 8788,
      "ĠpÃłirce": 8789,
      "ĠPos": 8790,
      "Ġuan": 8791,
      "Ġstaidh": 8792,
      "Ġadhar": 8793,
      "Ġinfo": 8794,
      "ĠVegas": 8795,
      "ĠRud": 8796,
      "Ġdearbha": 8797,
      "ctor": 8798,
      "Ġ1998": 8799,
      "ĠSasannach": 8800,
      "ĠBhanrigh": 8801,
      "Ġainmh": 8802,
      "ĠHawthorn": 8803,
      "DÃ¨": 8804,
      "wart": 8805,
      "thal": 8806,
      "Ġdig": 8807,
      "ĠmeÃ²rachadh": 8808,
      "mhÃ¬le": 8809,
      "earmailt": 8810,
      "Ġpan": 8811,
      "ĠEinn": 8812,
      "Ġghlan": 8813,
      "lace": 8814,
      "seantair": 8815,
      "ĠbhÃ²taichean": 8816,
      "ĠcÃłraid": 8817,
      "Ġ1984": 8818,
      "Ġtabhartas": 8819,
      "ĠbhlÃłth": 8820,
      "ĠGnÃ¬omhachas": 8821,
      "ĠGhaidhlig": 8822,
      "Ġteisteanasan": 8823,
      "ĠRoghainnean": 8824,
      "ĠRichard": 8825,
      "ĠBhrÃłighe": 8826,
      "ĠsgrÃ¹daidhean": 8827,
      "ĠÃ¬o": 8828,
      "Ġqu": 8829,
      "Ġtill": 8830,
      "ghan": 8831,
      "Ġmaighstir": 8832,
      "Ġchainnt": 8833,
      "ĠCap": 8834,
      "Ġbarr": 8835,
      "alsh": 8836,
      "eolas": 8837,
      "Ġcoire": 8838,
      "ĠChÃ²rd": 8839,
      "Ġghlanadh": 8840,
      "Ġchoitcheann": 8841,
      "Ġshiostam": 8842,
      "fhurtachd": 8843,
      "ĠMhicN": 8844,
      "Ġblockchain": 8845,
      "ĠGearmailteach": 8846,
      "ĠMhac": 8847,
      "structair": 8848,
      "Ġcabadaich": 8849,
      "PS": 8850,
      "feadhna": 8851,
      "ĠcÃ²isir": 8852,
      "Ġtab": 8853,
      "ĠlÃ¨": 8854,
      "ĠCÃłit": 8855,
      "ĠSaoil": 8856,
      "orks": 8857,
      "ĠNet": 8858,
      "Ġdoimhne": 8859,
      "ĠRom": 8860,
      "ĠPÃłpa": 8861,
      "Ġdhuilleagan": 8862,
      "ĠcÃ²mhnard": 8863,
      "ĠDuilleag": 8864,
      "illeim": 8865,
      "ĠÃłiteachas": 8866,
      "sgrÃ¬obhainn": 8867,
      "ĠSNH": 8868,
      "ĠFrangach": 8869,
      "ibrary": 8870,
      "Ġgalar": 8871,
      "ĠtrÃłilidhean": 8872,
      "BS": 8873,
      "Sm": 8874,
      "bit": 8875,
      "tish": 8876,
      "ĠsÃ¬de": 8877,
      "ĠmÃ³r": 8878,
      "ĠCreige": 8879,
      "Ġboc": 8880,
      "ĠBrian": 8881,
      "ĠSreath": 8882,
      "tel": 8883,
      "ĠLive": 8884,
      "ainte": 8885,
      "Ġcola": 8886,
      "ĠCheilteach": 8887,
      "ĠPlay": 8888,
      "imch": 8889,
      "imidh": 8890,
      "ĠHi": 8891,
      "Ġ59": 8892,
      "Ġ1916": 8893,
      "Ġcuimhn": 8894,
      "smÃ¹ide": 8895,
      "ĠLitreachas": 8896,
      "ĠÃ¨isdeachd": 8897,
      "ĠdrÃłibhear": 8898,
      "Ġghinealach": 8899,
      "!\"": 8900,
      "53": 8901,
      "Earrach": 8902,
      "frithealadh": 8903,
      "dhaig": 8904,
      "ĠTHA": 8905,
      "ĠFÃ²n": 8906,
      "ĠThairis": 8907,
      "Ġchost": 8908,
      "iff": 8909,
      "ifr": 8910,
      "ACHD": 8911,
      "Ġ41": 8912,
      "Ġbhuidseat": 8913,
      "phort": 8914,
      "Ġcluinn": 8915,
      "idsichean": 8916,
      "ĠceÃłrn": 8917,
      "Ġmeatairean": 8918,
      "ĠLodainn": 8919,
      "Ġbeannachd": 8920,
      "ĠCÃ¹rsaichean": 8921,
      "ĠUlapuil": 8922,
      "ĠCromba": 8923,
      "Ġpoilitigeach": 8924,
      "ĠsheÃ²rsaichean": 8925,
      "Ã¨ifeachdach": 8926,
      "beachd": 8927,
      "jack": 8928,
      "ville": 8929,
      "thaobh": 8930,
      "Ġsta": 8931,
      "Ġbhig": 8932,
      "inburgh": 8933,
      "ĠbeÃłrnan": 8934,
      "ĠSeadh": 8935,
      "Ġcothromachadh": 8936,
      "tachairt": 8937,
      "Ġfaca": 8938,
      "Ġ1937": 8939,
      "ĠsÃłbhaladh": 8940,
      "Ġamhar": 8941,
      "Ġoighreachdan": 8942,
      "ĠtrÃłighean": 8943,
      "monachadh": 8944,
      "ĠTrÃ¨anadh": 8945,
      "Ġbrosnachail": 8946,
      "ĠDheidhinn": 8947,
      "ĠdhÃ¹thchannan": 8948,
      "Rondello": 8949,
      "TO": 8950,
      "gart": 8951,
      "tionndaidh": 8952,
      "ðŁ": 8953,
      "ĠCle": 8954,
      "ĠTeagh": 8955,
      "ĠMaol": 8956,
      "ĠFoghlaim": 8957,
      "ĠBhidio": 8958,
      "Ġmheur": 8959,
      "lash": 8960,
      "ĠUaine": 8961,
      "ĠInbh": 8962,
      "ĠMacPh": 8963,
      "eamaich": 8964,
      "ross": 8965,
      "Ġ1915": 8966,
      "ĠÃ¬omhaigheag": 8967,
      "Ġclasaigeach": 8968,
      "ĠghnÃ¬omhachasan": 8969,
      "ĠTele": 8970,
      "ianal": 8971,
      "LIG": 8972,
      "ĠIapanach": 8973,
      "OgmhÃ¬os": 8974,
      "bun": 8975,
      "Ġ07": 8976,
      "Ġare": 8977,
      "Ġaing": 8978,
      "Ġsluaigh": 8979,
      "Ġbhar": 8980,
      "ĠCeimigeachd": 8981,
      "Ġbliadhnail": 8982,
      "Ã¹idh": 8983,
      "Ġgaoil": 8984,
      "aineach": 8985,
      "ĠRach": 8986,
      "ĠGheall": 8987,
      "eÃ²idh": 8988,
      "amhan": 8989,
      "eagha": 8990,
      "Ġdeasbaid": 8991,
      "Ã²sda": 8992,
      "ĠMount": 8993,
      "Ġvideo": 8994,
      "iasgairean": 8995,
      "ĠBritish": 8996,
      "ĠEilginn": 8997,
      "borne": 8998,
      "ĠsnÃłithl": 8999,
      "liosta": 9000,
      "chruinneachadh": 9001,
      "Ġdli": 9002,
      "Ġtois": 9003,
      "Ġcheile": 9004,
      "Ġbrio": 9005,
      "ĠTo": 9006,
      "ĠBliadhn": 9007,
      "ĠSluagh": 9008,
      "Ġpoileataigs": 9009,
      "ĠphlÃłigh": 9010,
      "ĠHen": 9011,
      "Ã²ire": 9012,
      "Ġfalaichte": 9013,
      "Ġiarrtais": 9014,
      "ĠÂĴ": 9015,
      "Ġspionnadh": 9016,
      "ĠJun": 9017,
      "Ġionaid": 9018,
      "ĠMacNeacail": 9019,
      "ĠtÃ¬m": 9020,
      "structar": 9021,
      "ĠGhrannd": 9022,
      "Ġghrunn": 9023,
      "ĠSociety": 9024,
      "Ġsguabadh": 9025,
      "ĠÃĢiteachan": 9026,
      "PTE": 9027,
      "zh": 9028,
      "âĤ¬": 9029,
      "ĠtÃ²is": 9030,
      "ĠAv": 9031,
      "ĠBra": 9032,
      "ĠMÃ¬": 9033,
      "Ġplastaig": 9034,
      "ĠNÃłd": 9035,
      "Ġsgapadh": 9036,
      "ĠBhre": 9037,
      "Ġbuan": 9038,
      "Ġbuannachadh": 9039,
      "Ġtuill": 9040,
      "ĠHa": 9041,
      "aigean": 9042,
      "ĠChabh": 9043,
      "Ġmoiteil": 9044,
[...]
