{
  "version": "1.0",
  "truncation": null,
  "padding": null,
  "added_tokens": [
    {
      "id": 0,
      "content": "<s>",
      "single_word": false,
      "lstrip": false,
      "rstrip": false,
      "normalized": false,
      "special": true
    },
    {
      "id": 1,
      "content": "<pad>",
      "single_word": false,
      "lstrip": false,
      "rstrip": false,
      "normalized": false,
      "special": true
    },
    {
      "id": 2,
      "content": "</s>",
      "single_word": false,
      "lstrip": false,
      "rstrip": false,
      "normalized": false,
      "special": true
    },
    {
      "id": 3,
      "content": "<unk>",
      "single_word": false,
      "lstrip": false,
      "rstrip": false,
      "normalized": false,
      "special": true
    },
    {
      "id": 4,
      "content": "<mask>",
      "single_word": false,
      "lstrip": false,
      "rstrip": false,
      "normalized": false,
      "special": true
    }
  ],
  "normalizer": null,
  "pre_tokenizer": {
    "type": "ByteLevel",
    "add_prefix_space": true,
    "trim_offsets": true,
    "use_regex": true
  },
  "post_processor": {
    "type": "RobertaProcessing",
    "sep": [
      "</s>",
      2
    ],
    "cls": [
      "<s>",
      0
    ],
    "trim_offsets": true,
    "add_prefix_space": true
  },
  "decoder": {
    "type": "ByteLevel",
    "add_prefix_space": true,
    "trim_offsets": true,
    "use_regex": true
  },
  "model": {
    "type": "BPE",
    "dropout": null,
    "unk_token": null,
    "continuing_subword_prefix": null,
    "end_of_word_suffix": null,
    "fuse_unk": false,
    "byte_fallback": false,
    "vocab": {
      "<s>": 0,
      "<pad>": 1,
      "</s>": 2,
      "<unk>": 3,
      "<mask>": 4,
      "!": 5,
      "\"": 6,
      "#": 7,
      "$": 8,
      "%": 9,
      "&": 10,
      "'": 11,
      "(": 12,
      ")": 13,
      "*": 14,
      "+": 15,
      ",": 16,
      "-": 17,
      ".": 18,
      "/": 19,
      "0": 20,
      "1": 21,
      "2": 22,
      "3": 23,
      "4": 24,
      "5": 25,
      "6": 26,
      "7": 27,
      "8": 28,
      "9": 29,
      ":": 30,
      ";": 31,
      "<": 32,
      "=": 33,
      ">": 34,
      "?": 35,
      "@": 36,
      "A": 37,
      "B": 38,
      "C": 39,
      "D": 40,
      "E": 41,
      "F": 42,
      "G": 43,
      "H": 44,
      "I": 45,
      "J": 46,
      "K": 47,
      "L": 48,
      "M": 49,
      "N": 50,
      "O": 51,
      "P": 52,
      "Q": 53,
      "R": 54,
      "S": 55,
      "T": 56,
      "U": 57,
      "V": 58,
      "W": 59,
      "X": 60,
      "Y": 61,
      "Z": 62,
      "[": 63,
      "\\": 64,
      "]": 65,
      "^": 66,
      "_": 67,
      "`": 68,
      "a": 69,
      "b": 70,
      "c": 71,
      "d": 72,
      "e": 73,
      "f": 74,
      "g": 75,
      "h": 76,
      "i": 77,
      "j": 78,
      "k": 79,
      "l": 80,
      "m": 81,
      "n": 82,
      "o": 83,
      "p": 84,
      "q": 85,
      "r": 86,
      "s": 87,
      "t": 88,
      "u": 89,
      "v": 90,
      "w": 91,
      "x": 92,
      "y": 93,
      "z": 94,
      "{": 95,
      "|": 96,
      "}": 97,
      "~": 98,
      "¡": 99,
      "¢": 100,
      "£": 101,
      "¤": 102,
      "¥": 103,
      "¦": 104,
      "§": 105,
      "¨": 106,
      "©": 107,
      "ª": 108,
      "«": 109,
      "¬": 110,
      "®": 111,
      "¯": 112,
      "°": 113,
      "±": 114,
      "²": 115,
      "³": 116,
      "´": 117,
      "µ": 118,
      "¶": 119,
      "·": 120,
      "¸": 121,
      "¹": 122,
      "º": 123,
      "»": 124,
      "¼": 125,
      "½": 126,
      "¾": 127,
      "¿": 128,
      "À": 129,
      "Á": 130,
      "Â": 131,
      "Ã": 132,
      "Ä": 133,
      "Å": 134,
      "Æ": 135,
      "Ç": 136,
      "È": 137,
      "É": 138,
      "Ê": 139,
      "Ë": 140,
      "Ì": 141,
      "Í": 142,
      "Î": 143,
      "Ï": 144,
      "Ð": 145,
      "Ñ": 146,
      "Ò": 147,
      "Ó": 148,
      "Ô": 149,
      "Õ": 150,
      "Ö": 151,
      "×": 152,
      "Ø": 153,
      "Ù": 154,
      "Ú": 155,
      "Û": 156,
      "Ü": 157,
      "Ý": 158,
      "Þ": 159,
      "ß": 160,
      "à": 161,
      "á": 162,
      "â": 163,
      "ã": 164,
      "ä": 165,
      "å": 166,
      "æ": 167,
      "ç": 168,
      "è": 169,
      "é": 170,
      "ê": 171,
      "ë": 172,
      "ì": 173,
      "í": 174,
      "î": 175,
      "ï": 176,
      "ð": 177,
      "ñ": 178,
      "ò": 179,
      "ó": 180,
      "ô": 181,
      "õ": 182,
      "ö": 183,
      "÷": 184,
      "ø": 185,
      "ù": 186,
      "ú": 187,
      "û": 188,
      "ü": 189,
      "ý": 190,
      "þ": 191,
      "ÿ": 192,
      "Ā": 193,
      "ā": 194,
      "Ă": 195,
      "ă": 196,
      "Ą": 197,
      "ą": 198,
      "Ć": 199,
      "ć": 200,
      "Ĉ": 201,
      "ĉ": 202,
      "Ċ": 203,
      "ċ": 204,
      "Č": 205,
      "č": 206,
      "Ď": 207,
      "ď": 208,
      "Đ": 209,
      "đ": 210,
      "Ē": 211,
      "ē": 212,
      "Ĕ": 213,
      "ĕ": 214,
      "Ė": 215,
      "ė": 216,
      "Ę": 217,
      "ę": 218,
      "Ě": 219,
      "ě": 220,
      "Ĝ": 221,
      "ĝ": 222,
      "Ğ": 223,
      "ğ": 224,
      "Ġ": 225,
      "ġ": 226,
      "Ģ": 227,
      "ģ": 228,
      "Ĥ": 229,
      "ĥ": 230,
      "Ħ": 231,
      "ħ": 232,
      "Ĩ": 233,
      "ĩ": 234,
      "Ī": 235,
      "ī": 236,
      "Ĭ": 237,
      "ĭ": 238,
      "Į": 239,
      "į": 240,
      "İ": 241,
      "ı": 242,
      "Ĳ": 243,
      "ĳ": 244,
      "Ĵ": 245,
      "ĵ": 246,
      "Ķ": 247,
      "ķ": 248,
      "ĸ": 249,
      "Ĺ": 250,
      "ĺ": 251,
      "Ļ": 252,
      "ļ": 253,
      "Ľ": 254,
      "ľ": 255,
      "Ŀ": 256,
      "ŀ": 257,
      "Ł": 258,
      "ł": 259,
      "Ń": 260,
      "Ġl": 261,
      "ma": 262,
      "Ġle": 263,
      "Ġo": 264,
      "ta": 265,
      "Ġa": 266,
      "ga": 267,
      "Ġf": 268,
      "Ġi": 269,
      "na": 270,
      "ï¿": 271,
      "ï¿½": 272,
      "Ġma": 273,
      "Ġe": 274,
      "Ġfa": 275,
      "ï¿½ï¿½": 276,
      "la": 277,
      "Ġt": 278,
      "ia": 279,
      "Ê»": 280,
      "Ġs": 281,
      "ua": 282,
      "Ġta": 283,
      "le": 284,
      "lo": 285,
      "to": 286,
      "ai": 287,
      "li": 288,
      "si": 289,
      "Ġm": 290,
      "âĢ": 291,
      "Ġp": 292,
      "Ġla": 293,
      "ea": 294,
      "ni": 295,
      "tu": 296,
      "va": 297,
      "ĠA": 298,
      "ne": 299,
      "ti": 300,
      "Ê»a": 301,
      "ĠF": 302,
      "Ġai": 303,
      "Ġfaa": 304,
      "ina": 305,
      "ĠS": 306,
      "ï¿½ï¿½ï¿½ï¿½": 307,
      "er": 308,
      "ĠM": 309,
      "ĠT": 310,
      "ĠO": 311,
      "no": 312,
      "Ġse": 313,
      "ĠL": 314,
      "âĢĻ": 315,
      "??": 316,
      "ĠI": 317,
      "es": 318,
      "lu": 319,
      "sa": 320,
      "Ġ1": 321,
      "Ġlo": 322,
      "Ġte": 323,
      "te": 324,
      "Ġ2": 325,
      "ĠfaÊ»a": 326,
      "Ġona": 327,
      "nu": 328,
      "ĠP": 329,
      "Ġtu": 330,
      "Ġmo": 331,
      "fa": 332,
      "ĠE": 333,
      "oa": 334,
      "Ġu": 335,
      "tou": 336,
      "Ġto": 337,
      "Ġia": 338,
      "ĠC": 339,
      "Ġ-": 340,
      "ra": 341,
      "se": 342,
      "ĠFa": 343,
      "Ġmai": 344,
      "ka": 345,
      "Ġna": 346,
      "re": 347,
      "on": 348,
      "ri": 349,
      "fi": 350,
      "mi": 351,
      "Ê»i": 352,
      "ro": 353,
      "Ġ(": 354,
      "Ġc": 355,
      "Ġua": 356,
      "00": 357,
      "ĠMa": 358,
      "fai": 359,
      "so": 360,
      "Ġatu": 361,
      "pu": 362,
      "01": 363,
      "Ġfo": 364,
      "Ġï¿½ï¿½ï¿½ï¿½": 365,
      "tau": 366,
      "Ġsa": 367,
      "pa": 368,
      "gi": 369,
      "Ġmea": 370,
      "Ġd": 371,
      "ve": 372,
      "Ġlea": 373,
      "Ġtau": 374,
      "nei": 375,
      "Ġva": 376,
      "pe": 377,
      "iga": 378,
      "Ġpe": 379,
      "ĠN": 380,
      "fo": 381,
      "go": 382,
      "nd": 383,
      "laga": 384,
      "gata": 385,
      "Ġb": 386,
      "ĠâĢ": 387,
      "uga": 388,
      "oga": 389,
      "ng": 390,
      "tua": 391,
      "ega": 392,
      "ili": 393,
      "ĠB": 394,
      "aa": 395,
      "Äģ": 396,
      "Ġh": 397,
      "po": 398,
      "ĠU": 399,
      "pi": 400,
      "Ġk": 401,
      "Ġga": 402,
      "au": 403,
      "me": 404,
      "Ê»o": 405,
      "Ġtagata": 406,
      "loa": 407,
      "Ġpo": 408,
      "ĠG": 409,
      "ĠD": 410,
      "ou": 411,
      "Ġ3": 412,
      "ĠK": 413,
      "Ġlatou": 414,
      "ĠH": 415,
      "mo": 416,
      "he": 417,
      "Ġlava": 418,
      "ĠSa": 419,
      "mu": 420,
      "ĠR": 421,
      "Ġmaua": 422,
      "Ġau": 423,
      "Ġv": 424,
      "ĠTa": 425,
      "Ġfai": 426,
      "fia": 427,
      "Ġpa": 428,
      "lia": 429,
      "ca": 430,
      "lama": 431,
      "or": 432,
      "Ġmafai": 433,
      "..": 434,
      "ui": 435,
      "nt": 436,
      "ha": 437,
      "sia": 438,
      "Ġ5": 439,
      "Ġ4": 440,
      "ge": 441,
      "Ġtele": 442,
      "mata": 443,
      "Ġni": 444,
      "Ġtai": 445,
      "tonu": 446,
      "hi": 447,
      "toa": 448,
      "ĠFaÊ»a": 449,
      "Ġ201": 450,
      "Ġsu": 451,
      "Ġae": 452,
      "ĠV": 453,
      "Ġso": 454,
      "co": 455,
      "ce": 456,
      "lei": 457,
      "Ġlenei": 458,
      "Ġ0": 459,
      "Ġno": 460,
      "Ġmana": 461,
      "de": 462,
      "Ġou": 463,
      "Ġuma": 464,
      "Ġfe": 465,
      "Ġsi": 466,
      "Ġw": 467,
      "fe": 468,
      "di": 469,
      "Ġtatou": 470,
      "ĠLe": 471,
      "Ê»u": 472,
      "Ġnei": 473,
      "st": 474,
      "da": 475,
      "--": 476,
      "th": 477,
      "ĠLa": 478,
      "ï¿½ï¿½ï¿½": 479,
      "ĠPa": 480,
      "noa": 481,
      "Ġtaimi": 482,
      "vi": 483,
      "loga": 484,
      "Ġka": 485,
      "ĠâĢľ": 486,
      "Ġfaia": 487,
      "ĠW": 488,
      "saga": 489,
      "ĠTu": 490,
      "tai": 491,
      "Ġlona": 492,
      "Ġlau": 493,
      "Ġaua": 494,
      "ki": 495,
      "mai": 496,
      "Ġ6": 497,
      "ke": 498,
      "moa": 499,
      "Ġï¿½ï¿½ï¿½ï¿½ï¿½ï¿½ï¿½ï¿½": 500,
      "fua": 501,
      "Ġsili": 502,
      "Ġmoli": 503,
      "ba": 504,
      "ho": 505,
      "tia": 506,
      "Ġin": 507,
      "Ġtala": 508,
      "Ġ|": 509,
      "ese": 510,
      "Ġlelei": 511,
      "Ġti": 512,
      "Ġluga": 513,
      "âĢĿ": 514,
      "Ġisi": 515,
      "Ġina": 516,
      "Ġ'": 517,
      "Ġpu": 518,
      "ĠFaa": 519,
      "esu": 520,
      "luega": 521,
      "201": 522,
      "taÊ»i": 523,
      "Ġ8": 524,
      "eri": 525,
      "Ġme": 526,
      "Ġtoe": 527,
      "tasi": 528,
      "aina": 529,
      "su": 530,
      "Ġfaama": 531,
      "ar": 532,
      "tion": 533,
      "Ġthe": 534,
      "Ġne": 535,
      "Ġof": 536,
      "Ġmalo": 537,
      "tele": 538,
      "Ġli": 539,
      "oo": 540,
      "ï¿½?": 541,
      "Ġ7": 542,
      "ĠNa": 543,
      "ll": 544,
      "aoga": 545,
      "ĠLi": 546,
      "nia": 547,
      "tala": 548,
      "ona": 549,
      "ei": 550,
      "Ġfale": 551,
      "ĠJ": 552,
      "ur": 553,
      "11": 554,
      "Ġpei": 555,
      "uma": 556,
      "ci": 557,
      "ĠSamoa": 558,
      "Ġao": 559,
      "20": 560,
      "uina": 561,
      "dia": 562,
      "ĠfaÊ»ama": 563,
      "Ġmu": 564,
      "Ġtasi": 565,
      "ch": 566,
      "Ġca": 567,
      "ĠMo": 568,
      "Ġmi": 569,
      "una": 570,
      "Ġfua": 571,
      "Ġtulaga": 572,
      "Ġ/": 573,
      "Ġ9": 574,
      "Ġaso": 575,
      "Ġese": 576,
      "Ġfoi": 577,
      "Ġ\"": 578,
      "olo": 579,
      "Ġpi": 580,
      "???": 581,
      "Äĵ": 582,
      "ts": 583,
      "Ġtatau": 584,
      "ele": 585,
      "io": 586,
      "om": 587,
      "luga": 588,
      "Ġde": 589,
      "lau": 590,
      "pea": 591,
      "lamalama": 592,
      "ru": 593,
      "fu": 594,
      "aga": 595,
      "ĠLE": 596,
      "Ġg": 597,
      "matalaga": 598,
      "in": 599,
      "Ġloo": 600,
      "Ġfes": 601,
      "10": 602,
      "du": 603,
      "ĠCa": 604,
      "en": 605,
      "83": 606,
      "fau": 607,
      "Ġvai": 608,
      "Ġoe": 609,
      "ry": 610,
      "ck": 611,
      "sino": 612,
      "is": 613,
      "Ġtaua": 614,
      "Ġtotonu": 615,
      "Ġand": 616,
      "gh": 617,
      "ĠTo": 618,
      ":\"": 619,
      "ĠâĢĺ": 620,
      "ter": 621,
      "fea": 622,
      "el": 623,
      "Ġ10": 624,
      "ed": 625,
      "Ġala": 626,
      "Ġvaega": 627,
      "Ġha": 628,
      "Ġmasa": 629,
      "Ġ,": 630,
      "liga": 631,
      "...": 632,
      "sini": 633,
      "ko": 634,
      "vea": 635,
      "Ġlalo": 636,
      "taga": 637,
      "Ġtoto": 638,
      "????": 639,
      "Ġko": 640,
      "aogaina": 641,
      "Ġ19": 642,
      "lagi": 643,
      "soa": 644,
      "25": 645,
      "Ġï¿½ï¿½ï¿½ï¿½ï¿½": 646,
      "vae": 647,
      "ĠloÊ»o": 648,
      "\",": 649,
      "ly": 650,
      "Ġmama": 651,
      "Ê»ai": 652,
      "rea": 653,
      "Ġuiga": 654,
      "14": 655,
      "Ġfaiga": 656,
      "Ġfia": 657,
      "Ġ:": 658,
      "ĠUa": 659,
      "foa": 660,
      "Ġ&": 661,
      "ct": 662,
      "Ġba": 663,
      "mua": 664,
      "ĠFA": 665,
      "lii": 666,
      "Ġtausaga": 667,
      "13": 668,
      "bo": 669,
      "Ġmasani": 670,
      "Ġele": 671,
      "ĠSe": 672,
      "ĠSu": 673,
      "mia": 674,
      "12": 675,
      "tino": 676,
      "Ġleai": 677,
      "nuu": 678,
      "ty": 679,
      "15": 680,
      "Ġfaai": 681,
      "moe": 682,
      "Ġata": 683,
      "lele": 684,
      "Ġmata": 685,
      "Ġaga": 686,
      "ila": 687,
      "Ġiloa": 688,
      "ĠMA": 689,
      "eo": 690,
      "ria": 691,
      "Ġï¿½ï¿½ï¿½": 692,
      "Ġtusi": 693,
      "Ġ20": 694,
      "ver": 695,
      "Ġï¿½ï¿½ï¿½ï¿½ï¿½ï¿½": 696,
      "com": 697,
      "ĠAtua": 698,
      "Ġ$": 699,
      "Ġvi": 700,
      "Ġlou": 701,
      "bi": 702,
      "ĠlÄĵ": 703,
      "19": 704,
      "lafo": 705,
      "Ġitu": 706,
      "Ġsau": 707,
      "?ï¿½": 708,
      "fie": 709,
      "Ê»e": 710,
      "rt": 711,
      "Ġgaluega": 712,
      "Ġtaa": 713,
      ".âĢĿ": 714,
      "ns": 715,
      "Ġfaaa": 716,
      "50": 717,
      "Ġmatou": 718,
      "Ġei": 719,
      "us": 720,
      "Ġtupe": 721,
      "16": 722,
      "wa": 723,
      "Ġï¿½ï¿½ï¿½ï¿½ï¿½ï¿½ï¿½": 724,
      "gofie": 725,
      "sala": 726,
      "Ġmalamalama": 727,
      "Ġtali": 728,
      "Ġ12": 729,
      "era": 730,
      "Ġatoa": 731,
      "soani": 732,
      "----": 733,
      "Ġafi": 734,
      "Ġmaualuga": 735,
      "oasoani": 736,
      "ol": 737,
      "ĠAu": 738,
      "82": 739,
      "Ġavea": 740,
      "uipu": 741,
      "opo": 742,
      "ĠIa": 743,
      "Ġfaapea": 744,
      "GA": 745,
      "Ġauala": 746,
      "Ġbe": 747,
      "pitoa": 748,
      "ĠiÄģ": 749,
      "30": 750,
      "Ġtama": 751,
      "gu": 752,
      "17": 753,
      "ĠÂ": 754,
      "Ġalo": 755,
      "laau": 756,
      "ĠMi": 757,
      "Ġoloa": 758,
      "malo": 759,
      "ĠVa": 760,
      "lua": 761,
      "Ġre": 762,
      "Ġfesoasoani": 763,
      "Ġnisi": 764,
      "Ġfi": 765,
      "Ġ#": 766,
      "ĠSi": 767,
      "000": 768,
      "Ġ[": 769,
      "ere": 770,
      "Ġ.": 771,
      "80": 772,
      "gra": 773,
      "ĠNe": 774,
      "ĠfaÊ»aaogaina": 775,
      "Ġlana": 776,
      "Ġpuipu": 777,
      "ulu": 778,
      "tt": 779,
      "ĠPe": 780,
      "Ġgao": 781,
      "nua": 782,
      "Ġmanu": 783,
      "Ġmoni": 784,
      "ĠKa": 785,
      "ĠIesu": 786,
      "Ġdi": 787,
      "aiga": 788,
      "Ġtua": 789,
      "Ġfou": 790,
      "AL": 791,
      "Ġmua": 792,
      "Ġfau": 793,
      "Ġmau": 794,
      "Ġï¿½ï¿½": 795,
      "Ġamata": 796,
      "ĠLo": 797,
      "lafono": 798,
      "ama": 799,
      "Ġpea": 800,
      "Ġtupu": 801,
      "ku": 802,
      "Ġnofoa": 803,
      "lue": 804,
      "Ġfana": 805,
      "Ġtino": 806,
      "Ġ>": 807,
      "Ġfiafia": 808,
      "vale": 809,
      "tii": 810,
      "rodu": 811,
      "Ġafai": 812,
      "res": 813,
      "ĠIA": 814,
      "za": 815,
      "Ġmatau": 816,
      "nai": 817,
      "um": 818,
      "ii": 819,
      "ĠBa": 820,
      "Ġana": 821,
      "ers": 822,
      "nga": 823,
      "Ġve": 824,
      "Ġke": 825,
      "Ġda": 826,
      "mau": 827,
      "22": 828,
      "Ġava": 829,
      "40": 830,
      "Ġaiga": 831,
      "Ġtauma": 832,
      "IN": 833,
      "do": 834,
      "Ġave": 835,
      "faiga": 836,
      "Ġ15": 837,
      "Ġiai": 838,
      "Ġki": 839,
      "ĠPo": 840,
      "18": 841,
      "sili": 842,
      "nc": 843,
      "Ġfor": 844,
      ").": 845,
      "sh": 846,
      "âĢĺ": 847,
      "Ġmatua": 848,
      "Ġ200": 849,
      "ĠCh": 850,
      "les": 851,
      "ilifi": 852,
      "Ġaofia": 853,
      "ĠAe": 854,
      "id": 855,
      "Ġge": 856,
      "ĠmaÊ»i": 857,
      "Ġdo": 858,
      "Ġoutou": 859,
      "lave": 860,
      "poto": 861,
      "vai": 862,
      "ĠRe": 863,
      "Ġgi": 864,
      "=\"": 865,
      "faa": 866,
      "ght": 867,
      "MA": 868,
      "35": 869,
      "be": 870,
      "26": 871,
      "Ġy": 872,
      "lea": 873,
      "ted": 874,
      "Ġmanatu": 875,
      "Ê»au": 876,
      "Ġfu": 877,
      "ĠCo": 878,
      "ĠSo": 879,
      "Ġlua": 880,
      "Ġï¿½": 881,
      "Ġnu": 882,
      "Ġmalosi": 883,
      "Ġpolo": 884,
      "tuaiga": 885,
      "Ġ17": 886,
      "27": 887,
      "Ġ16": 888,
      "ĠâĢĵ": 889,
      "IA": 890,
      "tic": 891,
      "sina": 892,
      "ĠfaÊ»atau": 893,
      "bu": 894,
      "Ġmuamua": 895,
      "46": 896,
      "lago": 897,
      "ĠRo": 898,
      "Ġlago": 899,
      "99": 900,
      "\":\"": 901,
      "ole": 902,
      "ĠGa": 903,
      "ĠFO": 904,
      "sed": 905,
      "43": 906,
      "85": 907,
      "eova": 908,
      "Ġluma": 909,
      "aaaa": 910,
      "lie": 911,
      "Ġalu": 912,
      "ĠIeova": 913,
      "Ġtamai": 914,
      "Ġii": 915,
      "gai": 916,
      "lai": 917,
      "23": 918,
      "chi": 919,
      "ws": 920,
      "gia": 921,
      "loi": 922,
      "ĠTau": 923,
      "Ġfilifi": 924,
      "tise": 925,
      "Ġituaiga": 926,
      "),": 927,
      "45": 928,
      "tusi": 929,
      "TA": 930,
      "mp": 931,
      "ĠMe": 932,
      "nter": 933,
      "Ġmataupu": 934,
      "__": 935,
      "est": 936,
      "90": 937,
      "Ġ18": 938,
      "Ġini": 939,
      "Ġsai": 940,
      "Ġfaata": 941,
      "muli": 942,
      "Ġhe": 943,
      "Ġfea": 944,
      "Ġ13": 945,
      "ĠTe": 946,
      "Ġwi": 947,
      "Ġtuuina": 948,
      "cu": 949,
      "onia": 950,
      "Ġ11": 951,
      "pp": 952,
      "Ġati": 953,
      "Ġane": 954,
      "Ġoo": 955,
      "tusa": 956,
      "ong": 957,
      "ola": 958,
      "Ġmesi": 959,
      "Ġola": 960,
      "eb": 961,
      "Ġaa": 962,
      "ĠPu": 963,
      "ree": 964,
      "ment": 965,
      "Ġmafua": 966,
      "81": 967,
      "UA": 968,
      "Ġtusa": 969,
      "ĠFai": 970,
      "ĠNo": 971,
      "Ġtuu": 972,
      "Ġnai": 973,
      "86": 974,
      "Ġmasini": 975,
      "Ġ+": 976,
      "taÊ»iga": 977,
      "Ġfanau": 978,
      "Ġaoga": 979,
      "Ġeletise": 980,
      "ĠHo": 981,
      "ON": 982,
      "lle": 983,
      "tupe": 984,
      "ld": 985,
      "\",\"": 986,
      "Ġlalolagi": 987,
      "ĠfoÊ»i": 988,
      "ss": 989,
      "Ġon": 990,
      "47": 991,
      "Ġgo": 992,
      "gÄģ": 993,
      "Ġâ": 994,
      "LE": 995,
      "ĠAi": 996,
      "Ġvaa": 997,
      "mb": 998,
      "003": 999,
      "Ġro": 1000,
      "Ġwa": 1001,
      "Ġnofoaga": 1002,
      "zi": 1003,
      "ting": 1004,
      "Ġis": 1005,
      "60": 1006,
      "ĠHa": 1007,
      "FA": 1008,
      "rs": 1009,
      "ww": 1010,
      "ĠAm": 1011,
      "Ġmafau": 1012,
      "Ġ14": 1013,
      "ya": 1014,
      "Åį": 1015,
      "Ġtao": 1016,
      "per": 1017,
      "Ġ24": 1018,
      "losi": 1019,
      "Ġfaale": 1020,
      "95": 1021,
      "ĠKo": 1022,
      "cc": 1023,
      "ĠY": 1024,
      "Ġ2018": 1025,
      "Ġtoga": 1026,
      "Ê»ia": 1027,
      "Ġauauna": 1028,
      "caa": 1029,
      "ĠmanaÊ»o": 1030,
      "sta": 1031,
      "87": 1032,
      "33": 1033,
      "Ġfaka": 1034,
      "solo": 1035,
      "pefea": 1036,
      "ps": 1037,
      "ER": 1038,
      "ĠDa": 1039,
      "ĠInd": 1040,
      "24": 1041,
      "ĠUsed": 1042,
      "tupu": 1043,
      "ĠTi": 1044,
      "ĠLED": 1045,
      "leleia": 1046,
      "neti": 1047,
      "ĠfaÊ»amatalaga": 1048,
      "ĠpoÊ»o": 1049,
      "ĠsuÊ»": 1050,
      "land": 1051,
      "ĠfaÊ»aa": 1052,
      "97": 1053,
      "Ġavanoa": 1054,
      "Ġtotogi": 1055,
      "uni": 1056,
      "Ġpuipui": 1057,
      "Ġole": 1058,
      "uli": 1059,
      "Ġj": 1060,
      "ble": 1061,
      "nta": 1062,
      "mea": 1063,
      "Ġsui": 1064,
      "Ġloto": 1065,
      "ĠTA": 1066,
      "losaga": 1067,
      "nic": 1068,
      "ton": 1069,
      "Ġ...": 1070,
      "65": 1071,
      "37": 1072,
      "Å«": 1073,
      "uta": 1074,
      "ĠFo": 1075,
      "Ġfoliga": 1076,
      "xo": 1077,
      "Ġea": 1078,
      "Ġlolo": 1079,
      "wn": 1080,
      "pani": 1081,
      "ĠDe": 1082,
      "fes": 1083,
      "Ġcu": 1084,
      "Ġgaosi": 1085,
      "Ġfaatau": 1086,
      "goa": 1087,
      "Ġra": 1088,
      "ita": 1089,
      "//": 1090,
      "ĠLu": 1091,
      "21": 1092,
      "Ġco": 1093,
      "xa": 1094,
      "Ġ30": 1095,
      "fiti": 1096,
      "uau": 1097,
      "Ġfaatasi": 1098,
      "sinoga": 1099,
      "Ġlena": 1100,
      "ĠTusi": 1101,
      "kala": 1102,
      "foni": 1103,
      "Ġlei": 1104,
      "Ġfuafua": 1105,
      "ĠtuÊ»u": 1106,
      "sinisi": 1107,
      "ĠFi": 1108,
      "Ġloa": 1109,
      "Ġatunuu": 1110,
      "://": 1111,
      "Ġtaaloga": 1112,
      "Ġmuli": 1113,
      "88": 1114,
      "Ġsta": 1115,
      "teleina": 1116,
      "roduct": 1117,
      "Ġpepa": 1118,
      "Ġpule": 1119,
      "rai": 1120,
      "Ġpro": 1121,
      "sega": 1122,
      "ĠZ": 1123,
      "ĠAfai": 1124,
      "29": 1125,
      "Id": 1126,
      "Ġfesili": 1127,
      "oni": 1128,
      "Ġmafaufau": 1129,
      "Ġ25": 1130,
      "ĠX": 1131,
      "oÊ»o": 1132,
      "ggi": 1133,
      "Ġcon": 1134,
      "ĠNi": 1135,
      "ac": 1136,
      "70": 1137,
      "Ġï¿½ï¿½ï¿½ï¿½ï¿½ï¿½ï¿½ï¿½ï¿½": 1138,
      "Ġsoo": 1139,
      "Ġui": 1140,
      "xi": 1141,
      "Ġalofa": 1142,
      "oleo": 1143,
      "ĠAmeri": 1144,
      "ifua": 1145,
      "pega": 1146,
      "????????": 1147,
      "rd": 1148,
      "ĠFale": 1149,
      "ee": 1150,
      "ul": 1151,
      "Ġï¿½ï¿½ï¿½ï¿½ï¿½ï¿½ï¿½ï¿½ï¿½ï¿½ï¿½ï¿½": 1152,
      "36": 1153,
      "oi": 1154,
      "tor": 1155,
      "Ġal": 1156,
      "Ġsou": 1157,
      "logo": 1158,
      "LA": 1159,
      "Ġecaa": 1160,
      "tinoa": 1161,
      "Ġecaade": 1162,
      "28": 1163,
      "Ġgata": 1164,
      "ĠSaina": 1165,
      "ota": 1166,
      "fiaga": 1167,
      "Ġ<": 1168,
      "taÊ»itaÊ»iga": 1169,
      "ther": 1170,
      "ĠOna": 1171,
      "ĠÐ": 1172,
      "ĠFe": 1173,
      "Ġmulimuli": 1174,
      "nce": 1175,
      "ff": 1176,
      "96": 1177,
      "Ġeseese": 1178,
      "44": 1179,
      "product": 1180,
      "ĠfaÊ»afe": 1181,
      "ny": 1182,
      "Ma": 1183,
      "Ġfaigofie": 1184,
      "ĠMalo": 1185,
      "Ġ2019": 1186,
      "ĠChina": 1187,
      "Ġtulafono": 1188,
      "ĠDi": 1189,
      "fine": 1190,
      "ĠVi": 1191,
      "Ġ2017": 1192,
      "tulaga": 1193,
      "Ġupu": 1194,
      "Ġtogafiti": 1195,
      "ĠFu": 1196,
      "Ġoi": 1197,
      "gite": 1198,
      "ĠtaÊ»i": 1199,
      "Ġvave": 1200,
      "sis": 1201,
      "pipi": 1202,
      "talia": 1203,
      "ĠPro": 1204,
      "lofa": 1205,
      "lemu": 1206,
      "Ġ{": 1207,
      "fisa": 1208,
      ",+": 1209,
      "ĠIna": 1210,
      "ue": 1211,
      "LO": 1212,
      "it": 1213,
      "Ġtafa": 1214,
      "sologa": 1215,
      "ĠQ": 1216,
      "row": 1217,
      "tto": 1218,
      "ĠOu": 1219,
      "ĠpaÊ»u": 1220,
      ".+": 1221,
      "Ġale": 1222,
      "tiiti": 1223,
      "Ġile": 1224,
      "Ġtoa": 1225,
      "Ġlima": 1226,
      "Ġkamu": 1227,
      "xe": 1228,
      "ub": 1229,
      "Ġmae": 1230,
      "loina": 1231,
      "suka": 1232,
      "Ġlai": 1233,
      "Ġ50": 1234,
      "oma": 1235,
      "ĠUS": 1236,
      "iaso": 1237,
      "mera": 1238,
      "ĠfaÊ»apitoa": 1239,
      "line": 1240,
      "Ġkasino": 1241,
      "ĠAr": 1242,
      "ĠHP": 1243,
      "ĠManu": 1244,
      "\">": 1245,
      "vo": 1246,
      "ĠfaÊ»ai": 1247,
      "ĠPri": 1248,
      "ster": 1249,
      "ĠMea": 1250,
      "one": 1251,
      "omia": 1252,
      "84": 1253,
      "ear": 1254,
      "Ġtalu": 1255,
      "ĠIndia": 1256,
      "ĠAl": 1257,
      "moemoe": 1258,
      "Ġnofo": 1259,
      "ys": 1260,
      "nge": 1261,
      "uiloa": 1262,
      "89": 1263,
      "pua": 1264,
      "Ġlagona": 1265,
      "tali": 1266,
      "ls": 1267,
      "tes": 1268,
      "ĠTele": 1269,
      "ĠKi": 1270,
      "ord": 1271,
      "tauli": 1272,
      "Ġfaitau": 1273,
      "OR": 1274,
      "Ġofo": 1275,
      "nda": 1276,
      "Ġri": 1277,
      "Ġas": 1278,
      "cia": 1279,
      "ĠsuÊ»esu": 1280,
      "od": 1281,
      "Ġalii": 1282,
      "Ġ23": 1283,
      "Ġulu": 1284,
      "ĠFaÊ»amatalaga": 1285,
      "Ġvaiaso": 1286,
      "07": 1287,
      "os": 1288,
      "Ġolaga": 1289,
      "ĠtuÊ»uina": 1290,
      "Ġmalaga": 1291,
      "55": 1292,
      "2016": 1293,
      "taua": 1294,
      "log": 1295,
      "pito": 1296,
      "fitauli": 1297,
      "67": 1298,
      "mÄģ": 1299,
      "ĠmaÊ»isuka": 1300,
      "AN": 1301,
      "ĠmanaÊ»omia": 1302,
      "lla": 1303,
      "ber": 1304,
      "Ġfualaau": 1305,
      "nti": 1306,
      "ĠâĢ¢": 1307,
      "ĠJa": 1308,
      "fana": 1309,
      "Ġmasina": 1310,
      "Ġmatu": 1311,
      "tuaggi": 1312,
      "ES": 1313,
      "Ġr": 1314,
      "Ġena": 1315,
      "bc": 1316,
      "âĢĶ": 1317,
      "ioiga": 1318,
      "Ð°": 1319,
      "Ġeia": 1320,
      "ĠThe": 1321,
      "op": 1322,
      "qua": 1323,
      "Ġwith": 1324,
      "Ġfei": 1325,
      "Ġmolia": 1326,
      "ĠIn": 1327,
      "91": 1328,
      "Ġtogafitiga": 1329,
      "ĠaÊ»u": 1330,
      "fale": 1331,
      "Ġsia": 1332,
      "tra": 1333,
      "53": 1334,
      "Ġfaapitoa": 1335,
      "\":": 1336,
      "Ġali": 1337,
      "ĠâĢµ": 1338,
      "taiga": 1339,
      "feagai": 1340,
      "Ġlanu": 1341,
      "--------": 1342,
      "opoopo": 1343,
      "Ġ21": 1344,
      "taia": 1345,
      "et": 1346,
      "Ġono": 1347,
      "titi": 1348,
      "Ġfautua": 1349,
      "Ġhtt": 1350,
      "ĠPaia": 1351,
      "nesi": 1352,
      "keti": 1353,
      "Ġyou": 1354,
      "02": 1355,
      "ae": 1356,
      "umauga": 1357,
      "Ġsua": 1358,
      "lli": 1359,
      "nuia": 1360,
      "Ġautu": 1361,
      "ĠfaÊ»ataÊ»itaÊ»iga": 1362,
      "iagra": 1363,
      "Ê»oga": 1364,
      "Ġmautinoa": 1365,
      "ĠWa": 1366,
      "Ġauaunaga": 1367,
      "ĠPi": 1368,
      "vu": 1369,
      "Ġsoifua": 1370,
      "hat": 1371,
      "uro": 1372,
      "ĠMar": 1373,
      "lavelave": 1374,
      "Ġ22": 1375,
      "ĠKeri": 1376,
      "03": 1377,
      "OS": 1378,
      "ĠTatuaggi": 1379,
      "AA": 1380,
      "ĠMalamalama": 1381,
      "faga": 1382,
      "Ġveve": 1383,
      "laina": 1384,
      "Ġtalosaga": 1385,
      "Ġcom": 1386,
      "IC": 1387,
      "pri": 1388,
      "Ġby": 1389,
      "Ġï¿½ï¿½ï¿½ï¿½ï¿½ï¿½ï¿½ï¿½ï¿½ï¿½": 1390,
      "Ġteu": 1391,
      "Ġtaumafai": 1392,
      "Ġigoa": 1393,
      "potopoto": 1394,
      "ec": 1395,
      "Ġat": 1396,
      "dd": 1397,
      "Ê»oa": 1398,
      "Ġes": 1399,
      "pare": 1400,
      "sion": 1401,
      "66": 1402,
      "faigaluega": 1403,
      "tuina": 1404,
      "ĠIo": 1405,
      "Ġore": 1406,
      "Ġfafo": 1407,
      "93": 1408,
      "ris": 1409,
      "ĠCom": 1410,
      "ena": 1411,
      "ĠleÊ»i": 1412,
      "ĠÄģ": 1413,
      "à¸": 1414,
      "pipiÊ»i": 1415,
      "IS": 1416,
      "tro": 1417,
      "ĠMai": 1418,
      "Ġlu": 1419,
      "ĠLau": 1420,
      "Ġ100": 1421,
      "Ġiloi": 1422,
      "Ġpisinisi": 1423,
      "ĠLight": 1424,
      "05": 1425,
      "TO": 1426,
      "tur": 1427,
      "Ġtalafeagai": 1428,
      "nÄģ": 1429,
      "ĠWi": 1430,
      "Ġaunoa": 1431,
      "Ġami": 1432,
      "Ġkamupani": 1433,
      "ĠMO": 1434,
      "Ġ*": 1435,
      "cal": 1436,
      "EA": 1437,
      "34": 1438,
      "77": 1439,
      "Ġar": 1440,
      "ĠLila": 1441,
      "Ġumi": 1442,
      "ĠHi": 1443,
      "04": 1444,
      ",\"": 1445,
      "ĠLed": 1446,
      "lalo": 1447,
      "',": 1448,
      "ãĥ": 1449,
      "Ġfaamatalaga": 1450,
      "ĠRa": 1451,
      "ture": 1452,
      "Ġleaga": 1453,
      "we": 1454,
      "nk": 1455,
      "ĠLea": 1456,
      "Ġlautele": 1457,
      "09": 1458,
      "Ġmamafa": 1459,
      "ĠAso": 1460,
      "ja": 1461,
      "ĠAua": 1462,
      "ngi": 1463,
      "gn": 1464,
      "ĠSta": 1465,
      "NA": 1466,
      "ĠCon": 1467,
      "Ġfaavae": 1468,
      "ĠTupu": 1469,
      "ĠGrow": 1470,
      "Ġmali": 1471,
      "ĠAmerika": 1472,
      "saina": 1473,
      "fulu": 1474,
      "tory": 1475,
      "ĠDo": 1476,
      "Ġ%": 1477,
      "Ġ26": 1478,
      "Ġ09": 1479,
      "Ê»ua": 1480,
      "tema": 1481,
      "ĠAU": 1482,
      "salala": 1483,
      "ĠKe": 1484,
      "lelei": 1485,
      "onal": 1486,
      "bs": 1487,
      "vaa": 1488,
      "06": 1489,
      "==": 1490,
      "faÊ»a": 1491,
      "rom": 1492,
      "maÊ»i": 1493,
      "Ġegite": 1494,
      "TE": 1495,
      "gana": 1496,
      "der": 1497,
      "mole": 1498,
      "Ġaoa": 1499,
      "box": 1500,
      "upu": 1501,
      "....": 1502,
      "\"}": 1503,
      "Ġbona": 1504,
      "75": 1505,
      "ogÄģ": 1506,
      "lima": 1507,
      "Ġ01": 1508,
      "Ġtalitonu": 1509,
      "Ġfaaga": 1510,
      "Ġ2016": 1511,
      "ĠAI": 1512,
      "Ġper": 1513,
      "mani": 1514,
      "39": 1515,
      "Ġho": 1516,
      "ĠsaÊ»o": 1517,
      "foga": 1518,
      "76": 1519,
      "ook": 1520,
      "ĠCO": 1521,
      "31": 1522,
      "Ġtata": 1523,
      "\\/": 1524,
      "hu": 1525,
      "Ġauai": 1526,
      "TU": 1527,
      "Ġpito": 1528,
      "lis": 1529,
      "mini": 1530,
      "Ġpepe": 1531,
      "ĠmÄģ": 1532,
      "Ê»ega": 1533,
      "2015": 1534,
      "Ġid": 1535,
      "AR": 1536,
      "potopotoga": 1537,
      "____": 1538,
      "Ġfina": 1539,
      "Ġponesi": 1540,
      "elu": 1541,
      "Ġisa": 1542,
      "laÊ»au": 1543,
      "eni": 1544,
      "noaga": 1545,
      "oloto": 1546,
      "ze": 1547,
      "AS": 1548,
      "ĠIs": 1549,
      "Ġtolu": 1550,
      "ĠfaÊ»apipiÊ»i": 1551,
      "let": 1552,
      "32": 1553,
      "ms": 1554,
      "ĠfaÊ»aleleia": 1555,
      "2017": 1556,
      "kale": 1557,
      "Ĥ¬": 1558,
      "ine": 1559,
      "Ġfaaaogaina": 1560,
      "ĠCar": 1561,
      "ĠMana": 1562,
      "ĠLulu": 1563,
      "ad": 1564,
      "tiitia": 1565,
      "Ġvevela": 1566,
      "Ġviagra": 1567,
      "ĠloÊ»u": 1568,
      "ian": 1569,
      "hen": 1570,
      "ĠfaÊ»aalia": 1571,
      "ĠIsa": 1572,
      "rou": 1573,
      "tio": 1574,
      "ĠChi": 1575,
      "ï¿½ï¿½ï¿½ï¿½ï¿½ï¿½ï¿½ï¿½": 1576,
      "ag": 1577,
      "Ġ29": 1578,
      "Ġgalu": 1579,
      "ĠÂ»": 1580,
      "kalama": 1581,
      "Ġlagolago": 1582,
      "0000": 1583,
      "ph": 1584,
      "Ê»iga": 1585,
      "Ġdur": 1586,
      "for": 1587,
      "pia": 1588,
      "salaga": 1589,
      "ĠfaÊ»amaÊ»i": 1590,
      "Ġ27": 1591,
      "Ġatoatoa": 1592,
      "salalau": 1593,
      "taneti": 1594,
      "Ġvaai": 1595,
      "Ġfaigaluega": 1596,
      "Ġmani": 1597,
      "sonic": 1598,
      "Ġstart": 1599,
      "tura": 1600,
      "Ê»ilagi": 1601,
      "IL": 1602,
      "vou": 1603,
      "ĠtaÊ»a": 1604,
      "Ġtumau": 1605,
      "ala": 1606,
      "ft": 1607,
      "Ġifo": 1608,
      "Ġku": 1609,
      "eS": 1610,
      "oÊ»otaÊ»i": 1611,
      "Ġidia": 1612,
      "ĠRi": 1613,
      "ĠSE": 1614,
      "Ġatunu": 1615,
      "tulafono": 1616,
      "200": 1617,
      "pui": 1618,
      "49": 1619,
      "Ġn": 1620,
      "Ġuila": 1621,
      "xt": 1622,
      "compare": 1623,
      "Ð¾": 1624,
      "Ġgalue": 1625,
      "leni": 1626,
      "ĠSlo": 1627,
      "Ġauga": 1628,
      "ĠfaÊ»aaoga": 1629,
      "Ġfausia": 1630,
      "US": 1631,
      "MO": 1632,
      "ĠTala": 1633,
      "ĠJo": 1634,
      "ĠPla": 1635,
      "ata": 1636,
      "con": 1637,
      "ner": 1638,
      "Ġ)": 1639,
      "bile": 1640,
      "roduc": 1641,
      "wi": 1642,
      "site": 1643,
      "Ġmanuia": 1644,
      "ĠCi": 1645,
      "pena": 1646,
      "men": 1647,
      "nasonic": 1648,
      "Ġfaigata": 1649,
      "42": 1650,
      "Ġsuesu": 1651,
      "fetai": 1652,
      "ĠAlii": 1653,
      "Ġsese": 1654,
      "ĠtafaÊ»ilagi": 1655,
      "Ġcar": 1656,
      ",âĢĿ": 1657,
      "ĠMaua": 1658,
      "han": 1659,
      "ppli": 1660,
      "net": 1661,
      "his": 1662,
      "Ġmatagofie": 1663,
      "Ġtelefoni": 1664,
      "salalauga": 1665,
      "Ġaca": 1666,
      "Ġfatu": 1667,
      "ĠGua": 1668,
      "ut": 1669,
      "ĠOfisa": 1670,
      "pro": 1671,
      "mes": 1672,
      "Ġnuu": 1673,
      "oina": 1674,
      "ĠAla": 1675,
      "08": 1676,
      "ĠMon": 1677,
      "48": 1678,
      "ĠmeaÊ»ai": 1679,
      "Ġtausi": 1680,
      "che": 1681,
      "2014": 1682,
      "Ġatili": 1683,
      "Ġmavae": 1684,
      "Ġtamaiti": 1685,
      "boxId": 1686,
      "57": 1687,
      "Ġtusia": 1688,
      "lasi": 1689,
      "kalesia": 1690,
      "Ġfaatatau": 1691,
      "tions": 1692,
      "Ġtatala": 1693,
      "Ġgalulue": 1694,
      "EN": 1695,
      "Fa": 1696,
      "56": 1697,
      "ĠUni": 1698,
      "Ġdeke": 1699,
      "Ġtutusa": 1700,
      "lt": 1701,
      "Ġbo": 1702,
      "Ġ2013": 1703,
      "ĠSau": 1704,
      "fac": 1705,
      "Ġnono": 1706,
      "ĠÂ£": 1707,
      "Ġfaaalia": 1708,
      "ĠSili": 1709,
      "apea": 1710,
      "mer": 1711,
      "ĠoÊ»o": 1712,
      "Ġfaaopoopo": 1713,
      "Ġsaoloto": 1714,
      "Ġtalia": 1715,
      "Ġfrom": 1716,
      "Ġare": 1717,
      "92": 1718,
      "Ġfaapefea": 1719,
      "ĠAc": 1720,
      "Ġpoo": 1721,
      "Ġ28": 1722,
      "lÄģ": 1723,
      "lae": 1724,
      "Ġsuiga": 1725,
      "Ġsusu": 1726,
      "Ġafioga": 1727,
      "ĠIni": 1728,
      "ef": 1729,
      "ning": 1730,
      "olor": 1731,
      "tea": 1732,
      "Ġtaofia": 1733,
      "vali": 1734,
      "ĠBo": 1735,
      "bb": 1736,
      "ĠTra": 1737,
      "ĠVaega": 1738,
      "Ġfilifiliga": 1739,
      "Ġï¿½ï¿½ï¿½ï¿½ï¿½ï¿½ï¿½ï¿½ï¿½ï¿½ï¿½": 1740,
      "ces": 1741,
      "41": 1742,
      "nes": 1743,
      "ogalemu": 1744,
      "tri": 1745,
      "cri": 1746,
      "bou": 1747,
      "Ġtamaitai": 1748,
      "Ġ2014": 1749,
      "Ġth": 1750,
      "Ġacadia": 1751,
      "tuatua": 1752,
      "ĠvaÊ»a": 1753,
      "ĠFaÊ»atau": 1754,
      "aaaaaaaa": 1755,
      "Ġhu": 1756,
      "Ġafaina": 1757,
      "Ġsauni": 1758,
      "ĠFaama": 1759,
      "sou": 1760,
      "ĠAnd": 1761,
      "ĠEuro": 1762,
      "ĠNews": 1763,
      "ĠHome": 1764,
      "pula": 1765,
      "ĠFree": 1766,
      "ĠNew": 1767,
      "ĠPanasonic": 1768,
      "Ġlisi": 1769,
      "nea": 1770,
      "ĠFor": 1771,
      "ĠRoma": 1772,
      "Ġfafine": 1773,
      "Ġpla": 1774,
      "Ġcare": 1775,
      "ĠaÊ»a": 1776,
      "98": 1777,
      "Ġfaatino": 1778,
      "Ġmanaomia": 1779,
      "Ġfaailoa": 1780,
      "siasi": 1781,
      "Ġlauiloa": 1782,
      "Ġanu": 1783,
      "Ġfaailoga": 1784,
      "galo": 1785,
      "Ġsuia": 1786,
      "38": 1787,
      "losia": 1788,
      "âĢ¦": 1789,
      "Ġtonu": 1790,
      "tal": 1791,
      "INA": 1792,
      "ogaina": 1793,
      "www": 1794,
      "ãĤ": 1795,
      "cs": 1796,
      "ete": 1797,
      "!!": 1798,
      "ĠED": 1799,
      "Ġan": 1800,
      "âĢĵ": 1801,
      "Ðµ": 1802,
      "Ġatina": 1803,
      "ĠBi": 1804,
      "ĠfaÊ»amaonia": 1805,
      "Ġuso": 1806,
      "ĠaÊ»oa": 1807,
      "shi": 1808,
      "oli": 1809,
      "uai": 1810,
      "mpa": 1811,
      "ĠfaaaogÄģ": 1812,
      "52": 1813,
      "Ġor": 1814,
      "ĠsuÊ»esuÊ»ega": 1815,
      "kalame": 1816,
      "ew": 1817,
      "eao": 1818,
      "Ð¸": 1819,
      "sai": 1820,
      "94": 1821,
      "Ġgu": 1822,
      "Ġtra": 1823,
      "Ġmaualalo": 1824,
      "luma": 1825,
      "aalo": 1826,
      "cti": 1827,
      "ding": 1828,
      "ĠtaÊ»ua": 1829,
      "osi": 1830,
      "qu": 1831,
      "roducts": 1832,
      "Ġ=": 1833,
      "poi": 1834,
      "Ġiz": 1835,
      "Ġleoleo": 1836,
      "ĠfaÊ»atasi": 1837,
      "ĠMata": 1838,
      "Ġfilifili": 1839,
      "usi": 1840,
      "TI": 1841,
      "Ġpuipuia": 1842,
      "Ġ`": 1843,
      "Ġpusa": 1844,
      "Ġtaudia": 1845,
      "mui": 1846,
      "Ġitula": 1847,
      "Ġfaamoemoe": 1848,
      "ĠtoÊ»a": 1849,
      "ĠVai": 1850,
      "Ġtomai": 1851,
      "Ġ?": 1852,
      "car": 1853,
      "man": 1854,
      "Ġhi": 1855,
      "tina": 1856,
      "Ġveia": 1857,
      "Ġ2015": 1858,
      "ab": 1859,
      "can": 1860,
      "Ġagaga": 1861,
      "Ġ82": 1862,
      "Ġfasi": 1863,
      "gle": 1864,
      "hoto": 1865,
      "51": 1866,
      "mana": 1867,
      "ĠTelefoni": 1868,
      "Ġpolokalama": 1869,
      "Ġtaunu": 1870,
      "tagaluega": 1871,
      "Ġfaala": 1872,
      "factur": 1873,
      "Ġx": 1874,
      "Ġoga": 1875,
      "iai": 1876,
      "Ġmanumalo": 1877,
      "Ġeai": 1878,
      "ĠLeoleo": 1879,
      "mon": 1880,
      "Ġsaogalemu": 1881,
      "ngua": 1882,
      "ĠPau": 1883,
      "upega": 1884,
      "Ġfaatonu": 1885,
      "ĠgaÊ»o": 1886,
      "ubai": 1887,
      "Ġmaketi": 1888,
      "ĠTaa": 1889,
      "aad": 1890,
      "La": 1891,
      "miti": 1892,
      "âĢµ": 1893,
      "Ġgaioiga": 1894,
      "amasinoga": 1895,
      "Ġoso": 1896,
      "AI": 1897,
      "Ġfaafitauli": 1898,
      "tures": 1899,
      "king": 1900,
      "ĠManufactur": 1901,
      "Ġtina": 1902,
      "liz": 1903,
      "againa": 1904,
      "Ġega": 1905,
      "zio": 1906,
      "port": 1907,
      "des": 1908,
      "Ġnga": 1909,
      "âĢĭ": 1910,
      "filoi": 1911,
      "Ġiinei": 1912,
      "Ġthat": 1913,
      "RE": 1914,
      "ĠPule": 1915,
      "toneti": 1916,
      "Ġmamanu": 1917,
      "ing": 1918,
      "pan": 1919,
      "Ġvae": 1920,
      "54": 1921,
      "Ġaai": 1922,
      "maise": 1923,
      "Ġitiiti": 1924,
      "Ġlaau": 1925,
      "Ġtusitusi": 1926,
      "Ġsaili": 1927,
      "ĠPer": 1928,
      "taÊ»ia": 1929,
      "ds": 1930,
      "Ġafa": 1931,
      "Ġpau": 1932,
      "Ġfaalogo": 1933,
      "iz": 1934,
      "fesoÊ»otaÊ»i": 1935,
      "Ġnumera": 1936,
      "af": 1937,
      "hai": 1938,
      "à¤": 1939,
      "cha": 1940,
      "segase": 1941,
      "cro": 1942,
      "Ġtaaalo": 1943,
      "ĠGu": 1944,
      "Ġmauaina": 1945,
      "Ġsuka": 1946,
      "rie": 1947,
      "Ê»oina": 1948,
      "ĠTai": 1949,
      "ĠâĤ¬": 1950,
      "Ñģ": 1951,
      "ĠGi": 1952,
      "Ġfuafuaga": 1953,
      "PS": 1954,
      "ses": 1955,
      "Ġcat": 1956,
      "Ġgasegase": 1957,
      "ãģ": 1958,
      "ĠMT": 1959,
      "gradi": 1960,
      "Ġsigradi": 1961,
      "ĠSA": 1962,
      "lili": 1963,
      "Ê»eina": 1964,
      "Ġtaavale": 1965,
      "Ġmanino": 1966,
      "vana": 1967,
      "ĠÄĵ": 1968,
      "Ġbi": 1969,
      "Ġoti": 1970,
      "Ġ40": 1971,
      "ĠKeriso": 1972,
      "ĠAta": 1973,
      "nder": 1974,
      "ral": 1975,
      "Ġfaaiuga": 1976,
      "yd": 1977,
      "Ã©": 1978,
      "nte": 1979,
      "ges": 1980,
      "deo": 1981,
      "lar": 1982,
      "ĠNu": 1983,
      "Ġfilifilia": 1984,
      "Ġtausia": 1985,
      "Ġ2020": 1986,
      "Ġatonu": 1987,
      "ĠGe": 1988,
      "Ġvaaia": 1989,
      "Sa": 1990,
      "Ġsii": 1991,
      "orni": 1992,
      "ĠItalia": 1993,
      "Ġdu": 1994,
      "Ua": 1995,
      "alo": 1996,
      "Ġtalavou": 1997,
      "sy": 1998,
      "mona": 1999,
      "Ġio": 2000,
      "ĠSofa": 2001,
      "por": 2002,
      "Ġatalii": 2003,
      "kai": 2004,
      "RO": 2005,
      "Ġdekenai": 2006,
      "ĠTU": 2007,
      "talai": 2008,
      "afi": 2009,
      "ĠPrinter": 2010,
      "Ġsao": 2011,
      "lack": 2012,
      "esea": 2013,
      "Ġfaamaoni": 2014,
      "Ġtaumafa": 2015,
      "Ġsoso": 2016,
      "Ġz": 2017,
      "nts": 2018,
      "Ġvaalele": 2019,
      "lani": 2020,
      "VA": 2021,
      "ĠGuang": 2022,
      "lou": 2023,
      "ĠIuni": 2024,
      "fatia": 2025,
      "2019": 2026,
      "lin": 2027,
      "Ġled": 2028,
      "ĠJu": 2029,
      "ĠFau": 2030,
      "ĠvailaÊ»au": 2031,
      "59": 2032,
      "Ġtuua": 2033,
      "lor": 2034,
      "ĠDubai": 2035,
      "ĠSer": 2036,
      "taui": 2037,
      "'s": 2038,
      "oloa": 2039,
      "Ġfaafo": 2040,
      "Ġaafiaga": 2041,
      "ĠmaeÊ»a": 2042,
      "bd": 2043,
      "Ġtautua": 2044,
      "IO": 2045,
      "ring": 2046,
      "63": 2047,
      "Ġhai": 2048,
      "iS": 2049,
      "Ġfaaaoga": 2050,
      "ID": 2051,
      "100": 2052,
      "ction": 2053,
      "Ġofoina": 2054,
      "ĠUila": 2055,
      "ĠTama": 2056,
      "nguage": 2057,
      "ĠOn": 2058,
      "Ġsiaki": 2059,
      "ji": 2060,
      "tional": 2061,
      "veai": 2062,
      "pha": 2063,
      "Ġfautuaina": 2064,
      "Ġgiorni": 2065,
      "px": 2066,
      "ssi": 2067,
      "nde": 2068,
      "pule": 2069,
      "ale": 2070,
      "ling": 2071,
      "Ġfesoo": 2072,
      "ĠProducts": 2073,
      "Ġcaad": 2074,
      "ĠFaÊ»ama": 2075,
      "Ġessa": 2076,
      "Ġcaadria": 2077,
      "Ġ!": 2078,
      "ĠfaÊ»amalosi": 2079,
      "Ġfaatulaga": 2080,
      "our": 2081,
      "son": 2082,
      "64": 2083,
      "ÑĤ": 2084,
      "Ġpopo": 2085,
      "Ġhttp": 2086,
      "alofa": 2087,
      "68": 2088,
      "ĠAT": 2089,
      "Ġtaeao": 2090,
      "wnloa": 2091,
      "Ġpapa": 2092,
      "ME": 2093,
      "lic": 2094,
      "Ġulua": 2095,
      "tel": 2096,
      "Ġinitoneti": 2097,
      "Ġasiasi": 2098,
      "ĠAma": 2099,
      "lse": 2100,
      "ĠCe": 2101,
      "ĠIsara": 2102,
      "Ð½": 2103,
      "orld": 2104,
      "Ġfoa": 2105,
      "Â°": 2106,
      "Ġupega": 2107,
      "UU": 2108,
      "ĠTagata": 2109,
      "Ġit": 2110,
      "Ġaemaise": 2111,
      "nolosi": 2112,
      "Ġfaamasinoga": 2113,
      "Ø§": 2114,
      "ĠDu": 2115,
      "Ġgagana": 2116,
      "talimalo": 2117,
      "bia": 2118,
      "ndo": 2119,
      "ALA": 2120,
      "Ġlomi": 2121,
      "Ġce": 2122,
      "Ġinu": 2123,
      "lisi": 2124,
      "Ġhttps": 2125,
      "Ġvala": 2126,
      "Ġminu": 2127,
      "tete": 2128,
      "ana": 2129,
      "ĠtaÊ»itaÊ»ia": 2130,
      "Ġfono": 2131,
      "Ġlolomi": 2132,
      "tego": 2133,
      "Ġpulea": 2134,
      "tagaina": 2135,
      "ĠSt": 2136,
      "Ê»aga": 2137,
      "ĠtÄģ": 2138,
      "lala": 2139,
      "usa": 2140,
      "ĠlenÄģ": 2141,
      "Ġfaatuatua": 2142,
      "qui": 2143,
      "hite": 2144,
      "CA": 2145,
      "Ġex": 2146,
      "que": 2147,
      "Ġsuesuega": 2148,
      "mina": 2149,
      "Ġmanaia": 2150,
      "Ġmaloloina": 2151,
      "ĠPei": 2152,
      "Ġvasega": 2153,
      "Ä«": 2154,
      "ailoa": 2155,
      "lagolago": 2156,
      "Ġ2012": 2157,
      "????????????????": 2158,
      "gs": 2159,
      "á¸": 2160,
      "58": 2161,
      "Ġtula": 2162,
      "Ai": 2163,
      "ĠCha": 2164,
      "taitaiga": 2165,
      "ute": 2166,
      "ĠArea": 2167,
      "Ia": 2168,
      "ĠlaÊ»u": 2169,
      "ĠAS": 2170,
      "ot": 2171,
      "llo": 2172,
      "ĠFou": 2173,
      "Ġuo": 2174,
      "Ġfaava": 2175,
      "Ġtalanoa": 2176,
      "Ġ32": 2177,
      "ĠtaÊ»u": 2178,
      "stra": 2179,
      "ĠAna": 2180,
      "papa": 2181,
      "ĠToto": 2182,
      ".,": 2183,
      "ger": 2184,
      "htt": 2185,
      "Ġfinagalo": 2186,
      "oti": 2187,
      "ĠTatuaggio": 2188,
      "AB": 2189,
      "ĠLaÊ»au": 2190,
      "Ġvalaau": 2191,
      "ĠFono": 2192,
      "avale": 2193,
      "oto": 2194,
      "ĠIsaraelu": 2195,
      "ĠSuppli": 2196,
      "Ġsaunia": 2197,
      "Ġfanua": 2198,
      "PA": 2199,
      "oso": 2200,
      "Ġtaitai": 2201,
      "Ġpri": 2202,
      "cd": 2203,
      "maia": 2204,
      "Ġam": 2205,
      "ĠFac": 2206,
      "78": 2207,
      "Ġfaamaonia": 2208,
      "ĠRu": 2209,
      "xu": 2210,
      "ĠAp": 2211,
      "Ġtaofi": 2212,
      "Ġleo": 2213,
      "piuta": 2214,
      "Ġfaato": 2215,
      "69": 2216,
      "tive": 2217,
      "ĠIu": 2218,
      "ran": 2219,
      "Ġfaletalimalo": 2220,
      "gaiga": 2221,
      "Ġani": 2222,
      "ĠTui": 2223,
      "atasi": 2224,
      "cea": 2225,
      "á¸¡": 2226,
      "ĠcatId": 2227,
      "pala": 2228,
      "74": 2229,
      "wnload": 2230,
      "ĠSia": 2231,
      "mate": 2232,
      "sea": 2233,
      "polo": 2234,
      "Ġmanatua": 2235,
      "eal": 2236,
      "ĠSai": 2237,
      "ĠBu": 2238,
      "ĠfaÊ»aitiitia": 2239,
      "bra": 2240,
      "ï¿½ï¿½.": 2241,
      "ttoo": 2242,
      "2018": 2243,
      "ĠfaÊ»ale": 2244,
      "ard": 2245,
      "Ġlaiti": 2246,
      "lini": 2247,
      "ĠauÄģ": 2248,
      "poti": 2249,
      "62": 2250,
      "ÑĢ": 2251,
      "Ġinitaneti": 2252,
      "hia": 2253,
      "eau": 2254,
      "---": 2255,
      "ĠLelei": 2256,
      "Ġlaina": 2257,
      "Ġfaateleina": 2258,
      "Ġaafia": 2259,
      "ĠfesoÊ»o": 2260,
      "61": 2261,
      "ĠfaÊ»ala": 2262,
      "halo": 2263,
      "tter": 2264,
      "pti": 2265,
      "loto": 2266,
      "ĠfomaÊ»i": 2267,
      "72": 2268,
      "ĠMobile": 2269,
      "Ġmolimau": 2270,
      "cle": 2271,
      "natu": 2272,
      "Ġmili": 2273,
      "loaia": 2274,
      "wer": 2275,
      "Ġad": 2276,
      "am": 2277,
      "EL": 2278,
      "rk": 2279,
      "uri": 2280,
      "ĠBe": 2281,
      "nian": 2282,
      "Ġessay": 2283,
      "Ġmoliaga": 2284,
      "suga": 2285,
      "ren": 2286,
      "Ġiloiloga": 2287,
      "hone": 2288,
      "73": 2289,
      "Ġaia": 2290,
      "Ġmamao": 2291,
      "Ġtiga": 2292,
      "ork": 2293,
      "ĠFua": 2294,
      "Ġsoli": 2295,
      "Ġsolo": 2296,
      "ĠFAO": 2297,
      "ĠPale": 2298,
      "Ġ48": 2299,
      "cation": 2300,
      "usua": 2301,
      "Ġtofi": 2302,
      "ĠIoa": 2303,
      "Ġbu": 2304,
      "ĠMese": 2305,
      "Ġgaosiga": 2306,
      "Ġ31": 2307,
      "ĠMini": 2308,
      "ĠCity": 2309,
      "Ġfaamama": 2310,
      "Ġnonofo": 2311,
      "îĻ": 2312,
      "Ġsea": 2313,
      "min": 2314,
      "Ġsala": 2315,
      "Ġmaa": 2316,
      "Ġpotu": 2317,
      "pefeatures": 2318,
      "fer": 2319,
      "ĠfaÊ»aogaina": 2320,
      "tem": 2321,
      "ĠsoÊ»o": 2322,
      "Ġamataga": 2323,
      "ood": 2324,
      "siano": 2325,
      "Ġ35": 2326,
      "Ġpolokalame": 2327,
      "Ġhaga": 2328,
      "RA": 2329,
      "Ġpre": 2330,
      "vau": 2331,
      "ron": 2332,
      "reen": 2333,
      "Ġauina": 2334,
      "at": 2335,
      "ĠEuropa": 2336,
      "Ġfaasa": 2337,
      "erver": 2338,
      "Ġpopole": 2339,
      "ĠLolo": 2340,
      "lota": 2341,
      "ĠUSD": 2342,
      "Ġfaamata": 2343,
      "loaina": 2344,
      "Ġamu": 2345,
      "Ġusi": 2346,
      "Ġfaasaina": 2347,
      "Ġtete": 2348,
      "ĠFaatasi": 2349,
      "Ġwe": 2350,
      "ĠPolo": 2351,
      "ĠfaaaogÄģina": 2352,
      "ves": 2353,
      "Ġita": 2354,
      "Ġpoto": 2355,
      "Ġfeaveai": 2356,
      "ĠLA": 2357,
      "Ġmeaai": 2358,
      "ĠSou": 2359,
      "atau": 2360,
      "||": 2361,
      "al": 2362,
      "Ġtauva": 2363,
      "kia": 2364,
      "mber": 2365,
      "Ġ03": 2366,
      "Ġofisa": 2367,
      "ĠaÊ»e": 2368,
      "gua": 2369,
      "Ġpala": 2370,
      "ĠLat": 2371,
      "ĠIP": 2372,
      "pini": 2373,
      "cho": 2374,
      "lly": 2375,
      "ndi": 2376,
      "Ġmeafaigaluega": 2377,
      "sha": 2378,
      "df": 2379,
      "mei": 2380,
      "ĠAga": 2381,
      "ĠMaualuga": 2382,
      "Ġtaunuuga": 2383,
      "Ġmanao": 2384,
      "Ġteine": 2385,
      "bf": 2386,
      "asaga": 2387,
      "Ġrea": 2388,
      "fanafana": 2389,
      "ye": 2390,
      "lulu": 2391,
      "Ġtaalo": 2392,
      "Ġvailaau": 2393,
      "ĠFactory": 2394,
      "Ġ04": 2395,
      "Ġ60": 2396,
      "ption": 2397,
      "79": 2398,
      "ĠAir": 2399,
      "Ġmanava": 2400,
      "Ġolo": 2401,
      "Ġfaila": 2402,
      "Ġ2011": 2403,
      "ĠAd": 2404,
      "ĠToe": 2405,
      "mepiuta": 2406,
      "dio": 2407,
      "Ġ00": 2408,
      "Ġfetalai": 2409,
      "ead": 2410,
      "Ġitulau": 2411,
      ".âĢĻ": 2412,
      "Ġtaitasi": 2413,
      "pai": 2414,
      "ĠEx": 2415,
      "Ġtaulaga": 2416,
      "ĠTO": 2417,
      "ĠAo": 2418,
      "Ġfaamanuia": 2419,
      "ric": 2420,
      "ĠSho": 2421,
      "ount": 2422,
      "ĠfaÊ»alavelave": 2423,
      "Ġlama": 2424,
      "tumu": 2425,
      "ĠAn": 2426,
      "Ġ2010": 2427,
      "Ġfetu": 2428,
      "logy": 2429,
      "**": 2430,
      "Ġamio": 2431,
      "ĠHigh": 2432,
      "sese": 2433,
      "tta": 2434,
      "Ġtane": 2435,
      "Ġmamalu": 2436,
      "tauaiga": 2437,
      "ĠtamÄģ": 2438,
      "ĠSea": 2439,
      "Ġun": 2440,
      "ĠFeb": 2441,
      "Ġage": 2442,
      "CO": 2443,
      "NE": 2444,
      "ĠGo": 2445,
      "maga": 2446,
      "via": 2447,
      "ĠLanguage": 2448,
      "gina": 2449,
      "Oi": 2450,
      "malie": 2451,
      "ĠGra": 2452,
      "neta": 2453,
      "ĠObs": 2454,
      "ĠÃ": 2455,
      "mm": 2456,
      "ĠPre": 2457,
      "Ġkae": 2458,
      "Ġfetaui": 2459,
      "ĠLO": 2460,
      "Ġtatalo": 2461,
      "ĠChe": 2462,
      "ĠFAA": 2463,
      "UR": 2464,
      "Ġtuufaa": 2465,
      "Ġaumai": 2466,
      "cat": 2467,
      "?âĢĿ": 2468,
      "Ġfaaleleia": 2469,
      "ĠSte": 2470,
      "Ġfaataitaiga": 2471,
      "sti": 2472,
      "utu": 2473,
      "II": 2474,
      "Ġsofa": 2475,
      "Ġmafuaaga": 2476,
      "iliga": 2477,
      "ĠfaÊ»avae": 2478,
      "toto": 2479,
      "ĠNor": 2480,
      "Ġlagi": 2481,
      "Ġpeitai": 2482,
      "sua": 2483,
      "ĠfaÊ»amaumauga": 2484,
      "molemole": 2485,
      "ĠEle": 2486,
      "Ġslo": 2487,
      "Ġfaaauau": 2488,
      "ĠEkalesia": 2489,
      "Ġlexe": 2490,
      "Ġnofoaafi": 2491,
      "Ġgoio": 2492,
      "ĠMu": 2493,
      "dy": 2494,
      "Ê»iala": 2495,
      "ffi": 2496,
      "ĠAle": 2497,
      "Ġmaliu": 2498,
      "----------------": 2499,
      "Ġ33": 2500,
      "eina": 2501,
      "ĠFaaa": 2502,
      "Ġ500": 2503,
      "SI": 2504,
      "wai": 2505,
      "ĠfaÊ»afefiloi": 2506,
      "71": 2507,
      "Ġpulega": 2508,
      "ĠsuÊ»ega": 2509,
      "lauteleina": 2510,
      "Ġac": 2511,
      "tin": 2512,
      "Ġvitio": 2513,
      "kara": 2514,
      "Ġpaia": 2515,
      "gota": 2516,
      "org": 2517,
      "Ġil": 2518,
      "sau": 2519,
      "ĠFla": 2520,
      "lus": 2521,
      "teu": 2522,
      "roa": 2523,
      "ress": 2524,
      "ĠObserver": 2525,
      "chine": 2526,
      "ten": 2527,
      "ness": 2528,
      "Ġfautuaga": 2529,
      "tori": 2530,
      "ĠTalu": 2531,
      "Ġeo": 2532,
      "ĠGoo": 2533,
      "red": 2534,
      "CC": 2535,
      "sse": 2536,
      "Ġmatutua": 2537,
      "ven": 2538,
      "cid": 2539,
      "Ġie": 2540,
      "Ġ02": 2541,
      "nese": 2542,
      "Ġmei": 2543,
      "Ġvo": 2544,
      "ĠEa": 2545,
      "mene": 2546,
      "bada": 2547,
      "ĠPor": 2548,
      "Ġtaumafaiga": 2549,
      "ĠSamoan": 2550,
      "ssa": 2551,
      "ĠSlots": 2552,
      "rist": 2553,
      "ĠmatuÄģ": 2554,
      "ao": 2555,
      "lay": 2556,
      "Ġpili": 2557,
      "oaiga": 2558,
      "ir": 2559,
      "Ġfuafuaina": 2560,
      "Ġgra": 2561,
      "ming": 2562,
      "ĠSign": 2563,
      "Ġagasala": 2564,
      "Ġaumaia": 2565,
      "vita": 2566,
      "talafu": 2567,
      "round": 2568,
      "Ġtoatele": 2569,
      "ĠYou": 2570,
      "ĠTaaloga": 2571,
      "Ġhy": 2572,
      "ĠBar": 2573,
      "Ġtui": 2574,
      "xou": 2575,
      "ie": 2576,
      "Ġ34": 2577,
      "Ca": 2578,
      "roid": 2579,
      "day": 2580,
      "ĠNiu": 2581,
      "Ġminute": 2582,
      "inu": 2583,
      "tolo": 2584,
      "kea": 2585,
      "Ġtetele": 2586,
      "ĠHe": 2587,
      "ori": 2588,
      "OA": 2589,
      "Ġphoto": 2590,
      "IT": 2591,
      "ĠKia": 2592,
      "tania": 2593,
      "Ġmare": 2594,
      "Ġthis": 2595,
      "Ġvava": 2596,
      "esega": 2597,
      "Ġoli": 2598,
      "ĠBlack": 2599,
      "Ġch": 2600,
      "ĠSha": 2601,
      "Ġsuau": 2602,
      "dge": 2603,
      "unai": 2604,
      "tÅ«": 2605,
      "ĠaÊ»afiaga": 2606,
      "Ġago": 2607,
      "Ġ87": 2608,
      "fanua": 2609,
      "DE": 2610,
      "ĠTatou": 2611,
      "ĠAfi": 2612,
      "Ġwas": 2613,
      "ĠMati": 2614,
      "ĠLei": 2615,
      "Ġï": 2616,
      "puni": 2617,
      "Ġvideo": 2618,
      "ero": 2619,
      "Ġpai": 2620,
      "ĠPh": 2621,
      "ĠGoogle": 2622,
      "Ta": 2623,
      "name": 2624,
      "Ġlamatia": 2625,
      "Ġsina": 2626,
      "ĠInter": 2627,
      "Ġaupito": 2628,
      "tulia": 2629,
      "/%": 2630,
      "Ġsefulu": 2631,
      "ĠFaÊ»asalalau": 2632,
      "nau": 2633,
      "Ġlaulau": 2634,
      "malaga": 2635,
      "cy": 2636,
      "book": 2637,
      "lÅį": 2638,
      "mg": 2639,
      "Ġnoxou": 2640,
      "lamanuia": 2641,
      "Ġnauna": 2642,
      "ĠVe": 2643,
      "2012": 2644,
      "Ġtutupu": 2645,
      "Ġsamoa": 2646,
      "Ġhere": 2647,
      "ĠÅį": 2648,
      "CE": 2649,
      "Ġlafo": 2650,
      "Si": 2651,
      "Ġipu": 2652,
      "Ġfesiligia": 2653,
      "ĠMatagaluega": 2654,
      "Ġtaga": 2655,
      "________": 2656,
      "`.": 2657,
      "Ġtou": 2658,
      "manu": 2659,
      "ĠØ": 2660,
      "ĠColor": 2661,
      "tuga": 2662,
      "ĠFaÊ»afe": 2663,
      "ker": 2664,
      "Ġabo": 2665,
      "ĠMatou": 2666,
      "lls": 2667,
      "ĠOnline": 2668,
      "Ġgaoioiga": 2669,
      "tti": 2670,
      "chno": 2671,
      "ĠPaulo": 2672,
      "Ġaisa": 2673,
      "the": 2674,
      "Ġaitalafu": 2675,
      ".\"": 2676,
      "ĠLalo": 2677,
      "Ġ36": 2678,
      "ville": 2679,
      "`.`": 2680,
      "fd": 2681,
      "ĠFaÊ»ai": 2682,
      "ĠDeo": 2683,
      "Ġfaau": 2684,
      "îĢ": 2685,
      "Ġsavali": 2686,
      "ĠfaÊ»amau": 2687,
      "Ġtuli": 2688,
      "Ê¼": 2689,
      ".)": 2690,
      "ĠOle": 2691,
      "toaga": 2692,
      "ĠZh": 2693,
      "FaÊ»a": 2694,
      "Ġkai": 2695,
      "Ġvaivai": 2696,
      "Ġsila": 2697,
      "IM": 2698,
      "Ġfaleoloa": 2699,
      "Ġdis": 2700,
      "Ġsuafa": 2701,
      "CH": 2702,
      "mba": 2703,
      "afia": 2704,
      "lish": 2705,
      "ĠLisi": 2706,
      "tch": 2707,
      "Ġlasi": 2708,
      "Ġkomepiuta": 2709,
      "ĠIuta": 2710,
      "ĠIsland": 2711,
      "UL": 2712,
      "Ġamo": 2713,
      "ĠDis": 2714,
      "Ġru": 2715,
      "Ġlili": 2716,
      "Ġkara": 2717,
      "ula": 2718,
      "tle": 2719,
      "Ġmeaalofa": 2720,
      "ĠFea": 2721,
      "ous": 2722,
      "ĠBest": 2723,
      "UT": 2724,
      "pto": 2725,
      "Ġ06": 2726,
      "Ġ07": 2727,
      "zioni": 2728,
      "tei": 2729,
      "Ġ2009": 2730,
      "Ġfaatauina": 2731,
      "Ġedi": 2732,
      "ĠîĻ": 2733,
      "ĠtaÊ»iala": 2734,
      "ĠfaÊ»amalosia": 2735,
      "Ġtuputupu": 2736,
      "DA": 2737,
      "ĠSale": 2738,
      "TOU": 2739,
      "jp": 2740,
      "Ġteuina": 2741,
      "ĠTulafono": 2742,
      "my": 2743,
      "OL": 2744,
      "ĠAuto": 2745,
      "ĠtÄģua": 2746,
      "dina": 2747,
      "je": 2748,
      "iaag": 2749,
      "Ġedia": 2750,
      "Ġlata": 2751,
      "Ġfaasaga": 2752,
      "ĠHai": 2753,
      "AE": 2754,
      "meli": 2755,
      "Ð»": 2756,
      "piau": 2757,
      "Ġnews": 2758,
      "ser": 2759,
      "cto": 2760,
      "ĠZhong": 2761,
      "Ġ2008": 2762,
      "ĠUru": 2763,
      "Ġaf": 2764,
      "ĠHu": 2765,
      "Ġlotu": 2766,
      "ĠAmerican": 2767,
      "Ġtei": 2768,
      "sima": 2769,
      "Ġpatino": 2770,
      "esuia": 2771,
      "ĠLigh": 2772,
      "Ġeau": 2773,
      "tis": 2774,
      "Ġmalie": 2775,
      "ĠAve": 2776,
      "taimi": 2777,
      "Ġapa": 2778,
      "bili": 2779,
      "ĠtaÊ»itasi": 2780,
      "Ġsusuga": 2781,
      "vel": 2782,
      "`,": 2783,
      "Ġmiliona": 2784,
      "jec": 2785,
      "2013": 2786,
      "Ġ45": 2787,
      "Ġ80": 2788,
      "ries": 2789,
      "Ġkama": 2790,
      "tte": 2791,
      "opoga": 2792,
      "vave": 2793,
      "Ġnoxi": 2794,
      "HA": 2795,
      "Ġartic": 2796,
      "foaga": 2797,
      "vid": 2798,
      "salini": 2799,
      "Ġulufale": 2800,
      "ĠRou": 2801,
      "Ġvis": 2802,
      "totonu": 2803,
      "ĠLua": 2804,
      "ela": 2805,
      "ĠDes": 2806,
      "pen": 2807,
      "Ġlumana": 2808,
      "Le": 2809,
      "Ġpuipuiga": 2810,
      "Äĥ": 2811,
      "Ġmaota": 2812,
      "Ġpipi": 2813,
      "hou": 2814,
      "sor": 2815,
      "IGA": 2816,
      "Ġtautala": 2817,
      "alua": 2818,
      "ĠCor": 2819,
      "vesite": 2820,
      "solopito": 2821,
      "ĠCA": 2822,
      "lass": 2823,
      "Ġsaunoaga": 2824,
      "price": 2825,
      "Ġen": 2826,
      "ofo": 2827,
      "mily": 2828,
      "ments": 2829,
      "UN": 2830,
      "toe": 2831,
      "Ġout": 2832,
      "ĠSila": 2833,
      "ĠEse": 2834,
      "talata": 2835,
      "ĠfesoÊ»otaÊ»iga": 2836,
      "ITA": 2837,
      "funa": 2838,
      "Ġci": 2839,
      "ĠPere": 2840,
      "ĠMoli": 2841,
      "bur": 2842,
      "ato": 2843,
      "Ġvaaiga": 2844,
      "ĠfaÊ»afefe": 2845,
      "ofi": 2846,
      "yu": 2847,
      "Ġfaaipoi": 2848,
      "Ġpula": 2849,
      "Ġsosoo": 2850,
      "ĠAf": 2851,
      "rani": 2852,
      "thi": 2853,
      "ncrea": 2854,
      "RI": 2855,
      "cial": 2856,
      "gna": 2857,
      "wau": 2858,
      "Ġgaosia": 2859,
      "PE": 2860,
      "cur": 2861,
      "ĠFes": 2862,
      "Ġtusitusiga": 2863,
      "Ġavatu": 2864,
      "seÄģ": 2865,
      "Ao": 2866,
      "ĠAM": 2867,
      "Ġtaunuu": 2868,
      "mateur": 2869,
      "Ġato": 2870,
      "ĠSM": 2871,
      "Ġ90": 2872,
      "ppi": 2873,
      "ler": 2874,
      "Ġfaapena": 2875,
      "Ġkulu": 2876,
      "ĠfaÊ»ata": 2877,
      "lolo": 2878,
      "Ġ08": 2879,
      "Ê»A": 2880,
      "Ġfeagai": 2881,
      "ĠJoh": 2882,
      "ĠTh": 2883,
      "ĠIN": 2884,
      "atino": 2885,
      "ĠîĻŁ": 2886,
      "Ġ05": 2887,
      "pt": 2888,
      "logi": 2889,
      "Ġauili": 2890,
      "tÄģ": 2891,
      "Faa": 2892,
      "ĠSpe": 2893,
      "up": 2894,
      "tegory": 2895,
      "ĠLatest": 2896,
      "Ġcho": 2897,
      "ĠTupe": 2898,
      "ĠMachine": 2899,
      "Ġaloaia": 2900,
      "tauina": 2901,
      "Ġtaui": 2902,
      "inai": 2903,
      "Ġsootaga": 2904,
      "Ġinisalini": 2905,
      "ĠfaÊ»amaoni": 2906,
      "laia": 2907,
      "Ġofu": 2908,
      "zhen": 2909,
      "toga": 2910,
      "ĠPM": 2911,
      "Ġfolafo": 2912,
      "Ġfaalavelave": 2913,
      "ste": 2914,
      "Ġbaia": 2915,
      "lette": 2916,
      "agaga": 2917,
      "chnology": 2918,
      "Ġmafu": 2919,
      "sene": 2920,
      "puipui": 2921,
      "ED": 2922,
      "Ê»ele": 2923,
      "ĠFaiga": 2924,
      "Ġall": 2925,
      "Ġ37": 2926,
      "ĠSui": 2927,
      "Pa": 2928,
      "Ġnaunau": 2929,
      "Ġblog": 2930,
      "sei": 2931,
      "ĠLin": 2932,
      "Ġmomo": 2933,
      "ĠtaÊ»aloga": 2934,
      "ĠMonth": 2935,
      "sign": 2936,
      "ords": 2937,
      "fc": 2938,
      "Ê»uga": 2939,
      "Ġpuna": 2940,
      "ĠAL": 2941,
      "pisinisi": 2942,
      "Ġlagolagoina": 2943,
      "earch": 2944,
      "esa": 2945,
      "Ġsauniga": 2946,
      "tate": 2947,
      "sao": 2948,
      "ĠKomiti": 2949,
      "ĠBer": 2950,
      "Ġtusitala": 2951,
      "rma": 2952,
      "ĠPeter": 2953,
      "Ġtusiga": 2954,
      "pei": 2955,
      "ĠALO": 2956,
      "nna": 2957,
      "à®": 2958,
      "Ġoa": 2959,
      "iala": 2960,
      "td": 2961,
      "Ġfaapa": 2962,
      "ĠMua": 2963,
      "ĠFra": 2964,
      "ĠGod": 2965,
      "Na": 2966,
      "Ġafe": 2967,
      "Ġmotu": 2968,
      "oata": 2969,
      "Ġmanaoga": 2970,
      "mma": 2971,
      "Ġyour": 2972,
      "ĠKerisiano": 2973,
      "Ġtogi": 2974,
      "ple": 2975,
      "Ġpapiau": 2976,
      "lizza": 2977,
      "lti": 2978,
      "pm": 2979,
      "zo": 2980,
      "Ġmanana": 2981,
      "ĠAiga": 2982,
      "Ġsuamalie": 2983,
      "mage": 2984,
      "ĠfaÊ»apefea": 2985,
      "milosaga": 2986,
      "mic": 2987,
      "Ġgwau": 2988,
      "erusa": 2989,
      "ING": 2990,
      "uila": 2991,
      "less": 2992,
      "ydro": 2993,
      "ĠMonthly": 2994,
      "Ġekalesia": 2995,
      "ĠIns": 2996,
      "rong": 2997,
      "Ġtumu": 2998,
      "erusale": 2999,
      "sca": 3000,
      "ĠID": 3001,
      "ĠvaÊ»aia": 3002,
      "Ġloia": 3003,
      "Ġegiteu": 3004,
      "ĠfaÊ»ailoga": 3005,
      "ĠManufacturer": 3006,
      "ĠAra": 3007,
      "Ġagai": 3008,
      "Ġtapua": 3009,
      "Ġausia": 3010,
      "Ġsilia": 3011,
      "wo": 3012,
      "ial": 3013,
      "tani": 3014,
      "ĠUnited": 3015,
      "Ġtofo": 3016,
      "ĠfaÊ»atulaga": 3017,
      "Ġtuai": 3018,
      "Ġtaugofie": 3019,
      "Ġ\\": 3020,
      "ĠtaÊ»avale": 3021,
      "kose": 3022,
      "Ġtulai": 3023,
      "cb": 3024,
      "ĠiP": 3025,
      "fono": 3026,
      "Ġumui": 3027,
      "Ġdin": 3028,
      "],": 3029,
      "tain": 3030,
      "Ġtamaoaiga": 3031,
      "cription": 3032,
      "Ġfofo": 3033,
      "ĠFaÊ»asalaga": 3034,
      "Ġresu": 3035,
      "mega": 3036,
      "tec": 3037,
      "Ð¾Ð": 3038,
      "Ġaloxo": 3039,
      "ĠFia": 3040,
      "bal": 3041,
      "vie": 3042,
      "iloa": 3043,
      "Amateur": 3044,
      "Ġpor": 3045,
      "Ġfata": 3046,
      "Ġnia": 3047,
      "ĠAlo": 3048,
      "rava": 3049,
      "fiafia": 3050,
      "dea": 3051,
      "Ġtago": 3052,
      "Ġaofaiga": 3053,
      "Ġfesuia": 3054,
      "Ġfilemu": 3055,
      "ĠFili": 3056,
      "Ġpele": 3057,
      "Ġphotos": 3058,
      "ml": 3059,
      "Ġfaagasologa": 3060,
      "ĠTur": 3061,
      "kapi": 3062,
      "Ġpalota": 3063,
      "Ġmar": 3064,
      "ĠTua": 3065,
      "Ġumia": 3066,
      "cces": 3067,
      "omaga": 3068,
      "ĠfaÊ»atautaia": 3069,
      "moni": 3070,
      "ĠsuÊ»esuÊ»e": 3071,
      "Ġsolitulafono": 3072,
      "Ġeiloa": 3073,
      "ĠLai": 3074,
      "muni": 3075,
      "ky": 3076,
      "las": 3077,
      "ĠAN": 3078,
      "Ġmy": 3079,
      "Ġmitema": 3080,
      "ĠMuli": 3081,
      "lf": 3082,
      "Ġpoloaiga": 3083,
      "pinion": 3084,
      "ket": 3085,
      "pepa": 3086,
      "un": 3087,
      "Ġ46": 3088,
      "nus": 3089,
      "Aofaiga": 3090,
      "ley": 3091,
      "Ġcan": 3092,
      "vice": 3093,
      "Ġaveesea": 3094,
      "ifale": 3095,
      "noanoa": 3096,
      "ĠManufacturers": 3097,
      "ks": 3098,
      "view": 3099,
      "ĠNove": 3100,
      "taÊ»itaÊ»i": 3101,
      "gen": 3102,
      "ĠFaga": 3103,
      "UE": 3104,
      "Ġ;": 3105,
      "ĠfaÊ»afitauli": 3106,
      "rin": 3107,
      "ĠIose": 3108,
      "Ġlao": 3109,
      "ĠFaamatalaga": 3110,
      "Ġtagi": 3111,
      "Ġaveese": 3112,
      "Ġmatai": 3113,
      "Ġinisi": 3114,
      "Ġpancrea": 3115,
      "Ġvu": 3116,
      "Ġkoa": 3117,
      "reat": 3118,
      "Ġtiute": 3119,
      "sian": 3120,
      "DI": 3121,
      "ĠFaÊ»amaumauga": 3122,
      "Fai": 3123,
      "Ġuasi": 3124,
      "umatia": 3125,
      "Ġopinion": 3126,
      "ĠfefaÊ»a": 3127,
      "ĠSua": 3128,
      "Ġ42": 3129,
      "........": 3130,
      "Ġmaea": 3131,
      "ĠBra": 3132,
      "ĠIS": 3133,
      "Ġsasa": 3134,
      "PU": 3135,
      "Ġsailia": 3136,
      "option": 3137,
      "kin": 3138,
      "Ġarticles": 3139,
      "vikala": 3140,
      "Ġaoao": 3141,
      "Ġuna": 3142,
      "ĠtoÊ»atele": 3143,
      "ĠKai": 3144,
      "Ġfaatali": 3145,
      "ĠÊ»au": 3146,
      "Ġpaa": 3147,
      "Ġhave": 3148,
      "Ġfusi": 3149,
      "fiafi": 3150,
      "Ni": 3151,
      "fb": 3152,
      "Ġint": 3153,
      "ĠTown": 3154,
      "yri": 3155,
      "Ġpasi": 3156,
      "lina": 3157,
      "ĠMose": 3158,
      "ĠInitaneti": 3159,
      "ney": 3160,
      "ĠII": 3161,
      "solosolo": 3162,
      "ded": 3163,
      "iliki": 3164,
      "AC": 3165,
      "tyle": 3166,
      "ĠFlo": 3167,
      "ĠPusa": 3168,
      "ĠAs": 3169,
      "ĠFaÊ»aa": 3170,
      "fatu": 3171,
      "ĠfaÊ»asalalauga": 3172,
      "Ġser": 3173,
      "ualizza": 3174,
      "Ġvile": 3175,
      "Ġtotogiina": 3176,
      "ĠaÊ»oga": 3177,
      "Ġtafe": 3178,
      "Ġfaatusa": 3179,
      "ET": 3180,
      "Ġche": 3181,
      "ĠSele": 3182,
      "Ġpar": 3183,
      "aaac": 3184,
      "ĠQua": 3185,
      "ĠCol": 3186,
      "ĠAge": 3187,
      "ĠfaÊ»afo": 3188,
      "zer": 3189,
      "FI": 3190,
      "ĠAP": 3191,
      "rana": 3192,
      "den": 3193,
      "ĠGeor": 3194,
      "ĠMay": 3195,
      "eleele": 3196,
      "Ê»itaÊ»i": 3197,
      "Ġiloilo": 3198,
      "kau": 3199,
      "rui": 3200,
      "ailoga": 3201,
      "ĠIesus": 3202,
      "sho": 3203,
      "Ġvada": 3204,
      "Ġ47": 3205,
      "Ġliliu": 3206,
      "ĠfaÊ»aleagaina": 3207,
      "ĠfaÊ»atino": 3208,
      "unaga": 3209,
      "poga": 3210,
      "Ð°Ð": 3211,
      "Ġfaafetai": 3212,
      ");": 3213,
      "rial": 3214,
      "ĠLalolagi": 3215,
      "Ġalamanuia": 3216,
      "led": 3217,
      "Ġï¿½ï¿½ï¿½ï¿½ï¿½ï¿½ï¿½ï¿½ï¿½ï¿½ï¿½ï¿½ï¿½": 3218,
      "Ġ39": 3219,
      "ĠMaria": 3220,
      "ĠPepa": 3221,
      "ĠLoto": 3222,
      "eld": 3223,
      "ĠSouth": 3224,
      "ualizzazioni": 3225,
      "ĠSolo": 3226,
      "Ġmasalo": 3227,
      "loalo": 3228,
      "MW": 3229,
      "Ġsuauu": 3230,
      "lee": 3231,
      "momo": 3232,
      "ĠWeb": 3233,
      "ttoos": 3234,
      "Ġres": 3235,
      "Ġmer": 3236,
      "Ġfefe": 3237,
      "eight": 3238,
      "ani": 3239,
      "Ġfaalagolago": 3240,
      "Ġatamai": 3241,
      "afa": 3242,
      "Ġnoho": 3243,
      "gy": 3244,
      "ĠVaa": 3245,
      "mis": 3246,
      "by": 3247,
      "thy": 3248,
      "mita": 3249,
      "Ġ300": 3250,
      "ĠIoane": 3251,
      "ÛĮ": 3252,
      "Ġ2007": 3253,
      "Ġmago": 3254,
      "siaga": 3255,
      "ĠTE": 3256,
      "dc": 3257,
      "Ġvisualizzazioni": 3258,
      "lilo": 3259,
      "ĠIerusale": 3260,
      "onga": 3261,
      "erior": 3262,
      "tics": 3263,
      "rica": 3264,
      "ĠSan": 3265,
      "Ġ011": 3266,
      "Ġnot": 3267,
      "Ġfala": 3268,
      "cifi": 3269,
      "ĠWorld": 3270,
      "nction": 3271,
      "xf": 3272,
      "Ġvalalua": 3273,
      "ĠSuppliers": 3274,
      "Ġ38": 3275,
      "ĠFAÊ»A": 3276,
      "101": 3277,
      "Ġcha": 3278,
      "ÂŃ": 3279,
      "Ġfaatu": 3280,
      "ĠAoa": 3281,
      "nafi": 3282,
      "Ġhenia": 3283,
      "ava": 3284,
      "à°": 3285,
      "oard": 3286,
      "kinolosi": 3287,
      "Ġsilafia": 3288,
      "tone": 3289,
      "lity": 3290,
      "Fe": 3291,
      "Ġseia": 3292,
      "ĠBlue": 3293,
      "turi": 3294,
      "Ġpou": 3295,
      "ering": 3296,
      "ĠAva": 3297,
      "jac": 3298,
      "gin": 3299,
      "Ġ70": 3300,
      "ĠfaÊ»asalalau": 3301,
      "Ġtofia": 3302,
      "Ġafiafi": 3303,
      "inumera": 3304,
      "tasia": 3305,
      "sona": 3306,
      "Ġloloto": 3307,
      "ĠTavita": 3308,
      "Ġhas": 3309,
      "Ġmg": 3310,
      "lava": 3311,
      "Ġweb": 3312,
      "keto": 3313,
      "Au": 3314,
      "</": 3315,
      "fitia": 3316,
      "Ġwww": 3317,
      "quare": 3318,
      "tus": 3319,
      "totino": 3320,
      "ĠÊ»": 3321,
      "ht": 3322,
      "Ġsee": 3323,
      "SS": 3324,
      "Ġlaasaga": 3325,
      "Ġ44": 3326,
      "gue": 3327,
      "Ġsiitia": 3328,
      "Ġfuga": 3329,
      "pati": 3330,
      "tasiga": 3331,
      "110": 3332,
      "Ġkovana": 3333,
      "sani": 3334,
      "clu": 3335,
      "ĠFaÊ»asologa": 3336,
      "dong": 3337,
      "tafe": 3338,
      "key": 3339,
      "Ñĥ": 3340,
      "rus": 3341,
      "Ġfeusua": 3342,
      "Ġfaamau": 3343,
      "ving": 3344,
      "Ġgafatia": 3345,
      "Ġijac": 3346,
      "Ġup": 3347,
      "Ġet": 3348,
      "soli": 3349,
      "ĠfaÊ»alo": 3350,
      "ĠAtu": 3351,
      "ĠApp": 3352,
      "tika": 3353,
      "false": 3354,
      "&#": 3355,
      "ĠRoulette": 3356,
      "matalaina": 3357,
      "Dong": 3358,
      "ean": 3359,
      "Ġmatamata": 3360,
      "veaÊ»i": 3361,
      "ĠÂ·": 3362,
      "Ġmamoe": 3363,
      "fon": 3364,
      "ĠOi": 3365,
      "pre": 3366,
      "Ġcia": 3367,
      "Ġ>>": 3368,
      "https": 3369,
      "sco": 3370,
      "Ġosofa": 3371,
      "ham": 3372,
      "ĠItu": 3373,
      "AT": 3374,
      "Ġleva": 3375,
      "ĠIsra": 3376,
      "ĠGuangDong": 3377,
      "ĠGaluega": 3378,
      "comparebc": 3379,
      "lm": 3380,
      "Ġprote": 3381,
      "Ġlatalata": 3382,
      "ĠfaÊ»aopo": 3383,
      "ĠLou": 3384,
      "ĠHer": 3385,
      "Ġ43": 3386,
      "Ġmautu": 3387,
      "Ġtetee": 3388,
      "Ġ@": 3389,
      "Ġgau": 3390,
      "esema": 3391,
      "tian": 3392,
      "Mo": 3393,
      "Ġcor": 3394,
      "Ġfaaitiitia": 3395,
      "Ġmumu": 3396,
      "Ġamuto": 3397,
      "Ġmalolo": 3398,
      "ĠaÊ»oaÊ»oina": 3399,
      "Ġinter": 3400,
      "db": 3401,
      "ĠColo": 3402,
      "Ġwill": 3403,
      "Ġitumalo": 3404,
      "ĠCou": 3405,
      "Ġâĸ": 3406,
      "ĠShi": 3407,
      "sita": 3408,
      "ĠMatau": 3409,
      "Ġtamaititi": 3410,
      "ĠAli": 3411,
      "atele": 3412,
      "ĠLW": 3413,
      "EM": 3414,
      "Ġfaasologa": 3415,
      "dan": 3416,
      "ĠGuangdong": 3417,
      "Ġlogo": 3418,
      "riti": 3419,
      "Ġaka": 3420,
      "urni": 3421,
      "Ġ75": 3422,
      "Ġeleele": 3423,
      "vaÊ»a": 3424,
      "ĠWhite": 3425,
      "Ġfaamalosia": 3426,
      "moega": 3427,
      "ĠmafuaÊ»aga": 3428,
      "-%": 3429,
      "sto": 3430,
      "lon": 3431,
      "ĠeleÊ»ele": 3432,
      "Ġaoaoga": 3433,
      "ĠCOB": 3434,
      "ĠDownload": 3435,
      "Ġmoliuila": 3436,
      "ĠIanua": 3437,
      "faatauaiga": 3438,
      "OF": 3439,
      "Ġfaatagaina": 3440,
      "lalata": 3441,
      "bout": 3442,
      "ĠTATOU": 3443,
      "ĠCare": 3444,
      "):": 3445,
      "kuso": 3446,
      "Ġatua": 3447,
      "ĠfaÊ»alauteleina": 3448,
      "tine": 3449,
      "Ġmafaufa": 3450,
      "Ġmiles": 3451,
      "loti": 3452,
      "ĠFaÊ»atasi": 3453,
      "ĠMetro": 3454,
      "Ġpese": 3455,
      "fied": 3456,
      "ĠChrist": 3457,
      "Ġleila": 3458,
      "rua": 3459,
      "coin": 3460,
      "Ġdes": 3461,
      "(\"": 3462,
      "ĠOF": 3463,
      "blic": 3464,
      "Ġmano": 3465,
      "Ġtapena": 3466,
      "Ġvaitau": 3467,
      "sts": 3468,
      "Ġsaunoa": 3469,
      "an": 3470,
      "ĠFace": 3471,
      "ence": 3472,
      "Ġkulukose": 3473,
      "){": 3474,
      "AD": 3475,
      "ust": 3476,
      "Ġiuni": 3477,
      "as": 3478,
      "Ġfaasino": 3479,
      "cks": 3480,
      "ĠONA": 3481,
      "Ġtetala": 3482,
      "lasila": 3483,
      "ĠAlu": 3484,
      "Ġuli": 3485,
      "Ġsesele": 3486,
      "Ġaofa": 3487,
      "Ġuamea": 3488,
      "ilo": 3489,
      "mas": 3490,
      "Ġmatagaluega": 3491,
      "Ġ150": 3492,
      "Ġ250": 3493,
      "Ġ----": 3494,
      "rona": 3495,
      "Ġcolor": 3496,
      "feta": 3497,
      "talanoaga": 3498,
      "eries": 3499,
      "setalia": 3500,
      "cf": 3501,
      "color": 3502,
      "tar": 3503,
      "tie": 3504,
      "Ġtipi": 3505,
      "Se": 3506,
      "UM": 3507,
      "ĠTaga": 3508,
      "Ġvaitaimi": 3509,
      "ĠEga": 3510,
      "Ġap": 3511,
      "oaga": 3512,
      "toatasi": 3513,
      "Ġ-----": 3514,
      "totia": 3515,
      "ĠFaletupe": 3516,
      "Â¦": 3517,
      "Ġhis": 3518,
      "Ġfaiaoga": 3519,
      "rine": 3520,
      "ĠTaua": 3521,
      "Ġsy": 3522,
      "Ġ55": 3523,
      "Ġfaavavau": 3524,
      "Ġmore": 3525,
      "Ġcus": 3526,
      "Ġ41": 3527,
      "ĠBro": 3528,
      "ĠFI": 3529,
      "reet": 3530,
      "Ġogaoga": 3531,
      "Ġver": 3532,
      "uru": 3533,
      "Ê»amea": 3534,
      "menta": 3535,
      "ĠMicro": 3536,
      "ncy": 3537,
      "atonu": 3538,
      "Ġoona": 3539,
      "Ġ65": 3540,
      "stro": 3541,
      "ĠCoa": 3542,
      "ĠfaÊ»aloÊ»oina": 3543,
      "Ġtauave": 3544,
      "Ġsini": 3545,
      "ĠPase": 3546,
      "Tu": 3547,
      "Ġmoe": 3548,
      "ĠCR": 3549,
      "AM": 3550,
      "Ġonline": 3551,
      "bri": 3552,
      "tul": 3553,
      "ĠProvi": 3554,
      "tiva": 3555,
      "ĠTesema": 3556,
      "ĠGreen": 3557,
      "mauina": 3558,
      "Ġteena": 3559,
      "rian": 3560,
      "Ġananafi": 3561,
      "Ġpiti": 3562,
      "konolosi": 3563,
      "Ġolioli": 3564,
      "ĠAqua": 3565,
      "Ġthesis": 3566,
      "ĠNofoaga": 3567,
      "cor": 3568,
      "amoemoe": 3569,
      "Ġfaafe": 3570,
      "Ġchi": 3571,
      "ĠTafuna": 3572,
      "ĠAndroid": 3573,
      "ĠTotonu": 3574,
      "ĠÂ«": 3575,
      "Ġsha": 3576,
      "fika": 3577,
      "Ġpm": 3578,
      "sitala": 3579,
      "set": 3580,
      "ĠâĢĶ": 3581,
      "ware": 3582,
      "ĠaÊ»afia": 3583,
      "Ġtupulaga": 3584,
      "ffe": 3585,
      "Ġ52": 3586,
      "lÄĵ": 3587,
      "Ġsei": 3588,
      "feau": 3589,
      "Ġtutu": 3590,
      "Ġiina": 3591,
      "Ġvavalalata": 3592,
      "PO": 3593,
      "Ġtea": 3594,
      "Ġtauvaga": 3595,
      "Ġtioata": 3596,
      "oro": 3597,
      "ĠFilifi": 3598,
      "Ġone": 3599,
      "Ġlipoti": 3600,
      "panÄ«": 3601,
      "ĠMuamua": 3602,
      "ĠPaÊ»u": 3603,
      "vao": 3604,
      "rex": 3605,
      "ĠTag": 3606,
      "Ġfaatupu": 3607,
      "132": 3608,
      "ĠAusetalia": 3609,
      "ĠFS": 3610,
      "ĠFU": 3611,
      "milo": 3612,
      "Ø±": 3613,
      "Ġspe": 3614,
      "ĠOU": 3615,
      "ĠFaia": 3616,
      "Ġtifaga": 3617,
      "Ġmeli": 3618,
      "?????": 3619,
      "ĠIunivesite": 3620,
      "uaina": 3621,
      "Ġtapu": 3622,
      "Ġlaupapa": 3623,
      "ĠJohn": 3624,
      "ĠAC": 3625,
      "Ġioe": 3626,
      "ĠUK": 3627,
      "ono": 3628,
      "Ã¡": 3629,
      "ĠIanuari": 3630,
      "zz": 3631,
      "ned": 3632,
      "ĠOr": 3633,
      "Ġlakapi": 3634,
      "TAU": 3635,
      "Ou": 3636,
      "Ġfaaaliga": 3637,
      "Ġnatura": 3638,
      "Ġtausiga": 3639,
      "ĠPuipu": 3640,
      "old": 3641,
      "Ġtano": 3642,
      "nci": 3643,
      "Ġkapa": 3644,
      "ystem": 3645,
      "Ġmusi": 3646,
      "ĠfaÊ»amaoniga": 3647,
      "Ġeseesega": 3648,
      "Ġuluai": 3649,
      "Ġfesuiaiga": 3650,
      "TC": 3651,
      "ĠSpa": 3652,
      "ĠpeÊ»a": 3653,
      "Ġmita": 3654,
      "forma": 3655,
      "Ġsami": 3656,
      "ool": 3657,
      "nel": 3658,
      "lao": 3659,
      "luluga": 3660,
      "mple": 3661,
      "mpi": 3662,
      "ĠPago": 3663,
      "Ġresume": 3664,
      "GB": 3665,
      "salo": 3666,
      "Ġtalitonuga": 3667,
      "ĠTAL": 3668,
      "Ġibou": 3669,
      "ĠDr": 3670,
      "Ġsiama": 3671,
      "Ġeni": 3672,
      "GO": 3673,
      "VE": 3674,
      "ĠLinear": 3675,
      "Ġfaletupe": 3676,
      "eso": 3677,
      "ĠHar": 3678,
      "Ġlauulu": 3679,
      "ĠâĨ": 3680,
      "fesoo": 3681,
      "Ġ53": 3682,
      "Ġkala": 3683,
      "Ġpeita": 3684,
      "Ġmee": 3685,
      "ĠvaÊ»ai": 3686,
      "Ġfonotaga": 3687,
      "ĠaÊ»o": 3688,
      "mar": 3689,
      "strong": 3690,
      "Ġtoeaina": 3691,
      "nina": 3692,
      "Ġlampa": 3693,
      "ĠPart": 3694,
      "ĠAg": 3695,
      "ĠSEO": 3696,
      "zu": 3697,
      "ĠCob": 3698,
      "lumalu": 3699,
      "zon": 3700,
      "Ġabi": 3701,
      "ĠTrans": 3702,
      "eSi": 3703,
      "ali": 3704,
      "http": 3705,
      "mento": 3706,
      "urniture": 3707,
      "Ġlaua": 3708,
      "lester": 3709,
      "nds": 3710,
      "Ġ57": 3711,
      "giteu": 3712,
      "KA": 3713,
      "Ġmafatia": 3714,
      "Ġauto": 3715,
      "fessi": 3716,
      "Ġfaaola": 3717,
      "ĠPeitaÊ»i": 3718,
      "saoa": 3719,
      "SM": 3720,
      "ĠHotel": 3721,
      "ĠTahalo": 3722,
      "luina": 3723,
      "ĠÙ": 3724,
      "Ġ{\"": 3725,
      "ĠAfioga": 3726,
      "Ġany": 3727,
      "Ġop": 3728,
      "ĠHD": 3729,
      "SW": 3730,
      "ngle": 3731,
      "Ġfausiaina": 3732,
      "Ġtatalaina": 3733,
      "ĠNE": 3734,
      "ĠâĢĭ": 3735,
      "rese": 3736,
      "Ġene": 3737,
      "Ġuuna": 3738,
      "ĠSoifua": 3739,
      "ĠTeuina": 3740,
      "GH": 3741,
      "ĠMer": 3742,
      "085": 3743,
      "sii": 3744,
      "Ġfaalili": 3745,
      "??.": 3746,
      "500": 3747,
      "Ġsana": 3748,
      "para": 3749,
      "Ġmetotia": 3750,
      "very": 3751,
      "Ġfalepuipui": 3752,
      "of": 3753,
      "Ġfaaupu": 3754,
      "Ġtomi": 3755,
      "erila": 3756,
      "vaia": 3757,
      "ĠKing": 3758,
      "lock": 3759,
      "Ġkuka": 3760,
      "ĠLatou": 3761,
      "Ġamataina": 3762,
      "eu": 3763,
      "Ġate": 3764,
      "ĠfaÊ»amoemoe": 3765,
      "ongo": 3766,
      "Ġpara": 3767,
      "Ġsiosi": 3768,
      "âĤ¬": 3769,
      "ĠFeagaiga": 3770,
      "kes": 3771,
      "\".": 3772,
      "ĠOpti": 3773,
      "Ġfree": 3774,
      "ĠTulaga": 3775,
      "ofogia": 3776,
      "ĠShe": 3777,
      "Ġtaliaina": 3778,
      "ype": 3779,
      "ĠThis": 3780,
      "liu": 3781,
      "ĠNum": 3782,
      "vile": 3783,
      "bai": 3784,
      "rio": 3785,
      "Ġslots": 3786,
      "Ġoto": 3787,
      "Ġfaasalalauga": 3788,
      "Ġlomiga": 3789,
      "Ġlafoga": 3790,
      "Ġspa": 3791,
      "ĠAtonu": 3792,
      "ï¿½ï¿½ï¿½ï¿½ï¿½ï¿½": 3793,
      "rum": 3794,
      "ĠTamai": 3795,
      "Ġmeatotino": 3796,
      "afo": 3797,
      "nto": 3798,
      "ĠCla": 3799,
      "low": 3800,
      "sted": 3801,
      "Ġ64": 3802,
      "asa": 3803,
      "Ġcialis": 3804,
      "Ġpine": 3805,
      "Ġaisama": 3806,
      "ï¿½ï¿½ï¿½ï¿½ï¿½": 3807,
      "Ġtauna": 3808,
      "Ġtaula": 3809,
      "ĠâĢĭâĢĭ": 3810,
      "tui": 3811,
      "fuase": 3812,
      "ters": 3813,
      "nera": 3814,
      "saÊ»o": 3815,
      "ĠaÊ»oaÊ»oga": 3816,
      "late": 3817,
      "ĠKamu": 3818,
      "koa": 3819,
      "Ġfausaga": 3820,
      "ĠTea": 3821,
      "ĠoÊ»u": 3822,
      "Ġafio": 3823,
      "Ġdanu": 3824,
      "Ġtattoo": 3825,
      "titia": 3826,
      "ĠPuna": 3827,
      "Ġfaaleagaina": 3828,
      "ĠPC": 3829,
      "posi": 3830,
      "noaina": 3831,
      ".âĢĶ": 3832,
      "ain": 3833,
      "Ġfagu": 3834,
      "Ġiu": 3835,
      "jpg": 3836,
      "ĠCre": 3837,
      "ĠkamupanÄ«": 3838,
      "ĠHawai": 3839,
      "ĠLWW": 3840,
      "matic": 3841,
      "ntru": 3842,
      "ðŁ": 3843,
      "tana": 3844,
      "pping": 3845,
      "ĠIsi": 3846,
      "ĠTupulaina": 3847,
      "ĠAperila": 3848,
      "ĠMB": 3849,
      "mail": 3850,
      "ĠPalemia": 3851,
      "ĠuÊ»amea": 3852,
      "wit": 3853,
      "gram": 3854,
      "Ġtoese": 3855,
      "ons": 3856,
      "mages": 3857,
      "Ġmafutaga": 3858,
      "cco": 3859,
      "ĠDia": 3860,
      "Ġhea": 3861,
      "ĠCategory": 3862,
      "Ġqua": 3863,
      ";&": 3864,
      "Ġmanogi": 3865,
      "Ġvao": 3866,
      "ĠfaÊ»apipiÊ»iina": 3867,
      "Ðº": 3868,
      "gatupe": 3869,
      "300": 3870,
      "ĠLtd": 3871,
      "Ġfesootaiga": 3872,
      "tors": 3873,
      "Ġfaapotopotoga": 3874,
      "faina": 3875,
      "HI": 3876,
      "ĠLataua": 3877,
      "ĠBea": 3878,
      "Faitau": 3879,
      "Ġtekinolosi": 3880,
      "sity": 3881,
      "ĠCM": 3882,
      "ĠPar": 3883,
      "ĠIoe": 3884,
      "Ġhypo": 3885,
      "ved": 3886,
      "Ġtotoe": 3887,
      "lesterol": 3888,
      "Ġ49": 3889,
      "ĠIutaia": 3890,
      "ester": 3891,
      "Ġfaatonuina": 3892,
      "Ġpaaga": 3893,
      "âĢĿ,": 3894,
      "Ġsiosiomaga": 3895,
      "ï¿½ï¿½ï¿½ï¿½ï¿½ï¿½ï¿½": 3896,
      "ĠFaamasinoga": 3897,
      "ĠAiseÄģ": 3898,
      "Ġuta": 3899,
      "ĠTags": 3900,
      "Ġoio": 3901,
      "Ġfaamatala": 3902,
      "ĠSelect": 3903,
      "!âĢĿ": 3904,
      "Ar": 3905,
      "à¹": 3906,
      "ĠfaÊ»atonu": 3907,
      "ainai": 3908,
      "function": 3909,
      "tafa": 3910,
      "ĠAnu": 3911,
      "ĠSiamani": 3912,
      "ĠfaÊ»aauau": 3913,
      "tting": 3914,
      "Ġfaaleagaga": 3915,
      "pla": 3916,
      "Ġvagana": 3917,
      "Ġfola": 3918,
      "Ġ525": 3919,
      "Ġtoetoe": 3920,
      "itcoin": 3921,
      "out": 3922,
      "jects": 3923,
      "views": 3924,
      "xy": 3925,
      "ĠSupplier": 3926,
      "Ġfaataa": 3927,
      "ĠKu": 3928,
      "ĠFaÊ»ailoga": 3929,
      "ĠFaÊ»atonu": 3930,
      "ĠQue": 3931,
      "ĠSlot": 3932,
      "Ġtaumafataga": 3933,
      "upuu": 3934,
      "ĠNovema": 3935,
      ";+": 3936,
      "ĠIL": 3937,
      "pipii": 3938,
      "ĠPapa": 3939,
      "ĠFull": 3940,
      "Ġiloiloina": 3941,
      "lizon": 3942,
      "ĠSetema": 3943,
      "rata": 3944,
      "yan": 3945,
      "enisi": 3946,
      "ĠIe": 3947,
      "ĠSena": 3948,
      "Ġtime": 3949,
      "Ġaoina": 3950,
      "Ġofoofogia": 3951,
      "ĠAcne": 3952,
      "ĠRes": 3953,
      "Ġ2000": 3954,
      "ĠStreet": 3955,
      "ĠAgaga": 3956,
      "ĠIerusalema": 3957,
      "ĠCu": 3958,
      "ĠNorth": 3959,
      "esus": 3960,
      "ĠKor": 3961,
      "sÄģ": 3962,
      "250": 3963,
      "otia": 3964,
      "Ġsona": 3965,
      "Ġworld": 3966,
      "Ġfaamasino": 3967,
      "ĠSto": 3968,
      "Ġabout": 3969,
      "side": 3970,
      "vÄģ": 3971,
      "Ġstyle": 3972,
      "ĠSala": 3973,
      "ĠMataupu": 3974,
      "ĠAt": 3975,
      "2020": 3976,
      "aia": 3977,
      "ĠLuga": 3978,
      "Ġsailiga": 3979,
      "Ġiloga": 3980,
      "ez": 3981,
      "LD": 3982,
      "Ġmaise": 3983,
      "lio": 3984,
      "isea": 3985,
      "fafine": 3986,
      "Ġxa": 3987,
      "ĠOS": 3988,
      "laua": 3989,
      "lui": 3990,
      "ĠfaÊ»atagaina": 3991,
      "Ġfaamaumauga": 3992,
      "vaaia": 3993,
      "sage": 3994,
      "ties": 3995,
      "ĠWe": 3996,
      "ĠUp": 3997,
      "Ġvavae": 3998,
      "male": 3999,
      "Ġimeli": 4000,
      "Ġsisi": 4001,
      "ĠVer": 4002,
      "tini": 4003,
      "ĠTuputupu": 4004,
      "moemoega": 4005,
      "oe": 4006,
      "ĠTer": 4007,
      "Ġusu": 4008,
      "Ġfaate": 4009,
      "OU": 4010,
      "sing": 4011,
      "Ġleiloa": 4012,
      "ĠfaÊ»apea": 4013,
      "ĠfaÊ»atusa": 4014,
      "ful": 4015,
      "aua": 4016,
      "Ġwho": 4017,
      "poa": 4018,
      "Ġfesootai": 4019,
      "Ġaoaoina": 4020,
      "leo": 4021,
      "Ġano": 4022,
      "pany": 4023,
      "hiabada": 4024,
      "link": 4025,
      "Ġuaea": 4026,
      "lega": 4027,
      "ctor": 4028,
      "ĠTri": 4029,
      "Ġbai": 4030,
      "ors": 4031,
      "ĠIako": 4032,
      "Ġter": 4033,
      "Ġatia": 4034,
      "ĠfaÊ»ateleina": 4035,
      "url": 4036,
      "ST": 4037,
      "ĠkolÄģ": 4038,
      "ĠTattoo": 4039,
      "lyce": 4040,
      "Ġteinei": 4041,
      "del": 4042,
      "rypto": 4043,
      "ĠSun": 4044,
      "xali": 4045,
      "file": 4046,
      "ĠTop": 4047,
      "yo": 4048,
      "ĠaogÄģ": 4049,
      "nca": 4050,
      "ĠfaÊ»afesoÊ»otaÊ»i": 4051,
      "Ġtoso": 4052,
      "vent": 4053,
      "Ġamioga": 4054,
      "non": 4055,
      "daa": 4056,
      "lme": 4057,
      "talo": 4058,
      "ĠMama": 4059,
      "sychi": 4060,
      "ĠfaÊ»atulagaina": 4061,
      "nofo": 4062,
      "âĢĭâĢĶ": 4063,
      "ĠBur": 4064,
      "ĠPasefika": 4065,
      "Ġsub": 4066,
      "ĠFaÊ»afesoÊ»otaÊ»i": 4067,
      "Ġpua": 4068,
      "Ġriba": 4069,
      "Ġfaamanuiaga": 4070,
      "Ġafioaga": 4071,
      "fessional": 4072,
      "aaa": 4073,
      "puari": 4074,
      "HE": 4075,
      "munity": 4076,
      "OO": 4077,
      "rg": 4078,
      "tru": 4079,
      "ridi": 4080,
      "trol": 4081,
      "Ġhereva": 4082,
      "ofeta": 4083,
      "ĠSpi": 4084,
      "Ġkomiti": 4085,
      "fesootai": 4086,
      "ller": 4087,
      "ĠPhlizon": 4088,
      "à¥": 4089,
      "ĠOla": 4090,
      "lysis": 4091,
      "Ġtalosagaina": 4092,
      "ĠSU": 4093,
      "Ġmafaufauga": 4094,
      "Ġ::": 4095,
      "ĠSP": 4096,
      "Ġigo": 4097,
      "Ġtahalo": 4098,
      "ĠGui": 4099,
      "\\\"": 4100,
      "rst": 4101,
      "fita": 4102,
      "xx": 4103,
      "Ġmalae": 4104,
      "Ġkea": 4105,
      "lieina": 4106,
      "ĠAll": 4107,
      "Ġafifi": 4108,
      "ĠfaÊ»alauiloa": 4109,
      "Ġmanua": 4110,
      "Ġpulu": 4111,
      "ray": 4112,
      "ĠTina": 4113,
      "Ġpaga": 4114,
      "Ġcholesterol": 4115,
      "&&": 4116,
      "Ġmeaola": 4117,
      "ĠAuala": 4118,
      "lautusi": 4119,
      "Ġmataga": 4120,
      "chool": 4121,
      "ĠEli": 4122,
      "Ġkiliki": 4123,
      "hy": 4124,
      "Ġja": 4125,
      "Ġtoalua": 4126,
      "ĠVol": 4127,
      "ĠLights": 4128,
      "ĠVaÊ»a": 4129,
      "Ġtofiga": 4130,
      "Ġgalo": 4131,
      "hua": 4132,
      "Ġkau": 4133,
      "ĠChev": 4134,
      "Ġabia": 4135,
      "à¶": 4136,
      "nglish": 4137,
      "ĠHon": 4138,
      "Ġalumini": 4139,
      "Ġili": 4140,
      "ĠlaÊ»i": 4141,
      "ĠLampa": 4142,
      "Ġue": 4143,
      "cus": 4144,
      "Ġmatauina": 4145,
      "work": 4146,
      "ĠAsia": 4147,
      "ked": 4148,
      "Ġfasiotia": 4149,
      "pose": 4150,
      "ĠlumanaÊ»i": 4151,
      "dis": 4152,
      "ĠFepuari": 4153,
      "ĠLeather": 4154,
      "tuna": 4155,
      "text": 4156,
      "Ġfaipule": 4157,
      "Ġpasia": 4158,
      "llia": 4159,
      "Ġ54": 4160,
      "zione": 4161,
      "mone": 4162,
      "tho": 4163,
      "bon": 4164,
      "Ġmari": 4165,
      "Ġtafai": 4166,
      "UC": 4167,
      "back": 4168,
      "yota": 4169,
      "ĠFaavae": 4170,
      "muamua": 4171,
      "Ġbena": 4172,
      "Ġilo": 4173,
      "Ġsoio": 4174,
      "Ġagavaa": 4175,
      "Ġatiina": 4176,
      "Ġwhi": 4177,
      "ĠMasini": 4178,
      "Ġfuainumera": 4179,
      "Ġmeta": 4180,
      "ĠPlant": 4181,
      "Ê¼u": 4182,
      "Ġfugalaau": 4183,
      "Ġauro": 4184,
      "ĠTotogi": 4185,
      "ĠLanu": 4186,
      "ĠnaÊ»o": 4187,
      "Ġcou": 4188,
      "Ġsilasila": 4189,
      "Ġvalue": 4190,
      "ĠDavid": 4191,
      "Ġcarca": 4192,
      "Ġfefaatauaiga": 4193,
      "Ġlauga": 4194,
      "ĠMoni": 4195,
      "projects": 4196,
      "AGA": 4197,
      "Ġfalaoa": 4198,
      "caad": 4199,
      "nuÊ»u": 4200,
      "meo": 4201,
      "fao": 4202,
      "Ġauiliiliga": 4203,
      "Ġmalu": 4204,
      "Ø§Ù": 4205,
      "Ġtuaoi": 4206,
      "Ġuliuli": 4207,
      "Ġascaad": 4208,
      "lualu": 4209,
      "ĠOptima": 4210,
      "Ġsale": 4211,
      "Ġ????": 4212,
      "gea": 4213,
      "ĠApri": 4214,
      "ĠPeretania": 4215,
      "Ġseti": 4216,
      "ĠAppli": 4217,
      "Lu": 4218,
      "oxo": 4219,
      "rei": 4220,
      ".âĢĿ+": 4221,
      "Ġtafailagi": 4222,
      "BA": 4223,
      "ĠMulimuli": 4224,
      "ENT": 4225,
      "Ġmalulu": 4226,
      "Ġtuufaatasiga": 4227,
      "Ġfaatoa": 4228,
      "ĠJi": 4229,
      "ĠTor": 4230,
      "ketopa": 4231,
      "ĠWest": 4232,
      "quo": 4233,
      "apitoa": 4234,
      "afetai": 4235,
      "Ġmauga": 4236,
      "rium": 4237,
      "ĠDirava": 4238,
      "ĠMalaga": 4239,
      "Ġback": 4240,
      "ĠGeorgia": 4241,
      "ĠLohiabada": 4242,
      "Ġnonogatupe": 4243,
      "Ġfaatinoina": 4244,
      "ĠEmi": 4245,
      "ĠRub": 4246,
      "ic": 4247,
      "tula": 4248,
      "hea": 4249,
      "Ġ1000": 4250,
      "Ġkoe": 4251,
      "ĠMatai": 4252,
      "ged": 4253,
      "care": 4254,
      "agana": 4255,
      "Ġtalafaa": 4256,
      "FK": 4257,
      "Ġlele": 4258,
      "ĠJesus": 4259,
      "atulaga": 4260,
      "ĠTino": 4261,
      "Ġgabu": 4262,
      "Ġfaalapotopotoga": 4263,
      "ĠHack": 4264,
      "ĠIT": 4265,
      "rolet": 4266,
      "ball": 4267,
      "Ġkm": 4268,
      "00000000": 4269,
      "ĠAoao": 4270,
      "Ġrona": 4271,
      "oio": 4272,
      "lepe": 4273,
      "ealth": 4274,
      "Vi": 4275,
      "cta": 4276,
      "torial": 4277,
      "ĠMala": 4278,
      "Ġfaaletonu": 4279,
      "ĠLautele": 4280,
      "ĠManatu": 4281,
      "alavelave": 4282,
      "Ġlaueleele": 4283,
      "ĠNA": 4284,
      "Ġfaaali": 4285,
      "Ġfeilo": 4286,
      "sychic": 4287,
      "Ġfatuina": 4288,
      "Ġfut": 4289,
      "rate": 4290,
      "aloga": 4291,
      "cio": 4292,
      "ĠLolomi": 4293,
      "Ġzi": 4294,
      "nal": 4295,
      "ĠfesoÊ»otaÊ»i": 4296,
      "ĠPA": 4297,
      "zy": 4298,
      "Ġima": 4299,
      "san": 4300,
      "ĠmanaÊ»oga": 4301,
      "ĠfaÊ»afefea": 4302,
      "ĠOut": 4303,
      "Ê»oaÊ»oga": 4304,
      "ĠtelÄģ": 4305,
      "Ġalia": 4306,
      "cra": 4307,
      "Ġtrans": 4308,
      "ĠFausia": 4309,
      "ĠMis": 4310,
      "ĠPark": 4311,
      "ĠfaÊ»ataÊ»itaÊ»i": 4312,
      "Ġnige": 4313,
      "ĠChevrolet": 4314,
      "Ġab": 4315,
      "Ġmerera": 4316,
      "ĠKamupani": 4317,
      "tato": 4318,
      "Ġgood": 4319,
      "puaga": 4320,
      "ngine": 4321,
      "Ġxe": 4322,
      "soft": 4323,
      "INI": 4324,
      "tama": 4325,
      "Ġtuutu": 4326,
      "OH": 4327,
      "à·": 4328,
      "ĠIli": 4329,
      "Ġfufulu": 4330,
      "Ġlumanai": 4331,
      "Ġware": 4332,
      "à¦": 4333,
      "Ġamiotonu": 4334,
      "ĠOketopa": 4335,
      "ppe": 4336,
      "tolu": 4337,
      "ĠSetete": 4338,
      "Ġama": 4339,
      "OT": 4340,
      "tene": 4341,
      "Ġuni": 4342,
      "ĠDescription": 4343,
      "ĠArchi": 4344,
      "Ġfaamanatu": 4345,
      "ĠLuma": 4346,
      "ĠUma": 4347,
      "ĠIulai": 4348,
      "Ġnega": 4349,
      "ĠSub": 4350,
      "Ġpuupuu": 4351,
      "Ġ96": 4352,
      "cific": 4353,
      "ĠTV": 4354,
      "ĠSatani": 4355,
      "ĠPulega": 4356,
      "ĠFacebook": 4357,
      "Ġufi": 4358,
      "SA": 4359,
      "ĠLona": 4360,
      "Â»": 4361,
      "glia": 4362,
      "Ġbrea": 4363,
      "Ġsuesue": 4364,
      "Ġtaulima": 4365,
      "uu": 4366,
      "Ġfalse": 4367,
      "ttle": 4368,
      "ony": 4369,
      "py": 4370,
      "LaLa": 4371,
      "ĠOli": 4372,
      "111": 4373,
      "phy": 4374,
      "ĠlÄģ": 4375,
      "GATA": 4376,
      "omatua": 4377,
      "Ġï¿½ï¿½ï¿½ï¿½ï¿½ï¿½ï¿½ï¿½ï¿½ï¿½ï¿½ï¿½ï¿½ï¿½": 4378,
      "ĠatinaÊ»e": 4379,
      "Ġfaapipii": 4380,
      "FaÊ»afesoÊ»otaÊ»i": 4381,
      "Ġiuga": 4382,
      "ĠHydro": 4383,
      "ĠTausaga": 4384,
      "Ġtogafitia": 4385,
      "iloaÊ»i": 4386,
      "lotilo": 4387,
      "ĠAisea": 4388,
      "ort": 4389,
      "Ġtaamilosaga": 4390,
      "Ġour": 4391,
      "Ġtofoto": 4392,
      "IE": 4393,
      "tan": 4394,
      "Ġanti": 4395,
      "keri": 4396,
      "pou": 4397,
      "Ġfaatulagaina": 4398,
      "asi": 4399,
      "Ġtheir": 4400,
      "Ġfili": 4401,
      "ĠProvince": 4402,
      "omo": 4403,
      "DF": 4404,
      "Ġ600": 4405,
      "Ġnua": 4406,
      "Ġloxo": 4407,
      "105": 4408,
      "Ġmusika": 4409,
      "ugatupe": 4410,
      "Ġ56": 4411,
      "diai": 4412,
      "Li": 4413,
      "Ġ120": 4414,
      "xolu": 4415,
      "roup": 4416,
      "lana": 4417,
      "lotu": 4418,
      "Ġspi": 4419,
      "Ġsuavai": 4420,
      "Ġdownload": 4421,
      "now": 4422,
      "Ġaloese": 4423,
      "vaai": 4424,
      "vaega": 4425,
      "ĠPE": 4426,
      "ĠJan": 4427,
      "aaaaaaaaaaaaaaaa": 4428,
      "Ġlapa": 4429,
      "ponic": 4430,
      "Ġpalasi": 4431,
      "Ġalualu": 4432,
      "matala": 4433,
      "GE": 4434,
      "ĠTia": 4435,
      "ĠProfessional": 4436,
      "ĠfaÊ»asalaga": 4437,
      "Ġaround": 4438,
      "Ġtaufaa": 4439,
      "ĠKana": 4440,
      "Ġpentru": 4441,
      "umau": 4442,
      "ĠBy": 4443,
      "Ġcomment": 4444,
      "Shan": 4445,
      "ĠFar": 4446,
      "ĠRusia": 4447,
      "chua": 4448,
      "phi": 4449,
      "ĠAoga": 4450,
      "Ġhor": 4451,
      "Ġsauniuni": 4452,
      "220": 4453,
      "ĠfaÊ»amatalaina": 4454,
      "140": 4455,
      "120": 4456,
      "pon": 4457,
      "Ġsele": 4458,
      "bed": 4459,
      "Ġamana": 4460,
      "Ġfamily": 4461,
      "Ġtri": 4462,
      "Ġ220": 4463,
      "Ui": 4464,
      "title": 4465,
      "ĠFiafia": 4466,
      "Ġtia": 4467,
      "ĠZhongShan": 4468,
      "aaoga": 4469,
      "pulaa": 4470,
      "Ġfaamatalaina": 4471,
      "Ġtuutuuga": 4472,
      "ĠlaÊ»au": 4473,
      "ĠIndone": 4474,
      "inaa": 4475,
      "ĠfaÊ»asologa": 4476,
      "Ġaufaigaluega": 4477,
      "ĠToyota": 4478,
      "cca": 4479,
      "ĠIosefa": 4480,
      "Ġim": 4481,
      "fautua": 4482,
      "001": 4483,
      "ĠMedi": 4484,
      "Ġsusulu": 4485,
      "ĠfaÊ»amalamalama": 4486,
      "ÃŃ": 4487,
      "taulaga": 4488,
      "Ġtalanoaga": 4489,
      "ĠHawaii": 4490,
      "âĢĿ.": 4491,
      "ĠSam": 4492,
      "ĠLes": 4493,
      "Ġtaugata": 4494,
      "ouse": 4495,
      "sas": 4496,
      "Ġ63": 4497,
      "sht": 4498,
      "Ġafafine": 4499,
      "FUA": 4500,
      "Ġtilotilo": 4501,
      "MOA": 4502,
      "ĠColle": 4503,
      "ĠfaÊ»aoga": 4504,
      "Ġses": 4505,
      "ĠPen": 4506,
      "vili": 4507,
      "Ġkone": 4508,
      "mine": 4509,
      "Ġher": 4510,
      "Ġkopi": 4511,
      "Ġ2006": 4512,
      "Samoa": 4513,
      "Ġglu": 4514,
      "Ġfaiva": 4515,
      "sting": 4516,
      "ĠUA": 4517,
      "med": 4518,
      "125": 4519,
      "ju": 4520,
      "rl": 4521,
      "apa": 4522,
      "Ġfaitauina": 4523,
      "Ġasi": 4524,
      "ĠKnea": 4525,
      "board": 4526,
      "shan": 4527,
      "Ġ^": 4528,
      "Ġ72": 4529,
      "Ġsola": 4530,
      "Ġtuatusi": 4531,
      "Te": 4532,
      "ĠSamu": 4533,
      "Ġfoki": 4534,
      "ĠExt": 4535,
      "ĠWeight": 4536,
      "ini": 4537,
      "ĠWA": 4538,
      "GI": 4539,
      "ĠEl": 4540,
      "ALO": 4541,
      "Ġpoloka": 4542,
      "fae": 4543,
      "ford": 4544,
      "Ġdel": 4545,
      "ĠIslands": 4546,
      "Roma": 4547,
      "ĠSkin": 4548,
      "Ġeme": 4549,
      "aiuga": 4550,
      "ĠPO": 4551,
      "ĠAO": 4552,
      "totoa": 4553,
      "tila": 4554,
      "Ġthey": 4555,
      "ĠneÊ»i": 4556,
      "ĠLumia": 4557,
      "'m": 4558,
      "ufi": 4559,
      "Ġ~": 4560,
      "tum": 4561,
      "IU": 4562,
      "ĠArmani": 4563,
      "Ġcode": 4564,
      "ogai": 4565,
      "WD": 4566,
      "Ġfaasalaga": 4567,
      "ĠTAGATA": 4568,
      "ĠFri": 4569,
      "taavale": 4570,
      "Ġdia": 4571,
      "umi": 4572,
      "150": 4573,
      "oai": 4574,
      "Ġpaleni": 4575,
      "Ġmusu": 4576,
      "zza": 4577,
      "ĠTimo": 4578,
      "gno": 4579,
      "Ġcal": 4580,
      "SE": 4581,
      "bian": 4582,
      "Ġmafanafana": 4583,
      "Ġtegiteu": 4584,
      "malosi": 4585,
      "Ġbar": 4586,
      "ĠFuafua": 4587,
      "RT": 4588,
      "ĠAng": 4589,
      "ngs": 4590,
      "maina": 4591,
      "Ġeu": 4592,
      "Ġmautonu": 4593,
      "ĠDani": 4594,
      "alu": 4595,
      "âĢľ": 4596,
      "ĠRus": 4597,
      "Ġpepelo": 4598,
      "Ġfaaipoipo": 4599,
      "ĠFusi": 4600,
      "ltra": 4601,
      "Ġpagota": 4602,
      "agle": 4603,
      "\":\"\",\"": 4604,
      "way": 4605,
      "ĠTauma": 4606,
      "ĠtaÊ»itaÊ»i": 4607,
      "MEGA": 4608,
      "Ġsolia": 4609,
      "LC": 4610,
      "Ġ400": 4611,
      "????????????????????????????????": 4612,
      "ĠMolimau": 4613,
      "ĠEva": 4614,
      "ish": 4615,
      "jo": 4616,
      "zed": 4617,
      "Ġcur": 4618,
      "Fi": 4619,
      "media": 4620,
      "cau": 4621,
      "ĠFarani": 4622,
      "lian": 4623,
      "Ġmete": 4624,
      "int": 4625,
      "mission": 4626,
      "iagram": 4627,
      "ĠTonga": 4628,
      "afe": 4629,
      "ĠPlus": 4630,
      "Ġpuleaina": 4631,
      "cale": 4632,
      "Ġhamu": 4633,
      "dow": 4634,
      "tre": 4635,
      "dine": 4636,
      "sin": 4637,
      "Ġlolomiina": 4638,
      "Ġagalelei": 4639,
      "ĠTaitai": 4640,
      "lan": 4641,
      "coma": 4642,
      "ject": 4643,
      "ĠInc": 4644,
      "Ġtalaaga": 4645,
      "faufau": 4646,
      "Ġqu": 4647,
      "cer": 4648,
      "sefulu": 4649,
      "ĠRed": 4650,
      "ncia": 4651,
      "ĠPunavai": 4652,
      "gio": 4653,
      "ĠsuÊ»esuÊ»eina": 4654,
      "Ġmaualuluga": 4655,
      "itupe": 4656,
      "masa": 4657,
      "Ġ66": 4658,
      "ĠatinaÊ»eina": 4659,
      "Ġmade": 4660,
      "faioi": 4661,
      "Ġtena": 4662,
      "tural": 4663,
      "nuuina": 4664,
      "Ãł": 4665,
      "ears": 4666,
      "fou": 4667,
      "uiloaina": 4668,
      "ĠPost": 4669,
      "Ġfalema": 4670,
      "ĠNike": 4671,
      "lva": 4672,
      "nis": 4673,
      "Ġfaifai": 4674,
      "esti": 4675,
      "titis": 4676,
      "Ġdata": 4677,
      "Ġapp": 4678,
      "gon": 4679,
      "toÊ»a": 4680,
      "Ġcoa": 4681,
      "ĠFaale": 4682,
      "phone": 4683,
      "ĠToa": 4684,
      "Ġtalanoaina": 4685,
      "Ġcasino": 4686,
      "Ġfuai": 4687,
      "hed": 4688,
      "hei": 4689,
      "samoa": 4690,
      "dau": 4691,
      "fiafiaga": 4692,
      "Ġaganuu": 4693,
      "Ġtatao": 4694,
      "ĠAuaunaga": 4695,
      "ĠTaÊ»a": 4696,
      "ĠLINA": 4697,
      "ĠPara": 4698,
      "eteete": 4699,
      "mula": 4700,
      "Ġfofoga": 4701,
      "raile": 4702,
      "Ġfaanoanoa": 4703,
      "Ġref": 4704,
      "ILI": 4705,
      "Ġfaatinoga": 4706,
      "idth": 4707,
      "MT": 4708,
      "Ġfaalauiloa": 4709,
      "ĠDubu": 4710,
      "Ġ..": 4711,
      "varia": 4712,
      "CT": 4713,
      "gni": 4714,
      "ĠCy": 4715,
      "dae": 4716,
      "ĠfalemaÊ»i": 4717,
      "dri": 4718,
      "Ġosi": 4719,
      "Ġover": 4720,
      "pur": 4721,
      "Ġgiteu": 4722,
      "NO": 4723,
      "pes": 4724,
      "kalu": 4725,
      "Ġbut": 4726,
      "ĠCE": 4727,
      "ĠmataÊ»u": 4728,
      "ĠZhongshan": 4729,
      "Lo": 4730,
      "cent": 4731,
      "ĠAmata": 4732,
      "tiso": 4733,
      "par": 4734,
      "win": 4735,
      "Ġsho": 4736,
      "ĠStates": 4737,
      "ĠLago": 4738,
      "124": 4739,
      "fy": 4740,
      "Ġfaavaeina": 4741,
      "oae": 4742,
      "ĠSwa": 4743,
      "faia": 4744,
      "ĠEs": 4745,
      "Ġblogs": 4746,
      "Ġuluga": 4747,
      "Ê»ili": 4748,
      "Ġlisiina": 4749,
      "Ġ??": 4750,
      "Ġafua": 4751,
      "Ġtufatu": 4752,
      "ĠTali": 4753,
      "ĠFord": 4754,
      "ĠShen": 4755,
      "Ġreviews": 4756,
      "Aya": 4757,
      "Ġselau": 4758,
      "ĠAuÄģ": 4759,
      "Ġvevesi": 4760,
      "tude": 4761,
      "ĠGuzhen": 4762,
      "siona": 4763,
      "BD": 4764,
      "ngo": 4765,
      "Ġï¿½ï¿½ï¿½ï¿½ï¿½ï¿½ï¿½,": 4766,
      "Ġagelu": 4767,
      "ĠCent": 4768,
      "ndows": 4769,
      "ĠmÄģtua": 4770,
      "ĠHol": 4771,
      "iÄģ": 4772,
      "ĠfaÊ»asolosolo": 4773,
      "list": 4774,
      "ĠPai": 4775,
      "Pe": 4776,
      "Ġfaapu": 4777,
      "ĠTaimi": 4778,
      "ĠUV": 4779,
      "Ġitema": 4780,
      "ĠDon": 4781,
      "Ġfaaipoipoga": 4782,
      "ĠTausi": 4783,
      "Ġsport": 4784,
      "Ġà¤": 4785,
      "ĠPacific": 4786,
      "oad": 4787,
      "Ġgafa": 4788,
      "image": 4789,
      "ĠPolokalame": 4790,
      "ĠtamaÊ»itaÊ»i": 4791,
      "Ġfaaletino": 4792,
      "EE": 4793,
      "mal": 4794,
      "Ġsto": 4795,
      "Ã§": 4796,
      "tagata": 4797,
      "ĠFaraile": 4798,
      "Ġ69": 4799,
      "ward": 4800,
      "ĠPeteru": 4801,
      "ĠNai": 4802,
      "ĠBul": 4803,
      "Ġfitu": 4804,
      "gli": 4805,
      "Ġfafaga": 4806,
      "âĢĲ": 4807,
      "nces": 4808,
      "glyce": 4809,
      "Ġ51": 4810,
      "laa": 4811,
      "ĠKneader": 4812,
      "bro": 4813,
      "ĠSTE": 4814,
      "Ġwri": 4815,
      "Ġsava": 4816,
      "FAI": 4817,
      "bar": 4818,
      "ĠFaafetai": 4819,
      "sio": 4820,
      "ĠDel": 4821,
      "400": 4822,
      "Ġ125": 4823,
      "ĠBri": 4824,
      "meti": 4825,
      "Ġfaatonuga": 4826,
      "Ġslot": 4827,
      "NI": 4828,
      "Ġtattoos": 4829,
      "ĠRubber": 4830,
      "ĠfaÊ»aopoopoga": 4831,
      "Ġtechnology": 4832,
      "ALE": 4833,
      "Ae": 4834,
      "tha": 4835,
      "umu": 4836,
      "ĠNSW": 4837,
      "Ġ59": 4838,
      "rain": 4839,
      "Ġarinai": 4840,
      "tom": 4841,
      "ĠGA": 4842,
      "Ġmalumalu": 4843,
      "nike": 4844,
      "Ġaveina": 4845,
      "ĠQuality": 4846,
      "outou": 4847,
      "posetolo": 4848,
      "oasaoa": 4849,
      "Ġsiakiina": 4850,
      "ĠsesÄĵ": 4851,
      "800": 4852,
      "ĠMalosiaga": 4853,
      "ĠHydroponic": 4854,
      "ĠEast": 4855,
      "Ġ}": 4856,
      "ĠTULA": 4857,
      "ĠIsrael": 4858,
      "umb": 4859,
      "Pi": 4860,
      "ĠEA": 4861,
      "ĠKur": 4862,
      "Ġmini": 4863,
      "ĠSio": 4864,
      "pine": 4865,
      "Ġfaifeau": 4866,
      "ene": 4867,
      "Ġaisea": 4868,
      "kapa": 4869,
      "pisi": 4870,
      "Ġfeagaiga": 4871,
      "Ġvili": 4872,
      "Ġtuma": 4873,
      "vaila": 4874,
      "ĠShenzhen": 4875,
      "Ġwhite": 4876,
      "Ġfatuga": 4877,
      "nny": 4878,
      "tiga": 4879,
      "ĠToo": 4880,
      "Ġmalolosi": 4881,
      "ĠApplica": 4882,
      "'t": 4883,
      "peÊ»a": 4884,
      "paÊ»e": 4885,
      "versity": 4886,
      "paia": 4887,
      "ĠSaulo": 4888,
      "ĠBen": 4889,
      "Ġ95": 4890,
      "vision": 4891,
      "fuga": 4892,
      "Ġ85": 4893,
      "BC": 4894,
      "gg": 4895,
      "num": 4896,
      "ĠTapu": 4897,
      "ok": 4898,
      "ĠFUA": 4899,
      "Ġvine": 4900,
      "vices": 4901,
      "telega": 4902,
      "Ġus": 4903,
      "Ø§Ø": 4904,
      "Ġfaana": 4905,
      "Ġfaaumatia": 4906,
      "Ġpaipa": 4907,
      "ĠTho": 4908,
      "Ġkalapu": 4909,
      "Ð²": 4910,
      "isi": 4911,
      "ĠPhoto": 4912,
      "rii": 4913,
      "velo": 4914,
      "Ġair": 4915,
      "sale": 4916,
      "Ġ2005": 4917,
      "Ġjo": 4918,
      "reatment": 4919,
      "Ã¢": 4920,
      "Ġsaoasaoa": 4921,
      "ĠAni": 4922,
      "tauaÊ»iga": 4923,
      "FE": 4924,
      "ĠfaÊ»asaina": 4925,
      "ĠFiti": 4926,
      "ĠWater": 4927,
      "war": 4928,
      "Ġ58": 4929,
      "uria": 4930,
      "ĠInternet": 4931,
      "ĠGlo": 4932,
      "Ġacid": 4933,
      "Ġtagofia": 4934,
      "zine": 4935,
      "Ġfaletua": 4936,
      "ĠUSA": 4937,
      "ĠMatagofie": 4938,
      "ĠiPad": 4939,
      "nar": 4940,
      "Ġeoma": 4941,
      "dee": 4942,
      "Ġmoa": 4943,
      "ĠSAMOA": 4944,
      "ĠAR": 4945,
      "lam": 4946,
      "ĠSavai": 4947,
      "ĠMicrosoft": 4948,
      "IP": 4949,
      "cies": 4950,
      "foaÊ»i": 4951,
      "ĠMAI": 4952,
      "ĠGior": 4953,
      "Ġvita": 4954,
      "Ġpipisi": 4955,
      "lver": 4956,
      "ĠBel": 4957,
      "pot": 4958,
      "nth": 4959,
      "Ġï¿½ï¿½ï¿½ï¿½ï¿½ï¿½,": 4960,
      "ĠBerry": 4961,
      "Ġcy": 4962,
      "Ġtaulai": 4963,
      "valu": 4964,
      "Ġ--": 4965,
      "Ġnifo": 4966,
      "Ġinai": 4967,
      "ãĢ": 4968,
      "aauau": 4969,
      "Ġplace": 4970,
      "hili": 4971,
      "ĠÊ»a": 4972,
      "Ġface": 4973,
      "Ġmatautia": 4974,
      "ĠBay": 4975,
      "ĠFlat": 4976,
      "uso": 4977,
      "ĠMare": 4978,
      "faatasi": 4979,
      "ĠMaota": 4980,
      "cie": 4981,
      "ofia": 4982,
      "Ġtre": 4983,
      "els": 4984,
      "llic": 4985,
      "ĠfaÊ»alapotopotoga": 4986,
      "nn": 4987,
      "span": 4988,
      "Not": 4989,
      "dium": 4990,
      ".âĢĿâĢĶ": 4991,
      "nesa": 4992,
      "simasi": 4993,
      "TON": 4994,
      "Ġatinae": 4995,
      "ĠLoss": 4996,
      "Ġmiti": 4997,
      "ĠSara": 4998,
      "il": 4999,
      "ĠLaa": 5000,
      "ĠJose": 5001,
      "ground": 5002,
      "ĠTALA": 5003,
      "tent": 5004,
      "rini": 5005,
      "Ġsainia": 5006,
      "Ġfaataunuuina": 5007,
      "ĠMalae": 5008,
      "Ġfolafola": 5009,
      "ĠiÊ»a": 5010,
      "salaina": 5011,
      "unaite": 5012,
      "Ġiena": 5013,
      "Ġpamu": 5014,
      "Ġanalysis": 5015,
      "fuaseÊ»i": 5016,
      "Ġnew": 5017,
      "Ġsoifuaga": 5018,
      "Ġteuteu": 5019,
      "ĠâĨĴ": 5020,
      "ura": 5021,
      "Ġá¸¡": 5022,
      "Ġtuafafine": 5023,
      "nza": 5024,
      "Ġmatafaioi": 5025,
      "ĠFoa": 5026,
      "rates": 5027,
      "ĠfeaveaÊ»i": 5028,
      "Ġsamoan": 5029,
      "Ġfaamalosi": 5030,
      "ĠFaÊ»aaogaina": 5031,
      "light": 5032,
      "ream": 5033,
      ":âĢĭ": 5034,
      "Ġiloaina": 5035,
      "hari": 5036,
      "ĠIuda": 5037,
      "Ġibounai": 5038,
      "ĠCer": 5039,
      "UDE": 5040,
      "Ġlisht": 5041,
      "curi": 5042,
      "ĠXe": 5043,
      "Ġlavea": 5044,
      "ĠEagle": 5045,
      "teni": 5046,
      "Ġ99": 5047,
      "Ġfita": 5048,
      "carpe": 5049,
      "Ġfaamauina": 5050,
      "Ġwar": 5051,
      "ĠMaloloina": 5052,
      "ĠMc": 5053,
      "ins": 5054,
      "ĠBook": 5055,
      "field": 5056,
      "Ġvalu": 5057,
      "ports": 5058,
      "see": 5059,
      "ece": 5060,
      "ĠCho": 5061,
      "ĠOff": 5062,
      "Ġpunaoa": 5063,
      "Ġ74": 5064,
      "ĠfaÊ»aititia": 5065,
      "2525": 5066,
      "cular": 5067,
      "Ġ73": 5068,
      "Ġlotoifale": 5069,
      "Ġpalasitika": 5070,
      "Ê»ina": 5071,
      "ĠTechnology": 5072,
      "Ġfb": 5073,
      "erika": 5074,
      "agai": 5075,
      "MI": 5076,
      "sami": 5077,
      "Ġ501": 5078,
      "')": 5079,
      "ĠIunaite": 5080,
      "ĠCommunity": 5081,
      "Ġ110": 5082,
      "Âµ": 5083,
      "Ġinsu": 5084,
      "Ġdiga": 5085,
      "Ġthi": 5086,
      "Ġalolofa": 5087,
      "BS": 5088,
      "Ġfaaoso": 5089,
      "stri": 5090,
      "ĠsÄĵ": 5091,
      "Ê»epaÊ»e": 5092,
      "Ê»aina": 5093,
      "Ġsug": 5094,
      "ĠLali": 5095,
      "USI": 5096,
      "ĠPuipuiga": 5097,
      "ĠNokia": 5098,
      "ĠTofi": 5099,
      "________________": 5100,
      "eY": 5101,
      "ĠOMEGA": 5102,
      "ĠEU": 5103,
      "ĠDesign": 5104,
      "nch": 5105,
      "Ġfaaupuga": 5106,
      "Ġtalafaasolopito": 5107,
      "ĠTes": 5108,
      "ĠRO": 5109,
      "ĠMill": 5110,
      "nno": 5111,
      "gic": 5112,
      "ĠâĢ¦": 5113,
      "Ġnoa": 5114,
      "img": 5115,
      "ĠKovana": 5116,
      "ĠAcai": 5117,
      "ML": 5118,
      "bui": 5119,
      "Ġsilisili": 5120,
      "Ġeditorial": 5121,
      "ĠCD": 5122,
      "nding": 5123,
      "stru": 5124,
      "ep": 5125,
      "house": 5126,
      "hana": 5127,
      "ghts": 5128,
      "yao": 5129,
      "usiness": 5130,
      "ĠEau": 5131,
      "ĠMali": 5132,
      "ĠApplicable": 5133,
      "peri": 5134,
      "ĠApia": 5135,
      "Ġtuufaatasia": 5136,
      "Ġfaaoo": 5137,
      "ĠUk": 5138,
      "here": 5139,
      "peti": 5140,
      "Ġperofeta": 5141,
      "Ġfaatulagaga": 5142,
      "Ġipa": 5143,
      "uaia": 5144,
      "Ġhome": 5145,
      "ĠtinÄģ": 5146,
      "zda": 5147,
      "Ġsetete": 5148,
      "ÙĪ": 5149,
      "ĠPosted": 5150,
      "Ġavega": 5151,
      "ĠForex": 5152,
      "ĠZa": 5153,
      "ĠState": 5154,
      "CI": 5155,
      "ĠFaÊ»apitoa": 5156,
      "ĠmataÊ»i": 5157,
      "Ġogatotonu": 5158,
      "Ùĩ": 5159,
      "mala": 5160,
      "ĠAokuso": 5161,
      "epa": 5162,
      "iaina": 5163,
      "Ġmine": 5164,
      "Ġmananao": 5165,
      "ex": 5166,
      "Ġst": 5167,
      "LI": 5168,
      "ndex": 5169,
      "ĠOIL": 5170,
      "ĠUn": 5171,
      "ĠPoly": 5172,
      "lling": 5173,
      "MP": 5174,
      "Ġ67": 5175,
      "cli": 5176,
      "tonga": 5177,
      "Ġaina": 5178,
      "ceae": 5179,
      "pogi": 5180,
      "dish": 5181,
      "ĠRev": 5182,
      "ĠChar": 5183,
      "ĠCRUDE": 5184,
      "uaa": 5185,
      "vaÊ»ai": 5186,
      "lori": 5187,
      "iau": 5188,
      "Ġml": 5189,
      "ĠUAE": 5190,
      "ONA": 5191,
      "laepa": 5192,
      "XP": 5193,
      "Ġfaamanuiaina": 5194,
      "Ġvadaeni": 5195,
      "Ġaloga": 5196,
      "Ġpapatiso": 5197,
      "Ġperi": 5198,
      "ĠWo": 5199,
      "bara": 5200,
      "Ġfinau": 5201,
      "Ġmuvikala": 5202,
      "Ġeto": 5203,
      "ĠIt": 5204,
      "Ġbreaking": 5205,
      "ogao": 5206,
      "))": 5207,
      "Aua": 5208,
      "Ġtaku": 5209,
      "ĠEi": 5210,
      "rina": 5211,
      "ĠavÄģ": 5212,
      "teo": 5213,
      "Ġ86": 5214,
      "Ġasiasiga": 5215,
      "ĠFSX": 5216,
      "Ġsti": 5217,
      "Ġreader": 5218,
      "ĠAmi": 5219,
      "turn": 5220,
      "Ġfilo": 5221,
      "Ġtamaitiiti": 5222,
      "ĠTuilaepa": 5223,
      "Ġ800": 5224,
      "Ġee": 5225,
      "ĠLighting": 5226,
      "Ġede": 5227,
      "sen": 5228,
      "Ġaufai": 5229,
      "Ġju": 5230,
      "sele": 5231,
      "Ġfeusuaiga": 5232,
      "Ġlala": 5233,
      "ĠLU": 5234,
      "peneta": 5235,
      "ĠNAB": 5236,
      "MS": 5237,
      "ĠSma": 5238,
      "too": 5239,
      "Ġfaamalieina": 5240,
      "IST": 5241,
      "ĠSteel": 5242,
      "malu": 5243,
      "010": 5244,
      "Ġpologa": 5245,
      "ĠmaÊ»itaga": 5246,
      "ĠAF": 5247,
      "ĠAustra": 5248,
      "var": 5249,
      "ĠFaÊ»ata": 5250,
      "cre": 5251,
      "sr": 5252,
      "tica": 5253,
      "ĠOa": 5254,
      "Ġother": 5255,
      "naa": 5256,
      "123": 5257,
      "Ġmala": 5258,
      "Ġpuo": 5259,
      "ioi": 5260,
      "ĠAmazon": 5261,
      "raia": 5262,
      "ĠAme": 5263,
      "Ġufiufi": 5264,
      "Ġfaasoa": 5265,
      "ĠInitia": 5266,
      "Ġkeke": 5267,
      "Â®": 5268,
      "Ġori": 5269,
      "Ti": 5270,
      "Ġ68": 5271,
      "Ġlomitusi": 5272,
      "Ġwhich": 5273,
      "nor": 5274,
      "Ġdiagram": 5275,
      "karate": 5276,
      "ĠfaaaÊ»oaÊ»oga": 5277,
      "aalia": 5278,
      "Ġvei": 5279,
      "ĠaofaÊ»i": 5280,
      "Ġfeiloai": 5281,
      "square": 5282,
      "Ġfaasaoina": 5283,
      "roma": 5284,
      "ĠpelÄģ": 5285,
      "col": 5286,
      "ĠLeai": 5287,
      "hova": 5288,
      "polu": 5289,
      "ĠSuper": 5290,
      "sid": 5291,
      "ĠGro": 5292,
      "ĠAb": 5293,
      "ĠBR": 5294,
      "ĠSh": 5295,
      "Ġyears": 5296,
      "ĠPeitai": 5297,
      "vaeina": 5298,
      "mbo": 5299,
      "ĠFrui": 5300,
      "Ġfaaaloalo": 5301,
      "Ġseevae": 5302,
      "Ġfaafua": 5303,
      "Ġtaoto": 5304,
      "NC": 5305,
      "asaina": 5306,
      "Ġtaro": 5307,
      "ĠFesoasoani": 5308,
      "Ġace": 5309,
      "Ġâĸ¼": 5310,
      "TH": 5311,
      "Ġfaatumu": 5312,
      "Ġaofai": 5313,
      "lpe": 5314,
      "Ġmulti": 5315,
      "Ġdays": 5316,
      "ĠMes": 5317,
      "ĠReal": 5318,
      "Ġfute": 5319,
      "ĠaÊ»oaÊ»o": 5320,
      "Ġsuga": 5321,
      "ĠDra": 5322,
      "vaavaaia": 5323,
      "Ġdekena": 5324,
      "amatalaga": 5325,
      "Ġpasese": 5326,
      "kupito": 5327,
      "ĠUSB": 5328,
      "ĠCenter": 5329,
      "ĠPlay": 5330,
      "ĠSTEP": 5331,
      "Ġfoia": 5332,
      "ĠGer": 5333,
      "toni": 5334,
      "ĠBena": 5335,
      "Ġnini": 5336,
      "sal": 5337,
      "sitene": 5338,
      "Ġfla": 5339,
      "Ġfaatuina": 5340,
      "Ġiifa": 5341,
      "Ġfaagasolo": 5342,
      "ĠMou": 5343,
      "ĠJack": 5344,
      "Ġtapunia": 5345,
      "ĠFaai": 5346,
      "mesina": 5347,
      "Ġpati": 5348,
      "ĠQLD": 5349,
      "Ġ62": 5350,
      "erson": 5351,
      "vuti": 5352,
      "Po": 5353,
      "ĠExterior": 5354,
      "Ġela": 5355,
      "eritori": 5356,
      "156": 5357,
      "Ġdainai": 5358,
      "AU": 5359,
      "Ġleather": 5360,
      "ĠAquarium": 5361,
      "Ġvali": 5362,
      "ĠSaunoa": 5363,
      "KU": 5364,
      "ĠEar": 5365,
      "ĠLamp": 5366,
      "ĠMinisita": 5367,
      "ĠEd": 5368,
      "ĠWin": 5369,
      "cm": 5370,
      "FF": 5371,
      "ĠNational": 5372,
      "ople": 5373,
      "Ġcusku": 5374,
      "ĠVale": 5375,
      "Ġmaso": 5376,
      "Ġtapulaa": 5377,
      "ĠIkea": 5378,
      "mÅ«": 5379,
      "ĠFalea": 5380,
      "ĠAikupito": 5381,
      "duc": 5382,
      "ĠGaosi": 5383,
      "Ġtaitoatasi": 5384,
      "ndu": 5385,
      "Ġgaogao": 5386,
      "MAT": 5387,
      "Ba": 5388,
      "ĠCana": 5389,
      "Ġfolafolaga": 5390,
      "ĠmÄģfua": 5391,
      "Tra": 5392,
      "ĠToga": 5393,
      "115": 5394,
      "---|": 5395,
      "ĠEnglish": 5396,
      "Ġfaitotoa": 5397,
      "Ġsuega": 5398,
      "Ġed": 5399,
      "ĠGar": 5400,
      "eli": 5401,
      "aaogaina": 5402,
      "Ġfakama": 5403,
      "Ġpeni": 5404,
      "Ġkalu": 5405,
      "saienisi": 5406,
      "Ġtaina": 5407,
      "ĠSI": 5408,
      "Ġmaitauina": 5409,
      "Ġgaoi": 5410,
      "ĠSpri": 5411,
      "ofa": 5412,
      "ĠSin": 5413,
      "ĠHI": 5414,
      "ĠSep": 5415,
      "Ġfomai": 5416,
      "ĠUpu": 5417,
      "dor": 5418,
      "cen": 5419,
      "Ġelemene": 5420,
      "Ġtafaoga": 5421,
      "Ġpasene": 5422,
      "Ġvalaaulia": 5423,
      "aini": 5424,
      "Ġlipo": 5425,
      "Ġlepe": 5426,
      "ĠNumera": 5427,
      "ĠGre": 5428,
      "Ð´": 5429,
      "Ġfaataga": 5430,
      "loilo": 5431,
      "DO": 5432,
      "olu": 5433,
      "Ġfara": 5434,
      "news": 5435,
      "ĠFaatonu": 5436,
      "salalauina": 5437,
      "ĠPrice": 5438,
      "ĠtuÊ»ufaÊ»a": 5439,
      "mou": 5440,
      "nie": 5441,
      "Ġpulou": 5442,
      "matua": 5443,
      "ĠMauga": 5444,
      "Ġnoi": 5445,
      "uaga": 5446,
      "ĠGagana": 5447,
      "Ġgutu": 5448,
      "lautele": 5449,
      "ĠTeu": 5450,
      "tsu": 5451,
      "Ġlesona": 5452,
      "iana": 5453,
      "tico": 5454,
      "ĠStu": 5455,
      "ĠSoo": 5456,
      "ĠiÊ»uga": 5457,
      "sig": 5458,
      "fesa": 5459,
      "Ġkuli": 5460,
      "ĠTaiala": 5461,
      "Ġlike": 5462,
      "Ġtru": 5463,
      "ĠAV": 5464,
      "Ġmaitaga": 5465,
      "ĠHaidaa": 5466,
      "elega": 5467,
      "ĠfaÊ»aaliga": 5468,
      "bert": 5469,
      "Ø¯": 5470,
      "Ġtuuga": 5471,
      "share": 5472,
      "ĠSMD": 5473,
      "chael": 5474,
      "ĠOne": 5475,
      "Ġtofa": 5476,
      "ĠfefaÊ»atauaiga": 5477,
      "ĠThai": 5478,
      "ĠfaÊ»aumatia": 5479,
      "Ġ104": 5480,
      "FO": 5481,
      "ĠAlofa": 5482,
      "Ġï¿½ï¿½ï¿½ï¿½ï¿½,": 5483,
      "Ġfasioti": 5484,
      "Ġmate": 5485,
      "Ġmm": 5486,
      "ĠFebrua": 5487,
      "Ġise": 5488,
      "ĠItalian": 5489,
      "GG": 5490,
      "Ġfaigamalo": 5491,
      "Ġ2004": 5492,
      "Ġwiring": 5493,
      "ĠAa": 5494,
      "130": 5495,
      "lled": 5496,
      "ĠDE": 5497,
      "ĠCH": 5498,
      "aac": 5499,
      "Ġuepi": 5500,
      "Ġkei": 5501,
      "ĠFaÊ»ateleina": 5502,
      "ĠKolisi": 5503,
      "osa": 5504,
      "Ġmale": 5505,
      "Ġcrypto": 5506,
      "ĠNO": 5507,
      "ĠTamÄģ": 5508,
      "ĠFaÊ»asalalauga": 5509,
      "NEI": 5510,
      "Ġlaa": 5511,
      "ĠIO": 5512,
      "sive": 5513,
      "ĠItumalo": 5514,
      "bel": 5515,
      "ĠÑģ": 5516,
      "ĠQuechua": 5517,
      "ĠCaro": 5518,
      "cul": 5519,
      "à¯": 5520,
      "oru": 5521,
      "ĠKrai": 5522,
      "204": 5523,
      "kou": 5524,
      "nger": 5525,
      "Ġ77": 5526,
      "shadow": 5527,
      "Ġmase": 5528,
      "ĠTreatment": 5529,
      "public": 5530,
      "code": 5531,
      "Ġpeople": 5532,
      "Ġositaulaga": 5533,
      "pho": 5534,
      "tÅį": 5535,
      "ĠmamÄģ": 5536,
      "amasino": 5537,
      "enz": 5538,
      "ĠStar": 5539,
      "RL": 5540,
      "oom": 5541,
      "ĠLENEI": 5542,
      "Ġwebsite": 5543,
      "ĠTre": 5544,
      "eds": 5545,
      "Ġfanauga": 5546,
      "Ġripoti": 5547,
      "PM": 5548,
      "buna": 5549,
      "ronic": 5550,
      "CK": 5551,
      "Ġlui": 5552,
      "wood": 5553,
      "ĠtalaÊ»i": 5554,
      "ĠDubuque": 5555,
      "Mi": 5556,
      "ĠMega": 5557,
      "ĠCus": 5558,
      "Ġvs": 5559,
      "ĠMul": 5560,
      "ĠFaau": 5561,
      "ĺħ": 5562,
      "ĠFran": 5563,
      "ditional": 5564,
      "ate": 5565,
      "nino": 5566,
      "ĠSO": 5567,
      "Ġmoega": 5568,
      "oar": 5569,
      "esetene": 5570,
      "ĠCasino": 5571,
      "ĠatiaÊ»e": 5572,
      "Ġuru": 5573,
      "Ġaufaa": 5574,
      "Ġï¿½ï¿½ï¿½ï¿½ï¿½ï¿½ï¿½ï¿½,": 5575,
      "oot": 5576,
      "ĠMeafaigaluega": 5577,
      "Ġeste": 5578,
      "ĠfaÊ»atatau": 5579,
      "The": 5580,
      "Ġitalia": 5581,
      "Ġ$-": 5582,
      "ĠFaitau": 5583,
      "html": 5584,
      "vailable": 5585,
      "null": 5586,
      "ĠSy": 5587,
      "ĠIapani": 5588,
      "Ġlaisene": 5589,
      "}}": 5590,
      "ĠISO": 5591,
      "ĠUkrai": 5592,
      "Ġfoma": 5593,
      "Ġfaitoto": 5594,
      "ĠWar": 5595,
      "rit": 5596,
      "ĠWillia": 5597,
      "ĠIdea": 5598,
      "Ġhina": 5599,
      "IMI": 5600,
      "Ġulugalii": 5601,
      "Ġunu": 5602,
      "gisa": 5603,
      "Ġauiliili": 5604,
      "ĠOffi": 5605,
      "dou": 5606,
      "Ġepa": 5607,
      "ĠOf": 5608,
      "ĠBitcoin": 5609,
      "ĠRGB": 5610,
      "Ġinclu": 5611,
      "are": 5612,
      "vin": 5613,
      "Ioa": 5614,
      "ĠLife": 5615,
      "AF": 5616,
      "ĠEdi": 5617,
      "tatala": 5618,
      "Ġpia": 5619,
      "rec": 5620,
      "ĠFaala": 5621,
      "Ġgei": 5622,
      "nuiaga": 5623,
      "alia": 5624,
      "Ġmou": 5625,
      "ond": 5626,
      "tainless": 5627,
      "ĠSolomona": 5628,
      "!!!!": 5629,
      "lalau": 5630,
      "ĠSat": 5631,
      "Ġvaavaai": 5632,
      "ND": 5633,
      "Ġfaamolemole": 5634,
      "ĠFaÊ»amau": 5635,
      "...]": 5636,
      "ĠFaÊ»afefiloi": 5637,
      "Ġfao": 5638,
      "ĠOloa": 5639,
      "eek": 5640,
      "lk": 5641,
      "ĠOmega": 5642,
      "pania": 5643,
      "ĠMAUA": 5644,
      "Ð¼": 5645,
      "ĠSearch": 5646,
      "INE": 5647,
      "ĠPalemene": 5648,
      "sila": 5649,
      "tation": 5650,
      "Ġel": 5651,
      "Ġkilo": 5652,
      "ĠðŁ": 5653,
      "tisi": 5654,
      "date": 5655,
      "PI": 5656,
      "ĠFaka": 5657,
      "Ġlafoina": 5658,
      "Ġbox": 5659,
      "rench": 5660,
      "spe": 5661,
      "ĠfÄģ": 5662,
      "ĠMary": 5663,
      "peni": 5664,
      "ĠMeaÊ»ai": 5665,
      "ĠCreole": 5666,
      "Ġ2003": 5667,
      "ĠPolokalama": 5668,
      "ĠIl": 5669,
      "ĠfaÊ»alogo": 5670,
      "Ġdiba": 5671,
      "vola": 5672,
      "aio": 5673,
      "Ġclo": 5674,
      "Ġcol": 5675,
      "faigofie": 5676,
      "state": 5677,
      "Event": 5678,
      "ĠEngine": 5679,
      "ĠUr": 5680,
      "Ġhuse": 5681,
      "omi": 5682,
      "new": 5683,
      "ĠVia": 5684,
      "Ġfra": 5685,
      "amaonia": 5686,
      "vise": 5687,
      "Ġfaaletulafono": 5688,
      "age": 5689,
      "ĠMix": 5690,
      "ONO": 5691,
      "PC": 5692,
      "tuli": 5693,
      "Ġtumutumu": 5694,
      "add": 5695,
      "Ġez": 5696,
      "ĠVir": 5697,
      "lÅįlÅį": 5698,
      "afitauli": 5699,
      "fÄģ": 5700,
      "oioia": 5701,
      "play": 5702,
      "fica": 5703,
      "ĠMax": 5704,
      "Ġgb": 5705,
      "ĠBill": 5706,
      "Ġteute": 5707,
      "jack": 5708,
      "ĠSaute": 5709,
      "ĠFebruary": 5710,
      "ken": 5711,
      "Ġkolisi": 5712,
      "ĠfaÊ»alagolago": 5713,
      "Ġcm": 5714,
      "ĠsuÊ»e": 5715,
      "Ġmole": 5716,
      "asalaga": 5717,
      "national": 5718,
      "stic": 5719,
      "ĠInsta": 5720,
      "LS": 5721,
      "kh": 5722,
      "ĠÂ©": 5723,
      "ĠFailautusi": 5724,
      "gane": 5725,
      "TS": 5726,
      "ĠTru": 5727,
      "Ġpale": 5728,
      "ngada": 5729,
      "miu": 5730,
      "Ġdau": 5731,
      "ĠTalosaga": 5732,
      "ĠpaÊ»epaÊ»e": 5733,
      "Ġfitafita": 5734,
      "dom": 5735,
      "ĠfaÊ»amautinoa": 5736,
      "tata": 5737,
      "ĠtaÊ»alo": 5738,
      "Ġpogai": 5739,
      "ĠAlaleo": 5740,
      "pic": 5741,
      "Ġfete": 5742,
      "ĠSuesu": 5743,
      "lder": 5744,
      "ĠAutomatic": 5745,
      "alogo": 5746,
      "Ġneganai": 5747,
      "stan": 5748,
      "ĠFUAFUA": 5749,
      "inaka": 5750,
      "PP": 5751,
      "Ġsulu": 5752,
      "ĠMatu": 5753,
      "Ġkolo": 5754,
      "LU": 5755,
      "Ġaloa": 5756,
      "Ġ97": 5757,
      "hula": 5758,
      "pra": 5759,
      "ĠNis": 5760,
      "ĠAlfa": 5761,
      "bility": 5762,
      "deb": 5763,
      "dar": 5764,
      "base": 5765,
      "ĠFer": 5766,
      "Ġlavalava": 5767,
      "bet": 5768,
      "Ġlia": 5769,
      "nue": 5770,
      "chia": 5771,
      "ginia": 5772,
      "ĠLava": 5773,
      "uana": 5774,
      "moi": 5775,
      "ĠTATAU": 5776,
      "Ġq": 5777,
      "Ġfaatoaga": 5778,
      "Ġhata": 5779,
      "Ġalso": 5780,
      "iSi": 5781,
      "ĠMau": 5782,
      "ngton": 5783,
      "ĠFonoti": 5784,
      "ĠShow": 5785,
      "Ġapala": 5786,
      "Ġmaliega": 5787,
      "Ġcand": 5788,
      "ĠtÅ«": 5789,
      "Ġhad": 5790,
      "ĠfoaÊ»i": 5791,
      "Ġwhat": 5792,
      "ĠmataÊ»utia": 5793,
      "maua": 5794,
      "tona": 5795,
      "ĠPDF": 5796,
      "Ġ98": 5797,
      "ĠMichael": 5798,
      "ĠReview": 5799,
      "eseina": 5800,
      "ĠsuÊ»eina": 5801,
      "Ñı": 5802,
      "Ġdon": 5803,
      "ctie": 5804,
      "lc": 5805,
      "Ġcla": 5806,
      "Ġunai": 5807,
      "Ġwords": 5808,
      "Ġoff": 5809,
      "Ġ[...]": 5810,
      "REE": 5811,
      "Ġmatata": 5812,
      "ĠPower": 5813,
      "Archi": 5814,
      "Ġ101": 5815,
      "Ġmomoli": 5816,
      "ĠlaÊ»ititi": 5817,
      "Ġsc": 5818,
      "Ġalpha": 5819,
      "Ġfaatalitali": 5820,
      "Ġfaape": 5821,
      "ĠMEA": 5822,
      "Ġvima": 5823,
      "Ġif": 5824,
      "ĠTafa": 5825,
      "bit": 5826,
      "ĠLaiti": 5827,
      "shop": 5828,
      "VER": 5829,
      "ave": 5830,
      "ĠEn": 5831,
      "ĠFaalili": 5832,
      "tical": 5833,
      "ova": 5834,
      "ĠIakopo": 5835,
      "Ġletter": 5836,
      "Ġfaamaoniga": 5837,
      "Ġlamatiaga": 5838,
      "gri": 5839,
      "muta": 5840,
      "ches": 5841,
      "102": 5842,
      "Ġmin": 5843,
      "BI": 5844,
      "In": 5845,
      "Zi": 5846,
      "855": 5847,
      "saite": 5848,
      "ĠIndonesia": 5849,
      "Ġlita": 5850,
      "gui": 5851,
      "ĠSasa": 5852,
      "ĠFautua": 5853,
      "ced": 5854,
      "Ġmolimauina": 5855,
      "Ġgauai": 5856,
      "ĠFAIA": 5857,
      "ĠBack": 5858,
      "pter": 5859,
      "Ġngi": 5860,
      "ĠCompany": 5861,
      "iste": 5862,
      "Ġfirst": 5863,
      "bor": 5864,
      "kaina": 5865,
      "fata": 5866,
      "ianco": 5867,
      "saiete": 5868,
      "ĠLX": 5869,
      "Ġhama": 5870,
      "ĠSMS": 5871,
      "Ġraka": 5872,
      "glycemia": 5873,
      "FU": 5874,
      "Me": 5875,
      "koga": 5876,
      "Ġliua": 5877,
      "Ġtaumatau": 5878,
      "Ġpay": 5879,
      "sung": 5880,
      "Ġmia": 5881,
      "Ġbaa": 5882,
      "ĠSuavai": 5883,
      "sm": 5884,
      "Ġ_": 5885,
      "rent": 5886,
      "304": 5887,
      "stal": 5888,
      "Ġfac": 5889,
      "teli": 5890,
      "--------------------------------": 5891,
      "Ġbolo": 5892,
      "ĠTuu": 5893,
      "Ġtaulimaina": 5894,
      "Ġpra": 5895,
      "Ġbook": 5896,
      "sÄģlalau": 5897,
      "Ġ???": 5898,
      "203": 5899,
      "ĠLI": 5900,
      "ĠItuaiga": 5901,
      "zation": 5902,
      "nou": 5903,
      "ĠChild": 5904,
      "rida": 5905,
      "ĠRE": 5906,
      "Ġbadina": 5907,
      "ÙĨ": 5908,
      "Ġada": 5909,
      "Ġfaamoemoega": 5910,
      "ĠMedia": 5911,
      "Ġheni": 5912,
      "ĠFilifili": 5913,
      "nson": 5914,
      "rew": 5915,
      "ĠFaipule": 5916,
      "Ê»ailoga": 5917,
      "ĠElect": 5918,
      "gne": 5919,
      "ĠPol": 5920,
      "Ġje": 5921,
      "Ġkaraia": 5922,
      "ĠFlatbed": 5923,
      "Oct": 5924,
      "Ġ76": 5925,
      "ĠiPhone": 5926,
      "Ġake": 5927,
      "come": 5928,
      "Ġotometi": 5929,
      "rge": 5930,
      "noi": 5931,
      "ĠfaigatÄģ": 5932,
      "Ġfaatosina": 5933,
      "sul": 5934,
      "Ġusiusi": 5935,
      ",&": 5936,
      "lÅ«": 5937,
      "ĠFuel": 5938,
      "TION": 5939,
      "................": 5940,
      "ĠSel": 5941,
      "ĠManatua": 5942,
      "ĠAda": 5943,
      "Ġfemalaga": 5944,
      "type": 5945,
      "tecture": 5946,
      "zerbai": 5947,
      "Ġhinage": 5948,
      "ĠTutu": 5949,
      "Ġdesign": 5950,
      "ĠLula": 5951,
      "misi": 5952,
      "ĠQui": 5953,
      "ĠtulaÊ»i": 5954,
      "Ġmax": 5955,
      "pedia": 5956,
      "ĠPay": 5957,
      "Ġdela": 5958,
      "rough": 5959,
      "Ġpuapuaga": 5960,
      "ĠNet": 5961,
      "burg": 5962,
      "zerbaija": 5963,
      "DS": 5964,
      "mbi": 5965,
      "Ġota": 5966,
      "tact": 5967,
      "ĠSedan": 5968,
      "To": 5969,
      "ĠTusia": 5970,
      "ĠIU": 5971,
      "ORE": 5972,
      "602": 5973,
      "ĠBulga": 5974,
      "fania": 5975,
      "Ġkina": 5976,
      "ĠFofoga": 5977,
      "form": 5978,
      "dll": 5979,
      "Ġflo": 5980,
      "ĠWindows": 5981,
      "ccess": 5982,
      "ĠTVA": 5983,
      "rcle": 5984,
      "ĠTUSI": 5985,
      "wing": 5986,
      "ĠMoa": 5987,
      "Ã³": 5988,
      "ĠHealth": 5989,
      "ĠFAI": 5990,
      "cula": 5991,
      "Book": 5992,
      "ĠFon": 5993,
      "ĠSystem": 5994,
      "Ġtosina": 5995,
      "meni": 5996,
      "rect": 5997,
      "402": 5998,
      "val": 5999,
      "Ġmicro": 6000,
      "ĠFruity": 6001,
      "bre": 6002,
      "Â½": 6003,
      "ĠSina": 6004,
      "seta": 6005,
      "Ġlaupepa": 6006,
      "efu": 6007,
      "Ġiso": 6008,
      "Ġfaga": 6009,
      "ĠGia": 6010,
      "Ġlaitiiti": 6011,
      "ĠME": 6012,
      "yrillic": 6013,
      "jw": 6014,
      "van": 6015,
      "Ġ61": 6016,
      "ĠTogi": 6017,
      "Ġatigi": 6018,
      "ĠTaÊ»itaÊ»i": 6019,
      "Ġpancreatitis": 6020,
      "ĠfaÊ»afouina": 6021,
      "{\"": 6022,
      "Ġteritori": 6023,
      "Ġcolo": 6024,
      "mol": 6025,
      "ĠCali": 6026,
      "vers": 6027,
      "TED": 6028,
      "loaga": 6029,
      "ĠDea": 6030,
      "ĠinÄģ": 6031,
      "Ġkesi": 6032,
      "Ġngingi": 6033,
      ",,": 6034,
      "loloa": 6035,
      "ĠSchool": 6036,
      "Ġmanina": 6037,
      "ĠSerbian": 6038,
      "Ho": 6039,
      "Ġsex": 6040,
      "Ġ84": 6041,
      "Ġï¿½ï¿½ï¿½ï¿½ï¿½ï¿½ï¿½ï¿½ï¿½ï¿½ï¿½ï¿½ï¿½ï¿½ï¿½": 6042,
      "ndai": 6043,
      "Ġegu": 6044,
      "ĠLÄĵ": 6045,
      "ĠFaÊ»apipiÊ»i": 6046,
      "Ġmatagi": 6047,
      "Ġmasima": 6048,
      "sma": 6049,
      "Ġste": 6050,
      "ĠAtina": 6051,
      "ĠMy": 6052,
      "lub": 6053,
      "laupapa": 6054,
      "160": 6055,
      "ĠKerisimasi": 6056,
      "ska": 6057,
      "ĠAzerbaija": 6058,
      "TER": 6059,
      "wt": 6060,
      "ĠFaitulafono": 6061,
      "Ġmeaaoga": 6062,
      "rij": 6063,
      "ĠBlo": 6064,
      "Ġaiaiga": 6065,
      "104": 6066,
      "vulo": 6067,
      "pal": 6068,
      "Ġhel": 6069,
      "ĠOe": 6070,
      "milia": 6071,
      "Ġsome": 6072,
      "ĠÐ¿": 6073,
      "ĠDoors": 6074,
      "ĠAtoa": 6075,
      "ĠKomesina": 6076,
      "MB": 6077,
      "ĠMore": 6078,
      "Ġtuagane": 6079,
      "ĠLoia": 6080,
      "ĠvaÊ»avaÊ»ai": 6081,
      "ĠFuga": 6082,
      "ĠCS": 6083,
      "pin": 6084,
      "ĠLeague": 6085,
      "ĠuluaÊ»i": 6086,
      "Ġalaga": 6087,
      "fini": 6088,
      "Ġleisa": 6089,
      "rive": 6090,
      "Ġoffi": 6091,
      "Ġkonekarate": 6092,
      "ĠMalie": 6093,
      "ĠWed": 6094,
      "Ġtotoga": 6095,
      "mpli": 6096,
      "olaina": 6097,
      "ual": 6098,
      "ĠEpi": 6099,
      "dit": 6100,
      "witter": 6101,
      "Ġuepisaite": 6102,
      "ĠFurniture": 6103,
      "enti": 6104,
      "256": 6105,
      "Ġblack": 6106,
      "ĠUtu": 6107,
      "Ġtotoina": 6108,
      "ĠGao": 6109,
      "ĠaufaasÄģlalau": 6110,
      "Ġ78": 6111,
      "ĠYa": 6112,
      "Ġamutou": 6113,
      "ĠFaÊ»afefea": 6114,
      ".:": 6115,
      "},": 6116,
      "Ġ79": 6117,
      "ĠKen": 6118,
      "Ġhanua": 6119,
      "HS": 6120,
      "esotho": 6121,
      "Ġvael": 6122,
      "Ġmatuia": 6123,
      "Ħ¢": 6124,
      "Ġfaalua": 6125,
      "Ġsimi": 6126,
      "eap": 6127,
      "ĠMP": 6128,
      "ĠJr": 6129,
      "teina": 6130,
      "Ġvaga": 6131,
      "Ġpart": 6132,
      "ï¿½ï¿½ï¿½ï¿½ï¿½ï¿½ï¿½ï¿½ï¿½": 6133,
      "ĠEmirates": 6134,
      "ĠFE": 6135,
      "ĠBor": 6136,
      "Ġtikeri": 6137,
      "zia": 6138,
      "Ġnatuna": 6139,
      "AY": 6140,
      "Ġ111": 6141,
      "ritigi": 6142,
      "Ġtotona": 6143,
      "KE": 6144,
      "Ġza": 6145,
      "ĠTou": 6146,
      "ĠBet": 6147,
      "Ġhow": 6148,
      "Ġtauaveina": 6149,
      "Ġ]": 6150,
      "Ġloi": 6151,
      "Ġunder": 6152,
      "Ġmalosiaga": 6153,
      "ĠfefaÊ»atauaÊ»iga": 6154,
      "Ġlesitala": 6155,
      "Ġmaliliu": 6156,
      "pli": 6157,
      "ĠIgoa": 6158,
      "ĠUnai": 6159,
      "lands": 6160,
      "ogÄģina": 6161,
      "Ġpancreas": 6162,
      "ĠSch": 6163,
      "ĠMalay": 6164,
      "heng": 6165,
      "ĠAustralia": 6166,
      "rat": 6167,
      "ĠJames": 6168,
      "solitulafono": 6169,
      "formation": 6170,
      "Ġfalemai": 6171,
      "ĠMac": 6172,
      "ĠRON": 6173,
      "ginal": 6174,
      "links": 6175,
      "Ġmaoae": 6176,
      "ĠfaamÄģ": 6177,
      "oooo": 6178,
      "ĠSei": 6179,
      "virus": 6180,
      "press": 6181,
      "ĠsuÄģ": 6182,
      "tumalo": 6183,
      "ĠRomania": 6184,
      "mania": 6185,
      "Ġkatoa": 6186,
      "zing": 6187,
      "uo": 6188,
      "Ġbro": 6189,
      "ĠVA": 6190,
      "sipepa": 6191,
      "Ġfaafiafiaga": 6192,
      "600": 6193,
      "ĠfaÊ»afeiloaÊ»i": 6194,
      "order": 6195,
      "Mar": 6196,
      "Ã¤": 6197,
      "ĠOra": 6198,
      "Ġits": 6199,
      "Ġfile": 6200,
      "ĠSisi": 6201,
      "atoa": 6202,
      "ent": 6203,
      "togi": 6204,
      "Ġcer": 6205,
      "tati": 6206,
      "ĠAD": 6207,
      "Ġchai": 6208,
      "ĠBed": 6209,
      "Ġdika": 6210,
      "ĠIehova": 6211,
      "900": 6212,
      "ĠFina": 6213,
      "mii": 6214,
      "armani": 6215,
      "Ê»ie": 6216,
      "cdn": 6217,
      "Bet": 6218,
      "Saina": 6219,
      "cket": 6220,
      "ĠFesili": 6221,
      "ĠFlash": 6222,
      "itasi": 6223,
      "popo": 6224,
      "cedes": 6225,
      "Tusi": 6226,
      "VC": 6227,
      "ĠWood": 6228,
      "cted": 6229,
      "finder": 6230,
      "ĠfaÊ»atinoga": 6231,
      "ĠAre": 6232,
      "Ġbest": 6233,
      "ĠBou": 6234,
      "atinoina": 6235,
      "Ġlomia": 6236,
      "Ġbada": 6237,
      "amp": 6238,
      "mamai": 6239,
      "ĠPea": 6240,
      "Ġfutu": 6241,
      "HO": 6242,
      "Ġova": 6243,
      "Ġloka": 6244,
      "ĠUniversity": 6245,
      "Ġmaia": 6246,
      "ĠApe": 6247,
      "pper": 6248,
      "ĠService": 6249,
      "ĠClassi": 6250,
      "Ġprodu": 6251,
      "ĠfaÊ»afuaseÊ»i": 6252,
      "Ġplay": 6253,
      "ĠmataÊ»ituina": 6254,
      "pment": 6255,
      "ĠFES": 6256,
      "Ġwork": 6257,
      "maa": 6258,
      "baa": 6259,
      "Ġuaina": 6260,
      "ĠSeÊ»i": 6261,
      "Ġanamua": 6262,
      "ĠVaÊ»ai": 6263,
      "bulin": 6264,
      "Ġhigh": 6265,
      "Com": 6266,
      "faama": 6267,
      "ĠÑ": 6268,
      "Ġcau": 6269,
      "ĠfaÊ»amalo": 6270,
      "Ġiunite": 6271,
      "Ġsaid": 6272,
      "ĠPisinisi": 6273,
      "Ġtekonolosi": 6274,
      "Ġword": 6275,
      "oxonu": 6276,
      "Ġkulimi": 6277,
      "cker": 6278,
      "nisia": 6279,
      "Ġteugatupe": 6280,
      "pau": 6281,
      "Ġfeu": 6282,
      ")|": 6283,
      "tage": 6284,
      "ĠHead": 6285,
      "hala": 6286,
      "elle": 6287,
      "201614": 6288,
      "Ġhusa": 6289,
      "ĠGold": 6290,
      "Ga": 6291,
      "nail": 6292,
      "Ġtafatafa": 6293,
      "Ġthere": 6294,
      "103": 6295,
      "mente": 6296,
      "ĠSama": 6297,
      "eing": 6298,
      "Ġfaatuatuaina": 6299,
      "nton": 6300,
      "urch": 6301,
      "Ġfaufautua": 6302,
      "Ġesau": 6303,
      "ĠfaÊ»alelei": 6304,
      "ĠPool": 6305,
      "Ġmaimoa": 6306,
      "ĠSHA": 6307,
      "ĠCount": 6308,
      "Ġya": 6309,
      "Ġnusipepa": 6310,
      "Ġinsulin": 6311,
      "AP": 6312,
      "ban": 6313,
      "Ġbeen": 6314,
      "room": 6315,
      "Ġvalea": 6316,
      "Ġ89": 6317,
      "ĠCollege": 6318,
      "toÊ»atasi": 6319,
      "lilolilo": 6320,
      "KI": 6321,
      "zzi": 6322,
      "ĠThu": 6323,
      "Ġï¿½ï¿½ï¿½ï¿½,": 6324,
      "\":[": 6325,
      "ĠFaailoga": 6326,
      "Ġhua": 6327,
      "Ġvuhula": 6328,
      "ÙĬ": 6329,
      "Ġpoloa": 6330,
      "Ġ83": 6331,
      "Ġhana": 6332,
      "ĠMAFAI": 6333,
      "ãĥ¼": 6334,
      "Ġwhen": 6335,
      "ĠfaÊ»aalu": 6336,
      "bli": 6337,
      "ĠFin": 6338,
      "Ġrama": 6339,
      "width": 6340,
      "Ġikea": 6341,
      "ĠChris": 6342,
      "Ġvitamini": 6343,
      "213": 6344,
      "Cyrillic": 6345,
      "ngali": 6346,
      "ĠFara": 6347,
      "gatasi": 6348,
      "Ġtuari": 6349,
      "ĠInt": 6350,
      "sapaia": 6351,
      "Ġiae": 6352,
      "pita": 6353,
      "Ġ71": 6354,
      "ĠPaul": 6355,
      "ITAI": 6356,
      "locale": 6357,
      "ndro": 6358,
      "baru": 6359,
      "ĠfaÊ»amalolo": 6360,
      "ĠKraist": 6361,
      "Ġman": 6362,
      "Ġtaia": 6363,
      "felo": 6364,
      "Ġsiliva": 6365,
      "Ġshall": 6366,
      "cina": 6367,
      "ĠPsychic": 6368,
      "ĠSet": 6369,
      "Ġtuuaia": 6370,
      "puna": 6371,
      "ĠKX": 6372,
      "Ġhyper": 6373,
      "ĠfaÊ»atinoina": 6374,
      "CU": 6375,
      "ÄĢ": 6376,
      "ĠCoo": 6377,
      "rama": 6378,
      "Ġatamamai": 6379,
      "reek": 6380,
      "ĠAzerbaijani": 6381,
      "cstrong": 6382,
      "peru": 6383,
      "atautaia": 6384,
      "Ra": 6385,
      "liko": 6386,
      "ĠCur": 6387,
      "Ġdar": 6388,
      "ĠTutotonu": 6389,
      "ĠSiaki": 6390,
      "info": 6391,
      "Ġhen": 6392,
      "Ġtinoitupe": 6393,
      "ile": 6394,
      "Ġsiva": 6395,
      "kone": 6396,
      "Ġatagia": 6397,
      "nuary": 6398,
      "sana": 6399,
      "laula": 6400,
      "ĠGiu": 6401,
      "ĠFaata": 6402,
      "thing": 6403,
      "ĠBrown": 6404,
      "Ġfurniture": 6405,
      "ĠUlu": 6406,
      "Ġ94": 6407,
      "tinoga": 6408,
      "Ġosofaiga": 6409,
      "Ġlaei": 6410,
      "Ġ850": 6411,
      "ĠAPK": 6412,
      "ĠTuuina": 6413,
      "Ġnon": 6414,
      "ĠFaapitoa": 6415,
      "ĠTAIMI": 6416,
      "Ġbuy": 6417,
      "Sala": 6418,
      "ĠNga": 6419,
      "ĠLomi": 6420,
      "ĠCON": 6421,
      "ĠSquare": 6422,
      "Ġwere": 6423,
      "Ġ88": 6424,
      "aletonu": 6425,
      "pres": 6426,
      "Ġpaluga": 6427,
      "Ġhari": 6428,
      "ĠMercedes": 6429,
      "ĠKorea": 6430,
      "ania": 6431,
      "Ã±": 6432,
      "Ġmedi": 6433,
      "ĠNissan": 6434,
      "aamo": 6435,
      "Ġprotein": 6436,
      "180": 6437,
      ":\\": 6438,
      "HD": 6439,
      "Ġtaliga": 6440,
      "ï¼": 6441,
      "ĠOlo": 6442,
      "432": 6443,
      "Ġpopolega": 6444,
      "Ġind": 6445,
      "lavu": 6446,
      "cata": 6447,
      "ĠfaÊ»atusatusa": 6448,
      "ĠAca": 6449,
      "ĠRomeo": 6450,
      "ĠAvanoa": 6451,
      "ĠEther": 6452,
      "ĠRoad": 6453,
      "Ġking": 6454,
      "yundai": 6455,
      "ĠCoast": 6456,
      "BB": 6457,
      "Ġvalaauina": 6458,
      "mit": 6459,
      "gement": 6460,
      "INO": 6461,
      "Ġmasalomia": 6462,
      "ĠST": 6463,
      "ĠkÄģ": 6464,
      "ĠFuafuaga": 6465,
      "Ġsavavali": 6466,
      "Ġfru": 6467,
      "ĠfaiÊ»ai": 6468,
      "Ġsur": 6469,
      "Ġget": 6470,
      "ĠTimes": 6471,
      "foaina": 6472,
      "atali": 6473,
      "ĠMr": 6474,
      "ĠGafua": 6475,
      "cci": 6476,
      "ĠBai": 6477,
      "talanoa": 6478,
      "Ġtaotoga": 6479,
      "ĠChitonga": 6480,
      "pulaaina": 6481,
      "bama": 6482,
      "Ġprotectie": 6483,
      "Ġetato": 6484,
      "MAN": 6485,
      "lare": 6486,
      "ĠRegi": 6487,
      "paper": 6488,
      "sione": 6489,
      "483": 6490,
      "srcid": 6491,
      "wtlocale": 6492,
      "Ġbra": 6493,
      "hio": 6494,
      "ĠKae": 6495,
      "bin": 6496,
      "Ġ2002": 6497,
      "ĠLagolago": 6498,
      "Ġear": 6499,
      "ĠFamily": 6500,
      "ĠVada": 6501,
      "Ġlolovai": 6502,
      "ĠJune": 6503,
      "ofu": 6504,
      "Ġgamaga": 6505,
      "chain": 6506,
      "ĠNofo": 6507,
      "togra": 6508,
      "RS": 6509,
      "alele": 6510,
      "ANI": 6511,
      "Â´": 6512,
      "Â·": 6513,
      "tol": 6514,
      "ĠCro": 6515,
      "Ġmay": 6516,
      "Ġbae": 6517,
      "Ġaliali": 6518,
      "Ġsystem": 6519,
      "ĠGroup": 6520,
      "ĠJanuary": 6521,
      "lism": 6522,
      "Ġservice": 6523,
      "ĠJoseph": 6524,
      "ĠâĢĻ": 6525,
      "umbnail": 6526,
      "pale": 6527,
      "Ġpovi": 6528,
      "CD": 6529,
      "Liste": 6530,
      "Ġ180": 6531,
      "dule": 6532,
      "ĠAlba": 6533,
      "sso": 6534,
      "nul": 6535,
      "ĠPU": 6536,
      "ĠBru": 6537,
      "ĠWith": 6538,
      "Ġbaine": 6539,
      "top": 6540,
      "Ġ3000": 6541,
      "cel": 6542,
      "Ġeala": 6543,
      "lumaga": 6544,
      "eata": 6545,
      "ĠAÊ»o": 6546,
      "Ġcase": 6547,
      "ĠAcnezine": 6548,
      "Ġfulu": 6549,
      "ndle": 6550,
      "mbra": 6551,
      "Ġfaagaoioia": 6552,
      "MATALA": 6553,
      "Listener": 6554,
      "Ġvaitafe": 6555,
      "Femei": 6556,
      "Ġtavu": 6557,
      "ĠVaalele": 6558,
      "ĠSamsung": 6559,
      "ĠLine": 6560,
      "rijland": 6561,
      "sisi": 6562,
      "ĠvÄģ": 6563,
      "Ġsite": 6564,
      "Ġmen": 6565,
      "Ġavetaavale": 6566,
      "ÑģÑĤ": 6567,
      "gt": 6568,
      "ĠBeau": 6569,
      "ngu": 6570,
      "Ġsaini": 6571,
      "Ġvulo": 6572,
      "pese": 6573,
      "Ġfaamasani": 6574,
      "****": 6575,
      "true": 6576,
      "tuvale": 6577,
      "face": 6578,
      "Ġgoodou": 6579,
      "Di": 6580,
      "ĠBos": 6581,
      "ĠSema": 6582,
      "ydra": 6583,
      "aleleia": 6584,
      "ĠtamaÊ»i": 6585,
      "KS": 6586,
      "mpo": 6587,
      "Ġmafaia": 6588,
      "lone": 6589,
      "ĠEUR": 6590,
      "bles": 6591,
      "lter": 6592,
      "ï½": 6593,
      "ĠDar": 6594,
      "huli": 6595,
      "Ġdai": 6596,
      "vela": 6597,
      "ens": 6598,
      "Ġlaixe": 6599,
      "ffa": 6600,
      "ĠAnti": 6601,
      "seti": 6602,
      "aaliga": 6603,
      "core": 6604,
      "145": 6605,
      "fina": 6606,
      "Ġsipuni": 6607,
      "Ġbamona": 6608,
      "pera": 6609,
      "ĠAper": 6610,
      "ĠMauri": 6611,
      "EventListener": 6612,
      "ASO": 6613,
      "2004": 6614,
      "Ê»aunaga": 6615,
      "ĠHyundai": 6616,
      "ĠFaÊ»ataÊ»itaÊ»iga": 6617,
      "cky": 6618,
      "Ġ2001": 6619,
      "Ġlampada": 6620,
      "Co": 6621,
      "PH": 6622,
      "circle": 6623,
      "Ġ155": 6624,
      "2101": 6625,
      "109": 6626,
      "Ġ108": 6627,
      "rder": 6628,
      "Ġfaaliliuina": 6629,
      "dua": 6630,
      "epe": 6631,
      "Ġpisi": 6632,
      "Ġtamaloa": 6633,
      "ĠDay": 6634,
      "Øª": 6635,
      "Ona": 6636,
      "Ġlulu": 6637,
      "Ġ//": 6638,
      "MK": 6639,
      "tz": 6640,
      "Ġfaaulu": 6641,
      "ĠEala": 6642,
      "»¿": 6643,
      "Ġarea": 6644,
      "Ġ526": 6645,
      "ctrum": 6646,
      "ĠAumai": 6647,
      "ĠTaaalo": 6648,
      "ĠHerbal": 6649,
      "ĠPele": 6650,
      "Ġname": 6651,
      "fore": 6652,
      "ĠVrijland": 6653,
      "Ġ92": 6654,
      "Ġji": 6655,
      "Ġprovi": 6656,
      "Ġmamanuina": 6657,
      "Ġmasalosalo": 6658,
      ";]": 6659,
      "sk": 6660,
      "áĥ": 6661,
      "ners": 6662,
      "ĠIso": 6663,
      "146": 6664,
      "Ġfiu": 6665,
      "ĠMili": 6666,
      "ĠTro": 6667,
      "Ġmanulele": 6668,
      "Ġgene": 6669,
      "Ġrou": 6670,
      "Ġmetabo": 6671,
      "ĠGaosiga": 6672,
      "ĠTagai": 6673,
      "brand": 6674,
      "ĠFrench": 6675,
      "ĠHonda": 6676,
      "ĠCroa": 6677,
      "ĠÂ°": 6678,
      "Ġbonus": 6679,
      "ĠBlackjack": 6680,
      "UEGA": 6681,
      "crea": 6682,
      "ĠUTC": 6683,
      "ĠAukuso": 6684,
      "ĠArab": 6685,
      "Ġcarcase": 6686,
      "Bo": 6687,
      "tl": 6688,
      "ĠfaÊ»ava": 6689,
      "Ġpogisa": 6690,
      "ĠFaatoaga": 6691,
      "xai": 6692,
      "Ġlapisi": 6693,
      "ĠFaaola": 6694,
      "ĠmataÊ»ina": 6695,
      "ĠAug": 6696,
      "ctive": 6697,
      "Ġlove": 6698,
      "faÊ»ailoga": 6699,
      "uil": 6700,
      "ALIA": 6701,
      "ĠInstagram": 6702,
      "saia": 6703,
      "Ġsima": 6704,
      "nish": 6705,
      "ĠMari": 6706,
      "Ġmaga": 6707,
      "mide": 6708,
      "Ġpaka": 6709,
      "308": 6710,
      "well": 6711,
      "Ú©": 6712,
      "lated": 6713,
      "ĠVIC": 6714,
      "Ġgua": 6715,
      "Ġinisiua": 6716,
      "Ġinisinia": 6717,
      ":-": 6718,
      "nisi": 6719,
      "Ġkoko": 6720,
      "ĠAperaamo": 6721,
      "ĠBeach": 6722,
      "ĠFal": 6723,
      "170": 6724,
      "amalo": 6725,
      "Ġaano": 6726,
      "mepa": 6727,
      "ĠDC": 6728,
      "Ġfaasaienisi": 6729,
      "ĠUi": 6730,
      "ĠLesona": 6731,
      "zheng": 6732,
      "sali": 6733,
      "ration": 6734,
      "cono": 6735,
      "ĠLeone": 6736,
      "web": 6737,
      "ĠSwahili": 6738,
      "\")": 6739,
      "Ġfaitupe": 6740,
      "CF": 6741,
      "table": 6742,
      "Ġ91": 6743,
      "Ġuse": 6744,
      "Ġpoly": 6745,
      "susu": 6746,
      "Ġaotelega": 6747,
      "Ġ93": 6748,
      "ĠMataio": 6749,
      "mited": 6750,
      "faiva": 6751,
      "Ġvaevaeina": 6752,
      "Ha": 6753,
      "titu": 6754,
      "pathy": 6755,
      "gini": 6756,
      "Ġfelo": 6757,
      "ĠLake": 6758,
      "Ġcasinos": 6759,
      "vaga": 6760,
      "ĠAE": 6761,
      "mele": 6762,
      "135": 6763,
      "lauaiga": 6764,
      "Benz": 6765,
      "ĠPulu": 6766,
      "egai": 6767,
      "Ġtofu": 6768,
      "ĠFaamolemole": 6769,
      "Ġmutou": 6770,
      "Ġgila": 6771,
      "ĠVadaeni": 6772,
      "215": 6773,
      "Ġacc": 6774,
      "Ġeuro": 6775,
      "Ġtrai": 6776,
      "166": 6777,
      "ĠKapeneta": 6778,
      "UGA": 6779,
      "ĠAloaia": 6780,
      "hel": 6781,
      "Ġatuatuvale": 6782,
      "talavou": 6783,
      "ĠSavaii": 6784,
      "ĠOpen": 6785,
      "Ġdina": 6786,
      "Ġhatavi": 6787,
      "ĠPRE": 6788,
      "ĠEu": 6789,
      "Ġfaatonutonu": 6790,
      "Ġtofotofo": 6791,
      "kani": 6792,
      "ĠfeusuaÊ»iga": 6793,
      "Ġsauniuniga": 6794,
      "nam": 6795,
      "148": 6796,
      "Ġfeiloa": 6797,
      "Ġlipotia": 6798,
      "RD": 6799,
      "ÄĴ": 6800,
      "ĠTHE": 6801,
      "har": 6802,
      "Ġkanesa": 6803,
      "131": 6804,
      "Ġisasa": 6805,
      "Ġtausisia": 6806,
      "clero": 6807,
      "Ġfaatusatusa": 6808,
      "Ġtotino": 6809,
      "mus": 6810,
      "Ġï¿½ï¿½ï¿½ï¿½ï¿½ï¿½.": 6811,
      "Ġseni": 6812,
      "Ġvrea": 6813,
      "Ġtaitaia": 6814,
      "Ġthem": 6815,
      "cast": 6816,
      "Ġtalai": 6817,
      "Ġ=>": 6818,
      "aea": 6819,
      "Ġmukalu": 6820,
      "ĠSee": 6821,
      "Ġporn": 6822,
      "301": 6823,
      "natura": 6824,
      "Ġtes": 6825,
      "ras": 6826,
      "004": 6827,
      "ĠTuia": 6828,
      "ĠCal": 6829,
      "ĠInser": 6830,
      "386": 6831,
      "Ġpere": 6832,
      "fla": 6833,
      "glo": 6834,
      "Ġtaleni": 6835,
      "Ġur": 6836,
      "Ġkar": 6837,
      "Ġfoafoaina": 6838,
      "Ġotaota": 6839,
      "ĠOcea": 6840,
      "Ġfaataamilo": 6841,
      "ĠCarolina": 6842,
      "Ġmada": 6843,
      "2011": 6844,
      "ĠpeitaÊ»i": 6845,
      "miai": 6846,
      "ĠAferika": 6847,
      "Feed": 6848,
      "doo": 6849,
      "ĠASO": 6850,
      "Ġtumaoti": 6851,
      "310": 6852,
      "words": 6853,
      "laha": 6854,
      "vas": 6855,
      "ĠfaÊ»aga": 6856,
      "colle": 6857,
      "soo": 6858,
      "122": 6859,
      "Ġlaufanua": 6860,
      "Ġtext": 6861,
      "Ġhatavivile": 6862,
      "Ġdea": 6863,
      "Ġkeo": 6864,
      "hara": 6865,
      "Ġmauri": 6866,
      "ĠRose": 6867,
      "Ġlolovaia": 6868,
      "],\"": 6869,
      "ĠlaÊ»ua": 6870,
      "tugu": 6871,
      "ĠfaÊ»avave": 6872,
      "Ġumu": 6873,
      "Ġï¿½ï¿½ï¿½ï¿½ï¿½ï¿½ï¿½.": 6874,
      "vy": 6875,
      "ĠtelÄĵ": 6876,
      "mor": 6877,
      "Ġlight": 6878,
      "Ġfaalogona": 6879,
      "ĠMusi": 6880,
      "sterone": 6881,
      "No": 6882,
      "samoanews": 6883,
      "Ġfaafiafia": 6884,
      "fault": 6885,
      "Ġtufatufaina": 6886,
      "ĠOro": 6887,
      "ĠLB": 6888,
      "Ġwuso": 6889,
      "ĠNatural": 6890,
      "shion": 6891,
      "ĠDO": 6892,
      "ĠSupp": 6893,
      "Ġulutala": 6894,
      "ĠMatini": 6895,
      "tice": 6896,
      "giri": 6897,
      "vaivai": 6898,
      "Ne": 6899,
      "pina": 6900,
      "wei": 6901,
      "Ġsela": 6902,
      "Ġpoi": 6903,
      "118": 6904,
      "iaagH": 6905,
      "Ã¶": 6906,
      "ĠAia": 6907,
      "Ġmulai": 6908,
      "Ġtalisapaia": 6909,
      "bis": 6910,
      "Ġfar": 6911,
      "sic": 6912,
      "ĠfaÊ»aopoopo": 6913,
      "ligi": 6914,
      "Ġ(-": 6915,
      "Ġfaamautinoa": 6916,
      "Ġplu": 6917,
      "ĠmÄģfuaaga": 6918,
      "Ġfaapotopoto": 6919,
      "îĻ¡": 6920,
      "Ġvikara": 6921,
      "ĠCard": 6922,
      "ĠfaÊ»amalamalamaina": 6923,
      "mium": 6924,
      "Ġfaamamaina": 6925,
      "ĠGuzheng": 6926,
      "socia": 6927,
      "lythe": 6928,
      "Ġtaatele": 6929,
      "ĠBase": 6930,
      "duceri": 6931,
      "700": 6932,
      "Ġemui": 6933,
      "ĠATU": 6934,
      "ĠPhone": 6935,
      "ĠHea": 6936,
      "Ġpage": 6937,
      "Ġsoa": 6938,
      "Ġbou": 6939,
      "ĠMoses": 6940,
      "eia": 6941,
      "part": 6942,
      "tupeina": 6943,
      "Afai": 6944,
      "Ġstu": 6945,
      "ĠData": 6946,
      "MC": 6947,
      "das": 6948,
      "Ġ000": 6949,
      "Ġafu": 6950,
      "Ġaposetolo": 6951,
      "Ġania": 6952,
      "niga": 6953,
      "Ġtaualumaga": 6954,
      "ĠfaÊ»amamaina": 6955,
      "ĠAlpha": 6956,
      "eces": 6957,
      "FONO": 6958,
      "ĠTrai": 6959,
      "hip": 6960,
      "Ġcana": 6961,
      "Ġfusu": 6962,
      "fornia": 6963,
      "ĠuÅį": 6964,
      "ĠLuka": 6965,
      "Ġisafa": 6966,
      "For": 6967,
      "cking": 6968,
      "aiina": 6969,
      "Ġhele": 6970,
      "ĠHouse": 6971,
      "ĠTunisia": 6972,
      "#\"": 6973,
      "CL": 6974,
      "esi": 6975,
      "á»": 6976,
      "opoopoga": 6977,
      "zech": 6978,
      "count": 6979,
      "Ġtenei": 6980,
      "ĠFair": 6981,
      "ĠSamuelu": 6982,
      "ĠTatau": 6983,
      "Ġlaititi": 6984,
      "ĠfesoÊ»otaiga": 6985,
      "gere": 6986,
      "Ġovola": 6987,
      "Ġang": 6988,
      "Ġtanu": 6989,
      "155": 6990,
      "limanu": 6991,
      "ema": 6992,
      "emu": 6993,
      "meri": 6994,
      "lonia": 6995,
      "ĠPra": 6996,
      "ĠHy": 6997,
      "ÑĮ": 6998,
      "Ġkata": 6999,
      "ONE": 7000,
      ":.": 7001,
      "Va": 7002,
      "Ġeria": 7003,
      "ĠDI": 7004,
      "ĠSuafa": 7005,
      "Ġtaufaasese": 7006,
      "Ġfuaiupu": 7007,
      "ĠSci": 7008,
      "ĠLili": 7009,
      "Ġamiole": 7010,
      "ĠfaÊ»aopopo": 7011,
      "Architecture": 7012,
      "Ġporno": 7013,
      "mil": 7014,
      "moli": 7015,
      "mat": 7016,
      "toÊ»aga": 7017,
      "Mata": 7018,
      "atatau": 7019,
      "ĠSpectrum": 7020,
      "ĠKanata": 7021,
      "fs": 7022,
      "Ġtaritigi": 7023,
      "ĠiS": 7024,
      "Ġtha": 7025,
      "tera": 7026,
      ",âĢĻ": 7027,
      "ĠTAU": 7028,
      "legale": 7029,
      "variation": 7030,
      "pone": 7031,
      "Ġfaipisinisi": 7032,
      "Ġtelevise": 7033,
      "palo": 7034,
      "ĠDai": 7035,
      "Ġsiomia": 7036,
      "Ġsene": 7037,
      "Ġkofe": 7038,
      "Ġhahe": 7039,
      "Ġï¿½ï¿½ï¿½ï¿½ï¿½.": 7040,
      "136": 7041,
      "RES": 7042,
      "ĠIere": 7043,
      "202": 7044,
      "LED": 7045,
      "Ġhilo": 7046,
      "rency": 7047,
      "Ġvia": 7048,
      "nh": 7049,
      "ĠseÊ»ia": 7050,
      "Ġ216": 7051,
      "faf": 7052,
      "ĠMafaufau": 7053,
      "ways": 7054,
      "pport": 7055,
      "ĠIta": 7056,
      "Ġ130": 7057,
      "VID": 7058,
      "ogo": 7059,
      "niu": 7060,
      "ĠMor": 7061,
      "ĠfaÊ»apu": 7062,
      "ĠPia": 7063,
      "ĠIsraela": 7064,
      "ĠWord": 7065,
      "docid": 7066,
      "=\\\"": 7067,
      "tox": 7068,
      "ĠHor": 7069,
      "ĠPeita": 7070,
      "ĠFaÊ»atulaga": 7071,
      "cose": 7072,
      "106": 7073,
      "teria": 7074,
      "Ġtolo": 7075,
      "ĠIsaia": 7076,
      "tube": 7077,
      "lockchain": 7078,
      "ĠFaalapotopotoga": 7079,
      "Ġakai": 7080,
      "ĠfaÊ»aoso": 7081,
      "ĠPage": 7082,
      "Ġ[&#": 7083,
      "ĠtenÄģ": 7084,
      "ĠTAITAI": 7085,
      "teri": 7086,
      "ĠPala": 7087,
      "Ġday": 7088,
      "ĠSeries": 7089,
      "gital": 7090,
      "Ġsoka": 7091,
      "\">&#": 7092,
      "ĠIopu": 7093,
      "ĠInternational": 7094,
      "logio": 7095,
      "Tota": 7096,
      "nica": 7097,
      "tiona": 7098,
      "Ġcrea": 7099,
      "ĠNY": 7100,
      "SP": 7101,
      "golu": 7102,
      "sus": 7103,
      "ĠTue": 7104,
      "cher": 7105,
      "LEI": 7106,
      "Ġfaaolaina": 7107,
      "natuina": 7108,
      "Ġhar": 7109,
      "Ġfaaleaga": 7110,
      "230": 7111,
      "rro": 7112,
      "sey": 7113,
      "MATA": 7114,
      "Ġaoauli": 7115,
      "Ġshe": 7116,
      "Ġtaiala": 7117,
      "Ġavo": 7118,
      "ĠOs": 7119,
      "ĠLy": 7120,
      "saki": 7121,
      "ĠMaia": 7122,
      "!!!": 7123,
      "Ġfuaina": 7124,
      "ĠApple": 7125,
      "NG": 7126,
      "wee": 7127,
      "Ġaau": 7128,
      "moana": 7129,
      "UUA": 7130,
      "nini": 7131,
      "mond": 7132,
      "182": 7133,
      "sku": 7134,
      "Ġfega": 7135,
      "Ġimp": 7136,
      "Ġstar": 7137,
      "rono": 7138,
      "SO": 7139,
      "ĠMin": 7140,
      "goo": 7141,
      "ĠSanta": 7142,
      "vern": 7143,
      "wder": 7144,
      "rik": 7145,
      "Ġcarcasa": 7146,
      "ĠKalama": 7147,
      "ĠAnaly": 7148,
      "Ġiunivesite": 7149,
      "Ġasia": 7150,
      "cola": 7151,
      "ĠLocation": 7152,
      "Ġmalilie": 7153,
      "Ġbigi": 7154,
      "Re": 7155,
      "nsi": 7156,
      "ĠAdd": 7157,
      "ĠSKU": 7158,
      "ĠOver": 7159,
      "ĠTraduceri": 7160,
      "ĠFUAFUAGA": 7161,
      "112": 7162,
      "alpha": 7163,
      "ĠPhili": 7164,
      "Ê»esu": 7165,
      "lers": 7166,
      "ĠLafoaÊ»i": 7167,
      "eretania": 7168,
      "Ġtogalaau": 7169,
      "Ġeinaka": 7170,
      "206": 7171,
      "ĠKato": 7172,
      "Ġfaitaulaga": 7173,
      "2009": 7174,
      "este": 7175,
      "Ġ81": 7176,
      "ĠApril": 7177,
      "ĠTwitter": 7178,
      "Ġkwa": 7179,
      "138": 7180,
      "Ġidea": 7181,
      "omalo": 7182,
      "ĠFei": 7183,
      "ĠEleni": 7184,
      "Ġtamu": 7185,
      "ĠIII": 7186,
      "Ġtag": 7187,
      "114": 7188,
      "ĠArchives": 7189,
      "eaa": 7190,
      "ĠAG": 7191,
      "hoo": 7192,
      "ĠDavi": 7193,
      "height": 7194,
      "Images": 7195,
      "index": 7196,
      "len": 7197,
      "ĠBlu": 7198,
      "Ġalogai": 7199,
      "Ġtur": 7200,
      "ĠtaÊ»uta": 7201,
      "Ġdigau": 7202,
      "collection": 7203,
      "Ą.": 7204,
      "ĠseÊ»i": 7205,
      "835": 7206,
      "momomo": 7207,
      "Ġetc": 7208,
      "Ġng": 7209,
      "179": 7210,
      "met": 7211,
      "ĠÐ½": 7212,
      "ĠPiece": 7213,
      "ĠAsa": 7214,
      "??,": 7215,
      "ĠLap": 7216,
      "ĠâĻ": 7217,
      "Ġanni": 7218,
      "ĠNuu": 7219,
      "Ġknow": 7220,
      "ĠWhat": 7221,
      "usuaga": 7222,
      "Ġmanual": 7223,
      "686": 7224,
      "Ġ450": 7225,
      "ĠRepublic": 7226,
      "Ġtuusao": 7227,
      "sp": 7228,
      "lot": 7229,
      "ĠFish": 7230,
      "ĠTacoma": 7231,
      "ĠKorini": 7232,
      "ĠBox": 7233,
      "coa": 7234,
      "nting": 7235,
      "tels": 7236,
      "Ġtuga": 7237,
      "ĠCzech": 7238,
      "===": 7239,
      "Ġir": 7240,
      "Ġcum": 7241,
      "sters": 7242,
      "body": 7243,
      "ĠEaubada": 7244,
      "ĠKorinito": 7245,
      "Ġsca": 7246,
      "ĠFoot": 7247,
      "lution": 7248,
      "ĠAne": 7249,
      "telli": 7250,
      "ĠMaketi": 7251,
      "ĠLui": 7252,
      "Ġoulua": 7253,
      "fuefu": 7254,
      "Ġkuki": 7255,
      "240": 7256,
      "ĠCAR": 7257,
      "Ġsay": 7258,
      "ingi": 7259,
      "ĠPese": 7260,
      "Ġnaua": 7261,
      "taio": 7262,
      "feagaiga": 7263,
      "ĠAudi": 7264,
      "shington": 7265,
      "Ġpeti": 7266,
      "Ġfaagaau": 7267,
      "(){": 7268,
      "lto": 7269,
      "Ġino": 7270,
      "00000": 7271,
      "Ġteineititi": 7272,
      "ĠTio": 7273,
      "Ġuumi": 7274,
      "pusa": 7275,
      "Ġtauaga": 7276,
      "ĠMarco": 7277,
      "Ġnea": 7278,
      "\\\"\\": 7279,
      "ĠThomas": 7280,
      "ĠSti": 7281,
      "lumina": 7282,
      "Ġnatia": 7283,
      "mbia": 7284,
      "ĠPeresitene": 7285,
      "tuu": 7286,
      "ĠStory": 7287,
      "Ġmii": 7288,
      "152": 7289,
      "Ġtusiata": 7290,
      "rance": 7291,
      "xBet": 7292,
      "tusia": 7293,
      "Ġï¿½ï¿½ï¿½ï¿½ï¿½ï¿½ï¿½ï¿½ï¿½,": 7294,
      "ĠIowa": 7295,
      "Ġnana": 7296,
      "puia": 7297,
      "cine": 7298,
      "207": 7299,
      "Ġï¿½ï¿½ï¿½ï¿½ï¿½ï¿½ï¿½:": 7300,
      "cspan": 7301,
      "ÐµÐ½": 7302,
      "Ġfolie": 7303,
      "engi": 7304,
      "ĠSubaru": 7305,
      "gust": 7306,
      "ĠPolish": 7307,
      "ĠmaÊ»a": 7308,
      "Ġmost": 7309,
      "dies": 7310,
      "ĠAÊ»e": 7311,
      "Ġ140": 7312,
      "ilalo": 7313,
      "IG": 7314,
      "ĠAlamanuia": 7315,
      "Ġtie": 7316,
      "ĠBlythe": 7317,
      "Ġfeso": 7318,
      "amaumauga": 7319,
      "pta": 7320,
      "Ġharo": 7321,
      "ĠMAN": 7322,
      "Ġpalapala": 7323,
      "Ġpur": 7324,
      "ĠMark": 7325,
      "Ñĭ": 7326,
      "Ġabu": 7327,
      "uaÊ»i": 7328,
      "sty": 7329,
      "Ġtauau": 7330,
      "valea": 7331,
      "utch": 7332,
      "resent": 7333,
      "WS": 7334,
      "wagen": 7335,
      "ĠTogiola": 7336,
      "Ġiti": 7337,
      "Ġvaloaga": 7338,
      "ilima": 7339,
      "atu": 7340,
      "rati": 7341,
      "Ġbese": 7342,
      "Ġbetting": 7343,
      "Ġfaatumauina": 7344,
      "Ġfaaeteete": 7345,
      "ĠGU": 7346,
      "ĠTahi": 7347,
      "Ġpupu": 7348,
      "Ġmuta": 7349,
      "Ġvoxo": 7350,
      "Ġhelp": 7351,
      "Do": 7352,
      "ealand": 7353,
      "Ġakaiki": 7354,
      "?\"": 7355,
      "ĠIm": 7356,
      "memea": 7357,
      "din": 7358,
      "ducation": 7359,
      "ĠLone": 7360,
      "MG": 7361,
      "Ġdra": 7362,
      "ĠNoa": 7363,
      "ĠFaÊ»avae": 7364,
      "ĠLana": 7365,
      "ddle": 7366,
      "ĠPaipa": 7367,
      "ĠGlobal": 7368,
      "Total": 7369,
      "225": 7370,
      "kina": 7371,
      "Ġexa": 7372,
      "Ġset": 7373,
      "mupini": 7374,
      "kini": 7375,
      "ĠPeresetene": 7376,
      "Ġfaapipiiina": 7377,
      "tems": 7378,
      "toare": 7379,
      "taitai": 7380,
      "Ġfaamalo": 7381,
      "ĠRep": 7382,
      "Ġspins": 7383,
      "liki": 7384,
      "ĠSur": 7385,
      "eru": 7386,
      "ndy": 7387,
      "ensis": 7388,
      "Ġsasaa": 7389,
      "ĠtaulaÊ»i": 7390,
      "kese": 7391,
      "vol": 7392,
      "Ġfaisua": 7393,
      "zil": 7394,
      "tured": 7395,
      "Ġadu": 7396,
      "tili": 7397,
      "ĠFanau": 7398,
      "ĠJe": 7399,
      "ĠKale": 7400,
      "down": 7401,
      "ANA": 7402,
      "leaga": 7403,
      "Ġfaasi": 7404,
      "ĠFam": 7405,
      "molo": 7406,
      "ĠSaili": 7407,
      "MX": 7408,
      "Â¡": 7409,
      "Ġlaoma": 7410,
      "ĠTani": 7411,
      "ĠfeÊ»au": 7412,
      "ĠPape": 7413,
      "sinomaga": 7414,
      "Ġtotogia": 7415,
      "Ġfaatapulaaina": 7416,
      "ĠJisas": 7417,
      "ĠmÅ«": 7418,
      "ĠPlu": 7419,
      "cing": 7420,
      "Ġ1999": 7421,
      "Ġagava": 7422,
      "Ġcome": 7423,
      "Ġora": 7424,
      "bora": 7425,
      "KO": 7426,
      "ĠCover": 7427,
      "BO": 7428,
      "Ġfaasalalau": 7429,
      "ufa": 7430,
      "Ġose": 7431,
      "kan": 7432,
      "right": 7433,
      "190": 7434,
      "Ġpoloketi": 7435,
      "ĠAND": 7436,
      "togo": 7437,
      "nimani": 7438,
      "Ġfaafaigaluega": 7439,
      "117": 7440,
      "ĠtuÊ»ufaÊ»atasia": 7441,
      ".âĢĭâĢĶ": 7442,
      "Ġoma": 7443,
      "Ġtapuni": 7444,
      "ĠRea": 7445,
      "bana": 7446,
      "bati": 7447,
      "ORG": 7448,
      "proof": 7449,
      "ĠTutuila": 7450,
      "ifa": 7451,
      "lation": 7452,
      "Ġinto": 7453,
      "php": 7454,
      "Luka": 7455,
      "zii": 7456,
      "ĠEX": 7457,
      "ï¿½ï¿½ï¿½ï¿½ï¿½ï¿½ï¿½ï¿½ï¿½ï¿½": 7458,
      "VD": 7459,
      "tak": 7460,
      "liega": 7461,
      "ĠLoa": 7462,
      "rant": 7463,
      "ralluma": 7464,
      "Ġafter": 7465,
      "clo": 7466,
      "ĠSenatoa": 7467,
      "KY": 7468,
      "bona": 7469,
      "Ġfaaalu": 7470,
      "Ġresitala": 7471,
      "nimanima": 7472,
      "?âĢĻ": 7473,
      "Ġhrs": 7474,
      "Ġfaapisinisi": 7475,
      "ĠPRO": 7476,
      "Ġwhere": 7477,
      "ĠSilver": 7478,
      "ĠLevi": 7479,
      "ĠFAITA": 7480,
      "osua": 7481,
      "ĠCalifornia": 7482,
      "âĦ¢": 7483,
      "ĠSen": 7484,
      "mino": 7485,
      "ĠMal": 7486,
      "Ġfaamalama": 7487,
      "bea": 7488,
      "rence": 7489,
      "ĠMan": 7490,
      "ĠtigÄģ": 7491,
      "currency": 7492,
      "uala": 7493,
      "timu": 7494,
      "ĠFT": 7495,
      "mili": 7496,
      "hine": 7497,
      "Ka": 7498,
      "time": 7499,
      "ĠEFK": 7500,
      "Ġgoa": 7501,
      "ĠSuÊ»ega": 7502,
      "ĠSenate": 7503,
      "Ġsisifo": 7504,
      "ĠSisifo": 7505,
      "ĠCli": 7506,
      "ĠJuly": 7507,
      "Ã¼": 7508,
      "ĠAri": 7509,
      "ĠAutu": 7510,
      "ĠTALOS": 7511,
      "Ġec": 7512,
      "Ġfaamuamua": 7513,
      "ĠOR": 7514,
      "zie": 7515,
      "AST": 7516,
      "ĠfaÊ»asoa": 7517,
      "graphy": 7518,
      "bury": 7519,
      "avae": 7520,
      "ĠÎ": 7521,
      "ĠFIA": 7522,
      "sure": 7523,
      "uauu": 7524,
      "ĠBig": 7525,
      "masama": 7526,
      "ĠLong": 7527,
      "ĠManua": 7528,
      "Ġsolofa": 7529,
      "ĠCam": 7530,
      "Ġvisi": 7531,
      "Ġpres": 7532,
      "ndra": 7533,
      "Ġsuper": 7534,
      "ĠLand": 7535,
      "Ġkepa": 7536,
      "road": 7537,
      "'.": 7538,
      "Â¬": 7539,
      "osclero": 7540,
      "bua": 7541,
      "hd": 7542,
      "Ġanapogi": 7543,
      "ĠRosa": 7544,
      "mmer": 7545,
      "uk": 7546,
      "Ġclass": 7547,
      "mama": 7548,
      "edcc": 7549,
      "ĠWashington": 7550,
      "Ġogaumu": 7551,
      "ĠÅ": 7552,
      "host": 7553,
      "Ġmalologa": 7554,
      "kswagen": 7555,
      "Ġsma": 7556,
      "ĠPH": 7557,
      "%.": 7558,
      "IR": 7559,
      "Ġbul": 7560,
      "Ġmisia": 7561,
      "cp": 7562,
      "Ġeka": 7563,
      "ĠBMW": 7564,
      "Ġgamer": 7565,
      "nse": 7566,
      "vei": 7567,
      "205": 7568,
      "ĠFile": 7569,
      "ISI": 7570,
      "Ġcarbon": 7571,
      "Tube": 7572,
      "Ġtatai": 7573,
      "ĠType": 7574,
      "ĠfaÊ»amalama": 7575,
      "pify": 7576,
      "ĠTransmission": 7577,
      "Ġhormone": 7578,
      "ĠFC": 7579,
      "ĠEstate": 7580,
      "002": 7581,
      "ĠAprilia": 7582,
      "Ġtulimanu": 7583,
      "vernment": 7584,
      "lex": 7585,
      "Ġtalimalo": 7586,
      "ĠKey": 7587,
      "BE": 7588,
      "Ġlotoa": 7589,
      "ĠGol": 7590,
      "404": 7591,
      "ĠVideo": 7592,
      "Ke": 7593,
      "ahi": 7594,
      "ĠOfo": 7595,
      "ĠVita": 7596,
      "Ġlagonaina": 7597,
      "comparebd": 7598,
      "Panasonic": 7599,
      "ose": 7600,
      "you": 7601,
      "wana": 7602,
      "ĠTotal": 7603,
      "ĠsaÊ»ili": 7604,
      "ĠUpolu": 7605,
      "ĠHen": 7606,
      "ĠTatala": 7607,
      "ĠZealand": 7608,
      "Ġ***": 7609,
      "ĠRug": 7610,
      "fii": 7611,
      "ĠNei": 7612,
      "lease": 7613,
      "ĠTALI": 7614,
      "DIC": 7615,
      "NS": 7616,
      "ram": 7617,
      "sone": 7618,
      "Ġpizda": 7619,
      "108": 7620,
      "Ġfaasolo": 7621,
      "ĠGeorge": 7622,
      "ĠFaaliliuga": 7623,
      "guna": 7624,
      "Ġ×": 7625,
      "ĠAsiasi": 7626,
      "colo": 7627,
      "ching": 7628,
      "Ġgataifale": 7629,
      "tosterone": 7630,
      "none": 7631,
      "puter": 7632,
      "Ġsunt": 7633,
      "ĠTurki": 7634,
      "Ġmauma": 7635,
      "nown": 7636,
      "ĠKin": 7637,
      "ĠFaafe": 7638,
      "Ġlilo": 7639,
      "tinati": 7640,
      "ĠmananaÊ»o": 7641,
      "945": 7642,
      "ery": 7643,
      "Ġseleni": 7644,
      "panese": 7645,
      "ĠSemalt": 7646,
      "Ġlafu": 7647,
      "Ġoloo": 7648,
      "ĠFAITAU": 7649,
      "ĠTaÊ»aloga": 7650,
      "SL": 7651,
      "Ê»avale": 7652,
      "ĠFolie": 7653,
      "Ġfaamamaluina": 7654,
      "ape": 7655,
      "à±": 7656,
      "Ġthan": 7657,
      "Ġvale": 7658,
      "gese": 7659,
      "over": 7660,
      "waa": 7661,
      "ĠClo": 7662,
      "Ġmaie": 7663,
      "Ġfull": 7664,
      "Mai": 7665,
      "ĠOhio": 7666,
      "ĠBusiness": 7667,
      "ĠKwa": 7668,
      "ĠTalofa": 7669,
      "Ġkalama": 7670,
      "arrow": 7671,
      "133": 7672,
      "Ġfeau": 7673,
      "ĠFaamasino": 7674,
      "nded": 7675,
      "ĠLaw": 7676,
      "Ġpipii": 7677,
      "ĠRussian": 7678,
      "tane": 7679,
      "ĠAio": 7680,
      "ĠCri": 7681,
      "ĠFaÊ»aleleia": 7682,
      "Ġtuala": 7683,
      "tuatuaina": 7684,
      "Ġwem": 7685,
      "ĠPort": 7686,
      "ĠTULAFONO": 7687,
      "Ġsolofanua": 7688,
      "itu": 7689,
      "Ġtale": 7690,
      "ĠVolkswagen": 7691,
      "Ġtofotofoga": 7692,
      "ctic": 7693,
      "Ġmara": 7694,
      "Ġtamoe": 7695,
      "ĠProduct": 7696,
      "gii": 7697,
      "bic": 7698,
      "ĠMinister": 7699,
      "FIA": 7700,
      "Ġmake": 7701,
      "ĠVitio": 7702,
      "ĠGene": 7703,
      "eÊ»a": 7704,
      "Ġfaalilolilo": 7705,
      "005": 7706,
      "Ġfetala": 7707,
      "ĠViet": 7708,
      "talk": 7709,
      "ĠfesootaÊ»i": 7710,
      "ĠHunga": 7711,
      "Pieces": 7712,
      "AH": 7713,
      "ĠJer": 7714,
      "ĠMixer": 7715,
      "SC": 7716,
      "edi": 7717,
      "Ġï¿½ï¿½ï¿½ï¿½.": 7718,
      "Ġpana": 7719,
      "ĠFALE": 7720,
      "ody": 7721,
      "align": 7722,
      "()": 7723,
      "Ġfaauta": 7724,
      "ĠDutch": 7725,
      "nthe": 7726,
      "Ġvaikala": 7727,
      "ĠArme": 7728,
      "ffee": 7729,
      "ĠMulti": 7730,
      "LL": 7731,
      "ĠGAL": 7732,
      "508": 7733,
      "TT": 7734,
      "mna": 7735,
      "loni": 7736,
      "ĠIloi": 7737,
      "ĠRead": 7738,
      "Ġmaliliega": 7739,
      "Ġlemu": 7740,
      "ĠSuÊ»esu": 7741,
      "ĠTech": 7742,
      "Ð°Ñ": 7743,
      "AMA": 7744,
      "goaina": 7745,
      "Ġpaketi": 7746,
      "ĠBaia": 7747,
      "ĠSaint": 7748,
      "ĠON": 7749,
      "Ġvaomatua": 7750,
      "ĠTALOSAGA": 7751,
      "Ġemu": 7752,
      "like": 7753,
      "Ġmes": 7754,
      "ĠWel": 7755,
      "ĠCod": 7756,
      "fili": 7757,
      "ĠMatua": 7758,
      "hood": 7759,
      "Ġjust": 7760,
      "Ġá¸¡au": 7761,
      "tulu": 7762,
      "Ġfaafesootai": 7763,
      "ĠMus": 7764,
      "ĠKiri": 7765,
      "Ġsusunu": 7766,
      "Ġfafa": 7767,
      "ĠfaÊ»asa": 7768,
      "ĠZi": 7769,
      "ĠasÅį": 7770,
      "fra": 7771,
      "lts": 7772,
      "tr": 7773,
      "Ġshi": 7774,
      "ĠIona": 7775,
      "Ġpalu": 7776,
      "2010": 7777,
      "Ùħ": 7778,
      "Ġ527": 7779,
      "ĠInitoneti": 7780,
      "Ġasu": 7781,
      "Ġsekone": 7782,
      "Ð°Ñģ": 7783,
      "ĠFoam": 7784,
      "Ġpost": 7785,
      "ĠMedical": 7786,
      "bes": 7787,
      "ĠStainless": 7788,
      "mos": 7789,
      "Ġsoona": 7790,
      "128": 7791,
      "mero": 7792,
      "Ġenzy": 7793,
      "Ġï¿½ï¿½ï¿½ï¿½ï¿½ï¿½ï¿½ï¿½.": 7794,
      "ĠFaataitaiga": 7795,
      "119": 7796,
      "Ġfuamoa": 7797,
      "ĠsaÊ»oloto": 7798,
      "ĠtoÊ»alua": 7799,
      "mato": 7800,
      "Ġefuefu": 7801,
      "ĠMade": 7802,
      "ĠâĢº": 7803,
      "Ġsosola": 7804,
      "Ã¨": 7805,
      "tulie": 7806,
      "ĠSco": 7807,
      "Ġcli": 7808,
      "motu": 7809,
      "AG": 7810,
      "Ġxo": 7811,
      "aulu": 7812,
      "ĠName": 7813,
      "fitiga": 7814,
      "Type": 7815,
      "Ġfusuaga": 7816,
      "Ġfagota": 7817,
      "Ġbitcoin": 7818,
      "Ġtelefon": 7819,
      "Ġimi": 7820,
      "ĠLevel": 7821,
      "Ġtalalelei": 7822,
      "Ġtila": 7823,
      "Ġitulagi": 7824,
      "nks": 7825,
      "Ġfegalegale": 7826,
      "ĠAnalytics": 7827,
      "Ġtho": 7828,
      "ĠfaÊ»atauina": 7829,
      "formin": 7830,
      "Ġkarnar": 7831,
      "153": 7832,
      "ĠKika": 7833,
      "pepe": 7834,
      "ĠDOH": 7835,
      "ĠfaÊ»alauiloaina": 7836,
      "ZI": 7837,
      "ĠAsh": 7838,
      "Ġmuavuti": 7839,
      "xico": 7840,
      "Ġtamutou": 7841,
      "bus": 7842,
      "Ġtalo": 7843,
      "Ġ240": 7844,
      "ngth": 7845,
      "Ġ360": 7846,
      "107": 7847,
      "tena": 7848,
      "ĠElia": 7849,
      "veni": 7850,
      "ĠÂ¡": 7851,
      "therosclero": 7852,
      "ĠFAÊ»AMATALA": 7853,
      "ĠTamaitai": 7854,
      "View": 7855,
      "files": 7856,
      "harma": 7857,
      "Ġsikoa": 7858,
      "Ġmisiona": 7859,
      "Ġlalonai": 7860,
      "stings": 7861,
      "ĠÊ»ai": 7862,
      "lished": 7863,
      "nders": 7864,
      "Ġ192": 7865,
      "berg": 7866,
      "An": 7867,
      "utia": 7868,
      "toro": 7869,
      "ĠPon": 7870,
      "Ġula": 7871,
      "hing": 7872,
      "Ġfaamalamalama": 7873,
      "Ġlife": 7874,
      "255": 7875,
      "167": 7876,
      "227": 7877,
      "ĠSlove": 7878,
      "Ġvalo": 7879,
      "ndri": 7880,
      "talatalanoaga": 7881,
      "Ġosofaia": 7882,
      "450": 7883,
      "ĠpÅį": 7884,
      "ĠIce": 7885,
      "ĠVo": 7886,
      "dana": 7887,
      "Ġaao": 7888,
      "htm": 7889,
      "235": 7890,
      "usala": 7891,
      "vents": 7892,
      "ĠMen": 7893,
      "ONI": 7894,
      "Mataio": 7895,
      "Ġtapa": 7896,
      "tausaga": 7897,
      "Ġgina": 7898,
      "Ġfakaasi": 7899,
      "ĠTamaiti": 7900,
      "pus": 7901,
      "kie": 7902,
      "113": 7903,
      "stitu": 7904,
      "ĠFaaaoga": 7905,
      "ĠsuauÊ»u": 7906,
      "opi": 7907,
      "Ġemai": 7908,
      "Ġfelauaiga": 7909,
      "ĠCoin": 7910,
      "AND": 7911,
      "Ġaveeseina": 7912,
      "ĠMarch": 7913,
      "chel": 7914,
      "ica": 7915,
      "Ġulai": 7916,
      "sue": 7917,
      "ĠtaÊ»itoÊ»atasi": 7918,
      "voi": 7919,
      "ould": 7920,
      "mn": 7921,
      "muga": 7922,
      "Ġlafoa": 7923,
      "Ġmono": 7924,
      "Ġhydro": 7925,
      "kuka": 7926,
      "sile": 7927,
      "Ġmomoe": 7928,
      "Ġtaualuga": 7929,
      "ĠFilme": 7930,
      "ĠFro": 7931,
      "ĠVega": 7932,
      "die": 7933,
      "ĠÐ²": 7934,
      "ofiina": 7935,
      "ids": 7936,
      "ĠVirginia": 7937,
      "Con": 7938,
      "Ġlaga": 7939,
      "Ġurine": 7940,
      "thua": 7941,
      "ĠWeek": 7942,
      "ĠMAR": 7943,
      "ĠSlova": 7944,
      "ĠFlorida": 7945,
      "Ġnafa": 7946,
      "ĠManda": 7947,
      "gutu": 7948,
      "Ġâĺħ": 7949,
      "Ġotooto": 7950,
      "Peretania": 7951,
      "asoa": 7952,
      "cka": 7953,
      "ĠSwe": 7954,
      "Ġsaolotoga": 7955,
      "Ġpsychic": 7956,
      "ging": 7957,
      "Ġ1998": 7958,
      "201412": 7959,
      "Ġfaasolosolo": 7960,
      "ĠPuma": 7961,
      "Ġcaini": 7962,
      "ĠMaster": 7963,
      "ĠBona": 7964,
      "ĠParis": 7965,
      "ĠNewspaper": 7966,
      "vaiga": 7967,
      "Ġulaula": 7968,
      "oui": 7969,
      "172": 7970,
      "Ġqui": 7971,
      "ĠHeb": 7972,
      "vine": 7973,
      "Ġtusitusia": 7974,
      "Ġlaomai": 7975,
      "bila": 7976,
      "iaa": 7977,
      "Ġhypoglycemia": 7978,
      "ĠTimoteo": 7979,
      "tooth": 7980,
      "ĠTattoos": 7981,
      "ĠAtamu": 7982,
      "Ġfafagaina": 7983,
      "221": 7984,
      "Ġrobo": 7985,
      "feso": 7986,
      "ĠValenti": 7987,
      "sie": 7988,
      "ĠMoo": 7989,
      "ĠCra": 7990,
      "Ġfaitio": 7991,
      "Ġlipi": 7992,
      "vian": 7993,
      "Ġdaa": 7994,
      "eder": 7995,
      "llage": 7996,
      "Ġfinauga": 7997,
      "ĠVaÊ»aia": 7998,
      "ĠOffice": 7999,
      "ĠEperu": 8000,
      "sela": 8001,
      "ĠUpega": 8002,
      "ologi": 8003,
      "cause": 8004,
      "Wa": 8005,
      "lati": 8006,
      "Ġtuku": 8007,
      "Ġtine": 8008,
      "163": 8009,
      "Ġiboudiai": 8010,
      "flo": 8011,
      "ä¸": 8012,
      "ĠHis": 8013,
      "ĠFaataÊ»itaÊ»iga": 8014,
      "ĠRevi": 8015,
      "Ġvulovulo": 8016,
      "ĠAh": 8017,
      "ference": 8018,
      "ĠCourt": 8019,
      "Ġå": 8020,
      "ĠAIC": 8021,
      "Ġfollo": 8022,
      "ĠGri": 8023,
      "tero": 8024,
      "168": 8025,
      "Al": 8026,
      "ĠMotor": 8027,
      "ĠFOU": 8028,
      "gre": 8029,
      "Ġlalelei": 8030,
      "012": 8031,
      "Ġalatoto": 8032,
      "ALIGA": 8033,
      "ĠArt": 8034,
      "ĠIosua": 8035,
      "ĠCle": 8036,
      "Ġmeafai": 8037,
      "208": 8038,
      "Ġmausali": 8039,
      "Ġuili": 8040,
      "Ġbaha": 8041,
      "305": 8042,
      "ĠTurbo": 8043,
      "nii": 8044,
      "Ġtutoatasi": 8045,
      "ĠMika": 8046,
      "ĠÐ¾": 8047,
      "ĠFaÊ»atauga": 8048,
      "Color": 8049,
      "ĠFatu": 8050,
      "Ġsuli": 8051,
      "xing": 8052,
      "iso": 8053,
      "Ġmag": 8054,
      "lesi": 8055,
      "Ġouka": 8056,
      "237": 8057,
      "xas": 8058,
      "Ġpae": 8059,
      "mplified": 8060,
      "Ġblo": 8061,
      "Ġfela": 8062,
      "ctors": 8063,
      "ĠStock": 8064,
      "838": 8065,
      "star": 8066,
      "Ġngaia": 8067,
      "ourse": 8068,
      "amilosaga": 8069,
      "rpei": 8070,
      "mane": 8071,
      "get": 8072,
      "Ġlaumei": 8073,
      "Ġmatuai": 8074,
      "Ġilou": 8075,
      "yal": 8076,
      "Ġtipiina": 8077,
      "api": 8078,
      "149": 8079,
      "tk": 8080,
      "Ġseries": 8081,
      "tore": 8082,
      "ĠAfa": 8083,
      "Ġproces": 8084,
      "ult": 8085,
      "Â´Â´": 8086,
      "Ġemi": 8087,
      "ĠLia": 8088,
      "Ġuk": 8089,
      "011": 8090,
      "Ġfolau": 8091,
      "ĠLow": 8092,
      "995": 8093,
      "Ġsalamo": 8094,
      "ĠVietnam": 8095,
      "ĠCree": 8096,
      "Ąă": 8097,
      "taele": 8098,
      "ĠTasi": 8099,
      "Ġsiko": 8100,
      "Ġtani": 8101,
      "ĠCel": 8102,
      "ĠDou": 8103,
      "binet": 8104,
      "Ġari": 8105,
      "Ġtr": 8106,
      "Ġlapoa": 8107,
      "ĠSuauu": 8108,
      "risi": 8109,
      "monai": 8110,
      "foane": 8111,
      "';": 8112,
      "ĠAlalaupapa": 8113,
      "itia": 8114,
      "oroa": 8115,
      "ĠPoker": 8116,
      "469": 8117,
      "Ġfeutaga": 8118,
      "TM": 8119,
      "cchi": 8120,
      "Ġasa": 8121,
      "ĠSli": 8122,
      "Ġused": 8123,
      "Ġnofoia": 8124,
      "Ġkeoma": 8125,
      "Ġmativa": 8126,
      "Ġtoleni": 8127,
      "ĠClub": 8128,
      "Ġtalatalanoaga": 8129,
      "ĠServices": 8130,
      "ĠfaÊ»avasega": 8131,
      "kisi": 8132,
      "ĠFaaali": 8133,
      "ĠCBD": 8134,
      "ĠSavali": 8135,
      "stia": 8136,
      "Ġcover": 8137,
      "keywords": 8138,
      "ĠosofaÊ»iga": 8139,
      "ÈĽ": 8140,
      "ĠFed": 8141,
      "Ġpelu": 8142,
      "fofo": 8143,
      "ĠHGH": 8144,
      "ĠTable": 8145,
      "ĠMALO": 8146,
      "Simplified": 8147,
      "yrics": 8148,
      "LY": 8149,
      "uauina": 8150,
      "ĠBio": 8151,
      "ĠGio": 8152,
      "Ġfeta": 8153,
      "Ġmuai": 8154,
      "remo": 8155,
      "hop": 8156,
      "Ġglo": 8157,
      "ERS": 8158,
      "Ġsailiili": 8159,
      "ĠFaÊ»aaoga": 8160,
      "word": 8161,
      "ĠPaa": 8162,
      "Ġcs": 8163,
      "ĠBO": 8164,
      "orn": 8165,
      "ĠAugust": 8166,
      "Ġfananau": 8167,
      "ĠGrowing": 8168,
      "ĠfaÊ»amalositino": 8169,
      "Ġfetalaiga": 8170,
      "211": 8171,
      "FC": 8172,
      "ders": 8173,
      "ĠTen": 8174,
      "ĠIg": 8175,
      "ĠfaÊ»atupu": 8176,
      "ĠGreek": 8177,
      "eseese": 8178,
      "137": 8179,
      "ĠTekonolosi": 8180,
      "ĠPulea": 8181,
      "ĠÐ´": 8182,
      "XX": 8183,
      "phe": 8184,
      "ĠAcc": 8185,
      "ĠOl": 8186,
      "ĠFaÊ»alauteleina": 8187,
      "shopify": 8188,
      "QL": 8189,
      "yama": 8190,
      "toma": 8191,
      "isou": 8192,
      "ĠAles": 8193,
      "ĠUiga": 8194,
      "default": 8195,
      "Ġinsta": 8196,
      "Ġbecause": 8197,
      "viga": 8198,
      "ĠFaasalalauga": 8199,
      "ĠCars": 8200,
      "Ġstra": 8201,
      "ĠmÅį": 8202,
      "129": 8203,
      "Ġonly": 8204,
      "lma": 8205,
      "Ġmafiafia": 8206,
      "ĠPalau": 8207,
      "ĠTuÊ»u": 8208,
      "holi": 8209,
      "ĠEngineering": 8210,
      "ĠFood": 8211,
      "ĠMel": 8212,
      "pedi": 8213,
      "tuai": 8214,
      "Ġsopo": 8215,
      "erisiano": 8216,
      "urs": 8217,
      "air": 8218,
      "Ġvio": 8219,
      "ĠVAE": 8220,
      "Ġneuro": 8221,
      "ĠLonetona": 8222,
      "ÙĦ": 8223,
      "Ġcre": 8224,
      "Ġtautau": 8225,
      "ĠUomo": 8226,
      "ĠAssocia": 8227,
      "Ġtamata": 8228,
      "ĠMila": 8229,
      "Ġ115": 8230,
      "Ġpiki": 8231,
      "Ġ124": 8232,
      "Ġmanatunatu": 8233,
      "328": 8234,
      "Ġaba": 8235,
      "vis": 8236,
      "Ġmasi": 8237,
      "Ġtable": 8238,
      "ĠMara": 8239,
      "ĠLithua": 8240,
      "Ġagi": 8241,
      "onapo": 8242,
      "Ġï¿½ï¿½ï¿½ï¿½ï¿½ï¿½ï¿½ï¿½ï¿½ï¿½,": 8243,
      "resenta": 8244,
      "Ġuunaiga": 8245,
      "Cha": 8246,
      "cla": 8247,
      "tat": 8248,
      "Ġapu": 8249,
      "Ġmmol": 8250,
      "ĠpÄģ": 8251,
      "ĠVin": 8252,
      "Ġfaasala": 8253,
      "ĠCJ": 8254,
      "ĠStand": 8255,
      "à¯į": 8256,
      "tag": 8257,
      "Ġfaalae": 8258,
      "ĠcA": 8259,
      "ĠNPM": 8260,
      "kota": 8261,
      "ĠatunuÊ»u": 8262,
      "epae": 8263,
      "Xe": 8264,
      "psu": 8265,
      "mae": 8266,
      "lice": 8267,
      "ĠVasega": 8268,
      "ĠYu": 8269,
      "ĠfaitotoÊ»a": 8270,
      "Ġlaveai": 8271,
      "ĠTC": 8272,
      "ĠCrea": 8273,
      "Ġblue": 8274,
      "ĠVis": 8275,
      "Ġsosaiete": 8276,
      "video": 8277,
      "nche": 8278,
      "ĠCompare": 8279,
      "SD": 8280,
      "Ġnow": 8281,
      "Ġpusi": 8282,
      "Ġkomi": 8283,
      "Ġfetuunai": 8284,
      "ĠGiorgio": 8285,
      "nka": 8286,
      "rc": 8287,
      "ĠAbu": 8288,
      "999": 8289,
      "mpe": 8290,
      "sine": 8291,
      "Ġ1997": 8292,
      "Ioane": 8293,
      "Ġfaasalalauina": 8294,
      "ĠGeo": 8295,
      "Ġloimata": 8296,
      "mt": 8297,
      "ĠAA": 8298,
      "gilisi": 8299,
      "Ġaumau": 8300,
      "dale": 8301,
      "116": 8302,
      "off": 8303,
      "ĠFIN": 8304,
      "wani": 8305,
      "ĠFagatogo": 8306,
      "ĠWebtalk": 8307,
      "ĠInsertion": 8308,
      "Pro": 8309,
      "Ġaridi": 8310,
      "ĠâĶ": 8311,
      "ĠtapuaÊ»iga": 8312,
      "ĠlaÊ»itiiti": 8313,
      "%>": 8314,
      "Tau": 8315,
      "mauga": 8316,
      "Ġent": 8317,
      "ĠNahua": 8318,
      "ĠNico": 8319,
      "Ð°Ð½": 8320,
      "ĠOpe": 8321,
      "Ġ119": 8322,
      "Ġtoo": 8323,
      "return": 8324,
      "Ġdama": 8325,
      "ĠMotu": 8326,
      "ĠâĹ": 8327,
      "ĠPREDIC": 8328,
      "tformin": 8329,
      "Ġfaamuta": 8330,
      "ĠTD": 8331,
      "Ġura": 8332,
      "Ġ635": 8333,
      "126": 8334,
      "Ġsalalau": 8335,
      "KV": 8336,
      "lata": 8337,
      "ĠAcces": 8338,
      "ĠScri": 8339,
      "ĠfualaÊ»au": 8340,
      "147": 8341,
      "Ġdown": 8342,
      "mbers": 8343,
      "ĠAfio": 8344,
      "?+": 8345,
      "pili": 8346,
      "tima": 8347,
      "oate": 8348,
      "ĠMaga": 8349,
      "165": 8350,
      "ĠKorean": 8351,
      "LP": 8352,
      "Ġmas": 8353,
      "Ġtro": 8354,
      "ĠImp": 8355,
      "014": 8356,
      "ãĥ»": 8357,
      "Ġprice": 8358,
      "Ġmanatuaina": 8359,
      "218": 8360,
      "lul": 8361,
      "008": 8362,
      "IAN": 8363,
      "Ġsaito": 8364,
      "\":[\"": 8365,
      "ĠNahuatl": 8366,
      "Ġadi": 8367,
      "ĠOk": 8368,
      "Ġnano": 8369,
      "llen": 8370,
      "Ġruma": 8371,
      "à¸Ļ": 8372,
      "ĠConne": 8373,
      "Ġnear": 8374,
      "ĠfaÊ»atulagaga": 8375,
      "ĠFetu": 8376,
      "Ġtolopo": 8377,
      "ĠMoliga": 8378,
      "ĠWall": 8379,
      "ĠFaaaliga": 8380,
      "ĠIeremia": 8381,
      "her": 8382,
      "Ġida": 8383,
      "Ġolotou": 8384,
      "sc": 8385,
      "Â¶": 8386,
      "Ġtwo": 8387,
      "Ġusa": 8388,
      "ĠfaleÊ»ie": 8389,
      "171": 8390,
      "à¸²": 8391,
      "ĠNovember": 8392,
      "kua": 8393,
      "Ġanoa": 8394,
      "Ġalele": 8395,
      "Ġlalaga": 8396,
      "Ġtagatanuu": 8397,
      "ology": 8398,
      "lafola": 8399,
      "ĠYork": 8400,
      "ĠBlog": 8401,
      "vii": 8402,
      "erie": 8403,
      "Ġmamana": 8404,
      "Ġxai": 8405,
      "Ġteineiti": 8406,
      "Ġfaaputuga": 8407,
      "345": 8408,
      "Ġatherosclero": 8409,
      "Ġevery": 8410,
      "Ġsiamupini": 8411,
      "Ġwo": 8412,
      "Ġvaivaiga": 8413,
      "ĠDisk": 8414,
      "ĠFaÊ»atino": 8415,
      "zare": 8416,
      "eta": 8417,
      "253": 8418,
      "ĠPREDICTED": 8419,
      "ndia": 8420,
      "ĠCable": 8421,
      "Ġgaoioi": 8422,
      "Ġï¿½.": 8423,
      "234": 8424,
      "ĠEletise": 8425,
      "à¥į": 8426,
      "Ġï»¿": 8427,
      "Ġbacklinks": 8428,
      "Ġalau": 8429,
      "ilixo": 8430,
      "Ġtelevave": 8431,
      "Ġline": 8432,
      "Ġ978": 8433,
      "Chi": 8434,
      "Ġ????????": 8435,
      "max": 8436,
      "ĠMalosi": 8437,
      "thers": 8438,
      "127": 8439,
      "ĠGalu": 8440,
      "ĠSmart": 8441,
      "Ġtauagavale": 8442,
      "ĠStra": 8443,
      "Ġlodo": 8444,
      "ĠFaasologa": 8445,
      "ĠLilo": 8446,
      "Ġpiliona": 8447,
      "atolu": 8448,
      "ĠTurkish": 8449,
      "ualuga": 8450,
      "Ġfaaele": 8451,
      "Ġcv": 8452,
      "kipedia": 8453,
      "Ġmulu": 8454,
      "ĠMATAU": 8455,
      "405": 8456,
      "ĠLOO": 8457,
      "Ġigogolu": 8458,
      "luba": 8459,
      "ĠUN": 8460,
      "Ġpower": 8461,
      "Ġuunaia": 8462,
      "risto": 8463,
      "Ġdupa": 8464,
      "Ġfaafetaia": 8465,
      "MD": 8466,
      "une": 8467,
      "esia": 8468,
      "019": 8469,
      "ĠMartin": 8470,
      "á¸¡a": 8471,
      "Ġfefefe": 8472,
      "Ġendo": 8473,
      "pub": 8474,
      "wanda": 8475,
      "ĠSini": 8476,
      "Ġsuesueina": 8477,
      "Ġtofotofoina": 8478,
      "ĠVAEGA": 8479,
      "$$": 8480,
      "Ele": 8481,
      "cked": 8482,
      "ĠDA": 8483,
      "ĠLima": 8484,
      "Ê»oaÊ»o": 8485,
      "ĠTaavale": 8486,
      "ãģ®": 8487,
      "ĠGuinea": 8488,
      "357": 8489,
      "addEventListener": 8490,
      "Ġtaba": 8491,
      "ĠLetter": 8492,
      "Ġkamonai": 8493,
      "ĠCamera": 8494,
      "Ġhadi": 8495,
      "ĠTautua": 8496,
      "Ġfetuutu": 8497,
      "Ġvery": 8498,
      "ĠGreenhouse": 8499,
      "ĠAiono": 8500,
      "dra": 8501,
      "fui": 8502,
      "ppo": 8503,
      "pers": 8504,
      "naÊ»i": 8505,
      "Ê»ese": 8506,
      "Ġlast": 8507,
      "ĠFui": 8508,
      "ernel": 8509,
      "ĠTel": 8510,
      "Ġwin": 8511,
      "chu": 8512,
      "Traditional": 8513,
      "---|---|": 8514,
      "MM": 8515,
      "hau": 8516,
      "2008": 8517,
      "roduction": 8518,
      "Ġwell": 8519,
      "VI": 8520,
      "Ġyear": 8521,
      "ĠSuesuega": 8522,
      "centa": 8523,
      "Ġmul": 8524,
      "ĠtapuaÊ»i": 8525,
      "Ġacti": 8526,
      "Ġthese": 8527,
      "ventory": 8528,
      "tÃł": 8529,
      "lona": 8530,
      "ĠAy": 8531,
      "ĠHR": 8532,
      "ĠFaafo": 8533,
      "Ġthrough": 8534,
      "chard": 8535,
      "curity": 8536,
      "Lau": 8537,
      "Ġ183": 8538,
      "Ġ\"\\": 8539,
      "Ġfaaigoa": 8540,
      "Ġsaute": 8541,
      "loud": 8542,
      "ĠMATAUPU": 8543,
      "1000": 8544,
      "Ya": 8545,
      "Ġapi": 8546,
      "nical": 8547,
      "ont": 8548,
      "Ġtaunimanima": 8549,
      "ĠSaogalemu": 8550,
      "Ġwould": 8551,
      "144": 8552,
      "ĠCode": 8553,
      "ĠChinese": 8554,
      "|||": 8555,
      "ĠOri": 8556,
      "Ġpefea": 8557,
      "139": 8558,
      "306": 8559,
      "ĠFilifiliga": 8560,
      "Ġmetabolism": 8561,
      "Û¶": 8562,
      "niki": 8563,
      "ĠLÄĴ": 8564,
      "cora": 8565,
      "isa": 8566,
      "data": 8567,
      "Ġdaha": 8568,
      "ĠfaÊ»amautuina": 8569,
      "RAN": 8570,
      "ĠSki": 8571,
      "ĠDigital": 8572,
      "ontrol": 8573,
      "Ġgame": 8574,
      "ĠGI": 8575,
      "Ġsiku": 8576,
      "ĠfaÊ»ataunuÊ»u": 8577,
      "EST": 8578,
      "TV": 8579,
      "cep": 8580,
      "Ġviiga": 8581,
      "303": 8582,
      "rest": 8583,
      "ĠLeading": 8584,
      "!\"": 8585,
      "FL": 8586,
      "hina": 8587,
      "zone": 8588,
      "Ġ....": 8589,
      "ĠArona": 8590,
      "rante": 8591,
      "palai": 8592,
      "ĠBianco": 8593,
      "ĠsauÄģ": 8594,
      "ĠHot": 8595,
      "ĠManumalo": 8596,
      "ĠFaÊ»aauau": 8597,
      "ĠArmenian": 8598,
      "670": 8599,
      "Ġnamo": 8600,
      "Ġwor": 8601,
      "Ġfound": 8602,
      "Ġtapenaga": 8603,
      "Ġmatagaga": 8604,
      "Ri": 8605,
      "ĠKiliki": 8606,
      "Ġï¿½ï¿½ï¿½.": 8607,
      "265": 8608,
      "ĠSilisili": 8609,
      "eae": 8610,
      "Ġkainai": 8611,
      "ĠServer": 8612,
      "ĠWilliam": 8613,
      "Ġamioleaga": 8614,
      "ĠAvea": 8615,
      "ĠUltra": 8616,
      "Ġfaataunuu": 8617,
      "Ġtafafao": 8618,
      "Ġfetuuna": 8619,
      "Ġmomokani": 8620,
      "ĠTeam": 8621,
      "cl": 8622,
      "ĠFanua": 8623,
      "ĠHua": 8624,
      "ĠDOHC": 8625,
      "RY": 8626,
      "Ġacces": 8627,
      "loy": 8628,
      "rari": 8629,
      "ctions": 8630,
      "nula": 8631,
      "Ġtoi": 8632,
      "kilani": 8633,
      "ĠGala": 8634,
      "Ġmataituina": 8635,
      "ĠAgri": 8636,
      "fafa": 8637,
      "ĠpaÊ»i": 8638,
      "ĠsiÊ»o": 8639,
      "á¸¡ere": 8640,
      "ĠAlumini": 8641,
      "ĠTogafitiga": 8642,
      "SU": 8643,
      "ppa": 8644,
      "Ġaaaaa": 8645,
      "007": 8646,
      "ĠPapelonia": 8647,
      "006": 8648,
      "ĠTata": 8649,
      "ĠAusage": 8650,
      "cut": 8651,
      "ĠAvenue": 8652,
      "ĠfaÊ»ataÊ»itaÊ»iina": 8653,
      "ĠFalani": 8654,
      "ĠBORG": 8655,
      "Ġmimii": 8656,
      "460": 8657,
      "Ġhim": 8658,
      "ĠTube": 8659,
      "puipuia": 8660,
      "Ġsaofaga": 8661,
      "ĠAlexa": 8662,
      "ĠKingdom": 8663,
      "Ġtrue": 8664,
      "\"],\"": 8665,
      "auga": 8666,
      "Ġing": 8667,
      "uano": 8668,
      "dal": 8669,
      "terale": 8670,
      "808": 8671,
      "ĠChurch": 8672,
      "ĠNEW": 8673,
      "ĠUkrainian": 8674,
      "ĠBORGNE": 8675,
      "bric": 8676,
      "Ð³": 8677,
      "ury": 8678,
      "ĠSalamo": 8679,
      "eti": 8680,
      "ove": 8681,
      "Å¡": 8682,
      "Ġmatala": 8683,
      "ĠfaÊ»asaÊ»o": 8684,
      "rul": 8685,
      "Ġvaeluaina": 8686,
      "sla": 8687,
      "tioga": 8688,
      "ĠSky": 8689,
      "rika": 8690,
      "ĠIoka": 8691,
      "ĠfaÊ»avaeina": 8692,
      "Ġtalepe": 8693,
      "ĠSEA": 8694,
      "ĠOcto": 8695,
      "ĠIgilisi": 8696,
      "ĠEna": 8697,
      "metri": 8698,
      "ĠTeugatupe": 8699,
      "ãĥ³": 8700,
      "scolana": 8701,
      "\").": 8702,
      "wers": 8703,
      "Ġopen": 8704,
      "mith": 8705,
      "Ġvaifofo": 8706,
      "bie": 8707,
      "407": 8708,
      "ĠDece": 8709,
      "Ð°ÑĢ": 8710,
      "ĠtamÄģloa": 8711,
      "ĠCounty": 8712,
      "ZA": 8713,
      "Ġeta": 8714,
      "leÊ»a": 8715,
      "ĠCul": 8716,
      "TASI": 8717,
      "ddy": 8718,
      "Ġhelekai": 8719,
      "ĠAIControl": 8720,
      "RU": 8721,
      "bil": 8722,
      "ĠCanada": 8723,
      "blu": 8724,
      "ĠFX": 8725,
      "ministra": 8726,
      "background": 8727,
      "Kernel": 8728,
      "Sia": 8729,
      "Ġvalolo": 8730,
      "ek": 8731,
      "ĠPou": 8732,
      "ĠDha": 8733,
      "ĠTuua": 8734,
      "stern": 8735,
      "Ġitaia": 8736,
      "ĠPid": 8737,
      "ĠDen": 8738,
      "city": 8739,
      "Ġhamo": 8740,
      "177": 8741,
      "264": 8742,
      "piamento": 8743,
      "ĠThi": 8744,
      "div": 8745,
      "Ġgaoia": 8746,
      "rp": 8747,
      "esc": 8748,
      "wan": 8749,
      "ĠPete": 8750,
      "224": 8751,
      "Ġdoi": 8752,
      "ĠLolomiina": 8753,
      "WA": 8754,
      "xml": 8755,
      "ĠOre": 8756,
      "Ġdoar": 8757,
      "Ġtuanai": 8758,
      "Ġdate": 8759,
      "185": 8760,
      "ĠRobert": 8761,
      "ĠFOR": 8762,
      "loko": 8763,
      "ridge": 8764,
      "Ġfuse": 8765,
      "ESU": 8766,
      "183": 8767,
      "asala": 8768,
      "eoa": 8769,
      "Ġfaimalaga": 8770,
      "ĠPapiamento": 8771,
      "unauga": 8772,
      "157": 8773,
      "ĠPotu": 8774,
      "Ġils": 8775,
      "Ġeli": 8776,
      "rado": 8777,
      "ĠGlass": 8778,
      "Ġ350": 8779,
      "Ġdee": 8780,
      "134": 8781,
      "Ġfaafouina": 8782,
      "Ġfaapenei": 8783,
      "Italia": 8784,
      "WN": 8785,
      "ĠâĢĿ": 8786,
      "Ad": 8787,
      "Ġfaaee": 8788,
      "sara": 8789,
      "Ġfaitioga": 8790,
      "ĠFaÊ»asinomaga": 8791,
      "Ġfaamaga": 8792,
      "Ġmatafaga": 8793,
      "sions": 8794,
      "nofovaavaaia": 8795,
      "gian": 8796,
      "Ġzo": 8797,
      "Ġfaavaomalo": 8798,
      "zuki": 8799,
      "aÊ»i": 8800,
      "tatea": 8801,
      "ĠfaalÄĵ": 8802,
      "Ġtola": 8803,
      "tonuina": 8804,
      "Ġanina": 8805,
      "Ġmitamita": 8806,
      "ĠSepte": 8807,
      "ĠiÊ»u": 8808,
      "town": 8809,
      "ĠPili": 8810,
      "ĠEfi": 8811,
      "Ê»ino": 8812,
      "tainer": 8813,
      "ĠSwedish": 8814,
      "OGA": 8815,
      "Ġlaiga": 8816,
      "Ġag": 8817,
      "Ġaseta": 8818,
      "nova": 8819,
      "ĠEia": 8820,
      "ping": 8821,
      "ĠLeo": 8822,
      "ĠLama": 8823,
      "ĠÙħ": 8824,
      "ĠVegas": 8825,
      "199": 8826,
      "Ġ{{": 8827,
      "Ġfaafoi": 8828,
      "Wi": 8829,
      "itiiti": 8830,
      "æĹ": 8831,
      "lat": 8832,
      "tivale": 8833,
      "Ġfaasolitulafono": 8834,
      "inga": 8835,
      "ĠÐ¸": 8836,
      "vaomalo": 8837,
      "ĠBurn": 8838,
      "ĠKatoliko": 8839,
      "311": 8840,
      "ston": 8841,
      "Ġlaw": 8842,
      "015": 8843,
      "Ġsamasama": 8844,
      "Ġbea": 8845,
      "Ġgale": 8846,
      "ĠCan": 8847,
      "Ġfaailo": 8848,
      "Ġmanumanu": 8849,
      "ĠTULAGA": 8850,
      "Ã£": 8851,
      "Ġfer": 8852,
      "sar": 8853,
      "Ġutu": 8854,
      "ĠUta": 8855,
      "muina": 8856,
      "ĠaufaÊ»a": 8857,
      "ĠTusitala": 8858,
      "Ġcompany": 8859,
      "ĠFautuaga": 8860,
      "<%>": 8861,
      "ĠAmu": 8862,
      "ĠAukilani": 8863,
      "ĠEurope": 8864,
      "og": 8865,
      "situa": 8866,
      "Ġtului": 8867,
      "Ġmain": 8868,
      "vey": 8869,
      "ĠPidgin": 8870,
      "GS": 8871,
      "ĠSTA": 8872,
      "ĠMag": 8873,
      "ĠVaitafe": 8874,
      "uan": 8875,
      "ĠMI": 8876,
      "ĠLady": 8877,
      "lley": 8878,
      "content": 8879,
      "ĠtaÊ»utaÊ»ua": 8880,
      "ĠSuÊ»esuÊ»ega": 8881,
      "ĠNU": 8882,
      "Ġtalavai": 8883,
      "Ġdoha": 8884,
      "porta": 8885,
      "pasi": 8886,
      "ĠKar": 8887,
      "ĠModel": 8888,
      "222": 8889,
      "ĠTime": 8890,
      "alauiloa": 8891,
      "Ġopo": 8892,
      "Ġomai": 8893,
      "Ġtoma": 8894,
      "Ġforex": 8895,
      "ĠBut": 8896,
      "Ġkora": 8897,
      "ĠKeli": 8898,
      "ronavirus": 8899,
      "Ġmariuana": 8900,
      "Ġfaamai": 8901,
      "ĠNia": 8902,
      "ĠOil": 8903,
      "ĠTagged": 8904,
      "ĠBRENT": 8905,
      "hA": 8906,
      "ĠAce": 8907,
      "ĠWai": 8908,
      "ĠFaatau": 8909,
      "ĠmamaÊ»i": 8910,
      "Ġelect": 8911,
      "175": 8912,
      "ĠfaafomaÊ»i": 8913,
      "ĠIudea": 8914,
      "Ġmafuta": 8915,
      "ĠApplicableKernel": 8916,
      "ĠPita": 8917,
      "ĠRai": 8918,
      "ĠLee": 8919,
      "dules": 8920,
      "ĠGrand": 8921,
      "ĠMaiava": 8922,
      "ĠAlabama": 8923,
      "Ġoko": 8924,
      "Ġaci": 8925,
      "puma": 8926,
      "Ġdeci": 8927,
      "ĠToleni": 8928,
      "landic": 8929,
      "ĠYouTube": 8930,
      "afetaia": 8931,
      "îĺ": 8932,
      "Ġem": 8933,
      "ĠIpu": 8934,
      "141": 8935,
      "ncer": 8936,
      "ĠNofoa": 8937,
      "lington": 8938,
      "yanmar": 8939,
      "ĠFESO": 8940,
      "Ġbefore": 8941,
      "Ġfaaupufai": 8942,
      "Ġcount": 8943,
      "dei": 8944,
      "ĠTuscolana": 8945,
      "Ġlanumoana": 8946,
      "350": 8947,
      "DB": 8948,
      "Ġ185": 8949,
      "Ġmoana": 8950,
      "Ġbia": 8951,
      "ESE": 8952,
      "ĠUnion": 8953,
      "taalo": 8954,
      "Ġpite": 8955,
      "llion": 8956,
      "ĠLONA": 8957,
      "Ġofuina": 8958,
      "omes": 8959,
      "Ġonosa": 8960,
      "llino": 8961,
      "ĠFIFA": 8962,
      "Ġfaafeilo": 8963,
      "Ġkalumo": 8964,
      "Ġindi": 8965,
      "Ġsom": 8966,
      "cone": 8967,
      "ĠMANA": 8968,
      "229": 8969,
      "Ġtaitaiina": 8970,
      "ĠØ¯": 8971,
      "Ġhenidia": 8972,
      "Ġob": 8973,
      "ĠiOS": 8974,
      "Ġnau": 8975,
      "persion": 8976,
      "koooo": 8977,
      "Ġtabu": 8978,
      "Ġmutimu": 8979,
      "ĠXo": 8980,
      "ataunu": 8981,
      "ĠChildhood": 8982,
      "psi": 8983,
      "mark": 8984,
      "Ġaver": 8985,
      "filemu": 8986,
      "ĠDro": 8987,
      "Ġwriting": 8988,
      "ĠCabinet": 8989,
      "Ġagain": 8990,
      "compareb": 8991,
      "ĠFinnish": 8992,
      "Ġsenituri": 8993,
      "435": 8994,
      "ĠLega": 8995,
      "kana": 8996,
      "Ġfeke": 8997,
      "cin": 8998,
      "ĠLELEI": 8999,
      "ĠTexas": 9000,
      "therlands": 9001,
      "enitisi": 9002,
      "liliu": 9003,
      "petite": 9004,
      "ĠIdeas": 9005,
      "2000": 9006,
      "Ġaea": 9007,
      "ĠGlu": 9008,
      "gau": 9009,
      "Ġminaa": 9010,
      "ĠEsto": 9011,
      "ĠFaÊ»asa": 9012,
      "hos": 9013,
      "ĠJor": 9014,
      "197": 9015,
      "ĠvaÊ»avaÊ»a": 9016,
      "FT": 9017,
      "NT": 9018,
      "].": 9019,
      "ĠFL": 9020,
      "fication": 9021,
      "Ġuaa": 9022,
      "ĠPonesi": 9023,
      "ĠInisi": 9024,
      "ĠShelf": 9025,
      "ĠMalietoa": 9026,
      "Ġadd": 9027,
      "Ġvara": 9028,
      "ĠBla": 9029,
      "uman": 9030,
      "195": 9031,
      "Ġfoafoaga": 9032,
      "Ġfaafuasei": 9033,
      "Ê»I": 9034,
      "ĠAct": 9035,
      "ĠAsse": 9036,
      "??????": 9037,
      "Ġï¿½ï¿½ï¿½ï¿½ï¿½ï¿½:": 9038,
      "Ġessays": 9039,
      "Ġgabutatala": 9040,
      "yar": 9041,
      "ntina": 9042,
      "ĠForce": 9043,
      "ĠÃĹ": 9044,
      "meroon": 9045,
      "ĠScarpe": 9046,
      "ĠCopi": 9047,
      "ĠTanielu": 9048,
      "fted": 9049,
      "Ġsong": 9050,
      "sioni": 9051,
      "Ġcontact": 9052,
      "llas": 9053,
      "nesia": 9054,
      "ĠTÄģ": 9055,
      "ĠTom": 9056,
      "ĠKO": 9057,
      "ntial": 9058,
      "ï¿½?,": 9059,
      "Ġmataala": 9060,
      "457": 9061,
      "ebuano": 9062,
      "ĠFAÊ»AALIGA": 9063,
      "ĠChristian": 9064,
      "Ġfolasaga": 9065,
      "Ġfaafuainumera": 9066,
      "ĠLBJ": 9067,
      "Ġaniani": 9068,
      "EF": 9069,
      "EO": 9070,
      "ews": 9071,
      "fano": 9072,
      "rey": 9073,
      "ĠpenÄģ": 9074,
      "ĠTAMA": 9075,
      "ĠJapanese": 9076,
      "ĠLaititi": 9077,
      "ĠGiorno": 9078,
      "utino": 9079,
      "ĠRadio": 9080,
      "Ġtosoina": 9081,
      "Ġsh": 9082,
      "seni": 9083,
      "mee": 9084,
      "ĠLimited": 9085,
      "121": 9086,
      "159": 9087,
      "Ġmany": 9088,
      "lari": 9089,
      "ĠfaÊ»afoÊ»i": 9090,
      "Ġfaaosofia": 9091,
      "ggle": 9092,
      "Ġoro": 9093,
      "ĠFUT": 9094,
      "vaivaia": 9095,
      "tÅ«ina": 9096,
      "Ġnoatia": 9097,
      "HER": 9098,
      "On": 9099,
      "Ġepi": 9100,
      "ĠNdeb": 9101,
      "Ġ165": 9102,
      "Ġfufuluina": 9103,
      "ĠHungarian": 9104,
      "ĠNdebele": 9105,
      "Äį": 9106,
      "Ġkg": 9107,
      "Ġkua": 9108,
      "dilla": 9109,
      "Ġmetine": 9110,
      "ĠBan": 9111,
      "ĠView": 9112,
      "xecu": 9113,
      "Da": 9114,
      "ima": 9115,
      "ÈĻ": 9116,
      "Ġomega": 9117,
      "Ġseki": 9118,
      "rage": 9119,
      "ĠKone": 9120,
      "~~": 9121,
      "ĠAmo": 9122,
      "ĠMyanmar": 9123,
      "Ġkili": 9124,
      "dam": 9125,
      "Ġfaaiu": 9126,
      "ĠLogo": 9127,
      "cura": 9128,
      "ĠAlessa": 9129,
      "amalosi": 9130,
      "ĠPVC": 9131,
      "agaÊ»i": 9132,
      "peria": 9133,
      "Car": 9134,
      "nunu": 9135,
      "rome": 9136,
      "275": 9137,
      "LOA": 9138,
      "nata": 9139,
      "ĠSÄģ": 9140,
      "Ġmilo": 9141,
      "Ġ105": 9142,
      "ĠMonte": 9143,
      "Ġfaalauiloaina": 9144,
      "ĠMat": 9145,
      "ĠMassa": 9146,
      "ĠHydra": 9147,
      "Ġnike": 9148,
      "ĠSunia": 9149,
      "223": 9150,
      "Ġfaalogologo": 9151,
      "Ð¾Ð²": 9152,
      "ĠuunaÊ»ia": 9153,
      "OK": 9154,
      "Ġausage": 9155,
      "Ġfalaoamata": 9156,
      "Ġngaahi": 9157,
      "orii": 9158,
      "Kerisiano": 9159,
      "ldi": 9160,
      "Ġsaga": 9161,
      "zae": 9162,
      "Ġupusii": 9163,
      "ĠPrime": 9164,
      "ICA": 9165,
      "Ġhoto": 9166,
      "porno": 9167,
      "Ġpunavai": 9168,
      "Ġfaaliliuga": 9169,
      "ĠTaumafai": 9170,
      "Ġchain": 9171,
      "hole": 9172,
      "terial": 9173,
      "ella": 9174,
      "eramic": 9175,
      "Ġtoatasi": 9176,
      "Faata": 9177,
      "Ġmutimutivale": 9178,
      "Âº": 9179,
      "Ġila": 9180,
      "eans": 9181,
      "pora": 9182,
      "Ġeifa": 9183,
      "Ġfouvale": 9184,
      "Ġsalafa": 9185,
      "Ġfaaolataga": 9186,
      "rte": 9187,
      "ĬĤ": 9188,
      "ĠSuiga": 9189,
      "Ġtoafa": 9190,
      "So": 9191,
      "tara": 9192,
      "Ġsae": 9193,
      "ĠLeu": 9194,
      "ĠSets": 9195,
      "ĠFetalai": 9196,
      "chewa": 9197,
      "ported": 9198,
      "ĠItaly": 9199,
      "BR": 9200,
      "NN": 9201,
      "products": 9202,
      "Ġune": 9203,
      "ĠCin": 9204,
      "ĠSize": 9205,
      "ĠGome": 9206,
      "043": 9207,
      "aoina": 9208,
      "Ġcele": 9209,
      "ĠUsu": 9210,
      "ĠJen": 9211,
      "ĠCaralluma": 9212,
      "ĠMil": 9213,
      "estern": 9214,
      "Ġfaaosooso": 9215,
      "Ġfulufulu": 9216,
      "Ġfaamanatuina": 9217,
      "ĠChichewa": 9218,
      "Ġcolle": 9219,
      "Ġvaitusi": 9220,
      "455": 9221,
      "Ġteuteuga": 9222,
      "cke": 9223,
      "ĠGPS": 9224,
      "haric": 9225,
      "ello": 9226,
      "llery": 9227,
      "ĠSpeed": 9228,
      "ĠIR": 9229,
      "Ġbila": 9230,
      "mbly": 9231,
      "Ġnofovaavaaia": 9232,
      "ĠCerti": 9233,
      "âĬĤ": 9234,
      "Ġlevi": 9235,
      "Ġegi": 9236,
      "teta": 9237,
      "Ġtoko": 9238,
      "ĠNau": 9239,
      "ĠGet": 9240,
      "7600": 9241,
      "ĠShirt": 9242,
      "ĠfaÊ»atonuga": 9243,
      "De": 9244,
      "ataua": 9245,
      "atoaga": 9246,
      "hn": 9247,
      "mul": 9248,
      "189": 9249,
      "kalati": 9250,
      "ĠMalagasy": 9251,
      "Ġara": 9252,
      "018": 9253,
      "154": 9254,
      "260": 9255,
      "ĠtaunuÊ»uga": 9256,
      "riend": 9257,
      "ĠFarao": 9258,
      "Ġumukuka": 9259,
      "nz": 9260,
      "ĠlaveaÊ»i": 9261,
      "ĠtotÅį": 9262,
      "ĠMafai": 9263,
      "ĠNC": 9264,
      "Ġkoutou": 9265,
      "Ġtaifau": 9266,
      "ĠFaÊ»ataÊ»itaÊ»i": 9267,
      "kiki": 9268,
      "Ġdae": 9269,
      "Ð¸Ñ": 9270,
      "Ġfaalauai": 9271,
      "Ġseasea": 9272,
      "Ġnoxilo": 9273,
      "-|": 9274,
      "Ltd": 9275,
      "Ġavailable": 9276,
      "tutusa": 9277,
      "ĠPoint": 9278,
      "ĠAigu": 9279,
      "ĠAmharic": 9280,
      "ystems": 9281,
      "llon": 9282,
      "Ġisu": 9283,
      "ĠFaatino": 9284,
      "Ġthose": 9285,
      "GU": 9286,
      "Ġef": 9287,
      "Ġschool": 9288,
      "mulia": 9289,
      "Ġsibi": 9290,
      "ĠWI": 9291,
      "ingo": 9292,
      "Ġques": 9293,
      ">>": 9294,
      "ĠSesotho": 9295,
      "poli": 9296,
      "ĠFaÊ»afetai": 9297,
      "Ġpueina": 9298,
      "320": 9299,
      "vada": 9300,
      "Ġlong": 9301,
      "Ġoffice": 9302,
      "ĠCroatian": 9303,
      "yi": 9304,
      "ĠaÊ¼u": 9305,
      "Ġfaataitai": 9306,
      "Ġuu": 9307,
      "ĠBoard": 9308,
      "ĠKit": 9309,
      "ĠfaÊ»amafanafana": 9310,
      "ĠLocal": 9311,
      "AK": 9312,
      "los": 9313,
      "ĠPin": 9314,
      "nden": 9315,
      "Ġalava": 9316,
      "umina": 9317,
      "pple": 9318,
      "Ġfaaoolima": 9319,
      "amu": 9320,
      "ynon": 9321,
      "Ġmahuli": 9322,
      "Ġlave": 9323,
      "tiu": 9324,
      "Ġtoilalo": 9325,
      "ĠTalia": 9326,
      "element": 9327,
      "Ġalatele": 9328,
      "bwe": 9329,
      "vc": 9330,
      "Ġivi": 9331,
      "iligaynon": 9332,
      "Ð¾Ð¼": 9333,
      "ĠBluetooth": 9334,
      "Su": 9335,
      "asse": 9336,
      "ĠFashion": 9337,
      "Ġgly": 9338,
      "Ġhemea": 9339,
      "ERI": 9340,
      "Ġlototele": 9341,
      "ĠTupulaga": 9342,
      "tinal": 9343,
      "280": 9344,
      "ĠAB": 9345,
      "ĠApi": 9346,
      "ĠMÄģ": 9347,
      "ĠPres": 9348,
      "Ġbio": 9349,
      "ĠDMX": 9350,
      "oupu": 9351,
      "ĠTolu": 9352,
      "Ġhand": 9353,
      "Ġ123": 9354,
      "ĠAmerica": 9355,
      "ĠFootball": 9356,
      "br": 9357,
      "Ġfaafaigofie": 9358,
      "ĠHiligaynon": 9359,
      "hoi": 9360,
      "Ġdeli": 9361,
      "ĠSig": 9362,
      "7601": 9363,
      "Ġgratis": 9364,
      "ĠKXFA": 9365,
      "+%": 9366,
      ":\\\"\\": 9367,
      "GC": 9368,
      "Ġiva": 9369,
      "Ġtake": 9370,
      "013": 9371,
      "ĠIndust": 9372,
      "ulic": 9373,
      "Ġpauna": 9374,
      "ĠTaumafa": 9375,
      "nba": 9376,
      "Ġfae": 9377,
      "142": 9378,
      "Ġdiff": 9379,
      "mbabwe": 9380,
      "ĠusiusitaÊ»i": 9381,
      "ĠFata": 9382,
      "soni": 9383,
      "ĠKei": 9384,
      "card": 9385,
      "ĠWoo": 9386,
      "Ġinc": 9387,
      "ĠEseta": 9388,
      "ĠRevitol": 9389,
      "247": 9390,
      "Ġopti": 9391,
      "tiful": 9392,
      "Ġlologa": 9393,
      "Ġoiemu": 9394,
      "mont": 9395,
      "ĠDispersion": 9396,
      "ĠSpins": 9397,
      "Ġpagatia": 9398,
      "Ġgamagaridi": 9399,
      "pulaina": 9400,
      "ĠUna": 9401,
      "ĠHard": 9402,
      "Ġfuaitau": 9403,
      "245": 9404,
      "SH": 9405,
      "ĠCup": 9406,
      "mics": 9407,
      "ĠRom": 9408,
      "Ġautasi": 9409,
      "Ġgreen": 9410,
      "ĠFesoo": 9411,
      "Ġmalupuipuia": 9412,
      "ĠLithuanian": 9413,
      "ĠSeptember": 9414,
      "Ġhes": 9415,
      "stry": 9416,
      "158": 9417,
      "Ġ160": 9418,
      ".âĢĻâĢĿ": 9419,
      "spa": 9420,
      "wl": 9421,
      "Ñĸ": 9422,
      "vate": 9423,
      "ĠAto": 9424,
      "ĠLauga": 9425,
      "Ġ1996": 9426,
      "ĠVae": 9427,
      "ĠPod": 9428,
      "Ġï¿½ï¿½ï¿½ï¿½ï¿½ï¿½ï¿½ï¿½ï¿½ï¿½ï¿½ï¿½ï¿½ï¿½ï¿½ï¿½": 9429,
      "ĠAppetite": 9430,
      "Ġfaauuina": 9431,
      "ĠCyli": 9432,
      "Â¶Â¶": 9433,
      "ice": 9434,
      "Ġrovi": 9435,
      "Ġcomments": 9436,
      "Ġfaafomai": 9437,
      "Ġtigaina": 9438,
      "ĠFaÊ»aalia": 9439,
      "BL": 9440,
      "leagaina": 9441,
      "nise": 9442,
      "deos": 9443,
      "ĠÐ¼": 9444,
      "Ġjack": 9445,
      "uaiga": 9446,
      "Ġfaamanino": 9447,
      "ĠFREE": 9448,
      "ĠCL": 9449,
      "chin": 9450,
      "OLD": 9451,
      "ĠSuppresent": 9452,
      "don": 9453,
      "eaga": 9454,
      "ĠBis": 9455,
      "hiz": 9456,
      "ĠLast": 9457,
      "ĠfaamaÊ»i": 9458,
      "ĠFaamaonia": 9459,
      "Ø§ÙĨ": 9460,
      "sci": 9461,
      "gar": 9462,
      "302": 9463,
      "Ġhamaoroa": 9464,
      "Ġvagari": 9465,
      "pulu": 9466,
      "Ġbaina": 9467,
      "dified": 9468,
      "perty": 9469,
      "ĠKurdish": 9470,
      "ĠWaterproof": 9471,
      "ĠBulgarian": 9472,
      "PT": 9473,
      "pc": 9474,
      "Ġkon": 9475,
      "mens": 9476,
      "cations": 9477,
      "ĠLATOU": 9478,
      "Ġgaudia": 9479,
      "ĠPuipuia": 9480,
      "490": 9481,
      "987": 9482,
      "mara": 9483,
      "Ġlaki": 9484,
      "inauga": 9485,
      "ĠOld": 9486,
      "ĠLaina": 9487,
      "ĠIf": 9488,
      "ĠPhi": 9489,
      "Ġtotoa": 9490,
      "ĠHau": 9491,
      "ĠFaÊ»asolopito": 9492,
      "Ġpueata": 9493,
      "lean": 9494,
      "kalafa": 9495,
      "ĠAnna": 9496,
      "AZ": 9497,
      "âģ": 9498,
      "Ġfaasee": 9499,
      "ĠMatala": 9500,
      "onald": 9501,
      "ĠNov": 9502,
      "ntaloni": 9503,
      "jia": 9504,
      "nsa": 9505,
      "Ġtaele": 9506,
      "ĠSC": 9507,
      "ĠMano": 9508,
      "kit": 9509,
      "Ġgri": 9510,
      "169": 9511,
      "ĠSii": 9512,
      "ului": 9513,
      "ĠYour": 9514,
      "Ġtaofiofia": 9515,
[...]
