{
  "version": "1.0",
  "truncation": null,
  "padding": null,
  "added_tokens": [
    {
      "id": 0,
      "content": "<s>",
      "single_word": false,
      "lstrip": false,
      "rstrip": false,
      "normalized": false,
      "special": true
    },
    {
      "id": 1,
      "content": "<pad>",
      "single_word": false,
      "lstrip": false,
      "rstrip": false,
      "normalized": false,
      "special": true
    },
    {
      "id": 2,
      "content": "</s>",
      "single_word": false,
      "lstrip": false,
      "rstrip": false,
      "normalized": false,
      "special": true
    },
    {
      "id": 3,
      "content": "<unk>",
      "single_word": false,
      "lstrip": false,
      "rstrip": false,
      "normalized": false,
      "special": true
    },
    {
      "id": 4,
      "content": "<mask>",
      "single_word": false,
      "lstrip": false,
      "rstrip": false,
      "normalized": false,
      "special": true
    }
  ],
  "normalizer": null,
  "pre_tokenizer": {
    "type": "ByteLevel",
    "add_prefix_space": true,
    "trim_offsets": true,
    "use_regex": true
  },
  "post_processor": {
    "type": "RobertaProcessing",
    "sep": [
      "</s>",
      2
    ],
    "cls": [
      "<s>",
      0
    ],
    "trim_offsets": true,
    "add_prefix_space": true
  },
  "decoder": {
    "type": "ByteLevel",
    "add_prefix_space": true,
    "trim_offsets": true,
    "use_regex": true
  },
  "model": {
    "type": "BPE",
    "dropout": null,
    "unk_token": null,
    "continuing_subword_prefix": null,
    "end_of_word_suffix": null,
    "fuse_unk": false,
    "byte_fallback": false,
    "vocab": {
      "<s>": 0,
      "<pad>": 1,
      "</s>": 2,
      "<unk>": 3,
      "<mask>": 4,
      "!": 5,
      "\"": 6,
      "#": 7,
      "$": 8,
      "%": 9,
      "&": 10,
      "'": 11,
      "(": 12,
      ")": 13,
      "*": 14,
      "+": 15,
      ",": 16,
      "-": 17,
      ".": 18,
      "/": 19,
      "0": 20,
      "1": 21,
      "2": 22,
      "3": 23,
      "4": 24,
      "5": 25,
      "6": 26,
      "7": 27,
      "8": 28,
      "9": 29,
      ":": 30,
      ";": 31,
      "<": 32,
      "=": 33,
      ">": 34,
      "?": 35,
      "@": 36,
      "A": 37,
      "B": 38,
      "C": 39,
      "D": 40,
      "E": 41,
      "F": 42,
      "G": 43,
      "H": 44,
      "I": 45,
      "J": 46,
      "K": 47,
      "L": 48,
      "M": 49,
      "N": 50,
      "O": 51,
      "P": 52,
      "Q": 53,
      "R": 54,
      "S": 55,
      "T": 56,
      "U": 57,
      "V": 58,
      "W": 59,
      "X": 60,
      "Y": 61,
      "Z": 62,
      "[": 63,
      "\\": 64,
      "]": 65,
      "^": 66,
      "_": 67,
      "`": 68,
      "a": 69,
      "b": 70,
      "c": 71,
      "d": 72,
      "e": 73,
      "f": 74,
      "g": 75,
      "h": 76,
      "i": 77,
      "j": 78,
      "k": 79,
      "l": 80,
      "m": 81,
      "n": 82,
      "o": 83,
      "p": 84,
      "q": 85,
      "r": 86,
      "s": 87,
      "t": 88,
      "u": 89,
      "v": 90,
      "w": 91,
      "x": 92,
      "y": 93,
      "z": 94,
      "{": 95,
      "|": 96,
      "}": 97,
      "~": 98,
      "¡": 99,
      "¢": 100,
      "£": 101,
      "¤": 102,
      "¥": 103,
      "¦": 104,
      "§": 105,
      "¨": 106,
      "©": 107,
      "ª": 108,
      "«": 109,
      "¬": 110,
      "®": 111,
      "¯": 112,
      "°": 113,
      "±": 114,
      "²": 115,
      "³": 116,
      "´": 117,
      "µ": 118,
      "¶": 119,
      "·": 120,
      "¸": 121,
      "¹": 122,
      "º": 123,
      "»": 124,
      "¼": 125,
      "½": 126,
      "¾": 127,
      "¿": 128,
      "À": 129,
      "Á": 130,
      "Â": 131,
      "Ã": 132,
      "Ä": 133,
      "Å": 134,
      "Æ": 135,
      "Ç": 136,
      "È": 137,
      "É": 138,
      "Ê": 139,
      "Ë": 140,
      "Ì": 141,
      "Í": 142,
      "Î": 143,
      "Ï": 144,
      "Ð": 145,
      "Ñ": 146,
      "Ò": 147,
      "Ó": 148,
      "Ô": 149,
      "Õ": 150,
      "Ö": 151,
      "×": 152,
      "Ø": 153,
      "Ù": 154,
      "Ú": 155,
      "Û": 156,
      "Ü": 157,
      "Ý": 158,
      "Þ": 159,
      "ß": 160,
      "à": 161,
      "á": 162,
      "â": 163,
      "ã": 164,
      "ä": 165,
      "å": 166,
      "æ": 167,
      "ç": 168,
      "è": 169,
      "é": 170,
      "ê": 171,
      "ë": 172,
      "ì": 173,
      "í": 174,
      "î": 175,
      "ï": 176,
      "ð": 177,
      "ñ": 178,
      "ò": 179,
      "ó": 180,
      "ô": 181,
      "õ": 182,
      "ö": 183,
      "÷": 184,
      "ø": 185,
      "ù": 186,
      "ú": 187,
      "û": 188,
      "ü": 189,
      "ý": 190,
      "þ": 191,
      "ÿ": 192,
      "Ā": 193,
      "ā": 194,
      "Ă": 195,
      "ă": 196,
      "Ą": 197,
      "ą": 198,
      "Ć": 199,
      "ć": 200,
      "Ĉ": 201,
      "ĉ": 202,
      "Ċ": 203,
      "ċ": 204,
      "Č": 205,
      "č": 206,
      "Ď": 207,
      "ď": 208,
      "Đ": 209,
      "đ": 210,
      "Ē": 211,
      "ē": 212,
      "Ĕ": 213,
      "ĕ": 214,
      "Ė": 215,
      "ė": 216,
      "Ę": 217,
      "ę": 218,
      "Ě": 219,
      "ě": 220,
      "Ĝ": 221,
      "ĝ": 222,
      "Ğ": 223,
      "ğ": 224,
      "Ġ": 225,
      "ġ": 226,
      "Ģ": 227,
      "ģ": 228,
      "Ĥ": 229,
      "ĥ": 230,
      "Ħ": 231,
      "ħ": 232,
      "Ĩ": 233,
      "ĩ": 234,
      "Ī": 235,
      "ī": 236,
      "Ĭ": 237,
      "ĭ": 238,
      "Į": 239,
      "į": 240,
      "İ": 241,
      "ı": 242,
      "Ĳ": 243,
      "ĳ": 244,
      "Ĵ": 245,
      "ĵ": 246,
      "Ķ": 247,
      "ķ": 248,
      "ĸ": 249,
      "Ĺ": 250,
      "ĺ": 251,
      "Ļ": 252,
      "ļ": 253,
      "Ľ": 254,
      "ľ": 255,
      "Ŀ": 256,
      "ŀ": 257,
      "Ł": 258,
      "ł": 259,
      "Ń": 260,
      "an": 261,
      "ar": 262,
      "da": 263,
      "in": 264,
      "Ġda": 265,
      "Ġk": 266,
      "Ġs": 267,
      "Ġa": 268,
      "ya": 269,
      "ma": 270,
      "wa": 271,
      "ta": 272,
      "ba": 273,
      "ka": 274,
      "un": 275,
      "Ġn": 276,
      "ĠA": 277,
      "Ġya": 278,
      "Ġta": 279,
      "ga": 280,
      "sa": 281,
      "Ġka": 282,
      "Ġma": 283,
      "Ġba": 284,
      "ha": 285,
      "Ġc": 286,
      "la": 287,
      "ĠS": 288,
      "Ġsa": 289,
      "Ġz": 290,
      "ĠK": 291,
      "Ġwa": 292,
      "ĠM": 293,
      "Ġm": 294,
      "yan": 295,
      "wan": 296,
      "Ġna": 297,
      "on": 298,
      "hi": 299,
      "Ġt": 300,
      "Ġd": 301,
      "en": 302,
      "ur": 303,
      "iya": 304,
      "ik": 305,
      "ĠB": 306,
      "ara": 307,
      "su": 308,
      "Ġg": 309,
      "âĢ": 310,
      "Ġb": 311,
      "Ġku": 312,
      "ĠD": 313,
      "Ġza": 314,
      "uk": 315,
      "yar": 316,
      "Ġwan": 317,
      "Ġj": 318,
      "yi": 319,
      "Ġf": 320,
      "Ġr": 321,
      "ir": 322,
      "ĠT": 323,
      "Ġsu": 324,
      "sar": 325,
      "Ġh": 326,
      "ĠN": 327,
      "Ġga": 328,
      "Ġmu": 329,
      "li": 330,
      "sh": 331,
      "nan": 332,
      "ce": 333,
      "ĠG": 334,
      "Ġne": 335,
      "er": 336,
      "Ġce": 337,
      "ĠY": 338,
      "ĠH": 339,
      "ke": 340,
      "am": 341,
      "Ġha": 342,
      "ban": 343,
      "ari": 344,
      "tan": 345,
      "Ġkuma": 346,
      "ĠMa": 347,
      "ana": 348,
      "una": 349,
      "Ġyi": 350,
      "war": 351,
      "dan": 352,
      "âĢĻ": 353,
      "um": 354,
      "Ġko": 355,
      "Ġsh": 356,
      "ki": 357,
      "ci": 358,
      "bu": 359,
      "kin": 360,
      "tar": 361,
      "ikin": 362,
      "Ġshi": 363,
      "ĠI": 364,
      "Ġsha": 365,
      "lla": 366,
      "kar": 367,
      "ĠW": 368,
      "om": 369,
      "iy": 370,
      "ĠL": 371,
      "Ġla": 372,
      "ĠJ": 373,
      "Ġyan": 374,
      "uga": 375,
      "fi": 376,
      "ĠDa": 377,
      "uwa": 378,
      "Ġwannan": 379,
      "ĠKa": 380,
      "kan": 381,
      "man": 382,
      "yin": 383,
      "ika": 384,
      "Ġke": 385,
      "Ġ2": 386,
      "ĠNa": 387,
      "cin": 388,
      "ab": 389,
      "ĠR": 390,
      "ĠF": 391,
      "Ġkan": 392,
      "ĠâĢ": 393,
      "Ġra": 394,
      "Ġsun": 395,
      "ani": 396,
      "are": 397,
      "na": 398,
      "ĠZ": 399,
      "Ġcikin": 400,
      "Ġsuka": 401,
      "or": 402,
      "Ġdaga": 403,
      "ĠC": 404,
      "iki": 405,
      "san": 406,
      "iyar": 407,
      "mar": 408,
      "mu": 409,
      "Ġmai": 410,
      "shi": 411,
      "it": 412,
      "wam": 413,
      "Ġi": 414,
      "Ġkasar": 415,
      "Ġ1": 416,
      "ye": 417,
      "ĠSh": 418,
      "fa": 419,
      "lo": 420,
      "Ġam": 421,
      "ĠYa": 422,
      "ko": 423,
      "Ġcewa": 424,
      "Ġkar": 425,
      "ĠSa": 426,
      "le": 427,
      "bo": 428,
      "bin": 429,
      "Ġwani": 430,
      "Ġaka": 431,
      "fin": 432,
      "ĠBa": 433,
      "ĠMu": 434,
      "di": 435,
      "Ġ'": 436,
      "Ġfa": 437,
      "dda": 438,
      "ĠHa": 439,
      "Ġin": 440,
      "du": 441,
      "ja": 442,
      "Ġbayan": 443,
      "Ġ(": 444,
      "01": 445,
      "uka": 446,
      "ugaban": 447,
      "ĠTa": 448,
      "Ġhan": 449,
      "lin": 450,
      "Ġsan": 451,
      "jer": 452,
      "har": 453,
      "Ġkasa": 454,
      "Ġji": 455,
      "she": 456,
      "ÆĻ": 457,
      "tu": 458,
      "ti": 459,
      "arin": 460,
      "Ġal": 461,
      "din": 462,
      "to": 463,
      "Ġmasu": 464,
      "ĠP": 465,
      "jeriya": 466,
      "ura": 467,
      "shin": 468,
      "omin": 469,
      "mi": 470,
      "ra": 471,
      "de": 472,
      "ji": 473,
      "ĠAm": 474,
      "Ġiya": 475,
      "Ġ-": 476,
      "tsa": 477,
      "Ġdai": 478,
      "tane": 479,
      "Ġtsa": 480,
      "bi": 481,
      "usa": 482,
      "Ġ201": 483,
      "ri": 484,
      "ĠWa": 485,
      "ĠNajeriya": 486,
      "uh": 487,
      "ung": 488,
      "..": 489,
      "wamna": 490,
      "Ġwasu": 491,
      "Ġtsar": 492,
      "Ġmata": 493,
      "ĠGa": 494,
      "shen": 495,
      "Ġw": 496,
      "Ġhar": 497,
      "Ġshe": 498,
      "Ġwanda": 499,
      "jin": 500,
      "Ġdan": 501,
      "nin": 502,
      "Ġzai": 503,
      "Ġzuwa": 504,
      "llah": 505,
      "so": 506,
      "bar": 507,
      "Ġgaba": 508,
      "me": 509,
      "Ġgu": 510,
      "Ġci": 511,
      "ĠE": 512,
      "tin": 513,
      "us": 514,
      "Ġkai": 515,
      "anar": 516,
      "Ġso": 517,
      "Ġdomin": 518,
      "Ġfi": 519,
      "ira": 520,
      "Ġshugaban": 521,
      "ĠAn": 522,
      "Ġan": 523,
      "ukan": 524,
      "Ġabin": 525,
      "ĠâĢĺ": 526,
      "uhari": 527,
      "Ġmutane": 528,
      "ĠKo": 529,
      "ĠO": 530,
      "Ġyana": 531,
      "Ġdon": 532,
      "Ġjam": 533,
      "ĠBuhari": 534,
      "Ġlo": 535,
      "jen": 536,
      "fani": 537,
      "uke": 538,
      "za": 539,
      "il": 540,
      "do": 541,
      "is": 542,
      "Ġja": 543,
      "ho": 544,
      "uniya": 545,
      "ĠRa": 546,
      "wo": 547,
      "Ġlab": 548,
      "yo": 549,
      "Ġwata": 550,
      "Ġnan": 551,
      "Ġgi": 552,
      "kwa": 553,
      "Ġduk": 554,
      "mun": 555,
      "Ġloka": 556,
      "ĠÆĻ": 557,
      "anin": 558,
      "tta": 559,
      "Ġsai": 560,
      "jali": 561,
      "tun": 562,
      "anta": 563,
      "be": 564,
      "ĠAllah": 565,
      "Ġshafi": 566,
      "Ġjihar": 567,
      "ina": 568,
      "zu": 569,
      "Ġsuna": 570,
      "ĠZa": 571,
      "Ġkara": 572,
      "umar": 573,
      "ĠShi": 574,
      "re": 575,
      "ge": 576,
      "yana": 577,
      "Ġyadda": 578,
      "Ġake": 579,
      "Ġfar": 580,
      "AN": 581,
      "ku": 582,
      "00": 583,
      "ĠFa": 584,
      "ÉĹ": 585,
      "go": 586,
      "Ġ_": 587,
      "mman": 588,
      "je": 589,
      "Ġkwa": 590,
      "arai": 591,
      "Ġtare": 592,
      "mma": 593,
      "ts": 594,
      "ungiyar": 595,
      "ĠU": 596,
      "ĠKu": 597,
      "Ġgwamna": 598,
      "ll": 599,
      "Ġmatsa": 600,
      "com": 601,
      "Ġhaka": 602,
      "ĠHausa": 603,
      "Ġbiy": 604,
      "dar": 605,
      "ĠAl": 606,
      "yyana": 607,
      "Ġbi": 608,
      "kon": 609,
      "Ġman": 610,
      "Ġhuk": 611,
      "gi": 612,
      "Ġamfani": 613,
      "Ġsamu": 614,
      "ugaba": 615,
      "Ġwadan": 616,
      "ĠNi": 617,
      "Ġinda": 618,
      "ĠLa": 619,
      "AR": 620,
      "Ġakan": 621,
      "annan": 622,
      "gar": 623,
      "jalisar": 624,
      "urin": 625,
      "kara": 626,
      "yya": 627,
      "Ġaika": 628,
      "Ġshekar": 629,
      "ĠKan": 630,
      "ĠLab": 631,
      "Ġbayyana": 632,
      "Ġciki": 633,
      "es": 634,
      "irin": 635,
      "Ġ\"": 636,
      "Ġwajen": 637,
      "Ġshaf": 638,
      "ni": 639,
      "Ġyin": 640,
      "Ġdo": 641,
      "Ġabu": 642,
      "yen": 643,
      "iyyar": 644,
      "fiya": 645,
      "lar": 646,
      "Ġki": 647,
      "Ġ3": 648,
      "ok": 649,
      "Ġlokacin": 650,
      "ĠJam": 651,
      "si": 652,
      "ĠAika": 653,
      "ĠIn": 654,
      "Ġbin": 655,
      "Ġbiyu": 656,
      "ima": 657,
      "Ġban": 658,
      "Ġdaya": 659,
      "Ġyake": 660,
      "Ġshir": 661,
      "BC": 662,
      "Ġsamun": 663,
      "tt": 664,
      "el": 665,
      "far": 666,
      "gin": 667,
      "Ġkama": 668,
      "dun": 669,
      "fe": 670,
      "Yan": 671,
      "Ġranar": 672,
      "Ġsuke": 673,
      "Ġtun": 674,
      "Ġbu": 675,
      "ĠBBC": 676,
      "bba": 677,
      "jo": 678,
      "ĠAmur": 679,
      "Ġyanzu": 680,
      "Ġfara": 681,
      "Ġtar": 682,
      "Ġkya": 683,
      "Ġdake": 684,
      "ĠMai": 685,
      "Ġru": 686,
      "Ġwasan": 687,
      "ĠShugaban": 688,
      "Ġbir": 689,
      "ĠAf": 690,
      "ike": 691,
      "al": 692,
      "ĠNe": 693,
      "Ġgame": 694,
      "ĠAmurka": 695,
      "ĠâĢľ": 696,
      "Ġkamar": 697,
      "Ġnuna": 698,
      "Ġduniya": 699,
      "kanin": 700,
      "uwar": 701,
      "Ġkungiyar": 702,
      "ĠMan": 703,
      "iyo": 704,
      "Ġaiki": 705,
      "uri": 706,
      "ĠAbu": 707,
      "Ġamma": 708,
      "samman": 709,
      "ĠShe": 710,
      "uta": 711,
      "Ġkun": 712,
      "ĠWannan": 713,
      "book": 714,
      "Ã£": 715,
      "cebook": 716,
      "Ġ5": 717,
      "Ġbai": 718,
      "uran": 719,
      "tum": 720,
      "Ġdaban": 721,
      "Ġzama": 722,
      "Ġwatan": 723,
      "ĠâĢĵ": 724,
      "âĢĿ": 725,
      "kwai": 726,
      "Ġidan": 727,
      "ben": 728,
      "Ġdauk": 729,
      "kama": 730,
      "ch": 731,
      "Ġdin": 732,
      "ĠShugaba": 733,
      "Ġbab": 734,
      "Ġbuka": 735,
      "ĠJi": 736,
      "...": 737,
      "ed": 738,
      "PC": 739,
      "lan": 740,
      "Ġyar": 741,
      "Ġsabo": 742,
      "Ġgo": 743,
      "rye": 744,
      "ter": 745,
      "Ġhann": 746,
      "Ġmag": 747,
      "Ġirin": 748,
      "Ġzaman": 749,
      "Ġcin": 750,
      "Ġmi": 751,
      "aram": 752,
      "oko": 753,
      "IN": 754,
      "url": 755,
      "Ġtsarin": 756,
      "ĠTura": 757,
      "Ġ2018": 758,
      "uba": 759,
      "Ġzar": 760,
      "Ġsaboda": 761,
      "Ġwadanda": 762,
      "ĠSha": 763,
      "ĠMuha": 764,
      "uku": 765,
      "Ġbaya": 766,
      "Ġbirnin": 767,
      "Ġabubu": 768,
      "danar": 769,
      "Ġtabba": 770,
      "Ġzaben": 771,
      "ane": 772,
      "ia": 773,
      "Ġgwamnatin": 774,
      "Ġshafukan": 775,
      "Ġjami": 776,
      "Ġkashe": 777,
      "won": 778,
      "Ġtsakanin": 779,
      "min": 780,
      "te": 781,
      "kiya": 782,
      "kokin": 783,
      "ĠGo": 784,
      "//": 785,
      "tion": 786,
      "ĠGwamna": 787,
      "Ġ[": 788,
      "Ġyau": 789,
      "Ġ4": 790,
      "ĠAPC": 791,
      "ttp": 792,
      "sha": 793,
      "ger": 794,
      "Ġkasashen": 795,
      "ĠLabarai": 796,
      "://": 797,
      "utar": 798,
      "ĠÂ": 799,
      "sul": 800,
      "Ġshiga": 801,
      "ito": 802,
      "ai": 803,
      "ĠNA": 804,
      "Ġkwan": 805,
      "Ġaikin": 806,
      "Ġto": 807,
      "ĠSu": 808,
      "ĠTsa": 809,
      "ĠDan": 810,
      "ĠBab": 811,
      "Ġshekara": 812,
      "DP": 813,
      "ton": 814,
      "Ġmasa": 815,
      "ĠFacebook": 816,
      "ame": 817,
      "Ġita": 818,
      "Ġyayi": 819,
      "Ġgudanar": 820,
      "Ġmutum": 821,
      "Ġmo": 822,
      "irka": 823,
      "Ġhukumar": 824,
      "Ġts": 825,
      "ĠSun": 826,
      "ĠMajalisar": 827,
      "id": 828,
      "Ġganin": 829,
      "Ġshafin": 830,
      "dai": 831,
      "hon": 832,
      "Ġala": 833,
      "Ġbabban": 834,
      "ĠDuniya": 835,
      "Ġkasan": 836,
      "op": 837,
      "Ġyayin": 838,
      "Ġson": 839,
      "ĠKano": 840,
      "ĠFar": 841,
      "ĠSo": 842,
      "Ġ6": 843,
      "Ġjin": 844,
      "Ġtatta": 845,
      "aika": 846,
      "ĠPDP": 847,
      "Ġkafa": 848,
      "Ġmatsayin": 849,
      "pp": 850,
      "Ġni": 851,
      "Ġy": 852,
      "Ġsab": 853,
      "mba": 854,
      "mai": 855,
      "Ġhu": 856,
      "st": 857,
      "Ġcewar": 858,
      "kai": 859,
      "ĠYan": 860,
      "Ġdama": 861,
      "Ġfarko": 862,
      "Ġyankin": 863,
      "Ġmul": 864,
      "Ġada": 865,
      "Ġtso": 866,
      "Ġray": 867,
      "Ġkam": 868,
      "Ġhanyar": 869,
      "ĠKar": 870,
      "Ġbakin": 871,
      "ĠGame": 872,
      "Ġbinc": 873,
      "hu": 874,
      "Ġshekaru": 875,
      "Ġgidan": 876,
      "Ġad": 877,
      "ĠÆĻa": 878,
      "iyya": 879,
      "ine": 880,
      "ĠLe": 881,
      "Ġkasance": 882,
      "Ġdauki": 883,
      "ĠSab": 884,
      "Ġtana": 885,
      "wai": 886,
      "og": 887,
      "iri": 888,
      "ure": 889,
      "Ġabubuwan": 890,
      "ĠJa": 891,
      "Ġzan": 892,
      "ken": 893,
      "Ġneman": 894,
      "ĠAda": 895,
      "Ġsama": 896,
      "Ġtaima": 897,
      "him": 898,
      "ĠZab": 899,
      "lu": 900,
      "Ġlabari": 901,
      "ĠMuhamma": 902,
      "ad": 903,
      "Ġsauran": 904,
      "Ġhakan": 905,
      "Ġgida": 906,
      "Ġwurin": 907,
      "Ġkawo": 908,
      "ĠKasa": 909,
      "ĠHaram": 910,
      "ida": 911,
      "ĠKoma": 912,
      "Ġar": 913,
      "SA": 914,
      "Ġkira": 915,
      "ĠMata": 916,
      "jar": 917,
      "ww": 918,
      "Ġtakar": 919,
      "Ġtaron": 920,
      "wamnan": 921,
      "yoyin": 922,
      "ĠBoko": 923,
      "Ġca": 924,
      "inis": 925,
      "Ġamin": 926,
      "Ġmajalisar": 927,
      "Ġakwai": 928,
      "liyan": 929,
      "Ġmafi": 930,
      "Ġana": 931,
      "ĠAb": 932,
      "Ġlabarai": 933,
      "Ġlafiya": 934,
      "sara": 935,
      "Ġtabbatar": 936,
      "ido": 937,
      "gu": 938,
      "ĠSai": 939,
      "Ġho": 940,
      "ĠNuna": 941,
      "ran": 942,
      "itin": 943,
      "ila": 944,
      "Ġhi": 945,
      "anda": 946,
      "Ġsau": 947,
      "gor": 948,
      "Ġyawan": 949,
      "ĠDA": 950,
      "ĠAbin": 951,
      "ĠHuk": 952,
      "Ġbude": 953,
      "Éĵ": 954,
      "ro": 955,
      "Ġbar": 956,
      "urar": 957,
      "Ġruwa": 958,
      "Ġsake": 959,
      "ĠShirye": 960,
      "ĠYana": 961,
      "Ġguda": 962,
      "ĠNiger": 963,
      "Ġyace": 964,
      "yy": 965,
      "Ġgan": 966,
      "ĠKam": 967,
      "Ġhada": 968,
      "ĠWani": 969,
      "Ġdali": 970,
      "Ġkasu": 971,
      "Ġo": 972,
      "mo": 973,
      "iye": 974,
      "ĠKi": 975,
      "kamakon": 976,
      "ĠYi": 977,
      "Ġjama": 978,
      "Ġbabu": 979,
      "llon": 980,
      "gh": 981,
      "ganta": 982,
      "ukar": 983,
      "th": 984,
      "Ġuku": 985,
      "Ġwaje": 986,
      "uma": 987,
      "ĠAre": 988,
      "Ġtara": 989,
      "Ġtake": 990,
      "mail": 991,
      "Ġkal": 992,
      "Ġsamar": 993,
      "ne": 994,
      "Ġhanka": 995,
      "ĠJihar": 996,
      "Ġâ": 997,
      "Ġlabarin": 998,
      "uni": 999,
      "ini": 1000,
      "ÉĹa": 1001,
      "Ġtsaro": 1002,
      "vi": 1003,
      "kun": 1004,
      "Ġshekarar": 1005,
      "Ġsabon": 1006,
      "Ġkare": 1007,
      "ca": 1008,
      "se": 1009,
      "hin": 1010,
      "gaba": 1011,
      "fanin": 1012,
      "Ġ0": 1013,
      "ĠIdan": 1014,
      "duna": 1015,
      "Ġhannu": 1016,
      "ij": 1017,
      "ĠMo": 1018,
      "ĠDin": 1019,
      "unta": 1020,
      "Ġyawa": 1021,
      "Ġwu": 1022,
      "Ġdu": 1023,
      "âĢ¦": 1024,
      "Ġgar": 1025,
      "Ġsanar": 1026,
      "ĠSau": 1027,
      "Ġgarin": 1028,
      "Ġmusamman": 1029,
      "ĠDaga": 1030,
      "ĠAfirka": 1031,
      "ĠArewa": 1032,
      "llaka": 1033,
      "Ġtalla": 1034,
      "Ġ:": 1035,
      "Ġmaka": 1036,
      "Ġgwamnati": 1037,
      "ĠNew": 1038,
      "tanen": 1039,
      "Ġsiya": 1040,
      "Ġgas": 1041,
      "Ġcan": 1042,
      "Ġshirin": 1043,
      "Ġrashin": 1044,
      "Ġkawai": 1045,
      "shir": 1046,
      "Ġ19": 1047,
      "ĠIs": 1048,
      "zo": 1049,
      "TA": 1050,
      "buwar": 1051,
      "he": 1052,
      "Ġkyau": 1053,
      "Ġgir": 1054,
      "ĠMusamman": 1055,
      "idojin": 1056,
      "Ġlokaci": 1057,
      "Ġl": 1058,
      "Ġp": 1059,
      "ĠHar": 1060,
      "yri": 1061,
      "Ġsanya": 1062,
      "Ġamince": 1063,
      "Ġbisa": 1064,
      "Ġkoma": 1065,
      "wara": 1066,
      "Ġ2019": 1067,
      "chi": 1068,
      "Ġcika": 1069,
      "Ġbayani": 1070,
      "Ġ7": 1071,
      "Ġtsare": 1072,
      "Ġbukatar": 1073,
      "ĠÂ©": 1074,
      "Ġsakamakon": 1075,
      "araba": 1076,
      "Ġli": 1077,
      "ck": 1078,
      "unci": 1079,
      "ĠKaduna": 1080,
      "gen": 1081,
      "ĠEmail": 1082,
      "http": 1083,
      "ire": 1084,
      "Ġkuwa": 1085,
      "ogle": 1086,
      "ona": 1087,
      "ĠSin": 1088,
      "ĠBin": 1089,
      "Ġshugaba": 1090,
      "anan": 1091,
      "lli": 1092,
      "201": 1093,
      "Ġfus": 1094,
      "ĠRu": 1095,
      "Ġsanda": 1096,
      "ĠBabban": 1097,
      "ĠGwamnatin": 1098,
      "himman": 1099,
      "Ġ10": 1100,
      "yoyi": 1101,
      "Ġalha": 1102,
      "sun": 1103,
      "karin": 1104,
      "IJ": 1105,
      "ĠKuma": 1106,
      "jojin": 1107,
      "ĠKai": 1108,
      "sin": 1109,
      "Ġkowa": 1110,
      "Ġfito": 1111,
      "zon": 1112,
      "AB": 1113,
      "Ġmuka": 1114,
      "ansa": 1115,
      "ĠTun": 1116,
      "ĠMala": 1117,
      "Ġsir": 1118,
      "ĠHo": 1119,
      "ĠV": 1120,
      "Ġmutanen": 1121,
      "ĠKe": 1122,
      "Ġayy": 1123,
      "Ġkamata": 1124,
      "Ġhai": 1125,
      "ĠHukumar": 1126,
      "Ġjari": 1127,
      "ĠAlha": 1128,
      "Ġkafin": 1129,
      "ĠAbuja": 1130,
      "ore": 1131,
      "Ġzabe": 1132,
      "Ġkayan": 1133,
      "ĠZam": 1134,
      "katar": 1135,
      "ĠOba": 1136,
      "ĠAna": 1137,
      "Ġri": 1138,
      "Ġbayar": 1139,
      "Ġmutu": 1140,
      "ware": 1141,
      "Ġv": 1142,
      "ĠBayan": 1143,
      "abi": 1144,
      "Ġwadannan": 1145,
      "ĠIma": 1146,
      "ĠRaho": 1147,
      "em": 1148,
      "ĠMusul": 1149,
      "Ġtsohon": 1150,
      "Ġgasar": 1151,
      "ul": 1152,
      "ĠNigeria": 1153,
      "Ġmusu": 1154,
      "Ġkir": 1155,
      "sta": 1156,
      "ĠRe": 1157,
      "Ġmanyan": 1158,
      "cen": 1159,
      "ĠSam": 1160,
      "ĠTsar": 1161,
      "fiyar": 1162,
      "Ġgaban": 1163,
      "ĠAbdu": 1164,
      "Ġriki": 1165,
      "Ġshari": 1166,
      "ĠKasar": 1167,
      "Ġhana": 1168,
      "Ġtaimaka": 1169,
      "ĠGaba": 1170,
      "ĠDon": 1171,
      "Ġkokarin": 1172,
      "Ġjir": 1173,
      "Ġzargin": 1174,
      "iko": 1175,
      "[/": 1176,
      "Ġfada": 1177,
      "Ġrubu": 1178,
      "Ġkula": 1179,
      "ĠShekar": 1180,
      "no": 1181,
      "ĠTar": 1182,
      "Ġare": 1183,
      "Ġsannan": 1184,
      "Ġkudin": 1185,
      "ĠCh": 1186,
      "umma": 1187,
      "ĠAli": 1188,
      "Ġsirri": 1189,
      "Ġarz": 1190,
      "ĠWasu": 1191,
      "ĠTo": 1192,
      "bakar": 1193,
      "ĠGu": 1194,
      "waye": 1195,
      "Ġkudi": 1196,
      "gan": 1197,
      "AM": 1198,
      "Ġbara": 1199,
      "Ġsana": 1200,
      "Ġkwana": 1201,
      "Ġzasu": 1202,
      "Ġ8": 1203,
      "Ġraho": 1204,
      "fan": 1205,
      "ĠIb": 1206,
      "ssa": 1207,
      "ĠLafiya": 1208,
      "ĠSana": 1209,
      "Ġzo": 1210,
      "ĠDinkin": 1211,
      "omi": 1212,
      "Ġje": 1213,
      "Ġâĸ": 1214,
      "Ġwaki": 1215,
      "ĠBir": 1216,
      "ĠNews": 1217,
      "Ġmana": 1218,
      "Ġkwam": 1219,
      "ĠAbubakar": 1220,
      "ÆĻa": 1221,
      "Ġkaya": 1222,
      "Ġbada": 1223,
      "ĠYau": 1224,
      "ng": 1225,
      "tik": 1226,
      "ĠEl": 1227,
      "inistan": 1228,
      "ĠKungiyar": 1229,
      "Ġlai": 1230,
      "od": 1231,
      "Ġbincike": 1232,
      "yon": 1233,
      "ĠShekaru": 1234,
      "Ġshine": 1235,
      "Ġhannun": 1236,
      "ufar": 1237,
      "zan": 1238,
      "WA": 1239,
      "Ġyaki": 1240,
      "co": 1241,
      "Ġhankali": 1242,
      "Ġfitar": 1243,
      "uwan": 1244,
      "Ġkarin": 1245,
      "ĠZaben": 1246,
      "sai": 1247,
      "Ġ,": 1248,
      "Ġwasa": 1249,
      "ĠDW": 1250,
      "ĠDe": 1251,
      "ĠMuhammadu": 1252,
      "Ġtattauna": 1253,
      "ĠLi": 1254,
      "Ġabo": 1255,
      "Ġbayanai": 1256,
      "ĠMU": 1257,
      "Ġtakarar": 1258,
      "ĠAh": 1259,
      "ĠJami": 1260,
      "Ġalhakin": 1261,
      "ĠMasu": 1262,
      "Ġgabatar": 1263,
      "yyar": 1264,
      "Ġmakar": 1265,
      "Ġâĸ·": 1266,
      "Ġwayar": 1267,
      "Ġhalin": 1268,
      "Ġ2015": 1269,
      "Ġgabata": 1270,
      "ĠYadda": 1271,
      "Ġshirya": 1272,
      "ĠMA": 1273,
      "Ġzata": 1274,
      "ĠSabon": 1275,
      "aru": 1276,
      "ĠBu": 1277,
      "fo": 1278,
      "undun": 1279,
      "ĠAbinda": 1280,
      "Ġdamar": 1281,
      "Ġaddin": 1282,
      "tuna": 1283,
      "Ġwadda": 1284,
      "ĠDuk": 1285,
      "Ġsabuwar": 1286,
      "Ġharkokin": 1287,
      "ght": 1288,
      "ĠMe": 1289,
      "Ġhak": 1290,
      "ĠNAIJ": 1291,
      "kken": 1292,
      "ĠAmfani": 1293,
      "ĠAmma": 1294,
      "Ġmulki": 1295,
      "ĠTr": 1296,
      "YA": 1297,
      "ĠKwan": 1298,
      "Ġjiya": 1299,
      "Ġsiyasa": 1300,
      "ĠYo": 1301,
      "ĠBuga": 1302,
      "shirye": 1303,
      "Ġhttp": 1304,
      "Ġkunshi": 1305,
      "iken": 1306,
      "Ġmiliyan": 1307,
      "ĠTurai": 1308,
      "undunar": 1309,
      "rin": 1310,
      "ĠWha": 1311,
      "git": 1312,
      "Ġmala": 1313,
      "yu": 1314,
      "Ġwato": 1315,
      "Ġyanar": 1316,
      "ĠZai": 1317,
      "hausa": 1318,
      "ĠKaranta": 1319,
      "ene": 1320,
      "Ġmagana": 1321,
      "ĠJamus": 1322,
      "Ġtayi": 1323,
      "Ġkwallon": 1324,
      "ĠÆ": 1325,
      "sarar": 1326,
      "tiku": 1327,
      "Ġnu": 1328,
      "gun": 1329,
      "Ġmusul": 1330,
      ".âĢĿ": 1331,
      "ĠTaron": 1332,
      "den": 1333,
      "Ġgudun": 1334,
      "ĠWata": 1335,
      "Ġmun": 1336,
      "Ġgwamnan": 1337,
      "Ġlabar": 1338,
      "Ġjagor": 1339,
      "Ġcutar": 1340,
      "ema": 1341,
      "ĠIran": 1342,
      "cce": 1343,
      "Ġdawo": 1344,
      "Ġkarka": 1345,
      "Ġsami": 1346,
      "Ġhali": 1347,
      "Ġfuskan": 1348,
      "shiryen": 1349,
      "bun": 1350,
      "ĠAtiku": 1351,
      "ĠHan": 1352,
      "ĠKA": 1353,
      "fara": 1354,
      "im": 1355,
      "Ġina": 1356,
      "ĠNijar": 1357,
      "LA": 1358,
      "ĠBinc": 1359,
      "cewa": 1360,
      "App": 1361,
      "warar": 1362,
      "ĠPa": 1363,
      "Ġshawara": 1364,
      "Ġmulkin": 1365,
      "ĠMar": 1366,
      "Ġinganta": 1367,
      "iwa": 1368,
      "ĠKasashen": 1369,
      "sk": 1370,
      "Ġ9": 1371,
      "rahim": 1372,
      "Ġayyukan": 1373,
      "Ġbangar": 1374,
      "sana": 1375,
      "Ġgare": 1376,
      "ĠKudu": 1377,
      "tsApp": 1378,
      "Ġ20": 1379,
      "iyoyin": 1380,
      "Ġjan": 1381,
      "ru": 1382,
      "ĠWhatsApp": 1383,
      "Ġsar": 1384,
      "iyarci": 1385,
      "Ġ2017": 1386,
      "umi": 1387,
      "Ġshafuka": 1388,
      "Ġtamba": 1389,
      "Ġgano": 1390,
      "ĠGoogle": 1391,
      "Ġgirma": 1392,
      "ĠSar": 1393,
      "et": 1394,
      "lai": 1395,
      "ĠAr": 1396,
      "ĠCop": 1397,
      "wit": 1398,
      "Ġduba": 1399,
      "000": 1400,
      "ĠSan": 1401,
      "antar": 1402,
      "ĠYin": 1403,
      "ĠLabari": 1404,
      "Ġ50": 1405,
      ".\"": 1406,
      "ss": 1407,
      "Ġkamfanin": 1408,
      "Ġsani": 1409,
      "ĠÉĹa": 1410,
      "Ġtaba": 1411,
      "UN": 1412,
      "Ġkowan": 1413,
      "ĠManufar": 1414,
      "Ġkarshe": 1415,
      "ora": 1416,
      "tawa": 1417,
      "Ġran": 1418,
      "Ġmaza": 1419,
      "Ġfiye": 1420,
      "oki": 1421,
      "Ġdauka": 1422,
      "Ġrana": 1423,
      "hadi": 1424,
      "ĠIbrahim": 1425,
      "Ġbaki": 1426,
      "naij": 1427,
      "Ġyara": 1428,
      "ĠYanzu": 1429,
      "yright": 1430,
      "ber": 1431,
      "ĠRasha": 1432,
      "ĠCopyright": 1433,
      "ĠTA": 1434,
      "ĠCa": 1435,
      "Ġkada": 1436,
      "ph": 1437,
      "Ġkung": 1438,
      "ew": 1439,
      "ĠRufe": 1440,
      "Ġbata": 1441,
      "Ġdaidai": 1442,
      "Ġ.": 1443,
      "Ġmur": 1444,
      "Ġjar": 1445,
      "toci": 1446,
      "Ġgana": 1447,
      "Ġarewa": 1448,
      "ption": 1449,
      "llahi": 1450,
      "lle": 1451,
      "Ġsaka": 1452,
      "Ġkana": 1453,
      "ĠDo": 1454,
      "Ġtaka": 1455,
      "joji": 1456,
      "Ġjirgin": 1457,
      "Â´": 1458,
      "Ġgwa": 1459,
      "ĠMutane": 1460,
      "lata": 1461,
      "don": 1462,
      "ĠMi": 1463,
      "ĠZan": 1464,
      "ĠBan": 1465,
      "ĠLegit": 1466,
      "ummar": 1467,
      "Ġharin": 1468,
      "Ġtattalin": 1469,
      "Ġbuga": 1470,
      "Ġmat": 1471,
      "Ġ15": 1472,
      "ĠNijeriya": 1473,
      "Ġhukum": 1474,
      "Ġsosai": 1475,
      "uki": 1476,
      "sib": 1477,
      "ĠTsallaka": 1478,
      "ĠTur": 1479,
      "ĠHu": 1480,
      "Ġtsarinmu": 1481,
      "ump": 1482,
      "Ġred": 1483,
      "Ġgaskiya": 1484,
      "onin": 1485,
      "ĠUmar": 1486,
      "Ġkuda": 1487,
      "witter": 1488,
      "ĠGwamnan": 1489,
      "zar": 1490,
      "Ġmama": 1491,
      "Ġ12": 1492,
      "Ġdukkan": 1493,
      "Ġsojojin": 1494,
      "Ġbiyar": 1495,
      "oma": 1496,
      "Ġzanga": 1497,
      "Ġcaption": 1498,
      "Ġ200": 1499,
      "Ġalka": 1500,
      "),": 1501,
      "Ġkarshen": 1502,
      "ufa": 1503,
      "ĠKiwon": 1504,
      "Ġmuna": 1505,
      "jan": 1506,
      "ĠImage": 1507,
      "Ġ#": 1508,
      "sali": 1509,
      "Ġbasu": 1510,
      "imakin": 1511,
      "rika": 1512,
      "Ġ/": 1513,
      "oni": 1514,
      "karun": 1515,
      "Ġnasara": 1516,
      "orin": 1517,
      "uren": 1518,
      "Ġruwan": 1519,
      "Ġyanke": 1520,
      "Ġgani": 1521,
      "ĠObama": 1522,
      "Ġhij": 1523,
      "Ġgur": 1524,
      "ĠTrump": 1525,
      "Ġmaha": 1526,
      "ĠBar": 1527,
      "Ġkarkashin": 1528,
      "jejen": 1529,
      "Ġbatun": 1530,
      "Ġmuke": 1531,
      "tunan": 1532,
      "Ġkasuwan": 1533,
      "Ġalaka": 1534,
      "Ġraba": 1535,
      "Ġtarayya": 1536,
      "ĠBaya": 1537,
      "med": 1538,
      "ĠKU": 1539,
      "view": 1540,
      "Ġkau": 1541,
      "Ġdubu": 1542,
      "po": 1543,
      "Ġkotu": 1544,
      "Ġ11": 1545,
      "ĠMuhammad": 1546,
      "ĠAfrika": 1547,
      "ome": 1548,
      "ĠâĢĻ": 1549,
      "ĠSara": 1550,
      "ĠAdam": 1551,
      ").": 1552,
      "jiya": 1553,
      "ddamar": 1554,
      "Ġrediyo": 1555,
      "ĠBabbar": 1556,
      "Ġon": 1557,
      "ver": 1558,
      "Ġsada": 1559,
      "Ġmar": 1560,
      "diya": 1561,
      "Ġme": 1562,
      "umin": 1563,
      "ĠPre": 1564,
      "mawa": 1565,
      "Ġtala": 1566,
      "ĠKwa": 1567,
      "ĠGan": 1568,
      "Ġkusa": 1569,
      "Ġhudu": 1570,
      "Ġfan": 1571,
      "Ġshaida": 1572,
      "Ġfasa": 1573,
      "dri": 1574,
      "awa": 1575,
      "Ġbiya": 1576,
      "Ġhttps": 1577,
      "Ġfaru": 1578,
      "KA": 1579,
      "che": 1580,
      "marin": 1581,
      "Ġmara": 1582,
      "gon": 1583,
      "ĠTwitter": 1584,
      "can": 1585,
      "ĠBor": 1586,
      "Ġyiwa": 1587,
      "ĠBi": 1588,
      "Ġbindi": 1589,
      "Ġdauke": 1590,
      "tanni": 1591,
      "Ġmayar": 1592,
      "Ġq": 1593,
      "ĠIsra": 1594,
      "ĠJo": 1595,
      "ĠFaransa": 1596,
      "ĠSanata": 1597,
      "tocin": 1598,
      "iti": 1599,
      "Ġabinci": 1600,
      "ĠAbo": 1601,
      "Ġhare": 1602,
      "ere": 1603,
      "llo": 1604,
      "ĠBincike": 1605,
      "Ġmaso": 1606,
      "Ġlamarin": 1607,
      "Ġdaukar": 1608,
      "ĠwaÉĹ": 1609,
      "Ġzu": 1610,
      "Ġmin": 1611,
      "Ġsaba": 1612,
      "Ġlashe": 1613,
      "Ġrikicin": 1614,
      "Ġmuhimman": 1615,
      "llar": 1616,
      "ĠSH": 1617,
      "Ġlam": 1618,
      "ĠSani": 1619,
      "llace": 1620,
      "Ġmatsalar": 1621,
      "Ġgoyon": 1622,
      "Ġbinciken": 1623,
      "Ġnemi": 1624,
      "Ġe": 1625,
      "ĠCi": 1626,
      "ĠDali": 1627,
      "gane": 1628,
      "ĠTso": 1629,
      "Ġili": 1630,
      "gawa": 1631,
      "Ġlabaran": 1632,
      "okies": 1633,
      "Ġtashi": 1634,
      "Ġmatakin": 1635,
      "Ġgina": 1636,
      "ori": 1637,
      "Ġyamma": 1638,
      "www": 1639,
      "Ġtawa": 1640,
      "Ġtura": 1641,
      "Ġkamma": 1642,
      "Ġcigaba": 1643,
      "CC": 1644,
      "Ġdace": 1645,
      "Ġabinda": 1646,
      "ciyar": 1647,
      "Ġ13": 1648,
      "SH": 1649,
      "Ġkashi": 1650,
      "ĠHaka": 1651,
      "Ġadawa": 1652,
      "Ġjira": 1653,
      "pa": 1654,
      "Ġkansa": 1655,
      "diyya": 1656,
      "Ġwuce": 1657,
      "Ġrayuwar": 1658,
      "2018": 1659,
      "Ġ14": 1660,
      "MA": 1661,
      "uts": 1662,
      "kiyar": 1663,
      "Ġnau": 1664,
      "Ġ...": 1665,
      "ĠBau": 1666,
      "jalisa": 1667,
      "ĠÆĻasa": 1668,
      "ol": 1669,
      "Ġmasana": 1670,
      "ancin": 1671,
      "ĠAlhaji": 1672,
      "Ġkammala": 1673,
      "ĠAmin": 1674,
      "Ġsayar": 1675,
      "wu": 1676,
      "Ġabun": 1677,
      "ĠTara": 1678,
      "stan": 1679,
      "ĠÆĻasar": 1680,
      "UR": 1681,
      "ĠDau": 1682,
      "Ġyun": 1683,
      "Ġtari": 1684,
      "Ġju": 1685,
      "DA": 1686,
      "Ġaikata": 1687,
      "ĠGobe": 1688,
      "Ġmakon": 1689,
      "Ġhari": 1690,
      "ĠYA": 1691,
      "Ġhala": 1692,
      "Ġrayuwa": 1693,
      "Ġrage": 1694,
      "ĠMuna": 1695,
      "ĠMalam": 1696,
      "Ġyakin": 1697,
      "Ġkansu": 1698,
      "Ġzum": 1699,
      "Ġshugabannin": 1700,
      "aikatan": 1701,
      "we": 1702,
      "bbi": 1703,
      "Ãµ": 1704,
      "ĠBorno": 1705,
      "Ġfama": 1706,
      "kari": 1707,
      "ĠLit": 1708,
      "Ġsashen": 1709,
      "Ġ60": 1710,
      "Ġkusan": 1711,
      "Ġkyauta": 1712,
      "ĠFi": 1713,
      "Ġrasa": 1714,
      "Ġjawa": 1715,
      "ĠÆĻar": 1716,
      "ON": 1717,
      "ĠGar": 1718,
      "kaice": 1719,
      "Ġkuri": 1720,
      "tallace": 1721,
      "ĠRi": 1722,
      "Ġdam": 1723,
      "ham": 1724,
      "Ġbiyo": 1725,
      "Ġtsaya": 1726,
      "ĠRo": 1727,
      "manin": 1728,
      "ĠGi": 1729,
      "Ġfita": 1730,
      "addan": 1731,
      "munar": 1732,
      "tsar": 1733,
      "ĠCika": 1734,
      "Ġbayanan": 1735,
      "Â»": 1736,
      "oro": 1737,
      "php": 1738,
      "Ġtallace": 1739,
      "Ġsam": 1740,
      "ÉĹin": 1741,
      "erin": 1742,
      "lay": 1743,
      "ĠBA": 1744,
      "Ġmatasa": 1745,
      "ayi": 1746,
      "ĠBauchi": 1747,
      "Ġdole": 1748,
      "ĠÆĺ": 1749,
      "iru": 1750,
      "Ġyarjejen": 1751,
      "Ġdar": 1752,
      "Ġdi": 1753,
      "Ġ18": 1754,
      "Ġmatan": 1755,
      "Ġik": 1756,
      "ĠMr": 1757,
      "ĠAbdullahi": 1758,
      "ve": 1759,
      "Ġkowane": 1760,
      "ĠDomin": 1761,
      "kka": 1762,
      "Ġtsawon": 1763,
      "fawa": 1764,
      "uncin": 1765,
      "Ġmakama": 1766,
      "MAN": 1767,
      "isha": 1768,
      "Ġsace": 1769,
      "era": 1770,
      "Ġtakara": 1771,
      "ĠAka": 1772,
      "ista": 1773,
      "Ġdanda": 1774,
      "Ġhanya": 1775,
      "Ġarziki": 1776,
      "las": 1777,
      "EC": 1778,
      "eri": 1779,
      "Ġhadin": 1780,
      "ĠCikin": 1781,
      "ĠMusa": 1782,
      "Ġdari": 1783,
      "ikh": 1784,
      "Ġtsaron": 1785,
      "ÉĽ": 1786,
      "ĠTuntu": 1787,
      "kunan": 1788,
      "ĠQ": 1789,
      "ĠShiga": 1790,
      "Ġte": 1791,
      "ĠShafi": 1792,
      "Ġgarga": 1793,
      "Ġhalar": 1794,
      "unin": 1795,
      "ĠYu": 1796,
      "ĠWA": 1797,
      "ĠZamfara": 1798,
      "Ġbukaci": 1799,
      "Ġlitta": 1800,
      "Ġofi": 1801,
      "ĠSA": 1802,
      "ĠKAR": 1803,
      "taniya": 1804,
      "Ġfadi": 1805,
      "daban": 1806,
      "Ġsi": 1807,
      "Ġkofin": 1808,
      "Ġnufin": 1809,
      "biyar": 1810,
      "ĠMun": 1811,
      "tsina": 1812,
      "ĠKare": 1813,
      "ut": 1814,
      "ĠLitta": 1815,
      "ĠTurki": 1816,
      "hur": 1817,
      "ĠShin": 1818,
      "Ġjuna": 1819,
      "bai": 1820,
      "Ġfahim": 1821,
      "Ġbangaren": 1822,
      "ĠMum": 1823,
      "zi": 1824,
      "Ġabubuwa": 1825,
      "irar": 1826,
      "bile": 1827,
      "Ġrundunar": 1828,
      "Ġaure": 1829,
      "ny": 1830,
      "Ġnasarar": 1831,
      "ĠIya": 1832,
      "Ġkasashe": 1833,
      "ĠAhma": 1834,
      "Ġtafi": 1835,
      "Ġkotun": 1836,
      "Ġdokar": 1837,
      "anci": 1838,
      "ĠSaraki": 1839,
      "ĠCe": 1840,
      "fofin": 1841,
      "Ġkaratu": 1842,
      "ĠAL": 1843,
      "Ġzargi": 1844,
      "Ġyada": 1845,
      "ĠDi": 1846,
      "Ġbid": 1847,
      "wood": 1848,
      "Ġ16": 1849,
      "ĠTam": 1850,
      "bangi": 1851,
      "ĠZiyarci": 1852,
      "ĠKwankwa": 1853,
      "Ġfatan": 1854,
      "kakin": 1855,
      "Ġgizo": 1856,
      "ong": 1857,
      "Ġdokokin": 1858,
      "tsi": 1859,
      "biya": 1860,
      "wi": 1861,
      "Ġmatar": 1862,
      "fen": 1863,
      "ĠDr": 1864,
      "oda": 1865,
      "ssan": 1866,
      "Ġwuta": 1867,
      "Ġisa": 1868,
      "dex": 1869,
      "Ġyasa": 1870,
      "Ġdara": 1871,
      "Ġwacce": 1872,
      "Ġis": 1873,
      "ĠBirnin": 1874,
      "ĠSiya": 1875,
      "ing": 1876,
      "ĠLaraba": 1877,
      "ĠRahoto": 1878,
      "Ġziyar": 1879,
      "ĠJini": 1880,
      "ĠCikakken": 1881,
      "ĠBel": 1882,
      "Ġaz": 1883,
      "ĠTurkiyya": 1884,
      "ayin": 1885,
      "enan": 1886,
      "EN": 1887,
      "Ġyarda": 1888,
      "Ġrika": 1889,
      "Ġmataki": 1890,
      "ĠKatsina": 1891,
      "ĠSudan": 1892,
      "ĠBo": 1893,
      "BA": 1894,
      "ĠYar": 1895,
      "Ġcimma": 1896,
      "Ġzumunta": 1897,
      "Ġgag": 1898,
      "ĠKwam": 1899,
      "Ġrubuta": 1900,
      "ĠIna": 1901,
      "Ġ100": 1902,
      "Ġle": 1903,
      "ĠGandu": 1904,
      "Ġfim": 1905,
      "Ġumar": 1906,
      "Ġdangane": 1907,
      "Ġasib": 1908,
      "wari": 1909,
      "Ġshan": 1910,
      "ĠChina": 1911,
      "Ġfina": 1912,
      "ĠCo": 1913,
      "tanet": 1914,
      "ÉĶ": 1915,
      "Ġtace": 1916,
      "Ġu": 1917,
      "Ġ@": 1918,
      "Ġ30": 1919,
      "unan": 1920,
      "uro": 1921,
      "ĠDaular": 1922,
      "Ġhijira": 1923,
      "Ġjiho": 1924,
      "Ġhad": 1925,
      "Ġ17": 1926,
      "ance": 1927,
      "Ġkwamitin": 1928,
      "Ġdakatar": 1929,
      "Ġkananan": 1930,
      "Ġsunan": 1931,
      "ĠJe": 1932,
      "Ġrahoton": 1933,
      "liya": 1934,
      "Ġshirye": 1935,
      "ĠShehu": 1936,
      "ĠAboki": 1937,
      "ĠAkwai": 1938,
      "yara": 1939,
      "Ġmako": 1940,
      "Ġbabbar": 1941,
      "mis": 1942,
      "hajar": 1943,
      "ĠMinistan": 1944,
      "ĠKofa": 1945,
      "Ġkudaden": 1946,
      "ĠKarin": 1947,
      "hiyar": 1948,
      "Ġmatsalo": 1949,
      "Ġbana": 1950,
      "Ġhas": 1951,
      "Ġkarya": 1952,
      "Ġbaraz": 1953,
      "Ġshigar": 1954,
      "Ġgoma": 1955,
      "ĠGanduje": 1956,
      "elle": 1957,
      "Ġfata": 1958,
      "ciya": 1959,
      "Ġkaddamar": 1960,
      "warin": 1961,
      "Ġkiya": 1962,
      "index": 1963,
      "Ġsandan": 1964,
      "dancin": 1965,
      "Ba": 1966,
      "gas": 1967,
      "les": 1968,
      "ĠSuka": 1969,
      "Ġmobile": 1970,
      "ĠTakaice": 1971,
      "unawa": 1972,
      "tuwa": 1973,
      "Ġhanyoyin": 1974,
      "Ġbiyan": 1975,
      "NG": 1976,
      "ĠYe": 1977,
      "ĠYanayi": 1978,
      "ers": 1979,
      "ĠSauyin": 1980,
      "Ġmika": 1981,
      "nabi": 1982,
      "Ġfadin": 1983,
      "wamn": 1984,
      "Ġbikin": 1985,
      "ĠShiri": 1986,
      "ĠMUSA": 1987,
      "utsche": 1988,
      "list": 1989,
      "ĠDu": 1990,
      "Ġabokan": 1991,
      "Ġarzikin": 1992,
      "ĠGida": 1993,
      "tti": 1994,
      "ĠMummunar": 1995,
      "Ha": 1996,
      "ĠMuhalli": 1997,
      "ĠAsa": 1998,
      "uru": 1999,
      "ĠTsohon": 2000,
      "\".": 2001,
      "Ġtas": 2002,
      "ĠKamar": 2003,
      "ct": 2004,
      "Ġdalilin": 2005,
      "IK": 2006,
      "ĠIlla": 2007,
      "ang": 2008,
      "va": 2009,
      "Ġkaro": 2010,
      "Ġwalla": 2011,
      "ĠInji": 2012,
      "kawa": 2013,
      "ĠDeutsche": 2014,
      "ĠIta": 2015,
      "ĠKwankwaso": 2016,
      "drid": 2017,
      "Ġbo": 2018,
      "Ġdandalin": 2019,
      "anemi": 2020,
      "ĠIra": 2021,
      "ity": 2022,
      "MMAN": 2023,
      "Ma": 2024,
      "ĠKor": 2025,
      "Kanemi": 2026,
      "ĠMur": 2027,
      "Ġde": 2028,
      "Ġdare": 2029,
      "Ġjiragen": 2030,
      "ĠHawaye": 2031,
      "ĠSir": 2032,
      "buwa": 2033,
      "ĠFargaba": 2034,
      "Ġwar": 2035,
      "Ġkull": 2036,
      "Ġ24": 2037,
      "Ġnaz": 2038,
      "Ġfadar": 2039,
      "Ġtan": 2040,
      "Ġtafiya": 2041,
      "Ġshida": 2042,
      "ĠKasashenmu": 2043,
      "ĠMUSAMMAN": 2044,
      "Ġrasu": 2045,
      "Ka": 2046,
      "nywood": 2047,
      "Ġkomai": 2048,
      "ĠMadrid": 2049,
      "ĠMusulmi": 2050,
      "Ġhanci": 2051,
      "ĠTsaye": 2052,
      "Ġyunk": 2053,
      "men": 2054,
      "Ġsaman": 2055,
      "IR": 2056,
      "Ġhukuncin": 2057,
      "Ġ25": 2058,
      "une": 2059,
      "ĠPremi": 2060,
      "ĠAd": 2061,
      "lci": 2062,
      "ĠEF": 2063,
      "Ġjikin": 2064,
      "ĠLo": 2065,
      "Ġmataimakin": 2066,
      "Ġjiki": 2067,
      "ĠLatsa": 2068,
      "ĠSaboda": 2069,
      "ĠKashe": 2070,
      "huriyar": 2071,
      "ĠKara": 2072,
      "Ġre": 2073,
      "Ġhausa": 2074,
      "ANTA": 2075,
      "ÆĻi": 2076,
      "ĠWadan": 2077,
      "Ġtu": 2078,
      "ĠSyri": 2079,
      "ĠWanda": 2080,
      "Ġkaramar": 2081,
      "Ġmatakan": 2082,
      "Ġkaranta": 2083,
      "Ġmace": 2084,
      "Ġfarin": 2085,
      "ĠHA": 2086,
      "Ġfilin": 2087,
      "ĠUn": 2088,
      "Ġkuna": 2089,
      "ĠNaira": 2090,
      "Ġbam": 2091,
      "Ġofishin": 2092,
      "pe": 2093,
      "ĠSuna": 2094,
      "Ġrai": 2095,
      "ami": 2096,
      "ĠWelle": 2097,
      "ĠBugawa": 2098,
      "Ġbaiwa": 2099,
      "Ġido": 2100,
      "kacin": 2101,
      "gila": 2102,
      "uhu": 2103,
      "Ġkayayya": 2104,
      "ren": 2105,
      "Ġtat": 2106,
      "Ġlaifin": 2107,
      "Ġamsa": 2108,
      "facebook": 2109,
      "ly": 2110,
      "nar": 2111,
      "Ġdanganta": 2112,
      "Ġmatsala": 2113,
      "Ġharam": 2114,
      "ĠTuntuba": 2115,
      "kasa": 2116,
      "ĠBabu": 2117,
      "Ġmalla": 2118,
      "Ġwai": 2119,
      "ĠIN": 2120,
      "Ġmuha": 2121,
      "ĠTsarki": 2122,
      "Ġkanta": 2123,
      "ĠMusulunci": 2124,
      "ĠBen": 2125,
      "ĠSarkin": 2126,
      "kuwa": 2127,
      "Ġkwanaki": 2128,
      "ĠKir": 2129,
      "10": 2130,
      "ĠZar": 2131,
      "Ġkujer": 2132,
      "Ġkarfin": 2133,
      "ĠLittafi": 2134,
      "Ġjerin": 2135,
      "ĠAdamawa": 2136,
      "Ġjaridar": 2137,
      "Ġsadar": 2138,
      "addanci": 2139,
      "Ġkenan": 2140,
      "ĠZabin": 2141,
      "ĠMatsa": 2142,
      "Ġsojin": 2143,
      "Ġaddini": 2144,
      "iyon": 2145,
      "play": 2146,
      "amma": 2147,
      "Ġbamu": 2148,
      "aikatar": 2149,
      "user": 2150,
      "koki": 2151,
      "ff": 2152,
      "ĠAmirka": 2153,
      "Ġas": 2154,
      "Ġtsan": 2155,
      "ĠKotu": 2156,
      "ĠSyria": 2157,
      "ĠSe": 2158,
      "Ġtaro": 2159,
      "ĠKebbi": 2160,
      "ĠEFCC": 2161,
      "ĠNAIJA": 2162,
      "ĠJona": 2163,
      "Ġnahiyar": 2164,
      "Ġkundin": 2165,
      "shar": 2166,
      "than": 2167,
      "bobin": 2168,
      "est": 2169,
      "Ġkiran": 2170,
      "Ġrufe": 2171,
      "Ġmakamai": 2172,
      "Ġzaka": 2173,
      "Ġfice": 2174,
      "Ġmahai": 2175,
      "Ġbindiga": 2176,
      "tic": 2177,
      "hama": 2178,
      "ĠTi": 2179,
      "ĠWasan": 2180,
      "Ġhaih": 2181,
      "Ġsojoji": 2182,
      "ĠTatta": 2183,
      "Ġmaya": 2184,
      "option": 2185,
      "Ġyarjejeniyar": 2186,
      "Ġsauya": 2187,
      "salin": 2188,
      "ARI": 2189,
      "ĠSaudiyya": 2190,
      "ĠRahotanni": 2191,
      "item": 2192,
      "uraren": 2193,
      "Ġnada": 2194,
      "task": 2195,
      "Ġmajalisa": 2196,
      "Ya": 2197,
      "tse": 2198,
      "ÉĹi": 2199,
      "Ġmanhajar": 2200,
      "itemlist": 2201,
      "dia": 2202,
      "cha": 2203,
      "!!": 2204,
      "Ġamba": 2205,
      "ĠJanar": 2206,
      "Ġhankalin": 2207,
      "ĠBello": 2208,
      "Ġkasuwanci": 2209,
      "ĠSheikh": 2210,
      "ccen": 2211,
      "Ġmum": 2212,
      "dole": 2213,
      "ĠKoriya": 2214,
      "Ġkasuwa": 2215,
      "hl": 2216,
      "Ġaddinin": 2217,
      "Ġmutuwar": 2218,
      "ĠYace": 2219,
      "sanjo": 2220,
      "ada": 2221,
      "Ġbashi": 2222,
      "Ġwasanni": 2223,
      "Ġzamani": 2224,
      "goya": 2225,
      "Ġgidajen": 2226,
      "ĠBaba": 2227,
      "Ġmota": 2228,
      "ĠMasar": 2229,
      "pps": 2230,
      "Ġdakarun": 2231,
      "SU": 2232,
      "Ġmatukar": 2233,
      "ĠJonathan": 2234,
      "Ġhara": 2235,
      "Ġgari": 2236,
      "ĠKARANTA": 2237,
      "oron": 2238,
      "Ġcire": 2239,
      "Ġgud": 2240,
      "Ġriga": 2241,
      "wn": 2242,
      "Ġtaimakawa": 2243,
      "dio": 2244,
      "ĠHutu": 2245,
      "Ġaj": 2246,
      "Ġministan": 2247,
      "Ġbatu": 2248,
      "han": 2249,
      "sen": 2250,
      "Ġshin": 2251,
      "ĠâĢº": 2252,
      "uniyar": 2253,
      "ĠJari": 2254,
      "adin": 2255,
      "Ġkungiyoyin": 2256,
      "guri": 2257,
      "ĠLitin": 2258,
      "ĠBur": 2259,
      "kya": 2260,
      "Ġkadan": 2261,
      "Ġnasa": 2262,
      "tsu": 2263,
      "ĠAla": 2264,
      "ry": 2265,
      "ils": 2266,
      "store": 2267,
      "Ġkadai": 2268,
      "Ġkisan": 2269,
      "Ġgyara": 2270,
      "ĠAnnabi": 2271,
      "ĠKalli": 2272,
      "Ġmanema": 2273,
      "lt": 2274,
      "ĠAbdul": 2275,
      "ĠSiyasa": 2276,
      "hana": 2277,
      "kataren": 2278,
      "Ġgama": 2279,
      "Ġkamfan": 2280,
      "aikata": 2281,
      "Ġ22": 2282,
      "line": 2283,
      "Ġrike": 2284,
      "ting": 2285,
      "Ġfuskantar": 2286,
      "Ġkimanin": 2287,
      "Ġ2016": 2288,
      "ĠKun": 2289,
      "Ġtsaye": 2290,
      "ĠReal": 2291,
      "Ġhukumomin": 2292,
      "Ġyo": 2293,
      "Ġkud": 2294,
      "Ġkullum": 2295,
      "Éĵa": 2296,
      "too": 2297,
      "Ġbe": 2298,
      "duguri": 2299,
      "Ġlafiyar": 2300,
      "ĠHutudole": 2301,
      "Ġkalm": 2302,
      "Ġilimi": 2303,
      "ĠBid": 2304,
      "Ġintanet": 2305,
      "Ġduka": 2306,
      "Ġzaga": 2307,
      "ĠTalata": 2308,
      "Ġ21": 2309,
      "iwatar": 2310,
      "lantar": 2311,
      "Ġhaifar": 2312,
      "etur": 2313,
      "ĠMag": 2314,
      "Ġmuku": 2315,
      "DD": 2316,
      "Ġcikakken": 2317,
      "Ġziyarar": 2318,
      "qi": 2319,
      "ĠÉĹ": 2320,
      "iyara": 2321,
      "ram": 2322,
      "Rufa": 2323,
      "ree": 2324,
      "iyoyi": 2325,
      "ĠKamaru": 2326,
      "11": 2327,
      "ĠMaiduguri": 2328,
      "Ġhakkin": 2329,
      "ĠObasanjo": 2330,
      "Å©": 2331,
      "Ġyanayin": 2332,
      "Ġdasu": 2333,
      "Ġbun": 2334,
      "pi": 2335,
      "Ġtattaunawa": 2336,
      "google": 2337,
      "Sa": 2338,
      "Ġ*": 2339,
      "uko": 2340,
      "wun": 2341,
      "ft": 2342,
      "ĠwaÉĹanda": 2343,
      "pan": 2344,
      "son": 2345,
      "dawa": 2346,
      "ited": 2347,
      "LI": 2348,
      "tails": 2349,
      "fafa": 2350,
      "ĠIngila": 2351,
      "Ġruwaito": 2352,
      "Ġaga": 2353,
      "lika": 2354,
      "Ġkudu": 2355,
      "Ġkabi": 2356,
      "harar": 2357,
      "Ġwuri": 2358,
      "ĠRay": 2359,
      "apps": 2360,
      "tare": 2361,
      "FI": 2362,
      "Ġzabi": 2363,
      "ĠAlhamis": 2364,
      "bban": 2365,
      "Ġhotuna": 2366,
      "yayya": 2367,
      "Ġinji": 2368,
      "ĠMista": 2369,
      "zai": 2370,
      "Ġtashin": 2371,
      "Ġtuntu": 2372,
      "ĠLitinin": 2373,
      "Ġtunanin": 2374,
      "ĠChi": 2375,
      "details": 2376,
      "bah": 2377,
      "Ġbukata": 2378,
      "Ġgizon": 2379,
      "sanin": 2380,
      "Ġshigo": 2381,
      "Ġmuhimmanci": 2382,
      "ĠIS": 2383,
      "ĠAminu": 2384,
      "Ġkala": 2385,
      "Ġ23": 2386,
      "Ġharkar": 2387,
      "Ġyiw": 2388,
      "Ġmusulmi": 2389,
      "inin": 2390,
      "Ġaiwatar": 2391,
      "ĠUbangi": 2392,
      "Ġmamaki": 2393,
      "Ġdoka": 2394,
      "Ġyanayi": 2395,
      "ĠAsabar": 2396,
      "ĠAliyu": 2397,
      "ĠThe": 2398,
      "Ġof": 2399,
      "Ġbayanin": 2400,
      "ĠRundunar": 2401,
      "ĠX": 2402,
      "ĠBirtaniya": 2403,
      "Ġkarfi": 2404,
      "ĠAhmad": 2405,
      "Ġdashi": 2406,
      "Ġsauka": 2407,
      "ĠHotuna": 2408,
      "diyar": 2409,
      "Ġdukan": 2410,
      "ĠGidan": 2411,
      "Ġkaluba": 2412,
      "yanai": 2413,
      "Ġgwan": 2414,
      "kiyaya": 2415,
      "one": 2416,
      "Ġtsara": 2417,
      "ĠShafin": 2418,
      "Ġaddu": 2419,
      "Ġkallon": 2420,
      "Ġrawa": 2421,
      "ĠJar": 2422,
      "ER": 2423,
      "Ġalbar": 2424,
      "Ġyaya": 2425,
      "yam": 2426,
      "antu": 2427,
      "iro": 2428,
      "ĠKannywood": 2429,
      "tani": 2430,
      "ĠBayanai": 2431,
      "ðŁ": 2432,
      "ĠbuÆĻa": 2433,
      "Ġsalla": 2434,
      "land": 2435,
      "Ġikon": 2436,
      "Ġshawarar": 2437,
      "ĠKen": 2438,
      "Ġdab": 2439,
      "Ġfannin": 2440,
      "kata": 2441,
      "aris": 2442,
      "ĠLam": 2443,
      "ĠKasu": 2444,
      "Ġwuya": 2445,
      "ester": 2446,
      "Ġsakon": 2447,
      "200": 2448,
      "ĠSojojin": 2449,
      "mes": 2450,
      "ĠNas": 2451,
      "ĠPokies": 2452,
      "Ġhotunan": 2453,
      "Ġsamf": 2454,
      "Ġsanin": 2455,
      "Ġwasannin": 2456,
      "ĠZango": 2457,
      "ĠDalilin": 2458,
      "Ä©": 2459,
      "Ġwatsa": 2460,
      "ĠManzon": 2461,
      "Ġsauki": 2462,
      "ald": 2463,
      "abin": 2464,
      "Ġbiliyan": 2465,
      "Ġbakwai": 2466,
      "Ġyunkurin": 2467,
      "GA": 2468,
      "lam": 2469,
      "xa": 2470,
      "warsa": 2471,
      "12": 2472,
      "ĠTe": 2473,
      "Ġwaha": 2474,
      "Ġciniki": 2475,
      "ikar": 2476,
      "ĠVi": 2477,
      "Ġtafiyar": 2478,
      "adda": 2479,
      "Ġmakarantar": 2480,
      "Ġwatanni": 2481,
      "Ġmayakan": 2482,
      "Ġkarbi": 2483,
      "mani": 2484,
      "Ġum": 2485,
      "Ġauren": 2486,
      "Ġziyara": 2487,
      "ARA": 2488,
      "ĠUnited": 2489,
      "Ġmawa": 2490,
      "finan": 2491,
      "Ġtabbata": 2492,
      "Ġliki": 2493,
      "ĠJuma": 2494,
      "Da": 2495,
      "Ġarewacin": 2496,
      "Ġ&": 2497,
      "nu": 2498,
      "Ġwww": 2499,
      "okoto": 2500,
      "ĠDar": 2501,
      "santa": 2502,
      "urare": 2503,
      "ĠHome": 2504,
      "Ġkayayyakin": 2505,
      "Ġmaganar": 2506,
      "liyar": 2507,
      "Ġwatsi": 2508,
      "Ġro": 2509,
      "tarwa": 2510,
      "ĠLegas": 2511,
      "Ġkwallo": 2512,
      "ĠJama": 2513,
      "emalt": 2514,
      "Ġshugabancin": 2515,
      "ud": 2516,
      "ĠImam": 2517,
      "at": 2518,
      "Ġhoton": 2519,
      "ĠFara": 2520,
      "Ġcikinsu": 2521,
      "Ġalh": 2522,
      "Ġalba": 2523,
      "Ġsauransu": 2524,
      "Ġsaki": 2525,
      "ĠGas": 2526,
      "cor": 2527,
      "ĠShirin": 2528,
      "Ġkake": 2529,
      "ĠTu": 2530,
      "ĠAlka": 2531,
      "ĠManyan": 2532,
      "Ġse": 2533,
      "chester": 2534,
      "rar": 2535,
      "Ġshar": 2536,
      "Ġwutar": 2537,
      "Ġcibiyar": 2538,
      "ĠSannan": 2539,
      "Ġfetur": 2540,
      "Ġmutun": 2541,
      "mas": 2542,
      "ttun": 2543,
      "Ġyammacin": 2544,
      "ĠâĢĶ": 2545,
      "Ġkin": 2546,
      "Ġiz": 2547,
      "ĠKamfanin": 2548,
      "ĠManchester": 2549,
      "Ġayyuka": 2550,
      "lasdin": 2551,
      "hara": 2552,
      "ĠSokoto": 2553,
      "ue": 2554,
      "Ġkarbar": 2555,
      "Ġmijin": 2556,
      "Ġsadarwa": 2557,
      "ĠBude": 2558,
      "ĠShari": 2559,
      "ĠLabar": 2560,
      "Ġjanye": 2561,
      "ĠWaki": 2562,
      "ĠWAN": 2563,
      "Ġgane": 2564,
      "Ġand": 2565,
      "Ġzaune": 2566,
      "Ġdadin": 2567,
      "Ġrasha": 2568,
      "ĠUs": 2569,
      "Ġsiyasar": 2570,
      "Ġmagoya": 2571,
      "ĠPo": 2572,
      "ĠDonald": 2573,
      "Ġmutumin": 2574,
      "Ġtsari": 2575,
      "kwas": 2576,
      "ĠRanar": 2577,
      "Ġzuba": 2578,
      "ĠSemalt": 2579,
      "suf": 2580,
      "ĠIsa": 2581,
      "Ġkasuwar": 2582,
      "CE": 2583,
      "Ġabokin": 2584,
      "ĠYou": 2585,
      "ĠZaman": 2586,
      "ttawa": 2587,
      "Ġbidiyo": 2588,
      "ĠGwamnati": 2589,
      "Ġsame": 2590,
      "Ġrayukan": 2591,
      "Ġtawagar": 2592,
      "ris": 2593,
      "ĠAs": 2594,
      "Ġmisali": 2595,
      "Ġgaske": 2596,
      "hammed": 2597,
      "ĠBe": 2598,
      "SS": 2599,
      "Ġgabashin": 2600,
      "Ġjefa": 2601,
      "ĠJeho": 2602,
      "Ġfaruwa": 2603,
      "Ġtuh": 2604,
      "ukin": 2605,
      "ĠNo": 2606,
      "gwa": 2607,
      "ĠZuwa": 2608,
      "Ġkowace": 2609,
      "Ġceto": 2610,
      "lon": 2611,
      "ĠTamba": 2612,
      "tance": 2613,
      "ĠYobe": 2614,
      "Ġmusa": 2615,
      "ita": 2616,
      "ĠKama": 2617,
      "ĠDaya": 2618,
      "Ġmagance": 2619,
      "bab": 2620,
      "Ġsanarwa": 2621,
      "Ġasu": 2622,
      "Ġkware": 2623,
      "ĠKur": 2624,
      "Ġlantar": 2625,
      "bawa": 2626,
      "ĠMohammed": 2627,
      "ĠSoma": 2628,
      "gare": 2629,
      "Ġfarkon": 2630,
      "Ġkoyar": 2631,
      "Ġkiwon": 2632,
      "Ġshawar": 2633,
      "ĠGA": 2634,
      "Ġzamu": 2635,
      "Ġrashawa": 2636,
      "jiyar": 2637,
      "Ġdadi": 2638,
      "Ġadadin": 2639,
      "Ġdala": 2640,
      "Ġno": 2641,
      "Ġyankunan": 2642,
      "Ġmatsalolin": 2643,
      "kuna": 2644,
      "ĠYesu": 2645,
      "kkya": 2646,
      "ĠYayin": 2647,
      "ĠUsman": 2648,
      "lwa": 2649,
      "LAH": 2650,
      "Ġmakaman": 2651,
      "ĠJamhuriyar": 2652,
      "Ġuwa": 2653,
      "ĠAkan": 2654,
      "Ġsunayen": 2655,
      "ĠzaÉĵ": 2656,
      "ĠSiriya": 2657,
      "Ġzane": 2658,
      "ĠKenya": 2659,
      ">>": 2660,
      "Ġkawar": 2661,
      "Ġdaina": 2662,
      "Ġ)": 2663,
      "Ġjarida": 2664,
      "iyu": 2665,
      "Ġziyarci": 2666,
      "tegor": 2667,
      "ky": 2668,
      "UM": 2669,
      "Ġgwamn": 2670,
      "yyan": 2671,
      "Ġgaya": 2672,
      "Ġshafe": 2673,
      "ĠMDD": 2674,
      "soshin": 2675,
      "Ġkuka": 2676,
      "Ġkarfe": 2677,
      "bobi": 2678,
      "Ġlaifi": 2679,
      "Ġminis": 2680,
      "Ġzauna": 2681,
      "Ġfor": 2682,
      "ĠBara": 2683,
      "rafa": 2684,
      "bara": 2685,
      "ĠLahadi": 2686,
      "Ġmotar": 2687,
      "Ġge": 2688,
      "Ġdata": 2689,
      "Ġtarihi": 2690,
      "Ġtaf": 2691,
      "03": 2692,
      "akari": 2693,
      "ariga": 2694,
      "Ġjihohin": 2695,
      "Ġkim": 2696,
      "ĠTaraba": 2697,
      "Ġhoto": 2698,
      "Ġsanarwar": 2699,
      "Ġ$": 2700,
      "Ġung": 2701,
      "Ġmasalla": 2702,
      "ĠGhana": 2703,
      "haren": 2704,
      "ty": 2705,
      "Ġbane": 2706,
      "log": 2707,
      "hun": 2708,
      "Ġmak": 2709,
      "Ġkaratun": 2710,
      "Ġmahimman": 2711,
      "ukun": 2712,
      "Ġmada": 2713,
      "sho": 2714,
      "Ġamincewa": 2715,
      "ishin": 2716,
      "Ġfarar": 2717,
      "ĠNan": 2718,
      "ĠSanda": 2719,
      "ombe": 2720,
      "ala": 2721,
      "fesa": 2722,
      "ĠÉĹaya": 2723,
      "ĠMutum": 2724,
      "02": 2725,
      "Ġmaida": 2726,
      "Ġumur": 2727,
      "Ġmakaranta": 2728,
      "Ġai": 2729,
      "Ġsara": 2730,
      "Ġkiyaye": 2731,
      "Ġajiye": 2732,
      "Ġnake": 2733,
      "KI": 2734,
      "Ġwas": 2735,
      "Rufai": 2736,
      "uruwan": 2737,
      "ĠYamma": 2738,
      "Ġnaira": 2739,
      "Ġbarin": 2740,
      "ĠMakar": 2741,
      "Ġakalla": 2742,
      "ĠShekara": 2743,
      "ĠINEC": 2744,
      "Ġcaca": 2745,
      "gus": 2746,
      "Ġrin": 2747,
      "mel": 2748,
      "Ġkora": 2749,
      "ĠSada": 2750,
      "ĠJigawa": 2751,
      "ĠÉĵ": 2752,
      "ĠSabuwar": 2753,
      "irai": 2754,
      "uci": 2755,
      "Na": 2756,
      "Ġkur": 2757,
      "Ġ199": 2758,
      "Ġsaurar": 2759,
      "Ġtakwas": 2760,
      "Ġhallaka": 2761,
      "Ġmusulunci": 2762,
      "Ġ26": 2763,
      "Ġmura": 2764,
      "Ġ27": 2765,
      "ze": 2766,
      "yun": 2767,
      "Ġlantarki": 2768,
      "ĠCin": 2769,
      "Ġtakai": 2770,
      "ĠYusuf": 2771,
      "Hausa": 2772,
      "for": 2773,
      "âĢĿ.": 2774,
      "ayoyin": 2775,
      "Ġjawabi": 2776,
      "Ġhalarci": 2777,
      "Ġgarkuwa": 2778,
      "Ġhukumomi": 2779,
      "Ġjawo": 2780,
      "Ġhukunci": 2781,
      "corp": 2782,
      "ĠMataimakin": 2783,
      "unar": 2784,
      "IS": 2785,
      "YE": 2786,
      "ĠTarayya": 2787,
      "Ġyarin": 2788,
      "ĠCon": 2789,
      "ĠâĢ¦": 2790,
      "deo": 2791,
      "Ġkafar": 2792,
      "Ġtarihin": 2793,
      "ĠOk": 2794,
      "Ġco": 2795,
      "sea": 2796,
      "??": 2797,
      "Ġtsi": 2798,
      "ĠCom": 2799,
      "ĠCity": 2800,
      "Ġlabaranhausa": 2801,
      "Ġat": 2802,
      "Ġshekarun": 2803,
      "Ġkaru": 2804,
      "50": 2805,
      "Ġmaki": 2806,
      "IT": 2807,
      "Ġlura": 2808,
      "ĠTarayyar": 2809,
      "Ġsul": 2810,
      "Ġ40": 2811,
      "Ġthe": 2812,
      "ĠTimes": 2813,
      "Ġkwarar": 2814,
      "Ġdade": 2815,
      "AMA": 2816,
      "ĠTare": 2817,
      "ikwa": 2818,
      "ĠSule": 2819,
      "Ġsassa": 2820,
      "gara": 2821,
      "Ġwuraren": 2822,
      "Ġdalibai": 2823,
      "ĠAbba": 2824,
      "awar": 2825,
      "ĠNura": 2826,
      "ah": 2827,
      "ĠAN": 2828,
      "Ġnazarin": 2829,
      "Ġadalci": 2830,
      "Ġsabbin": 2831,
      "tegory": 2832,
      "ĠSake": 2833,
      "Ġbarazanar": 2834,
      "Ġye": 2835,
      "19": 2836,
      "wnlo": 2837,
      "ĠHotunan": 2838,
      "30": 2839,
      "Ġgw": 2840,
      "Ġgudu": 2841,
      "Ġrikici": 2842,
      "ĠInuwa": 2843,
      "ĠRiki": 2844,
      "20": 2845,
      "Ġjuya": 2846,
      "Ġiko": 2847,
      "ĠAfri": 2848,
      "ĠAu": 2849,
      "Ġkasafin": 2850,
      "ĠHakan": 2851,
      "Ġtaimakon": 2852,
      "Ġjagoranci": 2853,
      "Ġingan": 2854,
      "ÙĦ": 2855,
      "Ġcanza": 2856,
      "ĠZi": 2857,
      "Ġlaif": 2858,
      "ĠHadi": 2859,
      "Ġalkawarin": 2860,
      "bajo": 2861,
      "Ġrar": 2862,
      "ĠNuhu": 2863,
      "Ġtunani": 2864,
      "Ġkalmomi": 2865,
      "Ġlar": 2866,
      "Ġwaka": 2867,
      "Ġwakar": 2868,
      "Ġtattoo": 2869,
      "Ġaf": 2870,
      "iram": 2871,
      "Ġago": 2872,
      "gaban": 2873,
      "ĠKana": 2874,
      "zangar": 2875,
      "Ġshafukanmu": 2876,
      "huwar": 2877,
      "ĠMah": 2878,
      "Ġlalata": 2879,
      "ĠLabaran": 2880,
      "Ġdokoki": 2881,
      "Ġkarar": 2882,
      "sinbajo": 2883,
      "Ġtuna": 2884,
      "kika": 2885,
      "dur": 2886,
      "Ġtila": 2887,
      "Ġlamba": 2888,
      "Ġhaihuwa": 2889,
      "ddasa": 2890,
      "Ġharshen": 2891,
      "ĠSi": 2892,
      "Ġdamu": 2893,
      "yade": 2894,
      "Ġsako": 2895,
      "Ġ+": 2896,
      "ĠMaha": 2897,
      "uman": 2898,
      "Ġjawabin": 2899,
      "ushi": 2900,
      "onal": 2901,
      "Ġkyakkya": 2902,
      "Ġbamban": 2903,
      "diyyar": 2904,
      "usi": 2905,
      "Ġmallakar": 2906,
      "Ġsoma": 2907,
      "Ġyayinda": 2908,
      "Ġtak": 2909,
      "futa": 2910,
      "use": 2911,
      "llan": 2912,
      "Ġkujerar": 2913,
      "per": 2914,
      "Ġgudana": 2915,
      "ĠShugabannin": 2916,
      "ĠJehobah": 2917,
      "Ġ=": 2918,
      "nen": 2919,
      "as": 2920,
      "ĠBidiyo": 2921,
      "abon": 2922,
      "kewa": 2923,
      "ĠHij": 2924,
      "eb": 2925,
      "Ġdukkanin": 2926,
      "zanga": 2927,
      "ĠGombe": 2928,
      "karar": 2929,
      "tional": 2930,
      "ĠGarba": 2931,
      "Ġfarfa": 2932,
      "Ġfarashin": 2933,
      "ID": 2934,
      "08": 2935,
      "ĠAdamu": 2936,
      "Ġgayya": 2937,
      "Ġdamuwa": 2938,
      "Ġjanyo": 2939,
      "Ġmatasan": 2940,
      "ĠSU": 2941,
      "Ġbunkasa": 2942,
      "Ġhalitta": 2943,
      "Ġjik": 2944,
      "Ġtakardar": 2945,
      "24": 2946,
      "Ġbari": 2947,
      "Ġhaske": 2948,
      "bus": 2949,
      "Ġgaggawa": 2950,
      "yancin": 2951,
      "Ġkirk": 2952,
      "Ġtuni": 2953,
      "ua": 2954,
      "Ġaba": 2955,
      "ĠOsinbajo": 2956,
      "ĠAisha": 2957,
      "Ġalama": 2958,
      "ĠAke": 2959,
      "Ġfasaha": 2960,
      "YAN": 2961,
      "Ġmalaman": 2962,
      "wnload": 2963,
      "Ġkwar": 2964,
      "ĠFila": 2965,
      "Ġkasancewa": 2966,
      "bijin": 2967,
      "Ġhul": 2968,
      "Ġlittafin": 2969,
      "Ġfuskanta": 2970,
      "anistan": 2971,
      "Ġkwashe": 2972,
      "Ġgam": 2973,
      "Ġfafa": 2974,
      "Ġharamta": 2975,
      "ĠSama": 2976,
      "KE": 2977,
      "ĠTsarin": 2978,
      "der": 2979,
      "Ġ28": 2980,
      "ĠTsaro": 2981,
      "Ġkakakin": 2982,
      "Ġsabi": 2983,
      "ĠAB": 2984,
      "Ġhula": 2985,
      "Ġnasu": 2986,
      "ttara": 2987,
      "ĠMaryam": 2988,
      "ĠPremium": 2989,
      "lia": 2990,
      "ĠAhmed": 2991,
      "Ġdage": 2992,
      "Ġgwiwa": 2993,
      "Ġ2014": 2994,
      "ĠChel": 2995,
      "Ġshai": 2996,
      "llai": 2997,
      "ite": 2998,
      "ĠÆĻara": 2999,
      "Ġil": 3000,
      "Ġtarayyar": 3001,
      "ĠRabi": 3002,
      "Ġjaka": 3003,
      "Ġjuyin": 3004,
      "kaci": 3005,
      "ĠbuÆĻatar": 3006,
      "Ġsunyi": 3007,
      "Ġjini": 3008,
      "ĠCategory": 3009,
      "06": 3010,
      "Ġbil": 3011,
      "18": 3012,
      "ĠYayi": 3013,
      "ĠChelsea": 3014,
      "ĠLib": 3015,
      "Ġtasiri": 3016,
      "ĠSojoji": 3017,
      "aria": 3018,
      "ĠJir": 3019,
      "ĠwaÉĹannan": 3020,
      "Ġlalle": 3021,
      "loli": 3022,
      "Ġbangare": 3023,
      "ĠbÃ£": 3024,
      "hn": 3025,
      "ĠKakakin": 3026,
      "munan": 3027,
      "Ġsaukar": 3028,
      "Ġila": 3029,
      "fai": 3030,
      "gos": 3031,
      "Ġkaiwa": 3032,
      "ĠJu": 3033,
      "Ġ?": 3034,
      "Ġsoja": 3035,
      "ĠGudanar": 3036,
      "ĠKotun": 3037,
      "ĠKAI": 3038,
      "Ġkudancin": 3039,
      ",\"": 3040,
      "Ġganawa": 3041,
      "Ġyaran": 3042,
      "05": 3043,
      "jja": 3044,
      "Ġdakin": 3045,
      "Ġ29": 3046,
      "ĠFarfesa": 3047,
      "Ġwallafa": 3048,
      "Ġtaso": 3049,
      "Ġhawa": 3050,
      "Ġzuciya": 3051,
      "ĠMatan": 3052,
      "Ġsassan": 3053,
      "ĠSarki": 3054,
      "ama": 3055,
      "Ġsoji": 3056,
      "ĠLA": 3057,
      "Ġfas": 3058,
      "ĠFati": 3059,
      "ĠTSA": 3060,
      "âĢĶ": 3061,
      "ĠFil": 3062,
      "hare": 3063,
      "Ġloku": 3064,
      "kza": 3065,
      "ĠHarin": 3066,
      "Ġjima": 3067,
      "Ġgun": 3068,
      "ĠAikin": 3069,
      "ork": 3070,
      "ĠKya": 3071,
      "wanda": 3072,
      "Ġtur": 3073,
      "Ġmatsayi": 3074,
      "Ġkaron": 3075,
      "Ġtantance": 3076,
      "lula": 3077,
      "wal": 3078,
      "sanda": 3079,
      "ust": 3080,
      "Ġkalmar": 3081,
      "Ġnata": 3082,
      "jibi": 3083,
      "Ġuwan": 3084,
      "ĠHukum": 3085,
      "Ġwaya": 3086,
      "Ġmartani": 3087,
      "bur": 3088,
      "ayoyi": 3089,
      "len": 3090,
      "Ġdoke": 3091,
      "ee": 3092,
      "pu": 3093,
      "Ġgyar": 3094,
      "ĠJiho": 3095,
      "ĠFilato": 3096,
      "Ġtashar": 3097,
      "Ġjahar": 3098,
      "ĠBuka": 3099,
      "Ġrahoto": 3100,
      "ĠGaskiya": 3101,
      "kistan": 3102,
      "Ġhadi": 3103,
      "Ġshiri": 3104,
      "ĠRonal": 3105,
      "ĠJagor": 3106,
      "ĠReview": 3107,
      "\\Ā": 3108,
      "Ġaiko": 3109,
      "ĠChadi": 3110,
      "Ġbaka": 3111,
      "Ġwakil": 3112,
      "qa": 3113,
      "ĠBiyu": 3114,
      "Ġbayyan": 3115,
      "Ġnauyin": 3116,
      "ĠMafi": 3117,
      "az": 3118,
      "daya": 3119,
      "IYA": 3120,
      "Ġmanta": 3121,
      "ĠSallah": 3122,
      "Ġiyayen": 3123,
      "ĠGwan": 3124,
      "Ġmaye": 3125,
      "ĠMinis": 3126,
      "Ġmarasa": 3127,
      "Ġasibiti": 3128,
      "ĠMuhimman": 3129,
      "ĠAiki": 3130,
      "ĠNasara": 3131,
      "RE": 3132,
      "ĠMasa": 3133,
      "Ġdaki": 3134,
      "Ġmahimmanci": 3135,
      "ĠBy": 3136,
      "Ġhanyoyi": 3137,
      "Ġfahimci": 3138,
      "ĠGudun": 3139,
      "Ġfili": 3140,
      "bum": 3141,
      "Co": 3142,
      "ĠRashin": 3143,
      "ĠDap": 3144,
      "duwa": 3145,
      "Ġkudade": 3146,
      "gari": 3147,
      "Ġcike": 3148,
      "oman": 3149,
      "Ġwarware": 3150,
      "arigayi": 3151,
      "Ġkaf": 3152,
      "tai": 3153,
      "Ġgurbin": 3154,
      "kzaky": 3155,
      "IY": 3156,
      "RA": 3157,
      "dd": 3158,
      "TO": 3159,
      "Ġiri": 3160,
      "Ġkari": 3161,
      "ĠYaki": 3162,
      "ĠYari": 3163,
      "org": 3164,
      "Ġtsige": 3165,
      "Dan": 3166,
      "ĠAnd": 3167,
      "Ġmaima": 3168,
      "ĠOsun": 3169,
      "ulani": 3170,
      "ĠRA": 3171,
      "Ġdangantaka": 3172,
      "ĠTalla": 3173,
      "bam": 3174,
      "Ġhanku": 3175,
      "ĠNeman": 3176,
      "2017": 3177,
      "gbo": 3178,
      "lama": 3179,
      "ĠFA": 3180,
      "Ġsarrafa": 3181,
      "ĠDapchi": 3182,
      "Ġkwanakin": 3183,
      "ddada": 3184,
      "ero": 3185,
      "04": 3186,
      "ĠAma": 3187,
      "ĠSamu": 3188,
      "ĠTAL": 3189,
      "ĠYawan": 3190,
      "Ġgurf": 3191,
      "Ġasusun": 3192,
      "Ġ>": 3193,
      "ĠLibya": 3194,
      "Ġuwar": 3195,
      "ĠJin": 3196,
      "Ġdim": 3197,
      "Ġimani": 3198,
      "ĠAde": 3199,
      "ĠRama": 3200,
      "Ġagaji": 3201,
      "ĠSta": 3202,
      "NAN": 3203,
      "Ġalbarka": 3204,
      "Home": 3205,
      "Ġraya": 3206,
      "Ġlardin": 3207,
      "CO": 3208,
      "07": 3209,
      "antun": 3210,
      "maki": 3211,
      "Ġtallafin": 3212,
      "Ġkyautata": 3213,
      "ĠKasuwan": 3214,
      "ÆĻin": 3215,
      "Ġgargadi": 3216,
      "lm": 3217,
      "ĠDam": 3218,
      "Ġkomawa": 3219,
      "Ġnuni": 3220,
      "Ġnisha": 3221,
      "Ġmaganin": 3222,
      "ĠPe": 3223,
      "IJIN": 3224,
      "ĠIraqi": 3225,
      "HO": 3226,
      "irga": 3227,
      "Ġ--": 3228,
      "Ġ]": 3229,
      "ĠReviewed": 3230,
      "ĠKafa": 3231,
      "Ġkauyen": 3232,
      "Ġgona": 3233,
      "Ġkarfafa": 3234,
      "ĠFilm": 3235,
      "Ġzara": 3236,
      "Ġtambaya": 3237,
      "/]": 3238,
      "ftware": 3239,
      "Ġnema": 3240,
      "ĠRonaldo": 3241,
      "FA": 3242,
      "ĠÆĬ": 3243,
      "Ġfitowa": 3244,
      "shirin": 3245,
      "ĠPakistan": 3246,
      "HA": 3247,
      "Ġburin": 3248,
      "14": 3249,
      "Ġkusk": 3250,
      "Ġkwace": 3251,
      "ugabar": 3252,
      "Ġwatau": 3253,
      "ĠJirgin": 3254,
      "Ġshakka": 3255,
      "KAR": 3256,
      "Ġyanda": 3257,
      "ĠRahama": 3258,
      "Ġbarazana": 3259,
      "ress": 3260,
      "ment": 3261,
      "Ġruk": 3262,
      "ĠMatasa": 3263,
      "ĠAyy": 3264,
      "cel": 3265,
      "ANA": 3266,
      "Ġgobe": 3267,
      "asa": 3268,
      "sino": 3269,
      "ĠSatum": 3270,
      "kur": 3271,
      "Ġgode": 3272,
      "Ġhadu": 3273,
      "Ġwakilin": 3274,
      "Ġdau": 3275,
      "Ġmukamin": 3276,
      "Ġjagorancin": 3277,
      "Ġilimin": 3278,
      "ĠÉĹan": 3279,
      "comhausa": 3280,
      "naijcomhausa": 3281,
      "Ġwake": 3282,
      "ĠFI": 3283,
      "ĠALLAH": 3284,
      "60": 3285,
      "Ġmajali": 3286,
      "hira": 3287,
      "ort": 3288,
      "Ġmaimakon": 3289,
      "ĠMajalisa": 3290,
      "Mu": 3291,
      "Ġrawar": 3292,
      "arubu": 3293,
      "ĠAfgh": 3294,
      "Ġsayen": 3295,
      "ĠNE": 3296,
      "abba": 3297,
      "ĠTushen": 3298,
      "Ġkoya": 3299,
      "ĠTsakanin": 3300,
      "ĠSadau": 3301,
      "USA": 3302,
      "ĠKayan": 3303,
      "ttu": 3304,
      "Ġcu": 3305,
      "ĠÂ»": 3306,
      "ĠMuryar": 3307,
      "Ġlayi": 3308,
      "Ġsamo": 3309,
      "Ġsune": 3310,
      "Ġwallafawa": 3311,
      "Ġlambar": 3312,
      "ukola": 3313,
      "Ġyajin": 3314,
      "Ġtsakiya": 3315,
      "Ġmakiyaya": 3316,
      "ĠBai": 3317,
      "Ġfur": 3318,
      "Ġbidiyon": 3319,
      "Ġtsoron": 3320,
      "Ġkwakwa": 3321,
      "ĠâĢĿ": 3322,
      "vo": 3323,
      "Ġasalin": 3324,
      "Ġsansanin": 3325,
      "ĠSali": 3326,
      "senal": 3327,
      "ĠNeja": 3328,
      "ĠDama": 3329,
      "ĠDaura": 3330,
      "Ġyanki": 3331,
      "ĠMali": 3332,
      "stag": 3333,
      "Ġfuskanci": 3334,
      "YI": 3335,
      "ven": 3336,
      "ĠHarkokin": 3337,
      "bok": 3338,
      "Ġshafa": 3339,
      "Ġkallo": 3340,
      "Ġmummunan": 3341,
      "ĠAfghanistan": 3342,
      "15": 3343,
      "tem": 3344,
      "llam": 3345,
      "Ġbukatun": 3346,
      "Ġjihohi": 3347,
      "Ġmaku": 3348,
      "ikum": 3349,
      "Ġtawaye": 3350,
      "Ġlau": 3351,
      "ws": 3352,
      "iliya": 3353,
      "ĠRayuwa": 3354,
      "yyi": 3355,
      "ĠArsenal": 3356,
      "cs": 3357,
      "ĠSong": 3358,
      "taccen": 3359,
      "Ġtsayawa": 3360,
      "Äģ": 3361,
      "ĠJan": 3362,
      "Ġyawancin": 3363,
      "adu": 3364,
      "terna": 3365,
      "Ġhau": 3366,
      "Ġtaya": 3367,
      "Ġhaddasa": 3368,
      "ĠGood": 3369,
      "Ġumarnin": 3370,
      "ĠFim": 3371,
      "ĠLon": 3372,
      "Ġmanu": 3373,
      "ĠTS": 3374,
      "amin": 3375,
      "ht": 3376,
      "ĠJohn": 3377,
      "09": 3378,
      "ishinan": 3379,
      "ĠFalasdin": 3380,
      "An": 3381,
      "Ġgaza": 3382,
      "ĠFran": 3383,
      "ĠLagos": 3384,
      "UNA": 3385,
      "Ġkoyi": 3386,
      "Yar": 3387,
      "ĠGabas": 3388,
      "ãģ": 3389,
      "ĠBra": 3390,
      "Ġjaddada": 3391,
      "Ġkamfanonin": 3392,
      "ĠZama": 3393,
      "Ġkwanan": 3394,
      "Ġbis": 3395,
      "Ġwakilan": 3396,
      "Ġbasa": 3397,
      "ĠMaso": 3398,
      "xi": 3399,
      "Ġbawa": 3400,
      "....": 3401,
      "OA": 3402,
      "Ġmotoci": 3403,
      "Ġtawayen": 3404,
      "Ġnoma": 3405,
      "ĠTala": 3406,
      "NA": 3407,
      "Ġtuntube": 3408,
      "::": 3409,
      "ĠTattaunawa": 3410,
      "ds": 3411,
      "Ġcom": 3412,
      "Ġsallah": 3413,
      "ĠGir": 3414,
      "ÉĹe": 3415,
      "ĠDubi": 3416,
      "ĠMul": 3417,
      "Ġtakardun": 3418,
      "Ġmam": 3419,
      "ES": 3420,
      "ĠPremier": 3421,
      "bon": 3422,
      "kta": 3423,
      "gwar": 3424,
      "ĠZimba": 3425,
      "ĠHanyar": 3426,
      "ĠMaza": 3427,
      "ĠMara": 3428,
      "ĠJana": 3429,
      "UWA": 3430,
      "warai": 3431,
      "Ġwakilai": 3432,
      "ĠLondon": 3433,
      "ĠKung": 3434,
      "Ġmurnar": 3435,
      ",âĢĿ": 3436,
      "Cookies": 3437,
      "WAR": 3438,
      "Ġbayananmu": 3439,
      "Ġyour": 3440,
      "ĠTan": 3441,
      "ĠGam": 3442,
      "Ġsamfurin": 3443,
      "Ġdacewa": 3444,
      "ĠBukola": 3445,
      "zalika": 3446,
      "Ġtsu": 3447,
      "Ġrauni": 3448,
      "ĠMutu": 3449,
      "Ġsalula": 3450,
      "ĠZA": 3451,
      "ĠInda": 3452,
      "Ġasali": 3453,
      "Ġtsin": 3454,
      "ĠZariya": 3455,
      "Ġsauke": 3456,
      "raba": 3457,
      "ĠTsakiya": 3458,
      "Ġganga": 3459,
      "ilar": 3460,
      "xt": 3461,
      "Ġdabi": 3462,
      "lob": 3463,
      "ĠKowa": 3464,
      "ĠDU": 3465,
      "gidan": 3466,
      "ffin": 3467,
      "ĠHam": 3468,
      "ĠSakataren": 3469,
      "zil": 3470,
      "ĠRikicin": 3471,
      "Ġciwon": 3472,
      "ĠAssa": 3473,
      "ĠMes": 3474,
      "ĠHak": 3475,
      "bia": 3476,
      "ĠSanar": 3477,
      "ukiliya": 3478,
      "Ġkwatan": 3479,
      "Ġkisa": 3480,
      "Ġmuhim": 3481,
      "Ġikir": 3482,
      "Ġshawo": 3483,
      "Ġkunar": 3484,
      "ĠMagana": 3485,
      "Ġadire": 3486,
      "ĠMal": 3487,
      "Ġtsakiyar": 3488,
      "Ġdora": 3489,
      "Ġmutuwa": 3490,
      "EO": 3491,
      "fke": 3492,
      "ĠCiki": 3493,
      "Ġtakun": 3494,
      "ĠWadannan": 3495,
      "cu": 3496,
      "Ġtsere": 3497,
      "Ġmalamai": 3498,
      "Ġkulla": 3499,
      "Ġbauta": 3500,
      "13": 3501,
      "Ġsakataren": 3502,
      "Ġabincin": 3503,
      "cy": 3504,
      "Ġmatashi": 3505,
      "ĠTSAYE": 3506,
      "abar": 3507,
      "Ġgirman": 3508,
      "ĠDel": 3509,
      "ĠSamun": 3510,
      "stagram": 3511,
      "fu": 3512,
      "Ġtunawa": 3513,
      "Ġham": 3514,
      "KO": 3515,
      "ĠAiko": 3516,
      "Ġfahimtar": 3517,
      "cal": 3518,
      "Ġkafofin": 3519,
      "Ġfuskar": 3520,
      "celona": 3521,
      "DU": 3522,
      "Ġwajibi": 3523,
      "Ġmiya": 3524,
      "hone": 3525,
      "ĠNuwa": 3526,
      "Ġace": 3527,
      "Ġnishadan": 3528,
      "ĠBakin": 3529,
      "Ġwancan": 3530,
      "Ġsaura": 3531,
      "Ġkayatar": 3532,
      "Ġbisani": 3533,
      "ĠKira": 3534,
      "Ġyiwuwar": 3535,
      "Ġrubutu": 3536,
      "ĠHausawa": 3537,
      "ABIJIN": 3538,
      "ĠTALABIJIN": 3539,
      "ena": 3540,
      "luck": 3541,
      "ananan": 3542,
      "Ġzafi": 3543,
      "lanci": 3544,
      "ĠKO": 3545,
      "Ġmurabus": 3546,
      "Ġboye": 3547,
      "Ġtasa": 3548,
      "iyyun": 3549,
      "Ġmatsaloli": 3550,
      "SHIN": 3551,
      "Ġtsamman": 3552,
      "Ġayi": 3553,
      "Ġwurare": 3554,
      "okra": 3555,
      "kwan": 3556,
      "áº": 3557,
      "Ġkyautar": 3558,
      "masu": 3559,
      "ĠHi": 3560,
      "ĠZabe": 3561,
      "ternational": 3562,
      "nah": 3563,
      "Wa": 3564,
      "cci": 3565,
      "Ġbarke": 3566,
      "tal": 3567,
      "fur": 3568,
      "ĠDuba": 3569,
      "ĠFarko": 3570,
      "ĠhaÉĹin": 3571,
      "Ġbaza": 3572,
      "haya": 3573,
      "ĠPar": 3574,
      "ĠDisa": 3575,
      "ĠBil": 3576,
      "Ġasibitin": 3577,
      "ĠØ": 3578,
      "ĠKawo": 3579,
      "laye": 3580,
      "Ġkarancin": 3581,
      "Ġmagani": 3582,
      "Ġiyalan": 3583,
      "ĠOkto": 3584,
      "Ġtattaunawar": 3585,
      "ĠBarcelona": 3586,
      "ĠGe": 3587,
      "ĠÉĹin": 3588,
      "ĠMuka": 3589,
      "dama": 3590,
      "Ġmatakai": 3591,
      "Ġgawar": 3592,
      "bta": 3593,
      "ily": 3594,
      "ĠKAN": 3595,
      "ĠMer": 3596,
      "cra": 3597,
      "net": 3598,
      "Ġtam": 3599,
      "KU": 3600,
      "ĠNaz": 3601,
      "Ġx": 3602,
      "Ġsaban": 3603,
      "llahu": 3604,
      "Ġzamanin": 3605,
      "ushe": 3606,
      "Ġfidda": 3607,
      "ĠChibok": 3608,
      "ĠWadanda": 3609,
      "ĠKafin": 3610,
      "did": 3611,
      "Ġgodiya": 3612,
      "Ġzaton": 3613,
      "Ġgidaje": 3614,
      "Ġhalaka": 3615,
      "Ġbirge": 3616,
      "Ġrahotanni": 3617,
      "Ġciyar": 3618,
      "wiwar": 3619,
      "ĠSatumba": 3620,
      "Ġkungiya": 3621,
      "orar": 3622,
      "ĠSakamakon": 3623,
      "ĠUbangiji": 3624,
      "Ġimel": 3625,
      "Ġdaren": 3626,
      "guwar": 3627,
      "emen": 3628,
      "iran": 3629,
      "Ġhira": 3630,
      "Ġminti": 3631,
      "ĠFulani": 3632,
      "Ġsoftware": 3633,
      "16": 3634,
      "ĠIndiya": 3635,
      "Ġsulhu": 3636,
      "ĠAM": 3637,
      "ĠKashi": 3638,
      "Ġdogara": 3639,
      "Ġalbashi": 3640,
      "Ġfarfado": 3641,
      "ĠIdri": 3642,
      "ld": 3643,
      "Ġraga": 3644,
      "abo": 3645,
      "ĠDownload": 3646,
      "ĠKUMA": 3647,
      "Ġdubban": 3648,
      "Ġtada": 3649,
      "Ġtalauci": 3650,
      "urorin": 3651,
      "ĠMayu": 3652,
      "Ġaini": 3653,
      "ĠMene": 3654,
      "ĠBAB": 3655,
      "ĠSHA": 3656,
      "ron": 3657,
      "ĠYara": 3658,
      "pha": 3659,
      "qu": 3660,
      "ĠTari": 3661,
      "ĠGarin": 3662,
      "ÙĦÙ": 3663,
      "Ġdaliban": 3664,
      "Ġmazauna": 3665,
      "Ġkimiyya": 3666,
      "katawa": 3667,
      "ĠWANNAN": 3668,
      "Ġmusanta": 3669,
      "bayan": 3670,
      "Ġkatin": 3671,
      "lancin": 3672,
      "Ġhalartar": 3673,
      "ĠLokacin": 3674,
      "Ġalheri": 3675,
      "Ġgagar": 3676,
      "kiti": 3677,
      "ĠAba": 3678,
      "miyar": 3679,
      "IC": 3680,
      "omar": 3681,
      "Ġakayi": 3682,
      "Ġtayar": 3683,
      "Ġnami": 3684,
      "Ġsaya": 3685,
      "ĠAz": 3686,
      "ĠSaukar": 3687,
      "Ġtsira": 3688,
      "ĠYaku": 3689,
      "Ġmotocin": 3690,
      "Ġware": 3691,
      "17": 3692,
      "In": 3693,
      "ĠGoodluck": 3694,
      "Ġkoda": 3695,
      "Ġtsakaninsu": 3696,
      "SHI": 3697,
      "Ġcanja": 3698,
      "jji": 3699,
      "gaita": 3700,
      "Ġnazari": 3701,
      "ĠJaridar": 3702,
      "ĠAdo": 3703,
      "Ġmakwa": 3704,
      "ĠMaris": 3705,
      "Ġshaidawa": 3706,
      "tÃ£": 3707,
      "wer": 3708,
      "Ġhama": 3709,
      "ys": 3710,
      "Ġsoyayya": 3711,
      "kuma": 3712,
      "ĠDole": 3713,
      "Ġsabis": 3714,
      "ano": 3715,
      "ory": 3716,
      "ĠJapan": 3717,
      "Ġkauy": 3718,
      "Ġkasuwancin": 3719,
      "Ġwadansu": 3720,
      "Ġmagung": 3721,
      "res": 3722,
      "gal": 3723,
      "Ġmanufar": 3724,
      "Ġrinja": 3725,
      "ded": 3726,
      "Ġikirarin": 3727,
      "up": 3728,
      "Ġwahala": 3729,
      "Ġmaz": 3730,
      "Ġsauri": 3731,
      "ĠHassan": 3732,
      "duwar": 3733,
      "Ġmahaifin": 3734,
      "Ġnufi": 3735,
      "tsin": 3736,
      "htm": 3737,
      "bul": 3738,
      "Ġyawun": 3739,
      "vers": 3740,
      "ï¿": 3741,
      "Ġyaro": 3742,
      "amu": 3743,
      "ĠWaje": 3744,
      "tutt": 3745,
      "ĠKwamitin": 3746,
      "Ġdaji": 3747,
      "Ġdaure": 3748,
      "Ġmisalin": 3749,
      "ZA": 3750,
      "Ġkabilar": 3751,
      "Ġwane": 3752,
      "risti": 3753,
      "Ġsallar": 3754,
      "Ġfasahar": 3755,
      "Ġmamaye": 3756,
      "ĠYuni": 3757,
      "pool": 3758,
      "finai": 3759,
      "inu": 3760,
      "Ġakai": 3761,
      "ĠUN": 3762,
      "ĠGwamn": 3763,
      "ï¿½": 3764,
      "Ta": 3765,
      "Ġkokari": 3766,
      "con": 3767,
      "ĠArewacin": 3768,
      "fta": 3769,
      "Ġzun": 3770,
      "Ġtaimako": 3771,
      "Ġdil": 3772,
      "ĠCutar": 3773,
      "ĠDog": 3774,
      "kel": 3775,
      "ĠOn": 3776,
      "ĠZata": 3777,
      "ĠÆĻasashen": 3778,
      "run": 3779,
      "Ġdalili": 3780,
      "Ġlissa": 3781,
      "fut": 3782,
      "amarin": 3783,
      "ĠKal": 3784,
      "Ġgurfanar": 3785,
      "Ġkuke": 3786,
      "ĠKim": 3787,
      "buwan": 3788,
      "liyoyin": 3789,
      "Ġsarkin": 3790,
      "Ġadam": 3791,
      "Ġgwiwar": 3792,
      "Ġalwa": 3793,
      "and": 3794,
      "ĠHana": 3795,
      "ĠKab": 3796,
      "22": 3797,
      "ĠAure": 3798,
      "Ġac": 3799,
      "Ġfashi": 3800,
      "Ġmanoma": 3801,
      "Ġkungiyoyi": 3802,
      "ĠEr": 3803,
      "Ġkakar": 3804,
      "enene": 3805,
      "ĠAgus": 3806,
      "ĠJihohi": 3807,
      "Ġlallai": 3808,
      "Ġkalaman": 3809,
      "sani": 3810,
      "ĠNI": 3811,
      "Ġgagga": 3812,
      "taya": 3813,
      "Ġhatsar": 3814,
      "Ġdattawa": 3815,
      "buwal": 3816,
      "Ġmurna": 3817,
      "ĠLAB": 3818,
      "Ġtayin": 3819,
      "Ġzur": 3820,
      "ĠÆĻungiyar": 3821,
      "ĠBinciken": 3822,
      "Ã¡": 3823,
      "ĠAhmadu": 3824,
      "diga": 3825,
      "Ġsheka": 3826,
      "Ġlamari": 3827,
      "Ġtilasta": 3828,
      "WAN": 3829,
      "Ġ:::": 3830,
      "ĠMawa": 3831,
      "Ġdabar": 3832,
      "''": 3833,
      "Ġzamanta": 3834,
      "ĠHAUSA": 3835,
      "Ġsoke": 3836,
      "ĠðŁ": 3837,
      "Ġharbe": 3838,
      "Ġsanadiyyar": 3839,
      "Ġfam": 3840,
      "Ġmalamin": 3841,
      "ĠSAB": 3842,
      "bwe": 3843,
      "asar": 3844,
      "Ġdaukaka": 3845,
      "ĠhaÉĹa": 3846,
      "Ġmarubu": 3847,
      "Ġjikkata": 3848,
      "ĠEkiti": 3849,
      "ariyar": 3850,
      "iman": 3851,
      "cciyar": 3852,
      "Ġilla": 3853,
      "lolin": 3854,
      "ray": 3855,
      "Ġtsohuwar": 3856,
      "ĠMasana": 3857,
      "ume": 3858,
      "Ġyafi": 3859,
      "Ġ31": 3860,
      "Ġraji": 3861,
      "roid": 3862,
      "Ġdaukan": 3863,
      "dima": 3864,
      "Ġyiwuwa": 3865,
      "Ġfadawa": 3866,
      "ĠBayyana": 3867,
      "Ġsif": 3868,
      "ĠAlh": 3869,
      "mm": 3870,
      "ĠJos": 3871,
      "Ġbangarorin": 3872,
      "Ġfararen": 3873,
      "Ġkwalla": 3874,
      "Ġkasancewar": 3875,
      "Ġdaidaita": 3876,
      "ĠTambuwal": 3877,
      "ĠIdris": 3878,
      "Ġfacebook": 3879,
      "ĠWajen": 3880,
      "lamu": 3881,
      "Ġgargajiya": 3882,
      "ĠmÃ£": 3883,
      "ĠMin": 3884,
      "ĠFadar": 3885,
      "ous": 3886,
      "Ġbas": 3887,
      "ĠFan": 3888,
      "Ġjiran": 3889,
      "Ġsojan": 3890,
      "Ġginin": 3891,
      "Ġyaba": 3892,
      "ĠFab": 3893,
      "ĠÂ´": 3894,
      "ĠYanar": 3895,
      "ĠZimbabwe": 3896,
      "Ġkulob": 3897,
      "Ġzagaye": 3898,
      "ĠDara": 3899,
      "Ġgwani": 3900,
      "yawa": 3901,
      "ĠWan": 3902,
      "Ġyiwu": 3903,
      "Ġtambayoyi": 3904,
      "ĠSace": 3905,
      "ĠTakara": 3906,
      "zz": 3907,
      "IM": 3908,
      "Ġkayi": 3909,
      "bola": 3910,
      "ĠMada": 3911,
      "tel": 3912,
      "ktan": 3913,
      "Ġiyakar": 3914,
      "Ġdinga": 3915,
      "Ġartic": 3916,
      "ffi": 3917,
      "ian": 3918,
      "ĠKada": 3919,
      "ĠWaz": 3920,
      "Ġkaka": 3921,
      "ĠYakubu": 3922,
      "ĠUbangijin": 3923,
      "Ġdakai": 3924,
      "Ġrayukansu": 3925,
      "yaku": 3926,
      "Ġamf": 3927,
      "KAN": 3928,
      "Ġbama": 3929,
      "os": 3930,
      "Ġgwajin": 3931,
      "Ġmanufofin": 3932,
      "Ġmijinta": 3933,
      "Ġashirin": 3934,
      "Ġkura": 3935,
      "Ġtattara": 3936,
      "Ġhadarin": 3937,
      "ĠSt": 3938,
      "Ġturai": 3939,
      "CI": 3940,
      "Ġbankin": 3941,
      "Ġbudur": 3942,
      "Ġjiha": 3943,
      "ĠÆĻwa": 3944,
      "Ġkamfanoni": 3945,
      "ĠBrazil": 3946,
      "ĠDaily": 3947,
      "hari": 3948,
      "Ġ''": 3949,
      "ĠÆĻo": 3950,
      "verpool": 3951,
      "ĠRed": 3952,
      ".:": 3953,
      "ĠDokar": 3954,
      "ĠZakzaky": 3955,
      "ĠDelta": 3956,
      "ĠAlbum": 3957,
      "bbin": 3958,
      "ĠWakar": 3959,
      "DI": 3960,
      "ĠMiliyan": 3961,
      "ĠMerkel": 3962,
      "Ġsatar": 3963,
      "Ġmakami": 3964,
      "au": 3965,
      "Å¾": 3966,
      "ĠAddin": 3967,
      "Ġasarar": 3968,
      "Ġfree": 3969,
      "Ġdarajar": 3970,
      "Ġfashe": 3971,
      "Ġduniyar": 3972,
      "**": 3973,
      "ĠZaria": 3974,
      "Ġcafke": 3975,
      "ĠSer": 3976,
      "ĠYemen": 3977,
      "ĠNuwamba": 3978,
      "Ġzarar": 3979,
      "ĠState": 3980,
      "Ġmuhalli": 3981,
      "taba": 3982,
      "Ġcikak": 3983,
      "urori": 3984,
      "ĠSomaliya": 3985,
      "23": 3986,
      "cewar": 3987,
      "Ġfafata": 3988,
      "Ġkamu": 3989,
      "Ġani": 3990,
      "Ġsakin": 3991,
      "sia": 3992,
      "yansu": 3993,
      "ĠIraki": 3994,
      "Ġganawar": 3995,
      "ĠLiverpool": 3996,
      "Ġyarjejeniya": 3997,
      "ĠGwa": 3998,
      "ĠDatti": 3999,
      "2016": 4000,
      "Ġiska": 4001,
      "Ġshaharar": 4002,
      "Ġhukuma": 4003,
      "Ġfit": 4004,
      "Ġtuhumar": 4005,
      "Ġtakunk": 4006,
      "Ġitace": 4007,
      "Ġhukunta": 4008,
      "Ġaikace": 4009,
      "ĠYankin": 4010,
      "Ġharaji": 4011,
      "Ġshare": 4012,
      "ĠSak": 4013,
      "ĠVOA": 4014,
      "Ġunguwar": 4015,
      "Ġgwamnonin": 4016,
      "irÆĻ": 4017,
      "Ġkariya": 4018,
      "25": 4019,
      "Ġby": 4020,
      "ĠDawo": 4021,
      "farar": 4022,
      "Ġbala": 4023,
      "Ġmallaka": 4024,
      "Ġgabas": 4025,
      "Ġarticle": 4026,
      "Ġtabar": 4027,
      "tsaye": 4028,
      "azi": 4029,
      "ĠLalle": 4030,
      "urara": 4031,
      "gs": 4032,
      "ĠKiris": 4033,
      "ĠÂķ": 4034,
      "ĠTuni": 4035,
      "ks": 4036,
      "Ġkwaikwa": 4037,
      "Ġ35": 4038,
      "Ġkowanne": 4039,
      "Ġkamuwa": 4040,
      "ĠItaliya": 4041,
      "ble": 4042,
      "Ġaike": 4043,
      "Ġfyade": 4044,
      "kafa": 4045,
      "Ġaki": 4046,
      "ĠSojin": 4047,
      "Ġjinin": 4048,
      "MI": 4049,
      "Ġadireshin": 4050,
      "Ġamfanin": 4051,
      "Ġwada": 4052,
      "Ra": 4053,
      "ĠPu": 4054,
      "Ġ08": 4055,
      "Ġasiri": 4056,
      "Ġpa": 4057,
      "ĠRabiu": 4058,
      "Ġtamkar": 4059,
      "Ġnukiliya": 4060,
      "gwarma": 4061,
      "ĠBer": 4062,
      "Ġfagen": 4063,
      "Ġsanadiyar": 4064,
      "Ġhakuri": 4065,
      "ĠOktoba": 4066,
      "ary": 4067,
      "Ġiba": 4068,
      "pos": 4069,
      "Ġhaihuwar": 4070,
      "Ġkuskure": 4071,
      "ĠHijira": 4072,
      "suna": 4073,
      "ĠBikin": 4074,
      "ĠhaÆĻ": 4075,
      "Ġdillancin": 4076,
      "Ġaya": 4077,
      "Ġzamo": 4078,
      "uranci": 4079,
      "Ġkwarewa": 4080,
      "Ġmabiya": 4081,
      "ĠIli": 4082,
      "Ġmambobin": 4083,
      "Ġvi": 4084,
      "bli": 4085,
      "Ġmiyagun": 4086,
      "Ġdaraja": 4087,
      "Ġnaka": 4088,
      "Ġ198": 4089,
      "Ġgefen": 4090,
      "ĠTabba": 4091,
      "kafi": 4092,
      "arch": 4093,
      "rama": 4094,
      "urari": 4095,
      "momin": 4096,
      "Ġnishadantu": 4097,
      "tattun": 4098,
      "Ġbirgeka": 4099,
      "Ġkwada": 4100,
      "ĠDala": 4101,
      "ttawan": 4102,
      "ĠNajer": 4103,
      "ĠAbi": 4104,
      "ikon": 4105,
      "ĠOshi": 4106,
      "ĠBisa": 4107,
      "ĠEU": 4108,
      "ĠkuÉĹi": 4109,
      "áº½": 4110,
      "Ġtsun": 4111,
      "ĠWasanni": 4112,
      "Ġdukiyar": 4113,
      "Ġmusayar": 4114,
      "Ġ70": 4115,
      "Ġinganci": 4116,
      "ĠKore": 4117,
      "Ġkori": 4118,
      "ĠYahu": 4119,
      "Ġraun": 4120,
      "Ġmatarsa": 4121,
      "Za": 4122,
      "Ġtabbas": 4123,
      "ĠTaima": 4124,
      "ĠMutanen": 4125,
      "Ġ2013": 4126,
      "ĠSEO": 4127,
      "Ġcuta": 4128,
      "Ġwak": 4129,
      "ĠBU": 4130,
      "Ġmasallacin": 4131,
      "Ġkaso": 4132,
      "ĠKha": 4133,
      "Ġallah": 4134,
      "kau": 4135,
      "gadi": 4136,
      "Ġcikinsa": 4137,
      "Ġidon": 4138,
      "Ġyari": 4139,
      "ĠYuli": 4140,
      "ĠUmaru": 4141,
      "nun": 4142,
      "Allah": 4143,
      "Ġrayuka": 4144,
      "ĠFiram": 4145,
      "ĠDanda": 4146,
      "Ġumurnin": 4147,
      "28": 4148,
      "ĠDoko": 4149,
      "Ġmanya": 4150,
      "Ġalamar": 4151,
      "Ġrubutun": 4152,
      "ent": 4153,
      "omo": 4154,
      "Ġkaramin": 4155,
      "dara": 4156,
      "ĠKasuwanci": 4157,
      "Ġdinkin": 4158,
      "ril": 4159,
      "Ġsauraron": 4160,
      "Ġgwar": 4161,
      "ĠSamar": 4162,
      "Ni": 4163,
      "ĠMAI": 4164,
      ":-": 4165,
      "Ġkwatanta": 4166,
      "Ġiyaka": 4167,
      "ĠÆĻananan": 4168,
      "ĠKudin": 4169,
      "mon": 4170,
      "Ġkwamfuta": 4171,
      "ĠZargin": 4172,
      "Ġonline": 4173,
      "ĠYahaya": 4174,
      "Ġtsayar": 4175,
      "Ġgirgi": 4176,
      "Ġgyaran": 4177,
      "Ġdogon": 4178,
      "ĠLan": 4179,
      "ĠCan": 4180,
      "Ġgudanarwa": 4181,
      "Al": 4182,
      "ĠGaza": 4183,
      "ĠHe": 4184,
      "Ġazumi": 4185,
      "IKI": 4186,
      ".)": 4187,
      "Ġsukan": 4188,
      "ĠAbun": 4189,
      "tina": 4190,
      "Ġkalli": 4191,
      "Ġtashe": 4192,
      "ĠShai": 4193,
      "Ġtallafawa": 4194,
      "Ġfayi": 4195,
      "Ġhorar": 4196,
      "IL": 4197,
      "Ġdatti": 4198,
      "Ġti": 4199,
      "Ġrabin": 4200,
      "Ġmore": 4201,
      "hiru": 4202,
      "Ġgado": 4203,
      "ĠGabon": 4204,
      "kanta": 4205,
      "Ġtunda": 4206,
      "amuran": 4207,
      "Ġwakiltar": 4208,
      "Ġkirkiro": 4209,
      "ĠMusta": 4210,
      "Ġnawa": 4211,
      "Ġkolin": 4212,
      "Ġgin": 4213,
      "ĠLu": 4214,
      "hiri": 4215,
      "Ġdabbobi": 4216,
      "ĠLai": 4217,
      "Ġbur": 4218,
      "Ġyaushe": 4219,
      "ĠNN": 4220,
      "Ġlaunin": 4221,
      "ĠOr": 4222,
      "Ġhasa": 4223,
      "ĠMakiyaya": 4224,
      "Ġzab": 4225,
      "html": 4226,
      "Ġtakwar": 4227,
      "Kuma": 4228,
      "Ġdana": 4229,
      "Ġsuyi": 4230,
      "ters": 4231,
      "Ġshaidar": 4232,
      "Ġlin": 4233,
      "ĠHajiya": 4234,
      "Ġsababbin": 4235,
      "Ġwanke": 4236,
      "Ġkwato": 4237,
      "Ġhade": 4238,
      "ĠFalasdinawa": 4239,
      "Ġshige": 4240,
      "Ġdig": 4241,
      "ĠGuda": 4242,
      "ĠKogi": 4243,
      "ĠBugu": 4244,
      "ĠBay": 4245,
      "Ku": 4246,
      "ĠAbubuwan": 4247,
      "ĠAyyukan": 4248,
      "ffa": 4249,
      "ĠTana": 4250,
      "Ġmahaifiyar": 4251,
      "Ġlittatta": 4252,
      "ĠAle": 4253,
      "ĠEbola": 4254,
      "Ġkawan": 4255,
      "Ġmotsa": 4256,
      "ps": 4257,
      "ĠHali": 4258,
      "Ho": 4259,
      "tor": 4260,
      "Ġmarigayi": 4261,
      "warsu": 4262,
      "Ġtausa": 4263,
      "ĠLiki": 4264,
      "ord": 4265,
      "Ġshugabanci": 4266,
      "ĠAgusta": 4267,
      "RT": 4268,
      "Sha": 4269,
      "ĠSHI": 4270,
      "dina": 4271,
      "tannin": 4272,
      "ĠMaka": 4273,
      "darin": 4274,
      "ces": 4275,
      "ĠSanatan": 4276,
      "ĠKula": 4277,
      "Ġgamsu": 4278,
      "Ġkwallaye": 4279,
      "ĠZu": 4280,
      "ĠQa": 4281,
      "ĠSauran": 4282,
      "Ġsina": 4283,
      "Ġkunya": 4284,
      "Ġkalla": 4285,
      "ĠRahoton": 4286,
      "ĠShaf": 4287,
      "isi": 4288,
      "âĢ¦]": 4289,
      "int": 4290,
      "Ġmatuka": 4291,
      "Ġalamu": 4292,
      "Ġgine": 4293,
      "Ġiyaye": 4294,
      "ĠSambo": 4295,
      "ĠWakilin": 4296,
      "ĠAnge": 4297,
      "Ġzarafin": 4298,
      "lym": 4299,
      "Ġ2011": 4300,
      "ill": 4301,
      "ĠSakkwa": 4302,
      "ĠMac": 4303,
      "ĠMatar": 4304,
      "ĠCar": 4305,
      "aa": 4306,
      "Ġ[âĢ¦]": 4307,
      "ĠEn": 4308,
      "Ġdakile": 4309,
      "ast": 4310,
      "Ġzura": 4311,
      "ĠDai": 4312,
      "ĠÆĻarin": 4313,
      "ĠCasino": 4314,
      "ttar": 4315,
      "Ġrawaito": 4316,
      "Ġmah": 4317,
      "ĠMace": 4318,
      "ĠDattawa": 4319,
      "Ġmanufa": 4320,
      "Ġgurin": 4321,
      "gine": 4322,
      "babbin": 4323,
      "Ġfusa": 4324,
      "Ġyabo": 4325,
      "yose": 4326,
      "Ġjinya": 4327,
      "sau": 4328,
      "Ġrushe": 4329,
      "ĠAkalla": 4330,
      "Ġ2012": 4331,
      "hat": 4332,
      "kamako": 4333,
      "ĠLamido": 4334,
      "ĠDisamba": 4335,
      "ĠParis": 4336,
      "ĠDav": 4337,
      "Ġzuciyar": 4338,
      "ĠDemo": 4339,
      "ĠTAR": 4340,
      "Ġmakarantun": 4341,
      "Ġmini": 4342,
      "ĠDUBA": 4343,
      "Ġbashin": 4344,
      "Ġwakokin": 4345,
      "Ġnamiji": 4346,
      "ganda": 4347,
      "Ġlokuta": 4348,
      "tes": 4349,
      "ĠNNPC": 4350,
      "Ġainihin": 4351,
      "aura": 4352,
      "Ġlu": 4353,
      "ĠNasarawa": 4354,
      "ĠFe": 4355,
      "Ġdaida": 4356,
      "Ġmuhimmancin": 4357,
      "ĠRuwa": 4358,
      "Ġtabbacin": 4359,
      "Ġfafut": 4360,
      "ikan": 4361,
      "ÉĹan": 4362,
      "Ġdire": 4363,
      "cho": 4364,
      "zza": 4365,
      "yansa": 4366,
      "Ġsarki": 4367,
      "kir": 4368,
      "Ġsakan": 4369,
      "Ã©": 4370,
      "ĠKon": 4371,
      "ĠFayose": 4372,
      "ĠOfi": 4373,
      "Ġtsoro": 4374,
      "Ġkera": 4375,
      "Ġgwamnoni": 4376,
      "ĠKawai": 4377,
      "rog": 4378,
      "ĠHakkin": 4379,
      "Ġjagoran": 4380,
      "Ġtit": 4381,
      "Ġtallafi": 4382,
      "dou": 4383,
      "ĠSababbin": 4384,
      "ĠCibiyar": 4385,
      "ĠMatsalar": 4386,
      "ĠIslama": 4387,
      "Ġaman": 4388,
      "ĠmÃ£su": 4389,
      "ĠAk": 4390,
      "lympi": 4391,
      "yanci": 4392,
      "Ġtalabijin": 4393,
      "day": 4394,
      "Ġsayarwa": 4395,
      "Ġ36": 4396,
      "Ġayyana": 4397,
      "Ġtiki": 4398,
      "SC": 4399,
      "ĠÆĻirÆĻ": 4400,
      "yanta": 4401,
      "ĠMas": 4402,
      "ĠTs": 4403,
      "ĠIndia": 4404,
      "ĠWasannin": 4405,
      "ĠDakarun": 4406,
      "ĠLau": 4407,
      "ĠMahai": 4408,
      "TAR": 4409,
      "dad": 4410,
      "ĠAshe": 4411,
      "ĠMana": 4412,
      "OB": 4413,
      "ĠGasar": 4414,
      "Ġgwagwarma": 4415,
      "gilar": 4416,
      "Ġ!": 4417,
      "ABA": 4418,
      "Ġdawowa": 4419,
      "ĠAU": 4420,
      "ĠII": 4421,
      "ĠYaya": 4422,
      "ĠMalaman": 4423,
      "Ġtambaye": 4424,
      "llasa": 4425,
      "pain": 4426,
      "inubu": 4427,
      "ĠKE": 4428,
      "Ġtsananin": 4429,
      "ĠAp": 4430,
      "Ġ500": 4431,
      "ag": 4432,
      "ĠHaba": 4433,
      "Ġgaggauta": 4434,
      "Ġsalon": 4435,
      "Ġsuma": 4436,
      "Ġyarinya": 4437,
      "Ġjana": 4438,
      "Ġshugabar": 4439,
      "Ġharshe": 4440,
      "ĠSham": 4441,
      "Ġlaraba": 4442,
      "Ġzunu": 4443,
      "TC": 4444,
      "ĠWuta": 4445,
      "Ġpo": 4446,
      "nam": 4447,
      "ĠSala": 4448,
      "lis": 4449,
      "ĠHari": 4450,
      "ĠPla": 4451,
      "Ġzirga": 4452,
      "kila": 4453,
      "ĠSongs": 4454,
      "Ġteku": 4455,
      "liban": 4456,
      "ĠMelaye": 4457,
      "Ġsafiyar": 4458,
      "ĠBla": 4459,
      "Ġkebbi": 4460,
      "Ġmakomar": 4461,
      "Ġkoka": 4462,
      "27": 4463,
      "ĠGina": 4464,
      "Ġlaka": 4465,
      "rus": 4466,
      "ĠKwara": 4467,
      "Ġzaku": 4468,
      "zane": 4469,
      "Ġkalubale": 4470,
      "Ġmafita": 4471,
      "ĠJaka": 4472,
      "Ġsharu": 4473,
      "ĠAsib": 4474,
      "ĠHadiza": 4475,
      "ĠFabra": 4476,
      "Ġdalilai": 4477,
      "ĠHakika": 4478,
      "rea": 4479,
      "ĠsauÆĻi": 4480,
      "ĠHukumomin": 4481,
      "ĠTinubu": 4482,
      "uruwa": 4483,
      "Ġlala": 4484,
      "LLI": 4485,
      "Ġdabam": 4486,
      "ĠBala": 4487,
      "IKIN": 4488,
      "ĠNext": 4489,
      "amari": 4490,
      "Ġjirgi": 4491,
      "eni": 4492,
      "ĠBada": 4493,
      "Ġhoro": 4494,
      "Ġlahira": 4495,
      "Ġyunwa": 4496,
      "Ġgund": 4497,
      "bn": 4498,
      "ith": 4499,
      "ĠJanairu": 4500,
      "Ġgwada": 4501,
      "ĠBaha": 4502,
      "Ġkishin": 4503,
      "Ġzubar": 4504,
      "Ġdun": 4505,
      "Ġxa": 4506,
      "Ġhaya": 4507,
      "ĠMusulmai": 4508,
      "Ġjim": 4509,
      "ĠOlympi": 4510,
      "ĠBari": 4511,
      "ĠâĢ¢": 4512,
      "Ġbakun": 4513,
      "ĠDAN": 4514,
      "Ġtambayar": 4515,
      "ĠIrin": 4516,
      "haha": 4517,
      "ĠWasa": 4518,
      "ĠHon": 4519,
      "kra": 4520,
      "lunci": 4521,
      "ĠMagu": 4522,
      "shing": 4523,
      "Ġcikinta": 4524,
      "lly": 4525,
      "ĠZiyar": 4526,
      "Ġtsarki": 4527,
      "onus": 4528,
      "Ġshima": 4529,
      "barar": 4530,
      "YAR": 4531,
      "ĠAmsoshin": 4532,
      "ju": 4533,
      "ĠYemi": 4534,
      "Ġniyyar": 4535,
      "Ġauku": 4536,
      "ĠCongo": 4537,
      "Ġkaura": 4538,
      "geria": 4539,
      "29": 4540,
      "ĠOl": 4541,
      "ĠÃ": 4542,
      "Ġadda": 4543,
      "ĠSte": 4544,
      "ĠLabarin": 4545,
      "Ġfari": 4546,
      "Ġshawarwari": 4547,
      "par": 4548,
      "ula": 4549,
      "ĠSUN": 4550,
      "ĠJI": 4551,
      "gote": 4552,
      "Ġlaifuka": 4553,
      "ddin": 4554,
      "Ġizinin": 4555,
      "ĠTurkiya": 4556,
      "ĠFree": 4557,
      "Ġkulawa": 4558,
      "ĠIP": 4559,
      "ĠTattalin": 4560,
      "Ġalbashin": 4561,
      "sandan": 4562,
      "waita": 4563,
      "ummu": 4564,
      "ĠDino": 4565,
      "ĠLiber": 4566,
      "Ġ<": 4567,
      "Ina": 4568,
      "Ġdalilan": 4569,
      "ĠYola": 4570,
      "anga": 4571,
      "Ġbace": 4572,
      "sic": 4573,
      "Ġcinika": 4574,
      "bs": 4575,
      "ĠLarabawa": 4576,
      "ĠNasir": 4577,
      "ĠKungiyoyin": 4578,
      "ĠSal": 4579,
      "Ġall": 4580,
      "Ġajiya": 4581,
      "Ġyawon": 4582,
      "Ġjarumar": 4583,
      "Ġdaura": 4584,
      "Ġkanka": 4585,
      "ĠSakkwato": 4586,
      "Ġsaid": 4587,
      "ĠHaruna": 4588,
      "oo": 4589,
      "umana": 4590,
      "ĠLawal": 4591,
      "ĠSanusi": 4592,
      "Ġmajalisun": 4593,
      "iku": 4594,
      "Ġasirin": 4595,
      "ĠTas": 4596,
      "ĠRamadan": 4597,
      "ther": 4598,
      "ĠBayani": 4599,
      "Ġtsanani": 4600,
      "ĠSiyasar": 4601,
      "Ġwaye": 4602,
      "Ġtarin": 4603,
      "ĠYork": 4604,
      "Ġkyawun": 4605,
      "Ġsakamako": 4606,
      "Ġkwayoyin": 4607,
      "lun": 4608,
      "king": 4609,
      "Ġhuj": 4610,
      "âĢ¦âĢ¦": 4611,
      "ĠMam": 4612,
      "ANI": 4613,
      "ĠSpain": 4614,
      "Ġrinjaye": 4615,
      "Ġch": 4616,
      "Ġkurk": 4617,
      "ction": 4618,
      "ĠZanga": 4619,
      "illar": 4620,
      "garen": 4621,
      "ĠKewaye": 4622,
      "ĠBukaci": 4623,
      "Ġshahara": 4624,
      "Ġsabunta": 4625,
      "Ġakwa": 4626,
      "Ġkasarsa": 4627,
      "Ġkwanciyar": 4628,
      "ĠTuntube": 4629,
      "Ġrukunin": 4630,
      "Ġzaba": 4631,
      "ĠRar": 4632,
      "ĠUm": 4633,
      "Ġfassara": 4634,
      "ĠDarfur": 4635,
      "jallar": 4636,
      "jir": 4637,
      "vious": 4638,
      "Ġhe": 4639,
      "Ġgashin": 4640,
      "ĠCro": 4641,
      "Ġalwashin": 4642,
      "tuwan": 4643,
      "ĠAfrilu": 4644,
      "ĠDogara": 4645,
      "Ġkyakkyawan": 4646,
      "\",": 4647,
      "Ġbanza": 4648,
      "Ġaza": 4649,
      "ĠTambaya": 4650,
      "Ġ80": 4651,
      "Ġsayi": 4652,
      "Ġhadari": 4653,
      "Ġaniyar": 4654,
      "oras": 4655,
      "Ġbuk": 4656,
      "Ġcib": 4657,
      "ĠZiyarar": 4658,
      "hoto": 4659,
      "adun": 4660,
      "car": 4661,
      "Ġmil": 4662,
      "ĠKarshen": 4663,
      "ĠIgbo": 4664,
      "ĠDemocra": 4665,
      "Ġsoki": 4666,
      "Ġtalakawa": 4667,
      "ĠBiyar": 4668,
      "hole": 4669,
      "uraron": 4670,
      "llin": 4671,
      "Ġsafe": 4672,
      "Ġlada": 4673,
      "Ġlittafi": 4674,
      "ĠTRT": 4675,
      "cika": 4676,
      "abe": 4677,
      "gudu": 4678,
      "ĠFada": 4679,
      "ĠUwar": 4680,
      "ĠDangote": 4681,
      "Ġmusulmai": 4682,
      "ĠSuleiman": 4683,
      "ĠTambayoyi": 4684,
      "YIN": 4685,
      "Ġmafa": 4686,
      "tsan": 4687,
      "Ġreshen": 4688,
      "Ġalamun": 4689,
      "Ġleda": 4690,
      "ĠSul": 4691,
      "eng": 4692,
      "Ġkil": 4693,
      "Ġleken": 4694,
      "Ġketare": 4695,
      "33": 4696,
      "Ġkata": 4697,
      "aya": 4698,
      "lomas": 4699,
      "ĠÆĻoÆĻ": 4700,
      "ĠAll": 4701,
      "Ġtasowa": 4702,
      "ĠAF": 4703,
      "ĠMasalla": 4704,
      "inab": 4705,
      "26": 4706,
      "Ġtaken": 4707,
      "ĠInstagram": 4708,
      "Ġcanc": 4709,
      "itocin": 4710,
      "Ġteb": 4711,
      "buta": 4712,
      "Ġkwarai": 4713,
      "Ġguje": 4714,
      "ĠRFI": 4715,
      "ĠCI": 4716,
      "Ġtsarka": 4717,
      "ĠIntanet": 4718,
      "FIN": 4719,
      "ĠIv": 4720,
      "21": 4721,
      "Ġsukayi": 4722,
      "Ġmagu": 4723,
      "Ġaiy": 4724,
      "Ġcututt": 4725,
      "Ġilmi": 4726,
      "ĠKirista": 4727,
      "tus": 4728,
      "Ġkarawa": 4729,
      "Idan": 4730,
      "ĠRayuwar": 4731,
      "hma": 4732,
      "ĠWayar": 4733,
      "ĠAuren": 4734,
      "ĠJiki": 4735,
      "Ġlauni": 4736,
      "?\"": 4737,
      "omita": 4738,
      "Ġrantsar": 4739,
      "Ġsharhi": 4740,
      "ĠYun": 4741,
      "Ġcigaban": 4742,
      "ĠAD": 4743,
      "ĠRating": 4744,
      "ĠBush": 4745,
      "Ġkorafi": 4746,
      "ĠBashir": 4747,
      "ĠGana": 4748,
      "iyan": 4749,
      "Ġkakka": 4750,
      "ĠBenue": 4751,
      "Ġ09": 4752,
      "Ġkocin": 4753,
      "ĠAlkur": 4754,
      "Ġsanyi": 4755,
      "ussa": 4756,
      "Ġmagan": 4757,
      "Ġkafafen": 4758,
      "apos": 4759,
      "ĠPro": 4760,
      "Ġ197": 4761,
      "Ġfuska": 4762,
      "gogi": 4763,
      "Ġkalmomin": 4764,
      "wwa": 4765,
      "ĠMaga": 4766,
      "cca": 4767,
      "ĠYarjejen": 4768,
      "wayen": 4769,
      "Ġhirar": 4770,
      "ĠBankin": 4771,
      "ĠFAR": 4772,
      "Ġhutun": 4773,
      "Ġkwayoyi": 4774,
      "ĠMis": 4775,
      "Ġ34": 4776,
      "Ġumarni": 4777,
      "Ġbayansa": 4778,
      "miya": 4779,
      "ĠBri": 4780,
      "Ġgoyi": 4781,
      "!!!": 4782,
      "Ġkona": 4783,
      "ĠDuts": 4784,
      "Ġhiki": 4785,
      "layen": 4786,
      "tul": 4787,
      "Ġmasara": 4788,
      "gn": 4789,
      "Ġ45": 4790,
      "Ġtekun": 4791,
      "?âĢĿ": 4792,
      "2006": 4793,
      "by": 4794,
      "sama": 4795,
      "Ġmakonni": 4796,
      "Ġambaliyar": 4797,
      "yanzu": 4798,
      "Wannan": 4799,
      "ĠDavid": 4800,
      "Ġit": 4801,
      "wawan": 4802,
      "ĠâĨ": 4803,
      "ĠSon": 4804,
      "ĠShekau": 4805,
      "Ġfahimta": 4806,
      "Ġtasirin": 4807,
      "ĠAssalamu": 4808,
      "ĠCam": 4809,
      "ĠUkra": 4810,
      "bari": 4811,
      "kushe": 4812,
      "ĠVideo": 4813,
      "ĠMatasan": 4814,
      "ĠFatima": 4815,
      "ĠPi": 4816,
      "Ġzakarun": 4817,
      "Ġsuf": 4818,
      "ĠKwamishinan": 4819,
      "ĠShekarau": 4820,
      "ĠYI": 4821,
      "Ġmakarantu": 4822,
      "Ġhankula": 4823,
      "Fa": 4824,
      "Lab": 4825,
      "Ġnunawa": 4826,
      "Ġgangamin": 4827,
      "Ġgashi": 4828,
      "umu": 4829,
      "ĠDake": 4830,
      "zaharar": 4831,
      "Ġtsammanin": 4832,
      "ĠBarka": 4833,
      "Ġsauraro": 4834,
      "Ġkayar": 4835,
      "Ġdaurin": 4836,
      "ĠMuga": 4837,
      "AA": 4838,
      "garo": 4839,
      "Ġzanta": 4840,
      "Ġdaruruwan": 4841,
      "Ġkaruwa": 4842,
      "ĠUni": 4843,
      "Ġbiyayya": 4844,
      "ĠRuwan": 4845,
      "kani": 4846,
      "Ġcewarsa": 4847,
      "unt": 4848,
      "Ġmiji": 4849,
      "kura": 4850,
      "Ġmuni": 4851,
      "Ġshanu": 4852,
      "Ġsukar": 4853,
      "Ġshu": 4854,
      "Ġcanji": 4855,
      "Ġhijirar": 4856,
      "cation": 4857,
      "HI": 4858,
      "Ġyakar": 4859,
      "ĠSHE": 4860,
      "Ġwace": 4861,
      "Ġgai": 4862,
      "Ġgundumar": 4863,
      "nest": 4864,
      "ĠShir": 4865,
      "ĠSomalia": 4866,
      "LL": 4867,
      "ĠShar": 4868,
      "Ġtafka": 4869,
      "guna": 4870,
      "ĠkÃµ": 4871,
      "Ġzuwan": 4872,
      "Ġdubi": 4873,
      "Ġjuma": 4874,
      "ĠHabasha": 4875,
      "ĠSuke": 4876,
      "Ġtafar": 4877,
      "sur": 4878,
      "Ġtakaice": 4879,
      "ĠUku": 4880,
      "Ġgidansa": 4881,
      "Ġtsaki": 4882,
      "TSA": 4883,
      "dare": 4884,
      "Ġbabba": 4885,
      "thi": 4886,
      "ĠAi": 4887,
      "Ġhaifi": 4888,
      "Ġkilomita": 4889,
      "ĠFas": 4890,
      "ĠSabunta": 4891,
      "Ġfann": 4892,
      "sion": 4893,
      "HU": 4894,
      "jani": 4895,
      "laihi": 4896,
      "ĠPrevious": 4897,
      "ĠMahmo": 4898,
      "ĠJose": 4899,
      "Ġlikita": 4900,
      "cutane": 4901,
      "ĠNajeriyar": 4902,
      "Ġkofar": 4903,
      "Ġinjin": 4904,
      "danci": 4905,
      "Ġsanadin": 4906,
      "llallahu": 4907,
      "ĠKofin": 4908,
      "ĠDangane": 4909,
      "She": 4910,
      "Ġmas": 4911,
      "Ġsata": 4912,
      "Ġmalam": 4913,
      "Ġrung": 4914,
      "Ġnesa": 4915,
      "cial": 4916,
      "ĠKorea": 4917,
      "dir": 4918,
      "OM": 4919,
      "ĠJarida": 4920,
      "ĠBam": 4921,
      "ĠMATA": 4922,
      "Ġ33": 4923,
      "TU": 4924,
      "llake": 4925,
      "ĠAmba": 4926,
      "Ġkaryata": 4927,
      "Ġmummunar": 4928,
      "ternet": 4929,
      "ĠErdo": 4930,
      "ship": 4931,
      "uel": 4932,
      "Ġanfani": 4933,
      "ĠYiwa": 4934,
      "Ġ[/": 4935,
      "Ġingancin": 4936,
      "tanin": 4937,
      "Ġisar": 4938,
      "ĠDSS": 4939,
      "WAS": 4940,
      "ĠBidiyon": 4941,
      "Ġkame": 4942,
      "Ġsunce": 4943,
      "ĠHanyoyin": 4944,
      "fra": 4945,
      "https": 4946,
      "Shi": 4947,
      "ins": 4948,
      "ĠDakta": 4949,
      "sawa": 4950,
      "ĠSuper": 4951,
      "ĠAndroid": 4952,
      "ĠSashen": 4953,
      "Ġ300": 4954,
      "ĠKudi": 4955,
      "hite": 4956,
      "Ġyou": 4957,
      "ĠShu": 4958,
      "Ġadawar": 4959,
      "lim": 4960,
      "Ġhutu": 4961,
      "Ġkarantawa": 4962,
      "aded": 4963,
      "Ġtuba": 4964,
      "Ġkayayyaki": 4965,
      "Ġtarwa": 4966,
      "butar": 4967,
      "kamai": 4968,
      "Ġrubuce": 4969,
      "ember": 4970,
      "bare": 4971,
      "Ġfiram": 4972,
      "ĠMajiyar": 4973,
      "inai": 4974,
      "Ġdauko": 4975,
      "ard": 4976,
      "ĠRan": 4977,
      "Ġtsir": 4978,
      "ĠFilms": 4979,
      "ĠMugabe": 4980,
      "Ġgirmama": 4981,
      "Ġmon": 4982,
      "Ġsauti": 4983,
      "ĠMotsa": 4984,
      "lect": 4985,
      "Ġanan": 4986,
      "Ġgargadin": 4987,
      "Ġtikitin": 4988,
      "Ġgabanin": 4989,
      "ĠGirka": 4990,
      "ĠhaÉĹ": 4991,
      "ĠWaka": 4992,
      "Ġmiliyoyin": 4993,
      "Ġbakuncin": 4994,
      "Ġwayoyin": 4995,
      "ĠNazarin": 4996,
      "Ġwad": 4997,
      "Ġnayi": 4998,
      "Ġmagunguna": 4999,
      "Ġsamuwa": 5000,
      "wuya": 5001,
      "ĠAfrica": 5002,
      "Ġkwakwalwa": 5003,
      "cri": 5004,
      "ess": 5005,
      "Ġnisa": 5006,
      "Ġamfana": 5007,
      "Ġgwamnatinsa": 5008,
      "ĠAust": 5009,
      "ĠJagoran": 5010,
      "anada": 5011,
      "34": 5012,
      "Ã£ni": 5013,
      "ĠQatar": 5014,
      "urka": 5015,
      "ĠAir": 5016,
      "ĠJib": 5017,
      "amura": 5018,
      "Ġtallafa": 5019,
      "36": 5020,
      "Ġyaron": 5021,
      "Ġkaruwar": 5022,
      "Ġfasin": 5023,
      "yyade": 5024,
      "ĠTSO": 5025,
      "eren": 5026,
      "Ġguba": 5027,
      "Ġkorar": 5028,
      "ĠKwallon": 5029,
      "ĠÂ·": 5030,
      "AS": 5031,
      "âĢĺ": 5032,
      "Ġfadada": 5033,
      "ĠBura": 5034,
      "adi": 5035,
      "ĠTij": 5036,
      "ĠOfishin": 5037,
      "gir": 5038,
      "ĠAya": 5039,
      "Ġbani": 5040,
      "gida": 5041,
      "Ġvideo": 5042,
      "ĠYAN": 5043,
      "Ġdukiya": 5044,
      "AMBA": 5045,
      "ĠKin": 5046,
      "Ġibada": 5047,
      "ĠFor": 5048,
      "ou": 5049,
      "Ġballe": 5050,
      "ĠABU": 5051,
      "Ġshinkafa": 5052,
      "Ġkore": 5053,
      "ĠSanarwar": 5054,
      "enegal": 5055,
      "amala": 5056,
      "ĠArz": 5057,
      "star": 5058,
      "wul": 5059,
      "Ġaikawa": 5060,
      "banon": 5061,
      "ĠFasa": 5062,
      "ĠItem": 5063,
      "dik": 5064,
      "Ġsaye": 5065,
      "ĠÂ£": 5066,
      "Ġtaimake": 5067,
      "Ġhawan": 5068,
      "ĠKabiru": 5069,
      "Ġhalatta": 5070,
      "ĠShan": 5071,
      "Ġkyakkyawar": 5072,
      "Ġ`": 5073,
      "ÆĻo": 5074,
      "Ġram": 5075,
      "tanci": 5076,
      "game": 5077,
      "Ġwadai": 5078,
      "Ġkowacce": 5079,
      "JI": 5080,
      "Ġagajin": 5081,
      "Ġasa": 5082,
      "ader": 5083,
      "Ġima": 5084,
      "ĠMustapha": 5085,
      "Ġrabi": 5086,
      "ĠsunÃ£": 5087,
      "Ġfarmaki": 5088,
      "mandan": 5089,
      "ĠFabrairu": 5090,
      "Labarai": 5091,
      "suwa": 5092,
      "Ġtaga": 5093,
      "ac": 5094,
      "ĠDAGA": 5095,
      "ĠHanka": 5096,
      "Ġsansan": 5097,
      "ĠzÃ£": 5098,
      "Ġwajan": 5099,
      "kina": 5100,
      "izar": 5101,
      "ĠBama": 5102,
      "Ġfashin": 5103,
      "ĠNemi": 5104,
      "ĠApp": 5105,
      "Ġkarrama": 5106,
      "Ġhasken": 5107,
      "Ġtazar": 5108,
      "Ġhoras": 5109,
      "Ġtsawo": 5110,
      "Ġkwale": 5111,
      "ĠSenegal": 5112,
      "wane": 5113,
      "ÆĻar": 5114,
      "Ġdaf": 5115,
      "Ġawa": 5116,
      "Ġhaf": 5117,
      "ĠNigerian": 5118,
      "Ġaikinsa": 5119,
      "ĠDukkan": 5120,
      "ĠBiliyan": 5121,
      "ĠÆĻi": 5122,
      "omhole": 5123,
      "jai": 5124,
      "ĠAngela": 5125,
      "Ġtufa": 5126,
      "ãĤ": 5127,
      "tana": 5128,
      "Ġlumana": 5129,
      "ĠYake": 5130,
      "Ġbatutuwan": 5131,
      "ĠDokokin": 5132,
      "kh": 5133,
      "Ġgagarumin": 5134,
      "Ġtakaici": 5135,
      "publi": 5136,
      "Ġgali": 5137,
      "Ġlabarun": 5138,
      "ĠManoma": 5139,
      "ĠSayyi": 5140,
      "els": 5141,
      "nesty": 5142,
      "Ko": 5143,
      "ĠZainab": 5144,
      "Ġmagangan": 5145,
      "YO": 5146,
      "Ġriko": 5147,
      "ĠDadin": 5148,
      "Ġtattare": 5149,
      "Ġgizonku": 5150,
      "cro": 5151,
      "Ġtsada": 5152,
      "Ġbautar": 5153,
      "ĠNama": 5154,
      "Ġalaikum": 5155,
      "Ġhulda": 5156,
      "Ġshara": 5157,
      "Ġbanban": 5158,
      "undi": 5159,
      "ĠFata": 5160,
      "Ġgaskiyar": 5161,
      "Ġkwantar": 5162,
      "ĠOshiomhole": 5163,
      "Ġrarraba": 5164,
      "Ġ2010": 5165,
      "Ġdaman": 5166,
      "Ġayar": 5167,
      "fofi": 5168,
      "ĠÉĹauka": 5169,
      "ctor": 5170,
      "Ġkaw": 5171,
      "Ġficewa": 5172,
      "Ġaminci": 5173,
      "zami": 5174,
      "40": 5175,
      "Ġmasha": 5176,
      "Ġsabanin": 5177,
      "kare": 5178,
      "ĠNafi": 5179,
      "ĠKiristoci": 5180,
      "ĠGwamnonin": 5181,
      "Ġsauyin": 5182,
      "lsa": 5183,
      "Ġkaina": 5184,
      "ttoo": 5185,
      "Ġzuka": 5186,
      "dani": 5187,
      "Ġsur": 5188,
      "Ġtsofa": 5189,
      "Ġsauyi": 5190,
      "ĠzaÉĵen": 5191,
      "arsa": 5192,
      "ĠHouse": 5193,
      "ĠBurtaniya": 5194,
      "bisa": 5195,
      "Ġjakadancin": 5196,
      "ĠBun": 5197,
      "ĠMessi": 5198,
      "ĠLin": 5199,
      "Ġmaraba": 5200,
      "ĠAmsa": 5201,
      "Ġhagu": 5202,
      "Ġhakika": 5203,
      "warta": 5204,
      "Ġdajin": 5205,
      "Ġcibiyoyin": 5206,
      "ves": 5207,
      "ĠTAMBA": 5208,
      "ela": 5209,
      "Ġyanka": 5210,
      "Ġ32": 5211,
      "mata": 5212,
      "Ġhamsin": 5213,
      "ĠWazirin": 5214,
      "Ġkudurin": 5215,
      "Ġroki": 5216,
      "ĠTace": 5217,
      "ĠGirma": 5218,
      "ĠISIS": 5219,
      "ĠKwamfuta": 5220,
      "ĠAbbas": 5221,
      "sarin": 5222,
      "Ġzagayo": 5223,
      "ĠXi": 5224,
      "tch": 5225,
      "Ġgamu": 5226,
      "ĠMoha": 5227,
      "Ġface": 5228,
      "Ġtambayi": 5229,
      "Ġnamu": 5230,
      "ĠQu": 5231,
      "Ġkarba": 5232,
      "Ġjaraba": 5233,
      "rai": 5234,
      "hou": 5235,
      "Ġkacal": 5236,
      "ĠTakarar": 5237,
      "Ġkyawawan": 5238,
      "ĠMisali": 5239,
      "lor": 5240,
      "ley": 5241,
      "Ġdanna": 5242,
      "Mun": 5243,
      "Ġkashin": 5244,
      "Ġ48": 5245,
      "ĠRiba": 5246,
      "Ġsearch": 5247,
      "Ġnauyi": 5248,
      "ĠMatsayin": 5249,
      "Ġgami": 5250,
      "2015": 5251,
      "ĠCoast": 5252,
      "ĠIvory": 5253,
      "ĠBuratai": 5254,
      "ola": 5255,
      "Ġshakatawa": 5256,
      "ĠOgun": 5257,
      "bra": 5258,
      "een": 5259,
      "lara": 5260,
      "ĠSp": 5261,
      "Ġmawakin": 5262,
      "Ġabunda": 5263,
      "Ġfu": 5264,
      "Ġbatutuwa": 5265,
      "ĠFyade": 5266,
      "ĠUkraine": 5267,
      "DDA": 5268,
      "KIN": 5269,
      "Ġlabaru": 5270,
      "ĠKudancin": 5271,
      "Ġhasashen": 5272,
      "Ġtuk": 5273,
      "ÆĻon": 5274,
      "gue": 5275,
      "ĠSAUR": 5276,
      "online": 5277,
      "Ġhaure": 5278,
      "ĠDasu": 5279,
      "Ġbelin": 5280,
      "ukuntan": 5281,
      "inar": 5282,
      "Ġcinikayya": 5283,
      "ĠIyayen": 5284,
      "hai": 5285,
      "Ġtalaka": 5286,
      "Ġsalo": 5287,
      "Ġkudirin": 5288,
      "Ġrahotannin": 5289,
      "Ġradio": 5290,
      "gra": 5291,
      "ĠHukumomi": 5292,
      "Ġzangar": 5293,
      "ĠSaudi": 5294,
      "ĠBurundi": 5295,
      "Ġlikitoci": 5296,
      "ĠMil": 5297,
      "ĠJira": 5298,
      "TAN": 5299,
      "ĠKuna": 5300,
      "ĠOyo": 5301,
      "senger": 5302,
      "ĠNov": 5303,
      "ĠKamata": 5304,
      "Ġcancan": 5305,
      "ĠMexi": 5306,
      "Ġzalika": 5307,
      "tas": 5308,
      "ist": 5309,
      "Ġcinikin": 5310,
      "Ġkoyarwa": 5311,
      "Ġmahar": 5312,
      "âĢĿ,": 5313,
      "ĠMay": 5314,
      "ĠFiye": 5315,
      "mud": 5316,
      "Ġnasaba": 5317,
      "que": 5318,
      "ĠBro": 5319,
      "Ġbayin": 5320,
      "ĠRiga": 5321,
      "SHING": 5322,
      "ÆĻe": 5323,
      "ĠWas": 5324,
      "Ġboko": 5325,
      "Ġmartaba": 5326,
      "mber": 5327,
      "Ġcece": 5328,
      "TT": 5329,
      "Ġmatsin": 5330,
      "Ġmanzon": 5331,
      "Ġtsib": 5332,
      "Ġkanana": 5333,
      "Ġgadi": 5334,
      "Ġmasoya": 5335,
      "Ġgabar": 5336,
      "Ġfadakar": 5337,
      "Ġkwaikwayo": 5338,
      "urs": 5339,
      "ĠAmnesty": 5340,
      "ĠMahmoud": 5341,
      "Ġhed": 5342,
      "Ġjamhuriyar": 5343,
      "ĠKanu": 5344,
      "Ġidanu": 5345,
      "Ġrusa": 5346,
      "ĠHai": 5347,
      "Ġ47": 5348,
      "SAW": 5349,
      "ping": 5350,
      "ĠkarÉĵ": 5351,
      "JA": 5352,
      "ĠGeor": 5353,
      "ĠAbubuwa": 5354,
      "kamata": 5355,
      "Ġministocin": 5356,
      "Ġtalatin": 5357,
      "ĠRepubli": 5358,
      "ii": 5359,
      "ĠGwandu": 5360,
      "Ġcikas": 5361,
      "ĠBit": 5362,
      "Ġgwaji": 5363,
      "EA": 5364,
      "ĠBata": 5365,
      "Ġkwarya": 5366,
      "wata": 5367,
      "bamai": 5368,
      "Ġ38": 5369,
      "loaded": 5370,
      "ĠGur": 5371,
      "ĠWakokin": 5372,
      "Ġ01": 5373,
      "Ġgab": 5374,
      "ling": 5375,
      "Ġsauye": 5376,
      "ĠPalasdin": 5377,
      "ĠOlympics": 5378,
      "pro": 5379,
      "Ġnasar": 5380,
      "Ġkoli": 5381,
      "Ġjinjin": 5382,
      "ĠMulkin": 5383,
      "ĠAdama": 5384,
      "Ġyunkuri": 5385,
      "ÉĽn": 5386,
      "Ġhankulan": 5387,
      "ĠEx": 5388,
      "Ġzabukan": 5389,
      "ĠMalami": 5390,
      "Ġzamantakewa": 5391,
      "ĠTsaron": 5392,
      "ĠInternational": 5393,
      "ĠKwana": 5394,
      "Ġup": 5395,
      "oi": 5396,
      "ĠWhite": 5397,
      "Ġtsagaita": 5398,
      "Ġmadadin": 5399,
      "Ġgidajensu": 5400,
      "hen": 5401,
      "kuwar": 5402,
      "anen": 5403,
      "Ġkewaye": 5404,
      "ayoyinku": 5405,
      "urran": 5406,
      "ĠSaliyo": 5407,
      "INA": 5408,
      "ĠBia": 5409,
      "Ġrabu": 5410,
      "marya": 5411,
      "tinin": 5412,
      "ĠJiya": 5413,
      "ungun": 5414,
      "ĠHalin": 5415,
      "TI": 5416,
      "Ġauk": 5417,
      "ĠSunan": 5418,
      "ĠSO": 5419,
      "Ġkano": 5420,
      "Ġratta": 5421,
      "lock": 5422,
      "ĠCanada": 5423,
      "ĠTattoo": 5424,
      "kwatar": 5425,
      "Ġshago": 5426,
      "Ġkunshe": 5427,
      "Ġzarge": 5428,
      "bangida": 5429,
      "ĠSallar": 5430,
      "Ġtushen": 5431,
      "tur": 5432,
      "Ġsp": 5433,
      "ĠDubban": 5434,
      "35": 5435,
      "Ġab": 5436,
      "Ġkasi": 5437,
      "tala": 5438,
      "Ġyankuna": 5439,
      "Ġdogaro": 5440,
      "ĠBindiga": 5441,
      "Ġbarci": 5442,
      "ĠApril": 5443,
      "guwa": 5444,
      "Ä§": 5445,
      "ĠMallam": 5446,
      "shington": 5447,
      "Ġdumin": 5448,
      "Ġkwadago": 5449,
      "ĠBahaushe": 5450,
      "ĠDandalin": 5451,
      "Ġciwo": 5452,
      "mp": 5453,
      "Ġkone": 5454,
      "ansu": 5455,
      "ĠWin": 5456,
      "ĠEmman": 5457,
      "ĠFIFA": 5458,
      "rom": 5459,
      "Ġsabawa": 5460,
      "Ġdangantakar": 5461,
      "Ġgaruruwan": 5462,
      "Ġmuhimmin": 5463,
      "'s": 5464,
      "muna": 5465,
      "ĠRwanda": 5466,
      "Ġ37": 5467,
      "Ġdariya": 5468,
      "ĠJahar": 5469,
      "Ġgabatarwa": 5470,
      "Ġwasikar": 5471,
      "Ġtsaka": 5472,
      "sarawa": 5473,
      "ĠGidajen": 5474,
      "ĠMon": 5475,
      "Ġrum": 5476,
      "Ġcancanci": 5477,
      "Ġyazo": 5478,
      "ted": 5479,
      "ĠClin": 5480,
      "Ġsahun": 5481,
      "Ġanyi": 5482,
      "ĠKocin": 5483,
      "ĠFina": 5484,
      "Ġzagayowar": 5485,
      "ĠABC": 5486,
      "hada": 5487,
      "ĠMexico": 5488,
      "Ġdabarun": 5489,
      "Ġkoyon": 5490,
      "ĠWi": 5491,
      "ĠCha": 5492,
      "Ġkauyuka": 5493,
      "LM": 5494,
      "Ġdutse": 5495,
      "ĠShaharar": 5496,
      "Ġgaji": 5497,
      "dana": 5498,
      "Ġzahiri": 5499,
      "kha": 5500,
      "Ġkwance": 5501,
      "Ġadana": 5502,
      "fun": 5503,
      "Ġrij": 5504,
      "COM": 5505,
      "ĠJagora": 5506,
      "afar": 5507,
      "ĠAkwa": 5508,
      "ĠTaka": 5509,
      "MU": 5510,
      "ĠGizo": 5511,
      "shiya": 5512,
      "Ġchina": 5513,
      "ilu": 5514,
      "ĠArgen": 5515,
      "cinsa": 5516,
      "dus": 5517,
      "ĠSaudiya": 5518,
      "pers": 5519,
      "Ġdumi": 5520,
      "iyawa": 5521,
      "Ġraunuka": 5522,
      "agles": 5523,
      "ĠWashington": 5524,
      "RI": 5525,
      "Ġkannywood": 5526,
      "Ġfatar": 5527,
      "Ġmonth": 5528,
      "ĠLibiya": 5529,
      "APC": 5530,
      "ãĥ": 5531,
      "Ġtarar": 5532,
      "ĠGuine": 5533,
      "Ġazumin": 5534,
      "Ġlayin": 5535,
      "yata": 5536,
      "Ġwanka": 5537,
      "Ġ2009": 5538,
      "ĠNor": 5539,
      "ĠGala": 5540,
      "URA": 5541,
      "aramba": 5542,
      "Ġbudurwa": 5543,
      "ĠTuk": 5544,
      "Ġweb": 5545,
      "emokra": 5546,
      "ĠSandan": 5547,
      "DAN": 5548,
      "phone": 5549,
      "ĠImo": 5550,
      "Ġlitinin": 5551,
      "tics": 5552,
      "Ġ{": 5553,
      "ĠMus": 5554,
      "Ġdimbin": 5555,
      "Ġsauko": 5556,
      "Ġrikon": 5557,
      "ĠTaliban": 5558,
      "Hotuna": 5559,
      "Ġmawuya": 5560,
      "Ġshugabanni": 5561,
      "Ġgefe": 5562,
      "wiki": 5563,
      "aikace": 5564,
      "Ġhalittar": 5565,
      "Ġtasu": 5566,
      "Ġsamfurori": 5567,
      "ĠMor": 5568,
      "ĠDuniyar": 5569,
      "Ġsong": 5570,
      "Ġlokutan": 5571,
      "Ġnin": 5572,
      "Ġiyalin": 5573,
      "ĠÆĻung": 5574,
      "Ġkurkuku": 5575,
      "KK": 5576,
      "Ġharba": 5577,
      "ĠKaramar": 5578,
      "Ġrokon": 5579,
      "ĠMenene": 5580,
      "ĠSakon": 5581,
      "tsapp": 5582,
      "Ġteburin": 5583,
      "Ġshahararren": 5584,
      "ĠLandan": 5585,
      "Ġdattawan": 5586,
      "Ġsaduwa": 5587,
      "Ġinternational": 5588,
      "ĠUganda": 5589,
      "Ġtakarda": 5590,
      "Ġgurba": 5591,
      "Ġmasallaci": 5592,
      "ĠAT": 5593,
      "yarwa": 5594,
      "yn": 5595,
      "Ġiyali": 5596,
      "ĠNamadi": 5597,
      "Ġzartar": 5598,
      "Ġambaci": 5599,
      "Ġdigiri": 5600,
      "uwai": 5601,
      "ĠUS": 5602,
      "ĠÆĺungiyar": 5603,
      "win": 5604,
      "ĠTuranci": 5605,
      "ĠAlma": 5606,
      "ĠDahiru": 5607,
      "ĠBabangida": 5608,
      "Ġalfa": 5609,
      "aurata": 5610,
      "Ġ^": 5611,
      "Ġrahama": 5612,
      "Ġmuhawara": 5613,
      "Ġ..": 5614,
      "BU": 5615,
      "Ġtir": 5616,
      "Ġbiki": 5617,
      "ĠAnyi": 5618,
      "Ġkwamishinan": 5619,
      "ĠLABARI": 5620,
      "ĠKala": 5621,
      "Ġbincika": 5622,
      "ĠSanya": 5623,
      "Ġqar": 5624,
      "ĠKunar": 5625,
      "ĠÉĵa": 5626,
      "ĠGaban": 5627,
      "ĠHudu": 5628,
      "PP": 5629,
      "ono": 5630,
      "ĠNnam": 5631,
      "stam": 5632,
      "á¸": 5633,
      "Ġfir": 5634,
      "irun": 5635,
      "ĠZuma": 5636,
      "Ġiso": 5637,
      "Ġkwayar": 5638,
      "ĠAsiya": 5639,
      "ef": 5640,
      "Ġmuhimmiyar": 5641,
      "ĠRepublican": 5642,
      "baya": 5643,
      "ĠIB": 5644,
      "ĠKazalika": 5645,
      "Ġ90": 5646,
      "Ġmakudan": 5647,
      "adar": 5648,
      "Ġrajista": 5649,
      "ĠIndon": 5650,
      "Ġbindigar": 5651,
      "ĠTarihin": 5652,
      "uwagaban": 5653,
      "Ġtsafta": 5654,
      "ĠNovember": 5655,
      "Com": 5656,
      "pt": 5657,
      "itle": 5658,
      "ddashin": 5659,
      "Ġbirni": 5660,
      "Ġhakik": 5661,
      "Ġsararin": 5662,
      "Ġfilm": 5663,
      "Ġmafaka": 5664,
      "Ġyarinyar": 5665,
      "Ġbullo": 5666,
      "ĠJerin": 5667,
      "Ġ;": 5668,
      "shiyar": 5669,
      "ĠHas": 5670,
      "lul": 5671,
      "ristiano": 5672,
      "37": 5673,
      "del": 5674,
      "ĠClinton": 5675,
      "OO": 5676,
      "site": 5677,
      "ĠRai": 5678,
      "kanci": 5679,
      "Ġbiyun": 5680,
      "ĠIslam": 5681,
      "].": 5682,
      "ĠRam": 5683,
      "Ġaji": 5684,
      "ĠhaÉĵa": 5685,
      "tansu": 5686,
      "ĠÂ«": 5687,
      "Ġzango": 5688,
      "ĠYammacin": 5689,
      "ï¼": 5690,
      "ĠAmince": 5691,
      "SHE": 5692,
      "ĠBiafra": 5693,
      "aikacin": 5694,
      "ĠIlimi": 5695,
      "Ġhujja": 5696,
      "LIN": 5697,
      "zun": 5698,
      "Ġdalar": 5699,
      "ĠHusa": 5700,
      "Ġmazabar": 5701,
      "Ġdesu": 5702,
      "angare": 5703,
      "lus": 5704,
      "âĢĭ": 5705,
      "irayi": 5706,
      "Ġtanadi": 5707,
      "ĠPutin": 5708,
      "Ġtitin": 5709,
      "ĠFo": 5710,
      "ĠUNI": 5711,
      "ĠMarigayi": 5712,
      "tive": 5713,
      "Ġmug": 5714,
      "my": 5715,
      "Ġmasan": 5716,
      "Ġrayuwarsu": 5717,
      "ĠAmina": 5718,
      "Ġlaifukan": 5719,
      "ĠSalah": 5720,
      "ucin": 5721,
      "bert": 5722,
      "Ġizini": 5723,
      "Ġshim": 5724,
      "ĠInganta": 5725,
      "Ġsahi": 5726,
      "Ġsauraren": 5727,
      "ÉĻ": 5728,
      "Ġyakan": 5729,
      "ĠBatun": 5730,
      "ĠMacron": 5731,
      "Ġkarawar": 5732,
      "Ġgasa": 5733,
      "Ġtushe": 5734,
      "hili": 5735,
      "Ġhaife": 5736,
      "ĠÆĻun": 5737,
      "okura": 5738,
      "Ġbarna": 5739,
      "Ġhanna": 5740,
      "ĠbuÉĹe": 5741,
      "Ġkaucewa": 5742,
      "erry": 5743,
      "Ġalbarkatun": 5744,
      "ĠKalmar": 5745,
      "ĠGarkuwa": 5746,
      "ĠTSOHO": 5747,
      "ĠTra": 5748,
      "Ġjanar": 5749,
      "sanci": 5750,
      "ĠNATO": 5751,
      "ĠAga": 5752,
      "dari": 5753,
      "ĠKabi": 5754,
      "Ġkwararru": 5755,
      "ĠFus": 5756,
      "Ġtsakani": 5757,
      "Ġritaya": 5758,
      "Ġbarayin": 5759,
      "Ġkauce": 5760,
      "ĠMakarfi": 5761,
      "kana": 5762,
      "Ġbaba": 5763,
      "Ġrasuwar": 5764,
      "ĠDUN": 5765,
      "ĠWen": 5766,
      "Ġsadarwar": 5767,
      "ĠManzo": 5768,
      "Ġyawo": 5769,
      "ĠShugabar": 5770,
      "ĠTarihi": 5771,
      "Ġhamayya": 5772,
      "ĠWatan": 5773,
      "ĠKarancin": 5774,
      "Ġhaifa": 5775,
      "Ġbugawa": 5776,
      "zarta": 5777,
      "zoma": 5778,
      "\\Ā\\Ā": 5779,
      "45": 5780,
      "ĠMos": 5781,
      "Ġumarci": 5782,
      "Ġragamar": 5783,
      "Ġfarga": 5784,
      "adership": 5785,
      "Ġfafutukar": 5786,
      "jama": 5787,
      "Ġkirki": 5788,
      "ĠArab": 5789,
      "ukuwan": 5790,
      "Ġshafinsa": 5791,
      "Ġ196": 5792,
      "Ġbangarori": 5793,
      "Ġfansa": 5794,
      "Ġkwarewar": 5795,
      "ĠGuinea": 5796,
      "Ġcancanta": 5797,
      "ali": 5798,
      "cle": 5799,
      "ĠWe": 5800,
      "ĠYahudawa": 5801,
      "ĠRarara": 5802,
      "ĠkÃ£": 5803,
      "ĠMalamin": 5804,
      "Ã¼": 5805,
      "Ġbukin": 5806,
      "chan": 5807,
      "Ġrayuwarsa": 5808,
      "47": 5809,
      "Ġhatsarin": 5810,
      "iyyu": 5811,
      "Ġfilayen": 5812,
      "Ġyankewa": 5813,
      "ĠArgentina": 5814,
      "39": 5815,
      "ĠWai": 5816,
      "unata": 5817,
      "Ġalkalin": 5818,
      "Ġababen": 5819,
      "ĠFLA": 5820,
      "Ġrago": 5821,
      "ĠMijin": 5822,
      "ÉĶn": 5823,
      "Ġtarwatsa": 5824,
      "Ġapp": 5825,
      "Sh": 5826,
      "ĠAngo": 5827,
      "To": 5828,
      "aka": 5829,
      "dows": 5830,
      "Ġcututtuka": 5831,
      "ĠGari": 5832,
      "ĠKasan": 5833,
      "ssu": 5834,
      "ĠNasiru": 5835,
      "momi": 5836,
      "lami": 5837,
      "Ġsafarar": 5838,
      "Ġbonus": 5839,
      "tten": 5840,
      "ĠAsu": 5841,
      "ANG": 5842,
      "rans": 5843,
      "ĠNnamdi": 5844,
      "',": 5845,
      "ijin": 5846,
      "kalar": 5847,
      "ĠWar": 5848,
      "ĠJaruma": 5849,
      "hadar": 5850,
      "ITY": 5851,
      "âĺ": 5852,
      "ĠIndones": 5853,
      "Ġ2007": 5854,
      "usegun": 5855,
      "Ġsamarwa": 5856,
      "Ġshigowa": 5857,
      "'.": 5858,
      "Ġsaurari": 5859,
      "shan": 5860,
      "Ġkeban": 5861,
      "ĠÉĵan": 5862,
      "ĠÉĹaukar": 5863,
      "ĠSEC": 5864,
      "ĠCristiano": 5865,
      "sou": 5866,
      ",,": 5867,
      "Ġwatakila": 5868,
      "mmadu": 5869,
      "Ġyaduwar": 5870,
      "Ġhakar": 5871,
      "ĠPaul": 5872,
      "ĠBarack": 5873,
      "dua": 5874,
      "ĠAlkali": 5875,
      "Ġmallaki": 5876,
      "Ġkauyukan": 5877,
      "ĠÄ©": 5878,
      "Ġmawaki": 5879,
      "ĠBagudu": 5880,
      "Ġtambayoyin": 5881,
      "ĠSadik": 5882,
      "É©": 5883,
      "Ġsashe": 5884,
      "itoci": 5885,
      "Ġrikice": 5886,
      "Ġtilas": 5887,
      "ĠEmmanuel": 5888,
      "âĢ¦.": 5889,
      "Ġkeyi": 5890,
      "ĠÆĻaddamar": 5891,
      "38": 5892,
      "ĠLeadership": 5893,
      "ĠÆĻarshe": 5894,
      "Ġshimfi": 5895,
      "ĠkuÉĹin": 5896,
      "ĠTawa": 5897,
      "Ġ44": 5898,
      "Ġcacca": 5899,
      "Ġabada": 5900,
      "Ġsandar": 5901,
      "ĠDalibai": 5902,
      "idar": 5903,
      "BI": 5904,
      "ĠGanin": 5905,
      "Ġzauren": 5906,
      "ĠHajji": 5907,
      "ges": 5908,
      "ĠNijer": 5909,
      "Ġbayyanawa": 5910,
      "Ġhuldar": 5911,
      "Ġsaurare": 5912,
      "Ġbanki": 5913,
      "Ġ05": 5914,
      "Ġkaragar": 5915,
      "ĠTsohuwar": 5916,
      "ĠOlusegun": 5917,
      "ĠOp": 5918,
      "Ġrattaba": 5919,
      "ĠDari": 5920,
      "tisa": 5921,
      "Ġyabawa": 5922,
      "ĠlÃµ": 5923,
      "ĠDauda": 5924,
      "HARI": 5925,
      "baka": 5926,
      "ĠCIKIN": 5927,
      "puter": 5928,
      "ĠKwanan": 5929,
      "ĠsÃ£": 5930,
      "Ġgini": 5931,
      "Ġbanka": 5932,
      "bb": 5933,
      "Ġriji": 5934,
      "Ġhaska": 5935,
      "tsuwa": 5936,
      "ĠÆĻasashe": 5937,
      "CEF": 5938,
      "ĠMalamai": 5939,
      "ĠNafisa": 5940,
      "Ġ07": 5941,
      "ĠSura": 5942,
      "ENI": 5943,
      "six": 5944,
      ".,": 5945,
      "Ġwax": 5946,
      "ĠÉĵangare": 5947,
      "Ġtakaita": 5948,
      "Ġzaki": 5949,
      "ĠPort": 5950,
      "urinho": 5951,
      "ĠTry": 5952,
      "ĠNassarawa": 5953,
      "Ġmawuyacin": 5954,
      "zam": 5955,
      "ĠSambisa": 5956,
      "__": 5957,
      "Ġtsokaci": 5958,
      "Ġkwamf": 5959,
      "OT": 5960,
      "Ġtarb": 5961,
      "Ġwasika": 5962,
      "ĠÐ": 5963,
      "Ġsunansa": 5964,
      "ĠHauwa": 5965,
      "Ġhidima": 5966,
      "ence": 5967,
      "ĠmutÃ£": 5968,
      "ĠKasuwar": 5969,
      "Ġkoci": 5970,
      "Ġsanan": 5971,
      "LLAH": 5972,
      "ĠAtta": 5973,
      "Ġgawa": 5974,
      "larta": 5975,
      "Ġkalubalen": 5976,
      "SAR": 5977,
      "ĠCewa": 5978,
      "--": 5979,
      "NI": 5980,
      "ĠWane": 5981,
      "ĠTake": 5982,
      "Ġhatsari": 5983,
      "ĠShare": 5984,
      "ĠInjin": 5985,
      "ĠÙ": 5986,
      "Ġmaga": 5987,
      "Ġlima": 5988,
      "IRA": 5989,
      "OS": 5990,
      "ÃŃ": 5991,
      "Ġbasira": 5992,
      "Ã¶": 5993,
      "ĠAmazon": 5994,
      "Ġfurta": 5995,
      "yarsa": 5996,
      "ĠZamu": 5997,
      "ukiliyar": 5998,
      "Ġdamke": 5999,
      "ow": 6000,
      "ĠMakka": 6001,
      "IYAR": 6002,
      "ĠNAN": 6003,
      "ĠHara": 6004,
      "ĠJuna": 6005,
      "ĠJumma": 6006,
      "ĠRashawa": 6007,
      "HAR": 6008,
      "ĠAlaihi": 6009,
      "esi": 6010,
      "ĠMulki": 6011,
      "tra": 6012,
      "Ġambata": 6013,
      "Ġmus": 6014,
      "orld": 6015,
      "cia": 6016,
      "ĠiP": 6017,
      "Ġkunna": 6018,
      "wani": 6019,
      "ĠBaban": 6020,
      "Ġfushi": 6021,
      "Ġlas": 6022,
      "ĠMinista": 6023,
      "tara": 6024,
      "urr": 6025,
      "UWAR": 6026,
      "ĠZaka": 6027,
      "tte": 6028,
      "Ġbutu": 6029,
      "ĠJiragen": 6030,
      "GE": 6031,
      "ĠWil": 6032,
      "Ġketa": 6033,
      "ĠARE": 6034,
      "Ġcon": 6035,
      "Duk": 6036,
      "ĠJawa": 6037,
      "ĠWest": 6038,
      "ĠfÃ£": 6039,
      "ĠMourinho": 6040,
      "ĠShirya": 6041,
      "Ġkaunar": 6042,
      "Ġtafarkin": 6043,
      "ĠHamas": 6044,
      "ĠÆĻoÆĻarin": 6045,
      "Muna": 6046,
      "Ġhigh": 6047,
      "ĠKisan": 6048,
      "Ġransa": 6049,
      "buka": 6050,
      "ĠTV": 6051,
      "ĠTakai": 6052,
      "cur": 6053,
      "ĠMakarantar": 6054,
      "laha": 6055,
      "ĠMessenger": 6056,
      "Ġzazz": 6057,
      "Ġkunnen": 6058,
      "ĠKwango": 6059,
      "Ġtasho": 6060,
      "ĠShamsu": 6061,
      "dam": 6062,
      "Ġmakamashi": 6063,
      "ĠMAKU": 6064,
      "versity": 6065,
      "Ġhikima": 6066,
      "ĠBurkina": 6067,
      "Ġgwanin": 6068,
      "ĠIPOB": 6069,
      "Ġragar": 6070,
      "ĠChar": 6071,
      "lewa": 6072,
      "ĠAddu": 6073,
      "\\\\": 6074,
      "his": 6075,
      "ĠHausaloaded": 6076,
      "inda": 6077,
      "Ġ02": 6078,
      "ĠFito": 6079,
      "ĠCE": 6080,
      "Ġmajiyar": 6081,
      "roup": 6082,
      "ĠTaro": 6083,
      "ĠYADDA": 6084,
      "ĠMuk": 6085,
      "Ġkarni": 6086,
      "ker": 6087,
      "ĠKananan": 6088,
      "Ġirinsu": 6089,
      "Ġ06": 6090,
      "==": 6091,
      "ĠJarumar": 6092,
      "Ġmutunta": 6093,
      "ĠShafukan": 6094,
      "Ġzunubi": 6095,
      "ĠÆĻirÆĻirar": 6096,
      "Ġaranga": 6097,
      "Ġlinzami": 6098,
      "Ġdiyar": 6099,
      "Ġzam": 6100,
      "mer": 6101,
      "ĠIT": 6102,
      "ĠHade": 6103,
      "Ġhalayen": 6104,
      "Ġbambanci": 6105,
      "Ġdangi": 6106,
      "Ġalkawari": 6107,
      "URITY": 6108,
      "Ġkwarin": 6109,
      "ĠAt": 6110,
      "CIN": 6111,
      "cco": 6112,
      "Ġalbarkacin": 6113,
      "inkin": 6114,
      "ĠSECURITY": 6115,
      "ĠAddini": 6116,
      "Ġsamma": 6117,
      "ddama": 6118,
      "ĠDUNIYA": 6119,
      "ĠAgen": 6120,
      "ĠTARON": 6121,
      "ĠJor": 6122,
      "jia": 6123,
      "ĠMAKULLI": 6124,
      "ĠSP": 6125,
      "Ġcinye": 6126,
      "Ġ2008": 6127,
      "ĠBUHARI": 6128,
      "van": 6129,
      "ĠBiya": 6130,
      "Ġlahadi": 6131,
      "Ġtakawa": 6132,
      "Ġmonths": 6133,
      "hh": 6134,
      "lwan": 6135,
      "Ġrutsa": 6136,
      "Ãµmin": 6137,
      "uraruwar": 6138,
      "ĠPress": 6139,
      "ĠDutse": 6140,
      "uli": 6141,
      "Ġshuwagaban": 6142,
      "Ġfafatawa": 6143,
      "Ġfaruwar": 6144,
      "gili": 6145,
      "Po": 6146,
      "kafin": 6147,
      "jjin": 6148,
      "ĠIbn": 6149,
      "Ġfargabar": 6150,
      "kashe": 6151,
      "Ġpro": 6152,
      "ĠDece": 6153,
      "ĠHannun": 6154,
      "ĠPri": 6155,
      "Ġmatsaya": 6156,
      "ĠAlkalin": 6157,
      "ĠBeijin": 6158,
      "44": 6159,
      "ĠFer": 6160,
      "Ġmakwabta": 6161,
      "ĠErdogan": 6162,
      "Ġharsuna": 6163,
      "ĠEagles": 6164,
      "ĠHarkar": 6165,
      "aikacen": 6166,
      "Ġtabarbare": 6167,
      "buy": 6168,
      "ĠfaÉĹa": 6169,
      "ĠFaso": 6170,
      "pedia": 6171,
      "ĠDasuki": 6172,
      "Ġmuddin": 6173,
      "Ġkome": 6174,
      "ler": 6175,
      "ez": 6176,
      "ĠDim": 6177,
      "ĠKokarin": 6178,
      "sunan": 6179,
      "adama": 6180,
      "dy": 6181,
      "Ġamsar": 6182,
      "ĠSaka": 6183,
      "Ġjaruma": 6184,
      "pot": 6185,
      "Ġshawarci": 6186,
      "ĠRadio": 6187,
      "Ġbugun": 6188,
      "31": 6189,
      "ĠEdo": 6190,
      "ĠHada": 6191,
      "Ġmurya": 6192,
      "Ġsuk": 6193,
      "Ġkofa": 6194,
      "ĠMahmud": 6195,
      "press": 6196,
      "Ġgiya": 6197,
      "Ġbinne": 6198,
      "Ġgoge": 6199,
      "ĠUNICEF": 6200,
      "Ġtsinci": 6201,
      "ummuka": 6202,
      "hra": 6203,
      "sari": 6204,
      "ĠAdawa": 6205,
      "ĠMatsalolin": 6206,
      "Ġkalma": 6207,
      "Ġsadaukar": 6208,
      "Ġkauna": 6209,
      "lity": 6210,
      "Ġinuwa": 6211,
      "Ġ400": 6212,
      "zari": 6213,
      "Ġtsabta": 6214,
      "ĠlÃµkacin": 6215,
      "ĠFeb": 6216,
      "ulu": 6217,
      "Ġmaj": 6218,
      "Ġ03": 6219,
      "ĠTha": 6220,
      "Ġbij": 6221,
      "Ġmenene": 6222,
      "Ġgajer": 6223,
      "Ġkima": 6224,
      "Ġmaras": 6225,
      "Ġemail": 6226,
      "tsauran": 6227,
      "ĠSelect": 6228,
      "ĠJAM": 6229,
      "lade": 6230,
      "US": 6231,
      "Ġmalami": 6232,
      "Ġen": 6233,
      "Ġjaridu": 6234,
      "ayinku": 6235,
      "ĠUniversity": 6236,
      "Ġdawa": 6237,
      "ĠAKAN": 6238,
      "ĠbaÆĻi": 6239,
      "Ġdadewa": 6240,
      "ĠZakarun": 6241,
      "ĠTunis": 6242,
      "Ġriba": 6243,
      "Ġakwatin": 6244,
      "ĠSoyayya": 6245,
      "Ġtakunkumi": 6246,
      "Ġsashin": 6247,
      "ĠMagoya": 6248,
      "Ġmasanin": 6249,
      "ĠBasu": 6250,
      "Ġharen": 6251,
      "Ġ2003": 6252,
      "Fi": 6253,
      "Ġmakiya": 6254,
      "ĠSoja": 6255,
      "ĠTech": 6256,
      "Ġsaidai": 6257,
      "Yanzu": 6258,
      "ĠManhajar": 6259,
      "Ġtsammani": 6260,
      "ddan": 6261,
      "ms": 6262,
      "Ġrubuto": 6263,
      "ĠzaÉĵi": 6264,
      "ĠAustra": 6265,
      "cto": 6266,
      "ĠTabbatar": 6267,
      "Ġfasalin": 6268,
      "ÆĻashin": 6269,
      "Ġfusace": 6270,
      "Ġsansanonin": 6271,
      "ĠAljan": 6272,
      "ĠKyauta": 6273,
      "idan": 6274,
      "mir": 6275,
      "uy": 6276,
      "Ġmakwab": 6277,
      "Ġimanin": 6278,
      "Ġnisan": 6279,
      "Ġlittattafai": 6280,
      "jab": 6281,
      "Ġgadon": 6282,
      "Ġ39": 6283,
      "Ġsallama": 6284,
      "Ġtausayi": 6285,
      "DE": 6286,
      "ĠIba": 6287,
      "des": 6288,
      "Ġzalunci": 6289,
      "iren": 6290,
      "ĠZasu": 6291,
      "ĠAbokin": 6292,
      "ĠBerlin": 6293,
      "unsu": 6294,
      "Ġrabon": 6295,
      "Ġhakkokin": 6296,
      "ĠHoton": 6297,
      "ĠÆĬinkin": 6298,
      "76": 6299,
      "shu": 6300,
      "ĠMajali": 6301,
      "ĠCross": 6302,
      "Ġarba": 6303,
      "Éĵe": 6304,
      "Ġmatsan": 6305,
      "pto": 6306,
      "Ġaljan": 6307,
      "ituwa": 6308,
      "haja": 6309,
      "ĠRage": 6310,
      "BN": 6311,
      "tis": 6312,
      "Ġbiranen": 6313,
      "Ġwahalar": 6314,
      "ĠBeijing": 6315,
      "Ġsaurin": 6316,
      "Ġbayarwa": 6317,
      "Ġmamakin": 6318,
      "ĠDecember": 6319,
      "Ġjigo": 6320,
      "ĠGabashin": 6321,
      "arumai": 6322,
      "ĠLittafin": 6323,
      "Ġfatatta": 6324,
      "56": 6325,
      "Ġrera": 6326,
      "ĠMakaranta": 6327,
      "ĠBaga": 6328,
      "Ġbanda": 6329,
      "Ġcikakkiyar": 6330,
      "ĠGeorge": 6331,
      "Ġmahukuntan": 6332,
      "yansanda": 6333,
      "kantar": 6334,
      "Ġkarbe": 6335,
      "ummomin": 6336,
      "zawa": 6337,
      "ĠBAYAN": 6338,
      "ĠBayero": 6339,
      "Ġbayyanar": 6340,
      "Ùİ": 6341,
      "ï»": 6342,
      "ĠImel": 6343,
      "kashen": 6344,
      "unce": 6345,
      "Ġdangin": 6346,
      "ĠKudus": 6347,
      "tariyar": 6348,
      "ĠShang": 6349,
      "rah": 6350,
      "Ġjaruman": 6351,
      "Ġmutunci": 6352,
      "burg": 6353,
      "usau": 6354,
      "Ġkamfani": 6355,
      "soft": 6356,
      "hanna": 6357,
      "Ġrarara": 6358,
      "Ġgirgizar": 6359,
      "Ġsanata": 6360,
      "arambawul": 6361,
      "gya": 6362,
      "Ġkutsa": 6363,
      "ĠIl": 6364,
      "ĠDanna": 6365,
      "Ġmukami": 6366,
      "Ġacikin": 6367,
      "Ġtalata": 6368,
      "Ġmaci": 6369,
      "ens": 6370,
      "ĠLamarin": 6371,
      "Ġkiwo": 6372,
      "ĠMama": 6373,
      ".âĢĻ": 6374,
      "ĠMataki": 6375,
      "Ġaiyukan": 6376,
      "work": 6377,
      "ĠHAR": 6378,
      "Ġgwamnatocin": 6379,
      "Ġwi": 6380,
      "Ġkum": 6381,
      "Ġdattijai": 6382,
      "ĠTukur": 6383,
      "Ġgayyaci": 6384,
      "ĠZamani": 6385,
      "Ġkyan": 6386,
      "ĠUba": 6387,
      "ĠAlheri": 6388,
      "gam": 6389,
      "garko": 6390,
      "taka": 6391,
      "toni": 6392,
      "Ġkabilanci": 6393,
      "Ġjita": 6394,
      "Ġshugabanin": 6395,
      "Ġaikinsu": 6396,
      "ĠFarashin": 6397,
      "Ġmunanan": 6398,
      "Ġhabi": 6399,
      "Ġ51": 6400,
      "ttenham": 6401,
      "insa": 6402,
      "Ġisas": 6403,
      "Ġzagayen": 6404,
      "ĠKimanin": 6405,
      "Ġiskar": 6406,
      "Ki": 6407,
      "RL": 6408,
      "Ġmasarautar": 6409,
      "ĠNewspa": 6410,
      "ĠRivers": 6411,
      "ĠTSAR": 6412,
      "Bab": 6413,
      "ĠZAB": 6414,
      "ls": 6415,
      "Ġdur": 6416,
      "ĠBukatar": 6417,
      "ĠFu": 6418,
      "ĠAnnan": 6419,
      "lliya": 6420,
      "Ġwucin": 6421,
      "Ġgudumma": 6422,
      "ĠMuham": 6423,
      "Ġfitaccen": 6424,
      "Ä©ÆĻa": 6425,
      "GER": 6426,
      "Ġwakilci": 6427,
      "MS": 6428,
      "ĠJinping": 6429,
      "Ġbindigogi": 6430,
      "Ġun": 6431,
      "ĠNau": 6432,
      "ĠYakin": 6433,
      "ĠKaya": 6434,
      "Ġshiru": 6435,
      "Ġ55": 6436,
      "ĠMurtala": 6437,
      "BAN": 6438,
      "ĠUTC": 6439,
      "Ġakidar": 6440,
      "Ġdayan": 6441,
      "ĠLara": 6442,
      "Ġkanmu": 6443,
      "ĠGama": 6444,
      "ĠEs": 6445,
      "ĠTottenham": 6446,
      "Qur": 6447,
      "por": 6448,
      "Ġtsallake": 6449,
      "ĠKud": 6450,
      "ĠYarjejeniyar": 6451,
      "Ġalfahari": 6452,
      "Ġau": 6453,
      "ladi": 6454,
      "Ġgarza": 6455,
      "TE": 6456,
      "nai": 6457,
      "2007": 6458,
      "rop": 6459,
      "Ġyage": 6460,
      "Ġkadar": 6461,
      "aman": 6462,
      "ding": 6463,
      "Ġdaukacin": 6464,
      "Ġrukuni": 6465,
      "Ġkwamfutar": 6466,
      "ĠSAN": 6467,
      "Ġdukufa": 6468,
      "Ġ04": 6469,
      "Ġgungun": 6470,
      "Ġkalamai": 6471,
      "ĠAugus": 6472,
      "ĠAyyuka": 6473,
      "shara": 6474,
      "ĠAlba": 6475,
      "ĠShakatawa": 6476,
      "Ġjakadan": 6477,
      "ĠHaf": 6478,
      "ĠAfurka": 6479,
      "ĠMicro": 6480,
      "Ġhannayen": 6481,
      "Ġlissafi": 6482,
      "CA": 6483,
      "ĠBul": 6484,
      "Ġyakamata": 6485,
      "ĠSABON": 6486,
      "Ġtafe": 6487,
      "Ġkifi": 6488,
      "55": 6489,
      "tri": 6490,
      "Ġkogin": 6491,
      "Ġmurkushe": 6492,
      "zer": 6493,
      "Ġsaha": 6494,
      "Ġshak": 6495,
      "ĠSharif": 6496,
      "Ġtarzoma": 6497,
      "ĠÉĹauki": 6498,
      "ĠDakatar": 6499,
      "ĠAhlul": 6500,
      "diddi": 6501,
      "Ġauri": 6502,
      "ania": 6503,
      "Ġfarawa": 6504,
      "ĠLema": 6505,
      "Ġtuhuma": 6506,
      "48": 6507,
      "Ġfuru": 6508,
      "Ġtsabar": 6509,
      "Ġzarce": 6510,
      "Ġkaman": 6511,
      "Ġblog": 6512,
      "ĠTaf": 6513,
      "ĠTayi": 6514,
      "Ga": 6515,
      "Ġdada": 6516,
      "Ġdamun": 6517,
      "ĠGen": 6518,
      "ĠDakin": 6519,
      "Ġdakar": 6520,
      "ĠMaina": 6521,
      "tter": 6522,
      "ĠTijjani": 6523,
      "ĠSAURARI": 6524,
      "dugun": 6525,
      "ĠLebanon": 6526,
      "oney": 6527,
      "ĠNewspapers": 6528,
      "Ġchi": 6529,
      "PDP": 6530,
      "huwa": 6531,
      "Ġkyale": 6532,
      "Ġkarkata": 6533,
      "Ġbaje": 6534,
      "Ġhuta": 6535,
      "ĠFARKO": 6536,
      "yode": 6537,
      "Ġmafar": 6538,
      "Ġannabi": 6539,
      "ĠWenger": 6540,
      "ĠAUR": 6541,
      "Ġkas": 6542,
      "Ġtaru": 6543,
      "kewar": 6544,
      "Ġkimiyyar": 6545,
      "Ġtsibirin": 6546,
      "Ġado": 6547,
      "ĠKura": 6548,
      "Ġdore": 6549,
      "Ġjagoranta": 6550,
      "ĠGusau": 6551,
      "llu": 6552,
      "Ġwanzar": 6553,
      "ĠÆĻarshen": 6554,
      "ĠAlal": 6555,
      "Ġkorafin": 6556,
      "Ġsanye": 6557,
      "Ġpri": 6558,
      "ĠFanni": 6559,
      "IE": 6560,
      "ĠMusic": 6561,
      "ĠTakar": 6562,
      "Ġamincewar": 6563,
      "Ġbukukuwan": 6564,
      "Ġjere": 6565,
      "ĠAlex": 6566,
      "ĠAmurkawa": 6567,
      "bala": 6568,
      "Ġkwamiti": 6569,
      "Ġdilla": 6570,
      "Ġtakunkumin": 6571,
      "ĠKhali": 6572,
      "hel": 6573,
      "ĠSadi": 6574,
      "faren": 6575,
      "ĠÄ©m": 6576,
      "Ġkit": 6577,
      "Ġmabi": 6578,
      "ĠLokaci": 6579,
      "32": 6580,
      "cinsu": 6581,
      "ĠMuhammed": 6582,
      "ĠSch": 6583,
      "ukwu": 6584,
      "Ġjarirai": 6585,
      "zirga": 6586,
      "ĠRana": 6587,
      "Ġkirar": 6588,
      "MB": 6589,
      "zara": 6590,
      "Ġ2002": 6591,
      "ĠGwamnoni": 6592,
      "Ġbuhari": 6593,
      "Ġkukan": 6594,
      "Ġajiyar": 6595,
      "59": 6596,
      "ĠSadar": 6597,
      "Ġhabibu": 6598,
      "harin": 6599,
      "ĠRaba": 6600,
      "ĠAbdin": 6601,
      "ĠMP": 6602,
      "mala": 6603,
      "Ġkagarko": 6604,
      "ĠDukan": 6605,
      "Ġnunar": 6606,
      "Ġduwa": 6607,
      "Ġgangan": 6608,
      "Ġalkaw": 6609,
      "ĠDaliban": 6610,
      "Ġlakabi": 6611,
      "Ġhabibuj": 6612,
      "ĠAsh": 6613,
      "ĠEuro": 6614,
      "tashen": 6615,
      "Ġyear": 6616,
      "tia": 6617,
      "Ġalfar": 6618,
      "ĠFiraministan": 6619,
      "cts": 6620,
      "Ġgayyatar": 6621,
      "Ġyawansu": 6622,
      "riki": 6623,
      "ikun": 6624,
      "Ġrun": 6625,
      "Ġhajji": 6626,
      "Ġjagorantar": 6627,
      "ĠPost": 6628,
      "Ġiyakokin": 6629,
      "Ġbirane": 6630,
      "gina": 6631,
      "Ġlabaranmu": 6632,
      "Ġhur": 6633,
      "bbai": 6634,
      "Ġaukuwar": 6635,
      "Ġmataima": 6636,
      "Ġdubawa": 6637,
      "unansu": 6638,
      "Ġraunin": 6639,
      "ĠECO": 6640,
      "erson": 6641,
      "Ġzabar": 6642,
      "ĠJordan": 6643,
      "Ġsta": 6644,
      "enn": 6645,
      "ungu": 6646,
      "ĠAbacha": 6647,
      "skwari": 6648,
      "TTA": 6649,
      "ĠMadina": 6650,
      "Ġauna": 6651,
      "ĠAKA": 6652,
      "Ġnaman": 6653,
      "row": 6654,
      "Ġshiryawa": 6655,
      "Iya": 6656,
      "Ġwaja": 6657,
      "Ġfala": 6658,
      "Ġharsa": 6659,
      "Ġ42": 6660,
      "Ġubangi": 6661,
      "ĠShine": 6662,
      "td": 6663,
      "Ã£wa": 6664,
      "ĠTattauna": 6665,
      "Ġtin": 6666,
      "Ġmugun": 6667,
      "Ġ75": 6668,
      "Ġrataya": 6669,
      "Ġ~": 6670,
      "Ġguji": 6671,
      "ĠHijirar": 6672,
      "ple": 6673,
      "Ġmashi": 6674,
      "Ġmuzaharar": 6675,
      "Ġbaiyana": 6676,
      "ĠSunnah": 6677,
      "niya": 6678,
      "tom": 6679,
      "Ġfayil": 6680,
      "lma": 6681,
      "ĠfÉĶ": 6682,
      "ĠJA": 6683,
      "Ġanno": 6684,
      "Ġ150": 6685,
      "Ġmarar": 6686,
      "Ġmagudi": 6687,
      "Ġatisa": 6688,
      "Ġsalwan": 6689,
      "ĠGwanja": 6690,
      "ĠZuciya": 6691,
      "46": 6692,
      "Ġyafe": 6693,
      "ĠMamaki": 6694,
      "Ġdanyen": 6695,
      "ĠLawan": 6696,
      "Ġjarumin": 6697,
      "âĢľ": 6698,
      "Ġayyukansu": 6699,
      "ĠAudio": 6700,
      "ĠsaÆĻon": 6701,
      "Ġharabar": 6702,
      "Ġsit": 6703,
      "Ġsauro": 6704,
      "alle": 6705,
      "Ãµda": 6706,
      "Ġbaban": 6707,
      "ĠFM": 6708,
      "Ġmita": 6709,
      "ĠHannu": 6710,
      "ĠEd": 6711,
      "the": 6712,
      "Ġbambanta": 6713,
      "ĠECOWAS": 6714,
      "Sai": 6715,
      "ĠTsagaita": 6716,
      "ĠÆĻarÆĻashin": 6717,
      "ĠMinistar": 6718,
      "ĠMasallacin": 6719,
      "ĠÄ©mÃ£ni": 6720,
      "ĠIdi": 6721,
      "Ġmatashin": 6722,
      "ĠWANI": 6723,
      "ĠBaraz": 6724,
      "Ġhaura": 6725,
      "Ġbayansu": 6726,
      "ĠKusan": 6727,
      "Ġhangen": 6728,
      "aikaci": 6729,
      "ĠØ§": 6730,
      "coin": 6731,
      "Ġben": 6732,
      "ĠSauti": 6733,
      "Ġhakikanin": 6734,
      "ĠKhu": 6735,
      "Ġnakasa": 6736,
      "ĠWu": 6737,
      "eral": 6738,
      "anata": 6739,
      "kuce": 6740,
      "Ġ1530": 6741,
      "ziz": 6742,
      "ï¿½ï¿½": 6743,
      "Ġjaridun": 6744,
      "jiang": 6745,
      "Ġ2006": 6746,
      "Ġmagungunan": 6747,
      "Ġzurfi": 6748,
      "ddafi": 6749,
      "ĠAnaly": 6750,
      "ĠKimiyya": 6751,
      "ĠBenin": 6752,
      "Abin": 6753,
      "barin": 6754,
      "ĠShaikh": 6755,
      "kk": 6756,
      "ĠHAN": 6757,
      "Ġaddinai": 6758,
      "DC": 6759,
      "LO": 6760,
      "ĠGre": 6761,
      "Ġ58": 6762,
      "Ġgwab": 6763,
      "ĠKANO": 6764,
      "Ġhalittu": 6765,
      "ĠSayyid": 6766,
      "ot": 6767,
      "tacciyar": 6768,
      "Ġragu": 6769,
      "katare": 6770,
      "Ġminista": 6771,
      "Ġkamun": 6772,
      "Ġdip": 6773,
      "Ġsufuri": 6774,
      "ĠTh": 6775,
      "ĠÆĻarfafa": 6776,
      "57": 6777,
      "Ġraunata": 6778,
      "red": 6779,
      "ĠWato": 6780,
      "ĠBABI": 6781,
      "Me": 6782,
      "ĠdÃµmin": 6783,
      "Ġkulle": 6784,
      "ĠDC": 6785,
      "ARAI": 6786,
      "uwe": 6787,
      "Ġzato": 6788,
      "yayyar": 6789,
      "Ġkarkara": 6790,
      "ĠSaurara": 6791,
      "Man": 6792,
      "ĠLantar": 6793,
      "Ġsabani": 6794,
      "ĠBlack": 6795,
      "Ġmazan": 6796,
      "Ġjarraba": 6797,
      "Ġbayyane": 6798,
      "Ġpost": 6799,
      "Ġtau": 6800,
      "eru": 6801,
      "bani": 6802,
      "Ġgyare": 6803,
      "wakin": 6804,
      "ille": 6805,
      "ĠOye": 6806,
      "kasar": 6807,
      "ĠObi": 6808,
      "jamau": 6809,
      "):": 6810,
      "Ġtona": 6811,
      "Ġuban": 6812,
      "Ġjiga": 6813,
      "Ġgagarumar": 6814,
      "Ġtallan": 6815,
      "Ġmatsu": 6816,
      "ĠMaya": 6817,
      "ukaka": 6818,
      "ĠAlbar": 6819,
      "Ġjikinsa": 6820,
      "ĠBayanan": 6821,
      "Ġministoci": 6822,
      "Ġbadi": 6823,
      "Ġgada": 6824,
      "Ġkewa": 6825,
      "Ã£y": 6826,
      "irta": 6827,
      "ĠHare": 6828,
      "ĠSabo": 6829,
      "ĠLantarki": 6830,
      "ĠhaÆĻÄ©ÆĻa": 6831,
      "zhou": 6832,
      "Ġkaza": 6833,
      "ĠHU": 6834,
      "ĠNada": 6835,
      "ĠOcto": 6836,
      "Ġhours": 6837,
      "Ġfannoni": 6838,
      "ĠhaÉĵaka": 6839,
      "TS": 6840,
      "Ġkaran": 6841,
      "Ġalakar": 6842,
      "ĠTashar": 6843,
      "llen": 6844,
      "aniya": 6845,
      "Ġgwagwarmayar": 6846,
      "ĠInjiniya": 6847,
      "haka": 6848,
      "ĠGwari": 6849,
      "xy": 6850,
      "Ġhadisi": 6851,
      "Ġbarkewar": 6852,
      "Ġgobara": 6853,
      "ĠLea": 6854,
      "ĠReu": 6855,
      "rubu": 6856,
      "Ġrungumi": 6857,
      "azu": 6858,
      "Ġsasanta": 6859,
      "Ġharbi": 6860,
      "ĠGba": 6861,
      "OR": 6862,
      "Ġwebsite": 6863,
      "ĠAsha": 6864,
      "ĠDare": 6865,
      "karan": 6866,
      "toma": 6867,
      "ĠWakilai": 6868,
      "Ġsiffofin": 6869,
      "ĠAc": 6870,
      "danda": 6871,
      "Ġjink": 6872,
      "Ġtsoho": 6873,
      "Ġsakonnin": 6874,
      "ĠMayar": 6875,
      "ĠFitar": 6876,
      "MAR": 6877,
      "Ġmakamin": 6878,
      "Ġbinciki": 6879,
      "llolin": 6880,
      "gana": 6881,
      "Ġtama": 6882,
      "Ġkubutar": 6883,
      "ĠGyara": 6884,
      "ugal": 6885,
      "ĠWAKAR": 6886,
      "ner": 6887,
      "Ã±": 6888,
      "Ġtauraron": 6889,
      "Ġmarawa": 6890,
      "ĠBiyan": 6891,
      "Ġbambancin": 6892,
      "Kar": 6893,
      "legit": 6894,
      "Ġgwagwarmaya": 6895,
      "La": 6896,
      "kurin": 6897,
      "ĠJarumi": 6898,
      "ĠYawancin": 6899,
      "ĠyaÆĻi": 6900,
      "Ġzafin": 6901,
      "ĠTurawan": 6902,
      "ĠVilla": 6903,
      "ĠFC": 6904,
      "Ġsakandare": 6905,
      "Ġfe": 6906,
      "Ġmisa": 6907,
      "Ġrinka": 6908,
      "ĠKuka": 6909,
      "via": 6910,
      "ĠWake": 6911,
      "Ġalhali": 6912,
      "Ġmazaunin": 6913,
      "ĠKongo": 6914,
      "Ġmaharan": 6915,
      "ĠÆĻari": 6916,
      "Ġkwaskwari": 6917,
      "Ġmatsayinsa": 6918,
      "ĠRobert": 6919,
      "ĠÆĻunshi": 6920,
      "aj": 6921,
      "Ġnashi": 6922,
      "Ġruh": 6923,
      "Ġfarashi": 6924,
      "ĠChan": 6925,
      "ĠBola": 6926,
      "ĠJihohin": 6927,
      "mal": 6928,
      "ĠZe": 6929,
      "zala": 6930,
      "ĠAC": 6931,
      "umfa": 6932,
      "llywood": 6933,
      "Ġtaki": 6934,
      "ĠJakadan": 6935,
      "ĠAKE": 6936,
      "Ġjarin": 6937,
      "ĠFir": 6938,
      "Ġzumunci": 6939,
      "Pokies": 6940,
      "Ġmal": 6941,
      "yanmar": 6942,
      "Ġnagar": 6943,
      "Ġbaci": 6944,
      "ĠRasa": 6945,
      "ĠGano": 6946,
      "]+": 6947,
      "ddun": 6948,
      "Ġrah": 6949,
      "Ġwula": 6950,
      "ĠHanyoyi": 6951,
      ".''": 6952,
      "Su": 6953,
      "ĠMO": 6954,
      "yemi": 6955,
      "Ġakasarin": 6956,
      "Ġmataimakinsa": 6957,
      "ĠIsah": 6958,
      "Ġshawarwarin": 6959,
      "UC": 6960,
      "qur": 6961,
      "Ġmajiya": 6962,
      "ĠURL": 6963,
      "Ġsaukin": 6964,
      "wanni": 6965,
      "rewa": 6966,
      "mmad": 6967,
      "Ġamanar": 6968,
      "Ġalma": 6969,
      "Ġkwanta": 6970,
      "ĠKasuwancin": 6971,
      "Ġgarzaya": 6972,
      "Ġfursun": 6973,
      "ressi": 6974,
      "Babban": 6975,
      "daran": 6976,
      "Ġyardar": 6977,
      "ddara": 6978,
      "Ġasabar": 6979,
      "Ġamana": 6980,
      "Ġ46": 6981,
      "Ġalhamis": 6982,
      "ĠShekarar": 6983,
      "ish": 6984,
      "Ġlambobin": 6985,
      "Ġjirage": 6986,
      "Ġmaido": 6987,
      "Ġharda": 6988,
      "Ġpre": 6989,
      "ĠCif": 6990,
      "Ġwuka": 6991,
      "Ġyini": 6992,
      "ukakin": 6993,
      "500": 6994,
      "É²": 6995,
      "Ġuk": 6996,
      "und": 6997,
      "Ġsati": 6998,
      "ĠJIHAR": 6999,
      "ĠTawagar": 7000,
      "ĠKI": 7001,
      "ĠIsraila": 7002,
      "ĠRohin": 7003,
      "dawalin": 7004,
      "Ġire": 7005,
      "Ġtiti": 7006,
      "shida": 7007,
      "Ġrigar": 7008,
      "kwana": 7009,
      "ĠFarin": 7010,
      "ĠBayar": 7011,
      "Ġjahi": 7012,
      "Ġsarauta": 7013,
      "Ġfadan": 7014,
      "Ġkalubalanci": 7015,
      "Ġcikar": 7016,
      "ĠSAR": 7017,
      "Ġlita": 7018,
      "ments": 7019,
      "ĠTsan": 7020,
      "Ġamincin": 7021,
      "Ġtsofaffin": 7022,
      "Ġdaidaito": 7023,
      "ĠMicrosoft": 7024,
      "Ġdaka": 7025,
      "Ġazaba": 7026,
      "ĠHukuncin": 7027,
      "makin": 7028,
      "Ġwalwa": 7029,
      "soshi": 7030,
      "Ġgwaje": 7031,
      "Ġgwarzon": 7032,
      "cus": 7033,
      "Ġkaga": 7034,
      "Ġgangami": 7035,
      "49": 7036,
      "ĠMoro": 7037,
      "ĠPRE": 7038,
      "ĠMutumin": 7039,
      "ĠTIM": 7040,
      "Ġfad": 7041,
      "Ġtarho": 7042,
      "ĠDanganta": 7043,
      "ĠðŁĺ": 7044,
      "Yana": 7045,
      "Ġkwata": 7046,
      "43": 7047,
      "ĠMUS": 7048,
      "ĠPeter": 7049,
      "BD": 7050,
      "Ġ65": 7051,
      "ĠSabbin": 7052,
      "ĠGargadi": 7053,
      "ĠMutuwar": 7054,
      "ĠShahararren": 7055,
      "ĠMyanmar": 7056,
      "ĠTrust": 7057,
      "dis": 7058,
      "ĠfÃ£ce": 7059,
      "laiman": 7060,
      "htar": 7061,
      "nab": 7062,
      "urra": 7063,
      "ĠRikici": 7064,
      "Å¡": 7065,
      "Ġdafa": 7066,
      "Ġgala": 7067,
      "Ġtanada": 7068,
      "Ġtakwarorin": 7069,
      "ĠArabia": 7070,
      "UT": 7071,
      "uch": 7072,
      "ĠKaura": 7073,
      "ĠMujallar": 7074,
      "ĠKaluba": 7075,
      "Ġmilyan": 7076,
      "kayi": 7077,
      "ĠTafiya": 7078,
      "ttima": 7079,
      "ĠArziki": 7080,
      "gyar": 7081,
      "URL": 7082,
      "Ġgon": 7083,
      "Ġmakamashin": 7084,
      "IA": 7085,
      "Ġrudani": 7086,
      "paniya": 7087,
      "Mai": 7088,
      "ise": 7089,
      "Ġlokacinda": 7090,
      "ĠHanya": 7091,
      "rogressi": 7092,
      "ĠJima": 7093,
      "Ã£nin": 7094,
      "SP": 7095,
      "ĠÆĻarfin": 7096,
      "usar": 7097,
      "jalin": 7098,
      "ĠÆĻaunar": 7099,
      "Ġlittattafan": 7100,
      "gbe": 7101,
      "ĠAllahu": 7102,
      "ĠHamza": 7103,
      "LE": 7104,
      "ĠSAM": 7105,
      "ĠHama": 7106,
      "Ġjigilar": 7107,
      "blog": 7108,
      "Ġalbum": 7109,
      "Ġtabbatarwa": 7110,
      "Ġkauye": 7111,
      "Ġsamaniya": 7112,
      "mawar": 7113,
      "ĠNya": 7114,
      "ĠBaye": 7115,
      "LAM": 7116,
      "Ġatta": 7117,
      "Ġwatannin": 7118,
      "Ġmusan": 7119,
      "Ġtsoffin": 7120,
      "58": 7121,
      "gani": 7122,
      "Ġhadar": 7123,
      "dane": 7124,
      "ĠCN": 7125,
      "Ġdabbobin": 7126,
      "Ġministar": 7127,
      "ĠHadejia": 7128,
      "UG": 7129,
      "ĠKaddamar": 7130,
      "jigan": 7131,
      "Ġtoshe": 7132,
      "Ġazza": 7133,
      "Ġmutuncin": 7134,
      "ĠSalman": 7135,
      "Ġraye": 7136,
      "Ġjinsi": 7137,
      "Ġtserewa": 7138,
      "Ġtashoshin": 7139,
      "bal": 7140,
      "ĠAj": 7141,
      "Ġyawanci": 7142,
      "ĠYour": 7143,
      "ĠBAR": 7144,
      "á¹": 7145,
      "Ġ41": 7146,
      "Ġhidi": 7147,
      "ĠTsare": 7148,
      "piso": 7149,
      "gilishi": 7150,
      "alaikum": 7151,
      "Ġdimokra": 7152,
      "suwar": 7153,
      "ĠWindows": 7154,
      "Ġhalarta": 7155,
      "ĠBenuwe": 7156,
      "Ġver": 7157,
      "wus": 7158,
      "ĠbaÆĻin": 7159,
      "ket": 7160,
      "ĠSalo": 7161,
      "ĠAntoni": 7162,
      "addar": 7163,
      "ĠRubu": 7164,
      "ABI": 7165,
      "Ġnoman": 7166,
      "ĠSako": 7167,
      "Ġfiramare": 7168,
      "farta": 7169,
      "Ġsaurayin": 7170,
      "Ġtsaida": 7171,
      "ÉĵÉĵ": 7172,
      "ĠWhatsapp": 7173,
      "Ġ<>": 7174,
      "So": 7175,
      "ĠMAN": 7176,
      "ĠhaÉĹi": 7177,
      "Ġnadin": 7178,
      "Ġtsawaita": 7179,
      "Ġtseren": 7180,
      "Ġkiris": 7181,
      "ĠReuters": 7182,
      "hr": 7183,
      "Ġashe": 7184,
      "suka": 7185,
      "ĠSoji": 7186,
      "Ġunguwan": 7187,
      "Ġtitunan": 7188,
      "ak": 7189,
      "Ġkwalliya": 7190,
      "Ġmatsakai": 7191,
      "Ġjajir": 7192,
      "ĠBudur": 7193,
      "Ġcaccaki": 7194,
      "Ġraka": 7195,
      "ĠHala": 7196,
      "Ġaikatawa": 7197,
      "ĠJames": 7198,
      "Ġ49": 7199,
      "ĠMark": 7200,
      "ĠHankalin": 7201,
      "Ø§": 7202,
      "Ġbaku": 7203,
      "ĠShaidun": 7204,
      "PA": 7205,
      "ĠApple": 7206,
      "Ġyaji": 7207,
      "ĠPS": 7208,
      "Ġmishi": 7209,
      "Ġ1999": 7210,
      "ĠCBN": 7211,
      "Ġdownload": 7212,
      "Ġzukatan": 7213,
      "Ġmabu": 7214,
      "Ġshiyyar": 7215,
      "Ġgoyan": 7216,
      "ĠSHAFIN": 7217,
      "Ġtituna": 7218,
      "ĠMahaifin": 7219,
      "ãĢ": 7220,
      "Ġbazai": 7221,
      "ĠKAMA": 7222,
      "Ġzabin": 7223,
      "ĠMako": 7224,
      "ĠBang": 7225,
      "ap": 7226,
      "Ġnukiliyar": 7227,
      "ĠDattawan": 7228,
      "digo": 7229,
      "á¸»": 7230,
      "Ġawon": 7231,
      "ĠDani": 7232,
      "iyyarsa": 7233,
      "ECH": 7234,
      "ĠAR": 7235,
      "Ġmujallar": 7236,
      "ĠZhe": 7237,
      "urance": 7238,
      "Ġkalubalantar": 7239,
      "ĠâĨĴ": 7240,
      "ĠBayelsa": 7241,
      "TON": 7242,
      "Ġfaduwar": 7243,
      "ĠMc": 7244,
      "ern": 7245,
      "ĠSale": 7246,
      "Ġmor": 7247,
      "Ġkwamandan": 7248,
      "Ġaminta": 7249,
      "ĠMUSU": 7250,
      "ĠHollan": 7251,
      "ĠParty": 7252,
      "ĠMaki": 7253,
      "ĠMasara": 7254,
      "ĠFin": 7255,
      "Ġcoci": 7256,
      "Ġwadata": 7257,
      "ĠtaÉĵa": 7258,
      "ĠCor": 7259,
      "ĠAbinci": 7260,
      "Ġcanjin": 7261,
      "Ġdaular": 7262,
      "ventus": 7263,
      "Ġwakana": 7264,
      "Ġbacin": 7265,
      "ĠDun": 7266,
      "ĠSaki": 7267,
      "dela": 7268,
      "Ġsaci": 7269,
      "ĠKofi": 7270,
      "Ġkatafaren": 7271,
      "ORA": 7272,
      "ĠSallallahu": 7273,
      "ĠKowane": 7274,
      "Ġsaida": 7275,
      "ford": 7276,
      "ĠIlimin": 7277,
      "irayim": 7278,
      "Ġkayyade": 7279,
      "rypto": 7280,
      "ĠYayinda": 7281,
      "Ġday": 7282,
      "ĠBana": 7283,
      "ĠPoli": 7284,
      "pisode": 7285,
      "xin": 7286,
      "Tu": 7287,
      "Ġnemo": 7288,
      "Ġrayu": 7289,
      "ĠMota": 7290,
      "mari": 7291,
      "ĠPLA": 7292,
      "ĠZabi": 7293,
      "LLA": 7294,
      "wannan": 7295,
      "Ġturanci": 7296,
      "ĠCA": 7297,
      "bci": 7298,
      "ĠAmarya": 7299,
      "ĠHaddasa": 7300,
      "Ġ2000": 7301,
      "ĠAsusun": 7302,
      "ĠTuh": 7303,
      "gium": 7304,
      "ĠAREWA": 7305,
      "Ġtakwaransa": 7306,
      "enezu": 7307,
      "ĠKwankwas": 7308,
      "Ġkawancen": 7309,
      "Ġtufafi": 7310,
      "zir": 7311,
      "ĠMaj": 7312,
      "Ġfai": 7313,
      "Ġ:)": 7314,
      "ĠFemi": 7315,
      "Ġbakar": 7316,
      "ĠCol": 7317,
      "ĠLei": 7318,
      "'d": 7319,
      "Ġnama": 7320,
      "cep": 7321,
      "Ġalji": 7322,
      "Ġgaruruwa": 7323,
      "gunan": 7324,
      "Ĥ¬": 7325,
      "ĠGer": 7326,
      "Ġsinadarin": 7327,
      "Ġturo": 7328,
      "ĠHOT": 7329,
      "Ġkwaskwarima": 7330,
      "ĠTIMES": 7331,
      "ata": 7332,
      "Ø³": 7333,
      "Ġtunkarar": 7334,
      "Ġdarasi": 7335,
      "lilan": 7336,
      "Ġinternet": 7337,
      "daddiyar": 7338,
      "Ġkauracewa": 7339,
      "khairi": 7340,
      "Ġyaci": 7341,
      "ĠSaha": 7342,
      "ĠTag": 7343,
      "diddiga": 7344,
      "ĠJoseph": 7345,
      "ĠRohingya": 7346,
      "ser": 7347,
      "ukunta": 7348,
      "ĠZara": 7349,
      "ÉĹai": 7350,
      "Ġisyaku": 7351,
      "lick": 7352,
      "ĠOne": 7353,
      "Ġbogi": 7354,
      "Ġhabaka": 7355,
      "Ġturawa": 7356,
      "MIUM": 7357,
      "ĠIndonesia": 7358,
      "Ġshuwagabannin": 7359,
      "Ġtakama": 7360,
      "Ġranan": 7361,
      "ukaki": 7362,
      "riya": 7363,
      "way": 7364,
      "Ġlikitocin": 7365,
      "Ġilmin": 7366,
      "ĠtÃ£": 7367,
      "Ġkashewa": 7368,
      "ĠSulaiman": 7369,
      "ĠMASU": 7370,
      "Ġkasuwannin": 7371,
      "munda": 7372,
      "ĠShettima": 7373,
      "ymar": 7374,
      "ĠDauki": 7375,
      "ĠOkoro": 7376,
      "Ġjarabawar": 7377,
      "ĠZhejiang": 7378,
      "ĠIdo": 7379,
      "sihu": 7380,
      "ĠAmbaliyar": 7381,
      "ĠHussa": 7382,
      "duma": 7383,
      "ĠJuventus": 7384,
      "~~": 7385,
      "Ġkwangilar": 7386,
      "ĠMasari": 7387,
      "ĠØ§ÙĦ": 7388,
      "hya": 7389,
      "tsalan": 7390,
      "Ġabokai": 7391,
      "tsaren": 7392,
      "ĠDaraktan": 7393,
      "bir": 7394,
      "lea": 7395,
      "Ġhalaye": 7396,
      "ĠAbiola": 7397,
      "ĠAdams": 7398,
      "Ġshiryar": 7399,
      "Ġsiyar": 7400,
      "ĠTashin": 7401,
      "ĠBelgium": 7402,
      "SHA": 7403,
      "juma": 7404,
      "zy": 7405,
      "Ġmaji": 7406,
      "gizo": 7407,
      "Ġhannunsa": 7408,
      "ĠYarin": 7409,
      "Ġjagora": 7410,
      "Ġumurci": 7411,
      "ĠPREMIUM": 7412,
      "uth": 7413,
      "ĠMUT": 7414,
      "Ġkafuwar": 7415,
      "oth": 7416,
      "wed": 7417,
      "Ġkaji": 7418,
      "ĠWHO": 7419,
      "ĠGaddafi": 7420,
      "jara": 7421,
      "Ġjawabinsa": 7422,
      "ĠLABARAI": 7423,
      "Ġduwatsu": 7424,
      "ĠZUWA": 7425,
      "Ġgirmamawa": 7426,
      "ĠzaÉĵe": 7427,
      "Ġmarubuta": 7428,
      "Ùĩ": 7429,
      "ĠKwarar": 7430,
      "ĠKato": 7431,
      "ĠKamfan": 7432,
      "ĠWaziri": 7433,
      "hohi": 7434,
      "lomasiyya": 7435,
      "yuwa": 7436,
      "Ġbom": 7437,
      "ĠGra": 7438,
      "tullah": 7439,
      "Ġcizon": 7440,
      "Ġgirke": 7441,
      "Ġalfarma": 7442,
      "Ġsint": 7443,
      "ĠPlay": 7444,
      "Ġguiwa": 7445,
      "Ġkyamar": 7446,
      "Sun": 7447,
      "ĠMuni": 7448,
      "Ġjarumai": 7449,
      "Ġkofi": 7450,
      "ĠAnam": 7451,
      "ĠKarya": 7452,
      "ĠCewar": 7453,
      "title": 7454,
      "Ġdabba": 7455,
      "Ġton": 7456,
      "ĠSABUWAR": 7457,
      "Sura": 7458,
      "Ð°": 7459,
      "ĠJong": 7460,
      "fou": 7461,
      "Ġmartanin": 7462,
      "ĠHira": 7463,
      "ĠIYA": 7464,
      "ĠKasashe": 7465,
      "ĠMatakin": 7466,
      "ĠNIGER": 7467,
      "IV": 7468,
      "ĠÉĵangaren": 7469,
      "ĠAnalytics": 7470,
      "domin": 7471,
      "gama": 7472,
      "ĠSHEIK": 7473,
      "ĠNami": 7474,
      "Ġshuka": 7475,
      "Ġgardama": 7476,
      "Ġfitina": 7477,
      "ĠPalasdinawa": 7478,
      "ĠMayakan": 7479,
      "dawan": 7480,
      "shop": 7481,
      "ARE": 7482,
      "Ġlamun": 7483,
      "Ġyaudara": 7484,
      "ĠMukhtar": 7485,
      "Ġmukamai": 7486,
      "keting": 7487,
      "ĠRubuta": 7488,
      "ĠOctober": 7489,
      "SAN": 7490,
      "ĠVenezu": 7491,
      "ĠIsha": 7492,
      "Ġazab": 7493,
      "Ġbacci": 7494,
      "ĠSaura": 7495,
      "Ġrabawa": 7496,
      "Ġhafsan": 7497,
      "hadin": 7498,
      "ÉĹu": 7499,
      "ĠGoyon": 7500,
      "ĠSanatocin": 7501,
      "art": 7502,
      "ĠIM": 7503,
      "Ġbankuna": 7504,
      "Ġbarka": 7505,
      "ĠÆĻarfi": 7506,
      "addancin": 7507,
      "ĠFrank": 7508,
      "Ġsaurayi": 7509,
      "Ġtsarkake": 7510,
      "Ġafuwa": 7511,
      "arsu": 7512,
      "ĠZo": 7513,
      "Ġgareshi": 7514,
      "ĠPhili": 7515,
      "Ġkwai": 7516,
      "ĠLATSA": 7517,
      "ĠTalabijin": 7518,
      "ĠPortugal": 7519,
      "ĠAddinin": 7520,
      "ĠSadiq": 7521,
      "Ġwajaba": 7522,
      "Ġ43": 7523,
      "WAM": 7524,
      "Ġel": 7525,
      "Ġwanan": 7526,
      "ĠYaro": 7527,
      "ĠABIN": 7528,
      "ĠSadarwa": 7529,
      "zuwa": 7530,
      "Ġtab": 7531,
      "ĠWutar": 7532,
      "best": 7533,
      "Ġfin": 7534,
      "Ġfage": 7535,
      "ĠUwa": 7536,
      "Ġkwant": 7537,
      "ĠHarshen": 7538,
      "ĠkarÉĵar": 7539,
      "Ġrad": 7540,
      "Ġzartas": 7541,
      "ĠÆĻauna": 7542,
      "ĠOnline": 7543,
      "tions": 7544,
      "Ġsanyawa": 7545,
      "Ġtebur": 7546,
      "BE": 7547,
      "Ġtallata": 7548,
      "Ġmasani": 7549,
      "Ġbita": 7550,
      "daidai": 7551,
      "ĠTitin": 7552,
      "Ġlallasa": 7553,
      "ĠBaka": 7554,
      "shekara": 7555,
      "Ġwariyar": 7556,
      "inista": 7557,
      "ĠTeh": 7558,
      "ĠLiberia": 7559,
      "Ġzazzabin": 7560,
      "Ġtsora": 7561,
      "Har": 7562,
      "Ġhaduwa": 7563,
      "Ġlarabawa": 7564,
      "kwam": 7565,
      "Ġbadakalar": 7566,
      "Ġdarikar": 7567,
      "isin": 7568,
      "Ġmahauka": 7569,
      "Ġmarta": 7570,
      "ĠZABEN": 7571,
      "Ġbat": 7572,
      "iland": 7573,
      "Ġdalibi": 7574,
      "ĠiPhone": 7575,
      "100": 7576,
      "takar": 7577,
      "Ġtal": 7578,
      "Ġmene": 7579,
      "Ġtsat": 7580,
      "ĠSamuel": 7581,
      "Shabab": 7582,
      "Ġwanna": 7583,
      "Ġtakaran": 7584,
      "Ġrasuwa": 7585,
      "Ġrijiya": 7586,
      "Ġkunne": 7587,
      "vin": 7588,
      "Ġassa": 7589,
      "Ġkarkatar": 7590,
      "Ġkullun": 7591,
      "Ġaddabi": 7592,
      "Ġsashi": 7593,
      "ĠEk": 7594,
      "Ġumurni": 7595,
      "lta": 7596,
      "yyen": 7597,
      "Ä±": 7598,
      "Ġ57": 7599,
      "Ġnace": 7600,
      "Ġceton": 7601,
      "hohin": 7602,
      "nia": 7603,
      "lub": 7604,
      "Ġkwakwal": 7605,
      "Ġfushin": 7606,
      "Ġwac": 7607,
      "ĠRoma": 7608,
      "tsen": 7609,
      "hehe": 7610,
      "Ġsirrin": 7611,
      "illary": 7612,
      "kko": 7613,
      "Ġsannu": 7614,
      "Ġqasa": 7615,
      "nugu": 7616,
      "Ġmaimai": 7617,
      "urai": 7618,
      "Ġzancen": 7619,
      "ĠHiki": 7620,
      "ĠYamai": 7621,
      "ĠMorocco": 7622,
      "Ġzina": 7623,
      "ĠYajin": 7624,
      "okuradiyya": 7625,
      "uhani": 7626,
      "ĠKata": 7627,
      "Ġkantin": 7628,
      "Ġcanje": 7629,
      "Mus": 7630,
      "Ġmasar": 7631,
      "Ġidanun": 7632,
      "Ġmukaminsa": 7633,
      "test": 7634,
      "ĠWasallam": 7635,
      "Ġtali": 7636,
      "hir": 7637,
      "cer": 7638,
      "ĠNai": 7639,
      "inawa": 7640,
      "aramin": 7641,
      "Ġayoyi": 7642,
      "ĠTri": 7643,
      "ĠManjo": 7644,
      "Ġ77": 7645,
      "ĠDubu": 7646,
      "ĠSUKA": 7647,
      "Ġfargaba": 7648,
      "gingi": 7649,
      "Ġmuggan": 7650,
      "ĠZuba": 7651,
      "ony": 7652,
      "ĠHadin": 7653,
      "ĠUban": 7654,
      "ĠriÆĻa": 7655,
      "ĠMiji": 7656,
      "âĢĻ.": 7657,
      "ttafai": 7658,
      "Ġburge": 7659,
      "funan": 7660,
      "uff": 7661,
      "ĠPet": 7662,
      "ello": 7663,
      "Ġrugu": 7664,
      "Ġtakaddama": 7665,
      "Ġfitattun": 7666,
      "ĠFebru": 7667,
      "xel": 7668,
      "Ġwanannan": 7669,
      "Ġkanshi": 7670,
      "Ã£li": 7671,
      "lue": 7672,
      "ĠChris": 7673,
      "wato": 7674,
      "Ġroba": 7675,
      "ĠdÃ£": 7676,
      "ĠTECH": 7677,
      "ĠJune": 7678,
      "ĠPhoto": 7679,
      "ĠMazauna": 7680,
      "mban": 7681,
      "Ġfinafinan": 7682,
      "Ġgwargwa": 7683,
      "ĠmutÃ£ne": 7684,
      "ĠMawakin": 7685,
      "Ġjinjina": 7686,
      "ĠZidane": 7687,
      "ĠMagan": 7688,
      "you": 7689,
      "Ġharajin": 7690,
      "gy": 7691,
      "ĠMAG": 7692,
      "ĠEnugu": 7693,
      "Am": 7694,
      "Lalle": 7695,
      "ĠIsyaku": 7696,
      "USHI": 7697,
      "ĠSpaniya": 7698,
      "Ġfitarwa": 7699,
      "ĠHillary": 7700,
      "mul": 7701,
      "Ġkishi": 7702,
      "ĠNeymar": 7703,
      "Ġmaganganun": 7704,
      "WO": 7705,
      "Ġdemokra": 7706,
      "Ġhatta": 7707,
      "ĠHallaka": 7708,
      "Ġtabo": 7709,
      "gers": 7710,
      "isa": 7711,
      "iyata": 7712,
      "tarin": 7713,
      "Ġshafar": 7714,
      "Ġmahaifinsa": 7715,
      "ĠKwankwasiyya": 7716,
      "ĠBayanin": 7717,
      "cow": 7718,
      "Ġdoki": 7719,
      "russ": 7720,
      "Ġzantawa": 7721,
      "Ġsadu": 7722,
      "rabawa": 7723,
      "usse": 7724,
      "ĠAmurkan": 7725,
      "Ġfashewar": 7726,
      "Ġfayiloli": 7727,
      "ĠPLAZA": 7728,
      "ĠFebruary": 7729,
      "auna": 7730,
      "Ġcocin": 7731,
      "ĠAustralia": 7732,
      "ĠMUSUL": 7733,
      "ĠBas": 7734,
      "curren": 7735,
      "ftin": 7736,
      "Ġyaga": 7737,
      "ĠIzala": 7738,
      "Ġkasarsu": 7739,
      "Ġdaraktan": 7740,
      "ĠAmurika": 7741,
      "Ġzartarwa": 7742,
      "ĠFifa": 7743,
      "Tun": 7744,
      "duk": 7745,
      "kala": 7746,
      "end": 7747,
      "ĠWurin": 7748,
      "ĠSHIR": 7749,
      "ĠSENI": 7750,
      "Ġzin": 7751,
      "ĠCAN": 7752,
      "Ġmotsi": 7753,
      "suke": 7754,
      "Ġillar": 7755,
      "ĠTabbas": 7756,
      "ĠTAMBAYO": 7757,
      "ĠSENIORA": 7758,
      "Ġtafkin": 7759,
      "ĠHatsar": 7760,
      "Ġtsager": 7761,
      "voire": 7762,
      "Amma": 7763,
      "jam": 7764,
      "Ġtako": 7765,
      "Ġsarautar": 7766,
      "ĠMahama": 7767,
      "ĠKoda": 7768,
      "Ġmahalarta": 7769,
      "dayake": 7770,
      "Ġattaj": 7771,
      "Ġbn": 7772,
      "ĠTuna": 7773,
      "eld": 7774,
      "Ġuwansa": 7775,
      "ĠTO": 7776,
      "ming": 7777,
      "bura": 7778,
      "Ġdif": 7779,
      "ĠKusa": 7780,
      "Ġshaye": 7781,
      "Ġalai": 7782,
      "ĠAlmasihu": 7783,
      "ĠEver": 7784,
      "???": 7785,
      "Ġsharuddan": 7786,
      "gaza": 7787,
      "ĠGABA": 7788,
      "Ġfallasa": 7789,
      "Ġjadawalin": 7790,
      "Ġranakun": 7791,
      "Ġlauyan": 7792,
      "ĠMinna": 7793,
      "Ġduhu": 7794,
      "ĠRoad": 7795,
      "adinai": 7796,
      "Ġlauya": 7797,
      "Ġarangama": 7798,
      "42": 7799,
      "arewa": 7800,
      "Ġtilastawa": 7801,
      "uan": 7802,
      "lace": 7803,
      "Ġ52": 7804,
      "adam": 7805,
      "Ġkwalejin": 7806,
      "ĠAy": 7807,
      "mbar": 7808,
      "Ġkm": 7809,
      "ĠIbom": 7810,
      ".âĢĶ": 7811,
      "Ġzana": 7812,
      "ĠHadarin": 7813,
      "warewa": 7814,
      "Ġrigakafin": 7815,
      "ddar": 7816,
      "ĠLima": 7817,
      "Ġrashi": 7818,
      "ĠRahma": 7819,
      "âĺĨ": 7820,
      "ffan": 7821,
      "Ġmatu": 7822,
      "ĠKristi": 7823,
      "Ġyanzun": 7824,
      "ĠKASA": 7825,
      "Ġaikewa": 7826,
      "Ġari": 7827,
      "Ġajalin": 7828,
      "Ġsarakunan": 7829,
      "ĠOkorocha": 7830,
      "taro": 7831,
      "Ġrama": 7832,
      "Ġfado": 7833,
      "iao": 7834,
      "twork": 7835,
      "Ġyaren": 7836,
      "adua": 7837,
      "gidanci": 7838,
      "ĠTaimakawa": 7839,
      "ĠMahaifiyar": 7840,
      "Ġnas": 7841,
      "ĠKadai": 7842,
      "mantar": 7843,
      "ĠBuharin": 7844,
      "ĠFrance": 7845,
      "ĠDO": 7846,
      "ĠSunusi": 7847,
      "ĠSep": 7848,
      "ryptocurren": 7849,
      "ĠAI": 7850,
      "Ġbawan": 7851,
      "Ġzagon": 7852,
      "Ġzarafi": 7853,
      "Adua": 7854,
      "Ġsane": 7855,
      "ĠMuslim": 7856,
      "Ġmem": 7857,
      "uwadi": 7858,
      "Ġharbin": 7859,
      "ĠMusulmin": 7860,
      "Ġtsananta": 7861,
      "Ġkarbuwa": 7862,
      "Ġadama": 7863,
      "Ġkarewa": 7864,
      "ĠDie": 7865,
      "ĠComputer": 7866,
      "tr": 7867,
      "Ġsayo": 7868,
      "Ġmani": 7869,
      "Ġwakilinmu": 7870,
      "Ġbankado": 7871,
      "qin": 7872,
      "tho": 7873,
      "ĠInter": 7874,
      "Ġ66": 7875,
      ".(": 7876,
      "Ġchan": 7877,
      "ĠBruss": 7878,
      "Mo": 7879,
      "ĠsÅ©": 7880,
      "ĠAP": 7881,
      "ĠBuba": 7882,
      "sunsu": 7883,
      "Ġmuhammadu": 7884,
      "tomatik": 7885,
      "ĠStar": 7886,
      "Ġgafara": 7887,
      "Ġsiyasan": 7888,
      "Ġmuryar": 7889,
      "Ġkwararrun": 7890,
      "=\"": 7891,
      "SO": 7892,
      "ĠShima": 7893,
      "ĠIngilishi": 7894,
      "Ġ2005": 7895,
      "Ġasibitoci": 7896,
      "ĠÙĪ": 7897,
      "Ä«": 7898,
      "Ġback": 7899,
      "Ġzanen": 7900,
      "ĠAiken": 7901,
      "ĠHis": 7902,
      "ĠJuyin": 7903,
      "ĠKuwa": 7904,
      "Ġdum": 7905,
      "Ġzazza": 7906,
      "amurran": 7907,
      "Ġroko": 7908,
      "Ġgajiya": 7909,
      "eriya": 7910,
      "Ġgamayyar": 7911,
      "Ġgurfana": 7912,
      "fita": 7913,
      "issa": 7914,
      "Ġjarumi": 7915,
      "ĠAzumi": 7916,
      "diddigar": 7917,
      "luman": 7918,
      "umman": 7919,
      "Ġkanku": 7920,
      "Ġjimawa": 7921,
      "hoo": 7922,
      "ĠYarima": 7923,
      "Ġwe": 7924,
      "ĠDanba": 7925,
      "ĠKwaikwa": 7926,
      "NAH": 7927,
      "ĠTasirin": 7928,
      "ĠKaka": 7929,
      "mushi": 7930,
      "gua": 7931,
      "Ġwaxanda": 7932,
      "Ġaura": 7933,
      "ĠAZ": 7934,
      "ĠIndi": 7935,
      "Ġrigi": 7936,
      "Ġingantaccen": 7937,
      "ghts": 7938,
      "ĠLAFI": 7939,
      "Babu": 7940,
      "Ġkawance": 7941,
      "80": 7942,
      "Shin": 7943,
      "Ġyawaita": 7944,
      "ĠNY": 7945,
      "Ġyaje": 7946,
      "Ġjika": 7947,
      "Ġkasarnan": 7948,
      "Ġ56": 7949,
      "Ġkamo": 7950,
      "Ġharka": 7951,
      "ĠBirge": 7952,
      "oldid": 7953,
      "ĠYasa": 7954,
      "tsun": 7955,
      "Ġrediyon": 7956,
      "ĠJibrin": 7957,
      "tsalandan": 7958,
      "ĠKatin": 7959,
      "ĠLabarun": 7960,
      "meh": 7961,
      "ĠKoyar": 7962,
      "ĠÆĺar": 7963,
      "ĠkÃ£f": 7964,
      "Ġbaha": 7965,
      "ĠNu": 7966,
      "cis": 7967,
      "Ġbabur": 7968,
      "Ġkafada": 7969,
      "ĠMarch": 7970,
      "Ġmafiya": 7971,
      "ĠMB": 7972,
      "Ġbro": 7973,
      "ARIN": 7974,
      "Ġgayawa": 7975,
      "tain": 7976,
      "ĠZAM": 7977,
      "tuwar": 7978,
      "Ġzance": 7979,
      "ĠYarda": 7980,
      "ĠAsalin": 7981,
      "ĠGaskiyar": 7982,
      "ĠkÉĽ": 7983,
      "itu": 7984,
      "usk": 7985,
      ");": 7986,
      "Ġbayi": 7987,
      "Ġth": 7988,
      "ĠThailand": 7989,
      "ED": 7990,
      "dume": 7991,
      "Ġkazalika": 7992,
      "Ġmasi": 7993,
      "ons": 7994,
      "farawa": 7995,
      "ĠShafuka": 7996,
      "Ġragowar": 7997,
      "akai": 7998,
      "Ġkann": 7999,
      "bou": 8000,
      "ĠUng": 8001,
      "ĠOrtom": 8002,
      "Ġlalace": 8003,
      "ĠmaÉĵ": 8004,
      "Ġwal": 8005,
      "ĠWiki": 8006,
      "berg": 8007,
      "ten": 8008,
      "py": 8009,
      "wirar": 8010,
      "ĠDuka": 8011,
      "lie": 8012,
      "Ġplay": 8013,
      "Ġiyayensu": 8014,
      "kira": 8015,
      "ĠNahiyar": 8016,
      "Ġraina": 8017,
      "ĠShawara": 8018,
      "Ġway": 8019,
      "'m": 8020,
      "ĠTayyi": 8021,
      "ĠWatsa": 8022,
      "Ġjinkir": 8023,
      "ĠVan": 8024,
      "Ġhadisin": 8025,
      "ĠPlate": 8026,
      "uality": 8027,
      "riyar": 8028,
      "Ġjariri": 8029,
      "kamar": 8030,
      "Ġrajin": 8031,
      "ĠModu": 8032,
      "ĠVenezuela": 8033,
      "Ġkomi": 8034,
      "Ġtsallaka": 8035,
      "ĠIssou": 8036,
      "Ġkasuwanni": 8037,
      "arigayin": 8038,
      "daza": 8039,
      "ĠSahara": 8040,
      "ĠTashi": 8041,
      "chael": 8042,
      "UMI": 8043,
      "ese": 8044,
      "ĠChe": 8045,
      "Ġjigon": 8046,
      "Ġmukaman": 8047,
      "dge": 8048,
      "cast": 8049,
      "ek": 8050,
      "ĠRibas": 8051,
      "ĠMandela": 8052,
      "ĠAbdullah": 8053,
      "DIN": 8054,
      "tha": 8055,
      "ĠMansur": 8056,
      "Ġazur": 8057,
      "ĠTallafawa": 8058,
      "ĠSahel": 8059,
      "ĠBaki": 8060,
      "ĠWakilan": 8061,
      "Do": 8062,
      "ĠSim": 8063,
      "Ġzarginsu": 8064,
      "AMMA": 8065,
      "Ġmarayu": 8066,
      "Ġnagari": 8067,
      "Ġfarautar": 8068,
      "ĠLiga": 8069,
      "ĠYaran": 8070,
      "Ġxan": 8071,
      "Ġgwabza": 8072,
      "Ġbabi": 8073,
      "ĠMore": 8074,
      "Ġtsaurara": 8075,
      "Ġtazarar": 8076,
      "ĠAjiye": 8077,
      "Ġkika": 8078,
      "Ġwucewa": 8079,
      "ĠMohamed": 8080,
      "aba": 8081,
      "istan": 8082,
      "Ġmasoyan": 8083,
      "ĠMoscow": 8084,
      "Ġdaloli": 8085,
      "Ġsura": 8086,
      "Ġtabbaci": 8087,
      "Ġ61": 8088,
      "cker": 8089,
      "Ġqu": 8090,
      "Ġrijista": 8091,
      "br": 8092,
      "ĠSMS": 8093,
      "ĠHaki": 8094,
      "daren": 8095,
      "Ġtsakaninta": 8096,
      "Ġhalayyar": 8097,
      "lanta": 8098,
      "Ġkiraye": 8099,
      "ĠDemocrat": 8100,
      "nabawa": 8101,
      "ĠYanda": 8102,
      "vah": 8103,
      "ĠSulhu": 8104,
      "Ġrahusa": 8105,
      "Zakzaky": 8106,
      "cester": 8107,
      "KUN": 8108,
      "mashi": 8109,
      "ĠWASHING": 8110,
      "99": 8111,
      "Ġuba": 8112,
      "ÉĶg": 8113,
      "ĠWASHINGTON": 8114,
      "ĠShigo": 8115,
      "Ġgobarar": 8116,
      "Ġpi": 8117,
      "Ġmazajen": 8118,
      "ĠAlaka": 8119,
      "Ġduminsa": 8120,
      "ĠME": 8121,
      "ĠCong": 8122,
      "Ġwo": 8123,
      "ĠBill": 8124,
      "kance": 8125,
      "Ġdauda": 8126,
      "ĠBrussels": 8127,
      "++": 8128,
      "LC": 8129,
      "rani": 8130,
      "Ġ53": 8131,
      "Ġkuduri": 8132,
      "Is": 8133,
      "IDA": 8134,
      "ĠMaima": 8135,
      "edit": 8136,
      "ganci": 8137,
      "ĠCeto": 8138,
      "ĠGbagbo": 8139,
      "!\"": 8140,
      "aw": 8141,
      "hy": 8142,
      "ric": 8143,
      "cher": 8144,
      "yukan": 8145,
      "sing": 8146,
      "ĠKasi": 8147,
      "Ġtsadar": 8148,
      "Ġsaita": 8149,
      "Ġalaihi": 8150,
      "ster": 8151,
      "ĠKanar": 8152,
      "eration": 8153,
      "Ġjinyar": 8154,
      "ĠMunich": 8155,
      "kwambo": 8156,
      "ĠyaÆĻin": 8157,
      "gali": 8158,
      "Ġsala": 8159,
      "ĠShigar": 8160,
      "ĠÆ´": 8161,
      "ĠDaruruwan": 8162,
      "Ġlissafin": 8163,
      "****": 8164,
      "Ġzabab": 8165,
      "ĠNaka": 8166,
      "ĠZum": 8167,
      "Ġ54": 8168,
      "Ġsulhun": 8169,
      "tember": 8170,
      "ĠBABBAN": 8171,
      "Ġsabu": 8172,
      "ĠDok": 8173,
      "Ġjikinsu": 8174,
      "Ġkatse": 8175,
      "amar": 8176,
      "ĠAmeen": 8177,
      "huta": 8178,
      "Ġkamfen": 8179,
      "ĠMartani": 8180,
      "Ġjaririn": 8181,
      "Ġrajistar": 8182,
      "km": 8183,
      "ĠSanatoci": 8184,
      "ĠKaratu": 8185,
      "Ġbazata": 8186,
      "weden": 8187,
      "Ġsarra": 8188,
      "ĠKiran": 8189,
      "Ġnasarorin": 8190,
      "hali": 8191,
      "Ġkaifin": 8192,
      "Ġtafs": 8193,
      "Ġhurumin": 8194,
      "ĠIssoufou": 8195,
      "kame": 8196,
      "Ġtashen": 8197,
      "ĠKabir": 8198,
      "Ġwanzu": 8199,
      "ĠAdadin": 8200,
      "Ġsintiri": 8201,
      "ishadi": 8202,
      "ĠYansanda": 8203,
      "Ġmarubucin": 8204,
      "Ġtalakawan": 8205,
      "Gwamna": 8206,
      "Ġkawayen": 8207,
      "ĠNana": 8208,
      "Ġhawaye": 8209,
      "Ġfayya": 8210,
      "Ġadadi": 8211,
      "tikar": 8212,
      "ĠPapar": 8213,
      "ĠQur": 8214,
      "ĠCote": 8215,
      "Ġkebantawa": 8216,
      "Ġmartabar": 8217,
      "ĠMakamai": 8218,
      "ĠHafi": 8219,
      "Ġ600": 8220,
      "Ġofisoshin": 8221,
      "Ġkaca": 8222,
      "ĠKuri": 8223,
      "ĠMUTUM": 8224,
      "Ġkamin": 8225,
      "ĠSeni": 8226,
      "ĠWada": 8227,
      "ĠDariya": 8228,
      "ĠPSG": 8229,
      "Ġatomatik": 8230,
      "ĠAkin": 8231,
      "ĠKafar": 8232,
      "ĠSaidai": 8233,
      "tÃ£wa": 8234,
      "daga": 8235,
      "Ġaku": 8236,
      "ĠOur": 8237,
      "ĠAji": 8238,
      "Ġratsa": 8239,
      "ĠSheri": 8240,
      "maila": 8241,
      "ĠMarafa": 8242,
      "'t": 8243,
      "ĠMy": 8244,
      "Ġyancin": 8245,
      "Ġtoh": 8246,
      "Ġtaimaki": 8247,
      "ĠTogo": 8248,
      "ĠAsibitocin": 8249,
      "Bo": 8250,
      "II": 8251,
      "uhun": 8252,
      "Ġyu": 8253,
      "Ġkoyarwar": 8254,
      "ĠADAM": 8255,
      "ĠKUN": 8256,
      "ĠLashe": 8257,
      "ĠDemocratic": 8258,
      "urruka": 8259,
      "TM": 8260,
      "ska": 8261,
      "Ġkwari": 8262,
      "Ġdawowar": 8263,
      "ĠMaganar": 8264,
      "logy": 8265,
      "Ġmazha": 8266,
      "chool": 8267,
      "umfashi": 8268,
      "barak": 8269,
      "Ġkato": 8270,
      "ĠWorld": 8271,
      "ĠDanjuma": 8272,
      "ĠSwit": 8273,
      "banta": 8274,
      "Ġsunaye": 8275,
      "ĠMartin": 8276,
      "ĠMatakan": 8277,
      "Ġ800": 8278,
      "ĠEverton": 8279,
      "Åį": 8280,
      "ĠkaÉĹan": 8281,
      "ĠTauraron": 8282,
      "towa": 8283,
      "Ġmakale": 8284,
      "Ġkwamishin": 8285,
      "Ġsallami": 8286,
      "Ġtafiye": 8287,
      "ajabi": 8288,
      "Sheikh": 8289,
      "mara": 8290,
      "able": 8291,
      "Ġhedkwatar": 8292,
      "ĠyÃ£": 8293,
      "casino": 8294,
      "Ġtsuntsaye": 8295,
      "ssar": 8296,
      "Ġayoyin": 8297,
      "Ġkakan": 8298,
      "ĠSON": 8299,
      "Ġsanyin": 8300,
      "ĠKujer": 8301,
      "Ġrigingi": 8302,
      "ĠHakazalika": 8303,
      "ĠGaladima": 8304,
      "ĠSPD": 8305,
      "Ġcryptocurren": 8306,
      "ĠØ¹": 8307,
      "ĠLeicester": 8308,
      "ÆĻai": 8309,
      "Ġkaimi": 8310,
      "ĠMogadi": 8311,
      "Ġallurar": 8312,
      "Ġkoshin": 8313,
      "ĠFetur": 8314,
      "Ġkarantar": 8315,
      "Ġrarra": 8316,
      "Ġjikan": 8317,
      "Ġkalmarka": 8318,
      "41": 8319,
      "ĠBafarawa": 8320,
      "ÉĶr": 8321,
      "Ġreal": 8322,
      "ĠFasaha": 8323,
      "Ġrani": 8324,
      "ĠWaÉĹ": 8325,
      "Ġbango": 8326,
      "ĠJim": 8327,
      "ĠSeptember": 8328,
      "Abu": 8329,
      "gur": 8330,
      "Ġprice": 8331,
      "ĠKenan": 8332,
      "ĠJIN": 8333,
      "ĠZAN": 8334,
      "ĠPR": 8335,
      "Ġziyartar": 8336,
      "Ġkujera": 8337,
      "Ġkuskuren": 8338,
      "Ġspam": 8339,
      "Ġmasaniya": 8340,
      "Ġukun": 8341,
      "ĠRamin": 8342,
      "Ġkunsa": 8343,
      "ðŁĺ": 8344,
      "Ġsharri": 8345,
      "ĠJehovah": 8346,
      "ĠDaidai": 8347,
      "Ġthis": 8348,
      "Ġgafarta": 8349,
      "Ġkawowa": 8350,
      "ĠKammala": 8351,
      "ĠCongress": 8352,
      "The": 8353,
      "Â·": 8354,
      "ĠKame": 8355,
      "ĠDaji": 8356,
      "dojin": 8357,
      "ĠDankwambo": 8358,
      "Ġtsirrai": 8359,
      "ĠBitcoin": 8360,
      "wikipedia": 8361,
      "Ġkatan": 8362,
      "Ġkalilan": 8363,
      "ĠAFP": 8364,
      "Ġmiki": 8365,
      "ĠSufe": 8366,
      "ĠMarayu": 8367,
      "ĠMiye": 8368,
      "Ġhaushi": 8369,
      "Ġhukumance": 8370,
      "ĠAsso": 8371,
      "ikwatar": 8372,
      "Ġkadarorin": 8373,
      "gala": 8374,
      "lib": 8375,
      "ĠGumi": 8376,
      "ĠFre": 8377,
      "ĠGobara": 8378,
      "Ġficewar": 8379,
      "Ġsharhin": 8380,
      "BO": 8381,
      "ĠmiÆĻa": 8382,
      "Ġmijina": 8383,
      "Ġsarrafawa": 8384,
      "mdu": 8385,
      "Ġasara": 8386,
      "Ġ120": 8387,
      "Ġ2004": 8388,
      "Ġtuntubi": 8389,
      "Ġtsufa": 8390,
      "thiop": 8391,
      "Ġdakunan": 8392,
      "Ġjituwa": 8393,
      "Ġalmunda": 8394,
      "bel": 8395,
      "ĠNAS": 8396,
      "gwayen": 8397,
      "aziyya": 8398,
      "Ġgalibin": 8399,
      "Ġtarbiyya": 8400,
      "Ġlafa": 8401,
      "53": 8402,
      "uu": 8403,
      "Ġjihadi": 8404,
      "Ġbugu": 8405,
      "Ġmukaddashin": 8406,
      "ĠbuÆĻata": 8407,
      "Ġsittin": 8408,
      "ĠHOTUNA": 8409,
      "Ġ}": 8410,
      "ĠDji": 8411,
      "irci": 8412,
      "Ġamman": 8413,
      "ĠAsibitin": 8414,
      "Ġor": 8415,
      "Ġ\\\\": 8416,
      "Ġst": 8417,
      "ĠFur": 8418,
      "Nigeria": 8419,
      "ĠPlateau": 8420,
      "ĠdÅ©": 8421,
      "Ġbayyanan": 8422,
      "ĠFalasdinu": 8423,
      "rogram": 8424,
      "GC": 8425,
      "Ġ%": 8426,
      "Ġara": 8427,
      "Ġdaba": 8428,
      "lic": 8429,
      "Ġshiryen": 8430,
      "Lo": 8431,
      "ĠEpisode": 8432,
      "Ġmanoman": 8433,
      "Ġtofa": 8434,
      "Ġhaihu": 8435,
      "ĠBooth": 8436,
      "Ġmis": 8437,
      "liam": 8438,
      "kwata": 8439,
      "ĠAbda": 8440,
      "REE": 8441,
      "ĠMUSIC": 8442,
      "Ġbayana": 8443,
      "Ġdinsa": 8444,
      "ĠTAUSHI": 8445,
      "UTA": 8446,
      "unku": 8447,
      "sat": 8448,
      "Ġsawa": 8449,
      "Ġbiye": 8450,
      "Ġgangar": 8451,
      "ĠKamu": 8452,
      "Ġgara": 8453,
      "ĠNational": 8454,
      "Ġkanjamau": 8455,
      "ĠKomai": 8456,
      "uraran": 8457,
      "Ġofis": 8458,
      "ĠBayern": 8459,
      "Ġfannonin": 8460,
      "ĠCharles": 8461,
      "ËĪ": 8462,
      "ukkan": 8463,
      "Ġraha": 8464,
      "ĠTurawa": 8465,
      "ĠGoma": 8466,
      "51": 8467,
      "word": 8468,
      "ĠTsun": 8469,
      "Ġgadar": 8470,
      "Ġlatsa": 8471,
      "Ġfif": 8472,
      "ĠOf": 8473,
      "ĠKwale": 8474,
      "ĠSirrin": 8475,
      "Ġizuwa": 8476,
      "Ġgamsar": 8477,
      "Ġbasasa": 8478,
      "ÙĦÙħ": 8479,
      "Ġhamayyar": 8480,
      "Ġukku": 8481,
      "ĠTAMBAYOYI": 8482,
      "pre": 8483,
      "Ġwanene": 8484,
      "Ġjur": 8485,
      "ĠNoma": 8486,
      "Ġmuyi": 8487,
      "Ġtouch": 8488,
      "ÙĦÙĩ": 8489,
      "Ġhaskaka": 8490,
      "HAMA": 8491,
      "ĠWATA": 8492,
      "ĠSultan": 8493,
      "Ġhidimar": 8494,
      "ĠSojan": 8495,
      "abota": 8496,
      "tura": 8497,
      "Ġ1000": 8498,
      "Ġimam": 8499,
      "yp": 8500,
      "ĠPen": 8501,
      "Ġharamtawa": 8502,
      "ĠAMIN": 8503,
      "kurai": 8504,
      "Ġmadugun": 8505,
      "ĠDen": 8506,
      "aben": 8507,
      "Ġgidauniyar": 8508,
      "Ġwakoki": 8509,
      "ĠKoci": 8510,
      "Ġwasanta": 8511,
      "ĠMawaki": 8512,
      "Ġdas": 8513,
      "ĠGyar": 8514,
      "ĠInternet": 8515,
      "Ġtsattsauran": 8516,
      "ĠSweden": 8517,
      "ĠYahya": 8518,
      "lls": 8519,
      "Ġbarkwan": 8520,
      "ĠriÆĻe": 8521,
      "Ġhakura": 8522,
      "FAR": 8523,
      "tanya": 8524,
      "Ġdukiyoyin": 8525,
      "ĠLikitoci": 8526,
      "Ġninka": 8527,
      "Ġshimfida": 8528,
      "ĠGum": 8529,
      "ddam": 8530,
      "ĠGabatar": 8531,
      "2005": 8532,
      "ĠTambayoyin": 8533,
      "sauyen": 8534,
      "lass": 8535,
      "deen": 8536,
      "ĠFaran": 8537,
      "ĠPage": 8538,
      "Ġfanni": 8539,
      "ĠSHEIKH": 8540,
      "Ġ59": 8541,
      "ĠGodiya": 8542,
      "Ġtsiya": 8543,
      "ĠsabÃµda": 8544,
      "Ġsakatariyar": 8545,
      "HE": 8546,
      "ture": 8547,
      "Ġsakonni": 8548,
      "Zan": 8549,
      "hani": 8550,
      "ĠMotar": 8551,
      "Ġmatsanancin": 8552,
      "usan": 8553,
      "vel": 8554,
      "Ġama": 8555,
      "Ġmp": 8556,
      "ĠGaya": 8557,
      "hul": 8558,
      "ĠSAI": 8559,
      "IYU": 8560,
      "ĠAnambra": 8561,
      "Ġfayyace": 8562,
      "BAR": 8563,
      "info": 8564,
      "Ġfarmakin": 8565,
      "Ġshiriya": 8566,
      "Ġmahaifiyarsa": 8567,
      "88": 8568,
      "ĠYÃ£": 8569,
      "Ġbukatan": 8570,
      "now": 8571,
      "Ġabokiyar": 8572,
      "ĠDiffa": 8573,
      "Ke": 8574,
      "Ġyahu": 8575,
      "ĠTsin": 8576,
      "ĠTrans": 8577,
      "meti": 8578,
      "ĠEthiop": 8579,
      "ĠBinuwai": 8580,
      "ĠHanci": 8581,
      "Ġlaifuff": 8582,
      "ĠMaslaha": 8583,
      "Ġgajeren": 8584,
      "ĠMike": 8585,
      "ĠBon": 8586,
      "ĠBiri": 8587,
      "ĠkaÉĹai": 8588,
      "ilan": 8589,
      "ĠVal": 8590,
      "Ġaddabar": 8591,
      "ĠAngola": 8592,
      "Ġjinkirta": 8593,
      "tro": 8594,
      "ĠAso": 8595,
      "ĠMT": 8596,
      "âĢ²": 8597,
      "ĠGani": 8598,
      "wser": 8599,
      "Ib": 8600,
      "Ġaikinta": 8601,
      "ĠAlhassan": 8602,
      "Ġkujeru": 8603,
      "Ġmaganganu": 8604,
      "Ġgurbata": 8605,
      "Kai": 8606,
      "Ġzage": 8607,
      "jack": 8608,
      "ogba": 8609,
      "Ãµyin": 8610,
      "ĠGambiya": 8611,
      "Ã³": 8612,
      "ĠSanin": 8613,
      "Ġze": 8614,
      "ĠMat": 8615,
      "ĠKaza": 8616,
      "ller": 8617,
      "tsare": 8618,
      "ĠÉĹari": 8619,
      "Ġginshi": 8620,
      "Ivoire": 8621,
      "iza": 8622,
      "ĠBagadaza": 8623,
      "yansandan": 8624,
      "ĠJul": 8625,
      "cob": 8626,
      "zerland": 8627,
      "val": 8628,
      "ĠDaf": 8629,
      "Ġkarara": 8630,
      "Ġ700": 8631,
      "Ġalkali": 8632,
      "Ġsammai": 8633,
      "ĠAshafa": 8634,
      "bino": 8635,
      "Ġkila": 8636,
      "Ġjarrabawa": 8637,
      "Ġwalwala": 8638,
      "ĠHatsarin": 8639,
      "timi": 8640,
      "ĠSami": 8641,
      "ĠGud": 8642,
      "ĠSHAFI": 8643,
      "ystem": 8644,
      "ace": 8645,
      "Ġthat": 8646,
      "ĠITA": 8647,
      "ĠDaukar": 8648,
      "ĠBadar": 8649,
      "ĠSeniora": 8650,
      "sto": 8651,
      "Ġkawa": 8652,
      "Ġche": 8653,
      "ĠMad": 8654,
      "ĠÆĻwarai": 8655,
      "Ġqara": 8656,
      "ĠFal": 8657,
      "opa": 8658,
      "ĠÆĻafa": 8659,
      "ĠMichael": 8660,
      "Ġex": 8661,
      "Ġagogon": 8662,
      "ĠYunkurin": 8663,
      "Ġmaimaita": 8664,
      "Ġhall": 8665,
      "ĠSakan": 8666,
      "ĠAlqur": 8667,
      "Ġlikitan": 8668,
      "ĠMinistocin": 8669,
      "ĠSalisu": 8670,
      "Tube": 8671,
      "fari": 8672,
      "Ġzirin": 8673,
      "Ġguguwar": 8674,
      "Ġtanadar": 8675,
      "Ġtattaro": 8676,
      "ÙĦÙĬ": 8677,
      "ĠIbadan": 8678,
      "Don": 8679,
      "Ġfaduwa": 8680,
      "Ġzarginsa": 8681,
      "ĠRAY": 8682,
      "ĠTayyip": 8683,
      "ĠMiyetti": 8684,
      "Ġsatin": 8685,
      "ĠGAN": 8686,
      "eda": 8687,
      "Ġyasan": 8688,
      "ĠNukiliya": 8689,
      "tanbul": 8690,
      "Ġrata": 8691,
      "tube": 8692,
      "ĠOua": 8693,
      "Ġbatsa": 8694,
      "Ġzamantakewar": 8695,
      "Ġfasinjoji": 8696,
      "ĠFLASHIN": 8697,
      "YYA": 8698,
      "Ġtata": 8699,
      "ĠBuk": 8700,
      "Ġmafarki": 8701,
      "echi": 8702,
      "idu": 8703,
      "Ġsayan": 8704,
      "Ġkasarta": 8705,
      "Ġkaye": 8706,
      "Ġtutar": 8707,
      "ĠMubarak": 8708,
      "Ġgabanta": 8709,
      "Ġ250": 8710,
      "ĠFrancis": 8711,
      "Ġhujjar": 8712,
      "Ġ000": 8713,
      "ĠKwastam": 8714,
      "ĠCigaba": 8715,
      "ĠÆĻarya": 8716,
      "Ġtuwo": 8717,
      "sina": 8718,
      "ĠTauraruwar": 8719,
      "Ġrigakafi": 8720,
      "ĠalhÃ£li": 8721,
      "Ġfassarar": 8722,
      "Ġiphone": 8723,
      "raki": 8724,
      "Ġkamala": 8725,
      "ĠAminiya": 8726,
      "ĠHusain": 8727,
      "52": 8728,
      "poli": 8729,
      "ĠAugust": 8730,
      "Buhari": 8731,
      "lom": 8732,
      "allin": 8733,
      "ĠAnas": 8734,
      "ennis": 8735,
      "zamin": 8736,
      "Ġnamijin": 8737,
      "Ġkamawa": 8738,
      "bbabin": 8739,
      "Ġgidansu": 8740,
      "iriliyan": 8741,
      "ĠJaridu": 8742,
      "ĠTehran": 8743,
      "nabin": 8744,
      "ĠazÃ£": 8745,
      "ĠJega": 8746,
      "lha": 8747,
      "ĠBale": 8748,
      "aluba": 8749,
      "Ġbarnar": 8750,
      "Arewa": 8751,
      "wadai": 8752,
      "ĠAK": 8753,
      "Ġsabili": 8754,
      "ÉĶrÉĶ": 8755,
      "!âĢĿ": 8756,
      "Ġkyar": 8757,
      "anai": 8758,
      "usin": 8759,
      "ĠFayemi": 8760,
      "Ġkwashi": 8761,
      "ĠAfir": 8762,
      "ĠØ§ÙĦÙĦÙĩ": 8763,
      "Ġkahuta": 8764,
      "Ġwajab": 8765,
      "ĠGO": 8766,
      "ĠHaya": 8767,
      "Ġmurmushi": 8768,
      "ĠÆĻwaÆĻ": 8769,
      "ĠNYSC": 8770,
      "Ġak": 8771,
      "Ġtuma": 8772,
      "Ġburi": 8773,
      "ĠHami": 8774,
      "Ġrade": 8775,
      "chin": 8776,
      "ading": 8777,
      "xas": 8778,
      "ĠYarjejeniya": 8779,
      "Ġsoyayyar": 8780,
      "eric": 8781,
      "ĠSheriff": 8782,
      "ĠAS": 8783,
      "Ġadamu": 8784,
      "áº½wa": 8785,
      "Ġmakwabtaka": 8786,
      "ig": 8787,
      "Æĺ": 8788,
      "Ġdansa": 8789,
      "Ġtareda": 8790,
      "Ġoda": 8791,
      "ĠMobile": 8792,
      "ABAN": 8793,
      "ĠYouTube": 8794,
      "Ġdadd": 8795,
      "mam": 8796,
      "2010": 8797,
      "ĠÆĺasa": 8798,
      "gyare": 8799,
      "Ġdasa": 8800,
      "isyaku": 8801,
      "Ġ84": 8802,
      "Ġaboki": 8803,
      "ĠDaurawa": 8804,
      "ĠSwitzerland": 8805,
      "kowa": 8806,
      "ĠKubutar": 8807,
      "Ġmulkinsa": 8808,
      "ĠPeop": 8809,
      "lau": 8810,
      "ĠMik": 8811,
      "ĠICC": 8812,
      "Ġfasali": 8813,
      "ĠDanja": 8814,
      "ĠSauya": 8815,
      "ĠKundin": 8816,
      "Ġcomment": 8817,
      "Ġgawarwakin": 8818,
      "ĠWasika": 8819,
      "UL": 8820,
      "Ġkarbo": 8821,
      "ĠOla": 8822,
      "Ġkabilu": 8823,
      "Ġakida": 8824,
      "JE": 8825,
      "unch": 8826,
      "Ġmagaba": 8827,
      "ĠMarubu": 8828,
      "ĠGwar": 8829,
      "ĠGidauniyar": 8830,
      "ÉĶgÉĶ": 8831,
      "ĠAri": 8832,
      "ĠManta": 8833,
      "Ġbor": 8834,
      "ĠJammeh": 8835,
      "ĠGuar": 8836,
      "Ġtaho": 8837,
      "ĠBashar": 8838,
      "Ġkunno": 8839,
      "ĠRediyo": 8840,
      "ĠTai": 8841,
      "Ġgilla": 8842,
      "ĠLallai": 8843,
      "ĠMatashi": 8844,
      "Ġsaran": 8845,
      "Ġqa": 8846,
      "ĠGarga": 8847,
      "ĠOndo": 8848,
      "Ġkawunan": 8849,
      "opat": 8850,
      "Ġfusata": 8851,
      "77": 8852,
      "Re": 8853,
      "ĠFiri": 8854,
      "ĠhuÉĹu": 8855,
      "Ġhakki": 8856,
      "Ġmuminai": 8857,
      "Ġmoriyar": 8858,
      "Ġnanata": 8859,
      "ĠHen": 8860,
      "ĠIke": 8861,
      "ANAR": 8862,
      "Ġgonar": 8863,
      "ĠMogadishu": 8864,
      "abun": 8865,
      "ĠPer": 8866,
      "Ġcibiya": 8867,
      "ĠSunayen": 8868,
      "ĠANN": 8869,
      "ĠYIN": 8870,
      "ĠMalama": 8871,
      "azin": 8872,
      "ĠJawabin": 8873,
      "xx": 8874,
      "ĠKerry": 8875,
      "ĠMura": 8876,
      "lian": 8877,
      "ĠID": 8878,
      "ĠZazza": 8879,
      "Ġkwangila": 8880,
      "ĠBarno": 8881,
      "ĠAmfanin": 8882,
      "ppo": 8883,
      "tsuwar": 8884,
      "Daga": 8885,
      "ĠJanairun": 8886,
      "Ġainihi": 8887,
      "Ġsufurin": 8888,
      "ĠCIKI": 8889,
      "ĠÅ¾": 8890,
      "Ġkida": 8891,
      "alth": 8892,
      "ĠØµ": 8893,
      "ladesh": 8894,
      "tanyahu": 8895,
      "Adam": 8896,
      "NE": 8897,
      "ĠBonus": 8898,
      "uwansa": 8899,
      "ĠAlla": 8900,
      "kwal": 8901,
      "ĠSheik": 8902,
      "Ġshafinmu": 8903,
      "vice": 8904,
      "Ġgudunmawar": 8905,
      "Ġlafiyarsa": 8906,
      "ĠTSARKI": 8907,
      "Ġshagon": 8908,
      "Ġkwal": 8909,
      "ĠWilliam": 8910,
      "ĠØ¹ÙĦÙĬ": 8911,
      "Ġkina": 8912,
      "ĠâĢİ": 8913,
      "ĠJacob": 8914,
      "ĠDubai": 8915,
      "sauye": 8916,
      "opatra": 8917,
      "gga": 8918,
      "ĠSHIN": 8919,
      "Ġgalaba": 8920,
      "54": 8921,
      "Ġkace": 8922,
      "ĠWal": 8923,
      "Ġ68": 8924,
      "Ġhukunce": 8925,
      "ĠMUH": 8926,
      "ÙĦÙī": 8927,
      "Ġgwam": 8928,
      "hotuna": 8929,
      "ĠAndre": 8930,
      "Ġdaftarin": 8931,
      "Ġsabuwa": 8932,
      "ĠHIV": 8933,
      "Ġkaren": 8934,
      "Ġsite": 8935,
      "tama": 8936,
      "kali": 8937,
      "ĠMurnai": 8938,
      "ĠTARE": 8939,
      "ĠÃ£y": 8940,
      "Ġtukun": 8941,
      "Ġakafi": 8942,
      "mokara": 8943,
      "Ġdandali": 8944,
      "ĠTalatar": 8945,
      "Ġjum": 8946,
      "Ġkeke": 8947,
      "Ġig": 8948,
      "kuta": 8949,
      "canje": 8950,
      "Ġtuntubar": 8951,
      "adan": 8952,
      "kere": 8953,
      "Ġyabon": 8954,
      "Ġhadda": 8955,
      "darar": 8956,
      "Ġkwantira": 8957,
      "ĠShanghai": 8958,
      "Ġgirka": 8959,
      "Ġwanne": 8960,
      "ĠTunawa": 8961,
      "ĠKansu": 8962,
      "Ġfadakarwa": 8963,
      "esign": 8964,
      "ĠLAFIYA": 8965,
      "pho": 8966,
      "Ġcikakkun": 8967,
      "ĠØ¹ÙĦÙĬÙĩ": 8968,
      "ĠZargi": 8969,
      "unturu": 8970,
      "ĠNasarar": 8971,
      "ĠBashi": 8972,
      "shewa": 8973,
      "kafisu": 8974,
      "Ġtamaula": 8975,
      "ared": 8976,
      "ĠRasu": 8977,
      "ĠRecep": 8978,
      "ĠÙĪØ³": 8979,
      "Qa": 8980,
      "sabo": 8981,
      "Ġcut": 8982,
      "ĠKom": 8983,
      "ĠNdume": 8984,
      "ĠCire": 8985,
      "bode": 8986,
      "Ġbayanta": 8987,
      "ĠÉĹauke": 8988,
      "ĠAssad": 8989,
      "ĠÙĪØ³ÙĦÙħ": 8990,
      "Ġwallahi": 8991,
      "Ġgya": 8992,
      "Ġgadin": 8993,
      "ĠMakon": 8994,
      "dez": 8995,
      "Ġlugu": 8996,
      "ĠHusaini": 8997,
      "Ban": 8998,
      "ĠTexas": 8999,
      "cleopatra": 9000,
      "Ġkwakwalwar": 9001,
      "Ã¤": 9002,
      "ĠSlo": 9003,
      "Ġrada": 9004,
      "ĠAbdula": 9005,
      "Ġharakokin": 9006,
      "Ġsasan": 9007,
      "ĠMaraba": 9008,
      "ĠbÉĽ": 9009,
      "ĠImani": 9010,
      "Ġdubun": 9011,
      "Ġganewa": 9012,
      "Ne": 9013,
      "ĠRU": 9014,
      "gogin": 9015,
      "Bayan": 9016,
      "Ġwariya": 9017,
      "Yadda": 9018,
      "RC": 9019,
      "Ġwando": 9020,
      "Ġbangas": 9021,
      "ĠYanayin": 9022,
      "Ġlayya": 9023,
      "ĠFirayim": 9024,
      "Ġgodewa": 9025,
      "Ġgirgiza": 9026,
      "Ġdireban": 9027,
      "cam": 9028,
      "Ġ00": 9029,
      "Ġyaye": 9030,
      "ĠMika": 9031,
      "Ġhakin": 9032,
      "Ġkoyo": 9033,
      "itung": 9034,
      "ĠÆĺa": 9035,
      "Ġyaduwa": 9036,
      "Ġcam": 9037,
      "ĠIr": 9038,
      "ĠKaro": 9039,
      "Ġaro": 9040,
      "Ġdukkansu": 9041,
      "ĠTantance": 9042,
      "ĠØµÙĦÙī": 9043,
      "Ġrabo": 9044,
      "ĠWeb": 9045,
      "ĠYada": 9046,
      "waitar": 9047,
      "vie": 9048,
      "Ġrubutawa": 9049,
      "Ġone": 9050,
      "Masu": 9051,
      "Ġlissafa": 9052,
      "ĠZarafin": 9053,
      "ĠNaija": 9054,
      "Ġbacklin": 9055,
      "bla": 9056,
      "waki": 9057,
      "Ġkokawa": 9058,
      "ĠOmo": 9059,
      "ĠâĻ": 9060,
      "Ġbarayi": 9061,
      "Ġsarari": 9062,
      "Ġsamari": 9063,
      "rayban": 9064,
      "ĠBritaniya": 9065,
      "Ai": 9066,
      "RIN": 9067,
      "ganistan": 9068,
      "ĠMahadi": 9069,
      "karwa": 9070,
      "ERS": 9071,
      "ĠKyau": 9072,
      "taf": 9073,
      "ĠSalon": 9074,
      "ĠMurnar": 9075,
      "Ġlasisi": 9076,
      "Ġwiwi": 9077,
      "cre": 9078,
      "ĠSaddam": 9079,
      "ĠKasuwa": 9080,
      "maka": 9081,
      "ĠmÅ©": 9082,
      "ĠMutun": 9083,
      "ĠâĢĺâĢĻ": 9084,
      "iz": 9085,
      "shiri": 9086,
      "Ġjib": 9087,
      "Ġshariff": 9088,
      "Ġkulawar": 9089,
      "ĠKALLI": 9090,
      "ĠBos": 9091,
      "ĠMamman": 9092,
      "Ġkom": 9093,
      "dinga": 9094,
      "Ġgudunmawa": 9095,
      "ĠYAU": 9096,
      "gg": 9097,
      "wÃ£": 9098,
      "mali": 9099,
      "Ġzummar": 9100,
      "Ġalkhairi": 9101,
      "aikatun": 9102,
      "Ġsakawa": 9103,
      "ĠMilan": 9104,
      "ĠAmir": 9105,
      "Ġ67": 9106,
      "ĠTunda": 9107,
      "abio": 9108,
      "ĠCali": 9109,
      "Assa": 9110,
      "xe": 9111,
      "ĠBO": 9112,
      "ĠData": 9113,
      "Ġgwamnatoci": 9114,
      "Ġkirista": 9115,
      "Ġ2001": 9116,
      "Ġkujerun": 9117,
      "Ġramummuka": 9118,
      "phi": 9119,
      "tso": 9120,
      "ĠAdeo": 9121,
      "ĠKansa": 9122,
      "Ġbaiwar": 9123,
      "ĠShema": 9124,
      "ĠABDU": 9125,
      "ĠFILM": 9126,
      "ĠKwanaki": 9127,
      "ĠUnguwar": 9128,
      "gunta": 9129,
      "Ġkamari": 9130,
      "ĠFLASHING": 9131,
      "Ġmike": 9132,
      "Ġzakka": 9133,
      "Ġakeyi": 9134,
      "Ġgurbi": 9135,
      "ĠSanarwa": 9136,
      "Ġtilo": 9137,
      "ĠGyaran": 9138,
      "FF": 9139,
      "Ġdalla": 9140,
      "gayen": 9141,
      "Ġdoron": 9142,
      "ĠFaruk": 9143,
      "ĠPhotos": 9144,
      "Ana": 9145,
      "dago": 9146,
      "yarta": 9147,
      "Ġkebe": 9148,
      "shine": 9149,
      "ĠKuda": 9150,
      "Ġpe": 9151,
      "Ġkusanci": 9152,
      "Ġkwaikwayon": 9153,
      "larabe": 9154,
      "ĠEthiopia": 9155,
      "ic": 9156,
      "dah": 9157,
      "kaca": 9158,
      "Ġzamanto": 9159,
      "Ġgwargwadon": 9160,
      "Ġgarambawul": 9161,
      "mart": 9162,
      "ĠSalla": 9163,
      "Ġtsak": 9164,
      "kule": 9165,
      "ĠÆĬan": 9166,
      "ĠKociyan": 9167,
      "kum": 9168,
      "ĠMuzaharar": 9169,
      "Ġhimma": 9170,
      "ĠKalaman": 9171,
      "ĠAURE": 9172,
      "^^": 9173,
      "twitter": 9174,
      "Ġfen": 9175,
      "ĠNairo": 9176,
      "ĠJean": 9177,
      "ĠQudus": 9178,
      "fasa": 9179,
      "ĠâĤ¬": 9180,
      "Ġambato": 9181,
      "thon": 9182,
      "ĠLtd": 9183,
      "Ġinna": 9184,
      "Ġfatali": 9185,
      "Ġmusabbabin": 9186,
      "Ġmahukunta": 9187,
      "bouti": 9188,
      "mana": 9189,
      "ĠZamanta": 9190,
      "ĠSUNNAH": 9191,
      "ĠArzikin": 9192,
      "ĠAttahiru": 9193,
      "MT": 9194,
      "ĠFun": 9195,
      "ĠLiberiya": 9196,
      "94": 9197,
      "Ji": 9198,
      "Ġah": 9199,
      "ĠRij": 9200,
      "Ġkarban": 9201,
      "Ġalawus": 9202,
      "velo": 9203,
      "ciki": 9204,
      "ĠKwamandan": 9205,
      "Ġalháº½": 9206,
      "ĠDokoki": 9207,
      "Ġgujewa": 9208,
      "Ġjinjinawa": 9209,
      "yasa": 9210,
      "tace": 9211,
      "warya": 9212,
      "get": 9213,
      "Ġ__": 9214,
      "Ġmatarshi": 9215,
      "ĠSecon": 9216,
      "forum": 9217,
      "Ġtakura": 9218,
      "Ġkwastam": 9219,
      "ĠâĹ": 9220,
      "Ġyadawa": 9221,
      "ĠHankali": 9222,
      "ĠMagance": 9223,
      "ĠÆ´an": 9224,
      "ĠMTN": 9225,
      "gha": 9226,
      "Ã¢": 9227,
      "garorin": 9228,
      "Ġshafinta": 9229,
      "Ġhalicci": 9230,
      "Ġhujjojin": 9231,
      "Mar": 9232,
      "Ġbazu": 9233,
      "ĠYAR": 9234,
      "ĠFREE": 9235,
      "ĠSaba": 9236,
      "Ġirinsa": 9237,
      "UYIN": 9238,
      "Ġajin": 9239,
      "ĠWatch": 9240,
      "Ca": 9241,
      "Ġbore": 9242,
      "ĠAfganistan": 9243,
      "IRKA": 9244,
      "qiqa": 9245,
      "ili": 9246,
      "nn": 9247,
      "tari": 9248,
      "Ġbatanci": 9249,
      "ĠSaman": 9250,
      "ĠGudu": 9251,
      "Ġhakora": 9252,
      "Ġsaukaka": 9253,
      "ĠZumunta": 9254,
      "ĠPaparoma": 9255,
      "ĠDace": 9256,
      "Ġtsalle": 9257,
      "Ġbibiyar": 9258,
      "ĠJamila": 9259,
      "ĠNetanyahu": 9260,
      "ĠKasafin": 9261,
      "ĠKurdawa": 9262,
      "Ġkaduna": 9263,
      "ĠgÃ£": 9264,
      "mantarwa": 9265,
      "ĠSayar": 9266,
      "ĠTaba": 9267,
      "yuwar": 9268,
      "dabam": 9269,
      "Ġyadu": 9270,
      "ĠDire": 9271,
      "ĠProgressi": 9272,
      "ĠSaleh": 9273,
      "Ġwaji": 9274,
      "ĠOmar": 9275,
      "Ġgoga": 9276,
      "lugin": 9277,
      "ĠDokta": 9278,
      "ĠDjibouti": 9279,
      "ĠAbia": 9280,
      "Ġtasha": 9281,
      "ĠFashi": 9282,
      "ĠSHUG": 9283,
      "ĠDalili": 9284,
      "ĠMatarsa": 9285,
      "adanci": 9286,
      "Ġus": 9287,
      "Ġtuka": 9288,
      "Ġshagu": 9289,
      "ĠOyegun": 9290,
      "sada": 9291,
      "Ġmahara": 9292,
      "ĠIre": 9293,
      "ĠOs": 9294,
      "ĠMalay": 9295,
      "ĠIyalan": 9296,
      "Ġaccutane": 9297,
      "Ġnaki": 9298,
      "ĠEur": 9299,
      "ĠLahadin": 9300,
      "Ġransu": 9301,
      "Ġ1990": 9302,
      "Ġnun": 9303,
      "ĠKhan": 9304,
      "Ġzame": 9305,
      "iyun": 9306,
      "ĠZiyara": 9307,
      "Ġjamiyyar": 9308,
      "Ġtsakaninsa": 9309,
      "Ġshirinta": 9310,
      "Ġgindaya": 9311,
      "Å«": 9312,
      "ĠKusk": 9313,
      "ĠBlog": 9314,
      "ĠDes": 9315,
      "Ġmutan": 9316,
      "ĠBawa": 9317,
      "ĠfaÉĹin": 9318,
      "ĠWay": 9319,
      "Ġharsunan": 9320,
      "ĠFitaccen": 9321,
      "nel": 9322,
      "Ġbay": 9323,
      "ĠRE": 9324,
      "Ġhango": 9325,
      "tico": 9326,
      "chuan": 9327,
      "Ġfitowar": 9328,
      "Ġtakaicin": 9329,
      "ladimir": 9330,
      "ĠGU": 9331,
      "kwalwa": 9332,
      "Ġtsunduma": 9333,
      "Dr": 9334,
      "ĠÉ²": 9335,
      "Ġhajjin": 9336,
      "ĠHoto": 9337,
      "ĠPoland": 9338,
      "Ġxaya": 9339,
      "iwar": 9340,
      "Ġali": 9341,
      "ĠKham": 9342,
      "ĠYaba": 9343,
      "Ġ86": 9344,
      "ĠTATTA": 9345,
      "Sallallahu": 9346,
      "Ġdorewa": 9347,
      "GP": 9348,
      "atu": 9349,
      "janta": 9350,
      "Ġnar": 9351,
      "Ġtra": 9352,
      "ning": 9353,
      "âĢ¦..": 9354,
      "Ġgudummawa": 9355,
      "Ġhallara": 9356,
      "ffe": 9357,
      "oye": 9358,
      "fia": 9359,
      "Ġkankara": 9360,
      "ĠMutuwa": 9361,
      "Ġallo": 9362,
      "ĠPlaza": 9363,
      "ĠTakardar": 9364,
      "saka": 9365,
      "ward": 9366,
      "ĠIz": 9367,
      "ĠWajibi": 9368,
      "Ġalamomin": 9369,
      "Ġalkalan": 9370,
      "ĠKashim": 9371,
      "Ġniyya": 9372,
      "ĠMEN": 9373,
      "ĠYanki": 9374,
      "baye": 9375,
      "Ġnahi": 9376,
[...]
