{
  "version": "1.0",
  "truncation": null,
  "padding": null,
  "added_tokens": [
    {
      "id": 0,
      "content": "<s>",
      "single_word": false,
      "lstrip": false,
      "rstrip": false,
      "normalized": false,
      "special": true
    },
    {
      "id": 1,
      "content": "<pad>",
      "single_word": false,
      "lstrip": false,
      "rstrip": false,
      "normalized": false,
      "special": true
    },
    {
      "id": 2,
      "content": "</s>",
      "single_word": false,
      "lstrip": false,
      "rstrip": false,
      "normalized": false,
      "special": true
    },
    {
      "id": 3,
      "content": "<unk>",
      "single_word": false,
      "lstrip": false,
      "rstrip": false,
      "normalized": false,
      "special": true
    },
    {
      "id": 4,
      "content": "<mask>",
      "single_word": false,
      "lstrip": false,
      "rstrip": false,
      "normalized": false,
      "special": true
    }
  ],
  "normalizer": null,
  "pre_tokenizer": {
    "type": "ByteLevel",
    "add_prefix_space": true,
    "trim_offsets": true,
    "use_regex": true
  },
  "post_processor": {
    "type": "RobertaProcessing",
    "sep": [
      "</s>",
      2
    ],
    "cls": [
      "<s>",
      0
    ],
    "trim_offsets": true,
    "add_prefix_space": true
  },
  "decoder": {
    "type": "ByteLevel",
    "add_prefix_space": true,
    "trim_offsets": true,
    "use_regex": true
  },
  "model": {
    "type": "BPE",
    "dropout": null,
    "unk_token": null,
    "continuing_subword_prefix": null,
    "end_of_word_suffix": null,
    "fuse_unk": false,
    "vocab": {
      "<s>": 0,
      "<pad>": 1,
      "</s>": 2,
      "<unk>": 3,
      "<mask>": 4,
      "!": 5,
      "\"": 6,
      "#": 7,
      "$": 8,
      "%": 9,
      "&": 10,
      "'": 11,
      "(": 12,
      ")": 13,
      "*": 14,
      "+": 15,
      ",": 16,
      "-": 17,
      ".": 18,
      "/": 19,
      "0": 20,
      "1": 21,
      "2": 22,
      "3": 23,
      "4": 24,
      "5": 25,
      "6": 26,
      "7": 27,
      "8": 28,
      "9": 29,
      ":": 30,
      ";": 31,
      "<": 32,
      "=": 33,
      ">": 34,
      "?": 35,
      "@": 36,
      "A": 37,
      "B": 38,
      "C": 39,
      "D": 40,
      "E": 41,
      "F": 42,
      "G": 43,
      "H": 44,
      "I": 45,
      "J": 46,
      "K": 47,
      "L": 48,
      "M": 49,
      "N": 50,
      "O": 51,
      "P": 52,
      "Q": 53,
      "R": 54,
      "S": 55,
      "T": 56,
      "U": 57,
      "V": 58,
      "W": 59,
      "X": 60,
      "Y": 61,
      "Z": 62,
      "[": 63,
      "\\": 64,
      "]": 65,
      "^": 66,
      "_": 67,
      "`": 68,
      "a": 69,
      "b": 70,
      "c": 71,
      "d": 72,
      "e": 73,
      "f": 74,
      "g": 75,
      "h": 76,
      "i": 77,
      "j": 78,
      "k": 79,
      "l": 80,
      "m": 81,
      "n": 82,
      "o": 83,
      "p": 84,
      "q": 85,
      "r": 86,
      "s": 87,
      "t": 88,
      "u": 89,
      "v": 90,
      "w": 91,
      "x": 92,
      "y": 93,
      "z": 94,
      "{": 95,
      "|": 96,
      "}": 97,
      "~": 98,
      "¡": 99,
      "¢": 100,
      "£": 101,
      "¤": 102,
      "¥": 103,
      "¦": 104,
      "§": 105,
      "¨": 106,
      "©": 107,
      "ª": 108,
      "«": 109,
      "¬": 110,
      "®": 111,
      "¯": 112,
      "°": 113,
      "±": 114,
      "²": 115,
      "³": 116,
      "´": 117,
      "µ": 118,
      "¶": 119,
      "·": 120,
      "¸": 121,
      "¹": 122,
      "º": 123,
      "»": 124,
      "¼": 125,
      "½": 126,
      "¾": 127,
      "¿": 128,
      "À": 129,
      "Á": 130,
      "Â": 131,
      "Ã": 132,
      "Ä": 133,
      "Å": 134,
      "Æ": 135,
      "Ç": 136,
      "È": 137,
      "É": 138,
      "Ê": 139,
      "Ë": 140,
      "Ì": 141,
      "Í": 142,
      "Î": 143,
      "Ï": 144,
      "Ð": 145,
      "Ñ": 146,
      "Ò": 147,
      "Ó": 148,
      "Ô": 149,
      "Õ": 150,
      "Ö": 151,
      "×": 152,
      "Ø": 153,
      "Ù": 154,
      "Ú": 155,
      "Û": 156,
      "Ü": 157,
      "Ý": 158,
      "Þ": 159,
      "ß": 160,
      "à": 161,
      "á": 162,
      "â": 163,
      "ã": 164,
      "ä": 165,
      "å": 166,
      "æ": 167,
      "ç": 168,
      "è": 169,
      "é": 170,
      "ê": 171,
      "ë": 172,
      "ì": 173,
      "í": 174,
      "î": 175,
      "ï": 176,
      "ð": 177,
      "ñ": 178,
      "ò": 179,
      "ó": 180,
      "ô": 181,
      "õ": 182,
      "ö": 183,
      "÷": 184,
      "ø": 185,
      "ù": 186,
      "ú": 187,
      "û": 188,
      "ü": 189,
      "ý": 190,
      "þ": 191,
      "ÿ": 192,
      "Ā": 193,
      "ā": 194,
      "Ă": 195,
      "ă": 196,
      "Ą": 197,
      "ą": 198,
      "Ć": 199,
      "ć": 200,
      "Ĉ": 201,
      "ĉ": 202,
      "Ċ": 203,
      "ċ": 204,
      "Č": 205,
      "č": 206,
      "Ď": 207,
      "ď": 208,
      "Đ": 209,
      "đ": 210,
      "Ē": 211,
      "ē": 212,
      "Ĕ": 213,
      "ĕ": 214,
      "Ė": 215,
      "ė": 216,
      "Ę": 217,
      "ę": 218,
      "Ě": 219,
      "ě": 220,
      "Ĝ": 221,
      "ĝ": 222,
      "Ğ": 223,
      "ğ": 224,
      "Ġ": 225,
      "ġ": 226,
      "Ģ": 227,
      "ģ": 228,
      "Ĥ": 229,
      "ĥ": 230,
      "Ħ": 231,
      "ħ": 232,
      "Ĩ": 233,
      "ĩ": 234,
      "Ī": 235,
      "ī": 236,
      "Ĭ": 237,
      "ĭ": 238,
      "Į": 239,
      "į": 240,
      "İ": 241,
      "ı": 242,
      "Ĳ": 243,
      "ĳ": 244,
      "Ĵ": 245,
      "ĵ": 246,
      "Ķ": 247,
      "ķ": 248,
      "ĸ": 249,
      "Ĺ": 250,
      "ĺ": 251,
      "Ļ": 252,
      "ļ": 253,
      "Ľ": 254,
      "ľ": 255,
      "Ŀ": 256,
      "ŀ": 257,
      "Ł": 258,
      "ł": 259,
      "Ń": 260,
      "wa": 261,
      "Ġk": 262,
      "na": 263,
      "ya": 264,
      "Ġwa": 265,
      "Ġm": 266,
      "li": 267,
      "Ġya": 268,
      "ha": 269,
      "Ġku": 270,
      "ka": 271,
      "ni": 272,
      "ĠM": 273,
      "Ġna": 274,
      "hi": 275,
      "ng": 276,
      "ta": 277,
      "am": 278,
      "ba": 279,
      "za": 280,
      "ti": 281,
      "ri": 282,
      "zi": 283,
      "ki": 284,
      "si": 285,
      "la": 286,
      "Ġu": 287,
      "ĠK": 288,
      "nd": 289,
      "ku": 290,
      "Ġma": 291,
      "Ġa": 292,
      "we": 293,
      "ji": 294,
      "ma": 295,
      "Ġkwa": 296,
      "tu": 297,
      "sa": 298,
      "hu": 299,
      "ra": 300,
      "yo": 301,
      "le": 302,
      "to": 303,
      "Ġka": 304,
      "fa": 305,
      "Ġi": 306,
      "Ġha": 307,
      "ye": 308,
      "sha": 309,
      "Ġki": 310,
      "ĠW": 311,
      "ĠS": 312,
      "ja": 313,
      "ke": 314,
      "di": 315,
      "te": 316,
      "fu": 317,
      "Ġza": 318,
      "cha": 319,
      "ĠMa": 320,
      "Ġhi": 321,
      "Ġni": 322,
      "tika": 323,
      "me": 324,
      "ĠN": 325,
      "ĠA": 326,
      "ko": 327,
      "bu": 328,
      "bi": 329,
      "Ġv": 330,
      "da": 331,
      "ĠT": 332,
      "ĠU": 333,
      "he": 334,
      "pa": 335,
      "pi": 336,
      "zo": 337,
      "Ġla": 338,
      "mi": 339,
      "an": 340,
      "Ġkatika": 341,
      "mu": 342,
      "po": 343,
      "Ġn": 344,
      "shi": 345,
      "Ġam": 346,
      "ĠH": 347,
      "ĠB": 348,
      "se": 349,
      "ne": 350,
      "Ġhu": 351,
      "nye": 352,
      "ĠJ": 353,
      "nda": 354,
      "ho": 355,
      "ngi": 356,
      "ngu": 357,
      "ama": 358,
      "Ġkuwa": 359,
      "nga": 360,
      "mba": 361,
      "chi": 362,
      "..": 363,
      "Ġmi": 364,
      "ĠD": 365,
      "Ġvi": 366,
      "ĠY": 367,
      "Ġcha": 368,
      "ĠWa": 369,
      "bo": 370,
      "ngo": 371,
      "Ġsa": 372,
      "Ġali": 373,
      "ru": 374,
      "ele": 375,
      "Ġba": 376,
      "re": 377,
      "wenye": 378,
      "Ġwana": 379,
      "ĠC": 380,
      "ndi": 381,
      "oja": 382,
      "fan": 383,
      "Ġ2": 384,
      "âĢ": 385,
      "Ġta": 386,
      "ĠR": 387,
      "lo": 388,
      "Ġamba": 389,
      "wi": 390,
      "fi": 391,
      "kuwa": 392,
      "Ġ(": 393,
      "ĠKi": 394,
      "nge": 395,
      "ju": 396,
      "ĠP": 397,
      "pe": 398,
      "Ġsi": 399,
      "su": 400,
      "ai": 401,
      "Ġtu": 402,
      "Ġili": 403,
      "nia": 404,
      "rika": 405,
      "Ġmwa": 406,
      "AN": 407,
      "be": 408,
      "sema": 409,
      "je": 410,
      "Ġkuto": 411,
      "ĠI": 412,
      "ĠYA": 413,
      "ĠL": 414,
      "ĠKa": 415,
      "Ġzi": 416,
      "gu": 417,
      "dha": 418,
      "Ġ1": 419,
      "no": 420,
      "ĠWA": 421,
      "dhi": 422,
      "go": 423,
      "ami": 424,
      "ĠKu": 425,
      "ga": 426,
      "ze": 427,
      "Ġaki": 428,
      "lio": 429,
      "vyo": 430,
      "Ġnchi": 431,
      "ĠHa": 432,
      "lia": 433,
      "Ġ20": 434,
      "ungu": 435,
      "kuu": 436,
      "ro": 437,
      "anza": 438,
      "fanya": 439,
      "Ġs": 440,
      "Ġkama": 441,
      "Ġkwenye": 442,
      "Ġina": 443,
      "che": 444,
      "yi": 445,
      "Ġhiyo": 446,
      "du": 447,
      "ge": 448,
      "kati": 449,
      "Ġame": 450,
      "ada": 451,
      "ĠZ": 452,
      "Ġli": 453,
      "ano": 454,
      "WA": 455,
      "vu": 456,
      "mo": 457,
      "idi": 458,
      "end": 459,
      "nzi": 460,
      "Ġwe": 461,
      "nza": 462,
      "ongo": 463,
      "ĠV": 464,
      "cho": 465,
      "Ġvya": 466,
      "LI": 467,
      "Ġe": 468,
      "ndo": 469,
      "...": 470,
      "Ġana": 471,
      "amu": 472,
      "tumi": 473,
      "ĠMA": 474,
      "Ġkutoka": 475,
      "Ġmu": 476,
      "Ġ201": 477,
      "sho": 478,
      "mbe": 479,
      "chu": 480,
      "ĠBa": 481,
      "Ġpi": 482,
      "bwa": 483,
      "ĠâĢ": 484,
      "HA": 485,
      "endele": 486,
      "ĠF": 487,
      "ĠSe": 488,
      "ria": 489,
      "sh": 490,
      "ngine": 491,
      "Ġji": 492,
      "Ġse": 493,
      "bari": 494,
      "kiwa": 495,
      "anzania": 496,
      "Ġyake": 497,
      "yu": 498,
      "rikali": 499,
      "Ġbi": 500,
      "ĠTanzania": 501,
      "taka": 502,
      "nu": 503,
      "do": 504,
      "ĠSa": 505,
      "Ġuna": 506,
      "Ġwatu": 507,
      "Ġbaada": 508,
      "KA": 509,
      "bali": 510,
      "ĠMi": 511,
      "riki": 512,
      "ĠRai": 513,
      "Ġmwaka": 514,
      "Ġju": 515,
      "Ġp": 516,
      "kini": 517,
      "weza": 518,
      "ĠKU": 519,
      "koa": 520,
      "lu": 521,
      "Ġzaidi": 522,
      "Ġmaa": 523,
      "ĠRais": 524,
      "uri": 525,
      "Ġwakati": 526,
      "moja": 527,
      "ifa": 528,
      "Ġle": 529,
      "ĠE": 530,
      "ambo": 531,
      "vi": 532,
      "Ġkwamba": 533,
      "ĠMkuu": 534,
      "Ġwali": 535,
      "Ġye": 536,
      "mbu": 537,
      "ziri": 538,
      "Ġnchini": 539,
      "jini": 540,
      "RI": 541,
      "Ġwake": 542,
      "pata": 543,
      "ĠTa": 544,
      "tia": 545,
      "Ġhii": 546,
      "ĠKwa": 547,
      "mbo": 548,
      "liwa": 549,
      "ĠO": 550,
      "so": 551,
      "ĠDa": 552,
      "shwa": 553,
      "ĠNA": 554,
      "Ġime": 555,
      "Ġhuo": 556,
      "ĠMwa": 557,
      "ĠMu": 558,
      "amoja": 559,
      "ĠNa": 560,
      "ĠG": 561,
      "Ġmoja": 562,
      "nde": 563,
      "00": 564,
      "MA": 565,
      "Ġkui": 566,
      "Ġau": 567,
      "sili": 568,
      "nya": 569,
      "ĠSi": 570,
      "TA": 571,
      "IN": 572,
      "ĠJu": 573,
      "Ġra": 574,
      "de": 575,
      "Ġpamoja": 576,
      "Ġuta": 577,
      "kuta": 578,
      "Ġsiku": 579,
      "zungu": 580,
      "Ġsana": 581,
      "IS": 582,
      "ongozi": 583,
      "husu": 584,
      "Ġwi": 585,
      "ari": 586,
      "Ġkuo": 587,
      "sia": 588,
      "BA": 589,
      "ĠAf": 590,
      "ĠWi": 591,
      "Ġmbali": 592,
      "ĠWaziri": 593,
      "jili": 594,
      "Ġkazi": 595,
      "kia": 596,
      "Ġwame": 597,
      "aka": 598,
      "anzi": 599,
      "ndu": 600,
      "Ġhilo": 601,
      "pu": 602,
      "ZI": 603,
      "TO": 604,
      "ĠâĢľ": 605,
      "mbi": 606,
      "Ġhivyo": 607,
      "Ġj": 608,
      "wo": 609,
      "kea": 610,
      "TI": 611,
      "ĠNi": 612,
      "ĠVi": 613,
      "toa": 614,
      "ĠHA": 615,
      "gi": 616,
      "YA": 617,
      "Ġsasa": 618,
      "zungum": 619,
      "laya": 620,
      "kio": 621,
      "Ġkuji": 622,
      "Ġkupi": 623,
      "ĠDar": 624,
      "Ġkila": 625,
      "âĢĿ": 626,
      "jana": 627,
      "zaji": 628,
      "kwa": 629,
      "nchi": 630,
      "toto": 631,
      "taifa": 632,
      "Ġleo": 633,
      "is": 634,
      "zwa": 635,
      "Ġme": 636,
      "Ġpia": 637,
      "kana": 638,
      "Ġwalio": 639,
      "Ġndi": 640,
      "fanyi": 641,
      "Ġhabari": 642,
      "Ġmara": 643,
      "shiriki": 644,
      "Ġhuu": 645,
      "tumia": 646,
      "Ġf": 647,
      "ĠCha": 648,
      "Ġjuu": 649,
      "Ġambayo": 650,
      "EN": 651,
      "laam": 652,
      "ĠSerikali": 653,
      "neo": 654,
      "jia": 655,
      "gha": 656,
      "RA": 657,
      "Ġlakini": 658,
      "endelea": 659,
      "Ġ3": 660,
      "ĠMungu": 661,
      "KU": 662,
      "asi": 663,
      "Ġmwi": 664,
      "dili": 665,
      "ia": 666,
      "Ġes": 667,
      "yote": 668,
      "Ġalisema": 669,
      "amii": 670,
      "nja": 671,
      "limu": 672,
      "Ġzina": 673,
      "ĠTu": 674,
      "ĠDk": 675,
      "kubwa": 676,
      "ĠMhe": 677,
      "Ġ-": 678,
      "Ġwata": 679,
      "Ġhata": 680,
      "UN": 681,
      "IA": 682,
      "Ġiliyo": 683,
      "Ġwaki": 684,
      "pya": 685,
      "DA": 686,
      "pita": 687,
      "Ġkum": 688,
      "Ġkufanya": 689,
      "Ġkwe": 690,
      "swa": 691,
      "Ġnyi": 692,
      "babu": 693,
      "isha": 694,
      "HI": 695,
      "mani": 696,
      "kazi": 697,
      "tibu": 698,
      "Ġhali": 699,
      "amba": 700,
      "heria": 701,
      "co": 702,
      "ndani": 703,
      "Ġkuu": 704,
      "bia": 705,
      "Ġmtu": 706,
      "chezo": 707,
      "mbali": 708,
      "ĠMo": 709,
      "zuri": 710,
      "Ġmmoja": 711,
      "Ġambao": 712,
      "chagu": 713,
      "ĠYa": 714,
      "kwe": 715,
      "ina": 716,
      "Ġhayo": 717,
      "bunge": 718,
      "sta": 719,
      "Ġkuhusu": 720,
      "arifa": 721,
      "Ġyao": 722,
      "Ġwo": 723,
      "ĠAfrika": 724,
      "adhi": 725,
      "Ġulio": 726,
      "Ġajili": 727,
      "Ġmiaka": 728,
      "ĠHi": 729,
      "shu": 730,
      "Ġkuli": 731,
      "Ġume": 732,
      "fua": 733,
      "Ġserikali": 734,
      "Ġmbalimbali": 735,
      "Ġo": 736,
      "ribu": 737,
      "kili": 738,
      "ĠBu": 739,
      "amo": 740,
      "andi": 741,
      "Ġkati": 742,
      "ĠKI": 743,
      "ZA": 744,
      "Ġwananchi": 745,
      "kuru": 746,
      "Ġto": 747,
      "ĠKA": 748,
      "Ġyana": 749,
      "Ġda": 750,
      "tanga": 751,
      "Ġtuna": 752,
      "KI": 753,
      "shara": 754,
      "tua": 755,
      "Ġwao": 756,
      "kani": 757,
      "ĠAli": 758,
      "ĠMwenye": 759,
      "Ġti": 760,
      "Ġshu": 761,
      "ĠSalaam": 762,
      "ua": 763,
      "mia": 764,
      "Ġuli": 765,
      "ĠJo": 766,
      "CM": 767,
      "fanyika": 768,
      "Ġndani": 769,
      "weze": 770,
      "kiti": 771,
      "Ġhapa": 772,
      "sim": 773,
      "ngwa": 774,
      "nzo": 775,
      "ĠPo": 776,
      "Ġpe": 777,
      "Ġkubwa": 778,
      "edha": 779,
      "Ġhuyo": 780,
      "Ġnyu": 781,
      "Ġbo": 782,
      "kutano": 783,
      "Ġkwanza": 784,
      "),": 785,
      "Ġ5": 786,
      "rehe": 787,
      "ĠKWA": 788,
      "endeleo": 789,
      "ĠJi": 790,
      "twa": 791,
      "Ġsababu": 792,
      "ona": 793,
      "Ġmaji": 794,
      "Ġhawa": 795,
      "Ġdu": 796,
      "Ġmwana": 797,
      "Ġzili": 798,
      "KE": 799,
      "ĠJe": 800,
      "kua": 801,
      "husi": 802,
      "Ġmwe": 803,
      "bele": 804,
      "ON": 805,
      "ĠMe": 806,
      "sua": 807,
      "ce": 808,
      "saidi": 809,
      "duma": 810,
      "Ġ\"": 811,
      "taji": 812,
      "Ġkuna": 813,
      "Ġte": 814,
      "Ġko": 815,
      "Ġwenye": 816,
      "ngia": 817,
      "Ġmuda": 818,
      "Ġambaye": 819,
      "Ġwanao": 820,
      "zungumza": 821,
      "ĠHabari": 822,
      "Ġpa": 823,
      "Ġwote": 824,
      "ĠKatika": 825,
      "Ġho": 826,
      "TU": 827,
      "ANA": 828,
      "âĢĻ": 829,
      "ana": 830,
      "Ġyako": 831,
      "ung": 832,
      "Ġita": 833,
      "Ġ4": 834,
      "ve": 835,
      "Ġmkoa": 836,
      "Ġpo": 837,
      "shauri": 838,
      "Ġkutoa": 839,
      "Ġfu": 840,
      "chini": 841,
      "lewa": 842,
      "PA": 843,
      "miwa": 844,
      "20": 845,
      "ĠZA": 846,
      "Ġmsi": 847,
      "LA": 848,
      "lisi": 849,
      "bar": 850,
      "Ġkuta": 851,
      "ĠBi": 852,
      "fiki": 853,
      "Ġmbi": 854,
      "kama": 855,
      "lamu": 856,
      "ngeza": 857,
      "ini": 858,
      "Ġ_": 859,
      "Ġnje": 860,
      "Ġhao": 861,
      "Ġmambo": 862,
      "wanja": 863,
      "Ġmaisha": 864,
      "Ġyali": 865,
      "chaguzi": 866,
      "Ġkupata": 867,
      "FA": 868,
      "Ġkua": 869,
      "Ġaliye": 870,
      "ĠKama": 871,
      "jua": 872,
      "ani": 873,
      "Ġambapo": 874,
      "Ġga": 875,
      "suala": 876,
      "thi": 877,
      "MB": 878,
      "Ġkitu": 879,
      "aifa": 880,
      "lama": 881,
      "Ġzo": 882,
      "huri": 883,
      "she": 884,
      "ĠMkoa": 885,
      "SI": 886,
      "Ġkam": 887,
      "ĠLi": 888,
      "ĠZanzi": 889,
      "Ġhizo": 890,
      "Ġmwenye": 891,
      "Ġakiwa": 892,
      "ĠCCM": 893,
      "fisi": 894,
      "himu": 895,
      "ungano": 896,
      "MU": 897,
      "KO": 898,
      "JI": 899,
      "Ġtaarifa": 900,
      "DI": 901,
      "ĠTaifa": 902,
      "Ġwengi": 903,
      "ĠCHA": 904,
      "GA": 905,
      "one": 906,
      "Ġjijini": 907,
      "fasi": 908,
      "Ġdunia": 909,
      "ĠZanzibar": 910,
      "Ġyetu": 911,
      "zima": 912,
      "ĠLa": 913,
      "ĠTA": 914,
      "oni": 915,
      "Ġhadi": 916,
      "fani": 917,
      "Ġmpa": 918,
      "SA": 919,
      "Ġkute": 920,
      "uti": 921,
      "Ġkutokana": 922,
      "zara": 923,
      "ĠDkt": 924,
      "kata": 925,
      "zu": 926,
      "Ġkupitia": 927,
      "Ġhaki": 928,
      "Ġamesema": 929,
      "Ġdhi": 930,
      "badili": 931,
      "Ġlina": 932,
      "lioni": 933,
      "Ġ2018": 934,
      "haki": 935,
      "ĠKe": 936,
      "funzi": 937,
      "toke": 938,
      "hemu": 939,
      "Ġupa": 940,
      "ĠKo": 941,
      "ANI": 942,
      "kabi": 943,
      "Ġhuduma": 944,
      "unga": 945,
      "on": 946,
      "ĠShi": 947,
      "Ġuwe": 948,
      "nsi": 949,
      "GU": 950,
      "Ġzao": 951,
      "Ġchini": 952,
      "Ġdhidi": 953,
      "Ġhatua": 954,
      "ĠWana": 955,
      "Ġfa": 956,
      "ĠJam": 957,
      "Ġnafasi": 958,
      "genzi": 959,
      "tanda": 960,
      "Ġusa": 961,
      "Ġbila": 962,
      "puni": 963,
      "Ġmpya": 964,
      "damu": 965,
      "mili": 966,
      "weka": 967,
      "Ġmada": 968,
      "ĠMwenyekiti": 969,
      "Ġviongozi": 970,
      "sto": 971,
      "Ġaka": 972,
      "Ġfedha": 973,
      "ĠLA": 974,
      "ĠMuungano": 975,
      "Ġkina": 976,
      "Ġmaana": 977,
      "Ġinayo": 978,
      "Ġbaadhi": 979,
      "ĠPa": 980,
      "tizo": 981,
      "fuli": 982,
      "bla": 983,
      "Ġhicho": 984,
      "fisa": 985,
      "Ġwetu": 986,
      "Ġ19": 987,
      "wili": 988,
      "kta": 989,
      "Ġbara": 990,
      "201": 991,
      "rekani": 992,
      "Ġhivi": 993,
      "ĠMaka": 994,
      "ĠMagu": 995,
      "kurugenzi": 996,
      "Ġhili": 997,
      "jwa": 998,
      "ĠBara": 999,
      "Ġnyumba": 1000,
      "Ġ,": 1001,
      "Ġchama": 1002,
      "fungu": 1003,
      "Ġkili": 1004,
      "Ġwatoto": 1005,
      "jibu": 1006,
      "Ġngu": 1007,
      "saidia": 1008,
      "radi": 1009,
      "Ġkaribu": 1010,
      "Ġnjia": 1011,
      "dogo": 1012,
      "hitaji": 1013,
      "hili": 1014,
      "Ġeneo": 1015,
      "wala": 1016,
      "Ġhuku": 1017,
      "wasili": 1018,
      "Ġzilizo": 1019,
      "el": 1020,
      "ĠNai": 1021,
      "ĠMagufuli": 1022,
      "kisha": 1023,
      "Ġshi": 1024,
      "ĠHu": 1025,
      "pindi": 1026,
      "mwa": 1027,
      "ĠJamhuri": 1028,
      "ĠYe": 1029,
      "futa": 1030,
      "uli": 1031,
      "jumbe": 1032,
      "Ġjambo": 1033,
      "kono": 1034,
      "Ġmkuu": 1035,
      "ter": 1036,
      "dhaa": 1037,
      "ĠBo": 1038,
      "Ġwengine": 1039,
      "hari": 1040,
      "ĠDo": 1041,
      "HU": 1042,
      "Ġjana": 1043,
      "Ġhaya": 1044,
      "Ġlili": 1045,
      "kari": 1046,
      "Ġhapo": 1047,
      "penda": 1048,
      "Ġata": 1049,
      "nzania": 1050,
      "Ġzote": 1051,
      ").": 1052,
      "Ġmfu": 1053,
      "shimiwa": 1054,
      "va": 1055,
      "Ġ2017": 1056,
      "LE": 1057,
      "ĠHo": 1058,
      "nduzi": 1059,
      "Ġdha": 1060,
      "ara": 1061,
      "ĠUmoja": 1062,
      "INI": 1063,
      "eneo": 1064,
      "Ġum": 1065,
      "ĠKatibu": 1066,
      "en": 1067,
      "bara": 1068,
      "ĠMarekani": 1069,
      "Ġtimu": 1070,
      "Ġpicha": 1071,
      "Ġzake": 1072,
      "ĠWizara": 1073,
      "ndwa": 1074,
      "Ġkabla": 1075,
      "Ġhai": 1076,
      "Ġsehemu": 1077,
      "risha": 1078,
      "ghu": 1079,
      "tenda": 1080,
      "or": 1081,
      "mali": 1082,
      "Ġkweli": 1083,
      "âĢ¦": 1084,
      "Ġmkutano": 1085,
      "ĠMasha": 1086,
      "kele": 1087,
      "Ġalikuwa": 1088,
      "amini": 1089,
      "ĠLe": 1090,
      "ĠPi": 1091,
      "hn": 1092,
      "Ġje": 1093,
      "ĠWilaya": 1094,
      "mataifa": 1095,
      "Ġmo": 1096,
      "Ġkutumia": 1097,
      "Ġhe": 1098,
      "Ġsheria": 1099,
      "Ġuchaguzi": 1100,
      "Ġt": 1101,
      "HE": 1102,
      "tukio": 1103,
      "Ġiki": 1104,
      "JA": 1105,
      "Ġndo": 1106,
      "ĠBunge": 1107,
      "Ġhaku": 1108,
      "ghuli": 1109,
      "dini": 1110,
      "TE": 1111,
      "Ġwasi": 1112,
      "Ġmwisho": 1113,
      "Ġmata": 1114,
      "Ġzinazo": 1115,
      "ĠKenya": 1116,
      "Ġkuku": 1117,
      "faa": 1118,
      "ĠWe": 1119,
      "Ġmjini": 1120,
      "ĠSu": 1121,
      "Ġalipo": 1122,
      "Ġndio": 1123,
      "ĠMkurugenzi": 1124,
      "ĠJohn": 1125,
      "rasa": 1126,
      "Ġ6": 1127,
      "Ġmaeneo": 1128,
      "ĠAl": 1129,
      "Ġyote": 1130,
      "ida": 1131,
      "Ġmuhimu": 1132,
      "Ġjamii": 1133,
      "chumi": 1134,
      "tandao": 1135,
      "Ġmchezo": 1136,
      "ĠMheshimiwa": 1137,
      "Ġbe": 1138,
      "liana": 1139,
      "ĠJuma": 1140,
      "Ġnyingine": 1141,
      "Ġwilaya": 1142,
      "nti": 1143,
      "GO": 1144,
      "Ġikiwa": 1145,
      "fsi": 1146,
      "ĠUta": 1147,
      "simami": 1148,
      "ĠRA": 1149,
      "Ġmaka": 1150,
      "andishi": 1151,
      "mbea": 1152,
      "ĠâĢĺ": 1153,
      "Ġso": 1154,
      "Ġshule": 1155,
      "Ġmaha": 1156,
      "Ġbora": 1157,
      "zama": 1158,
      "njwa": 1159,
      "nyesha": 1160,
      "Ġkwani": 1161,
      "Ġkuzi": 1162,
      "Ġ10": 1163,
      "bisha": 1164,
      "Ġnyingi": 1165,
      "Ġke": 1166,
      "FU": 1167,
      "Ġkabi": 1168,
      "MI": 1169,
      "fya": 1170,
      "ch": 1171,
      "Ġelimu": 1172,
      "omba": 1173,
      "Ġsimu": 1174,
      "Ġyaliyo": 1175,
      "DE": 1176,
      "Ġasili": 1177,
      "asisi": 1178,
      "dai": 1179,
      "ĠSA": 1180,
      "000": 1181,
      "siasa": 1182,
      "lma": 1183,
      "ĠNaibu": 1184,
      "Ġusi": 1185,
      "ĠDe": 1186,
      "Ġvita": 1187,
      "zeti": 1188,
      "sani": 1189,
      "tendaji": 1190,
      "wanda": 1191,
      "dia": 1192,
      "Ġmbili": 1193,
      "yari": 1194,
      "st": 1195,
      "ezi": 1196,
      "Ġkusi": 1197,
      "ran": 1198,
      "Ġmaendeleo": 1199,
      "Ġmkubwa": 1200,
      "Ġsha": 1201,
      "vuti": 1202,
      "ywa": 1203,
      "ume": 1204,
      "Ġkup": 1205,
      "Ġbina": 1206,
      "Ġ7": 1207,
      "taa": 1208,
      "Ġmasha": 1209,
      "ĠRe": 1210,
      "Ġ...": 1211,
      "Ġnini": 1212,
      "!!": 1213,
      "huru": 1214,
      "wali": 1215,
      "Ġze": 1216,
      "chukua": 1217,
      "Ġlime": 1218,
      "gonjwa": 1219,
      "tikana": 1220,
      "san": 1221,
      "Ġpili": 1222,
      "Ġwako": 1223,
      "Ġbia": 1224,
      "ĠSo": 1225,
      "jenzi": 1226,
      "fauti": 1227,
      "tokeo": 1228,
      "Ġmkono": 1229,
      "biti": 1230,
      "Ġkipindi": 1231,
      "wani": 1232,
      "Ġtaifa": 1233,
      "Ġkabisa": 1234,
      "shaji": 1235,
      "sti": 1236,
      "fikia": 1237,
      "Ġyenye": 1238,
      "soma": 1239,
      "baya": 1240,
      "tumizi": 1241,
      "Ġmcha": 1242,
      "ĠMW": 1243,
      "fika": 1244,
      "piga": 1245,
      "Ġhasa": 1246,
      "Ġbado": 1247,
      "CHA": 1248,
      "Ġkura": 1249,
      "Ġtena": 1250,
      "ca": 1251,
      "wake": 1252,
      "Ġyangu": 1253,
      "Ġkufu": 1254,
      "ĠKATI": 1255,
      "ĠBA": 1256,
      "ende": 1257,
      "pika": 1258,
      "ĠMwana": 1259,
      "Ġuku": 1260,
      "tolewa": 1261,
      "Ġ8": 1262,
      "Ġmazi": 1263,
      "ĠRa": 1264,
      "lima": 1265,
      "Ġkwenda": 1266,
      "ĠMI": 1267,
      "Ġbiashara": 1268,
      "zia": 1269,
      "reza": 1270,
      "Ġambazo": 1271,
      "ĠJa": 1272,
      "ngira": 1273,
      "ry": 1274,
      "Ġvile": 1275,
      "Ġkuanzi": 1276,
      "ĠTAN": 1277,
      "elezo": 1278,
      "YE": 1279,
      "penzi": 1280,
      "ratibu": 1281,
      "Ġ200": 1282,
      "shoto": 1283,
      "Ġmbele": 1284,
      "zazi": 1285,
      "mini": 1286,
      "wezi": 1287,
      "lmashauri": 1288,
      "ĠOfisi": 1289,
      "Ġupande": 1290,
      "ĠChama": 1291,
      "mbele": 1292,
      "tokea": 1293,
      "Ġmwezi": 1294,
      "Ġvijana": 1295,
      "chezaji": 1296,
      "ĠKuu": 1297,
      "RE": 1298,
      "ĠHAPA": 1299,
      "Ġnguvu": 1300,
      "Ġuwezo": 1301,
      "Ġwewe": 1302,
      "ĠKati": 1303,
      "lozi": 1304,
      "Ġwanafunzi": 1305,
      "eleza": 1306,
      "ME": 1307,
      "jeru": 1308,
      "mla": 1309,
      "Ġwale": 1310,
      "Ġmkoani": 1311,
      "raka": 1312,
      "ĠDA": 1313,
      "ĠVI": 1314,
      "zee": 1315,
      "shindi": 1316,
      "fuata": 1317,
      "toka": 1318,
      "Ġakizungumza": 1319,
      "Ġyanayo": 1320,
      "pango": 1321,
      "Ġnam": 1322,
      "YO": 1323,
      "Ġzime": 1324,
      "ĠLu": 1325,
      "saba": 1326,
      "Ġaina": 1327,
      "com": 1328,
      "smi": 1329,
      "ĠUna": 1330,
      "hakikisha": 1331,
      "tumishi": 1332,
      "Ġkiasi": 1333,
      "yombo": 1334,
      "ZO": 1335,
      "tanzania": 1336,
      "ĠHata": 1337,
      "Ġbu": 1338,
      "tangaza": 1339,
      "dala": 1340,
      "ĠKusi": 1341,
      "tara": 1342,
      "ĠTi": 1343,
      "rt": 1344,
      "kula": 1345,
      "....": 1346,
      "swahili": 1347,
      "Ġtayari": 1348,
      "Ġkupa": 1349,
      "lla": 1350,
      "Ġwakiwa": 1351,
      "ishi": 1352,
      "Ġtofauti": 1353,
      "Ġtarehe": 1354,
      "ĠPe": 1355,
      "pote": 1356,
      "Ġtatu": 1357,
      "ĠJamii": 1358,
      "fadhi": 1359,
      "hidi": 1360,
      "rudi": 1361,
      "ĠZi": 1362,
      "Ġafya": 1363,
      "ĠAki": 1364,
      "ĠPro": 1365,
      "ĠNchi": 1366,
      ",âĢĿ": 1367,
      "takiwa": 1368,
      "Ġkiu": 1369,
      "Ġmafu": 1370,
      "doma": 1371,
      "Ġnili": 1372,
      "ĠNe": 1373,
      "ĠRu": 1374,
      "Ġduniani": 1375,
      "Ġgani": 1376,
      "geni": 1377,
      "TOKE": 1378,
      "uzi": 1379,
      "ĠRo": 1380,
      "Ġmsingi": 1381,
      "in": 1382,
      "amuzi": 1383,
      "Ġmatumizi": 1384,
      "Ġbasi": 1385,
      "Ġkushiriki": 1386,
      "kutana": 1387,
      "Ġkuka": 1388,
      "kao": 1389,
      "ĠMKU": 1390,
      "ĠMashariki": 1391,
      "ĠPolisi": 1392,
      "ĠDu": 1393,
      "Ġunao": 1394,
      "Ġwiki": 1395,
      "wasiliano": 1396,
      "Ġkuja": 1397,
      "kiliza": 1398,
      "Ġkule": 1399,
      "MBA": 1400,
      "laka": 1401,
      "Ġchu": 1402,
      "Ġyeye": 1403,
      "ĠMaa": 1404,
      "Ġnamna": 1405,
      "pinduzi": 1406,
      "ĠDodoma": 1407,
      "ĠAlisema": 1408,
      "spita": 1409,
      "SHA": 1410,
      "asa": 1411,
      "MO": 1412,
      "saada": 1413,
      "Ġsaa": 1414,
      "wemo": 1415,
      "Ġhizi": 1416,
      "kumbu": 1417,
      "Ġuliopita": 1418,
      "fo": 1419,
      "Ġmtoto": 1420,
      "ĠAi": 1421,
      "ĠCo": 1422,
      "ĠLakini": 1423,
      "Ġuka": 1424,
      "th": 1425,
      "jenga": 1426,
      "Ġsuala": 1427,
      "Ġmpaka": 1428,
      "Ġyame": 1429,
      "Ġhuko": 1430,
      "gwa": 1431,
      "enda": 1432,
      "ziki": 1433,
      "ĠChu": 1434,
      "ck": 1435,
      "Ġ9": 1436,
      "ĠMataifa": 1437,
      "kwete": 1438,
      "ĠMaendeleo": 1439,
      "WE": 1440,
      "Ġkushi": 1441,
      "Ġkampuni": 1442,
      "Ġjina": 1443,
      "kra": 1444,
      "refu": 1445,
      "Ġ0": 1446,
      "ĠPI": 1447,
      "kubali": 1448,
      "tendo": 1449,
      "Ġtume": 1450,
      "hami": 1451,
      "labu": 1452,
      "risto": 1453,
      "pokea": 1454,
      "ngalia": 1455,
      "wango": 1456,
      "Ġmali": 1457,
      "rahi": 1458,
      "amlaka": 1459,
      "Ġmimi": 1460,
      "Ġhakuna": 1461,
      "RU": 1462,
      "Ġkutu": 1463,
      "ĠBaraza": 1464,
      "Ġ2016": 1465,
      "wana": 1466,
      "chungu": 1467,
      "spitali": 1468,
      "ĠKikwete": 1469,
      "BU": 1470,
      "ĠKam": 1471,
      "cheza": 1472,
      "fano": 1473,
      "Ġvitu": 1474,
      "rufu": 1475,
      "Ġvizuri": 1476,
      "nt": 1477,
      "ĠYesu": 1478,
      "rua": 1479,
      "Ġkuhakikisha": 1480,
      "jiji": 1481,
      "kosa": 1482,
      "gombea": 1483,
      "ĠKATIKA": 1484,
      "Ġuki": 1485,
      "ĠTe": 1486,
      "Ġwaka": 1487,
      "goro": 1488,
      "husiano": 1489,
      "Ġmashi": 1490,
      "waida": 1491,
      "TOKEO": 1492,
      "Ġute": 1493,
      "Ġ.": 1494,
      "mea": 1495,
      "BARI": 1496,
      "Ġlazima": 1497,
      "Ġanaye": 1498,
      "poti": 1499,
      "nunu": 1500,
      "nzani": 1501,
      "Ġrasmi": 1502,
      "Ġsu": 1503,
      "Ġpolisi": 1504,
      "dio": 1505,
      "Ġasilimia": 1506,
      "ĠSI": 1507,
      "Ġmilioni": 1508,
      "Ġmita": 1509,
      "Ġwanawake": 1510,
      "badiliko": 1511,
      "fanyakazi": 1512,
      "mbuli": 1513,
      "amoto": 1514,
      "kee": 1515,
      "ĠMatukio": 1516,
      "ĠHii": 1517,
      "TAN": 1518,
      "ĠFa": 1519,
      "pewa": 1520,
      "sanii": 1521,
      "elekea": 1522,
      "Ġshughuli": 1523,
      "Ġ15": 1524,
      "kweli": 1525,
      "ĠBw": 1526,
      "mke": 1527,
      "rsa": 1528,
      "ĠChi": 1529,
      "NE": 1530,
      "chuku": 1531,
      "Ġkusema": 1532,
      "lani": 1533,
      "Ġgha": 1534,
      "amilia": 1535,
      "ANIA": 1536,
      "ĠSpika": 1537,
      "ĠMATOKEO": 1538,
      "ĠHABARI": 1539,
      "dadi": 1540,
      "lum": 1541,
      "ĠDi": 1542,
      "nne": 1543,
      "Ġndiyo": 1544,
      "Ġfi": 1545,
      "tokana": 1546,
      "Ġtangu": 1547,
      "Ġmujibu": 1548,
      "chama": 1549,
      "pinzani": 1550,
      "Ġsio": 1551,
      "Ġambalo": 1552,
      "Ġmama": 1553,
      "Ġyo": 1554,
      "ĠMbunge": 1555,
      "Ġjinsi": 1556,
      "ĠRAIS": 1557,
      "ngeze": 1558,
      "Ġujenzi": 1559,
      "Ġtatizo": 1560,
      "Ġkawaida": 1561,
      "Ġwazi": 1562,
      "Ġri": 1563,
      "Ma": 1564,
      "Ġ12": 1565,
      "ĠMambo": 1566,
      "ZANIA": 1567,
      "nisa": 1568,
      "Ġkita": 1569,
      "ondo": 1570,
      "Ġwala": 1571,
      "Ġrais": 1572,
      "ĠAfya": 1573,
      "CH": 1574,
      "hamu": 1575,
      "PO": 1576,
      "Ġmengi": 1577,
      "GE": 1578,
      "sheria": 1579,
      "Ġwaandishi": 1580,
      "ĠKusini": 1581,
      "ame": 1582,
      "wepo": 1583,
      "rusha": 1584,
      "dau": 1585,
      "fe": 1586,
      "Ġvyombo": 1587,
      ".âĢĿ": 1588,
      "mbelea": 1589,
      "ngea": 1590,
      "nyi": 1591,
      "dhali": 1592,
      "amua": 1593,
      "Ġilikuwa": 1594,
      "ĠMakamu": 1595,
      "ĠAme": 1596,
      "tangazo": 1597,
      "Ġkwake": 1598,
      "Ġmatokeo": 1599,
      "Ġmengine": 1600,
      "Ġyu": 1601,
      "ĠâĢĵ": 1602,
      "Ġmazingira": 1603,
      "ĠHalmashauri": 1604,
      "ngamoto": 1605,
      "Ġkuanza": 1606,
      "ĠBaada": 1607,
      "ongoza": 1608,
      "NA": 1609,
      "ngereza": 1610,
      "Ġkuendelea": 1611,
      "fiti": 1612,
      "lii": 1613,
      "Ġnime": 1614,
      "biki": 1615,
      "Ġnde": 1616,
      "Ġkaribuni": 1617,
      "kundi": 1618,
      "weke": 1619,
      "rd": 1620,
      "fungua": 1621,
      "kumu": 1622,
      "ĠKamati": 1623,
      "tiha": 1624,
      "tion": 1625,
      "ĠHI": 1626,
      "Ġlengo": 1627,
      "kataba": 1628,
      "Ġkuongeza": 1629,
      "mbua": 1630,
      "Ġru": 1631,
      "Ġ[": 1632,
      "ĠTo": 1633,
      "ĠMapinduzi": 1634,
      "ĠSimba": 1635,
      "ĠÂ": 1636,
      "ĠDunia": 1637,
      "Ġmji": 1638,
      "mwe": 1639,
      "jiwa": 1640,
      "Ġnyumbani": 1641,
      "Ġziara": 1642,
      "ĠJeshi": 1643,
      "ngene": 1644,
      "log": 1645,
      "Ġmasuala": 1646,
      "Ġbarabara": 1647,
      "Ġuwanja": 1648,
      "ndishi": 1649,
      "Ġmfumo": 1650,
      "Ġkilicho": 1651,
      "ĠShe": 1652,
      "ĠGe": 1653,
      "ĠSE": 1654,
      "Ġuha": 1655,
      "Ġkuona": 1656,
      "Ġmawa": 1657,
      "safi": 1658,
      "Ġmechi": 1659,
      "ĠPombe": 1660,
      "ĠIn": 1661,
      "jiri": 1662,
      "ingereza": 1663,
      "rdhi": 1664,
      "ĠGa": 1665,
      "rama": 1666,
      "dhu": 1667,
      "Ġamani": 1668,
      "nisha": 1669,
      "Ġwangu": 1670,
      "Ġ11": 1671,
      "Ġmao": 1672,
      "DO": 1673,
      "ngan": 1674,
      "Ġusalama": 1675,
      "patikana": 1676,
      "bore": 1677,
      "Ġkimataifa": 1678,
      "Ġsisi": 1679,
      "shirikiano": 1680,
      "ssa": 1681,
      "Ġkuhu": 1682,
      "Ġmwingine": 1683,
      "ĠLE": 1684,
      "dani": 1685,
      "Ġumri": 1686,
      "ĠUfa": 1687,
      "onekana": 1688,
      "ĠKiswahili": 1689,
      "ĠChuo": 1690,
      "islamu": 1691,
      "LO": 1692,
      "maa": 1693,
      "ndari": 1694,
      "Ġ'": 1695,
      "Ġb": 1696,
      "jamii": 1697,
      "deo": 1698,
      "Ġofisi": 1699,
      "Ġlililo": 1700,
      "Ġfursa": 1701,
      "ĠHaki": 1702,
      "Ġvina": 1703,
      "ĠBen": 1704,
      "jerumani": 1705,
      "us": 1706,
      "rea": 1707,
      "Ġlu": 1708,
      "Ġmradi": 1709,
      "Ġ2015": 1710,
      "Ġchangamoto": 1711,
      "rti": 1712,
      "ĠShirika": 1713,
      "ambia": 1714,
      "mui": 1715,
      "FUN": 1716,
      "Ġmpango": 1717,
      "ĠMwi": 1718,
      "Ġnzuri": 1719,
      "rs": 1720,
      "ongoni": 1721,
      "Ġsekta": 1722,
      "med": 1723,
      "Ġja": 1724,
      "kuja": 1725,
      "Ġmaga": 1726,
      "Ġyoyote": 1727,
      "ll": 1728,
      "Ġnya": 1729,
      "Ġmna": 1730,
      "BC": 1731,
      "Ġkuanzia": 1732,
      "PI": 1733,
      "GI": 1734,
      "fari": 1735,
      "ĠKas": 1736,
      "Ġ/": 1737,
      "Ġne": 1738,
      "kabidhi": 1739,
      "Ġmafunzo": 1740,
      "siti": 1741,
      "Ġvye": 1742,
      "ĠMaha": 1743,
      "sababisha": 1744,
      "ĠNI": 1745,
      "neno": 1746,
      "mp": 1747,
      "misha": 1748,
      "Ġtukio": 1749,
      "pato": 1750,
      "Ġmakubwa": 1751,
      "wapo": 1752,
      "tumika": 1753,
      "IFA": 1754,
      "ĠTaarifa": 1755,
      "ĠLeo": 1756,
      "zali": 1757,
      "Ġndege": 1758,
      "ĠPicha": 1759,
      "Ġmka": 1760,
      "ĠNo": 1761,
      "ĠBe": 1762,
      "Ġunaweza": 1763,
      "Ġsawa": 1764,
      "Ġmichezo": 1765,
      "Ġzetu": 1766,
      "guzi": 1767,
      "paswa": 1768,
      "ss": 1769,
      "Ġhiki": 1770,
      "reje": 1771,
      "ĠElimu": 1772,
      "Ġcho": 1773,
      "ndano": 1774,
      "Ġlake": 1775,
      "ĠBalozi": 1776,
      "staa": 1777,
      "Ġfamilia": 1778,
      "Ġklabu": 1779,
      "baini": 1780,
      "fuati": 1781,
      "Ġkucha": 1782,
      "Ġmaoni": 1783,
      "Ġ14": 1784,
      "Ġpale": 1785,
      "Ġkuliko": 1786,
      "ĠArusha": 1787,
      "UA": 1788,
      "ĠWatu": 1789,
      "lingi": 1790,
      "duni": 1791,
      "fundi": 1792,
      "Ġzama": 1793,
      "ĠRi": 1794,
      "Ġmfano": 1795,
      "ingia": 1796,
      "ĠWakati": 1797,
      "Ġumma": 1798,
      "ĠWatanzania": 1799,
      "fanywa": 1800,
      "ĠTume": 1801,
      "Ġmaba": 1802,
      "jira": 1803,
      "peni": 1804,
      "Ġde": 1805,
      "Ġsalaam": 1806,
      "zungumzo": 1807,
      "Ġkuondo": 1808,
      "Ġwalikuwa": 1809,
      "Ġ50": 1810,
      "ĠJan": 1811,
      "Ġkituo": 1812,
      "Ġmaelezo": 1813,
      "jali": 1814,
      "Ġuchumi": 1815,
      "onyesha": 1816,
      "hisi": 1817,
      "Ġuzi": 1818,
      "ĠAidha": 1819,
      "Ġnao": 1820,
      "zea": 1821,
      "Ġsiasa": 1822,
      "chana": 1823,
      "ndaa": 1824,
      "ĠUhuru": 1825,
      "Ġnina": 1826,
      "dara": 1827,
      "ĠMKUU": 1828,
      "son": 1829,
      "ĠBwana": 1830,
      "maduni": 1831,
      "biri": 1832,
      "Ġuongozi": 1833,
      "rusi": 1834,
      "ĠAb": 1835,
      "Ġuju": 1836,
      "ty": 1837,
      "singi": 1838,
      "ĠTANZANIA": 1839,
      "ĠLEO": 1840,
      "lojia": 1841,
      "Ġmwili": 1842,
      "ita": 1843,
      "gr": 1844,
      "Ġmrefu": 1845,
      "Ġkundi": 1846,
      "ĠYanga": 1847,
      "Ġdo": 1848,
      "Ġlugha": 1849,
      "Ġmwanamke": 1850,
      "ĠWI": 1851,
      "Ġkuweka": 1852,
      "hudi": 1853,
      "ĠKimataifa": 1854,
      "Ġmabadiliko": 1855,
      "ES": 1856,
      "Ġ18": 1857,
      "ENYE": 1858,
      "amia": 1859,
      "teja": 1860,
      "ĠAp": 1861,
      "Ġtaasisi": 1862,
      "mma": 1863,
      "wezesha": 1864,
      "Ġkile": 1865,
      "Ġmtandao": 1866,
      "ĠPia": 1867,
      "pende": 1868,
      "biashara": 1869,
      "ndua": 1870,
      "Ġmta": 1871,
      "ZIRI": 1872,
      "Ġbinafsi": 1873,
      "pungu": 1874,
      "ngana": 1875,
      "pele": 1876,
      "ĠHU": 1877,
      "tuma": 1878,
      "HO": 1879,
      "Ġtuli": 1880,
      "man": 1881,
      "Ġ16": 1882,
      "jeshi": 1883,
      "Ġbali": 1884,
      "ĠSera": 1885,
      "lai": 1886,
      "kosi": 1887,
      "Ġkuki": 1888,
      "jo": 1889,
      "ĠUlaya": 1890,
      "ĠHe": 1891,
      "aidi": 1892,
      "ĠTuna": 1893,
      "fanikio": 1894,
      "Ġumeme": 1895,
      "ĠFe": 1896,
      "ĠKIDA": 1897,
      "Ġkiwango": 1898,
      "dhara": 1899,
      "Ġile": 1900,
      "Ġhuru": 1901,
      "Ġdawa": 1902,
      "kwi": 1903,
      "Ġvyama": 1904,
      "ĠMta": 1905,
      "ĠYo": 1906,
      "ĠMbe": 1907,
      "Ġzamani": 1908,
      "ĠKatiba": 1909,
      "uaji": 1910,
      "wahi": 1911,
      "fahamu": 1912,
      "ĠMwaka": 1913,
      "mwengu": 1914,
      "Ġnne": 1915,
      "pamba": 1916,
      "ĠJA": 1917,
      "Ġmsaada": 1918,
      "amano": 1919,
      "RIKA": 1920,
      "Ġtovuti": 1921,
      "maliza": 1922,
      "Ġmke": 1923,
      "Ġuja": 1924,
      "ĠSheria": 1925,
      "Ġ13": 1926,
      "ĠSiku": 1927,
      "ĠMoha": 1928,
      "ribi": 1929,
      "shukuru": 1930,
      "Ġwadau": 1931,
      "Ġukweli": 1932,
      "Ġhuwa": 1933,
      "Ġmiongoni": 1934,
      "ĠDW": 1935,
      "DHA": 1936,
      "Ġkula": 1937,
      "tarajiwa": 1938,
      "Ġhumo": 1939,
      "gumu": 1940,
      "lea": 1941,
      "nyo": 1942,
      "Ġlo": 1943,
      "ĠMWA": 1944,
      "ĠMfu": 1945,
      "ĠWAZIRI": 1946,
      "MBO": 1947,
      "ĠMtu": 1948,
      "INA": 1949,
      "ĠMP": 1950,
      "ĠLigi": 1951,
      "kilishi": 1952,
      "TAA": 1953,
      "Ġnia": 1954,
      "Ġsita": 1955,
      "fanikiwa": 1956,
      "ĠUchaguzi": 1957,
      "Ġkijamii": 1958,
      "ĠVYA": 1959,
      "ibu": 1960,
      "Ġmbaya": 1961,
      "FAN": 1962,
      "Ġwaa": 1963,
      "pokuwa": 1964,
      "Ġdi": 1965,
      "Ġkinacho": 1966,
      "Ġmazungumzo": 1967,
      "ĠUwanja": 1968,
      "Ġmoyo": 1969,
      "Ġkadhaa": 1970,
      "Ġmatatizo": 1971,
      "Ġkuvu": 1972,
      "Ġche": 1973,
      "ndugu": 1974,
      "Ġkujenga": 1975,
      "kika": 1976,
      "hama": 1977,
      "Ġnamba": 1978,
      "husika": 1979,
      "Ġkikao": 1980,
      "Ġusiku": 1981,
      "keleza": 1982,
      "MBE": 1983,
      "Ġidadi": 1984,
      "ĠBO": 1985,
      "Ġujumbe": 1986,
      "Ġndoa": 1987,
      "Ġre": 1988,
      "ĠMwanza": 1989,
      "Ġkiongozi": 1990,
      "zuia": 1991,
      "dhani": 1992,
      "es": 1993,
      "ted": 1994,
      "andika": 1995,
      "staafu": 1996,
      "Ġtuta": 1997,
      "ĠJU": 1998,
      "ĠMawasiliano": 1999,
      "liki": 2000,
      "Ġkisa": 2001,
      "Ġkufikia": 2002,
      "Ġkisiasa": 2003,
      "Ġkumu": 2004,
      "il": 2005,
      "ĠMaga": 2006,
      "sheni": 2007,
      "kazini": 2008,
      "katifu": 2009,
      "rais": 2010,
      "Ġ30": 2011,
      "siana": 2012,
      "Ġbidhaa": 2013,
      "ZE": 2014,
      "ngatia": 2015,
      "ISHA": 2016,
      "Ġilivyo": 2017,
      "Ġisi": 2018,
      "storia": 2019,
      "tea": 2020,
      "hara": 2021,
      "ĠKIDATO": 2022,
      "Ġmaneno": 2023,
      "Ġimani": 2024,
      "Ġchakula": 2025,
      "ili": 2026,
      "Ġmatangazo": 2027,
      "Ġnaye": 2028,
      "Ġhau": 2029,
      "dhibiti": 2030,
      "Ġshilingi": 2031,
      "juli": 2032,
      "Ġkesi": 2033,
      "ĠShu": 2034,
      "ĠBaadhi": 2035,
      "Ġwawili": 2036,
      "simamia": 2037,
      "Ġutu": 2038,
      "Ġuko": 2039,
      "neja": 2040,
      "ĠMichezo": 2041,
      "Ġndugu": 2042,
      "ĠNye": 2043,
      "fuatilia": 2044,
      "Ġkuti": 2045,
      "hihi": 2046,
      "muiya": 2047,
      "Ġambacho": 2048,
      "Ġmuziki": 2049,
      "zungumzia": 2050,
      "Ġkuingia": 2051,
      "ts": 2052,
      "miza": 2053,
      "itwa": 2054,
      "shia": 2055,
      "Ġ17": 2056,
      "dema": 2057,
      "boresha": 2058,
      "lme": 2059,
      "Ġ25": 2060,
      "Ġtha": 2061,
      "kwenda": 2062,
      "ĠSha": 2063,
      "Ġawali": 2064,
      "wamu": 2065,
      "fadhali": 2066,
      "Ġmwanzo": 2067,
      "lizi": 2068,
      "Ġal": 2069,
      "ok": 2070,
      "raha": 2071,
      "RO": 2072,
      "Ġwabunge": 2073,
      "sitiza": 2074,
      "swali": 2075,
      "kulu": 2076,
      "ĠPICHA": 2077,
      "ĠKai": 2078,
      "ĠMkutano": 2079,
      "ĠMara": 2080,
      "Ġgharama": 2081,
      "ĠAna": 2082,
      "shindwa": 2083,
      "Ġmauaji": 2084,
      "elewa": 2085,
      "ĠGo": 2086,
      "ĠMahakama": 2087,
      "Ġkujua": 2088,
      "Ġkupiga": 2089,
      "Ġdini": 2090,
      "fla": 2091,
      "mokra": 2092,
      "pira": 2093,
      "Ġpekee": 2094,
      "Ġasi": 2095,
      "ĠJI": 2096,
      "Ġupe": 2097,
      "Ġbei": 2098,
      "Ġhuyu": 2099,
      "Ġkupungu": 2100,
      "Ġchake": 2101,
      "kopo": 2102,
      "Ġmwenyewe": 2103,
      "ĠTaasisi": 2104,
      "Ġin": 2105,
      "Ġbinadamu": 2106,
      "Ġbadala": 2107,
      "ĠLo": 2108,
      "chunguzi": 2109,
      "ingi": 2110,
      "ĠUingereza": 2111,
      "Ġmaju": 2112,
      "sali": 2113,
      "tege": 2114,
      "poteza": 2115,
      "lami": 2116,
      "rere": 2117,
      "Ġnasi": 2118,
      "ĠIna": 2119,
      "Ġwanachama": 2120,
      "ĠSta": 2121,
      "ĠNya": 2122,
      "ĠMB": 2123,
      "Ġhospitali": 2124,
      "kno": 2125,
      "Ġwafanyakazi": 2126,
      "fariki": 2127,
      "Ġhatu": 2128,
      "Ġbunge": 2129,
      "Ġardhi": 2130,
      "KT": 2131,
      "Ġnyuma": 2132,
      "ĠMU": 2133,
      "Ġukurasa": 2134,
      "Ġhaja": 2135,
      "Ġiliyopita": 2136,
      "ĠMwalimu": 2137,
      "Ġmaarufu": 2138,
      "ĠNdu": 2139,
      "dumu": 2140,
      "mbia": 2141,
      "Ġmafanikio": 2142,
      "ĠKazi": 2143,
      "Ġshe": 2144,
      "ĠWANA": 2145,
      "Ġkidogo": 2146,
      "ĠFedha": 2147,
      "Ġvili": 2148,
      "nyu": 2149,
      "ĠMaji": 2150,
      "ali": 2151,
      "zaliwa": 2152,
      "miliki": 2153,
      "Ġmaalum": 2154,
      "ĠTU": 2155,
      "bora": 2156,
      "CHI": 2157,
      "Ġkampeni": 2158,
      "Ġjimbo": 2159,
      "ĠBenki": 2160,
      "nsia": 2161,
      "Ġmsimu": 2162,
      "Ġkuya": 2163,
      "ĠTanga": 2164,
      "lizo": 2165,
      "ĠKampuni": 2166,
      "ly": 2167,
      "pili": 2168,
      "Ġkuchukua": 2169,
      "Ġkilimo": 2170,
      "ungani": 2171,
      "kelezaji": 2172,
      "Ġwatumishi": 2173,
      "Ġakim": 2174,
      "Ġwachezaji": 2175,
      "ĠMtendaji": 2176,
      "Ġlinalo": 2177,
      "Ġmiradi": 2178,
      "undo": 2179,
      "Ġaliyekuwa": 2180,
      "ĠUli": 2181,
      "Ġpro": 2182,
      "Ġmaja": 2183,
      "ĠKW": 2184,
      "Ġila": 2185,
      "ĠHAYA": 2186,
      "Ġkisheria": 2187,
      "ĠMwenyezi": 2188,
      "thibiti": 2189,
      "ĠBBC": 2190,
      "Wa": 2191,
      "ĠMbeya": 2192,
      "ĠKuna": 2193,
      "Ġule": 2194,
      "ĠNyerere": 2195,
      "giza": 2196,
      "eleke": 2197,
      "funza": 2198,
      "Ġngo": 2199,
      "spa": 2200,
      "ganda": 2201,
      "jeti": 2202,
      "Ġkauli": 2203,
      "ktari": 2204,
      "kato": 2205,
      "ane": 2206,
      "Ġvifaa": 2207,
      "Ġkime": 2208,
      "pte": 2209,
      "mokrasia": 2210,
      "ĠMjini": 2211,
      "rehemu": 2212,
      "ĠKIS": 2213,
      "Ġ:": 2214,
      "marisha": 2215,
      "ĠAF": 2216,
      "ĠKuhusu": 2217,
      "Ġgari": 2218,
      "Ġushindi": 2219,
      "Ġbarua": 2220,
      "Ġharaka": 2221,
      "Ġraia": 2222,
      "ĠUjerumani": 2223,
      "buni": 2224,
      "Ġanasema": 2225,
      "tembelea": 2226,
      "blia": 2227,
      "Ġhatari": 2228,
      "Ġmgo": 2229,
      "book": 2230,
      "hifadhi": 2231,
      "Ġ*": 2232,
      "ĠDAR": 2233,
      "gua": 2234,
      "DEMA": 2235,
      "ĠIs": 2236,
      "ĠChina": 2237,
      "biwa": 2238,
      "Ġjeshi": 2239,
      "2018": 2240,
      "Ġhati": 2241,
      "pema": 2242,
      "tokeza": 2243,
      "ĠMama": 2244,
      "Ġmas": 2245,
      "Ġwenyewe": 2246,
      "tisha": 2247,
      "Ġwenza": 2248,
      "knolojia": 2249,
      "takayo": 2250,
      "waji": 2251,
      "ĠMO": 2252,
      "cebook": 2253,
      "Ġhoja": 2254,
      "Ġmaso": 2255,
      "Ġwafu": 2256,
      "Ġsafari": 2257,
      "ĠKikuu": 2258,
      "ws": 2259,
      "zidi": 2260,
      "Ġpesa": 2261,
      "gh": 2262,
      "Ġmiezi": 2263,
      "Ġitakuwa": 2264,
      "bwe": 2265,
      "Ġtano": 2266,
      "Ġaliyo": 2267,
      "ĠKanisa": 2268,
      "Ġsoka": 2269,
      "Ġnga": 2270,
      "Ġmataifa": 2271,
      "ĠKUTO": 2272,
      "yansi": 2273,
      "ld": 2274,
      "fafan": 2275,
      "Ġsaba": 2276,
      "ĠJumata": 2277,
      "ĠKristo": 2278,
      "CO": 2279,
      "Ġ2013": 2280,
      "Ġkuboresha": 2281,
      "ĠJimbo": 2282,
      "Ġwaziri": 2283,
      "Ġmafuta": 2284,
      "takao": 2285,
      "nganyi": 2286,
      "rodha": 2287,
      "Ġhazi": 2288,
      "Ġusafi": 2289,
      "shinda": 2290,
      "ĠNove": 2291,
      "Ġikiwemo": 2292,
      "tihani": 2293,
      "Ġushirikiano": 2294,
      "jui": 2295,
      "Ġfara": 2296,
      "Ġ21": 2297,
      "JINI": 2298,
      "ster": 2299,
      "Ġfulani": 2300,
      "shirika": 2301,
      "ĠIkulu": 2302,
      "Ġzita": 2303,
      "ĠMagazeti": 2304,
      "fuatia": 2305,
      "ĠJijini": 2306,
      "Ġkulia": 2307,
      "Ġuamuzi": 2308,
      "tiwa": 2309,
      "tta": 2310,
      "dri": 2311,
      "ĠWananchi": 2312,
      "ĠMaja": 2313,
      "ĠMan": 2314,
      "ĠMKO": 2315,
      "samba": 2316,
      "Ġsahihi": 2317,
      "Ġmoto": 2318,
      "Ġjumla": 2319,
      "SU": 2320,
      "Ġkamati": 2321,
      "Ġkuweza": 2322,
      "chwa": 2323,
      "zimi": 2324,
      "Ġupinzani": 2325,
      "Ġuhuru": 2326,
      "CCM": 2327,
      "ĠZa": 2328,
      "Ġkodi": 2329,
      "land": 2330,
      "Ġ23": 2331,
      "Ġtabia": 2332,
      "simamizi": 2333,
      "ĠMiaka": 2334,
      "ĠWatoto": 2335,
      "kushoto": 2336,
      "ĠSh": 2337,
      "Ġmamlaka": 2338,
      "kulima": 2339,
      "funga": 2340,
      "pwa": 2341,
      "nki": 2342,
      "Ġama": 2343,
      "shughuli": 2344,
      "Ġkima": 2345,
      "kamili": 2346,
      "shambu": 2347,
      "UNGU": 2348,
      "kondari": 2349,
      "Ha": 2350,
      "lote": 2351,
      "Ġukumbi": 2352,
      "Ġmikoa": 2353,
      "nyama": 2354,
      "ONGO": 2355,
      "shuhu": 2356,
      "kulia": 2357,
      "VU": 2358,
      "ĠKuwa": 2359,
      "Ġmagari": 2360,
      "Ġmkataba": 2361,
      "ongeza": 2362,
      "Ġamewa": 2363,
      "al": 2364,
      "ĠAkizungumza": 2365,
      "ĠHivi": 2366,
      "Ġkikubwa": 2367,
      "Ġkushoto": 2368,
      "ĠMamlaka": 2369,
      "nunua": 2370,
      "baki": 2371,
      "daiwa": 2372,
      "ssan": 2373,
      "fisadi": 2374,
      "Ġutekelezaji": 2375,
      "ĠIdara": 2376,
      "sika": 2377,
      "Ġmdogo": 2378,
      "ĠSepte": 2379,
      "Ġkushirikiana": 2380,
      "sasi": 2381,
      "ĠAu": 2382,
      "Ġc": 2383,
      "muhimu": 2384,
      "Ġajira": 2385,
      "Ġas": 2386,
      "ĠBia": 2387,
      "pendeke": 2388,
      "Ġambavyo": 2389,
      "Ġshirika": 2390,
      "ĠMeneja": 2391,
      "ĠHome": 2392,
      "ĠBodi": 2393,
      "uliza": 2394,
      "nywa": 2395,
      "FANYA": 2396,
      "Ġyata": 2397,
      "Ġhistoria": 2398,
      "Ġaliwa": 2399,
      "Ġ24": 2400,
      "ĠViongozi": 2401,
      "Ġkupunguza": 2402,
      "toba": 2403,
      "sikia": 2404,
      "HILI": 2405,
      "ĠQ": 2406,
      "akaya": 2407,
      "rani": 2408,
      "endesha": 2409,
      "Ġyeyote": 2410,
      "Ġbilioni": 2411,
      "Ġutawala": 2412,
      "ĠUni": 2413,
      "Ġviwanja": 2414,
      "Ġsera": 2415,
      "ngeneza": 2416,
      "Ġmapenzi": 2417,
      "Ġmifu": 2418,
      "Ġwasio": 2419,
      "Ġthamani": 2420,
      "Ġuzinduzi": 2421,
      "ĠUsa": 2422,
      "Ġligi": 2423,
      "siliana": 2424,
      "Ġkubadili": 2425,
      "ĠJose": 2426,
      "tha": 2427,
      "Ġuma": 2428,
      "ĠBiblia": 2429,
      "Ġmale": 2430,
      "subu": 2431,
      "ph": 2432,
      "Ġviwanda": 2433,
      "ĠHassan": 2434,
      "fanyabiashara": 2435,
      "Ġwateja": 2436,
      "ĠApri": 2437,
      "ILI": 2438,
      "KIO": 2439,
      "Ġakitoa": 2440,
      "Ġmau": 2441,
      "kamatwa": 2442,
      "patia": 2443,
      "Ġinaweza": 2444,
      "ĠNNE": 2445,
      "shima": 2446,
      "jijini": 2447,
      "Ġutaratibu": 2448,
      "lumu": 2449,
      "DU": 2450,
      "MIS": 2451,
      "Ġmatukio": 2452,
      "eli": 2453,
      "Ġmawazo": 2454,
      "zamo": 2455,
      "ĠMWAKA": 2456,
      "usu": 2457,
      "ĠMoro": 2458,
      "Ġkifo": 2459,
      "ul": 2460,
      "subuhi": 2461,
      "jaa": 2462,
      "Ġujumla": 2463,
      "Ġwanaume": 2464,
      "Ġro": 2465,
      "ĠMTAA": 2466,
      "ARI": 2467,
      "Ġajali": 2468,
      "Ġkucheza": 2469,
      "ĠChe": 2470,
      "Ġmapema": 2471,
      "ĠMATU": 2472,
      "ĠKitu": 2473,
      "kri": 2474,
      "ĠNovemba": 2475,
      "dato": 2476,
      "shati": 2477,
      "Ġbaba": 2478,
      "Ġkutafuta": 2479,
      "Ġmzuri": 2480,
      "panga": 2481,
      "husisha": 2482,
      "Na": 2483,
      "ver": 2484,
      "bingwa": 2485,
      "Ġkuleta": 2486,
      "ENZI": 2487,
      "ANO": 2488,
      "yumba": 2489,
      "ad": 2490,
      "mbuzi": 2491,
      "Ġyale": 2492,
      "kala": 2493,
      "ĠFi": 2494,
      "Ġvideo": 2495,
      "Ġwamekuwa": 2496,
      "hamia": 2497,
      "unti": 2498,
      "ĠMka": 2499,
      "Ġtafadhali": 2500,
      "Ku": 2501,
      "ĠJakaya": 2502,
      "Ġkasi": 2503,
      "ĠFeb": 2504,
      "Ġlolote": 2505,
      "ongozo": 2506,
      "endeleza": 2507,
      "Ġkijiji": 2508,
      "ktoba": 2509,
      "Ġ22": 2510,
      "Ġmasi": 2511,
      "ĠNje": 2512,
      "ĠUganda": 2513,
      "Ġuchunguzi": 2514,
      "Ġimekuwa": 2515,
      "ema": 2516,
      "mbaji": 2517,
      "changia": 2518,
      "ransa": 2519,
      "Ġvitendo": 2520,
      "Ġkusaidia": 2521,
      "spaa": 2522,
      "Ġugonjwa": 2523,
      "Ġkumi": 2524,
      "Ġtoka": 2525,
      "ĠKili": 2526,
      "siri": 2527,
      "Ġdakika": 2528,
      "Ġneno": 2529,
      "Ġndiye": 2530,
      "Ġlita": 2531,
      "ĠFacebook": 2532,
      "wezekana": 2533,
      "wekwa": 2534,
      "julikana": 2535,
      "ĠUku": 2536,
      "Ġdola": 2537,
      "tani": 2538,
      "ur": 2539,
      "Ġwatanzania": 2540,
      "Ġmahakama": 2541,
      "Ġkupamba": 2542,
      "ĠVijana": 2543,
      "Ġkitaifa": 2544,
      "Ġkiuchumi": 2545,
      "elezea": 2546,
      "fesa": 2547,
      "nispaa": 2548,
      "ĠBiashara": 2549,
      "Ġakili": 2550,
      "furahi": 2551,
      "gramu": 2552,
      "tuba": 2553,
      "Ġkuangalia": 2554,
      "??": 2555,
      "shanga": 2556,
      "zoe": 2557,
      "amaa": 2558,
      "AM": 2559,
      "Ġ2012": 2560,
      "ĠKata": 2561,
      "ĠMkoani": 2562,
      "Ġnani": 2563,
      "Ġmashindano": 2564,
      "Ġngazi": 2565,
      "Ġuhusiano": 2566,
      "sisitiza": 2567,
      "YU": 2568,
      "ĠKaimu": 2569,
      "ĠAs": 2570,
      "Ġkutaka": 2571,
      "Ġjuhudi": 2572,
      "ngezeka": 2573,
      "Ġwakazi": 2574,
      "Ġulinzi": 2575,
      "ĠOktoba": 2576,
      "ĠMha": 2577,
      "lli": 2578,
      "Ġumuhimu": 2579,
      "Ġmati": 2580,
      "tegemea": 2581,
      "Ġkusa": 2582,
      "Ġkata": 2583,
      "pongeza": 2584,
      "Ġuhaki": 2585,
      "ĠHapa": 2586,
      "ĠBaba": 2587,
      "Ġkutekeleza": 2588,
      "ANGA": 2589,
      "LIO": 2590,
      "ĠMwe": 2591,
      "Ġsiyo": 2592,
      "falme": 2593,
      "nyeza": 2594,
      "ĠAgo": 2595,
      "Ġkuishi": 2596,
      "ĠAr": 2597,
      "Ġzisi": 2598,
      "Ġkutosha": 2599,
      "ĠHai": 2600,
      "Ġulimwengu": 2601,
      "zika": 2602,
      "ĠChadema": 2603,
      "ĠPamoja": 2604,
      "ANDA": 2605,
      "Ġsoko": 2606,
      "misho": 2607,
      "Ġfilamu": 2608,
      "semba": 2609,
      "tumiaji": 2610,
      "Ġrahisi": 2611,
      "ĠMohamed": 2612,
      "Ġasubuhi": 2613,
      "ĠSasa": 2614,
      "simu": 2615,
      "ĠKombe": 2616,
      "chache": 2617,
      "ĠHuduma": 2618,
      "Ġufu": 2619,
      "ĠShiriki": 2620,
      "ringa": 2621,
      "Ġbaadaye": 2622,
      "ridhi": 2623,
      "ANZA": 2624,
      "Ġanaweza": 2625,
      "Ġalama": 2626,
      "ĠUnaweza": 2627,
      "guu": 2628,
      "RASA": 2629,
      "ĠCHADEMA": 2630,
      "Ġsifa": 2631,
      "lifu": 2632,
      "chuano": 2633,
      "ĠKila": 2634,
      "Ġge": 2635,
      "ĠSeptemba": 2636,
      "ĠMpango": 2637,
      "yuo": 2638,
      "les": 2639,
      "hana": 2640,
      "ĠMAKA": 2641,
      "pia": 2642,
      "Ġmawasiliano": 2643,
      "leta": 2644,
      "gharibi": 2645,
      "DHI": 2646,
      "ĠKwanza": 2647,
      "ĠCH": 2648,
      "Ġwajumbe": 2649,
      "ĠMh": 2650,
      "pambano": 2651,
      "Ġfaragha": 2652,
      "Ġkatiba": 2653,
      "ĠÂ©": 2654,
      "kano": 2655,
      "Ġwilayani": 2656,
      "Ġkuwepo": 2657,
      "Ġwalimu": 2658,
      "UNI": 2659,
      "ĠKiongozi": 2660,
      "Ġheshima": 2661,
      "Ġkisha": 2662,
      "Ġutafiti": 2663,
      "ĠNdani": 2664,
      "ĠJumuiya": 2665,
      "Ġkupambana": 2666,
      "nuni": 2667,
      "Ġndogo": 2668,
      "lahi": 2669,
      "Ġhafla": 2670,
      "ĠKaskazini": 2671,
      "ĠPA": 2672,
      "Ġvituo": 2673,
      "Ġwapi": 2674,
      "ĠHivyo": 2675,
      "kaa": 2676,
      "ĠJulai": 2677,
      "Ġusha": 2678,
      "Ġawamu": 2679,
      "Ġzenye": 2680,
      "Ġmahali": 2681,
      "Ġ2014": 2682,
      "ĠJuni": 2683,
      "uari": 2684,
      "Ġkwao": 2685,
      "ngawa": 2686,
      "Ġmitandao": 2687,
      "LIWA": 2688,
      "ĠIli": 2689,
      "Ġkim": 2690,
      "Ġmakundi": 2691,
      "mail": 2692,
      "amond": 2693,
      "ĠFu": 2694,
      "kristo": 2695,
      "Ni": 2696,
      "Ġmadai": 2697,
      "ĠMajaliwa": 2698,
      "mina": 2699,
      "FF": 2700,
      "Ġ100": 2701,
      "Ġuba": 2702,
      "ĠHospitali": 2703,
      "LU": 2704,
      "line": 2705,
      "ĠSALA": 2706,
      "goma": 2707,
      "Ġnyo": 2708,
      "ĠAgosti": 2709,
      "ĠIringa": 2710,
      "Ġwazazi": 2711,
      "Ġhusika": 2712,
      "ZAMA": 2713,
      "kufu": 2714,
      "hoji": 2715,
      ".\"": 2716,
      "ĠMei": 2717,
      "shambulia": 2718,
      "Ġ199": 2719,
      "Ġfaida": 2720,
      "ĠProfesa": 2721,
      "ngwe": 2722,
      "Ġnayo": 2723,
      "dhuria": 2724,
      "Ġmkononi": 2725,
      "Ġwapo": 2726,
      "Ġkusoma": 2727,
      "kabiliana": 2728,
      "Ġkuelekea": 2729,
      "Ġgazeti": 2730,
      "ambu": 2731,
      "25": 2732,
      "pate": 2733,
      "Ġmvu": 2734,
      "ĠIsra": 2735,
      "GUFU": 2736,
      "Ġkujiunga": 2737,
      "taja": 2738,
      "frika": 2739,
      "Ġchuo": 2740,
      "Ġvilivyo": 2741,
      "Ġdamu": 2742,
      "OTE": 2743,
      "ARIFA": 2744,
      "Ġmapato": 2745,
      "ISI": 2746,
      "ĠMaisha": 2747,
      "Ġmacho": 2748,
      "Ġkanuni": 2749,
      "ĠMachi": 2750,
      "GUFULI": 2751,
      "chagua": 2752,
      "hati": 2753,
      "UF": 2754,
      "takapo": 2755,
      "ĠJanuari": 2756,
      "Ġâ": 2757,
      "icha": 2758,
      "Ġwakuu": 2759,
      "wekezaji": 2760,
      "ĠShule": 2761,
      "uni": 2762,
      "ĠMPYA": 2763,
      "kaji": 2764,
      "Ġmalengo": 2765,
      "zalishaji": 2766,
      "sanya": 2767,
      "Ġuweze": 2768,
      "Ġkuwasili": 2769,
      "ĠUtalii": 2770,
      "zam": 2771,
      "Ġmahitaji": 2772,
      "ene": 2773,
      "safiri": 2774,
      "Ġuliofanyika": 2775,
      "Ġsherehe": 2776,
      "ĠMatokeo": 2777,
      "ĠNdugu": 2778,
      "tt": 2779,
      "Ġkufanyika": 2780,
      "lim": 2781,
      "Ġrafiki": 2782,
      "reke": 2783,
      "lalami": 2784,
      "lali": 2785,
      "bamba": 2786,
      "Ġkushindwa": 2787,
      "Ġzisizo": 2788,
      "Ġhalisi": 2789,
      "Ġnita": 2790,
      "ENI": 2791,
      "ĠKwenye": 2792,
      "Ġmchakato": 2793,
      "LIMU": 2794,
      "ĠES": 2795,
      "nyume": 2796,
      "ĠMATUKIO": 2797,
      "kriba": 2798,
      "chukuliwa": 2799,
      "Ġbajeti": 2800,
      "Ġfuraha": 2801,
      "ĠCi": 2802,
      "simamo": 2803,
      "ĠThe": 2804,
      "Ġsauti": 2805,
      "er": 2806,
      "ruhusu": 2807,
      "RIKALI": 2808,
      "Ġwizara": 2809,
      "SHI": 2810,
      "Ġmaswali": 2811,
      "ĠMAGUFULI": 2812,
      "Ġkuimarisha": 2813,
      "hiti": 2814,
      "Ġyenu": 2815,
      "Ġmajina": 2816,
      "hadi": 2817,
      "Ġ#": 2818,
      "chaguliwa": 2819,
      "ĠUmma": 2820,
      "unganisho": 2821,
      "Ġnye": 2822,
      "keti": 2823,
      "rejea": 2824,
      "ĠSy": 2825,
      "WAHILI": 2826,
      "Ġkuhusiana": 2827,
      "Ġkuzingatia": 2828,
      "kuna": 2829,
      "ĠCa": 2830,
      "Ġmakini": 2831,
      "Ġwimbo": 2832,
      "TOTO": 2833,
      "onesha": 2834,
      "ĠUfaransa": 2835,
      "inali": 2836,
      "kodi": 2837,
      "Ġchanzo": 2838,
      "nce": 2839,
      "jeruhi": 2840,
      "hiri": 2841,
      "Ġthe": 2842,
      "ndisi": 2843,
      "jabu": 2844,
      "Ġumoja": 2845,
      "Ġbaina": 2846,
      "ĠWiki": 2847,
      "jitokeza": 2848,
      "Ġkanisa": 2849,
      "MOJA": 2850,
      "Ġkitabu": 2851,
      "ongozwa": 2852,
      "wadi": 2853,
      "ĠKisiasa": 2854,
      "sikiliza": 2855,
      "Ġkisasa": 2856,
      "Ġmadini": 2857,
      "Ġmume": 2858,
      "Tu": 2859,
      "ĠSana": 2860,
      "vya": 2861,
      "Ġmchezaji": 2862,
      "raja": 2863,
      "ĠDiamond": 2864,
      "Ġblog": 2865,
      "Ġfainali": 2866,
      "shuhudia": 2867,
      "Ġmiwili": 2868,
      "Ġmipango": 2869,
      "Ġkesho": 2870,
      "nze": 2871,
      "IDI": 2872,
      "ĠSERIKALI": 2873,
      "fanyia": 2874,
      "epu": 2875,
      "Ġmazuri": 2876,
      "kuwepo": 2877,
      "amili": 2878,
      "chote": 2879,
      "Ġmabao": 2880,
      "ĠJumapili": 2881,
      "saidizi": 2882,
      "laha": 2883,
      "Ġ28": 2884,
      "Ġmaamuzi": 2885,
      "hariri": 2886,
      "ĠMbo": 2887,
      "Ġwakulima": 2888,
      "subiri": 2889,
      "ING": 2890,
      "elea": 2891,
      "ww": 2892,
      "Ġkufuatia": 2893,
      "ONI": 2894,
      "Ġaskari": 2895,
      "Ġ26": 2896,
      "Ġmatibabu": 2897,
      "ĠHII": 2898,
      ",\"": 2899,
      "ĠTru": 2900,
      "ĠUnited": 2901,
      "ĠMwandishi": 2902,
      "ruki": 2903,
      "Ġwasanii": 2904,
      "Ġyaani": 2905,
      "kubaliano": 2906,
      "ĠMorogoro": 2907,
      "ĠJIJINI": 2908,
      "jengwa": 2909,
      "ĠTAARIFA": 2910,
      "habari": 2911,
      "Ġkinyume": 2912,
      "Ġmasomo": 2913,
      "lle": 2914,
      "Ġiwe": 2915,
      "Ġpepe": 2916,
      "Ġuhakika": 2917,
      "wote": 2918,
      "Ġ40": 2919,
      "Ġkikosi": 2920,
      "ĠKISWAHILI": 2921,
      "Ġyule": 2922,
      "DHAA": 2923,
      "mamo": 2924,
      "Ġtaratibu": 2925,
      "2017": 2926,
      "ndaliwa": 2927,
      "ton": 2928,
      "kwimu": 2929,
      "lam": 2930,
      "fanye": 2931,
      "mbwa": 2932,
      "Ġjioni": 2933,
      "tambua": 2934,
      "Ġmichuano": 2935,
      "nekana": 2936,
      "ĠZaidi": 2937,
      "Ġkusikiliza": 2938,
      "ombe": 2939,
      "Ġziki": 2940,
      "mamosi": 2941,
      "Ġwaliokuwa": 2942,
      "Ġnzima": 2943,
      "Ġmaombi": 2944,
      "bina": 2945,
      "kofu": 2946,
      "Ġvyema": 2947,
      "ud": 2948,
      "wazi": 2949,
      "Ġlicha": 2950,
      "Ġika": 2951,
      "ĠMAGA": 2952,
      "ĠAfisa": 2953,
      "Ġmakala": 2954,
      "ĠUjenzi": 2955,
      "Ġvingine": 2956,
      "kataa": 2957,
      "port": 2958,
      "pp": 2959,
      "Ġmajukumu": 2960,
      "Ġuvu": 2961,
      "Ġkuni": 2962,
      "ĠKan": 2963,
      "ĠMazi": 2964,
      "SO": 2965,
      "Ġurais": 2966,
      "ĠMimi": 2967,
      "Ġfo": 2968,
      "simama": 2969,
      "Ġupendo": 2970,
      "salimia": 2971,
      "ĠDKT": 2972,
      "10": 2973,
      "LIA": 2974,
      "Ġripoti": 2975,
      "Ġbenki": 2976,
      "ĠShirikisho": 2977,
      "Ġzoezi": 2978,
      "Ġhawana": 2979,
      "ĠPili": 2980,
      "Ġkumbu": 2981,
      "gizo": 2982,
      "ĠNE": 2983,
      "SH": 2984,
      "niki": 2985,
      "Ġkali": 2986,
      "kabili": 2987,
      "teli": 2988,
      "Ġalivyo": 2989,
      "ĠHali": 2990,
      "WI": 2991,
      "zoezi": 2992,
      "beba": 2993,
      "Ġmarehemu": 2994,
      "ĠLI": 2995,
      "Ġmatu": 2996,
      "nua": 2997,
      "ĠâĢ¦": 2998,
      "ĠJoseph": 2999,
      "ĠTAIFA": 3000,
      "kie": 3001,
      "Ġua": 3002,
      "paka": 3003,
      "Ġmakosa": 3004,
      "Ġchochote": 3005,
      "Ġwowote": 3006,
      "tro": 3007,
      "ĠBongo": 3008,
      "Ġkupokea": 3009,
      "SE": 3010,
      "ngamano": 3011,
      "âĢ¦]": 3012,
      "Ġkumaliza": 3013,
      "ĠMar": 3014,
      "ĠUsi": 3015,
      "Kwa": 3016,
      "ĠShein": 3017,
      "Ġkurudi": 3018,
      "Ġrushwa": 3019,
      "Ġ[âĢ¦]": 3020,
      "jumaa": 3021,
      "Ġmashabiki": 3022,
      "id": 3023,
      "fikiri": 3024,
      "luhu": 3025,
      "geria": 3026,
      "Ġmgombea": 3027,
      "Ġmpira": 3028,
      "ĠKilimo": 3029,
      "uza": 3030,
      "uka": 3031,
      "lenga": 3032,
      "sea": 3033,
      "the": 3034,
      "ĠManispaa": 3035,
      "ĠKassim": 3036,
      "ĠAmesema": 3037,
      "Ġkipa": 3038,
      "Ġwanaweza": 3039,
      "ZETI": 3040,
      "ĠKutoka": 3041,
      "ĠSALAAM": 3042,
      "Ġsilaha": 3043,
      "fuu": 3044,
      "ĠMoja": 3045,
      "Ġliki": 3046,
      "Ġvyote": 3047,
      "ĠRwanda": 3048,
      "ndia": 3049,
      "Ġkutokea": 3050,
      "tarajia": 3051,
      "Ġmaslahi": 3052,
      "ĠBLO": 3053,
      "Ġvinavyo": 3054,
      "liza": 3055,
      "Ġlenye": 3056,
      "ĠIDHAA": 3057,
      "ĠKUWA": 3058,
      "ĠMikoa": 3059,
      "ĠKituo": 3060,
      "Ġkutangaza": 3061,
      "CHE": 3062,
      "Ġwajibu": 3063,
      "Ġ27": 3064,
      "njaro": 3065,
      "RIA": 3066,
      "tumiwa": 3067,
      "ĠTimu": 3068,
      "ĠNdi": 3069,
      "Ġanga": 3070,
      "MII": 3071,
      "Ġamekuwa": 3072,
      "ADA": 3073,
      "thiri": 3074,
      "Ġtuzo": 3075,
      "Ġkushinda": 3076,
      "tengo": 3077,
      "ĠDr": 3078,
      "ĠUsalama": 3079,
      "tafuta": 3080,
      "ĠAprili": 3081,
      "ruari": 3082,
      "amizi": 3083,
      "laa": 3084,
      "Ġsalama": 3085,
      "BI": 3086,
      "Ġkukabiliana": 3087,
      "Ġmawili": 3088,
      "tumaini": 3089,
      "ĠPO": 3090,
      "Ġushauri": 3091,
      "kezaji": 3092,
      "ĠKilima": 3093,
      "Ġtakriba": 3094,
      "toaji": 3095,
      "ĠProf": 3096,
      "ENDE": 3097,
      "Ġkia": 3098,
      "tihada": 3099,
      "Ġhotuba": 3100,
      "ripoti": 3101,
      "Ġalim": 3102,
      "gawa": 3103,
      "ngida": 3104,
      "mavu": 3105,
      "ĠKorea": 3106,
      "ĠJinsi": 3107,
      "humiwa": 3108,
      "ĠMpya": 3109,
      "Ġkike": 3110,
      "Ġkufa": 3111,
      "Ġkukamili": 3112,
      "Ġmti": 3113,
      "thibitisha": 3114,
      "Ġ07": 3115,
      "ĠFran": 3116,
      "ĠSte": 3117,
      "ment": 3118,
      "ol": 3119,
      "karibisha": 3120,
      "Ġkufunga": 3121,
      "fsiri": 3122,
      "Ġmchango": 3123,
      "Ġsta": 3124,
      "katika": 3125,
      "fanyiwa": 3126,
      "Ġmiundo": 3127,
      "Ġkusimamia": 3128,
      "Ġsiri": 3129,
      "ĠIran": 3130,
      "ĠKanda": 3131,
      "alamu": 3132,
      "Ġ29": 3133,
      "ĠAzam": 3134,
      "ĠSingida": 3135,
      "mbinu": 3136,
      "Ġbure": 3137,
      "ndamano": 3138,
      "shahara": 3139,
      "maye": 3140,
      "Ġdhambi": 3141,
      "uliwa": 3142,
      "ĠMAA": 3143,
      "ĠMipango": 3144,
      "Ġwalipo": 3145,
      "wasi": 3146,
      "ĠFC": 3147,
      "tangazaji": 3148,
      "ĠAn": 3149,
      "lala": 3150,
      "Ġkuzuia": 3151,
      "Ġkwako": 3152,
      "ĠNde": 3153,
      "ĠMWANA": 3154,
      "KIWA": 3155,
      "Ġmbunge": 3156,
      "sajili": 3157,
      "Ġmbo": 3158,
      "Ġmajibu": 3159,
      "ĠTrump": 3160,
      "18": 3161,
      "mbulizi": 3162,
      "Ki": 3163,
      "ĠSimu": 3164,
      "VI": 3165,
      "Ġmaalumu": 3166,
      "nal": 3167,
      "Ġyasi": 3168,
      "ongea": 3169,
      "wakilishi": 3170,
      "Ġiliyopo": 3171,
      "ĠFebruari": 3172,
      "Ġulikuwa": 3173,
      "Ġswali": 3174,
      "Ġalipokuwa": 3175,
      "ĠNCH": 3176,
      "ĠPILI": 3177,
      "FYA": 3178,
      "Ġkujifunza": 3179,
      "Ġutendaji": 3180,
      "nyanga": 3181,
      "ngaji": 3182,
      "ĠWazee": 3183,
      "FI": 3184,
      "zao": 3185,
      "Ġjiji": 3186,
      "ĠUrusi": 3187,
      "ĠMako": 3188,
      "Ġiko": 3189,
      "Ġletu": 3190,
      "ISA": 3191,
      "uru": 3192,
      "Ġufisadi": 3193,
      "Ġmikono": 3194,
      "dhabu": 3195,
      "ĠKilimanjaro": 3196,
      "Ġataka": 3197,
      "kamani": 3198,
      "ĠKUTOKA": 3199,
      "mana": 3200,
      "gaji": 3201,
      "ĠZAIDI": 3202,
      "ndalizi": 3203,
      "ĠNCHINI": 3204,
      "ĠCity": 3205,
      "ĠKUHU": 3206,
      "ambamba": 3207,
      "Ġmakubaliano": 3208,
      "bada": 3209,
      "gera": 3210,
      "robi": 3211,
      "Ġof": 3212,
      "Ġkulipa": 3213,
      "Ġuzalishaji": 3214,
      "fafanua": 3215,
      "Ġkuonyesha": 3216,
      "Ġwageni": 3217,
      "Ġkosa": 3218,
      "gia": 3219,
      "Ġkidato": 3220,
      "ĠMafu": 3221,
      "ĠWATU": 3222,
      "Ġshaka": 3223,
      "ĠNchini": 3224,
      "ĠZilizo": 3225,
      "ngependa": 3226,
      "somaji": 3227,
      "Ġzawadi": 3228,
      "Ġmahusiano": 3229,
      "Ġipo": 3230,
      "liasili": 3231,
      "malizika": 3232,
      "ĠVya": 3233,
      "Ġkuko": 3234,
      "Ġucha": 3235,
      "ĠUtu": 3236,
      "Ġnusu": 3237,
      "ĠMAGAZETI": 3238,
      "Ġitakayo": 3239,
      "Ġmazoezi": 3240,
      "nganisha": 3241,
      "ĠMfumo": 3242,
      "Ġjamaa": 3243,
      "Ġmalipo": 3244,
      "ambi": 3245,
      "Ġupo": 3246,
      "ĠAbdu": 3247,
      "Ka": 3248,
      "Ġmbinu": 3249,
      "Ġwapiga": 3250,
      "saha": 3251,
      "Ġkifu": 3252,
      "Ġon": 3253,
      "Ġmaafisa": 3254,
      "mwi": 3255,
      "Ġkume": 3256,
      "mbizi": 3257,
      "can": 3258,
      "ĠMzee": 3259,
      "Ġambako": 3260,
      "ĠMtakatifu": 3261,
      "Ġkusababisha": 3262,
      "Ġbaraza": 3263,
      "Ġvime": 3264,
      "ĠNairobi": 3265,
      "pigwa": 3266,
      "ĠJumamosi": 3267,
      "pitia": 3268,
      "jaribu": 3269,
      "ĠDuniani": 3270,
      "Ġzangu": 3271,
      "Ġkulinda": 3272,
      "ĠSehemu": 3273,
      "tto": 3274,
      "amani": 3275,
      "ĠTabia": 3276,
      "Ġsh": 3277,
      "ĠAfri": 3278,
      "Ġkuwasiliana": 3279,
      "Ġmwishoni": 3280,
      "ĠKWENYE": 3281,
      "jadala": 3282,
      "Ġhana": 3283,
      "Ġkununua": 3284,
      "hakiki": 3285,
      "llah": 3286,
      "kufa": 3287,
      "ĠMbi": 3288,
      "Ġwito": 3289,
      "ny": 3290,
      "ĠMis": 3291,
      "kali": 3292,
      "tajwa": 3293,
      "silimali": 3294,
      "JU": 3295,
      "tel": 3296,
      "Ġhalmashauri": 3297,
      "dan": 3298,
      "ĠBasi": 3299,
      "Ġmfupi": 3300,
      "ĠCUF": 3301,
      "Ġkambi": 3302,
      "shughulikia": 3303,
      "Ġkukutana": 3304,
      "Ġmitatu": 3305,
      "ĠYAKE": 3306,
      "sante": 3307,
      "ĠUN": 3308,
      "Ġmikopo": 3309,
      "ZIN": 3310,
      "ĠBOFYA": 3311,
      "Ġkamili": 3312,
      "ĠMstaafu": 3313,
      "TANO": 3314,
      "Ġutamaduni": 3315,
      "ĠSyria": 3316,
      "Ġmwandishi": 3317,
      "Ġbao": 3318,
      "ĠShinyanga": 3319,
      "ĠFara": 3320,
      "pinga": 3321,
      "Ġwaweze": 3322,
      "lezi": 3323,
      "bati": 3324,
      "Ġkuanzisha": 3325,
      "ĠBLOG": 3326,
      "Ġzilizopo": 3327,
      "KATI": 3328,
      "Ġkuzungumza": 3329,
      "my": 3330,
      "Ġwau": 3331,
      "baliana": 3332,
      "ule": 3333,
      "ĠDARASA": 3334,
      "ĠIjumaa": 3335,
      "acha": 3336,
      "ĠKagera": 3337,
      "Ġkuomba": 3338,
      "ĠKami": 3339,
      "ĠSoma": 3340,
      "ĠUtamaduni": 3341,
      "ĠMaelezo": 3342,
      "Ġwagonjwa": 3343,
      "PE": 3344,
      "ĠBar": 3345,
      "ote": 3346,
      "dhimisho": 3347,
      "ĠPla": 3348,
      "Ġteknolojia": 3349,
      "semaji": 3350,
      "Ġjitihada": 3351,
      "ĠDesemba": 3352,
      "Ta": 3353,
      "ĠNyumba": 3354,
      "Ġgo": 3355,
      "Ġbarani": 3356,
      "rudani": 3357,
      "ĠJaji": 3358,
      "ĠFre": 3359,
      "ĠFo": 3360,
      "ĠMada": 3361,
      "tambuli": 3362,
      "Ġhewa": 3363,
      "sama": 3364,
      "pisha": 3365,
      "TAIFA": 3366,
      "Ġmaadili": 3367,
      "Ġbahati": 3368,
      "fungwa": 3369,
      "Ġhadhara": 3370,
      "JE": 3371,
      "dhamini": 3372,
      "Ġhusu": 3373,
      "ĠKUHUSU": 3374,
      "ika": 3375,
      "Ġyaki": 3376,
      "if": 3377,
      "Ġmwenza": 3378,
      "ĠSanaa": 3379,
      "Ġubora": 3380,
      "Ġmsimamo": 3381,
      "Ġnaomba": 3382,
      "ĠAsili": 3383,
      "Ġmagonjwa": 3384,
      "Ġkuchangia": 3385,
      "fia": 3386,
      "onal": 3387,
      "sabu": 3388,
      "Ġmakuu": 3389,
      "Ġ2011": 3390,
      "ahidi": 3391,
      "wishi": 3392,
      "ĠVo": 3393,
      "ĠJuli": 3394,
      "unda": 3395,
      "Ġmaadhimisho": 3396,
      "ĠKiislamu": 3397,
      "Ġmba": 3398,
      "Ġg": 3399,
      "Ġkufuata": 3400,
      "mpuni": 3401,
      "ngekuwa": 3402,
      "ght": 3403,
      "Ġmigo": 3404,
      "ĠMafunzo": 3405,
      "Ġjuzi": 3406,
      "Ġhuenda": 3407,
      "diwani": 3408,
      "ĠTawala": 3409,
      "kusu": 3410,
      "12": 3411,
      "DIO": 3412,
      "Ġnafuu": 3413,
      "uawa": 3414,
      "Ġkukaa": 3415,
      "Ġ&": 3416,
      "ĠFA": 3417,
      "kwaa": 3418,
      "lili": 3419,
      "ĠKamanda": 3420,
      "mara": 3421,
      "Ġwafanyabiashara": 3422,
      "Ġkukosa": 3423,
      "Ġmli": 3424,
      "naji": 3425,
      "ĠBlog": 3426,
      "bwana": 3427,
      "tumwa": 3428,
      "Ġmikutano": 3429,
      "Ġutoaji": 3430,
      "UNG": 3431,
      "Ġkuondoa": 3432,
      "Ġmwanafunzi": 3433,
      "nana": 3434,
      "lele": 3435,
      "Ġ2010": 3436,
      "huma": 3437,
      "ĠUki": 3438,
      "nganyika": 3439,
      "Ġuwekezaji": 3440,
      "Ġkote": 3441,
      "ĠBARA": 3442,
      "LEA": 3443,
      "ssi": 3444,
      "Ġvyuo": 3445,
      "salimiana": 3446,
      "jadili": 3447,
      "Ġwatatu": 3448,
      "Ġmchana": 3449,
      "Ġdarasa": 3450,
      "Ġchache": 3451,
      "ĠSamia": 3452,
      "11": 3453,
      "Ġmaje": 3454,
      "sisha": 3455,
      "andaliwa": 3456,
      "Ġvipi": 3457,
      "Ġkufika": 3458,
      "Ġzako": 3459,
      "ĠJinsia": 3460,
      "shna": 3461,
      "ĠVideo": 3462,
      "Ġkwetu": 3463,
      "Ġkulevya": 3464,
      "kh": 3465,
      "diri": 3466,
      "Ġkuendeleza": 3467,
      "Ġkuingi": 3468,
      "ĠSIKU": 3469,
      "ns": 3470,
      "Ġingawa": 3471,
      "ĠZilizopo": 3472,
      "ĠMfuko": 3473,
      "rakani": 3474,
      "panda": 3475,
      "Ġkijana": 3476,
      "ĠChar": 3477,
      "Ġkupo": 3478,
      "tter": 3479,
      "ĠMadini": 3480,
      "ĠUshirikiano": 3481,
      "ĠWALIO": 3482,
      "tangazwa": 3483,
      "ĠPaul": 3484,
      "luma": 3485,
      "tolea": 3486,
      "Ġmshindi": 3487,
      "gram": 3488,
      "ĠWanafunzi": 3489,
      "Ġmadarakani": 3490,
      "Ġkumbukumbu": 3491,
      "amali": 3492,
      "ĠDO": 3493,
      "lie": 3494,
      "Ġmahakamani": 3495,
      "ĠMBA": 3496,
      "gaidi": 3497,
      "ungo": 3498,
      "hutu": 3499,
      "ĠMasuala": 3500,
      "Ġamem": 3501,
      "nufa": 3502,
      "UNGE": 3503,
      "mua": 3504,
      "Ġmaandamano": 3505,
      "Ġutakuwa": 3506,
      "zalisha": 3507,
      "gano": 3508,
      "Ġndipo": 3509,
      "Ġprogramu": 3510,
      "ĠIdhaa": 3511,
      "ĠHaya": 3512,
      "ĠMri": 3513,
      "kabiliwa": 3514,
      "dui": 3515,
      "kakati": 3516,
      "ĠJulius": 3517,
      "Ġkutengeneza": 3518,
      "ĠJumatatu": 3519,
      "Ġkilo": 3520,
      "ĠMke": 3521,
      "ĠSuluhu": 3522,
      "Ġkulingana": 3523,
      "Ġjukumu": 3524,
      "âĢĿ.": 3525,
      "ĠMS": 3526,
      "ondoa": 3527,
      "ĠNime": 3528,
      "ĠNigeria": 3529,
      "Ġkuacha": 3530,
      "buri": 3531,
      "bika": 3532,
      "ĠMatangazo": 3533,
      "ĠYako": 3534,
      "andaa": 3535,
      "Ġhifadhi": 3536,
      "ĠEd": 3537,
      "Ġmingi": 3538,
      "chester": 3539,
      "FUNZI": 3540,
      "ci": 3541,
      "biria": 3542,
      "Ġkujadili": 3543,
      "ĠJAMII": 3544,
      "Ġsekondari": 3545,
      "ĠMtume": 3546,
      "ĠNyi": 3547,
      "Ġkuwapa": 3548,
      "pungufu": 3549,
      "19": 3550,
      "ĠUTA": 3551,
      "Ġtaa": 3552,
      "ĠWanawake": 3553,
      "siwa": 3554,
      "ĠLowa": 3555,
      "MIA": 3556,
      "Ġukiwa": 3557,
      "Ġwataalamu": 3558,
      "Ġhakika": 3559,
      "50": 3560,
      "Ġmate": 3561,
      "Ġmwenyekiti": 3562,
      "ĠNdege": 3563,
      "Ġco": 3564,
      "ĠArse": 3565,
      "Ġametoa": 3566,
      "zoefu": 3567,
      "bishwa": 3568,
      "nera": 3569,
      "zindua": 3570,
      "Ġat": 3571,
      "Ġjengo": 3572,
      "ĠKUU": 3573,
      "Ġisiyo": 3574,
      "seme": 3575,
      "Ġorodha": 3576,
      "ĠMna": 3577,
      "Ġrisasi": 3578,
      "ĠNjia": 3579,
      "peleka": 3580,
      "endelee": 3581,
      "Ġsambamba": 3582,
      "bda": 3583,
      "SS": 3584,
      "elezwa": 3585,
      "Picha": 3586,
      "ELE": 3587,
      "Ġmsanii": 3588,
      "ngele": 3589,
      "andikwa": 3590,
      "Ġmwanaume": 3591,
      "ĠBora": 3592,
      "Ġwingi": 3593,
      "ĠMradi": 3594,
      "ĠPwani": 3595,
      "CA": 3596,
      "Ġahadi": 3597,
      "Ġkuondoka": 3598,
      "Ġiwapo": 3599,
      "ifu": 3600,
      "Ġvitabu": 3601,
      "Ġmiundombinu": 3602,
      "Ġkiswahili": 3603,
      "ĠBAADA": 3604,
      "ĠMitaa": 3605,
      "mko": 3606,
      "Ġkitendo": 3607,
      "ĠMifu": 3608,
      "Ġhaina": 3609,
      "Ġmko": 3610,
      "ĠSisi": 3611,
      "fanuzi": 3612,
      "Ġmagazeti": 3613,
      "ĠMawa": 3614,
      "ĠALI": 3615,
      "Ġ31": 3616,
      "Ġtuhuma": 3617,
      "vo": 3618,
      "ĠSeif": 3619,
      "ĠMaliasili": 3620,
      "Ġwenzake": 3621,
      "Ġmazao": 3622,
      "Ġkuandika": 3623,
      "ĠNew": 3624,
      "nishwa": 3625,
      "ĠMhandisi": 3626,
      "ĠManchester": 3627,
      "ĠWabunge": 3628,
      "fau": 3629,
      "HANI": 3630,
      "ĠUfafanuzi": 3631,
      "Ġpande": 3632,
      "ĠJumanne": 3633,
      "Ġmpenzi": 3634,
      "Ġkukuza": 3635,
      "mpa": 3636,
      "ĠMsi": 3637,
      "ĠHakuna": 3638,
      "ĠMKOA": 3639,
      "ĠSai": 3640,
      "zigo": 3641,
      "lendo": 3642,
      "Ġnyimbo": 3643,
      "ĠAir": 3644,
      "Ġmgogoro": 3645,
      "ima": 3646,
      "Ġiliyofanyika": 3647,
      "ĠMasharti": 3648,
      "ĠMazingira": 3649,
      "Ġwanyama": 3650,
      "Ġjo": 3651,
      "Ġkutambua": 3652,
      "Ali": 3653,
      "ĠKAMA": 3654,
      "ifadhi": 3655,
      "Ġusajili": 3656,
      "leo": 3657,
      "ĠTovuti": 3658,
      "ĠMrisho": 3659,
      "zalendo": 3660,
      "ĠJuu": 3661,
      "jio": 3662,
      "kelezwa": 3663,
      "ZARA": 3664,
      "!!!": 3665,
      "hudhuria": 3666,
      "KUU": 3667,
      "ĠIsrael": 3668,
      "ĠHar": 3669,
      "shambuliaji": 3670,
      "Ġmakazi": 3671,
      "ĠMsingi": 3672,
      "hamiaji": 3673,
      "ndoni": 3674,
      "Ġakisalimiana": 3675,
      "ĠMtandao": 3676,
      "Ġjirani": 3677,
      "Ġmaandalizi": 3678,
      "SILI": 3679,
      "Ġkanda": 3680,
      "ĠFaragha": 3681,
      "shika": 3682,
      "hitajika": 3683,
      "cto": 3684,
      "tumikia": 3685,
      "kumbuka": 3686,
      "ĠIta": 3687,
      "ĠMali": 3688,
      "ĠKenyatta": 3689,
      "ĠMisri": 3690,
      "Ġmno": 3691,
      "wn": 3692,
      "ĠTam": 3693,
      "CC": 3694,
      "Ġkusini": 3695,
      "Ġmashirika": 3696,
      "30": 3697,
      "ĠBina": 3698,
      "Ġkipe": 3699,
      "Ġkupewa": 3700,
      "Ġrangi": 3701,
      "anzishwa": 3702,
      "ĠSABA": 3703,
      "twara": 3704,
      "Ġyasiyo": 3705,
      "DANI": 3706,
      "fikisha": 3707,
      "Ġusafiri": 3708,
      "Ġhofu": 3709,
      "ĠHO": 3710,
      "ĠIlani": 3711,
      "Ġbungeni": 3712,
      "Ġwazee": 3713,
      "ĠME": 3714,
      "Ġmatumaini": 3715,
      "ĠSayansi": 3716,
      "ĠNina": 3717,
      "ĠNishati": 3718,
      "Ġzile": 3719,
      "heshi": 3720,
      "ĠÂ»": 3721,
      "Ġushahidi": 3722,
      "Ġwatakao": 3723,
      "Ġmitano": 3724,
      "taalamu": 3725,
      "jumu": 3726,
      "ĠBI": 3727,
      "ĠKutokana": 3728,
      "Ġnika": 3729,
      "Ġadhabu": 3730,
      "ĠKupata": 3731,
      "Ġtiketi": 3732,
      "Ġkatikati": 3733,
      "ĠMata": 3734,
      "mar": 3735,
      "rou": 3736,
      "ĠMba": 3737,
      "Ġuwezekano": 3738,
      "dhamu": 3739,
      "Ġh": 3740,
      "ĠHifadhi": 3741,
      "bisho": 3742,
      "gundua": 3743,
      "ĠLowassa": 3744,
      "bino": 3745,
      "ĠWilli": 3746,
      "Ġkombe": 3747,
      "ĠTI": 3748,
      "Ġrasilimali": 3749,
      "ĠJumatano": 3750,
      "Ġalio": 3751,
      "DEO": 3752,
      "ĠWaandishi": 3753,
      "Ġinavyo": 3754,
      "lipa": 3755,
      "ĠMji": 3756,
      "ĠHami": 3757,
      "swi": 3758,
      "sefu": 3759,
      "choche": 3760,
      "Ġkupatikana": 3761,
      "mbulisho": 3762,
      "sse": 3763,
      "ĠOb": 3764,
      "Ġroho": 3765,
      "kwisha": 3766,
      "ĠâĢ¢": 3767,
      "ĠEng": 3768,
      "Ġmanu": 3769,
      "shuka": 3770,
      "BO": 3771,
      "Ġvingi": 3772,
      "Ġkutembelea": 3773,
      "Ġwatendaji": 3774,
      "Ġwashiriki": 3775,
      "Ġnane": 3776,
      "ĠArdhi": 3777,
      "lau": 3778,
      "Ġyanaweza": 3779,
      "Ġmuungano": 3780,
      "Ġawe": 3781,
      "Ġmadaktari": 3782,
      "ĠMagharibi": 3783,
      "Ġmadawa": 3784,
      "Ġ+": 3785,
      "Ġkupele": 3786,
      "lafu": 3787,
      "Ġshida": 3788,
      "nondoni": 3789,
      "tandaoni": 3790,
      "ĠAbdul": 3791,
      "fahami": 3792,
      "Ġdirisha": 3793,
      "ĠRoho": 3794,
      "fanisi": 3795,
      "Ġmakao": 3796,
      "stahili": 3797,
      "nunuzi": 3798,
      "rakati": 3799,
      "Ġajabu": 3800,
      "kusan": 3801,
      "per": 3802,
      "Ġatakuwa": 3803,
      "14": 3804,
      "ĠKigoma": 3805,
      "Ġupatikana": 3806,
      "fanikisha": 3807,
      "RC": 3808,
      "ĠHatua": 3809,
      "Ġujao": 3810,
      "Ġmadaraka": 3811,
      "lazimi": 3812,
      "ĠRedio": 3813,
      "Ġvipa": 3814,
      "Ġkikuu": 3815,
      "Ġzingine": 3816,
      "ine": 3817,
      "hamasisha": 3818,
      "Ġmvua": 3819,
      "Ġmiguu": 3820,
      "hamisi": 3821,
      "eni": 3822,
      "ĠBU": 3823,
      "sara": 3824,
      "ĠILI": 3825,
      "Ġvifo": 3826,
      "ambuki": 3827,
      "Ġdhamana": 3828,
      "ĠNCHI": 3829,
      "ĠMTI": 3830,
      "Ġkocha": 3831,
      "rafiki": 3832,
      "ĠUme": 3833,
      "funguzi": 3834,
      "hanga": 3835,
      "pishwa": 3836,
      "tari": 3837,
      "Ġutalii": 3838,
      "Ġkiume": 3839,
      "Ġmgeni": 3840,
      "RD": 3841,
      "ramu": 3842,
      "ĠJUMA": 3843,
      "Ġupatikanaji": 3844,
      "Ġwanapo": 3845,
      "Ġhisia": 3846,
      "Ġwaliyo": 3847,
      "Ġlako": 3848,
      "Si": 3849,
      "ĠMbali": 3850,
      "hitimu": 3851,
      "ĠUturuki": 3852,
      "Ġchumba": 3853,
      "Ġwaja": 3854,
      "ĠNews": 3855,
      "stawi": 3856,
      "tiba": 3857,
      "Ġmarafiki": 3858,
      "fikiria": 3859,
      "Ġmadhara": 3860,
      "ĠVipindi": 3861,
      "Ġwafuasi": 3862,
      "toliki": 3863,
      "RIKI": 3864,
      "taki": 3865,
      "Ġmasharti": 3866,
      "Ġ>": 3867,
      "piki": 3868,
      "bunifu": 3869,
      "ĠMabadiliko": 3870,
      "ĠTV": 3871,
      "22": 3872,
      "seni": 3873,
      "Ġmawaziri": 3874,
      "CHU": 3875,
      "Ġkubadilisha": 3876,
      "ĠBarua": 3877,
      "ĠTuma": 3878,
      "ĠMSI": 3879,
      "ĠNaye": 3880,
      "Ġwanasema": 3881,
      "shiki": 3882,
      "ĠWE": 3883,
      "Ġniaba": 3884,
      "Ġbahari": 3885,
      "//": 3886,
      "ĠSudan": 3887,
      "Ġakisema": 3888,
      "ĠVIDEO": 3889,
      "Ġngumu": 3890,
      "stani": 3891,
      "bert": 3892,
      "LAYA": 3893,
      "chungaji": 3894,
      "ĠMtwara": 3895,
      "ĠCharles": 3896,
      "Ba": 3897,
      "ĠMakonda": 3898,
      "ĠJiji": 3899,
      "mmed": 3900,
      "ĠUM": 3901,
      "13": 3902,
      "200": 3903,
      "Ġkutumika": 3904,
      "Ġmasikio": 3905,
      "achi": 3906,
      "siriamali": 3907,
      "ĠKwe": 3908,
      "ĠIkiwa": 3909,
      "ĠMAKAMU": 3910,
      "ĠNili": 3911,
      "TOA": 3912,
      "Ġmapi": 3913,
      "ĠMaso": 3914,
      "ĠWakuu": 3915,
      "ĠObama": 3916,
      "Ġkupoteza": 3917,
      "ĠUrais": 3918,
      "Ġd": 3919,
      "ĠMkazi": 3920,
      "ĠHawa": 3921,
      "Ġsafi": 3922,
      "ĠTanganyika": 3923,
      "ĠTFF": 3924,
      "rundi": 3925,
      "Ġmzima": 3926,
      "kubaliana": 3927,
      "Ġwadogo": 3928,
      "Ġvibaya": 3929,
      "Ġupya": 3930,
      "ĠRaila": 3931,
      "ĠKinondoni": 3932,
      "zito": 3933,
      "den": 3934,
      "katikati": 3935,
      "tie": 3936,
      "Ġmisingi": 3937,
      "REHE": 3938,
      "Ġimesema": 3939,
      "cis": 3940,
      "bii": 3941,
      "saini": 3942,
      "ĠMIA": 3943,
      "Ġpichani": 3944,
      "kamata": 3945,
      "Ġuzoefu": 3946,
      "for": 3947,
      "ĠSekondari": 3948,
      "elle": 3949,
      "Ġufanisi": 3950,
      "husiana": 3951,
      "Ġnjema": 3952,
      "URI": 3953,
      "Ġkupinga": 3954,
      "py": 3955,
      "Ġkudhibiti": 3956,
      "zui": 3957,
      "ĠWIZARA": 3958,
      "ĠWAN": 3959,
      "Ġpembe": 3960,
      "nguja": 3961,
      "ĠArsenal": 3962,
      "ĠCh": 3963,
      "ĠKamishna": 3964,
      "Ġkimoja": 3965,
      "letea": 3966,
      "ĠKO": 3967,
      "ĠUkurasa": 3968,
      "Ġutakao": 3969,
      "hutubia": 3970,
      "udi": 3971,
      "ĠUlinzi": 3972,
      "ĠSO": 3973,
      "15": 3974,
      "mber": 3975,
      "Ġwachache": 3976,
      "Ġburudani": 3977,
      "ĠMWENYE": 3978,
      "ĠMao": 3979,
      "Ġwavuti": 3980,
      "ĠKaribu": 3981,
      "Ġhaija": 3982,
      "pedia": 3983,
      "uzu": 3984,
      "arabu": 3985,
      "ĠAmani": 3986,
      "Ġuso": 3987,
      "wekeza": 3988,
      "ĠBila": 3989,
      "MBU": 3990,
      "kiri": 3991,
      "livu": 3992,
      "BWA": 3993,
      "nerali": 3994,
      "Ġamri": 3995,
      "ĠIme": 3996,
      "Ġathari": 3997,
      "Ġkas": 3998,
      "Ġwasiwasi": 3999,
      "Ġyupo": 4000,
      "ĠMHE": 4001,
      "Ġmako": 4002,
      "ĠMala": 4003,
      "Ġspika": 4004,
      "Ġgesi": 4005,
      "16": 4006,
      "faka": 4007,
      "Ġakawa": 4008,
      "gambo": 4009,
      "Ġdaraja": 4010,
      "Ġhawaku": 4011,
      "ĠUka": 4012,
      "Ġkiti": 4013,
      "ĠMakala": 4014,
      "ribio": 4015,
      "cia": 4016,
      "ĠMKOANI": 4017,
      "dumia": 4018,
      "Ġmnamo": 4019,
      "Ġkiwanda": 4020,
      "reva": 4021,
      "ĠAFYA": 4022,
      "ĠWilliam": 4023,
      "Ġyuko": 4024,
      "ĠMIAKA": 4025,
      "ndama": 4026,
      "Ġmikakati": 4027,
      "lango": 4028,
      "Ġkufungua": 4029,
      "chunguza": 4030,
      "choki": 4031,
      "EZI": 4032,
      "ĠMwisho": 4033,
      "ward": 4034,
      "ĠSHE": 4035,
      "ĠHUU": 4036,
      "Ġbonyeza": 4037,
      "ĠAskofu": 4038,
      "thirika": 4039,
      "rahisi": 4040,
      "orge": 4041,
      "Ġkuepu": 4042,
      "Ġwenu": 4043,
      "ĠWafanyakazi": 4044,
      "heshimiwa": 4045,
      "levi": 4046,
      "ĠApp": 4047,
      "ĠHis": 4048,
      "kilisha": 4049,
      "rura": 4050,
      "Ġkuzaliwa": 4051,
      "Ġtuki": 4052,
      "ĠIdadi": 4053,
      "âĢĶ": 4054,
      "zingatia": 4055,
      "MBI": 4056,
      "ĠTO": 4057,
      "ĠMTOTO": 4058,
      "Ġmisaada": 4059,
      "nk": 4060,
      "Ġkuendesha": 4061,
      "ISHI": 4062,
      "Ġalitoa": 4063,
      "ĠLis": 4064,
      "YI": 4065,
      "ĠMohammed": 4066,
      "IBU": 4067,
      "Ġibada": 4068,
      "ĠFrancis": 4069,
      "ii": 4070,
      "Ġw": 4071,
      "ĠNgu": 4072,
      "ĠVYO": 4073,
      "ĠUtafiti": 4074,
      "logu": 4075,
      "Ġija": 4076,
      "bidi": 4077,
      "ĠUtawala": 4078,
      "gwanga": 4079,
      "Ġharakati": 4080,
      "Ġwasichana": 4081,
      "usi": 4082,
      "MP": 4083,
      "Ġkuuza": 4084,
      "dacom": 4085,
      "ber": 4086,
      "ĠUlimwengu": 4087,
      "ĠUNA": 4088,
      "mmy": 4089,
      "jea": 4090,
      "INGI": 4091,
      "INE": 4092,
      "Ġtamaa": 4093,
      "ĠUnguja": 4094,
      "Ġmanufaa": 4095,
      "VE": 4096,
      "Ġuliopo": 4097,
      "tishwa": 4098,
      "kwazo": 4099,
      "witter": 4100,
      "ĠMsanii": 4101,
      "um": 4102,
      "TAKA": 4103,
      "Ġ196": 4104,
      "WAN": 4105,
      "Ġkuongoza": 4106,
      "fundisha": 4107,
      "pendekezo": 4108,
      "ondoka": 4109,
      "Ġmimba": 4110,
      "ENDA": 4111,
      "Ġhatimaye": 4112,
      "ĠHuu": 4113,
      "fadhili": 4114,
      "ĠSaba": 4115,
      "TANA": 4116,
      "nji": 4117,
      "Ġmiti": 4118,
      "swada": 4119,
      "elekezo": 4120,
      "Ġkutimiza": 4121,
      "ĠMTIHANI": 4122,
      "ĠStars": 4123,
      "tana": 4124,
      "anya": 4125,
      "Ġmabo": 4126,
      "suku": 4127,
      "Ġ60": 4128,
      "nali": 4129,
      "safa": 4130,
      "ĠKAZI": 4131,
      "Ġkutatua": 4132,
      "17": 4133,
      "Ġziada": 4134,
      "Se": 4135,
      "ĠMwak": 4136,
      "ĠPemba": 4137,
      "Ġabiria": 4138,
      "Ġmbe": 4139,
      "Ġndoto": 4140,
      "ĠMaalum": 4141,
      "Ġwanasiasa": 4142,
      "ĠMUNGU": 4143,
      "ĠTamko": 4144,
      "Ġtiba": 4145,
      "Ġmakampuni": 4146,
      "Ġufunguzi": 4147,
      "ĠInsta": 4148,
      "ĠTAZAMA": 4149,
      "Ġwanahabari": 4150,
      "ĠVita": 4151,
      "ibuka": 4152,
      "Ġkuwasaidia": 4153,
      "rembo": 4154,
      "lah": 4155,
      "Ġviwango": 4156,
      "anzisha": 4157,
      "Ġkuamini": 4158,
      "Ġishara": 4159,
      "Ġwatumiaji": 4160,
      "ĠHama": 4161,
      "Ġvijiji": 4162,
      "Ġbarabarani": 4163,
      "ngezeko": 4164,
      "Ġkuua": 4165,
      "ĠMmoja": 4166,
      "Ġkizazi": 4167,
      "uma": 4168,
      "drid": 4169,
      "inti": 4170,
      "lulizo": 4171,
      "Mi": 4172,
      "Ġmbingu": 4173,
      "PATA": 4174,
      "Ġviti": 4175,
      "vaa": 4176,
      "hada": 4177,
      "linda": 4178,
      "ĠViwanda": 4179,
      "ĠVodacom": 4180,
      "ĠMku": 4181,
      "Ġhukumu": 4182,
      "Ġand": 4183,
      "Ġkuandaa": 4184,
      "Ġakaunti": 4185,
      "Ġsura": 4186,
      "okoa": 4187,
      "gereza": 4188,
      "Ġkuche": 4189,
      "hova": 4190,
      "ĠIndia": 4191,
      "Ġkumwa": 4192,
      "Ġkigeni": 4193,
      "Ġatakaye": 4194,
      "Ġwakimbizi": 4195,
      "ĠKigwanga": 4196,
      "pendwa": 4197,
      "Ġusimamizi": 4198,
      "ĠWake": 4199,
      "ĠKijerumani": 4200,
      "ĠX": 4201,
      "azi": 4202,
      "muziki": 4203,
      "Ġvijijini": 4204,
      "ĠAh": 4205,
      "stari": 4206,
      "gezo": 4207,
      "Ġpeke": 4208,
      "pum": 4209,
      "yembe": 4210,
      "ĠVYOMBO": 4211,
      "Ġmjadala": 4212,
      "angalia": 4213,
      "ĠMadrid": 4214,
      "ĠAlhamisi": 4215,
      "Ġuhalifu": 4216,
      "ĠNYU": 4217,
      "Ġtakwimu": 4218,
      "ĠZI": 4219,
      "ruhusi": 4220,
      "Ġkudumu": 4221,
      "ĠWaislamu": 4222,
      "thmini": 4223,
      "Ġalbino": 4224,
      "uzulu": 4225,
      "ĠMpira": 4226,
      "ĠMwakilishi": 4227,
      "Ġlilikuwa": 4228,
      "ps": 4229,
      "uts": 4230,
      "tumie": 4231,
      "jita": 4232,
      "Ġkupanda": 4233,
      "Ġkichwa": 4234,
      "Ġdalili": 4235,
      "ĠBurundi": 4236,
      "Ġkaskazini": 4237,
      "Ġkuba": 4238,
      "nyesho": 4239,
      "Ġnyota": 4240,
      "ĠUKI": 4241,
      "vie": 4242,
      "jiunga": 4243,
      "Ġkijeshi": 4244,
      "oko": 4245,
      "rume": 4246,
      "MANI": 4247,
      "od": 4248,
      "Ġbongo": 4249,
      "ĠMtoto": 4250,
      "stina": 4251,
      "pelekea": 4252,
      "right": 4253,
      "ĠKha": 4254,
      "Ġhoteli": 4255,
      "Ġkukubali": 4256,
      "andikie": 4257,
      "Ġmtazamo": 4258,
      "leke": 4259,
      "ĠSam": 4260,
      "lex": 4261,
      "Ġuongo": 4262,
      "shindani": 4263,
      "pesi": 4264,
      "ble": 4265,
      "pangwa": 4266,
      "Ġusio": 4267,
      "Ġkulikuwa": 4268,
      "01": 4269,
      "ĠTabora": 4270,
      "agiza": 4271,
      "VYO": 4272,
      "ĠELIMU": 4273,
      "ĠMaana": 4274,
      "resheni": 4275,
      "Ġunajua": 4276,
      "ESHI": 4277,
      "ĠUongozi": 4278,
      "ĠVyombo": 4279,
      "onald": 4280,
      "ĠIb": 4281,
      "Ġuteuzi": 4282,
      "umba": 4283,
      "ĠSwa": 4284,
      "shiria": 4285,
      "ĠRama": 4286,
      "kuaji": 4287,
      "anga": 4288,
      "TC": 4289,
      "endeshaji": 4290,
      "ĠMapambano": 4291,
      "ĠLugha": 4292,
      "tekeleza": 4293,
      "ZWA": 4294,
      "ĠBra": 4295,
      "Ġhawaja": 4296,
      "Ġmkakati": 4297,
      "ĠAnd": 4298,
      "ganga": 4299,
      "Ġfomu": 4300,
      "ĠMoshi": 4301,
      "tengene": 4302,
      "ĠCHU": 4303,
      "zaa": 4304,
      "Ġ198": 4305,
      "ĠKiba": 4306,
      "rne": 4307,
      "ĠYehova": 4308,
      "stan": 4309,
      "vana": 4310,
      "katili": 4311,
      "ĠMaafisa": 4312,
      "kabidhiwa": 4313,
      "Ġnishati": 4314,
      "ĠKozi": 4315,
      "\".": 4316,
      "nganya": 4317,
      "rn": 4318,
      "Ġmashambulizi": 4319,
      "Ġkudai": 4320,
      "ĠCHINI": 4321,
      "Ġwakim": 4322,
      "ongezeka": 4323,
      "Ġijayo": 4324,
      "kamilika": 4325,
      "leni": 4326,
      "saka": 4327,
      "Ġhalali": 4328,
      "Ġmabaya": 4329,
      "utsche": 4330,
      "Ġwagombea": 4331,
      "Ġkwangu": 4332,
      "03": 4333,
      "shtaka": 4334,
      "Ġleseni": 4335,
      "shwe": 4336,
      "shirikisha": 4337,
      "Ġmagumu": 4338,
      "maani": 4339,
      "tri": 4340,
      "Ġkibiashara": 4341,
      "lalamiko": 4342,
      "ĠOrodha": 4343,
      "Ġidara": 4344,
      "qu": 4345,
      "Ġhawezi": 4346,
      "yuta": 4347,
      "tende": 4348,
      "Ġchombo": 4349,
      "UNIA": 4350,
      "ĠYeye": 4351,
      "jeruhiwa": 4352,
      "Ġmtihani": 4353,
      "Ġ197": 4354,
      "mbili": 4355,
      "ĠNini": 4356,
      "masha": 4357,
      "ĠGeorge": 4358,
      "takazo": 4359,
      "ĠTeknolojia": 4360,
      "ANZI": 4361,
      "KWA": 4362,
      "ndoa": 4363,
      "tikadi": 4364,
      "rekebisho": 4365,
      "Ġng": 4366,
      "Ġiliyotolewa": 4367,
      "ĠJenerali": 4368,
      "ĠMwakyembe": 4369,
      "rithi": 4370,
      "urugu": 4371,
      "Ġkuha": 4372,
      "Ġmaelekezo": 4373,
      "Ġmashariki": 4374,
      "ĠKUJI": 4375,
      "jifunza": 4376,
      "ĠMbowe": 4377,
      "lazimika": 4378,
      "ĠTigo": 4379,
      "rufuku": 4380,
      "ĠWAKE": 4381,
      "ĠWILAYA": 4382,
      "Ġakiongea": 4383,
      "raia": 4384,
      "ĠKijiji": 4385,
      "saa": 4386,
      "Ġmiliki": 4387,
      "shirikiana": 4388,
      "DOMA": 4389,
      "twe": 4390,
      "ĠMKUTANO": 4391,
      "ĠCopy": 4392,
      "Ġham": 4393,
      "Ġwakubwa": 4394,
      "AND": 4395,
      "Ġamei": 4396,
      "mpyuta": 4397,
      "Ġpointi": 4398,
      "Ġmade": 4399,
      "shangaza": 4400,
      "Ġvikao": 4401,
      "Ġvyao": 4402,
      "loni": 4403,
      "Ġshabiki": 4404,
      "Ġdada": 4405,
      "Ġniki": 4406,
      "Ġtuandikie": 4407,
      "hojiano": 4408,
      "ĠMIKO": 4409,
      "nduliwa": 4410,
      "ĠInjili": 4411,
      "Ġmbio": 4412,
      "Ġkuamua": 4413,
      "ĠMakao": 4414,
      "ĠHayo": 4415,
      "Ġakina": 4416,
      "ĠCopyright": 4417,
      "Ġmajengo": 4418,
      "heshimu": 4419,
      "Ġanapo": 4420,
      "leza": 4421,
      "Ġmasikioni": 4422,
      "stu": 4423,
      "umbele": 4424,
      "hoo": 4425,
      "Ġwalivyo": 4426,
      "nuel": 4427,
      "Mako": 4428,
      "nesha": 4429,
      "ĠAliye": 4430,
      "ĠRejea": 4431,
      "bainisha": 4432,
      "Ġmkewe": 4433,
      "ĠMaswali": 4434,
      "ĠZe": 4435,
      "ĠTatu": 4436,
      "ĠMatumizi": 4437,
      "ĠUkumbi": 4438,
      "ĠUSA": 4439,
      "Ġno": 4440,
      "Ġsanaa": 4441,
      "bel": 4442,
      "Ġlao": 4443,
      "Ġkuvi": 4444,
      "ĠMgombea": 4445,
      "Ġwanavyo": 4446,
      "ĠMuongozo": 4447,
      "ndamizi": 4448,
      "Ġkipi": 4449,
      "2016": 4450,
      "WT": 4451,
      "ĠDeutsche": 4452,
      "Ġwavu": 4453,
      "zunguka": 4454,
      "Ġwatakuwa": 4455,
      "ĠDemokrasia": 4456,
      "TANGA": 4457,
      "24": 4458,
      "ĠWelle": 4459,
      "ĠMjumbe": 4460,
      "ĠNeno": 4461,
      "Ġange": 4462,
      "Ġnguo": 4463,
      "Ġkadi": 4464,
      "fakari": 4465,
      "TANZANIA": 4466,
      "CHAGU": 4467,
      "Ġkuso": 4468,
      "ĠNgo": 4469,
      "rejesha": 4470,
      "ĠDODOMA": 4471,
      "rishaji": 4472,
      "wajibiki": 4473,
      "KWE": 4474,
      "ndika": 4475,
      "ven": 4476,
      "ĠUjumbe": 4477,
      "anze": 4478,
      "Ġmigogoro": 4479,
      "ĠUtumishi": 4480,
      "Ġjuma": 4481,
      "Ġmipaka": 4482,
      "Ġkiji": 4483,
      "Ġkuonekana": 4484,
      "suaji": 4485,
      "Ġkipato": 4486,
      "Ġkuunga": 4487,
      "ĠWANAFUNZI": 4488,
      "Ġwanayo": 4489,
      "Ġdemokrasia": 4490,
      "saji": 4491,
      "sahau": 4492,
      "ĠSU": 4493,
      "undwa": 4494,
      "BAR": 4495,
      "num": 4496,
      "Ġmacha": 4497,
      "ĠMashi": 4498,
      "Ġkutolewa": 4499,
      "ĠKusikiliza": 4500,
      "Ġamewataka": 4501,
      "ĠKigwangalla": 4502,
      "ingiza": 4503,
      "ĠGu": 4504,
      "binadamu": 4505,
      "ĠWikipedia": 4506,
      "Ġalii": 4507,
      "Makofi": 4508,
      "Ġmatunda": 4509,
      "ĠGeita": 4510,
      "wasilishwa": 4511,
      "mbuliwa": 4512,
      "Ġmilele": 4513,
      "kuza": 4514,
      "ĠNakili": 4515,
      "TAZAMA": 4516,
      "ĠHaiwajibiki": 4517,
      "ĠMakuu": 4518,
      "Ġkiunganisho": 4519,
      "Ġmashu": 4520,
      "LISI": 4521,
      "zimio": 4522,
      "Ġviunganisho": 4523,
      "ĠSekta": 4524,
      "ĠAN": 4525,
      "Ġvitafungua": 4526,
      "ĠSere": 4527,
      "ĠWetu": 4528,
      "ĠKILI": 4529,
      "og": 4530,
      "rati": 4531,
      "Ġmapambano": 4532,
      "elele": 4533,
      "chukuzi": 4534,
      "funguliwa": 4535,
      "Ġutulivu": 4536,
      "Ġkuhifadhi": 4537,
      "ĠRuvu": 4538,
      "Ġbwana": 4539,
      "Ġmifugo": 4540,
      "WANA": 4541,
      "39": 4542,
      "ĠMuhi": 4543,
      "ĠNEC": 4544,
      "lsea": 4545,
      "ĠKlabu": 4546,
      "Ġkutokuwa": 4547,
      "ĠKuli": 4548,
      "Ġhasi": 4549,
      "ĠMAP": 4550,
      "Ġjumuiya": 4551,
      "Ġpasi": 4552,
      "Ġwapinzani": 4553,
      "ĠTE": 4554,
      "Ġvisi": 4555,
      "roho": 4556,
      "Ġtija": 4557,
      "KUTANA": 4558,
      "Ġmbegu": 4559,
      "ĠBungeni": 4560,
      "ĠWha": 4561,
      "Ġvurugu": 4562,
      "jue": 4563,
      "ĠAWA": 4564,
      "ĠSiasa": 4565,
      "Ġmatakwa": 4566,
      "Ġvyakula": 4567,
      "Ġyalikuwa": 4568,
      "ĠLindi": 4569,
      "chukulia": 4570,
      "ikh": 4571,
      "://": 4572,
      "potea": 4573,
      "ĠMawaziri": 4574,
      "07": 4575,
      "Ġtisa": 4576,
      "anzia": 4577,
      "Ġkuzalisha": 4578,
      "Ġmajira": 4579,
      "Ġinasema": 4580,
      "ĠMBE": 4581,
      "ĠMBALI": 4582,
      "Ġmiji": 4583,
      "Ġunapo": 4584,
      "Ġsare": 4585,
      "Ġlile": 4586,
      "ĠAd": 4587,
      "ct": 4588,
      "ngiwa": 4589,
      "mon": 4590,
      "ĠTuko": 4591,
      "mbani": 4592,
      "dw": 4593,
      "Ġdharura": 4594,
      "ĠAka": 4595,
      "ĠWakala": 4596,
      "ĠWali": 4597,
      "ĠWaki": 4598,
      "ĠUwekezaji": 4599,
      "ĠWema": 4600,
      "Ġkuwania": 4601,
      "Ġmkali": 4602,
      "Ġtakribani": 4603,
      "ĠAwamu": 4604,
      "Ġkiungo": 4605,
      "twaa": 4606,
      "Ġilipo": 4607,
      "phe": 4608,
      "Ġubunge": 4609,
      "Ġsemina": 4610,
      "Ġbinti": 4611,
      "57": 4612,
      "Ġkilichopo": 4613,
      "Ġmapya": 4614,
      "ĠSHU": 4615,
      "Ġongezeko": 4616,
      "Ġkero": 4617,
      "Ġlangu": 4618,
      "bile": 4619,
      "chango": 4620,
      "Ġnyakati": 4621,
      "ĠChelsea": 4622,
      "picha": 4623,
      "Cha": 4624,
      "ĠHadi": 4625,
      "ĠAjira": 4626,
      "Ġujuzi": 4627,
      "ys": 4628,
      "JILI": 4629,
      "ĠEngland": 4630,
      "Ġkusamba": 4631,
      "pendekeza": 4632,
      "Ġdhati": 4633,
      "ONGE": 4634,
      "Ġwawekezaji": 4635,
      "Ġkupita": 4636,
      "ISH": 4637,
      "Ġmarufuku": 4638,
      "Ġilitumwa": 4639,
      "ĠGazeti": 4640,
      "Ġrekodi": 4641,
      "ĠUfundi": 4642,
      "ndelea": 4643,
      "kusudi": 4644,
      "ms": 4645,
      "Ġkufanikisha": 4646,
      "CHO": 4647,
      "dhalika": 4648,
      "Ġmwalimu": 4649,
      "Ġwapenzi": 4650,
      "endeshwa": 4651,
      "Ġwasomaji": 4652,
      "Ġmapendekezo": 4653,
      "Ġuhai": 4654,
      "Ġwanajeshi": 4655,
      "Ġmago": 4656,
      "ndapo": 4657,
      "ĠZitto": 4658,
      "Ġawa": 4659,
      "rini": 4660,
      "ris": 4661,
      "ĠHE": 4662,
      "pambana": 4663,
      "Ġmfuko": 4664,
      "ĠDUNIA": 4665,
      "Ġuzazi": 4666,
      "adhimisha": 4667,
      "Ġkumalizika": 4668,
      "gue": 4669,
      "ĠMAFUN": 4670,
      "ĠNape": 4671,
      "Ġkuwasilisha": 4672,
      "Ġmikataba": 4673,
      "nyanya": 4674,
      "Ġkif": 4675,
      "pungua": 4676,
      "ĠTano": 4677,
      "ĠSaid": 4678,
      "hadha": 4679,
      "ulo": 4680,
      "ĠBarabara": 4681,
      "Ġkukagua": 4682,
      "ĠIKU": 4683,
      "ĠMAJ": 4684,
      "Ġimara": 4685,
      "tional": 4686,
      "tete": 4687,
      "Ġmahojiano": 4688,
      "ĠGlo": 4689,
      "mivu": 4690,
      "Ġca": 4691,
      "Ġiliyokuwa": 4692,
      "Ġkujali": 4693,
      "Ġndivyo": 4694,
      "ĠPeter": 4695,
      "ĠMsemaji": 4696,
      "thio": 4697,
      "CE": 4698,
      "Ġkukata": 4699,
      "Ġbodi": 4700,
      "Ġmfululizo": 4701,
      "mira": 4702,
      "mwambia": 4703,
      "gai": 4704,
      "Ġkisi": 4705,
      "Ġmalalamiko": 4706,
      "ĠSoka": 4707,
      "Ġhatia": 4708,
      "maji": 4709,
      "gizaji": 4710,
      "ĠMBEYA": 4711,
      "ĠDonald": 4712,
      "ambiwa": 4713,
      "Ġkuunda": 4714,
      "ĠAbda": 4715,
      "PP": 4716,
      "peresheni": 4717,
      "habu": 4718,
      "ĠBABA": 4719,
      "Ġkufuatilia": 4720,
      "furahia": 4721,
      "amaki": 4722,
      "ĠMbara": 4723,
      "www": 4724,
      "TIA": 4725,
      "Ġtuka": 4726,
      "Ġsara": 4727,
      "ndisha": 4728,
      "ĠDavi": 4729,
      "fikiwa": 4730,
      "Ġwawe": 4731,
      "Ġmapinduzi": 4732,
      "Ġkiba": 4733,
      "ĠYAKO": 4734,
      "ĠMuhimbili": 4735,
      "ĠOF": 4736,
      "teua": 4737,
      "ĠFai": 4738,
      "Ġukaguzi": 4739,
      "Ġ2009": 4740,
      "DC": 4741,
      "Ġkueleza": 4742,
      "Ġ)": 4743,
      "Ġinawa": 4744,
      "teuliwa": 4745,
      "Ġmungu": 4746,
      "dy": 4747,
      "Ġpole": 4748,
      "ĠEdward": 4749,
      "Ġuwepo": 4750,
      "tawala": 4751,
      "dhe": 4752,
      "ĠMsu": 4753,
      "poke": 4754,
      "ĠNdo": 4755,
      "ESCO": 4756,
      "ISHO": 4757,
      "endelevu": 4758,
      "ĠKabla": 4759,
      "ĠHati": 4760,
      "Ġzitakazo": 4761,
      "diliano": 4762,
      "puko": 4763,
      "ĠIKULU": 4764,
      "tetea": 4765,
      "ĠWaa": 4766,
      "Ġkuibu": 4767,
      "Ġmema": 4768,
      "ĠPre": 4769,
      "tuko": 4770,
      "shawishi": 4771,
      "ĠNDANI": 4772,
      "lana": 4773,
      "2012": 4774,
      "fafanuzi": 4775,
      "ĠCon": 4776,
      "ĠCongo": 4777,
      "Ġkufanikiwa": 4778,
      "Ġmashtaka": 4779,
      "aa": 4780,
      "Ġhakuwa": 4781,
      "HURI": 4782,
      ".....": 4783,
      "Ġkucho": 4784,
      "Ġkujibu": 4785,
      "thiopia": 4786,
      "ĠKauli": 4787,
      "ĠKocha": 4788,
      "ONA": 4789,
      "Ġukosefu": 4790,
      "CHEZO": 4791,
      "ĠKita": 4792,
      "Ġwanataka": 4793,
      "wongozo": 4794,
      "yahudi": 4795,
      "haribi": 4796,
      "ĠNyingine": 4797,
      "ĠCHUO": 4798,
      "Ġel": 4799,
      "tengeneza": 4800,
      "ONGOZI": 4801,
      "BIA": 4802,
      "badilisha": 4803,
      "Ġtawala": 4804,
      "rasi": 4805,
      "Ġkusu": 4806,
      "Ġwanafanya": 4807,
      "ĠKWANZA": 4808,
      "ĠKumbu": 4809,
      "Ġuzito": 4810,
      "Ġukubwa": 4811,
      "Ġkutuma": 4812,
      "Ġnilikuwa": 4813,
      "ĠBan": 4814,
      "lwa": 4815,
      "ĠKitengo": 4816,
      "Ġmwanadamu": 4817,
      "Ġkupigwa": 4818,
      "Ġkukamilisha": 4819,
      "ĠKulia": 4820,
      "Ġsaini": 4821,
      "PF": 4822,
      "ĠMwanamke": 4823,
      "âĢĿ,": 4824,
      "ĠHili": 4825,
      "Ġmarekebisho": 4826,
      "Ġwizi": 4827,
      "Ġofisini": 4828,
      "Ġkurejea": 4829,
      "Ġkuongezeka": 4830,
      "ĠWajumbe": 4831,
      "toe": 4832,
      "ĠAfrica": 4833,
      "Ġmtaa": 4834,
      "ĠAU": 4835,
      "ĠHakimu": 4836,
      "Ġasiye": 4837,
      "kuzi": 4838,
      "tego": 4839,
      "Ġufafanuzi": 4840,
      "Ġanayo": 4841,
      "mbulio": 4842,
      "skini": 4843,
      "tosha": 4844,
      "Ġfor": 4845,
      "onesho": 4846,
      "ĠMsaidizi": 4847,
      "demokrasia": 4848,
      "Ġwaumini": 4849,
      "Ġmeli": 4850,
      "elekeza": 4851,
      "ĠAnge": 4852,
      "maanisha": 4853,
      "ĠKundi": 4854,
      "iko": 4855,
      "ĠPapa": 4856,
      "ZUNGU": 4857,
      "takuwa": 4858,
      "Ġ@": 4859,
      "tenga": 4860,
      "Ġmia": 4861,
      "Ġmasoko": 4862,
      "chimbaji": 4863,
      "elfu": 4864,
      "ĠUchumi": 4865,
      "Ġendelevu": 4866,
      "Ġmitaa": 4867,
      "muni": 4868,
      "Ġngozi": 4869,
      "ĠSC": 4870,
      "Ġmzazi": 4871,
      "krani": 4872,
      "nufaika": 4873,
      "Ġpindi": 4874,
      "nguka": 4875,
      "ĠMasa": 4876,
      "Ġnaku": 4877,
      "ĠSimi": 4878,
      "Ġvyanzo": 4879,
      "Ġkipya": 4880,
      "somi": 4881,
      "Ġkuchagua": 4882,
      "tangu": 4883,
      "kamilifu": 4884,
      "Ġdata": 4885,
      "LEO": 4886,
      "mbozi": 4887,
      "ĠTazama": 4888,
      "Ġharamu": 4889,
      "pasa": 4890,
      "ĠVyama": 4891,
      "Ġinaendelea": 4892,
      "ĠHamad": 4893,
      "kiza": 4894,
      "Ġbaadae": 4895,
      "iti": 4896,
      "Ġupasuaji": 4897,
      "Ġkusafi": 4898,
      "INDI": 4899,
      "ĠZiwa": 4900,
      "ĠINA": 4901,
      "ĠEmma": 4902,
      "Ġkukusanya": 4903,
      "Ġunavyo": 4904,
      "ĠReal": 4905,
      "fuatayo": 4906,
      "Ġkusikia": 4907,
      "Ġ70": 4908,
      "hirisha": 4909,
      "Ġwanne": 4910,
      "numz": 4911,
      "ĠKitaifa": 4912,
      "ĠRipoti": 4913,
      "ĠKatoliki": 4914,
      "kita": 4915,
      "ĠMAMBO": 4916,
      "ĠAS": 4917,
      "Ġmishahara": 4918,
      "ĠUMOJA": 4919,
      "ĠNne": 4920,
      "bungo": 4921,
      "gar": 4922,
      "ĠEthiopia": 4923,
      "TANDA": 4924,
      "dilifu": 4925,
      "mbabwe": 4926,
      "ĠIDA": 4927,
      "Ġ90": 4928,
      "Ġtunaweza": 4929,
      "ĠMarehemu": 4930,
      "Ġvema": 4931,
      "Ġkumpa": 4932,
      "lly": 4933,
      "Ġmashine": 4934,
      "lisha": 4935,
      "ĠMaoni": 4936,
      "56": 4937,
      "ĠMwili": 4938,
      "CT": 4939,
      "Ġagizo": 4940,
      "rio": 4941,
      "ĠAFRIKA": 4942,
      "lona": 4943,
      "ĠInter": 4944,
      "TWA": 4945,
      "Tuna": 4946,
      "fikishwa": 4947,
      "ir": 4948,
      "Ġbandari": 4949,
      ":-": 4950,
      "Ġtuweze": 4951,
      "ĠKanuni": 4952,
      "amusi": 4953,
      "ĠOdi": 4954,
      "cke": 4955,
      "ĠSimiyu": 4956,
      "ĠMkapa": 4957,
      "nes": 4958,
      "Ġupungufu": 4959,
      "Ġmatendo": 4960,
      "zil": 4961,
      "rey": 4962,
      "oo": 4963,
      "ĠAlio": 4964,
      "situ": 4965,
      "vazi": 4966,
      "ĠAwali": 4967,
      "ĠRE": 4968,
      "Ġaibu": 4969,
      "badilika": 4970,
      "lipwa": 4971,
      "ĠMAN": 4972,
      "kima": 4973,
      "Ġmojawapo": 4974,
      "balozi": 4975,
      "ndisho": 4976,
      "Ġwaasi": 4977,
      "Ġkuwekeza": 4978,
      "jumuisha": 4979,
      "Ġkatibu": 4980,
      "ripotiwa": 4981,
      "ANZIBAR": 4982,
      "Ġwakiwemo": 4983,
      "ĠFilamu": 4984,
      "tawa": 4985,
      "ĠKisu": 4986,
      "Ġanataka": 4987,
      "Ġlabda": 4988,
      "zunguko": 4989,
      "wji": 4990,
      "uwa": 4991,
      "ĠMapato": 4992,
      "Ġtas": 4993,
      "ĠMtaa": 4994,
      "Ġngono": 4995,
      "ĠMtanzania": 4996,
      "ĠNam": 4997,
      "kumba": 4998,
      "ĠAllah": 4999,
      "Ġnafsi": 5000,
      "SHARA": 5001,
      "sasa": 5002,
      "ĠWewe": 5003,
      "Ġwanam": 5004,
      "PL": 5005,
      "Ġakasema": 5006,
      "ZAJI": 5007,
      "Ġâĸ": 5008,
      "aminifu": 5009,
      "WS": 5010,
      "cy": 5011,
      "wasilisha": 5012,
      "tk": 5013,
      "ĠUvu": 5014,
      "aga": 5015,
      "ĠBer": 5016,
      "ĠKiingereza": 5017,
      "Ġ300": 5018,
      "shikama": 5019,
      "ĠCom": 5020,
      "zozo": 5021,
      "ĠKufanya": 5022,
      "haribifu": 5023,
      "ĠMahi": 5024,
      "ĠMilioni": 5025,
      "imarisha": 5026,
      "ĠIlala": 5027,
      "ĠCu": 5028,
      "isi": 5029,
      "ĠOdinga": 5030,
      "ĠMAFUNZO": 5031,
      "alisema": 5032,
      "Ġmingine": 5033,
      "ar": 5034,
      "ĠLissu": 5035,
      "FASI": 5036,
      "uzwa": 5037,
      "ĠSomalia": 5038,
      "Ġkikamilifu": 5039,
      "Ġ80": 5040,
      "zinga": 5041,
      "Ġ35": 5042,
      "geuzi": 5043,
      "pisho": 5044,
      "Ġjipya": 5045,
      "Ġkompyuta": 5046,
      "Ġunataka": 5047,
      "ĠWAKATI": 5048,
      "Ġkifungo": 5049,
      "Ġshiriki": 5050,
      "Ġwanaoishi": 5051,
      "ĠUchukuzi": 5052,
      "ANCHI": 5053,
      "ĠAlex": 5054,
      "ĠTha": 5055,
      "ndiko": 5056,
      "Ġtamasha": 5057,
      "njo": 5058,
      "WANJA": 5059,
      "ĠJAM": 5060,
      "jengea": 5061,
      "VA": 5062,
      "Ġkukamilika": 5063,
      "27": 5064,
      "ĠUS": 5065,
      "yasema": 5066,
      "gusa": 5067,
      "ĠII": 5068,
      "ruhusiwa": 5069,
      "TEMBE": 5070,
      "lestina": 5071,
      "Ġkubaini": 5072,
      "et": 5073,
      "Ġmsichana": 5074,
      "06": 5075,
      "king": 5076,
      "fikapo": 5077,
      "ĠFE": 5078,
      "Ġvyake": 5079,
      "ĠZANZIBAR": 5080,
      "ĠMuha": 5081,
      "Ġada": 5082,
      "Ġmstaafu": 5083,
      "Ġwahusika": 5084,
      "ĠUko": 5085,
      "puka": 5086,
      "ĠNAFASI": 5087,
      "ANGO": 5088,
      "Ġvia": 5089,
      "ĠBajeti": 5090,
      "ĠEmmanuel": 5091,
      "Ġmaumivu": 5092,
      "Ġtakriban": 5093,
      "Ġonline": 5094,
      "sababu": 5095,
      "ĠDawa": 5096,
      "Ġ2005": 5097,
      "rah": 5098,
      "Ġmzee": 5099,
      "ĠDUNI": 5100,
      "RT": 5101,
      "ĠWasi": 5102,
      "ĠKiu": 5103,
      "samaha": 5104,
      "ĠJAMHURI": 5105,
      "Ġkihi": 5106,
      "ĠMagereza": 5107,
      "lin": 5108,
      "ĠSIMU": 5109,
      "ĠMAMA": 5110,
      "Ġmbinguni": 5111,
      "Ġ500": 5112,
      "ĠAM": 5113,
      "Ġkushika": 5114,
      "chezwa": 5115,
      "Ġkikundi": 5116,
      "cco": 5117,
      "ĠMchezo": 5118,
      "ĠJambo": 5119,
      "UNGANO": 5120,
      "Ġkugombea": 5121,
      "Ġvigumu": 5122,
      "........": 5123,
      "ĠAugu": 5124,
      "sababishwa": 5125,
      "Ġkwanini": 5126,
      "serikali": 5127,
      "Ġdhana": 5128,
      "ĠJina": 5129,
      "Ġvikundi": 5130,
      "Ġmitihani": 5131,
      "Ġhususan": 5132,
      "rk": 5133,
      "ĠRadio": 5134,
      "Ġmajadiliano": 5135,
      "tus": 5136,
      "Ġshamba": 5137,
      "Ġendapo": 5138,
      "Ġisipokuwa": 5139,
      "Ġlikiwa": 5140,
      "wekea": 5141,
      "âĢ¦.": 5142,
      "ĠDUNIANI": 5143,
      "ĠSlaa": 5144,
      "ĠAlly": 5145,
      "Ġmifumo": 5146,
      "Ġjela": 5147,
      "some": 5148,
      "koba": 5149,
      "shtakiwa": 5150,
      "uro": 5151,
      "Ġ37": 5152,
      "Ġkilele": 5153,
      "sala": 5154,
      "Ġchenye": 5155,
      "KUWA": 5156,
      "ĠZimbabwe": 5157,
      "nsa": 5158,
      "Ġmtandaoni": 5159,
      "Ġubingwa": 5160,
      "ĠMUUNGANO": 5161,
      "ĠBibi": 5162,
      "TUKO": 5163,
      "Ġtuma": 5164,
      "ĠAirtel": 5165,
      "load": 5166,
      "Ġpengine": 5167,
      "Ġkuelewa": 5168,
      "ĠNdiyo": 5169,
      "Ġzilikuwa": 5170,
      "vunja": 5171,
      "pelekwa": 5172,
      "gopa": 5173,
      "Ġnami": 5174,
      "Ġkifungu": 5175,
      "ĠKUKA": 5176,
      "tambulisha": 5177,
      "Ġushiriki": 5178,
      "ĠProgramu": 5179,
      "Ġumekuwa": 5180,
      "ĠAt": 5181,
      "ĠLib": 5182,
      "ĠWATOTO": 5183,
      "Ġkaunti": 5184,
      "ngezea": 5185,
      "hifadhiwa": 5186,
      "Ġkufungwa": 5187,
      "!!!!": 5188,
      "wapa": 5189,
      "Ġvikwazo": 5190,
      "hudumia": 5191,
      "ĠLIGI": 5192,
      "ifanya": 5193,
      "82": 5194,
      "ĠMWANZA": 5195,
      "Ġkimya": 5196,
      "ĠNdio": 5197,
      "celona": 5198,
      "Ġktk": 5199,
      "Ġnapenda": 5200,
      "Ġmwingi": 5201,
      "ĠSheikh": 5202,
      "DILI": 5203,
      "Ġkutetea": 5204,
      "Ġmkopo": 5205,
      "MISE": 5206,
      "luhi": 5207,
      "ĠWengine": 5208,
      "zwe": 5209,
      "DUA": 5210,
      "klia": 5211,
      "Ġsina": 5212,
      "ĠIN": 5213,
      "ficha": 5214,
      "ĠUbungo": 5215,
      "ondon": 5216,
      "ĠRasmi": 5217,
      "Ġwapya": 5218,
      "OND": 5219,
      "Ġyenyewe": 5220,
      "ĠMkataba": 5221,
      "hakikishia": 5222,
      "kusanyi": 5223,
      "Ġhasara": 5224,
      "ĠYou": 5225,
      "Ġukuaji": 5226,
      "toria": 5227,
      "Ġjoto": 5228,
      "TATU": 5229,
      "ĠJO": 5230,
      "ĠAm": 5231,
      "Ġitaendelea": 5232,
      "KIA": 5233,
      "Ġmwenzake": 5234,
      "nte": 5235,
      "Ġmatatu": 5236,
      "Ġsijui": 5237,
      "Ġmsiba": 5238,
      "stine": 5239,
      "pendo": 5240,
      "Ġkifedha": 5241,
      "ĠâĨ": 5242,
      "Ġjua": 5243,
      "ĠSwahili": 5244,
      "ĠMifugo": 5245,
      "hubiri": 5246,
      "ĠTuzo": 5247,
      "rabati": 5248,
      ".)": 5249,
      "Ġsamaki": 5250,
      "as": 5251,
      "ĠTiba": 5252,
      "Ġfupi": 5253,
      "ungana": 5254,
      "Ġwenyeji": 5255,
      "ĠBarcelona": 5256,
      "nyika": 5257,
      "ĠNyo": 5258,
      "loud": 5259,
      "fahamika": 5260,
      "Ġulemavu": 5261,
      "ĠMKA": 5262,
      "ĠLondon": 5263,
      "Ġuendeshaji": 5264,
      "55": 5265,
      "ĠHakika": 5266,
      "ĠKweli": 5267,
      "zoea": 5268,
      "athiri": 5269,
      "ĠKisha": 5270,
      "Ġmazishi": 5271,
      "Ġelfu": 5272,
      "2011": 5273,
      "ĠAra": 5274,
      "Ġushindani": 5275,
      "Ġtete": 5276,
      "ĠWenye": 5277,
      "ĠSIMBA": 5278,
      "mwagi": 5279,
      "semwa": 5280,
      "ĠMAJI": 5281,
      "ĠSASA": 5282,
      "DS": 5283,
      "ĠTUKO": 5284,
      "ngeti": 5285,
      "amehe": 5286,
      "shuru": 5287,
      "ĠIbrahi": 5288,
      "rison": 5289,
      "Ġbusara": 5290,
      "ĠHiyo": 5291,
      "ĠCA": 5292,
      "ĠMer": 5293,
      "ĠPaulo": 5294,
      "ĠMti": 5295,
      "Ġtamko": 5296,
      "kipiki": 5297,
      "Ġmajeshi": 5298,
      "Ġkikazi": 5299,
      "faulu": 5300,
      "nzetu": 5301,
      "nayo": 5302,
      "Ġifikapo": 5303,
      "ĠJESHI": 5304,
      "Ġkuam": 5305,
      "ĠPOLISI": 5306,
      "KON": 5307,
      "RIS": 5308,
      "Ġkidini": 5309,
      "ĠJames": 5310,
      "Ġenzi": 5311,
      "takavyo": 5312,
      "Ġsakata": 5313,
      "Ġmajimbo": 5314,
      "punguza": 5315,
      "ĠJapa": 5316,
      "Ġkujaribu": 5317,
      "Ġrufaa": 5318,
      "pigia": 5319,
      "ridi": 5320,
      "ĠBinadamu": 5321,
      "ambatana": 5322,
      "ĠMwezi": 5323,
      "ĠUmmy": 5324,
      "ĠNd": 5325,
      "Ġkupanga": 5326,
      "Ġkiko": 5327,
      "rifa": 5328,
      "ĠGod": 5329,
      "Ġviungo": 5330,
      "shikamano": 5331,
      "ĠNAIBU": 5332,
      "Ġuda": 5333,
      "ĠMabingwa": 5334,
      "gogo": 5335,
      "MISEMI": 5336,
      "liaji": 5337,
      "ĠPetro": 5338,
      "ĠPlat": 5339,
      "ĠSoko": 5340,
      "rudisha": 5341,
      "ĠUpinzani": 5342,
      "xi": 5343,
      "kundu": 5344,
      "Ġwaha": 5345,
      "funguka": 5346,
      "vutia": 5347,
      "nendo": 5348,
      "hawa": 5349,
      "nusu": 5350,
      "ĠWata": 5351,
      "ambukizi": 5352,
      "Vi": 5353,
      "ĠMuda": 5354,
      "Ġvyenye": 5355,
      "mka": 5356,
      "ĠKushoto": 5357,
      "moni": 5358,
      "23": 5359,
      "ĠPinda": 5360,
      "Ġkuongea": 5361,
      "Ġmstari": 5362,
      "Ġnazo": 5363,
      "MWI": 5364,
      "Ġyaliyofanyika": 5365,
      "ĠMechi": 5366,
      "Ġmkazi": 5367,
      "ĠItalia": 5368,
      "TV": 5369,
      "ZINDUA": 5370,
      "RDB": 5371,
      "La": 5372,
      "Ġkuhamasisha": 5373,
      "Ġwacha": 5374,
      "Ġnk": 5375,
      "gan": 5376,
      "ĠUMMA": 5377,
      "ĠMAISHA": 5378,
      "plo": 5379,
      "Ġkazini": 5380,
      "kumbusha": 5381,
      "Ġalicho": 5382,
      "Ġhasira": 5383,
      "Ġkuzindua": 5384,
      "ĠDavid": 5385,
      "Ġkipekee": 5386,
      "ĠKima": 5387,
      "ĠTwitter": 5388,
      "UNGA": 5389,
      "cro": 5390,
      "Ġmua": 5391,
      "ĠIra": 5392,
      "ngezi": 5393,
      "Ġhadhi": 5394,
      "ĠDola": 5395,
      "ĠKwani": 5396,
      "DIA": 5397,
      "ĠCRDB": 5398,
      "Ġakimkabidhi": 5399,
      "wnload": 5400,
      "pumzi": 5401,
      "Ġmabingwa": 5402,
      "Ġufundi": 5403,
      "Ġchuki": 5404,
      "oa": 5405,
      "ĠMratibu": 5406,
      "ZUNGUM": 5407,
      "Ġufumbuzi": 5408,
      "ĠKim": 5409,
      "Ġinakuwa": 5410,
      "Ġkujitokeza": 5411,
      "hiki": 5412,
      "ĠPAMOJA": 5413,
      "Ġdhahabu": 5414,
      "ĠKidato": 5415,
      "laika": 5416,
      "unge": 5417,
      "ĠJubile": 5418,
      "ĠMwananchi": 5419,
      "ĠBONGO": 5420,
      "Ġyatakayo": 5421,
      "unganisha": 5422,
      "tembea": 5423,
      "KANA": 5424,
      "ĠOFISI": 5425,
      "ghari": 5426,
      "ĠUislamu": 5427,
      "Ġ2008": 5428,
      "Ġmagharibi": 5429,
      "sari": 5430,
      "GUA": 5431,
      "shiwa": 5432,
      "ĠSababu": 5433,
      "patiwa": 5434,
      "zami": 5435,
      "pumba": 5436,
      "ĠAbdallah": 5437,
      "Ġjinsia": 5438,
      "Ġjukwaa": 5439,
      "Ġzipo": 5440,
      "ĠManeno": 5441,
      "Ġzima": 5442,
      "ĠAKUTANA": 5443,
      "ĠUJ": 5444,
      "Ġkivi": 5445,
      "ĠId": 5446,
      "net": 5447,
      "soa": 5448,
      "dhuri": 5449,
      "Ġvikuu": 5450,
      "ĠUkweli": 5451,
      "ĠMABA": 5452,
      "meke": 5453,
      "ðŁ": 5454,
      "ĠKambi": 5455,
      "Ġuharibifu": 5456,
      "mita": 5457,
      "Ġ32": 5458,
      "ĠMtazamo": 5459,
      "Ġmbadala": 5460,
      "Ġkuvunja": 5461,
      "kagua": 5462,
      "Ġkongamano": 5463,
      "ĠNga": 5464,
      "Ġmajaribio": 5465,
      "MBALI": 5466,
      "Ġhazina": 5467,
      "ĠVa": 5468,
      "hani": 5469,
      "ĠMAJINA": 5470,
      "pool": 5471,
      "ĠSir": 5472,
      "Ġkamwe": 5473,
      "Ġuelewa": 5474,
      "tazama": 5475,
      "Ġkiroho": 5476,
      "Ġhaiku": 5477,
      "ĠMwanzo": 5478,
      "lewe": 5479,
      "Ġneema": 5480,
      "Ġnjaa": 5481,
      "Ġusawa": 5482,
      "Ġutajiri": 5483,
      "Ġ36": 5484,
      "Ġhuwezi": 5485,
      "lan": 5486,
      "ĠWEN": 5487,
      "Ġhalafu": 5488,
      "Ġjibu": 5489,
      "riko": 5490,
      "tano": 5491,
      "ĠHALI": 5492,
      "ĠYOTE": 5493,
      "MAN": 5494,
      "tra": 5495,
      "ĠManya": 5496,
      "ĠSH": 5497,
      "huku": 5498,
      "ĠZIA": 5499,
      "ĠNDO": 5500,
      "ĠIsraeli": 5501,
      "tive": 5502,
      "Ġurahisi": 5503,
      "ĠNjo": 5504,
      "ĠTakwimu": 5505,
      "ger": 5506,
      "ĠMwanasheria": 5507,
      "tz": 5508,
      "sherehe": 5509,
      "Ġukatili": 5510,
      "ĠOfisa": 5511,
      "ĠBEN": 5512,
      "tii": 5513,
      "ĠBrazil": 5514,
      "Ġmaziwa": 5515,
      "Ġupate": 5516,
      "Ġwaji": 5517,
      "ĠFree": 5518,
      "Ġuwanjani": 5519,
      "ĠSport": 5520,
      "Ġjapo": 5521,
      "Ne": 5522,
      "ĠkutokaTUKO": 5523,
      "shikilia": 5524,
      "Ġtusi": 5525,
      "nse": 5526,
      "shangi": 5527,
      "ĠZambia": 5528,
      "Ġswala": 5529,
      "ĠUvuvi": 5530,
      "ĠJIN": 5531,
      "ĠKikosi": 5532,
      "KITI": 5533,
      "ĠJK": 5534,
      "bas": 5535,
      "ĠTANGA": 5536,
      "Ġmaofisa": 5537,
      "Ġkamusi": 5538,
      "ĠMwinyi": 5539,
      "verpool": 5540,
      "ĠAma": 5541,
      "ĠTundu": 5542,
      "Ġkuwezesha": 5543,
      "Ġ45": 5544,
      "ĠPlatnumz": 5545,
      "Ġsija": 5546,
      "Ġkuhudhuria": 5547,
      "ĠJUU": 5548,
      "ĠKarume": 5549,
      "Ġnyama": 5550,
      "Ġmaskini": 5551,
      "TEMBELEA": 5552,
      "ĠTarehe": 5553,
      "rage": 5554,
      "Ġkukua": 5555,
      "shangaa": 5556,
      "mvi": 5557,
      "bri": 5558,
      "islam": 5559,
      "Ġmto": 5560,
      "ĠJANA": 5561,
      "red": 5562,
      "Ġmtindo": 5563,
      "ĠMBALIMBALI": 5564,
      "ĠMau": 5565,
      "Ġ2007": 5566,
      "Ġkingine": 5567,
      "ĠJune": 5568,
      "louds": 5569,
      "Ġkale": 5570,
      "dhui": 5571,
      "ĠWANANCHI": 5572,
      "ĠIbrahim": 5573,
      "ĠSHI": 5574,
      "ĠWengi": 5575,
      "Ġmme": 5576,
      "chochea": 5577,
      "Ġalifanya": 5578,
      "china": 5579,
      "ĠKIMA": 5580,
      "Ġmapigano": 5581,
      "Ġalieleza": 5582,
      "NI": 5583,
      "ĠHamisi": 5584,
      "Ġkuepuka": 5585,
      "Ġhtt": 5586,
      "harakati": 5587,
      "jiandaa": 5588,
      "Ġmaarifa": 5589,
      "lika": 5590,
      "ruka": 5591,
      "Ġwawakilishi": 5592,
      "Ġhadharani": 5593,
      "tegeme": 5594,
      "tho": 5595,
      "Ġkaka": 5596,
      "ĠNDIO": 5597,
      "binafsi": 5598,
      "rwa": 5599,
      "ĠMAHA": 5600,
      "Ġai": 5601,
      "Ġwema": 5602,
      "KWETE": 5603,
      "Ġhavi": 5604,
      "sikiti": 5605,
      "ĠImani": 5606,
      "Ġkubeba": 5607,
      "Ġâĸ·": 5608,
      "karibia": 5609,
      "Ġkipaumbele": 5610,
      "ĠWilayani": 5611,
      "Ġanawa": 5612,
      "Ġzilizopita": 5613,
      "ĠMaria": 5614,
      "Ġis": 5615,
      "Ġvikosi": 5616,
      "Ġkuzungumzia": 5617,
      "jipanga": 5618,
      "ed": 5619,
      "Sha": 5620,
      "hali": 5621,
      "Ġaje": 5622,
      "Ġshuleni": 5623,
      "Ġninyi": 5624,
      "ĠKongo": 5625,
      "hindi": 5626,
      "ĠLiverpool": 5627,
      "ĠKUTU": 5628,
      "ĠManyara": 5629,
      "ĠUhusiano": 5630,
      "Ġinawezekana": 5631,
      "Ġimetoa": 5632,
      "Ġkupeleka": 5633,
      "kabila": 5634,
      "Ġkusafiri": 5635,
      "Ġkukamatwa": 5636,
      "ĠKIKWETE": 5637,
      "Ġalizo": 5638,
      "ĠHuyu": 5639,
      "leva": 5640,
      "Sa": 5641,
      "ĠTemeke": 5642,
      "ĠSHULE": 5643,
      "nder": 5644,
      "Ġwanapaswa": 5645,
      "Ġdhahiri": 5646,
      "Ġdaima": 5647,
      "nau": 5648,
      "ĠApril": 5649,
      "Ġwanaishi": 5650,
      "Ġmakali": 5651,
      "ĠMeya": 5652,
      "Ġmadu": 5653,
      "tume": 5654,
      "dii": 5655,
      "''": 5656,
      "Ġamefariki": 5657,
      "Ġwatano": 5658,
      "Ġkika": 5659,
      "Ġwamesema": 5660,
      "Ġmadiwani": 5661,
      "chia": 5662,
      "ĠWachezaji": 5663,
      "ĠMasoko": 5664,
      "ĠWako": 5665,
      "tongo": 5666,
      "rudia": 5667,
      "ogle": 5668,
      "ĠAmba": 5669,
      "wajibi": 5670,
      "tafu": 5671,
      "ĠGi": 5672,
      "fiwa": 5673,
      "ENE": 5674,
      "ĠBandari": 5675,
      "ĠInstagram": 5676,
      "tre": 5677,
      "cm": 5678,
      "Ġnidhamu": 5679,
      "Ġsalamu": 5680,
      "alam": 5681,
      "SHAURI": 5682,
      "zanzi": 5683,
      "Ġshukrani": 5684,
      "bariki": 5685,
      "rekebisha": 5686,
      "tekelezwa": 5687,
      "Ġmaradhi": 5688,
      "samehe": 5689,
      "ĠUKIMWI": 5690,
      "Ġungependa": 5691,
      "ambe": 5692,
      "Ġmlango": 5693,
      "Ġaliongeza": 5694,
      "Ġkara": 5695,
      "Ġumaskini": 5696,
      "elimisha": 5697,
      "Ġhamu": 5698,
      "shfa": 5699,
      "men": 5700,
      "Ġngoma": 5701,
      "Ġzenu": 5702,
      "Ġpopote": 5703,
      "ĠKATIBU": 5704,
      "Ġinapo": 5705,
      "ĠAnna": 5706,
      "ĠSerengeti": 5707,
      "Ġminne": 5708,
      "Ġsayansi": 5709,
      "ĠMaalim": 5710,
      "simamisha": 5711,
      "Ġkufanyiwa": 5712,
      "pengele": 5713,
      "ĠKampeni": 5714,
      "mwo": 5715,
      "Ġmaelfu": 5716,
      "Ġunayo": 5717,
      "KTA": 5718,
      "Ġfikra": 5719,
      "ĠWakristo": 5720,
      "Ġhuruma": 5721,
      "ĠKuji": 5722,
      "KILI": 5723,
      "Ġ2006": 5724,
      "Ġnakala": 5725,
      "Ġmeza": 5726,
      "Ġpikipiki": 5727,
      "ĠMoyo": 5728,
      "ĠZIARA": 5729,
      "ĠWOTE": 5730,
      "vutio": 5731,
      "Ġnyaraka": 5732,
      "Ġkuvutia": 5733,
      "Ġkuwawezesha": 5734,
      "ĠSan": 5735,
      "Ġchao": 5736,
      "dhifa": 5737,
      "Ġ33": 5738,
      "lazi": 5739,
      "Ġpu": 5740,
      "Ġmawe": 5741,
      "liona": 5742,
      "ĠRAS": 5743,
      "ĠMko": 5744,
      "jikuta": 5745,
      "Ġilivyokuwa": 5746,
      "NEC": 5747,
      "pelelezi": 5748,
      "ĠMgeni": 5749,
      "res": 5750,
      "RS": 5751,
      "Ġmafundisho": 5752,
      "mb": 5753,
      "Ġanavyo": 5754,
      "ĠRU": 5755,
      "Ġmfalme": 5756,
      "ĠTukio": 5757,
      "neti": 5758,
      "hojiwa": 5759,
      "Ġkufahamu": 5760,
      "jiriwa": 5761,
      "Ġmwao": 5762,
      "Ġmshahara": 5763,
      "MKE": 5764,
      "Ġmwanachama": 5765,
      "Ġmaambukizi": 5766,
      "petu": 5767,
      "Ġwange": 5768,
      "Ġbidii": 5769,
      "Ġnawa": 5770,
      "ĠMana": 5771,
      "SHIRIKI": 5772,
      "ĠNGU": 5773,
      "UME": 5774,
      "KAZI": 5775,
      "dhiri": 5776,
      "Ġrobo": 5777,
      "Ġusu": 5778,
      "TEN": 5779,
      "Ġsho": 5780,
      "ĠWakenya": 5781,
      "Hi": 5782,
      "ĠAmi": 5783,
      "ĠMJINI": 5784,
      "ting": 5785,
      "Ġanafanya": 5786,
      "Ġombi": 5787,
      "Ġhususani": 5788,
      "Ġuu": 5789,
      "timiza": 5790,
      "ĠNda": 5791,
      "ĠKUPI": 5792,
      "lekeo": 5793,
      "ĠUmeme": 5794,
      "ĠNYUMBA": 5795,
      "mas": 5796,
      "Ġkwasababu": 5797,
      "Ġuo": 5798,
      "onya": 5799,
      "ENDELEO": 5800,
      "ĠClouds": 5801,
      "mfanya": 5802,
      "fuatavyo": 5803,
      "van": 5804,
      "Ġkufurahi": 5805,
      "Ġhauna": 5806,
      "Ġkuifanya": 5807,
      "hadhari": 5808,
      "ĠHAPO": 5809,
      "Ġuji": 5810,
      "ĠTama": 5811,
      "Ġmadhu": 5812,
      "nika": 5813,
      "Ġkihistoria": 5814,
      "Ġwastani": 5815,
      "ĠMaeneo": 5816,
      "ĠJubilee": 5817,
      "Ġhisa": 5818,
      "shirini": 5819,
      "ĠYor": 5820,
      "Ġmbu": 5821,
      "Ġkuanzishwa": 5822,
      "ulizwa": 5823,
      "rosho": 5824,
      "Ġlini": 5825,
      "ĠMAS": 5826,
      "ĠUpendo": 5827,
      "ĠYE": 5828,
      "romo": 5829,
      "Ġmuundo": 5830,
      "FO": 5831,
      "Ġamefanya": 5832,
      "ice": 5833,
      "ast": 5834,
      "GON": 5835,
      "ĠWale": 5836,
      "Ġmkurugenzi": 5837,
      "maarufu": 5838,
      "Ġzikiwa": 5839,
      "Ġserikalini": 5840,
      "ĠSalum": 5841,
      "Ġkitengo": 5842,
      "ĠUfalme": 5843,
      "ĠMbu": 5844,
      "dumisha": 5845,
      "ĠUsimamizi": 5846,
      "kel": 5847,
      "ĠKilo": 5848,
      "ĠMuhimu": 5849,
      "ĠSikiliza": 5850,
      "lay": 5851,
      "sale": 5852,
      "ĠNDI": 5853,
      "ĠAliongeza": 5854,
      "ĠRobert": 5855,
      "ĠMakazi": 5856,
      "REA": 5857,
      "Ġratiba": 5858,
      "ĠSita": 5859,
      "ywe": 5860,
      "Ġtumbo": 5861,
      "Ġmichango": 5862,
      "Ġdhamira": 5863,
      "Ġubunifu": 5864,
      "Ġuzima": 5865,
      "Ġvyeti": 5866,
      "Ġurefu": 5867,
      "gwe": 5868,
      "--": 5869,
      "Ġwanazo": 5870,
      "Ġvigezo": 5871,
      "ĠMakamba": 5872,
      "Ġelezo": 5873,
      "ĠMicha": 5874,
      "Afrika": 5875,
      "Ġmana": 5876,
      "ĠViwanja": 5877,
      "Ġwakifuatilia": 5878,
      "shuhuda": 5879,
      "ĠEs": 5880,
      "Ġmshambuliaji": 5881,
      "pha": 5882,
      "Ġmapa": 5883,
      "BE": 5884,
      "uary": 5885,
      "kusanya": 5886,
      "ĠLea": 5887,
      "DUMA": 5888,
      "Ġkuwataka": 5889,
      "Ġalipata": 5890,
      "ĠMashindano": 5891,
      "Ġtendo": 5892,
      "wakilisha": 5893,
      "AS": 5894,
      "Ġwamiliki": 5895,
      "ĠTatizo": 5896,
      "use": 5897,
      "Ġulivyo": 5898,
      "Ġmwanga": 5899,
      "jami": 5900,
      "ĠMAENDELEO": 5901,
      "ĠAKA": 5902,
      "Ġaji": 5903,
      "Ġwenzetu": 5904,
      "sambazaji": 5905,
      "ploma": 5906,
      "ĠKAMP": 5907,
      "ĠRASMI": 5908,
      "ĠAL": 5909,
      "Ġhaita": 5910,
      "Ġkunywa": 5911,
      "ĠVyuo": 5912,
      "Ġmzigo": 5913,
      "ĠMpe": 5914,
      "Ġhuja": 5915,
      "Ġkulipwa": 5916,
      "Ġkarne": 5917,
      "Ġwalisema": 5918,
      "ĠBukoba": 5919,
      "tes": 5920,
      "ĠMashirika": 5921,
      "Ġ34": 5922,
      "ntho": 5923,
      "Ġvipaji": 5924,
      "Ġubaguzi": 5925,
      "Ġmavazi": 5926,
      "KEA": 5927,
      "Ġinapatikana": 5928,
      "ĠSepetu": 5929,
      "ĠMASO": 5930,
      "ĠMASHA": 5931,
      "Ġalipotembelea": 5932,
      "Ġambae": 5933,
      "04": 5934,
      "\",": 5935,
      "ĠWote": 5936,
      "onea": 5937,
      "Ġshindano": 5938,
      "ff": 5939,
      "Ġvu": 5940,
      "mwagiliaji": 5941,
      "ANG": 5942,
      "Ġpamba": 5943,
      "menti": 5944,
      "ĠMikopo": 5945,
      "saidie": 5946,
      "ĠAsante": 5947,
      "ĠNdugai": 5948,
      "rg": 5949,
      "Ġmitambo": 5950,
      "ĠKUI": 5951,
      "Ġwenzao": 5952,
      "Ġulimwenguni": 5953,
      "LOZI": 5954,
      "HIDI": 5955,
      "iara": 5956,
      "ĠWadau": 5957,
      "ĠMWANAMKE": 5958,
      "ĠRukwa": 5959,
      "Ġmikononi": 5960,
      "ĠKale": 5961,
      "tamani": 5962,
      "ang": 5963,
      "Ġilio": 5964,
      "Ġhekima": 5965,
      "Ġakipokea": 5966,
      "ĠSura": 5967,
      "mmad": 5968,
      "kutwa": 5969,
      "Ġwanapata": 5970,
      "Ġupi": 5971,
      "Ġ2000": 5972,
      "ĠMari": 5973,
      "ĠQu": 5974,
      "pania": 5975,
      "TFF": 5976,
      "nauye": 5977,
      "?âĢĿ": 5978,
      "ĠVitu": 5979,
      "ĠAkizungumzia": 5980,
      "Ġlisi": 5981,
      "Ġmizigo": 5982,
      "Ġmami": 5983,
      "ĠCO": 5984,
      "JIA": 5985,
      "ĠUJENZI": 5986,
      "Ġkuchunguza": 5987,
      "Ġnaona": 5988,
      "fanana": 5989,
      "ĠSANA": 5990,
      "ĠUSI": 5991,
      "Ġreli": 5992,
      "ombea": 5993,
      "Ġgoli": 5994,
      "tima": 5995,
      "mishwa": 5996,
      "Ġnadhani": 5997,
      "ĠMICHEZO": 5998,
      "ĠNnauye": 5999,
      "Ġbudi": 6000,
      "himiza": 6001,
      "ĠKUS": 6002,
      "Ġmiili": 6003,
      "Ġeti": 6004,
      "ĠChakula": 6005,
      "Ġhadithi": 6006,
      "Ġmteja": 6007,
      "âĢ¦âĢ¦": 6008,
      "ANDISHI": 6009,
      "ĠJanuary": 6010,
      "Ġemail": 6011,
      "ĠAfrican": 6012,
      "TOBA": 6013,
      "Ġkashfa": 6014,
      "thamini": 6015,
      "Hu": 6016,
      "lub": 6017,
      "nyang": 6018,
      "Ġfe": 6019,
      "fri": 6020,
      "Ġuhaba": 6021,
      "ĠAKIWA": 6022,
      "ĠAMBA": 6023,
      "ban": 6024,
      "Ġwapata": 6025,
      "Ġkulala": 6026,
      "Ġkushughulikia": 6027,
      "ĠMichael": 6028,
      "Ġoperesheni": 6029,
      "ĠSafari": 6030,
      "ĠUWANJA": 6031,
      "baka": 6032,
      "ĠUkimwi": 6033,
      "2557": 6034,
      "Ġimewa": 6035,
      "MILI": 6036,
      "ĠTRA": 6037,
      "mama": 6038,
      "nikizo": 6039,
      "rambi": 6040,
      "ĠKumi": 6041,
      "Ġkutakuwa": 6042,
      "kanisa": 6043,
      "gulu": 6044,
      "enye": 6045,
      "gemea": 6046,
      "Ġmio": 6047,
      "RUG": 6048,
      "Ġyapo": 6049,
      "ishia": 6050,
      "Ġkiki": 6051,
      "ĠUfu": 6052,
      "td": 6053,
      "Ġmsamaha": 6054,
      "ĠJob": 6055,
      "ĠKUTOA": 6056,
      "gmail": 6057,
      "sikini": 6058,
      "phi": 6059,
      "Ġtaaluma": 6060,
      "ĠTangu": 6061,
      "Ġunahitaji": 6062,
      "ĠMto": 6063,
      "ĠKAMATI": 6064,
      "bainika": 6065,
      "ĠTsh": 6066,
      "ĠKitabu": 6067,
      "ĠTANESCO": 6068,
      "KTOBA": 6069,
      "ĠMary": 6070,
      "ĠAsia": 6071,
      "Ġkwenu": 6072,
      "ĠUzi": 6073,
      "Ġmwenendo": 6074,
      "ĠHUDUMA": 6075,
      "Ġsikukuu": 6076,
      "ĠWIKI": 6077,
      "roup": 6078,
      "Ġmzozo": 6079,
      "bongo": 6080,
      "ĠBei": 6081,
      "RUGENZI": 6082,
      "Ġfaini": 6083,
      "fali": 6084,
      "Ġyafuatayo": 6085,
      "ĠTafadhali": 6086,
      "Tanzania": 6087,
      "sisi": 6088,
      "Ġvirusi": 6089,
      "Ġkupima": 6090,
      "ĠARU": 6091,
      "ssein": 6092,
      "Ġmgonjwa": 6093,
      "nywaji": 6094,
      "Ġkutoku": 6095,
      "DP": 6096,
      "rdi": 6097,
      "ĠMacha": 6098,
      "Ġwatuhumiwa": 6099,
      "semekana": 6100,
      "ĠBonyeza": 6101,
      "gharimu": 6102,
      "ĠSauti": 6103,
      "Ġkuonesha": 6104,
      "Ġwazo": 6105,
      "ĠJapan": 6106,
      "Ġkuokoa": 6107,
      "ĠWatumishi": 6108,
      "Ġzinaweza": 6109,
      "Ġmachafu": 6110,
      "ĠMgo": 6111,
      "ĠSele": 6112,
      "liwe": 6113,
      "ĠKupitia": 6114,
      "amoyo": 6115,
      "21": 6116,
      "ĠNg": 6117,
      "tiana": 6118,
      "Ġtelevi": 6119,
      "Ġsaratani": 6120,
      "Ġmabasi": 6121,
      "ĠWATA": 6122,
      "ĠJana": 6123,
      "Ġmwendo": 6124,
      "tupa": 6125,
      "Ġviwili": 6126,
      "iri": 6127,
      "jitahidi": 6128,
      "ĠWalimu": 6129,
      "ĠKAB": 6130,
      "ĠMwenge": 6131,
      "Ġakihutubia": 6132,
      "Ġwanadamu": 6133,
      "Ġuliyo": 6134,
      "ĠAnasema": 6135,
      "33": 6136,
      "ĠLengo": 6137,
      "Ġulipo": 6138,
      "ĠKina": 6139,
      "mshi": 6140,
      "Ġkushangaza": 6141,
      "Ġmwelekeo": 6142,
      "semi": 6143,
      "Ġan": 6144,
      "Ġchako": 6145,
      "ĠGha": 6146,
      "ĠBORA": 6147,
      "Ġmgumu": 6148,
      "Ġlaki": 6149,
      "vua": 6150,
      "Ġvyo": 6151,
      "Ġbingwa": 6152,
      "ĠQur": 6153,
      "02": 6154,
      "Ġmtumishi": 6155,
      "Ġtawi": 6156,
      "Bo": 6157,
      "ĠTamasha": 6158,
      "Ġhumu": 6159,
      "ĠWAFANYA": 6160,
      "Ġinaonyesha": 6161,
      "budu": 6162,
      "Ġaweze": 6163,
      "ĠWawakilishi": 6164,
      "Ġwashindi": 6165,
      "gamoyo": 6166,
      "Ġkuchukuliwa": 6167,
      "ĠZiara": 6168,
      "ĠHapo": 6169,
      "ĠVijijini": 6170,
      "ĠYANGA": 6171,
      "Ġudha": 6172,
      "tar": 6173,
      "DM": 6174,
      "Ġpombe": 6175,
      "ĠHussein": 6176,
      "Ġzimekuwa": 6177,
      "Ġkuachana": 6178,
      "Ġanatarajiwa": 6179,
      "ĠIraq": 6180,
      "bal": 6181,
      "Mb": 6182,
      "JANA": 6183,
      "ĠMiongoni": 6184,
      "ĠArabia": 6185,
      "Ġangalau": 6186,
      "sherehekea": 6187,
      "ĠDisemba": 6188,
      "Ġaliwahi": 6189,
      "Ġmaagizo": 6190,
      "ĠIla": 6191,
      "ĠRuvuma": 6192,
      "ĠTAREHE": 6193,
      "roid": 6194,
      "patie": 6195,
      "ĠDewji": 6196,
      "Ġtunayo": 6197,
      "ndele": 6198,
      "shangilia": 6199,
      "CHADEMA": 6200,
      "ree": 6201,
      "ĠPhili": 6202,
      "Ġkuingilia": 6203,
      "Kama": 6204,
      "ĠKahama": 6205,
      "ĠKIMATAIFA": 6206,
      "HN": 6207,
      "Ġhatuna": 6208,
      "ambazi": 6209,
      "ction": 6210,
      "Ġmaonyesho": 6211,
      "Ġnae": 6212,
      "YIKA": 6213,
      "ĠUte": 6214,
      "Ġharusi": 6215,
      "ĠYu": 6216,
      "Ġ2019": 6217,
      "Ġakiwasili": 6218,
      "ĠBWANA": 6219,
      "ĠKUFANYA": 6220,
      "Ġhawajui": 6221,
      "Ġinge": 6222,
      "ĠKija": 6223,
      "ĠMWENYEKITI": 6224,
      "au": 6225,
      "llo": 6226,
      "Ġuga": 6227,
      "ĠMsaada": 6228,
      "ĠHistoria": 6229,
      "pori": 6230,
      "Ġmuafaka": 6231,
      "ĠAJA": 6232,
      "JUMBE": 6233,
      "ĠMSA": 6234,
      "ĠWATANZANIA": 6235,
      "kumbwa": 6236,
      "tte": 6237,
      "Ġwalizo": 6238,
      "Ġdaktari": 6239,
      "Ġhaiwezi": 6240,
      "dhuriwa": 6241,
      "ĠLibya": 6242,
      "Ġshirikisho": 6243,
      "Ġkibinadamu": 6244,
      "ĠJE": 6245,
      "ĠWakurugenzi": 6246,
      "Ġwataalam": 6247,
      "rsha": 6248,
      "ĠMola": 6249,
      "Ġ''": 6250,
      "Ġkuibuka": 6251,
      "Ġmadarasa": 6252,
      "bli": 6253,
      "ndoo": 6254,
      "ĠMV": 6255,
      "ĠKura": 6256,
      "spo": 6257,
      "ĠDarasa": 6258,
      "tetezi": 6259,
      "upe": 6260,
      "Ġwafugaji": 6261,
      "Ġnaamini": 6262,
      "ĠPS": 6263,
      "ĠGoogle": 6264,
      "2015": 6265,
      "Ġmasaa": 6266,
      "ĠGhana": 6267,
      "05": 6268,
      "Ġtunaomba": 6269,
      "ĠMASOMO": 6270,
      "ĠMay": 6271,
      "ĠSugar": 6272,
      "ĠHizi": 6273,
      "ĠIngawa": 6274,
      "Ġmwanzoni": 6275,
      "zua": 6276,
      "ĠDini": 6277,
      "zanzibari": 6278,
      "/=": 6279,
      "ĠMli": 6280,
      "geuka": 6281,
      "ĠMiss": 6282,
      "ĠWalio": 6283,
      "Ġmaandishi": 6284,
      "ĠPE": 6285,
      "vamia": 6286,
      "Ġmwema": 6287,
      "Ġyalio": 6288,
      "ĠVe": 6289,
      "Ġinatoa": 6290,
      "ngezwa": 6291,
      "ĠUKA": 6292,
      "Ġkibali": 6293,
      "ste": 6294,
      "ĠMsa": 6295,
      "TANDAO": 6296,
      "Ġtani": 6297,
      "ĠKUM": 6298,
      "Ġkutenda": 6299,
      "wezo": 6300,
      "TCL": 6301,
      "nho": 6302,
      "ridhisha": 6303,
      "MISHI": 6304,
      "ĠMfano": 6305,
      "Ġchetu": 6306,
      "Ġtelevisheni": 6307,
      "ĠMag": 6308,
      "Ġlingine": 6309,
      "ĠKUP": 6310,
      "Ġredio": 6311,
      "hanati": 6312,
      "Ġtaka": 6313,
      "Ġula": 6314,
      "stra": 6315,
      "ĠSITA": 6316,
      "Ġtaji": 6317,
      "ĠSimon": 6318,
      "ĠYork": 6319,
      "Ġwaliopo": 6320,
      "VCCM": 6321,
      "ANGU": 6322,
      "ĠNaomba": 6323,
      "EL": 6324,
      "ngani": 6325,
      "ĠRamadhani": 6326,
      "ĠKara": 6327,
      "Ġakam": 6328,
      "Ġkujiuzulu": 6329,
      "safara": 6330,
      "Ġaliwataka": 6331,
      "Ġtasnia": 6332,
      "Ġwai": 6333,
      "Ġjiwe": 6334,
      "App": 6335,
      "ĠKUPATA": 6336,
      "ĠWimbo": 6337,
      "ĠDRC": 6338,
      "Ġ?": 6339,
      "bani": 6340,
      "Chadema": 6341,
      "rusale": 6342,
      "Ġbaya": 6343,
      "Ġmashamba": 6344,
      "ĠEl": 6345,
      "ĠKum": 6346,
      "ĠOKTOBA": 6347,
      "ĠKITU": 6348,
      "Ġifuatavyo": 6349,
      "ĠANA": 6350,
      "pasavyo": 6351,
      "Ġkigaidi": 6352,
      "Ġkusimama": 6353,
      "ĠTele": 6354,
      "Ġby": 6355,
      "Ġmumewe": 6356,
      "ness": 6357,
      "Ġkumekuwa": 6358,
      "ĠAkiwa": 6359,
      "ĠNguvu": 6360,
      "Ġhawata": 6361,
      "nusha": 6362,
      "Ġukanda": 6363,
      "ĠMADA": 6364,
      "hau": 6365,
      "ĠKILA": 6366,
      "Ġudhibiti": 6367,
      "ĠLicha": 6368,
      "Ġuvuvi": 6369,
      "ĠKinana": 6370,
      "Ġ400": 6371,
      "Ġchi": 6372,
      "Ġiweze": 6373,
      "Ġkushuhudia": 6374,
      "ĠJKT": 6375,
      "bra": 6376,
      "ĠShilingi": 6377,
      "ĠHam": 6378,
      "Ġmakusudi": 6379,
      "âĢĻ.": 6380,
      "ĠBagamoyo": 6381,
      "ĠAmerika": 6382,
      "Ġumaarufu": 6383,
      "WEZA": 6384,
      "ĠHaji": 6385,
      "ĠWanao": 6386,
      "kuzwa": 6387,
      "Ġkuruhusu": 6388,
      "ĠMOJA": 6389,
      "Ġmtangazaji": 6390,
      "Ġlimekuwa": 6391,
      "ĠHIYO": 6392,
      "Ġkijinsia": 6393,
      "Ġwakio": 6394,
      "Ġmaudhui": 6395,
      "kimbia": 6396,
      "Ġkwaa": 6397,
      "Ġmzunguko": 6398,
      "ĠMfalme": 6399,
      "mari": 6400,
      "Ġutumishi": 6401,
      "ĠWADA": 6402,
      "undi": 6403,
      "Ġziwa": 6404,
      "ĠSaudi": 6405,
      "umbe": 6406,
      "Ġmadogo": 6407,
      "Ġkujitoa": 6408,
      "kuli": 6409,
      "pendeza": 6410,
      "kamilisha": 6411,
      "Ġgereza": 6412,
      "yupo": 6413,
      "spe": 6414,
      "Ġkufuzu": 6415,
      "chemba": 6416,
      "Ġustawi": 6417,
      "ngua": 6418,
      "ĠTho": 6419,
      "Ġghafla": 6420,
      "nganishwa": 6421,
      "ENDELEA": 6422,
      "reni": 6423,
      "fuatiliaji": 6424,
      "ĠMTU": 6425,
      "Ġkuchu": 6426,
      "HEMU": 6427,
      "Ġipasavyo": 6428,
      "GP": 6429,
      "ĠAbu": 6430,
      "ĠHatu": 6431,
      "Ġkando": 6432,
      "hone": 6433,
      "Ġmagoli": 6434,
      "ĠWor": 6435,
      "Ġwashirika": 6436,
      "ĠEneo": 6437,
      "Ġsukari": 6438,
      "Ġnyuklia": 6439,
      "Ġnikiwa": 6440,
      "Ġafisa": 6441,
      "Ġadui": 6442,
      "Ġmabi": 6443,
      "ĠMchungaji": 6444,
      "Ġkadhalika": 6445,
      "ngton": 6446,
      "Ġitikadi": 6447,
      "uzito": 6448,
      "ĠKulingana": 6449,
      "yce": 6450,
      "ĠMchezaji": 6451,
      "Ġkuwapatia": 6452,
      "cial": 6453,
      "chezea": 6454,
      "ĠNjombe": 6455,
      "ĠMwigulu": 6456,
      "ngera": 6457,
      "ĠCho": 6458,
      "Ġinaonekana": 6459,
      "nline": 6460,
      "sini": 6461,
      "Ġmjumbe": 6462,
      "Ġmisitu": 6463,
      "ĠSwali": 6464,
      "JWA": 6465,
      "husishwa": 6466,
      "risti": 6467,
      "kome": 6468,
      "ĠMiguu": 6469,
      "ngazaji": 6470,
      "ĠRuto": 6471,
      "ĠFamilia": 6472,
      "RADI": 6473,
      "ĠSOMA": 6474,
      "Ġzinasema": 6475,
      "Ġalidai": 6476,
      "tma": 6477,
      "ĠKijamii": 6478,
      "ĠUshirika": 6479,
      "ĠKikao": 6480,
      "ĠMusa": 6481,
      "kiangalia": 6482,
      "Ġtuwe": 6483,
      "Ġushawishi": 6484,
      "ĠFIFA": 6485,
      "Ġuwazi": 6486,
      "Ġkiafya": 6487,
      "Ġmfanyakazi": 6488,
      "ĠNASA": 6489,
      "ĠGavana": 6490,
      "Ġkutembea": 6491,
      ".[": 6492,
      "MIWA": 6493,
      "ĠFI": 6494,
      "Ġwaliohudhuria": 6495,
      "ISHWA": 6496,
      "zembe": 6497,
      "Ġccm": 6498,
      "ĠTra": 6499,
      "ANII": 6500,
      "kimbi": 6501,
      "game": 6502,
      "ĠHoteli": 6503,
      "hukumiwa": 6504,
      "jihusisha": 6505,
      "ĠWasiliana": 6506,
      "chukue": 6507,
      "ress": 6508,
      "meta": 6509,
      "âĢĻ,": 6510,
      "tajiri": 6511,
      "kupa": 6512,
      "Ġwww": 6513,
      "Ġimeanza": 6514,
      "Katika": 6515,
      "takacho": 6516,
      "WTZ": 6517,
      "Ġmateso": 6518,
      "Ġyamekuwa": 6519,
      "09": 6520,
      "adhimisho": 6521,
      "Ġmwake": 6522,
      "ĠDaraja": 6523,
      "Ġbaridi": 6524,
      "Ġwapiganaji": 6525,
      "26": 6526,
      "Ġwanatakiwa": 6527,
      "ĠSalma": 6528,
      "Ġununuzi": 6529,
      "Ġwanaendelea": 6530,
      "hawapo": 6531,
      "Ġkuthibitisha": 6532,
      "dhihirisha": 6533,
      "mbole": 6534,
      "Ġmwananchi": 6535,
      "ĠKongamano": 6536,
      "ĠEuro": 6537,
      "Ġkukabidhi": 6538,
      "OR": 6539,
      "Ġmaonesho": 6540,
      "ndamana": 6541,
      "ĠUha": 6542,
      "ĠRI": 6543,
      "sibu": 6544,
      "Ġsomo": 6545,
      "ĠMbarawa": 6546,
      "Ġtanzania": 6547,
      "himili": 6548,
      "ndera": 6549,
      "Ġkuwapo": 6550,
      "Ġtathmini": 6551,
      "Ġtuliyo": 6552,
      "lakini": 6553,
      "Ġkwaajili": 6554,
      "jimenti": 6555,
      "ĠDani": 6556,
      "you": 6557,
      "Ġfani": 6558,
      "zinduliwa": 6559,
      "ĠMWISHO": 6560,
      "zuka": 6561,
      "ĠMaalumu": 6562,
      "Ġhawawezi": 6563,
      "ĠYALI": 6564,
      "ZALIWA": 6565,
      "ĠKia": 6566,
      "KARI": 6567,
      "ĠUhamiaji": 6568,
      "......": 6569,
      "Ġkuungana": 6570,
      "milikiwa": 6571,
      "SOMA": 6572,
      "kre": 6573,
      "ĠNchemba": 6574,
      "ĠBUNGE": 6575,
      "enea": 6576,
      "Co": 6577,
      "Ġhaikuwa": 6578,
      "TAJI": 6579,
      "teta": 6580,
      "hodha": 6581,
      "ndarasi": 6582,
      "ĠBro": 6583,
      "ĠYusu": 6584,
      "HAMA": 6585,
      "Ġvikali": 6586,
      "Ġuliofanywa": 6587,
      "ĠPu": 6588,
      "Ġkiserikali": 6589,
      "kose": 6590,
      "Ġkilomita": 6591,
      "Ġkuhusika": 6592,
      "Ġwahamiaji": 6593,
      "ls": 6594,
      "Ġikawa": 6595,
      "ĠKUTAZAMA": 6596,
      "ĠUKU": 6597,
      "Ġmda": 6598,
      "pitisha": 6599,
      "tengenezwa": 6600,
      "tasi": 6601,
      "LMA": 6602,
      "Ġkurejesha": 6603,
      "national": 6604,
      "ĠARUSHA": 6605,
      "fanyike": 6606,
      "funze": 6607,
      "Ġkijijini": 6608,
      "amiza": 6609,
      "ĠDAWA": 6610,
      "ĠKUBWA": 6611,
      "ĠKAN": 6612,
      "Ġmwongozo": 6613,
      "PITA": 6614,
      "Ġmadeni": 6615,
      "Ġmaswa": 6616,
      "Ġzinazoendelea": 6617,
      "fautiana": 6618,
      "Ġaku": 6619,
      "Ġtanga": 6620,
      "ĠNafasi": 6621,
      "ngoro": 6622,
      "ĠJukwaa": 6623,
      "by": 6624,
      "Ġwapatao": 6625,
      "ĠMalawi": 6626,
      "ĠZo": 6627,
      "Ġkupe": 6628,
      "ĠUle": 6629,
      "hamis": 6630,
      "Pe": 6631,
      "Ġtafsiri": 6632,
      "tilia": 6633,
      "Ġkabila": 6634,
      "tsApp": 6635,
      "ĠBri": 6636,
      "wajibikaji": 6637,
      "Mo": 6638,
      "ĠMafanikio": 6639,
      "ĠDai": 6640,
      "ĠNMB": 6641,
      "geme": 6642,
      "ĠMaadhimisho": 6643,
      "Ġvipindi": 6644,
      "Ġkusambaza": 6645,
      "Ġcom": 6646,
      "ĠHIS": 6647,
      "ĠNor": 6648,
      "kawa": 6649,
      "LII": 6650,
      "CHAGUZI": 6651,
      "ĠMembe": 6652,
      "jadi": 6653,
      "ĠSitta": 6654,
      "ĠUzinduzi": 6655,
      "ĠAg": 6656,
      "heri": 6657,
      "Ġwenzangu": 6658,
      "ĠZu": 6659,
      "enezi": 6660,
      "jambazi": 6661,
      "ĠUHU": 6662,
      "Ġbaraka": 6663,
      "Ġkuadhimisha": 6664,
      "ĠUCHAGUZI": 6665,
      "Ġunaendelea": 6666,
      "Ġmwakilishi": 6667,
      "ĠMaandishi": 6668,
      "ĠGroup": 6669,
      "Ġvyumba": 6670,
      "ĠTan": 6671,
      "ĠAliyekuwa": 6672,
      "ĠRashi": 6673,
      "jama": 6674,
      "Ġinafanya": 6675,
      "Ġkuisaidia": 6676,
      "ĠFEDHA": 6677,
      "Ġumbali": 6678,
      "Mimi": 6679,
      "ĠDha": 6680,
      "ĠBENKI": 6681,
      "Ġnataka": 6682,
      "vile": 6683,
      "Ġmgomo": 6684,
      "Ġkifupi": 6685,
      "08": 6686,
      "nwa": 6687,
      "ĠVicto": 6688,
      "zma": 6689,
      "ĠKisutu": 6690,
      "ĠMuhammad": 6691,
      "ĠTANO": 6692,
      "Ġumakini": 6693,
      "ford": 6694,
      "kwepa": 6695,
      "ĠPhilip": 6696,
      "ĠKIKUU": 6697,
      "RODHA": 6698,
      "Ġwalim": 6699,
      "ĠCHAMA": 6700,
      "ĠFursa": 6701,
      "ĠKidemokrasia": 6702,
      "bian": 6703,
      "ĠUpa": 6704,
      "Ġfidia": 6705,
      "sanyaji": 6706,
      "ĠDC": 6707,
      "Ġviki": 6708,
      "nger": 6709,
      "Ġ48": 6710,
      "Ġushuru": 6711,
      "Ġsote": 6712,
      "TRA": 6713,
      "Ġujauzito": 6714,
      "nganyiko": 6715,
      "ĠNJE": 6716,
      "ĠHispania": 6717,
      "Ġufahamu": 6718,
      "ĠUpate": 6719,
      "Ġutata": 6720,
      "ĠMtangazaji": 6721,
      "sted": 6722,
      "tal": 6723,
      "plomasia": 6724,
      "Ġmifuko": 6725,
      "ĠNdg": 6726,
      "ĠHUYU": 6727,
      "ĠMte": 6728,
      "Ġniliyo": 6729,
      "2014": 6730,
      "Ġufugaji": 6731,
      "Ġshambulio": 6732,
      "Ġuchimbaji": 6733,
      "pigi": 6734,
      "ĠMuse": 6735,
      "Ġkupenda": 6736,
      "ĠMoto": 6737,
      "ĠMerkel": 6738,
      "ĠBODI": 6739,
      "ĠWashi": 6740,
      "hesabu": 6741,
      "Ġtajiri": 6742,
      "ĠMcha": 6743,
      "Ġmatara": 6744,
      "Ġugaidi": 6745,
      "Ġusafirishaji": 6746,
      "Ġmamilioni": 6747,
      "sion": 6748,
      "ĠYake": 6749,
      "sukuma": 6750,
      "endana": 6751,
      "kate": 6752,
      "ĠSTA": 6753,
      "dirio": 6754,
      "ĠKIN": 6755,
      "guri": 6756,
      "ifaa": 6757,
      "ĠMomba": 6758,
      "rema": 6759,
      "Ġnilivyo": 6760,
      "ONGOZA": 6761,
      "Ġmageuzi": 6762,
      "ĠMuziki": 6763,
      "Ġ..": 6764,
      "ĠUA": 6765,
      "Ġmaduka": 6766,
      "ĠMwenyewe": 6767,
      "Ġmanispaa": 6768,
      "pishe": 6769,
      "eti": 6770,
      "LIN": 6771,
      "ĠKUT": 6772,
      "athirika": 6773,
      "28": 6774,
      "Ġkudumisha": 6775,
      "andikisha": 6776,
      "ĠCana": 6777,
      "ĠFM": 6778,
      "Ġgu": 6779,
      "Ġajenda": 6780,
      "ZEE": 6781,
      "un": 6782,
      "Ġmatarajio": 6783,
      "Ġraha": 6784,
      "Ġdeni": 6785,
      "Ġkutunza": 6786,
      "Ġmarudi": 6787,
      "nea": 6788,
      "Ġakifanya": 6789,
      "Ġ$": 6790,
      "Ġmauzo": 6791,
      "katibu": 6792,
      "ĠMakame": 6793,
      "ĠMARA": 6794,
      "ĠMECHI": 6795,
      "hebu": 6796,
      "Ġkelele": 6797,
      "ĠNyama": 6798,
      "lanzi": 6799,
      "ĠAKI": 6800,
      "Ġalisisitiza": 6801,
      "masi": 6802,
      "ONYE": 6803,
      "Ġmovie": 6804,
      "MIZI": 6805,
      "nejimenti": 6806,
      "Ġmabe": 6807,
      "ĠUchunguzi": 6808,
      "ham": 6809,
      "ĠRaia": 6810,
      "hudumu": 6811,
      "Ġkuwekwa": 6812,
      "tunza": 6813,
      "ĠKamba": 6814,
      "KAMA": 6815,
      "chua": 6816,
      "ĠMuga": 6817,
      "Ġkushuka": 6818,
      "ĠDaudi": 6819,
      "Ġsala": 6820,
      "Ġmoyoni": 6821,
      "itaka": 6822,
      "ĠKagame": 6823,
      "Ġcheti": 6824,
      "ndela": 6825,
      "Ġsumu": 6826,
      "Ġkukataa": 6827,
      "thibitishwa": 6828,
      "mboa": 6829,
      "PIGA": 6830,
      "Mwa": 6831,
      "Ġanajua": 6832,
      "Ġameji": 6833,
      "Ġkusisitiza": 6834,
      "tongoji": 6835,
      "Ġkija": 6836,
      "pport": 6837,
      "ĠKucheza": 6838,
      "ulize": 6839,
      "Ġkupatiwa": 6840,
      "ĠKabi": 6841,
      "Ġakifungua": 6842,
      "ĠVIJANA": 6843,
      "ĠQa": 6844,
      "ĠMahiga": 6845,
      "jam": 6846,
      "44": 6847,
      "Ġkirafiki": 6848,
      "Ġmhariri": 6849,
      "Ġkitaa": 6850,
      "Ġkugo": 6851,
      "sifu": 6852,
      "Ġwavulana": 6853,
      "Ġmaandiko": 6854,
      "Ġkufikiri": 6855,
      "ĠORODHA": 6856,
      "ĠMFU": 6857,
      "Ġbalozi": 6858,
      "undation": 6859,
      "ther": 6860,
      "Ġmabomu": 6861,
      "MS": 6862,
      "jamin": 6863,
      "Ġkusitisha": 6864,
      "'s": 6865,
      "ĠNawa": 6866,
      "nyonge": 6867,
      "ĠBahari": 6868,
      "ĠMbili": 6869,
      "ses": 6870,
      "onekano": 6871,
      "hamisho": 6872,
      "jenge": 6873,
      "ĠUFA": 6874,
      "Ġwamesha": 6875,
      "Ġaliji": 6876,
      "ghani": 6877,
      "ĠTari": 6878,
      "Ġkada": 6879,
      "hesa": 6880,
      "ĠKabwe": 6881,
      "skofu": 6882,
      "Ġ38": 6883,
      "ĠWADAU": 6884,
      "ĠWazazi": 6885,
      "Ġwanawa": 6886,
      "ĠIDADI": 6887,
      "Ġalianza": 6888,
      "Ġametangaza": 6889,
      "Ġlililopo": 6890,
      "Ġmfanyabiashara": 6891,
      "Ġmaafa": 6892,
      "Ġmasikini": 6893,
      "ut": 6894,
      "der": 6895,
      "Ġghasia": 6896,
      "Ġuadilifu": 6897,
      "Ġtujadili": 6898,
      "mume": 6899,
      "ĠYule": 6900,
      "Ġzinapo": 6901,
      "Ġ42": 6902,
      "ĠMwanadamu": 6903,
      "Ġinahitaji": 6904,
      "ĠRufaa": 6905,
      "Ġgiza": 6906,
      "ĠSama": 6907,
      "tuhumiwa": 6908,
      "zote": 6909,
      "ĠChini": 6910,
      "lei": 6911,
      "ĠMaki": 6912,
      "Ġjingine": 6913,
      "Ġshinikizo": 6914,
      "Ġwasomi": 6915,
      "Ġvipimo": 6916,
      "Ġkuunganisha": 6917,
      "ĠMussa": 6918,
      "ĠAFUN": 6919,
      "ĠRonal": 6920,
      "ĠMAPENZI": 6921,
      "Ġtahadhari": 6922,
      "Ġposho": 6923,
      "mura": 6924,
      "Ġkufanywa": 6925,
      "kutanisha": 6926,
      "adamu": 6927,
      "ENDO": 6928,
      "Ġpasipo": 6929,
      "Ġwapate": 6930,
      "ĠSalim": 6931,
      "Ġmioyo": 6932,
      "ĠUP": 6933,
      "umini": 6934,
      "sihi": 6935,
      "ĠIsa": 6936,
      "ĠMpekuzi": 6937,
      "tangulia": 6938,
      "Ġumasikini": 6939,
      "liko": 6940,
      "ĠWhatsApp": 6941,
      "Ġushirika": 6942,
      "win": 6943,
      "Ġtunapo": 6944,
      "99": 6945,
      "Ġkufuta": 6946,
      "ĠMWILI": 6947,
      "ĠUbalozi": 6948,
      "Ġvisa": 6949,
      "Ġmwenyeji": 6950,
      "ruary": 6951,
      "ckson": 6952,
      "Ġvinginevyo": 6953,
      "ĠMshambuliaji": 6954,
      "KONDA": 6955,
      "Pa": 6956,
      "Ġkuelezea": 6957,
      "Ġmshikamano": 6958,
      "ĠMiradi": 6959,
      "ĠLIN": 6960,
      ",,": 6961,
      "badilishwa": 6962,
      "ĠZetu": 6963,
      "ĠPen": 6964,
      "Ġakiwemo": 6965,
      "MOND": 6966,
      "ADHI": 6967,
      "Ġuwi": 6968,
      "ĠAmina": 6969,
      "ĠAlikuwa": 6970,
      "ngelea": 6971,
      "Ġkufundisha": 6972,
      "takalo": 6973,
      "ĠAskari": 6974,
      "ĠSho": 6975,
      "Ġkuchaguliwa": 6976,
      "ĠBenjamin": 6977,
      "News": 6978,
      "Ġmga": 6979,
      "ffi": 6980,
      "36": 6981,
      "ĠJafo": 6982,
      "pitwe": 6983,
      "sturi": 6984,
      "Ġwakimsikiliza": 6985,
      "ĠMale": 6986,
      "ĠKiarabu": 6987,
      "ĠLtd": 6988,
      "ĠMAWA": 6989,
      "gana": 6990,
      "ĠLIVE": 6991,
      "Ġudhaifu": 6992,
      "ĠUn": 6993,
      "ĠHarrison": 6994,
      "cal": 6995,
      "ĠMaadili": 6996,
      "ĠFU": 6997,
      "Ġuchafu": 6998,
      "Ġbima": 6999,
      "HC": 7000,
      "ĠâĢĿ": 7001,
      "Ġradhi": 7002,
      "ĠNdoa": 7003,
      "ĠJINSI": 7004,
      "achia": 7005,
      "ĠMajina": 7006,
      "MLA": 7007,
      "nunuliwa": 7008,
      "ĠMapenzi": 7009,
      "Ġnawe": 7010,
      "Ġtuicha": 7011,
      "Ġamesha": 7012,
      "ĠGra": 7013,
      "dge": 7014,
      "lion": 7015,
      ".âĢĻ": 7016,
      "ĠUstawi": 7017,
      "Ġkimapenzi": 7018,
      "TORIA": 7019,
      "Ġdogo": 7020,
      "Ġcheo": 7021,
      "Ġkuhamia": 7022,
      "vunia": 7023,
      "ĠGA": 7024,
      "Ġwatalii": 7025,
      "ĠMedia": 7026,
      "Ġ88": 7027,
      "ĠUTALII": 7028,
      "Ġmwangi": 7029,
      "ĠYoyote": 7030,
      "ĠDIA": 7031,
      "tatu": 7032,
      "muraguri": 7033,
      "Ġtuichapishe": 7034,
      "era": 7035,
      "ĠWame": 7036,
      "bakia": 7037,
      "ĠRoma": 7038,
      "Ġ06": 7039,
      "ĠHIVI": 7040,
      "takia": 7041,
      "ĠWANAWA": 7042,
      "Ġtulio": 7043,
      "Ġkivu": 7044,
      "Ġhawakuwa": 7045,
      "ĠZari": 7046,
      "38": 7047,
      "luhisho": 7048,
      "ĠMah": 7049,
      "Ġwasiliana": 7050,
      "Ġmikubwa": 7051,
      "ĠJipatie": 7052,
      "rida": 7053,
      "gamboni": 7054,
      "meko": 7055,
      "danganya": 7056,
      "Ġlinaweza": 7057,
      "ĠMtihani": 7058,
      "ĠNane": 7059,
      "ĠLU": 7060,
      "Ġwalioko": 7061,
      "ĠMugabe": 7062,
      "Ġmaswala": 7063,
      "wezekani": 7064,
      "Ġ2020": 7065,
      "ĠDK": 7066,
      "40": 7067,
      "ndoka": 7068,
      "Jo": 7069,
      "Ġkuamkia": 7070,
      "ĠWashington": 7071,
      "ĠTofauti": 7072,
      "ĠRatiba": 7073,
      "pima": 7074,
      "Ġduka": 7075,
      "Ġbendera": 7076,
      "Ġkubaki": 7077,
      "MZ": 7078,
      "ĠUNI": 7079,
      "FUA": 7080,
      "Ġkusubiri": 7081,
      "ĠRO": 7082,
      "MERA": 7083,
      "Ġkujitolea": 7084,
      "ĠSongea": 7085,
      "Ġkusaini": 7086,
      "sco": 7087,
      "Ġkutazama": 7088,
      "Ġnyongeza": 7089,
      "ĠCen": 7090,
      "changiaji": 7091,
      "tendea": 7092,
      "Ġwazima": 7093,
      "shtu": 7094,
      "Ġukarabati": 7095,
      "ĠSHA": 7096,
      "ĠAJALI": 7097,
      "Ġmajeruhi": 7098,
      "ĠLema": 7099,
      "Ġmchu": 7100,
      "ĠSua": 7101,
      "ĠMsajili": 7102,
      "okoaji": 7103,
      "Ġujasiri": 7104,
      "ĠSala": 7105,
      "ĠRonaldo": 7106,
      "Ġkutwaa": 7107,
      "ĠMAKU": 7108,
      "Ġkisu": 7109,
      "ĠWANAWAKE": 7110,
      "nna": 7111,
      "nje": 7112,
      "ĠPri": 7113,
      "ĠViti": 7114,
      "Ġukusanyaji": 7115,
      "haribika": 7116,
      "hata": 7117,
      "mes": 7118,
      "ĠMandela": 7119,
      "ĠVVU": 7120,
      "milivu": 7121,
      "Ġkumwo": 7122,
      "ongezea": 7123,
      "Ġtoleo": 7124,
      "Lakini": 7125,
      "LAMU": 7126,
      "mond": 7127,
      "ee": 7128,
      "ĠJane": 7129,
      "ĠMadaktari": 7130,
      "kiona": 7131,
      "ĠFreeman": 7132,
      "ĠMIKOPO": 7133,
      "pumziko": 7134,
      "Ġuwa": 7135,
      "ais": 7136,
      "ĠChali": 7137,
      "reen": 7138,
      "Ġuto": 7139,
      "imba": 7140,
      "Ġkinga": 7141,
      "wakabili": 7142,
      "ĠAbe": 7143,
      "SCO": 7144,
      "baha": 7145,
      "ĠMATAIFA": 7146,
      "ĠBinafsi": 7147,
      "lazwa": 7148,
      "amuru": 7149,
      "hiyo": 7150,
      "Ġbeki": 7151,
      "Ġkumbe": 7152,
      "Ġmmiliki": 7153,
      "hukumu": 7154,
      "ĠUsafi": 7155,
      "Ġnaibu": 7156,
      "Ġmamia": 7157,
      "cheke": 7158,
      "Ġbanda": 7159,
      "ngeweza": 7160,
      "FAA": 7161,
      "ĠFoundation": 7162,
      "Ġaliyoi": 7163,
      "lishi": 7164,
      "Ġmtaji": 7165,
      "Ġmachache": 7166,
      "SSF": 7167,
      "Ġkurasa": 7168,
      "TOKEA": 7169,
      "ĠMBUNGE": 7170,
      "ĠJOHN": 7171,
      "DUZI": 7172,
      "ĠRADIO": 7173,
      "Ġmwakani": 7174,
      "likwa": 7175,
      "Mungu": 7176,
      "ĠBlogu": 7177,
      "Ġalipowasili": 7178,
      "Ġinter": 7179,
      "Ġkuhami": 7180,
      "Ġchaguzi": 7181,
      "tsa": 7182,
      "ĠPata": 7183,
      "INGINE": 7184,
      "ĠWanya": 7185,
      "ĠKILIMO": 7186,
      "shambuliwa": 7187,
      "it": 7188,
      "ĠKUKU": 7189,
      "ser": 7190,
      "ĠSto": 7191,
      "ĠBILA": 7192,
      "Ġup": 7193,
      "ĠMadiwani": 7194,
      "Ġmitaani": 7195,
      "kiuka": 7196,
      "jumui": 7197,
      "Ġ2002": 7198,
      "ĠMIKOA": 7199,
      "Ġwaku": 7200,
      "Ġmwilini": 7201,
      "ndaji": 7202,
      "susi": 7203,
      "Ġndilo": 7204,
      "Ġhuna": 7205,
      "ĠMUDA": 7206,
      "MWA": 7207,
      "daka": 7208,
      "UTI": 7209,
      "ĠSherehe": 7210,
      "shio": 7211,
      "Ġkuharibu": 7212,
      "UNA": 7213,
      "ĠOle": 7214,
      "**": 7215,
      "ĠWENYE": 7216,
      "thu": 7217,
      "ĠFebruary": 7218,
      "ĠRashid": 7219,
      "Ġvidogo": 7220,
      "ĠMIFU": 7221,
      "igizaji": 7222,
      "ndiki": 7223,
      "ĠYetu": 7224,
      "ĠUsipitwe": 7225,
      "ĠEli": 7226,
      "ĠDIAMOND": 7227,
      "ĠKikristo": 7228,
      "Ġkuingiza": 7229,
      "Ġvilevile": 7230,
      "Ġakutana": 7231,
      "Ġkujiandaa": 7232,
      "ĠLipumba": 7233,
      "chard": 7234,
      "Ġipi": 7235,
      "Ġvido": 7236,
      "Ġshahada": 7237,
      "simamiwa": 7238,
      "Ġanam": 7239,
      "ĠIm": 7240,
      "Ġmsemaji": 7241,
      "ĠSEHEMU": 7242,
      "sajiliwa": 7243,
      "ĠHALMA": 7244,
      "ĠÂ·": 7245,
      "ila": 7246,
      "ĠAllaa": 7247,
      "Ġutukufu": 7248,
      "Ġwanahitaji": 7249,
      "Ġwivu": 7250,
      "ĠiP": 7251,
      "hitimisha": 7252,
      "pendi": 7253,
      "So": 7254,
      "zuku": 7255,
      "Ġviunga": 7256,
      "ĠWaka": 7257,
      "Ġtujadiliane": 7258,
      "Ġviumbe": 7259,
      "ĠNyu": 7260,
      "ley": 7261,
      "SHIN": 7262,
      "ĠFor": 7263,
      "ĠEA": 7264,
      "Ġnalo": 7265,
      "rick": 7266,
      "Ġmafisadi": 7267,
      "ĠTuli": 7268,
      "Ġduni": 7269,
      ".(": 7270,
      "Ġheri": 7271,
      "Ġzilizokuwa": 7272,
      "Ġazma": 7273,
      "ĠUHA": 7274,
      "kane": 7275,
      "gala": 7276,
      "amuhuri": 7277,
      "Ġmadawati": 7278,
      "Ġkilikuwa": 7279,
      "ESU": 7280,
      "kretari": 7281,
      "ĠAjili": 7282,
      "ĠTZ": 7283,
      "onye": 7284,
      "Ġmafuriko": 7285,
      "ĠMize": 7286,
      "kuliwa": 7287,
      "ĠYohana": 7288,
      "Ġhesabu": 7289,
      "ĠTIMU": 7290,
      "rahman": 7291,
      "Ġpana": 7292,
      "Ġkushu": 7293,
      "unganishi": 7294,
      "gara": 7295,
      "malizia": 7296,
      "pri": 7297,
      "katoliki": 7298,
      "ĠILIYO": 7299,
      "aki": 7300,
      "Ġikili": 7301,
      "Ġndefu": 7302,
      "Ġkilichofanyika": 7303,
      "katiba": 7304,
      "WANI": 7305,
      "ĠSHIN": 7306,
      "PC": 7307,
      "Ġmsaidizi": 7308,
      "ĠIssa": 7309,
      "milia": 7310,
      "Ġmaishani": 7311,
      "KING": 7312,
      "Ġmbwa": 7313,
      "ĠMarti": 7314,
      "ngapi": 7315,
      "veni": 7316,
      "Ġakifafanua": 7317,
      "Ġkutakiwa": 7318,
      "fuatazo": 7319,
      "ĠGlobal": 7320,
      "ĠWayahudi": 7321,
      "Ġzikiwemo": 7322,
      "Ġameeleza": 7323,
      "Je": 7324,
      "pitishwa": 7325,
      "Ġwafanya": 7326,
      "ĠVIONGOZI": 7327,
      "Kila": 7328,
      "Una": 7329,
      "tini": 7330,
      "pendekezwa": 7331,
      "Ġtunawa": 7332,
      "Ġkufikiria": 7333,
      "cation": 7334,
      "Ġuwajibikaji": 7335,
      "ĠPalestina": 7336,
      "Ġtunao": 7337,
      "ĠHALMASHAURI": 7338,
      "ĠOnline": 7339,
      "bianchi": 7340,
      "dee": 7341,
      "swira": 7342,
      "Ġkisiwa": 7343,
      "ramia": 7344,
      "ĠMTA": 7345,
      "Ġmeneja": 7346,
      "ĠSer": 7347,
      "ĠKudumu": 7348,
      "Ġlipo": 7349,
      "Ġwanaji": 7350,
      "Ġkupelekwa": 7351,
      "ĠWo": 7352,
      "Ġzuri": 7353,
      "ĠBE": 7354,
      "taneti": 7355,
      "ENO": 7356,
      "ONE": 7357,
      "Ġanao": 7358,
      "ĠTangazo": 7359,
      "yan": 7360,
      "Ġinatarajiwa": 7361,
      "ĠMafuta": 7362,
      "ĠMombasa": 7363,
      "ĠBima": 7364,
      "urinho": 7365,
      "giriki": 7366,
      "ĠBilioni": 7367,
      "ĠBIA": 7368,
      "nganyifu": 7369,
      "ĠHOS": 7370,
      "Ġmja": 7371,
      "ĠMAJA": 7372,
      "ĠDiwani": 7373,
      "salia": 7374,
      "ĠSHERIA": 7375,
      "anyi": 7376,
      "ĠFahamu": 7377,
      "ĠRichard": 7378,
      "Ġukombozi": 7379,
      "ĠAngalia": 7380,
      "2019": 7381,
      "Ġusambazaji": 7382,
      "Ġkadha": 7383,
      "ĠVifaa": 7384,
      "Ġkifa": 7385,
      "ĠNamba": 7386,
      "ĠZOTE": 7387,
      "Ġkupitisha": 7388,
      "Ġmapumziko": 7389,
      "Ġkuinua": 7390,
      "ĠMwanafunzi": 7391,
      "Ġhospitalini": 7392,
      "Ġimeendelea": 7393,
      "ĠBaye": 7394,
      "ĠDR": 7395,
      "haribu": 7396,
      "Ġwanatumia": 7397,
      "giji": 7398,
      "Ġwajasiriamali": 7399,
      "live": 7400,
      "Ġmil": 7401,
      "ĠPlu": 7402,
      "Ġuana": 7403,
      "ĠCanada": 7404,
      "Ġakitokea": 7405,
      "ĠNGO": 7406,
      "imu": 7407,
      "Ġhauja": 7408,
      "Ġmbiu": 7409,
      "ture": 7410,
      "ney": 7411,
      "Ġimetangaza": 7412,
      "diriwa": 7413,
      "Ġkupu": 7414,
      "KURU": 7415,
      "Ġukiu": 7416,
      "ghanistan": 7417,
      "PU": 7418,
      "AA": 7419,
      "ĠUME": 7420,
      "ĠJumla": 7421,
      "Ġlililofanyika": 7422,
      "SHO": 7423,
      "blog": 7424,
      "raji": 7425,
      "ĠWAKO": 7426,
      "xt": 7427,
      "ĠMua": 7428,
      "dh": 7429,
      "ĠBaraka": 7430,
      "Ġmahindi": 7431,
      "ctober": 7432,
      "Ġsafu": 7433,
      "ĠLabda": 7434,
      "Ġufalme": 7435,
      "njika": 7436,
      "ĠKWE": 7437,
      "ĠMourinho": 7438,
      "Ġzilizotolewa": 7439,
      "Ġtangazo": 7440,
      "Ġuhifadhi": 7441,
      "ĠKiuchumi": 7442,
      "Nime": 7443,
      "ĠAJILI": 7444,
      "ĠKITAIFA": 7445,
      "ĠKigamboni": 7446,
      "Ġwanaofanya": 7447,
      "pole": 7448,
      "ĠFlo": 7449,
      "mbui": 7450,
      "tali": 7451,
      "pati": 7452,
      "nufaisha": 7453,
      "ĠAsha": 7454,
      "ĠBURE": 7455,
      "ĠAJI": 7456,
      "Ġanaamini": 7457,
      "riadha": 7458,
      "ĠBingwa": 7459,
      "Ġuchungu": 7460,
      "ĠAG": 7461,
      "Ġkuwafanya": 7462,
      "akasema": 7463,
      "Ġmachozi": 7464,
      "Ġpwani": 7465,
      "Ġkutekelezwa": 7466,
      "Tume": 7467,
      "ĠMkakati": 7468,
      "Ġukili": 7469,
      "ĠNDE": 7470,
      "ĠFainali": 7471,
      "ĠMakinda": 7472,
      "Ġhama": 7473,
      "Ġmachafuko": 7474,
      "Ġkufanyia": 7475,
      "Ġkufikisha": 7476,
      "ĠFm": 7477,
      "Ġtuu": 7478,
      "Ġkutangazwa": 7479,
      "bomo": 7480,
      "ĠBARAZA": 7481,
      "LS": 7482,
      "Ġlimesema": 7483,
      "tsapp": 7484,
      "Ġdereva": 7485,
      "ELEZO": 7486,
      "ngilio": 7487,
      "ktaba": 7488,
      "kretarieti": 7489,
      "Ġkupungua": 7490,
      "org": 7491,
      "rry": 7492,
      "Ġhela": 7493,
      "De": 7494,
      "ywele": 7495,
      "kezo": 7496,
      "JO": 7497,
      "Ġnilipo": 7498,
      "ĠIbada": 7499,
      "Ġwatawala": 7500,
      "ĠOmar": 7501,
      "ĠTayari": 7502,
      "ĠKambarage": 7503,
      "Ġkukumbu": 7504,
      "Ġ150": 7505,
      "Ġ55": 7506,
      "ĠMSIBA": 7507,
      "ĠWil": 7508,
      "kiongea": 7509,
      "Ġmwanasiasa": 7510,
      "Ġwanaamini": 7511,
      "Ġunatukio": 7512,
      "Ġmakamu": 7513,
      "unt": 7514,
      "Ġziko": 7515,
      "ĠIME": 7516,
      "zio": 7517,
      "Ġzozote": 7518,
      "ĠMWEZI": 7519,
      "ĠClub": 7520,
      "ĠBrea": 7521,
      "LB": 7522,
      "mika": 7523,
      "Ġkusahau": 7524,
      "ĠLINK": 7525,
      "tere": 7526,
      "levile": 7527,
      "ĠAUA": 7528,
      "kusudia": 7529,
      "site": 7530,
      "mbiji": 7531,
      "ĠIE": 7532,
      "ngano": 7533,
      "ĠTAMISEMI": 7534,
      "GWA": 7535,
      "ĠAndroid": 7536,
      "kinga": 7537,
      "Ġkidi": 7538,
      "Ġkipengele": 7539,
      "Ġkuondolewa": 7540,
      "ĠHebu": 7541,
      "Ġkimsingi": 7542,
      "Ġ47": 7543,
      "kadiriwa": 7544,
      "ĠWakimbizi": 7545,
      "2013": 7546,
      "Ġinjili": 7547,
      "ĠInternational": 7548,
      "ssia": 7549,
      "ĠUshauri": 7550,
      "ĠUHURU": 7551,
      "Ġmeno": 7552,
      "Ġwakili": 7553,
      "ĠPakua": 7554,
      "pigania": 7555,
      "ZAZI": 7556,
      "ĠUkaguzi": 7557,
      "Ġanapaswa": 7558,
      "Ġkuzidi": 7559,
      "suko": 7560,
      "jage": 7561,
      "ĠHOSPITA": 7562,
      "ĠStar": 7563,
      "Ġwatoa": 7564,
      "Ġkuuliza": 7565,
      "Ġmaabara": 7566,
      "ĠAfghanistan": 7567,
      "Ġblogu": 7568,
      "Ġkuuawa": 7569,
      "Ġmtendaji": 7570,
      "Ġwakifanya": 7571,
      "ĠMpaka": 7572,
      "ĠUbunge": 7573,
      "ĠUa": 7574,
      "Ġlisilo": 7575,
      "Ġdesturi": 7576,
      "Ġpembeni": 7577,
      "ĠUVCCM": 7578,
      "Ġkung": 7579,
      "ndishwa": 7580,
      "pewe": 7581,
      "ĠMizengo": 7582,
      "Ġitawa": 7583,
      "shikiliwa": 7584,
      "jiza": 7585,
      "Ġubalozi": 7586,
      "rushi": 7587,
      "Ġsto": 7588,
      "ah": 7589,
      "Ġwalia": 7590,
      "ĠYESU": 7591,
      "Ġwarsha": 7592,
      "Ġimesha": 7593,
      "ambie": 7594,
      "ration": 7595,
      "Ġmtuhumiwa": 7596,
      "Ġpato": 7597,
      "ĠIre": 7598,
      "Ġyanayoendelea": 7599,
      "ĠWakili": 7600,
      "Ġmifano": 7601,
      "UZI": 7602,
      "Ġakimkaribisha": 7603,
      "laani": 7604,
      "Ġwahitimu": 7605,
      "ĠAZINDUA": 7606,
      "ĠKipa": 7607,
      "ridhika": 7608,
      "Ġmadereva": 7609,
      "ĠHiki": 7610,
      "ĠHesabu": 7611,
      "49": 7612,
      "ĠOctober": 7613,
      "MAA": 7614,
      "ĠBarack": 7615,
      "Ġkujifungua": 7616,
      "ĠKipindi": 7617,
      "Ġwafungwa": 7618,
      "Ġwadhifa": 7619,
      "ĠIshara": 7620,
      "ĠKujenga": 7621,
      "Ġhufanya": 7622,
      "toshe": 7623,
      "Ġjinai": 7624,
      "soro": 7625,
      "ĠUtangazaji": 7626,
      "ĠBREA": 7627,
      "BS": 7628,
      "Ġhapana": 7629,
      "ĠBIASHARA": 7630,
      "Ġvichwa": 7631,
      "Ġkumsaidia": 7632,
      "ĠBea": 7633,
      "Ġsupport": 7634,
      "Ġkurekebisha": 7635,
      "ĠMIS": 7636,
      "Ġkaburi": 7637,
      "ĠIS": 7638,
      "ĠSene": 7639,
      "32": 7640,
      "ĠJamuhuri": 7641,
      "Ġvitambulisho": 7642,
      "Ġyaliyopo": 7643,
      "ĠMpo": 7644,
      "Ġbomba": 7645,
      "tasari": 7646,
      "ĠMKURUGENZI": 7647,
      "Ġtokea": 7648,
      "Ġakiba": 7649,
      "ĠZoezi": 7650,
      "ĠKitanzania": 7651,
      "Ġukuta": 7652,
      "ĠUsajili": 7653,
      "jazo": 7654,
      "umu": 7655,
      "Ġhiari": 7656,
      "AD": 7657,
      "Ġnguzo": 7658,
      "Ġkipo": 7659,
      "Ġmboga": 7660,
      "Ġ75": 7661,
      "Ġkusafirisha": 7662,
      "Ġkutia": 7663,
      "ĠWasanii": 7664,
      "mited": 7665,
      "ĠBREAKING": 7666,
      "kete": 7667,
      "ĠSara": 7668,
      "Ġkutegemea": 7669,
      "Ġkujipatia": 7670,
      "Ġaliu": 7671,
      "ĠIddi": 7672,
      "hudhuriwa": 7673,
      "Ġmlipuko": 7674,
      "70": 7675,
      "âĢľ": 7676,
      "elelezo": 7677,
      "Ġkitakacho": 7678,
      "Ġkukidhi": 7679,
      "nter": 7680,
      "ĠKUONA": 7681,
      "VUTI": 7682,
      "ĠMlezi": 7683,
      "Ġmalaika": 7684,
      "wer": 7685,
      "Ġakisisitiza": 7686,
      "cs": 7687,
      "ĠZote": 7688,
      "Ġmuswada": 7689,
      "ziwa": 7690,
      "ĠVile": 7691,
      "SIA": 7692,
      "UAJI": 7693,
      "Ġwameanza": 7694,
      "ĠMlima": 7695,
      "jengo": 7696,
      "ĠEndelea": 7697,
      "Ġmashaka": 7698,
      "ĠMashahidi": 7699,
      "VIE": 7700,
      "Ġuchambuzi": 7701,
      "Ġ39": 7702,
      "ĠMganga": 7703,
      "Wana": 7704,
      "Ġtulikuwa": 7705,
      "ENYA": 7706,
      "WANDA": 7707,
      "Sh": 7708,
      "Ġtunavyo": 7709,
      "Ġsuluhisho": 7710,
      "ĠHOSPITALI": 7711,
      "Ġkifaa": 7712,
      "Ġatu": 7713,
      "ĠAbdulrahman": 7714,
      "Ġz": 7715,
      "Ġufadhili": 7716,
      "Ġlishe": 7717,
      "ĠAME": 7718,
      "Ġlitakalo": 7719,
      "rushwa": 7720,
      "ĠTANGAZO": 7721,
      "simua": 7722,
      "weni": 7723,
      "Ġimetolewa": 7724,
      "ĠNDEGE": 7725,
      "mpi": 7726,
      "ĠRushwa": 7727,
      "dam": 7728,
      "changi": 7729,
      "ashiria": 7730,
      "ĠMWANAFUNZI": 7731,
      "Ġhatuwezi": 7732,
      "gama": 7733,
      "CHUKU": 7734,
      "Ġ2004": 7735,
      "Ġunga": 7736,
      "Ġanacho": 7737,
      "njari": 7738,
      "Ġaya": 7739,
      "kosea": 7740,
      "ĠDaniel": 7741,
      "Ġuaminifu": 7742,
      "ĠKUJIUNGA": 7743,
      "OMBI": 7744,
      "BORA": 7745,
      "ure": 7746,
      "eleweka": 7747,
      "ĠHAI": 7748,
      "ĠKANDA": 7749,
      "Ġkubuni": 7750,
      "ron": 7751,
      "tekwa": 7752,
      "Ġakijibu": 7753,
      "dudu": 7754,
      "Ġnyanja": 7755,
      "Ġuhamisho": 7756,
      "Ġmato": 7757,
      "ntiki": 7758,
      "Ġinabidi": 7759,
      "Ġtunataka": 7760,
      "Ġmwo": 7761,
      "ĠAhmed": 7762,
      "Ġpongezi": 7763,
      "Ġkukimbia": 7764,
      "hema": 7765,
      "Ġmapungufu": 7766,
      "ĠWANAO": 7767,
      "Mu": 7768,
      "Ġnjama": 7769,
      "Ġmila": 7770,
      "Ġanakuwa": 7771,
      "UNGO": 7772,
      "500": 7773,
      "Ġmwako": 7774,
      "ĠWepesi": 7775,
      "Ġkumiliki": 7776,
      "Ġkilio": 7777,
      "ĠMati": 7778,
      "ĠAPP": 7779,
      "Ġkusikiti": 7780,
      "troniki": 7781,
      "tudio": 7782,
      "car": 7783,
      "Ġulaya": 7784,
      "ĠVilevile": 7785,
      "Ġyanapatikana": 7786,
      "ĠAnne": 7787,
      "Ġakipata": 7788,
      "phen": 7789,
      "Ġmchanga": 7790,
      "gorongoro": 7791,
      "FANI": 7792,
      "ĠPole": 7793,
      "nthony": 7794,
      "tengwa": 7795,
      "Ġuliokuwa": 7796,
      "ĠInstall": 7797,
      "Ġkulipia": 7798,
      "roni": 7799,
      "Ġl": 7800,
      "ĠMuseveni": 7801,
      "Ġujio": 7802,
      "ĠALIYE": 7803,
      "ĠMal": 7804,
      "Ġmwanamuziki": 7805,
      "Ġshambulizi": 7806,
      "kanusha": 7807,
      "Ġkutaja": 7808,
      "Ġkufariki": 7809,
      "ĠMaombi": 7810,
      "tishia": 7811,
      "ĠBilal": 7812,
      "Ġinapaswa": 7813,
      "ĠMSINGI": 7814,
      "nuo": 7815,
      "ram": 7816,
      "Ġpepo": 7817,
      "wawa": 7818,
      "ninga": 7819,
      "Ġkimwili": 7820,
      "BISHA": 7821,
      "29": 7822,
      "Ġikilinganishwa": 7823,
      "zana": 7824,
      "Ġnzito": 7825,
      "ĠNEWS": 7826,
      "faidi": 7827,
      "FANYIKA": 7828,
      "Ġzijazo": 7829,
      "ĠMkaguzi": 7830,
      "ĠLuku": 7831,
      "ĠRich": 7832,
      "bamu": 7833,
      "ĠMaju": 7834,
      "ĠWasichana": 7835,
      "Ġfaili": 7836,
      "ĠKATIBA": 7837,
      "ĠDownload": 7838,
      "Ġmlo": 7839,
      "KANI": 7840,
      "Ġ!": 7841,
      "ĠWest": 7842,
      "Ġiliyoko": 7843,
      "ĠHATA": 7844,
      "Ġuzalendo": 7845,
      "ONGEZA": 7846,
      "MAMO": 7847,
      "soge": 7848,
      "ĠBayern": 7849,
      "Ġwaliwa": 7850,
      "mesha": 7851,
      "Dk": 7852,
      "Le": 7853,
      "ĠSulei": 7854,
      "Ġalilo": 7855,
      "kasi": 7856,
      "ĠChanzo": 7857,
      "eleze": 7858,
      "ĠAngela": 7859,
      "Ġnu": 7860,
      "ĠNani": 7861,
      "ZURI": 7862,
      "zuni": 7863,
      "Ġsadaka": 7864,
      "Ġtara": 7865,
      "Ġwanakuwa": 7866,
      "ĠMuni": 7867,
      "ĠNamna": 7868,
      "Ġtutakuwa": 7869,
      "Ġwakitoa": 7870,
      "Ġniku": 7871,
      "Ġchote": 7872,
      "ĠMhariri": 7873,
      "Ġanatakiwa": 7874,
      "Ġatakapo": 7875,
      "Ġ41": 7876,
      "ONT": 7877,
      "ĠMtukufu": 7878,
      "ndamanaji": 7879,
      "Ġkutumiwa": 7880,
      "nukuu": 7881,
      "MALI": 7882,
      "Ġnywele": 7883,
      "ĠLulu": 7884,
      "rri": 7885,
      "staka": 7886,
      "ĠKuzuia": 7887,
      "belgiji": 7888,
      "ĠAlipo": 7889,
      "Ġasema": 7890,
      "letwa": 7891,
      "Ġjanga": 7892,
      "ĠâĨĴ": 7893,
      "ĠVictoria": 7894,
      "RY": 7895,
      "nzaji": 7896,
      "Ġjamani": 7897,
      "Ġmtumiaji": 7898,
      "ĠAustra": 7899,
      "ĠKanumba": 7900,
      "Ġkitanzania": 7901,
      "kilizwa": 7902,
      "mer": 7903,
      "lar": 7904,
      "?.": 7905,
      "futaji": 7906,
      "Ġtafiti": 7907,
      "Ġkuolewa": 7908,
      "komboa": 7909,
      "ĠPRO": 7910,
      "kovu": 7911,
      "Ġujasiriamali": 7912,
      "Ġugeni": 7913,
      "ĠUTU": 7914,
      "Ġalie": 7915,
      "wafanya": 7916,
      "holanzi": 7917,
      "Ġradio": 7918,
      "sung": 7919,
      "Ġurafiki": 7920,
      "Ġutoto": 7921,
      "jiuliza": 7922,
      "ĠShetani": 7923,
      "ĠSongwe": 7924,
      "mati": 7925,
      "Ġ54": 7926,
      "ĠCup": 7927,
      "atu": 7928,
      "ĠWapo": 7929,
      "ĠMazungumzo": 7930,
      "Ġwaishi": 7931,
      "fana": 7932,
      "ĠMahusiano": 7933,
      "fuatiwa": 7934,
      "Ġkujihusisha": 7935,
      "shughulisha": 7936,
      "Ġkivita": 7937,
      "nikiza": 7938,
      "ĠHAWA": 7939,
      "nusuru": 7940,
      "ĠThi": 7941,
      "HIMU": 7942,
      "shwaji": 7943,
      "Ġchanjo": 7944,
      "Ġkunyo": 7945,
      "gen": 7946,
      "Ġikiwamo": 7947,
      "Ġndicho": 7948,
      "ĠWateja": 7949,
      "ĠWazanzibari": 7950,
      "ĠMpi": 7951,
      "ĠViunganishi": 7952,
      "ranga": 7953,
      "ĠAina": 7954,
      "ksi": 7955,
      "yafanya": 7956,
      "Ġimewasilishwa": 7957,
      "Ġukilinganisha": 7958,
      "ĠMOVIE": 7959,
      "ngili": 7960,
      "Ġasilia": 7961,
      "Ġyaliyokuwa": 7962,
      "Ġkujadi": 7963,
      "Ġutakapo": 7964,
      "Ġkiwanja": 7965,
      "ĠUJUMBE": 7966,
      "ĠMr": 7967,
      "Ġtri": 7968,
      "Ġuraia": 7969,
      "mbufu": 7970,
      "ĠMH": 7971,
      "Ġtuko": 7972,
      "Ġlitakuwa": 7973,
      "ĠBreaking": 7974,
      "Ġuzuri": 7975,
      "ĠPOMBE": 7976,
      "fungia": 7977,
      "KAO": 7978,
      "Ġvitisho": 7979,
      "elek": 7980,
      "Ġwam": 7981,
      "TER": 7982,
      "baba": 7983,
      "dada": 7984,
      "wama": 7985,
      "ĠAliwa": 7986,
      "ENGO": 7987,
      "ĠCHINA": 7988,
      "ĠSirro": 7989,
      "ĠYATOA": 7990,
      "ĠKiti": 7991,
      "ĠWAO": 7992,
      "ĠStephen": 7993,
      "ĠAP": 7994,
      "ST": 7995,
      "ĠVitabu": 7996,
      "jikita": 7997,
      "67": 7998,
      "35": 7999,
      "Ġ600": 8000,
      "ĠMPANGO": 8001,
      "SEMA": 8002,
      "dhehebu": 8003,
      "BL": 8004,
      "Ġyatakuwa": 8005,
      "ĠMsimu": 8006,
      "Ġmpi": 8007,
      "ĠMTANDAO": 8008,
      "TANGAZWA": 8009,
      "Ġwaliochaguliwa": 8010,
      "Ġuandishi": 8011,
      "TANGAZA": 8012,
      "fukuza": 8013,
      "ĠYali": 8014,
      "Ġkorosho": 8015,
      "Ġvyetu": 8016,
      "ĠNY": 8017,
      "kizi": 8018,
      "ĠMsumbiji": 8019,
      "ANE": 8020,
      "ĠNgorongoro": 8021,
      "Ġmrembo": 8022,
      "Ġmsafara": 8023,
      "Ġkujengwa": 8024,
      "Ġudanganyifu": 8025,
      "Ġmakanisa": 8026,
      "ĠKARI": 8027,
      "ĠKWAKE": 8028,
      "Ġwanajua": 8029,
      "ĠWALI": 8030,
      "ungwa": 8031,
      "esco": 8032,
      "Ġwakala": 8033,
      "RUFU": 8034,
      "Ġkifua": 8035,
      "Ġhutumia": 8036,
      "????": 8037,
      "ĠBerna": 8038,
      "Ġkuwajengea": 8039,
      "rugenzi": 8040,
      "ĠKumbuka": 8041,
      "GUZI": 8042,
      "ĠNYE": 8043,
      "juma": 8044,
      "Ġunaona": 8045,
      "TEKE": 8046,
      "Ġkugundua": 8047,
      "CUF": 8048,
      "PYA": 8049,
      "ĠYerusale": 8050,
      "ledi": 8051,
      "ĠCame": 8052,
      "fariji": 8053,
      "haba": 8054,
      "ĠSwe": 8055,
      "Ġasasi": 8056,
      "ĠCrea": 8057,
      "lian": 8058,
      "ĠKhamis": 8059,
      "Ġmgodi": 8060,
      "ĠAllaah": 8061,
      "Ġzifuatazo": 8062,
      "Ġzinazotolewa": 8063,
      "pho": 8064,
      "ĠPari": 8065,
      "ĠMRADI": 8066,
      "Ġwokovu": 8067,
      "Ġmtakatifu": 8068,
      "sela": 8069,
      "Ġakikagua": 8070,
      "Ġ44": 8071,
      "ĠSteven": 8072,
      "Ġamefunguka": 8073,
      "ĠSaa": 8074,
      "Ġkupigia": 8075,
      "ĠKivu": 8076,
      "Ġkurudisha": 8077,
      "Ġkutisha": 8078,
      "Ġkuzitumia": 8079,
      "Ġyakiwa": 8080,
      "Ġingekuwa": 8081,
      "ĠWhatsapp": 8082,
      "Ġvibali": 8083,
      "airo": 8084,
      "ĠTuta": 8085,
      "Me": 8086,
      "Ġmafa": 8087,
      "nta": 8088,
      "Ġjadi": 8089,
      "ĠMwai": 8090,
      "anguka": 8091,
      "Ġnanyi": 8092,
      "YANGA": 8093,
      "ĠKutoa": 8094,
      "ĠEx": 8095,
      "94": 8096,
      "Ġmbona": 8097,
      "Ġaliko": 8098,
      "wataka": 8099,
      "mons": 8100,
      "Ġmaadui": 8101,
      "ĠTena": 8102,
      "Ġkufi": 8103,
      "Wi": 8104,
      "chapishwa": 8105,
      "ĠMorocco": 8106,
      "mbile": 8107,
      "ĠShari": 8108,
      "ĠPaki": 8109,
      "wanga": 8110,
      "Ġzahanati": 8111,
      "kwama": 8112,
      "Ġvivutio": 8113,
      "bwawa": 8114,
      "ĠUmwagiliaji": 8115,
      "eleka": 8116,
      "basi": 8117,
      "ĠFau": 8118,
      "Ġkukose": 8119,
      "ĠMitihani": 8120,
      "Ġunge": 8121,
      "ĠFleva": 8122,
      "oki": 8123,
      "wia": 8124,
      "ĠMenejimenti": 8125,
      "Ġtumekuwa": 8126,
      "Ġkiraia": 8127,
      "HAMU": 8128,
      "ONDO": 8129,
      "Ġkadiri": 8130,
      "dongo": 8131,
      "RIN": 8132,
      "Ġzana": 8133,
      "Ġamepata": 8134,
      "Ġmashuhuri": 8135,
      "rums": 8136,
      "Ġliko": 8137,
      "Ġakielezea": 8138,
      "ĠSports": 8139,
      "Ġ53": 8140,
      "kusanyiko": 8141,
      "CB": 8142,
      "Rais": 8143,
      "Ġalitumia": 8144,
      "Ġitasaidia": 8145,
      "itwacho": 8146,
      "ĠWaafrika": 8147,
      "ĠHISTORIA": 8148,
      "ruga": 8149,
      "ĠKENYA": 8150,
      "Ġkubadilishana": 8151,
      "Fo": 8152,
      "ĠKUPITIA": 8153,
      "Ġmdau": 8154,
      "INIWA": 8155,
      "ĠKaria": 8156,
      "Ġupepo": 8157,
      "cob": 8158,
      "ĠSuleiman": 8159,
      "ĠMkono": 8160,
      "mila": 8161,
      "zaro": 8162,
      "ĠUwezo": 8163,
      "ĠRodri": 8164,
      "Ġkuchi": 8165,
      "Ġwakawa": 8166,
      "ĠHuku": 8167,
      "ĠUbelgiji": 8168,
      "Ġiliyoandaliwa": 8169,
      "Ġaliamua": 8170,
      "lalamika": 8171,
      "buti": 8172,
      "cheni": 8173,
      "ĠCar": 8174,
      "Ġupelelezi": 8175,
      "Ġmse": 8176,
      "Ġkiitwacho": 8177,
      "guo": 8178,
      "ĠMajeshi": 8179,
      "Ġkuathiri": 8180,
      "TH": 8181,
      "milifu": 8182,
      "ZU": 8183,
      "Ġkukabidhiwa": 8184,
      "ĠAbbas": 8185,
      "ĠKufuatia": 8186,
      "ĠMPENZI": 8187,
      "Ġalizaliwa": 8188,
      "Ġalifariki": 8189,
      "Ġkaya": 8190,
      "GINE": 8191,
      "komeza": 8192,
      "ĠTABIA": 8193,
      "Ġkilometa": 8194,
      "ĠLimited": 8195,
      "ĠHotuba": 8196,
      "Ġhamasa": 8197,
      "ĠAI": 8198,
      "The": 8199,
      "Ġsuluhu": 8200,
      "ĠAbeid": 8201,
      "idhi": 8202,
      "lizwa": 8203,
      "Ġkukiwa": 8204,
      "Ġunyanya": 8205,
      "Ġutapata": 8206,
      "ĠLazima": 8207,
      "ĠUamuzi": 8208,
      "ĠDHIDI": 8209,
      "sso": 8210,
      "ĠACT": 8211,
      "Ġunacho": 8212,
      "miaji": 8213,
      "ĠGE": 8214,
      "thini": 8215,
      "ĠAJIRA": 8216,
      "Ġkona": 8217,
      "ĠJoyce": 8218,
      "ters": 8219,
      "ĠEcke": 8220,
      "Ġkukupa": 8221,
      "ĠParis": 8222,
      "ĠAya": 8223,
      "cri": 8224,
      "somea": 8225,
      "Ġstahiki": 8226,
      "Ġmlima": 8227,
      "Ġalimu": 8228,
      "Ġniwa": 8229,
      "ndeni": 8230,
      "Ġmwenzi": 8231,
      "Ġtulivyo": 8232,
      "ĠUenezi": 8233,
      "BIDHI": 8234,
      "ĠScho": 8235,
      "ĠRC": 8236,
      "riwa": 8237,
      "ngalizi": 8238,
      "Ġakiongoza": 8239,
      "moto": 8240,
      "ĠMitego": 8241,
      "Ġchanya": 8242,
      "ĠRasi": 8243,
      "DB": 8244,
      "ujiza": 8245,
      "ondolewa": 8246,
      "ĠViungo": 8247,
      "ĠYALIYO": 8248,
      "ĠAmo": 8249,
      "ĠSINGI": 8250,
      "ĠChangamoto": 8251,
      "Ġtabianchi": 8252,
      "Ġnimeona": 8253,
      "moc": 8254,
      "Ġhatima": 8255,
      "ĠMitandao": 8256,
      "Ġkuundwa": 8257,
      "ĠHAKI": 8258,
      "ĠNDOA": 8259,
      "nuzi": 8260,
      "Ġwalipata": 8261,
      "teka": 8262,
      "ĠMessi": 8263,
      "Ġkujionea": 8264,
      "shana": 8265,
      "Ġkuondokana": 8266,
      "...]": 8267,
      "Ġuanachama": 8268,
      "Ġsiwezi": 8269,
      "stakabali": 8270,
      "ĠKodi": 8271,
      "ĠHEWA": 8272,
      "Ġkibao": 8273,
      "ĠSio": 8274,
      "ĠJuly": 8275,
      "elekezwa": 8276,
      "tangazia": 8277,
      "Ġnyengine": 8278,
      "ĠSINGIDA": 8279,
      "ĠKisi": 8280,
      "adala": 8281,
      "Ġvisiwani": 8282,
      "ĠIGP": 8283,
      "Ġwaathirika": 8284,
      "ĠCommons": 8285,
      "ĠBUNG": 8286,
      "elewe": 8287,
      "ĠKumbukumbu": 8288,
      "ĠDE": 8289,
      "Ġzinaonyesha": 8290,
      "kubalika": 8291,
      "Ġmbovu": 8292,
      "ĠAkiongea": 8293,
      "ĠMhagama": 8294,
      "TUBA": 8295,
      "mikali": 8296,
      "frey": 8297,
      "ngamizi": 8298,
      "FONT": 8299,
      "ĠVu": 8300,
      "Ġkwi": 8301,
      "ĠKairuki": 8302,
      "Ġkubadilika": 8303,
      "Ġundani": 8304,
      "guswa": 8305,
      "kumbusho": 8306,
      "TY": 8307,
      "bola": 8308,
      "Ġuhamiaji": 8309,
      "ĠCreative": 8310,
      "TENDA": 8311,
      "htasari": 8312,
      "riri": 8313,
      "pepe": 8314,
      "ĠUkra": 8315,
      "ĠMengi": 8316,
      "Ġkiapo": 8317,
      "Ġufaulu": 8318,
      "ĠSamu": 8319,
      "reno": 8320,
      "Ġunakuwa": 8321,
      "ĠWETU": 8322,
      "Ġimem": 8323,
      "thayo": 8324,
      "ĠUWE": 8325,
      "ĠZuma": 8326,
      "Ġmatawi": 8327,
      "mbwe": 8328,
      "ĠWenger": 8329,
      "ĠYerusalemu": 8330,
      "ĠBla": 8331,
      "pindu": 8332,
      "rekodi": 8333,
      "zina": 8334,
      "Ġwalifanya": 8335,
      "Ġugumu": 8336,
      "Ġ2001": 8337,
      "Ġ[...]": 8338,
      "Ġanaendelea": 8339,
      "ngoni": 8340,
      "ĠWAKU": 8341,
      "ĠMAHAKAMA": 8342,
      "viti": 8343,
      "Ġanae": 8344,
      "ĠBado": 8345,
      "tuni": 8346,
      "beth": 8347,
      "ingie": 8348,
      "ĠBUNGENI": 8349,
      "PATI": 8350,
      "Ġkikatiba": 8351,
      "ĠKIJA": 8352,
      "ĠTanza": 8353,
      "Uta": 8354,
      "LEWA": 8355,
      "ĠQatar": 8356,
      "45": 8357,
      "zingatiwa": 8358,
      "Ġwanandoa": 8359,
      "ĠWakazi": 8360,
      "gani": 8361,
      "Ġkuteuliwa": 8362,
      "ĠWanyama": 8363,
      "Ġbibi": 8364,
      "Ġshetani": 8365,
      "nuka": 8366,
      "ishu": 8367,
      "ĠMw": 8368,
      "ĠSalama": 8369,
      "Ġkutafsiri": 8370,
      "Ġkumpata": 8371,
      "bira": 8372,
      "2007": 8373,
      "Ġwadhamini": 8374,
      "ngam": 8375,
      "ĠIle": 8376,
      "Ġilianza": 8377,
      "muia": 8378,
      "ĠJacob": 8379,
      "ĠVITA": 8380,
      "ĠKibaha": 8381,
      "andiko": 8382,
      "ĠKesi": 8383,
      "Ġhutoa": 8384,
      "Ġwatapata": 8385,
      "mpo": 8386,
      "domo": 8387,
      "enzi": 8388,
      "ĠGlobu": 8389,
      "mbue": 8390,
      "BIASHARA": 8391,
      "INGA": 8392,
      "ĠPesa": 8393,
      "__": 8394,
      "sayansi": 8395,
      "ĠNAM": 8396,
      "ĠIBA": 8397,
      "ĠLukuvi": 8398,
      "day": 8399,
      "ĠThomas": 8400,
      "ĠIlikuwa": 8401,
      "lathini": 8402,
      "Ġkutafakari": 8403,
      "rty": 8404,
      "ĠAustralia": 8405,
      "Ġkujeruhiwa": 8406,
      "fuate": 8407,
      "Ġmalezi": 8408,
      "ĠAugust": 8409,
      "Ġmtaalamu": 8410,
      "keza": 8411,
      "Ġkupotea": 8412,
      "ĠMPA": 8413,
      "Ġitakapo": 8414,
      "simamishwa": 8415,
      "Ġkuapishwa": 8416,
      "Ġruzuku": 8417,
      "humu": 8418,
      "roo": 8419,
      "ĠMikutano": 8420,
      "ĠSt": 8421,
      "ĠPosta": 8422,
      "Ġuhakiki": 8423,
      "PS": 8424,
      "limpiki": 8425,
      "tambulika": 8426,
      "ĠKupambana": 8427,
      "Ġnyinyi": 8428,
      "Ġonyo": 8429,
      "ĠJangwa": 8430,
      "mbora": 8431,
      "ĠItikadi": 8432,
      "Ġamesisitiza": 8433,
      "ĠKiafrika": 8434,
      "ĠHOTUBA": 8435,
      "ĠSale": 8436,
      "ĠSuala": 8437,
      "Ġanwani": 8438,
      "ĠSHINYANGA": 8439,
      "Ġkukosekana": 8440,
      "Ġukawa": 8441,
      "boreshaji": 8442,
      "ĠDaktari": 8443,
      "ĠMarch": 8444,
      "Ġmashitaka": 8445,
      "ajiri": 8446,
      "ĠKULI": 8447,
      "Ġkusha": 8448,
      "Ġwanamgambo": 8449,
      "ingizwa": 8450,
      "ĠNO": 8451,
      "ĠUtendaji": 8452,
      "wapongeza": 8453,
      "kum": 8454,
      "ĠMse": 8455,
      "ĠLazaro": 8456,
      "Ġwanai": 8457,
      "ĠLeague": 8458,
      "ĠMAUAJI": 8459,
      "ĠYoung": 8460,
      "okies": 8461,
      "ĠWashiriki": 8462,
      "sumbua": 8463,
      "kaza": 8464,
      "ĠSekretarieti": 8465,
      "Ġkuhama": 8466,
      "choro": 8467,
      "Ġ46": 8468,
      "Ġkadri": 8469,
      "imbaji": 8470,
      "ĠJengo": 8471,
      "ĠMartin": 8472,
      "Ġkani": 8473,
      "ft": 8474,
      "hula": 8475,
      "ĠBALOZI": 8476,
      "ĠKITUO": 8477,
      "Ġkufurahia": 8478,
      "tofautiana": 8479,
      "Ġkujiuliza": 8480,
      "Ġkuachi": 8481,
      "Ġmina": 8482,
      "ĠMasauni": 8483,
      "TAAFU": 8484,
      "lsafa": 8485,
      "choka": 8486,
      "pt": 8487,
      "ĠEliza": 8488,
      "Ġnjiani": 8489,
      "Ġrama": 8490,
      "Ġkuoa": 8491,
      "Ġanaji": 8492,
      "Ġnajua": 8493,
      "sadi": 8494,
      "Ġnimekuwa": 8495,
      "ngulizi": 8496,
      "Ġunaoendelea": 8497,
      "ĠKIA": 8498,
      "teule": 8499,
      "ĠZILI": 8500,
      "ĠMai": 8501,
      "Ġjicho": 8502,
      "ries": 8503,
      "ĠNu": 8504,
      "Ġmatusi": 8505,
      "Ġmazoea": 8506,
      "fadhiliwa": 8507,
      "sli": 8508,
      "Ġucho": 8509,
      "uwawa": 8510,
      "koo": 8511,
      "Ġukimwi": 8512,
      "Ġyatima": 8513,
      "ĠSamwe": 8514,
      "Ju": 8515,
      "ĠWanachama": 8516,
      "ner": 8517,
      "Ġjam": 8518,
      "Ġkizuri": 8519,
      "Re": 8520,
      "NEWS": 8521,
      "chochezi": 8522,
      "OO": 8523,
      "ĠPasaka": 8524,
      "Ġwahalifu": 8525,
      "patika": 8526,
      "Ġameamua": 8527,
      "Ġmatajiri": 8528,
      "ĠKIJAMII": 8529,
      "ndeleo": 8530,
      "nduki": 8531,
      "ĠMAD": 8532,
      "Ġpunde": 8533,
      "ĠKiwango": 8534,
      "Ġmajeraha": 8535,
      "ĠHamis": 8536,
      "ĠDI": 8537,
      "37": 8538,
      "ĠIBADA": 8539,
      "WALA": 8540,
      "Ġwakurugenzi": 8541,
      "SHINDI": 8542,
      "ĠJW": 8543,
      "ĠRamani": 8544,
      "BARA": 8545,
      "Hii": 8546,
      "ĠJibu": 8547,
      "Ġwafanye": 8548,
      "ĠWaheshimiwa": 8549,
      "ĠKUA": 8550,
      "Ġkuzaa": 8551,
      "horo": 8552,
      "ENA": 8553,
      "nyima": 8554,
      "?\"": 8555,
      "ĠMapema": 8556,
      "Ġvipo": 8557,
      "Ġkujitegemea": 8558,
      "Ġkozi": 8559,
      "wazito": 8560,
      "Ġusumbufu": 8561,
      "ĠRua": 8562,
      "Ġkupanua": 8563,
      "ĠMwijage": 8564,
      "Ġwatetezi": 8565,
      "Ġwameamua": 8566,
      "Ġgerezani": 8567,
      "una": 8568,
      "ĠBAADHI": 8569,
      "butu": 8570,
      "enyeji": 8571,
      "Ġumiliki": 8572,
      "keli": 8573,
      "Ġwakisema": 8574,
      "ption": 8575,
      "bibu": 8576,
      "ĠNapenda": 8577,
      "ĠUKAWA": 8578,
      "TIBA": 8579,
      "LIONI": 8580,
      "Ġjaribio": 8581,
      "Ġhttp": 8582,
      "pigaji": 8583,
      "YUO": 8584,
      "Ġ2003": 8585,
      "sikika": 8586,
      "ĠIma": 8587,
      "Ġmpinzani": 8588,
      "ĠWao": 8589,
      "ĠOne": 8590,
      "ĠKiwanda": 8591,
      "Waziri": 8592,
      "Ġmguu": 8593,
      "ĠUFUN": 8594,
      "Ġkuashiria": 8595,
      "ab": 8596,
      "Ġameli": 8597,
      "ĠWAFANYAKAZI": 8598,
      "ĠMafundi": 8599,
      "gra": 8600,
      "zalishwa": 8601,
      "Ġkuheshimu": 8602,
      "ĠKISA": 8603,
      "ĠMAJALIWA": 8604,
      "Ġishirini": 8605,
      "Ġkuhudumia": 8606,
      "rew": 8607,
      "Ġuti": 8608,
      "ANGI": 8609,
      "ĠHatimaye": 8610,
      "shauriwa": 8611,
      "ĠMITI": 8612,
      "ĠMKE": 8613,
      "INGWA": 8614,
      "Ġkuchochea": 8615,
      "ĠUgonjwa": 8616,
      "mbie": 8617,
      "angalie": 8618,
      "hayupo": 8619,
      "Ġhaito": 8620,
      "sukumo": 8621,
      "ASISI": 8622,
      "Ġmatamshi": 8623,
      "::": 8624,
      "roka": 8625,
      "Ġhazija": 8626,
      "ĠRose": 8627,
      "ĠMosi": 8628,
      "leti": 8629,
      "90": 8630,
      "ridhia": 8631,
      "ĠMZEE": 8632,
      "ĠIDARA": 8633,
      "Ġinatokana": 8634,
      "waki": 8635,
      "ĠTarime": 8636,
      "ĠEver": 8637,
      "likuwa": 8638,
      "Ġhuzuni": 8639,
      "ĠNJIA": 8640,
      "Ġ08": 8641,
      "Ġakikabidhi": 8642,
      "Ġmki": 8643,
      "Ġwalinzi": 8644,
      "vamizi": 8645,
      "Ġkukiuka": 8646,
      "ĠUkraine": 8647,
      "Ġ<": 8648,
      "ĠMajibu": 8649,
      "Ġkipaji": 8650,
      "Ġmauti": 8651,
      "min": 8652,
      "ndwe": 8653,
      "Ġ01": 8654,
      "Ġkicha": 8655,
      "ĠHilo": 8656,
      "Ġwanaotaka": 8657,
      "Ġkitambulisho": 8658,
      "hirishwa": 8659,
      "Ġkiislamu": 8660,
      "mbana": 8661,
      "Ġkulalami": 8662,
      "TENDAJI": 8663,
      "Ġunatarajiwa": 8664,
      "Ġtukiwa": 8665,
      "Ġtishio": 8666,
      "fuka": 8667,
      "ĠMuadhamu": 8668,
      "ĠNami": 8669,
      "muko": 8670,
      "ridhishwa": 8671,
      "Pesa": 8672,
      "Ġ09": 8673,
      "Ġbin": 8674,
      "ĠSerikalini": 8675,
      "Ġkumfanya": 8676,
      "rence": 8677,
      "JABU": 8678,
      "Ġkuanguka": 8679,
      "Ġmahala": 8680,
      "meni": 8681,
      "SABA": 8682,
      "ĠAR": 8683,
      "DILIKO": 8684,
      "ĠYETU": 8685,
      "Ġhuweza": 8686,
      "Ġugo": 8687,
      "wezekanavyo": 8688,
      "ĠWala": 8689,
      "ĠMate": 8690,
      "Ġ&#": 8691,
      "shua": 8692,
      "ĠMwandamizi": 8693,
      "ĠTAASISI": 8694,
      "Ġkuke": 8695,
      "Ġkitaaluma": 8696,
      "tafsiri": 8697,
      "huo": 8698,
      "TEKELE": 8699,
      "Ġpre": 8700,
      "ĠSou": 8701,
      "muona": 8702,
      "ĠiPhone": 8703,
      "Ġmaovu": 8704,
      "dharau": 8705,
      "Ġwaislamu": 8706,
      "michezo": 8707,
      "wajibika": 8708,
      "ĠSeptember": 8709,
      "ĠKUFA": 8710,
      "GONJWA": 8711,
      "wekewa": 8712,
      "Ġmsomaji": 8713,
      "Ġlami": 8714,
      "ker": 8715,
      "kwaju": 8716,
      "ĠReli": 8717,
      "ĠZINA": 8718,
      "paji": 8719,
      "miri": 8720,
      "ĠSiri": 8721,
      "Ġunapaswa": 8722,
      "chwani": 8723,
      "Ġwaliofika": 8724,
      "ĠNAMNA": 8725,
      "ĠIbara": 8726,
      "Ġwalioshiriki": 8727,
      "Ġkimaendeleo": 8728,
      "nifu": 8729,
      "ĠGabri": 8730,
      "Ġkuimba": 8731,
      "ĠAssa": 8732,
      ",...": 8733,
      "Ġmaiti": 8734,
      "ĠAnthony": 8735,
      "burg": 8736,
      "ĠAlha": 8737,
      "ĠMAALU": 8738,
      "FUTA": 8739,
      "ĠMABADILIKO": 8740,
      "ĠMunich": 8741,
      "Ġinatarajia": 8742,
      "Ġkuaminika": 8743,
      "ĠKipe": 8744,
      "dola": 8745,
      "CHAGULIWA": 8746,
      "Ġhttps": 8747,
      "nyenye": 8748,
      "Ġilisema": 8749,
      "Ġweledi": 8750,
      "wongo": 8751,
      "Yo": 8752,
      "ĠMago": 8753,
      "YAN": 8754,
      "Ġakisoma": 8755,
      "salaba": 8756,
      "Ġalitaka": 8757,
      "Ġkugawa": 8758,
      "Ġmawakala": 8759,
      "Ġwanacho": 8760,
      "ĠSuper": 8761,
      "achwa": 8762,
      "ĠIsi": 8763,
      "mizwa": 8764,
      "Ġvipengele": 8765,
      "Ġkuitwa": 8766,
      "Ġchafu": 8767,
      "ĠHoja": 8768,
      "ĠMwongozo": 8769,
      "ngizi": 8770,
      "ĠZai": 8771,
      "Ġbomu": 8772,
      "][": 8773,
      "Ġwamepata": 8774,
      "ĠYaani": 8775,
      "Ġ52": 8776,
      "Ġdhaifu": 8777,
      "Ġwanaharakati": 8778,
      "Ġkunipa": 8779,
      "Ġaliandika": 8780,
      "Ġiwezekanavyo": 8781,
      "ĠBinti": 8782,
      "ĠNGUVU": 8783,
      "ĠKika": 8784,
      "rodhe": 8785,
      "ĠJUMU": 8786,
      "Ġlink": 8787,
      "Ġazimio": 8788,
      "ĠAFUNGUA": 8789,
      "ndikiza": 8790,
      "54": 8791,
      "halo": 8792,
      "ĠKing": 8793,
      "saidiwa": 8794,
      "ĠGari": 8795,
      "Ġuni": 8796,
      "KINI": 8797,
      "ĠWATUMISHI": 8798,
      "Ġmala": 8799,
      "Ġkatoliki": 8800,
      "nema": 8801,
      "Ġumati": 8802,
      "dra": 8803,
      "ning": 8804,
      "ĠKule": 8805,
      "Ġhayana": 8806,
      "ĠINAYO": 8807,
      "ĠKUYA": 8808,
      "sababi": 8809,
      "SHE": 8810,
      "faransa": 8811,
      "ĠWataalamu": 8812,
      "ĠMSIMAMO": 8813,
      "ĠGua": 8814,
      "ikolojia": 8815,
      "34": 8816,
      "kozi": 8817,
      "ĠMakampuni": 8818,
      "HARI": 8819,
      "Ġnacho": 8820,
      "ĠHukumu": 8821,
      "ĠMARE": 8822,
      "Ġkumshukuru": 8823,
      "Ġkisicho": 8824,
      "ĠMuswada": 8825,
      "Ġafu": 8826,
      "ans": 8827,
      "chipuka": 8828,
      "husa": 8829,
      "ĠYemen": 8830,
      "chapisha": 8831,
      "zizi": 8832,
      "pumzika": 8833,
      "Ġwazuri": 8834,
      "ĠAzimio": 8835,
      "ĠWEMA": 8836,
      "mtaka": 8837,
      "arifu": 8838,
      "tambuliwa": 8839,
      "Ġmachi": 8840,
      "Ġzitakuwa": 8841,
      "ĠMAAJABU": 8842,
      "KILIZA": 8843,
      "LAMA": 8844,
      "Ra": 8845,
      "Ġtunahitaji": 8846,
      "ĠAdam": 8847,
      "Ġmadhubuti": 8848,
      "ĠPakistan": 8849,
      "Ġmashauri": 8850,
      "Ġmku": 8851,
      "Ġwajawazito": 8852,
      "ĠTelevi": 8853,
      "ĠVPL": 8854,
      "WALI": 8855,
      "ĠUholanzi": 8856,
      "eneza": 8857,
      "nene": 8858,
      "TL": 8859,
      "Ġrambi": 8860,
      "ĠBadala": 8861,
      "Ġwakiongozwa": 8862,
      "thman": 8863,
      "ndaaji": 8864,
      "Ġwaliofanya": 8865,
      "ĠNay": 8866,
      "Ġyanayohusu": 8867,
      "Nina": 8868,
      "ĠUlemavu": 8869,
      "ĠSokoine": 8870,
      "ĠNYA": 8871,
      "Ġfaraja": 8872,
      "tican": 8873,
      "Ġkiha": 8874,
      "Serikali": 8875,
      "ĠKari": 8876,
      "Ġwaandamizi": 8877,
      "PM": 8878,
      "rokia": 8879,
      "ory": 8880,
      "hudiwa": 8881,
      "Ġwamefanya": 8882,
      "Ġkuwe": 8883,
      "ĠMaandiko": 8884,
      "ĠRay": 8885,
      "ĠFrank": 8886,
      "kara": 8887,
      "Ġakisaini": 8888,
      "zozi": 8889,
      "aliye": 8890,
      "Ġameongeza": 8891,
      "MBANI": 8892,
      "ous": 8893,
      "Ġ05": 8894,
      "JUA": 8895,
      "Ġbaa": 8896,
      "geuza": 8897,
      "ĠUandishi": 8898,
      "Ġkinywa": 8899,
      "Ġwaendelee": 8900,
      "Ġutambulisho": 8901,
      "KKT": 8902,
      "Ġalili": 8903,
      "ĠUALIMU": 8904,
      "Ġmijadala": 8905,
      "hembe": 8906,
      "Ġwaalikwa": 8907,
      "ĠWama": 8908,
      "ĠDia": 8909,
      "Mara": 8910,
      "kabidhiano": 8911,
      "Ġwawa": 8912,
      "Ġmakaburi": 8913,
      "sawa": 8914,
      "Ġutaona": 8915,
      "Ġkasoro": 8916,
      "ĠNext": 8917,
      "ĠUtumiaji": 8918,
      "Ġwameji": 8919,
      "31": 8920,
      "ĠKampa": 8921,
      "bai": 8922,
      "Maendeleo": 8923,
      "Ġpapo": 8924,
      "HES": 8925,
      "ĠKatavi": 8926,
      "Ġatawa": 8927,
      "ONGA": 8928,
      "ĠGol": 8929,
      "Ġmajambazi": 8930,
      "Ġnaweza": 8931,
      "Ġkidemokrasia": 8932,
      "que": 8933,
      "Ġuhalali": 8934,
      "ndami": 8935,
      "Ġzilizofanyika": 8936,
      "Ġkisayansi": 8937,
      "Ġmustakabali": 8938,
      "Ġwanau": 8939,
      "MUZI": 8940,
      "kusudiwa": 8941,
      "Ġposted": 8942,
      "BILI": 8943,
      "Ġkuvaa": 8944,
      "ĠWatendaji": 8945,
      "ĠMoses": 8946,
      "Ġfacebook": 8947,
      "POKEA": 8948,
      "HESLB": 8949,
      "Ġtukufu": 8950,
      "ĠPark": 8951,
      "ĠMga": 8952,
      "Ġlika": 8953,
      "Ġkukubaliana": 8954,
      "Ġyou": 8955,
      "ĠKwamba": 8956,
      "Ġmajanga": 8957,
      "ĠKisa": 8958,
      "ĠMBELE": 8959,
      "ĠRamadha": 8960,
      "ĠOr": 8961,
      "Ġ49": 8962,
      "ĠMakundi": 8963,
      "Ġpost": 8964,
      "Ġkipimo": 8965,
      "Ġmshi": 8966,
      "ĠSal": 8967,
      "ĠMadawa": 8968,
      "ĠInawezekana": 8969,
      "227": 8970,
      "ĠDemoc": 8971,
      "THI": 8972,
      "LIZI": 8973,
      "Ġtrilioni": 8974,
      "mbezi": 8975,
      "DWA": 8976,
      "mpenda": 8977,
      "Ġkemikali": 8978,
      "ĠJF": 8979,
      "Ġnyara": 8980,
      "ĠElizabeth": 8981,
      "ĠMajimbo": 8982,
      "Ġujinga": 8983,
      "ĠMMOJA": 8984,
      "TS": 8985,
      "Ġkaratasi": 8986,
      "/-": 8987,
      "zawa": 8988,
      "Ġwangapi": 8989,
      "ĠKatikati": 8990,
      "ĠCor": 8991,
      "gamba": 8992,
      "JERU": 8993,
      "ĠWAKUU": 8994,
      "Ġ65": 8995,
      "Ġapp": 8996,
      "Ġzilivyo": 8997,
      "jamzito": 8998,
      "ments": 8999,
      "Su": 9000,
      "Ġkutua": 9001,
      "elimu": 9002,
      "ĠBurudani": 9003,
      "Ġmapoke": 9004,
      "Ġ120": 9005,
      "fike": 9006,
      "ribution": 9007,
      "vuta": 9008,
      "Ġhatuja": 9009,
      "mra": 9010,
      "Ġkunufaika": 9011,
      "Ġkuelimisha": 9012,
      "Ġubongo": 9013,
      "ĠMaku": 9014,
      "ĠVYUO": 9015,
      "Ġnyekundu": 9016,
      "Ġkuahidi": 9017,
      "Ġmisu": 9018,
      "Ġkuitumia": 9019,
      "kosoa": 9020,
      "ngali": 9021,
      "katisha": 9022,
      "MINI": 9023,
      "Ġngome": 9024,
      "ĠMIMI": 9025,
      "Ġinataka": 9026,
      "Ġramani": 9027,
      "laumu": 9028,
      "Ġmanne": 9029,
      "hesabiwa": 9030,
      "kwaji": 9031,
      "ĠUsiku": 9032,
      "olewa": 9033,
      "ĠSEKTA": 9034,
      "ĠEverton": 9035,
      "Ġkusonga": 9036,
      "Ġameu": 9037,
      "Ġrununu": 9038,
      "650": 9039,
      "Ġakiwasilisha": 9040,
      "Ġutunzaji": 9041,
      "nko": 9042,
      "Ġsugu": 9043,
      "ftari": 9044,
      "ĠGabriel": 9045,
      "lete": 9046,
      "ĠRasimu": 9047,
      "juzi": 9048,
      "Ġkutibu": 9049,
      "songo": 9050,
      "Ġunatakiwa": 9051,
      "pro": 9052,
      "Ġalini": 9053,
      "Ġkirefu": 9054,
      "rumeru": 9055,
      "Ġkusherehekea": 9056,
      "Ġvyoo": 9057,
      "ĠJay": 9058,
      "seka": 9059,
      "Ġzinazofanywa": 9060,
      "ĠSHIRIKA": 9061,
      "kilize": 9062,
      "ĠKIBA": 9063,
      "Ġvigogo": 9064,
      "ĠTATU": 9065,
      "Ġmbolea": 9066,
      "ĠBURU": 9067,
      "KAYA": 9068,
      "ĠKijana": 9069,
      "Ġutafanyika": 9070,
      "Ġbendi": 9071,
      "ĠKAMPENI": 9072,
      "Juma": 9073,
      "Ġwaraka": 9074,
      "ĠJaneth": 9075,
      "Ġkifahari": 9076,
      "fai": 9077,
      "ĠNINI": 9078,
      "Ġusingizi": 9079,
      "Ġzika": 9080,
      "ĠNadhani": 9081,
      "Ġvizazi": 9082,
      "ĠðŁ": 9083,
      "chukia": 9084,
      "elektroniki": 9085,
      "ĠZILIZO": 9086,
      "FADHI": 9087,
      "ĠLice": 9088,
      "Ġwatakapo": 9089,
      "Ġwigo": 9090,
      "Ġmkongwe": 9091,
      "Ġyaka": 9092,
      "PICHA": 9093,
      "ĠTUZO": 9094,
      "Ġmichache": 9095,
      "tandard": 9096,
      "ID": 9097,
      "lazimisha": 9098,
      "ĠBURUDANI": 9099,
      "ĠMnyika": 9100,
      "ĠMaonesho": 9101,
      "zeki": 9102,
      "cent": 9103,
      "qua": 9104,
      "Ġmsukumo": 9105,
      "ĠMajengo": 9106,
      "ĠMbwana": 9107,
      "Ġhutokea": 9108,
      "injili": 9109,
      "ĠUswi": 9110,
      "Ġkukimbi": 9111,
      "ĠAmri": 9112,
      "at": 9113,
      "dugu": 9114,
      "???": 9115,
      "rioba": 9116,
      "Ġwaliojitokeza": 9117,
      "ĠWENGINE": 9118,
      "Ġkupelekea": 9119,
      "sai": 9120,
      "Ġchaguo": 9121,
      "Ġkuwaji": 9122,
      "ĠPatri": 9123,
      "):": 9124,
      "Ġtupo": 9125,
      "zamikoa": 9126,
      "Ġbunduki": 9127,
      "Ġnambari": 9128,
      "Ġshauri": 9129,
      "ĠTABORA": 9130,
      "lipi": 9131,
      "shukiwa": 9132,
      "ĠMATUMIZI": 9133,
      "ĠVatican": 9134,
      "Ġvisiwa": 9135,
      "ĠKUN": 9136,
      "Ġalitangaza": 9137,
      "Ġfanya": 9138,
      "ding": 9139,
      "ĠMore": 9140,
      "Ġangalia": 9141,
      "Ġthi": 9142,
      "Ġblogzamikoa": 9143,
      "Ġridhaa": 9144,
      "Ġutakaofanyika": 9145,
      "We": 9146,
      "vuka": 9147,
      "ĠKOMBE": 9148,
      "Ġintaneti": 9149,
      "ren": 9150,
      "Ġkheri": 9151,
      "Ġkumtaka": 9152,
      "Ġkufunguliwa": 9153,
      "ĠHuru": 9154,
      "Ġkumpiga": 9155,
      "harib": 9156,
      "',": 9157,
      "Ġndizo": 9158,
      "Ġkujaza": 9159,
      "tch": 9160,
      "Ġ40227": 9161,
      "ĠKujua": 9162,
      "ĠKUPA": 9163,
      "87": 9164,
      "Ġkutolea": 9165,
      "ĠWafu": 9166,
      "Ġwamei": 9167,
      "TUA": 9168,
      "Ġy": 9169,
      "ĠMuho": 9170,
      "ĠLibe": 9171,
      "Ġ04": 9172,
      "ĠLina": 9173,
      "Ġyaliyotolewa": 9174,
      "Ġunyanyasaji": 9175,
      "Ġkuzu": 9176,
      "ĠKinga": 9177,
      "TAMISEMI": 9178,
      "ĠPATA": 9179,
      "ĠMtibwa": 9180,
      "kiba": 9181,
      "chelewa": 9182,
      "Ġtetemeko": 9183,
      "neza": 9184,
      "Ġmwanamume": 9185,
      "Ġinatu": 9186,
      "Ġakamwambia": 9187,
      "Ġbayana": 9188,
      "ĠSemina": 9189,
      "LINZI": 9190,
      "Ġmkondo": 9191,
      "Ġmchanganyiko": 9192,
      "Ġzinapochipuka": 9193,
      "TAKIWA": 9194,
      "Ġmadhehebu": 9195,
      "fisha": 9196,
      "ĠIv": 9197,
      "Ġinayoendelea": 9198,
      "ĠMaghembe": 9199,
      "Ġmilango": 9200,
      "ĠNyimbo": 9201,
      "Ġ`": 9202,
      "Ġmnyama": 9203,
      "Ġmantiki": 9204,
      "Ġwafadhili": 9205,
      "cky": 9206,
      "ĠTunatumia": 9207,
      "ĠMatakwa": 9208,
      "ĠEri": 9209,
      "ĠGharib": 9210,
      "spania": 9211,
      "ĠTOVUTI": 9212,
      "ĠKAMPUNI": 9213,
      "Ġlango": 9214,
      "ĠKURASA": 9215,
      "stahiki": 9216,
      "Ġyalivyo": 9217,
      "ĠBru": 9218,
      "ĠTUME": 9219,
      "ĠKubwa": 9220,
      "Ġkuulizwa": 9221,
      "Ġriba": 9222,
      "TM": 9223,
      "hite": 9224,
      "Ġkuiba": 9225,
      "ĠMkubwa": 9226,
      "RERE": 9227,
      "ĠYote": 9228,
      "julisha": 9229,
      "US": 9230,
      "399": 9231,
      "Ġdhu": 9232,
      "Ġkitaalamu": 9233,
      "Ġlikizo": 9234,
      "Kuna": 9235,
      "zuiwa": 9236,
      "Ġnabii": 9237,
      "tio": 9238,
      "ĠHouse": 9239,
      "zuizi": 9240,
      "IASA": 9241,
      "Ġumebadilishwa": 9242,
      "jaji": 9243,
      "kidhi": 9244,
      "cheze": 9245,
      "ĠMabalozi": 9246,
      "ĠLicense": 9247,
      "ĠMdee": 9248,
      "ĠAgano": 9249,
      "Ġkuwafikia": 9250,
      "ĠBabu": 9251,
      "Ġkisukari": 9252,
      "Ġuone": 9253,
[...]
