{
  "version": "1.0",
  "truncation": null,
  "padding": null,
  "added_tokens": [
    {
      "id": 0,
      "content": "<s>",
      "single_word": false,
      "lstrip": false,
      "rstrip": false,
      "normalized": false,
      "special": true
    },
    {
      "id": 1,
      "content": "<pad>",
      "single_word": false,
      "lstrip": false,
      "rstrip": false,
      "normalized": false,
      "special": true
    },
    {
      "id": 2,
      "content": "</s>",
      "single_word": false,
      "lstrip": false,
      "rstrip": false,
      "normalized": false,
      "special": true
    },
    {
      "id": 3,
      "content": "<unk>",
      "single_word": false,
      "lstrip": false,
      "rstrip": false,
      "normalized": false,
      "special": true
    },
    {
      "id": 4,
      "content": "<mask>",
      "single_word": false,
      "lstrip": false,
      "rstrip": false,
      "normalized": false,
      "special": true
    }
  ],
  "normalizer": null,
  "pre_tokenizer": {
    "type": "ByteLevel",
    "add_prefix_space": true,
    "trim_offsets": true,
    "use_regex": true
  },
  "post_processor": {
    "type": "RobertaProcessing",
    "sep": [
      "</s>",
      2
    ],
    "cls": [
      "<s>",
      0
    ],
    "trim_offsets": true,
    "add_prefix_space": true
  },
  "decoder": {
    "type": "ByteLevel",
    "add_prefix_space": true,
    "trim_offsets": true,
    "use_regex": true
  },
  "model": {
    "type": "BPE",
    "dropout": null,
    "unk_token": null,
    "continuing_subword_prefix": null,
    "end_of_word_suffix": null,
    "fuse_unk": false,
    "vocab": {
      "<s>": 0,
      "<pad>": 1,
      "</s>": 2,
      "<unk>": 3,
      "<mask>": 4,
      "!": 5,
      "\"": 6,
      "#": 7,
      "$": 8,
      "%": 9,
      "&": 10,
      "'": 11,
      "(": 12,
      ")": 13,
      "*": 14,
      "+": 15,
      ",": 16,
      "-": 17,
      ".": 18,
      "/": 19,
      "0": 20,
      "1": 21,
      "2": 22,
      "3": 23,
      "4": 24,
      "5": 25,
      "6": 26,
      "7": 27,
      "8": 28,
      "9": 29,
      ":": 30,
      ";": 31,
      "<": 32,
      "=": 33,
      ">": 34,
      "?": 35,
      "@": 36,
      "A": 37,
      "B": 38,
      "C": 39,
      "D": 40,
      "E": 41,
      "F": 42,
      "G": 43,
      "H": 44,
      "I": 45,
      "J": 46,
      "K": 47,
      "L": 48,
      "M": 49,
      "N": 50,
      "O": 51,
      "P": 52,
      "Q": 53,
      "R": 54,
      "S": 55,
      "T": 56,
      "U": 57,
      "V": 58,
      "W": 59,
      "X": 60,
      "Y": 61,
      "Z": 62,
      "[": 63,
      "\\": 64,
      "]": 65,
      "^": 66,
      "_": 67,
      "`": 68,
      "a": 69,
      "b": 70,
      "c": 71,
      "d": 72,
      "e": 73,
      "f": 74,
      "g": 75,
      "h": 76,
      "i": 77,
      "j": 78,
      "k": 79,
      "l": 80,
      "m": 81,
      "n": 82,
      "o": 83,
      "p": 84,
      "q": 85,
      "r": 86,
      "s": 87,
      "t": 88,
      "u": 89,
      "v": 90,
      "w": 91,
      "x": 92,
      "y": 93,
      "z": 94,
      "{": 95,
      "|": 96,
      "}": 97,
      "~": 98,
      "¡": 99,
      "¢": 100,
      "£": 101,
      "¤": 102,
      "¥": 103,
      "¦": 104,
      "§": 105,
      "¨": 106,
      "©": 107,
      "ª": 108,
      "«": 109,
      "¬": 110,
      "®": 111,
      "¯": 112,
      "°": 113,
      "±": 114,
      "²": 115,
      "³": 116,
      "´": 117,
      "µ": 118,
      "¶": 119,
      "·": 120,
      "¸": 121,
      "¹": 122,
      "º": 123,
      "»": 124,
      "¼": 125,
      "½": 126,
      "¾": 127,
      "¿": 128,
      "À": 129,
      "Á": 130,
      "Â": 131,
      "Ã": 132,
      "Ä": 133,
      "Å": 134,
      "Æ": 135,
      "Ç": 136,
      "È": 137,
      "É": 138,
      "Ê": 139,
      "Ë": 140,
      "Ì": 141,
      "Í": 142,
      "Î": 143,
      "Ï": 144,
      "Ð": 145,
      "Ñ": 146,
      "Ò": 147,
      "Ó": 148,
      "Ô": 149,
      "Õ": 150,
      "Ö": 151,
      "×": 152,
      "Ø": 153,
      "Ù": 154,
      "Ú": 155,
      "Û": 156,
      "Ü": 157,
      "Ý": 158,
      "Þ": 159,
      "ß": 160,
      "à": 161,
      "á": 162,
      "â": 163,
      "ã": 164,
      "ä": 165,
      "å": 166,
      "æ": 167,
      "ç": 168,
      "è": 169,
      "é": 170,
      "ê": 171,
      "ë": 172,
      "ì": 173,
      "í": 174,
      "î": 175,
      "ï": 176,
      "ð": 177,
      "ñ": 178,
      "ò": 179,
      "ó": 180,
      "ô": 181,
      "õ": 182,
      "ö": 183,
      "÷": 184,
      "ø": 185,
      "ù": 186,
      "ú": 187,
      "û": 188,
      "ü": 189,
      "ý": 190,
      "þ": 191,
      "ÿ": 192,
      "Ā": 193,
      "ā": 194,
      "Ă": 195,
      "ă": 196,
      "Ą": 197,
      "ą": 198,
      "Ć": 199,
      "ć": 200,
      "Ĉ": 201,
      "ĉ": 202,
      "Ċ": 203,
      "ċ": 204,
      "Č": 205,
      "č": 206,
      "Ď": 207,
      "ď": 208,
      "Đ": 209,
      "đ": 210,
      "Ē": 211,
      "ē": 212,
      "Ĕ": 213,
      "ĕ": 214,
      "Ė": 215,
      "ė": 216,
      "Ę": 217,
      "ę": 218,
      "Ě": 219,
      "ě": 220,
      "Ĝ": 221,
      "ĝ": 222,
      "Ğ": 223,
      "ğ": 224,
      "Ġ": 225,
      "ġ": 226,
      "Ģ": 227,
      "ģ": 228,
      "Ĥ": 229,
      "ĥ": 230,
      "Ħ": 231,
      "ħ": 232,
      "Ĩ": 233,
      "ĩ": 234,
      "Ī": 235,
      "ī": 236,
      "Ĭ": 237,
      "ĭ": 238,
      "Į": 239,
      "į": 240,
      "İ": 241,
      "ı": 242,
      "Ĳ": 243,
      "ĳ": 244,
      "Ĵ": 245,
      "ĵ": 246,
      "Ķ": 247,
      "ķ": 248,
      "ĸ": 249,
      "Ĺ": 250,
      "ĺ": 251,
      "Ļ": 252,
      "ļ": 253,
      "Ľ": 254,
      "ľ": 255,
      "Ŀ": 256,
      "ŀ": 257,
      "Ł": 258,
      "ł": 259,
      "Ń": 260,
      "Ø§": 261,
      "ÙĦ": 262,
      "ÙĬ": 263,
      "ĠØ": 264,
      "Ø§ÙĦ": 265,
      "Ùħ": 266,
      "ÙĪ": 267,
      "ĠØ§ÙĦ": 268,
      "ÙĨ": 269,
      "Ø§Ø": 270,
      "Ø±": 271,
      "Ø©": 272,
      "ĠØ§ÙĦØ": 273,
      "Ùĩ": 274,
      "Ùģ": 275,
      "Øª": 276,
      "Ø¯": 277,
      "ÙĤ": 278,
      "Ùĥ": 279,
      "ĠÙĪ": 280,
      "ĠÙħ": 281,
      "Ø¹": 282,
      "Ø¨": 283,
      "Ø³": 284,
      "ĠØ¨": 285,
      "ĠÙĦ": 286,
      "ØŃ": 287,
      "ĠÙģ": 288,
      "ĠØ£": 289,
      "ĠØ¹": 290,
      "Ùī": 291,
      "ÙĬØ©": 292,
      "ĠØª": 293,
      "Ø¬": 294,
      "ĠØ§ÙĦÙħ": 295,
      "Ø§Øª": 296,
      "Ø§ÙĨ": 297,
      "ØĮ": 298,
      "ĠÙģÙĬ": 299,
      "ĠÙĬ": 300,
      "ĠÙħÙĨ": 301,
      "Ø·": 302,
      "Ø§Ø±": 303,
      "Øµ": 304,
      "ÙĬÙĨ": 305,
      "Ø´": 306,
      "Ø§Ùħ": 307,
      "Ø¶": 308,
      "ÙĦÙī": 309,
      "Ùİ": 310,
      "Ø®": 311,
      "ÙĩØ§": 312,
      "Ø²": 313,
      "Ø£": 314,
      "Ø°": 315,
      "ĠØ¥": 316,
      "ĠÙĥ": 317,
      "ÙĬØ±": 318,
      "ĠÙĪØ§ÙĦ": 319,
      "ĠØ§ÙĦØª": 320,
      "Ø«": 321,
      "ÙĪÙĦ": 322,
      "ĠØŃ": 323,
      "ĠØ§ÙĦØ£": 324,
      "ÙĪÙĨ": 325,
      "Ø§Ø¨": 326,
      "Ø§Ø³": 327,
      "ĠÙĩ": 328,
      "Ø§Ø¯": 329,
      "ĠØ³": 330,
      "Ø±ÙĬ": 331,
      "Ø§Ø¡": 332,
      "ĠÙĤ": 333,
      "ĠØ§ÙĦØ¹": 334,
      "ÙĦÙĬ": 335,
      "ĠØ¹ÙĦÙī": 336,
      "ĠÙĨ": 337,
      "Ø§Ø¹": 338,
      "ĠØ£ÙĨ": 339,
      "ĠÙĦÙĦ": 340,
      "Ø§Ø¦": 341,
      "ÙĪØ±": 342,
      "Øº": 343,
      "ĠØ¬": 344,
      "ĠØ±": 345,
      "Ùĳ": 346,
      "ĠØ§ÙĦØ³": 347,
      "ÙĬØ¯": 348,
      "ÙĩÙħ": 349,
      "..": 350,
      "Ùĭ": 351,
      "Ø§Ùģ": 352,
      "ÙĲ": 353,
      "ÙĪÙħ": 354,
      "ĠØ§ÙĦØŃ": 355,
      "ĠØ´": 356,
      "Ø¸": 357,
      "ĠØ¯": 358,
      "Ùı": 359,
      "ĠØ¨Ø§ÙĦ": 360,
      "ÙħØ§": 361,
      "Ø§ÙĤ": 362,
      "Ø§ØŃ": 363,
      "ÙĢ": 364,
      "ĠØ¹ÙĨ": 365,
      "ÙĬÙĦ": 366,
      "ĠØ®": 367,
      "ÙĦÙĥ": 368,
      "Ø³Øª": 369,
      "Ġ2": 370,
      "ÙĨØ§": 371,
      "ĠØ§ÙĦØ¬": 372,
      "Ø±Ø¨": 373,
      "ĠØ§ÙĦÙĤ": 374,
      "ĠÙħØ¹": 375,
      "ĠØ§ÙĦØ¨": 376,
      "Ø§Ø¬": 377,
      "ĠØ§ÙĦÙĨ": 378,
      "ĠØ§ÙĦØ¥": 379,
      "ØªÙħ": 380,
      "ĠØ§ÙĦØ´": 381,
      "ÙĴ": 382,
      "Ø¦": 383,
      "ĠØ§ÙĦÙĦ": 384,
      "ĠØ§ÙĦØ¯": 385,
      "Ø¥": 386,
      "ĠØµ": 387,
      "Ø°Ø§": 388,
      "ÙĦÙħ": 389,
      "Ø±Ø©": 390,
      "ÙĪØ¯": 391,
      "ÙħÙĨ": 392,
      "ÙĪØ¹": 393,
      "Ġ1": 394,
      "ĠØ¥ÙĦÙī": 395,
      "Ø¨Ø±": 396,
      "ÙħÙĦ": 397,
      "Ø¹Ø¯": 398,
      "ĠØ§ÙĦÙģ": 399,
      "âĢ": 400,
      "Ø±Ùĥ": 401,
      "Ø¨ÙĬ": 402,
      "ÙĤØ¯": 403,
      "ĠØ§ÙĦØ±": 404,
      "ÙĬÙħ": 405,
      "ÙĬØ³": 406,
      "ĠØ§ÙĨ": 407,
      "Ġ(": 408,
      "ĠØ§ÙĦØ®": 409,
      "ÙĪÙĤ": 410,
      "ÙĦØ§": 411,
      "ÙĬØ§": 412,
      "Ø§Ø³Øª": 413,
      "ĠØĮ": 414,
      "ØŃØ¯": 415,
      "Ø§Øµ": 416,
      "ĠÙĪØª": 417,
      "ĠØ§ÙĦÙĥ": 418,
      "Ø¤": 419,
      "ĠØ·": 420,
      "ĠØ§ÙĦØµ": 421,
      "ĠØ§ÙĦØªÙĬ": 422,
      "ÙĥÙĨ": 423,
      "ĠÙħØ§": 424,
      "Ġ20": 425,
      "ÙĤØ©": 426,
      "ÙħØ©": 427,
      "ĠØ§ÙĦØ°": 428,
      "Ø¹Ø©": 429,
      "ÙĦØ©": 430,
      "ĠÙĦØ§": 431,
      "Ġ\"": 432,
      "ĠÙĪØ£": 433,
      "ÙĪØ¶": 434,
      "ØªØ±": 435,
      "Ø¹ÙĦ": 436,
      "Ø§Ùĩ": 437,
      "Ø¨Ø©": 438,
      "ÙĬÙģ": 439,
      "Ø§Ø·": 440,
      "ĠØ£ÙĪ": 441,
      "ÙĢÙĢ": 442,
      "ĠÙĦÙħ": 443,
      "Ø±Ùģ": 444,
      "ĠØ¹ÙĦÙĬ": 445,
      "Ø§Ø¶": 446,
      "ØªÙĩ": 447,
      "Ø°Ùĩ": 448,
      "ÙĪØ§": 449,
      "ÙĬØ¹": 450,
      "ĠØ°": 451,
      "ĠØ§ÙĦÙĦÙĩ": 452,
      "Ø§Ø®": 453,
      "ĠØ§ÙĦÙĪ": 454,
      "ØªÙĬ": 455,
      "ĠØº": 456,
      "ÙħØ±": 457,
      "ÙĪÙģ": 458,
      "Ġ-": 459,
      "Ġ.": 460,
      "ĠÙĥØ§ÙĨ": 461,
      "ÙĨÙĬ": 462,
      "Ø¯ÙĬ": 463,
      "ĠÙĩØ°Ø§": 464,
      "ÙĥØ±": 465,
      "ÙĥÙĦ": 466,
      "Ø´Ø±": 467,
      "ĠâĢ": 468,
      "ÙĪØ¬": 469,
      "Ø¯Ø©": 470,
      "Ø§Ø±Ø©": 471,
      "ĠØ§ÙĦØ·": 472,
      "ÙĪÙĬ": 473,
      "Ø¨ÙĦ": 474,
      "ÙĪØ³": 475,
      "Ø§Ø²": 476,
      "ÙĨØª": 477,
      "ĠØ§": 478,
      "ÙĤÙĬ": 479,
      "ĠØªØ¹": 480,
      "ĠÙħØŃ": 481,
      "Ġ..": 482,
      "ĠÙĥÙĦ": 483,
      "ÙģÙĬ": 484,
      "Ġ201": 485,
      "Ø®Ø±": 486,
      "ĠÙĪÙħ": 487,
      "ĠÙĪÙĩ": 488,
      "ĠØ§ÙĦØ«": 489,
      "ÙĪØ¨": 490,
      "ĠØªØŃ": 491,
      "Ø³Ø¨": 492,
      "Ø¬Ùħ": 493,
      "ÙĥÙĪÙĨ": 494,
      "ÙĦØ§ÙĦ": 495,
      "ĠÙĩØ°Ùĩ": 496,
      "ÙĦØ§Ùħ": 497,
      "ÙĳÙİ": 498,
      "Ø¯Ùħ": 499,
      "ÙĬØ§Øª": 500,
      "Ø£ÙĨ": 501,
      "Ø§Ø´": 502,
      "Ø¯Ø±": 503,
      "ÙĥÙħ": 504,
      "ĠØ«": 505,
      "ĠØ§ÙĦØ°ÙĬ": 506,
      "Ø¯ÙĬØ¯": 507,
      "Ø¬ÙĦ": 508,
      "Ø³Ùħ": 509,
      "Ø§Ø«": 510,
      "Ø¨Ø¯": 511,
      "Ø§ÙĦÙħ": 512,
      "ØµÙĦ": 513,
      "ÙĨØ³": 514,
      "ÙĦÙģ": 515,
      "Ø§ÙĨÙĬ": 516,
      "ĠØ§ÙĦÙĬ": 517,
      "Ø±Ø¶": 518,
      "ĠØ¨ÙĬÙĨ": 519,
      "Ø§Ø©": 520,
      "ĠØ§ÙĦÙħØª": 521,
      "ĠØ¨Ø¹Ø¯": 522,
      "ĠÙĪÙĤ": 523,
      "ÙĥØª": 524,
      "ĠØ§Ø³Øª": 525,
      "Ø§Ø¯Ø©": 526,
      "ĠØ¥ÙĨ": 527,
      "ÙĬØª": 528,
      "ÙĬØ±Ø©": 529,
      "ĠØ²": 530,
      "ÙħØ¯": 531,
      "Ġ:": 532,
      "ØŃØ©": 533,
      "ÙĩØ±": 534,
      "ØµØ±": 535,
      "ĠØ¨ÙĨ": 536,
      "Ø¹Ùħ": 537,
      "ÙĬÙĪ": 538,
      "Ø¯Ø§": 539,
      "ĠÙĩÙĪ": 540,
      "Ø·ÙĦ": 541,
      "ĠØ£ÙĬ": 542,
      "ĠÙĪØ§ÙĦÙħ": 543,
      "ĠØ§ÙĦÙħÙĨ": 544,
      "ĠÙĪØ¨": 545,
      "ĠØ¶": 546,
      "ÙĥØ§ÙĨ": 547,
      "ÙĨØ©": 548,
      "Ø¦ÙĬØ³": 549,
      "ÙĪØ¶ÙĪØ¹": 550,
      "ÙĤÙĦ": 551,
      "ÙĩØ¯": 552,
      "ÙģØ³": 553,
      "Ø«Ø±": 554,
      "Ø¨Ø§Ø±": 555,
      "ĠÙĦØª": 556,
      "Ø·Ø©": 557,
      "ĠØ¢": 558,
      "ÙĬØ²": 559,
      "Ø¹Ø¶": 560,
      "Ø®Øµ": 561,
      "ĠÙĬØ¹": 562,
      "ĠÙĪØ³": 563,
      "ĠÙħØ³": 564,
      "ØŁ": 565,
      "ĠÙħØª": 566,
      "ĠÙĬØª": 567,
      "ĠØªÙħ": 568,
      "ĠÙĪÙĬ": 569,
      "ÙĪØ§Øª": 570,
      "ÙĪØ±Ø©": 571,
      "ÙĬØ«": 572,
      "ÙĤØ±": 573,
      "ĠØ§ÙĦÙħØ³": 574,
      "ÙĪÙĦØ©": 575,
      "ĠØ°ÙĦÙĥ": 576,
      "Ø§ÙĦÙĬ": 577,
      "Ø¡": 578,
      "Ø´Ø§Ø±": 579,
      "ĠØ£Ùħ": 580,
      "Ġ3": 581,
      "ĠÙĬÙħ": 582,
      "ĠÙģÙī": 583,
      "ĠØ³ÙĬ": 584,
      "ÙģØ±": 585,
      "Ø±ÙĬÙĤ": 586,
      "ĠØ®ÙĦØ§ÙĦ": 587,
      "Ø§Ø±Ø§Øª": 588,
      "Ø±ÙĥØ©": 589,
      "ØªÙĩØ§": 590,
      "âĢĿ": 591,
      "ĠØ¬Ùħ": 592,
      "ĠÙĪØ§ÙĦØª": 593,
      "ĠÙħÙĪØ¶ÙĪØ¹": 594,
      "ĠÙħØ±": 595,
      "ĠØ§ÙĦÙħØŃ": 596,
      "Ø§Ø±ÙĬ": 597,
      "Ø¹Ø¨": 598,
      "ĠØ¨Ø±": 599,
      "Ø§Ùĥ": 600,
      "ĠÂ": 601,
      "Ø§ÙĦØ©": 602,
      "Ø§ÙĨÙĬØ©": 603,
      "Ø§Ø°": 604,
      "ĠÙħØ¯": 605,
      "ÙĪØª": 606,
      "ĠÙĪØ¬": 607,
      "ĠÙĦÙĩ": 608,
      "Ø°ÙĦÙĥ": 609,
      "ØªÙī": 610,
      "ĠØ¨Ùħ": 611,
      "ÙĨØ¯": 612,
      "Ø¥ÙĨ": 613,
      "ĠÙĥÙħØ§": 614,
      "ĠØ§ÙĦØ£Ùħ": 615,
      "Ø¢": 616,
      "ÙĪØ²": 617,
      "Ø±ÙĤ": 618,
      "ÙĪØ±ÙĬ": 619,
      "ĠØ£Ùĥ": 620,
      "ĠÙĤØ¯": 621,
      "Ø§ÙģØ©": 622,
      "ĠÙĪØ¹": 623,
      "ĠØ§ÙĦØº": 624,
      "Ø±Ø§Ø¡": 625,
      "ĠØ§ÙĦØ¹Ø§Ùħ": 626,
      "ĠÙĪÙĦ": 627,
      "ĠØ§ÙĦÙħØ¹": 628,
      "ĠØ§ÙĦÙĩ": 629,
      "ÙĦØ³": 630,
      "ĠØªÙĨ": 631,
      "ĠØ§ÙĦÙī": 632,
      "ĠâĢľ": 633,
      "ĠØ¹ÙĦÙĬÙĩ": 634,
      "Ø«ÙĦ": 635,
      "ĠØ¨Øª": 636,
      "ĠÙĦÙĦÙħ": 637,
      "ÙĦØ¨": 638,
      "ĠØ§ÙĦØ§ÙĨ": 639,
      "ĠØ¹Ø§Ùħ": 640,
      "Ø³Ø±": 641,
      "Ø®ÙĦ": 642,
      "ĠØ¨ÙĦ": 643,
      "ÙĪÙī": 644,
      "ĠÙĩÙĬ": 645,
      "Ø³ÙĬ": 646,
      "ĠØªØª": 647,
      "ĠØ§ÙĦØ²": 648,
      "Ø±Ø¨ÙĬØ©": 649,
      "ĠØ§ÙĦØ¬Ùħ": 650,
      "ĠØ¹ÙĨØ¯": 651,
      "ĠØ§ÙĦÙħØ±": 652,
      "ØŃÙĬ": 653,
      "ĠØ¨Ø¯": 654,
      "ĠØªÙĤ": 655,
      "ÙĬÙĨØ©": 656,
      "ÙĪÙĬØ©": 657,
      "ĠØ§ÙĦÙĬÙĪÙħ": 658,
      "ÙĨÙĬØ©": 659,
      "Ø¨ØŃ": 660,
      "Ø§ÙĦÙĬØ©": 661,
      "ï»": 662,
      "ØªØµ": 663,
      "ĠÙĬÙĤ": 664,
      "ÙĪÙĤØ¹": 665,
      "Ø¹Ø±": 666,
      "Ø¨Øª": 667,
      "ĠÙĬÙħÙĥÙĨ": 668,
      "Ø«ÙĬØ±": 669,
      "ÙģØ¶": 670,
      "00": 671,
      "ÙĪØ©": 672,
      "ĠØ¨Ùĩ": 673,
      "ĠÙħØ´": 674,
      "ĠØ¨ØŃ": 675,
      "Ø±Ø¯": 676,
      "ĠØ¨Ø´": 677,
      "ĠÙĤØ¨ÙĦ": 678,
      "ÙĪÙĥ": 679,
      "ĠØŃÙĬØ«": 680,
      "ĠÙĤØ§ÙĦ": 681,
      "Ø¦Ø©": 682,
      "ĠØ§ÙĦØ¢": 683,
      "ĠØ§ÙĦØ³ÙĬ": 684,
      "ĠÙĪÙħÙĨ": 685,
      "ĠØ§ÙĦØ¹Ø§ÙĦÙħ": 686,
      "ÙĤØ·": 687,
      "ÙĦÙĬÙħ": 688,
      "ÙĬÙĩ": 689,
      "ÙĬØ¨": 690,
      "ĠØºÙĬØ±": 691,
      "Ø§Ø¹Ø©": 692,
      "ĠØŃØªÙī": 693,
      "ĠÙħØ³Øª": 694,
      "Ø·Ø±": 695,
      "Ø³Ø©": 696,
      "ĠØ§Ø®": 697,
      "ĠØ§ÙĦÙħÙĪ": 698,
      "ĠÙħØ¬": 699,
      "ĠÙĬØŃ": 700,
      "ĠÙĪÙĦØ§": 701,
      "ĠÙĪØŃ": 702,
      "ĠØ§Ø³": 703,
      "ÙĦÙĩ": 704,
      "ĠÙĪÙĨ": 705,
      "ĠØ¨Ø¹Ø¶": 706,
      "ĠÙĩÙĨØ§": 707,
      "ĠÙĬÙĪÙħ": 708,
      "ĠØ§ÙĦÙħØ³Øª": 709,
      "Ø±Ø¬": 710,
      "Ø¹Ø§": 711,
      "ĠØ£Ø³": 712,
      "Ø®Øª": 713,
      "Ø¯Ø¯": 714,
      "Ġ0": 715,
      "ĠÙħÙĪ": 716,
      "Ġ,": 717,
      "Ġ4": 718,
      "Ġ...": 719,
      "Ø§Ø¨Ø©": 720,
      "ĠØ§ÙĦÙħØ¯": 721,
      "ØªØŃ": 722,
      "ĠÙĦÙĬ": 723,
      "ÙģØ¹": 724,
      "Ø¶Ø§": 725,
      "ĠØ§Ø¹": 726,
      "ĠÙĬØ¬": 727,
      "ĠÙĪØ²": 728,
      "ĠØ±Ø¯": 729,
      "ĠØªØ¬": 730,
      "Ø§ÙħØ¬": 731,
      "...": 732,
      "ÙĪØ§ÙĨ": 733,
      "ĠØ§Ø¨": 734,
      "ĠØ§ØŃ": 735,
      "ĠÙħÙĤ": 736,
      "ÙĥÙĬ": 737,
      "ÙĢÙĢÙĢÙĢ": 738,
      "ïº": 739,
      "ĠÂ«": 740,
      "Ø£Ø³": 741,
      "ØµÙģ": 742,
      "Ø§Ø¯ÙĬ": 743,
      "ĠÙĪÙĦÙĥ": 744,
      "Ġ5": 745,
      "Ø§ÙħÙĦ": 746,
      "Ø¹ÙĪØ¯": 747,
      "ĠØ¹ÙħÙĦ": 748,
      "Â»": 749,
      "ĠØ§ÙĦØ¹ÙħÙĦ": 750,
      "ĠÙĪÙĥ": 751,
      "ĠØ£Ø¨": 752,
      "ĠÙĪØ¥": 753,
      "Ùį": 754,
      "ĠØªØ±": 755,
      "ĠÙĥØ§ÙĨØª": 756,
      "ØªØ¨": 757,
      "ĠØ§ÙĦØ§Ø³Øª": 758,
      "Ø§ØµØ©": 759,
      "ĠØªØ´": 760,
      "Ø¸Ø±": 761,
      "ÙĦØ§Ø«": 762,
      "ĠØ§ÙĦØ¯ÙĪÙĦ": 763,
      "ÙĤØ¯Ùħ": 764,
      "ĠØ§ÙĦØ£Ø³": 765,
      "ĠØ§ÙĦØ±Ø¦ÙĬØ³": 766,
      "ĠØ§ÙĦÙħØµ": 767,
      "ĠØ§ÙĦØªØ¹": 768,
      "ÙĦÙĤ": 769,
      "Ġp": 770,
      "ĠÙĪÙĦÙĥÙĨ": 771,
      "ÙĬØ§ÙĨ": 772,
      "ĠÙĪÙĩÙĪ": 773,
      "ÙĥØ©": 774,
      "Ø¯Ùī": 775,
      "ĠØ¹Ø¨Ø¯": 776,
      "Ġ200": 777,
      "ÙĪÙħØ©": 778,
      "Ø§Ø¦ÙĬ": 779,
      "ĠØ£ÙĨÙĩ": 780,
      "ĠØªØµ": 781,
      "ĠØ§Ùħ": 782,
      "ĠØ«Ùħ": 783,
      "ĠÙħØµ": 784,
      "ĠØªØ³": 785,
      "ÙĨÙĬÙĨ": 786,
      "ĠÙĪÙģÙĬ": 787,
      "ĠâĢĵ": 788,
      "Ġ)": 789,
      "ĠØ§ÙĦÙħØ¬": 790,
      "ĠÙĦØ£": 791,
      "ĠØ§ÙĦÙħÙĤ": 792,
      "Ø§Ø¦ÙĬØ©": 793,
      "ĠØ§Øª": 794,
      "ĠØ³Ø¨": 795,
      "Ø®Ø¯": 796,
      "Ø³ÙĦØ§Ùħ": 797,
      "ÙĬØ´": 798,
      "Ø§Ø¦ÙĦ": 799,
      "ĠÙĨÙģØ³": 800,
      "ĠÙĪØ§ØŃ": 801,
      "ĠÙĥØ¨": 802,
      "ĠÙĪÙģ": 803,
      "ÙĪØŃ": 804,
      "ĠÙĦÙĥÙĨ": 805,
      "ØµÙĪÙĦ": 806,
      "Ø¨Ùĩ": 807,
      "ØªÙħØ§Ø¹": 808,
      "ØºÙĬØ±": 809,
      "ĠÙĬÙĥÙĪÙĨ": 810,
      "Ø¬Ø©": 811,
      "ÙĬÙĬÙĨ": 812,
      "ĠÙħØŃÙħØ¯": 813,
      "ØŃØ±": 814,
      "ĠÙħØ¤": 815,
      "ÙĨØ§Ø¡": 816,
      "ĠÙĬÙĨ": 817,
      "ØªÙģ": 818,
      "Ø¸Ø§Ùħ": 819,
      "ĠÙĪØ§ÙĦØ£": 820,
      "Ø¬ÙĦØ³": 821,
      "Ø§Ø¹Ø¯": 822,
      "ØªÙĦ": 823,
      "ÙĪØ¹Ø©": 824,
      "ÙĦÙĬØ©": 825,
      "am": 826,
      "Ø¯ÙĬØ¯Ø©": 827,
      "Ø²Ø©": 828,
      "Ġpm": 829,
      "ÙĤÙĬÙĤ": 830,
      "ÙĩÙħØ§": 831,
      "ĠØ±Ø¦ÙĬØ³": 832,
      "ÙĬÙĤ": 833,
      "ØŃÙĪ": 834,
      "ĠØ¨Ø§ÙĦÙħ": 835,
      "ÙĬØ¬": 836,
      "ĠØ¨ÙĩØ§": 837,
      "ĠØ§ÙĦØ¶": 838,
      "ÙģØª": 839,
      "Ø§Ø³Ø©": 840,
      "Ø¹Øª": 841,
      "ĠØ³Øª": 842,
      "ĠÙĪÙĤØ¯": 843,
      "ĠÙģÙĬÙĩØ§": 844,
      "ĠØ£ÙĥØ«Ø±": 845,
      "ĠØ§ÙĦÙĤØ±": 846,
      "ĠÙĦÙĦØª": 847,
      "ĠØ¨Ø£": 848,
      "ÙģØ©": 849,
      "ĠØ§ÙĦØ§": 850,
      "Ø¬Ùĩ": 851,
      "ĠØ¨Ø£ÙĨ": 852,
      "Ø±ÙĬØ¯": 853,
      "Ø®Ø±Ùī": 854,
      "ĠØ§Ø±": 855,
      "ĠØ§ÙĦØ¨Ø±": 856,
      "ÙĬÙĦØ©": 857,
      "Ø±ÙĥØ²": 858,
      "ØŃØ¯Ø©": 859,
      "Ġ19": 860,
      "ĠØ§ÙĦÙħØ´": 861,
      "Ø§Ø±ÙĬØ®": 862,
      "Ø±Ø§Øª": 863,
      "Ġ6": 864,
      "Ø§ÙĦØª": 865,
      "Ø§Øº": 866,
      "Ø§ÙĦØ¨": 867,
      "ĠÙĦØ£ÙĨ": 868,
      "ĠØ¬ÙħÙĬØ¹": 869,
      "Ø§ÙĤØ©": 870,
      "ĠÙģØ±": 871,
      "ĠØ§ÙĦÙħØ¤": 872,
      "Ø±ÙĬØ¨": 873,
      "ĠØ¸": 874,
      "ĠØ£ØŃ": 875,
      "Ø§Ø³ÙĬØ©": 876,
      "\".": 877,
      "Ø·ÙĬÙĨ": 878,
      "ĠÙħØ«ÙĦ": 879,
      "Ø¹ÙĬØ©": 880,
      "ØµØ©": 881,
      "ÙĪÙĦØ§": 882,
      "Ø§Ø¬ØªÙħØ§Ø¹": 883,
      "Ø®Ø¯Ùħ": 884,
      "ĠØ¥Ø°Ø§": 885,
      "ĠÙĪØ±": 886,
      "ĠØ£ØŃØ¯": 887,
      "ÙĨÙī": 888,
      "Ø·ÙĤØ©": 889,
      "ÙĦØª": 890,
      "Ø§ÙĨÙĪÙĨ": 891,
      "ĠÙĦÙĥ": 892,
      "ĠÙħÙħ": 893,
      "ĠÙĦÙĨ": 894,
      "Ø¬Ø±": 895,
      "ÙĨØ§ÙħØ¬": 896,
      "ÙĬÙĥ": 897,
      "ĠØªØ¯": 898,
      "ĠÙĦÙĩØ§": 899,
      "ÙĪØ§Ø±": 900,
      "ĠØ§ÙĦÙĪØ·": 901,
      "Ø§ØŃØ©": 902,
      "ĠØ¥ÙĦØ§": 903,
      "ĠÙĬØªÙħ": 904,
      "Ø®ØªÙĦÙģ": 905,
      "Ø§ÙĦØ§Øª": 906,
      "ÙĪØ·": 907,
      "Ø§Ø±Ø¬": 908,
      "ĠØ¹ÙĦ": 909,
      "ĠØ£Øµ": 910,
      "ÙĪØ±ÙĬØ©": 911,
      "ĠÙģÙĬÙĩ": 912,
      "ĠØ§ÙĦØ¹Ø±Ø¨ÙĬØ©": 913,
      "ĠØ¨Ø´ÙĥÙĦ": 914,
      "Ø§ÙħØ©": 915,
      "ĠÙģØ¥ÙĨ": 916,
      "ÙģØ¶ÙĦ": 917,
      "ÙĩÙĦ": 918,
      "Ø§Ø±Ø³": 919,
      "ĠÙĤØ±": 920,
      "Ø¶Ø¹": 921,
      "ĠÙĩÙĨØ§Ùĥ": 922,
      "ĠØ§ÙĪ": 923,
      "ĠÙħØµØ±": 924,
      "ØªÙĥ": 925,
      "ĠØ§ÙĦØ§Øª": 926,
      "ĠØ¹Ùħ": 927,
      "ĠÙĬØ³Øª": 928,
      "ĠØ§ÙĦØ§Ø³": 929,
      "ĠØŃÙĪÙĦ": 930,
      "ĠØ¥ÙĦÙĬ": 931,
      "ÙģÙĦ": 932,
      "Ġ_": 933,
      "Ø®Ø¯Ø§Ùħ": 934,
      "Ġam": 935,
      "ØªØ§Ø¨": 936,
      "ĠØ¨Ø¹": 937,
      "ÙĬÙĨØ§": 938,
      "Ø§Ø¶ÙĬ": 939,
      "ÙĪØ§Ø¬": 940,
      "ĠØªØ·": 941,
      "ĠØªØ£": 942,
      "Ø³Ø¨Ø¨": 943,
      "ĠØ´ÙĬ": 944,
      "ÙĪØ¯Ø©": 945,
      "ÙĦÙĬÙĦ": 946,
      "Ġ7": 947,
      "ĠÙħØ¨": 948,
      "ĠØ³ÙĨ": 949,
      "ØŃØ¯Ø«": 950,
      "Ø¨Ø§Øª": 951,
      "ĠØŃØ³": 952,
      "Ø±Ø¨ÙĬ": 953,
      "Ø¹ÙĬ": 954,
      "ĠÙĬØ¯": 955,
      "ÙĤØ§": 956,
      "Ø¸Ùħ": 957,
      "Ø§Ø³ÙĬ": 958,
      "ÙĩØ©": 959,
      "ÙĦØ³Ø·ÙĬÙĨ": 960,
      "Ø§Ø°Ø§": 961,
      "Ø´Ùģ": 962,
      "ĠÙĦØŃ": 963,
      "Ġ10": 964,
      "ĠØ§ÙĦØ¨ÙĦ": 965,
      "ĠØ£Ø®": 966,
      "Ø²ÙĬØ¯": 967,
      "Ġ/": 968,
      "ĠØªÙģ": 969,
      "Ø±Ø¨Ø¹": 970,
      "ÙĪÙħØ§Øª": 971,
      "ØµØ¯": 972,
      "Ø±ØŃ": 973,
      "ĠØ¨Ø¥": 974,
      "ĠØªØŃØª": 975,
      "Ø±ÙĬÙĥ": 976,
      "ĠØ®Ø·": 977,
      "ĠØ§ÙĦØ³Ø¹ÙĪØ¯": 978,
      "ĠØ§ÙĦØŃÙĥ": 979,
      "Ø¶Ø±": 980,
      "ÙĪÙĩ": 981,
      "Ø§Ø±ÙĬØ©": 982,
      "ÙĪØµ": 983,
      "ĠØ§ÙĦØªØŃ": 984,
      "Ø¹ÙħØ§ÙĦ": 985,
      "ĠØ£Ø¹": 986,
      "ĠØ§ÙĦØªÙĨ": 987,
      "ĠØ§ÙĦÙħÙĨØª": 988,
      "ĠØ¯ÙĪÙĨ": 989,
      "Ø§ÙģØ¸": 990,
      "ÙĪØ§ÙĦ": 991,
      "Ø§ØªÙĩ": 992,
      "ĠØ¯ÙĪÙĦ": 993,
      "Ø§Ø¯Ø±": 994,
      "ĠØ§ÙĦØ§Ùħ": 995,
      "Ø¨Ø¹": 996,
      "ĠÙĪÙĥØ§ÙĨ": 997,
      "ĠØ¹Ø¯Ø¯": 998,
      "ÙĨØ§ÙĨ": 999,
      "ĠØ¹ÙĦÙĬÙĩØ§": 1000,
      "ĠØ§ÙĦØ£ÙĪÙĦ": 1001,
      "ÙĳÙĲ": 1002,
      "ĠØ§ÙĦØ¹Ø±": 1003,
      "ĠØ§ÙĦØ£Ø®": 1004,
      "ØĽ": 1005,
      "ĠØªÙĥÙĪÙĨ": 1006,
      "Ġ8": 1007,
      "Ø·Ùģ": 1008,
      "20": 1009,
      "ĠØ§ÙĤ": 1010,
      "ÙĮ": 1011,
      "ĠÙģÙĤØ·": 1012,
      "ĠÙĪØ§ÙĨ": 1013,
      "ÙĪØ§Ø¡": 1014,
      "ÙĬØ¯Ø©": 1015,
      "ĠØ§ÙĦÙħÙħ": 1016,
      "ĠØŁ": 1017,
      "ĠÙĪÙĤØ§ÙĦ": 1018,
      "ĠÙĪÙĩÙĬ": 1019,
      "Ø§Ø¨Ø§Øª": 1020,
      "ÙĬÙģØ©": 1021,
      "ĠØ§ÙĦØ¥Ø³ÙĦØ§Ùħ": 1022,
      "ĠÙģÙĩ": 1023,
      "ÙĬÙħØ©": 1024,
      "ĠØŃØ¯": 1025,
      "ĠØ§ÙĦØ°ÙĬÙĨ": 1026,
      "ĠØªØ³Øª": 1027,
      "ĠÙĪØ§ÙĦØ¹": 1028,
      "ĠÙħÙĨØ°": 1029,
      "ØªÙĤ": 1030,
      "ĠÙħÙĨÙĩØ§": 1031,
      "ĠØŃÙĤ": 1032,
      "Ø±ÙģØ©": 1033,
      "Ø§ÙĤØ¹": 1034,
      "ĠØ±Ø³": 1035,
      "ÙħØ§ÙĨ": 1036,
      "ØªÙħØ±": 1037,
      "ĠØ§ÙĦÙĪÙĤ": 1038,
      "ĠÙħÙĦÙĬ": 1039,
      "ĠÙĦØ¥": 1040,
      "Ø§ØµÙĦ": 1041,
      "ØªÙħØ¹": 1042,
      "ÙĥØ³": 1043,
      "ĠÙĬØ³": 1044,
      "ÙĪÙĦÙī": 1045,
      "ĠØªÙĦÙĥ": 1046,
      "ÙĬØ±Ø§": 1047,
      "ĠØ£Ø´": 1048,
      "Ø£Ø©": 1049,
      "Ø¬Ø¯": 1050,
      "ĠØ§ÙĦØ«ÙĦØ§Ø«": 1051,
      "ĠÙħÙĪÙĤØ¹": 1052,
      "ØªØ¯": 1053,
      "ĠÙĪØ£ÙĨ": 1054,
      "ÙħØ³": 1055,
      "Ø±Ø³": 1056,
      "ĠØ§ÙĦØ§ØŃ": 1057,
      "ĠÙħÙĦ": 1058,
      "ĠÙĨÙĤ": 1059,
      "Ø¨ÙĬØ©": 1060,
      "ĠØ§ÙĦÙħØªØŃØ¯Ø©": 1061,
      "Ø·Ø§Ø±": 1062,
      "ÙħØ¨Ø±": 1063,
      "ØºØ©": 1064,
      "ÙħØ§ÙĦ": 1065,
      "Ø§ÙĦØŃ": 1066,
      "ĠØ£ÙĬØ¶Ø§": 1067,
      "Ø§Ø¨Ø¹": 1068,
      "ĠØ´Ø®Øµ": 1069,
      "Ø§Ø¦Ø±": 1070,
      "Ø¯Ø§Ø±Ø©": 1071,
      "Ø·Ø§Ø¹": 1072,
      "ÙĤÙħ": 1073,
      "Ø§ÙĦÙī": 1074,
      "ĠØ§ÙĦØ´ÙĬ": 1075,
      "Ø§Ø¯ÙĬØ©": 1076,
      "ĠÙĩÙĦ": 1077,
      "Ø§Ø®ÙĦ": 1078,
      "Ø¯ÙĬØ«": 1079,
      "Ø´Ø±ÙĪØ¹": 1080,
      "ÙĥØ¯": 1081,
      "ĠØ´Ø±ÙĥØ©": 1082,
      "ĠØ§ÙĦØ¹ÙĦ": 1083,
      "ĠØ¨ÙĤ": 1084,
      "Ø²ÙĬ": 1085,
      "ĠØ¬Ø¯Ø§": 1086,
      "Ø¸ÙĬÙħ": 1087,
      "ĠÙĪØ§ÙĦØ¥": 1088,
      "Ø¹Ø§Ø±": 1089,
      "ĠÙĪØ°ÙĦÙĥ": 1090,
      "ĠØ§ÙĦÙģØ±": 1091,
      "Ġ9": 1092,
      "Ø¬ÙħÙĪØ¹Ø©": 1093,
      "ĠÙĪØ¯": 1094,
      "ĠÙĨØ³": 1095,
      "Ġ[": 1096,
      "ĠÙĪØ´": 1097,
      "ØŃÙĨ": 1098,
      "ĠÙĬØ´": 1099,
      "ĠØ¨Ø·": 1100,
      "Ø¶Ø§Ø¡": 1101,
      "ØªØ®": 1102,
      "ØºÙĬ": 1103,
      "ĠØ¹Ø¨Ø±": 1104,
      "ĠÙĦÙĬØ³": 1105,
      "Ø°ÙĥØ±": 1106,
      "ĠØ£Ø¯": 1107,
      "Ø¨ÙĬÙĤ": 1108,
      "ĠØ§ÙĦØ¹ÙĦÙħ": 1109,
      "ĠØ¨ÙĪ": 1110,
      "ĠØ§ÙĦØ³ÙĦ": 1111,
      "ĠØ¢Ø®Ø±": 1112,
      "ÙĪÙĬØ±": 1113,
      "Ø§ÙĬ": 1114,
      "ĠÙĦÙĦØ£": 1115,
      "Ø²ÙĦ": 1116,
      "Ø°ÙĬ": 1117,
      "Ø§ÙħØ¹Ø©": 1118,
      "ĠØ£Ø®Ø±Ùī": 1119,
      "ĠØ§ÙĦØµØŃ": 1120,
      "ĠØ§ÙĦØ±ÙĬ": 1121,
      "ĠØ§ÙĦØ´Ø±": 1122,
      "ØºÙħ": 1123,
      "ÙĬÙĬ": 1124,
      "Ø¨Ø§Ø¨": 1125,
      "ĠÙĦØ¹": 1126,
      "ÙĤØ¨": 1127,
      "Ø±ÙĥØ§Øª": 1128,
      "ĠØ¨Ø§ÙĦØª": 1129,
      "Ø§Ø¨ÙĤ": 1130,
      "ĠÙĥÙĬÙģ": 1131,
      "Ø®Ø·": 1132,
      "ĠØ§ÙĦØ¹Ø±Ø§ÙĤ": 1133,
      "ĠÙĬØ¬Ø¨": 1134,
      "ÙĩØ§Ø¨": 1135,
      "ĠØ£ÙĪÙĦ": 1136,
      "ĠØ§ÙĦØªØ¬": 1137,
      "Ø¶Ø§ÙģØ©": 1138,
      "Ø±Ùī": 1139,
      "ÙĬØ±Ø§ÙĨ": 1140,
      "ÙģØ§ÙĤ": 1141,
      "ĠØ§ÙĦØ§ÙĤ": 1142,
      "ÙİÙĳ": 1143,
      "ĠÙģØª": 1144,
      "ĠØ¨Ùĥ": 1145,
      "ĠØ§ÙĦÙĪØ²": 1146,
      ").": 1147,
      "ĠØ§ÙĦØŃØ±": 1148,
      "Ġ12": 1149,
      "Ø¶Ø§Ùģ": 1150,
      "ÙĦØ§Øª": 1151,
      "ÙĬØ§Ùħ": 1152,
      "Ø±ÙĬÙĤØ©": 1153,
      "ÙĬØ§Ø©": 1154,
      "er": 1155,
      "Ġ11": 1156,
      "ĠØ§ÙĦÙĨØ§Ø³": 1157,
      "ĠØ¹ÙĨØ¯ÙħØ§": 1158,
      "ÙħÙĪ": 1159,
      "Ø§ÙĨØ¨": 1160,
      "ÙĬØ·": 1161,
      "ĠØ§ÙĦØ¬Ø²": 1162,
      "Ø¬ÙĨ": 1163,
      "!!": 1164,
      "ĠØ§ÙĦÙħØº": 1165,
      "ØŃÙħ": 1166,
      "Ġ2018": 1167,
      "Ø§ÙĪÙĦ": 1168,
      "Ø¨ÙĤ": 1169,
      "ÙĪÙĤÙģ": 1170,
      "ÙĪÙĨÙĬ": 1171,
      "ĠÙģÙĤØ¯": 1172,
      "ĠØ§ÙĦØ®Ùħ": 1173,
      "ÙĤÙĬÙĤØ©": 1174,
      "ÙĥØ«Ø±": 1175,
      "Ø¬Ø²": 1176,
      "ĠØ·Ø±ÙĬÙĤ": 1177,
      "ĠØ§ÙĦØ¥ÙĨØ³": 1178,
      "ĠØ§Ùģ": 1179,
      "ĠØ§ÙĦØ£ÙħØ±": 1180,
      "ĠÙĪØ§ÙĦØªÙĬ": 1181,
      "ØªØ¨Ø±": 1182,
      "Ø§Ø¦ÙĬÙĦ": 1183,
      "ÙĪØ§Ø¨": 1184,
      "ĠØ§ÙĦØ§Ø¹": 1185,
      "Ø¨ÙĬØ¹": 1186,
      "Ø§Ø¦Ø¯": 1187,
      "ÙĭØĮ": 1188,
      "Ø³Ø·": 1189,
      "ĠØ¯Ø±": 1190,
      "ĠÙĪØ³ÙĦÙħ": 1191,
      "ÙĩØ¯Ùģ": 1192,
      "ĠØ§ÙĦØ§Ø¬ØªÙħØ§Ø¹": 1193,
      "ÙħÙĬØ©": 1194,
      "Ø³ÙĦ": 1195,
      "ĠØ§ÙĦÙħÙĩ": 1196,
      "ĠÙĪØ§ÙĦØŃ": 1197,
      "Ø§Ø¹Ø§Øª": 1198,
      "ĠÙĦÙĪ": 1199,
      "ØºØ·": 1200,
      "Ø±ÙĬÙħ": 1201,
      "Ø§ÙĩØ¯": 1202,
      "ĠØ§ÙĦØ¹Ø§ÙħØ©": 1203,
      "\"ØĮ": 1204,
      "ĠØ§ÙĦÙĤØ¯": 1205,
      "ØŃØ§Ø¯": 1206,
      "ĠÙħÙĨÙĩ": 1207,
      "ĠØ§ÙĦØ§Ø®": 1208,
      "ĠØ§ÙĦØ£ØŃØ¯": 1209,
      "ÙĪØ«": 1210,
      "ĠÙĨØª": 1211,
      "ĠÙĪÙĦÙħ": 1212,
      "ÙħØ§Ùħ": 1213,
      "ĠØ´Ø±": 1214,
      "ĠØ§ÙĦØ¯ÙĬÙĨ": 1215,
      "Ø³ÙĨ": 1216,
      "Ø²Ø¨": 1217,
      "ĠØ£Øº": 1218,
      "ĠÙĪÙĦÙĬ": 1219,
      "ĠØ¨Ø±ÙĨØ§ÙħØ¬": 1220,
      "ĠÙħØ¬ÙĦØ³": 1221,
      "ĠØ§ÙĦÙĪÙĤØª": 1222,
      "ĠØ§ÙĦØ³ÙĦØ§Ùħ": 1223,
      "Ġ2010": 1224,
      "ĠÙĬØ§": 1225,
      "Ø¨Ø·": 1226,
      "ĠØµØŃ": 1227,
      "Ø§Ø¯Ø§Øª": 1228,
      "Ø§Ø¦Ùħ": 1229,
      "ØªÙĬÙĨ": 1230,
      "ĠØ£ÙĤ": 1231,
      "ÙĤØ§Ø¡": 1232,
      "ĠÙĪØ§ÙĦØ¯": 1233,
      "ĠA": 1234,
      "Ø¹ÙĦØ§Ùħ": 1235,
      "ĠØ§ÙĦØ¯Ø±": 1236,
      "ØŁØŁ": 1237,
      "ĠØ§ÙĦØªÙĪ": 1238,
      "ĠØ§ÙĦØ£ÙĨ": 1239,
      "ÙĩÙĬ": 1240,
      "ĠØ§ÙĦØ¥ÙĨ": 1241,
      "Ø´ÙĬ": 1242,
      "ĠØ§ÙĦØ¬ÙħØ¹Ø©": 1243,
      "ĠØ§ÙĦØ£Ø±Ø¨Ø¹": 1244,
      "ĠØ¨ÙħØ§": 1245,
      "ĠØ§ÙĦØ®ÙħÙĬØ³": 1246,
      "ĠÙĪÙħØ§": 1247,
      "ĠÙĪØ§ÙĦÙĨ": 1248,
      "Ø¸ÙĩØ±": 1249,
      "ÙĬØ§Ø¯Ø©": 1250,
      "ĠØ§ÙĦØ³Ø¹ÙĪØ¯ÙĬØ©": 1251,
      "ĠØ¨ÙĬ": 1252,
      "ĠØµÙĦÙī": 1253,
      "ÙĪØ¬Ø¯": 1254,
      "ĠØ§Ø¬": 1255,
      "ÙĦÙĬØ§Øª": 1256,
      "ĠØ§ÙĦØ«ÙĦØ§Ø«Ø§Ø¡": 1257,
      "ĠØ£ÙħØ§Ùħ": 1258,
      "ĠÙĦØ¯ÙĬ": 1259,
      "Ġ2011": 1260,
      "ØªØ¬": 1261,
      "Ø²ÙĬØ²": 1262,
      "Ø§ÙĬØ©": 1263,
      "Ø§ÙĦØ«": 1264,
      "ĠØ§ÙĦØªÙĤ": 1265,
      "ÙĥØªØ¨": 1266,
      "ĠØ§ÙĦØ«Ø§ÙĨÙĬ": 1267,
      "ĠØ¬ÙĨ": 1268,
      "ØµØŃ": 1269,
      "ĠÙĦØ¨": 1270,
      "ĠØ¬Ùĩ": 1271,
      "Ø¹Ø§Ø¯Ø©": 1272,
      "ĠÂ»": 1273,
      "ĠÙĪÙĩØ°Ø§": 1274,
      "in": 1275,
      "ÛĮ": 1276,
      "ĠØ¨Ø³Ø¨Ø¨": 1277,
      "Ø¤ÙĪÙĦ": 1278,
      "ÙĤØ¯ÙĬÙħ": 1279,
      "ĠØ¨Ø§ÙĦØ¥": 1280,
      "ĠÙĪØ·": 1281,
      "ĠØ§ÙĦÙħØ´Ø§Ø±": 1282,
      "ĠØ§ÙĦØ¹Ùħ": 1283,
      "Ø§ÙĨÙĬØ§": 1284,
      "ĠØ§ÙĦÙĥØ«ÙĬØ±": 1285,
      "ĠØ®Ø§ØµØ©": 1286,
      "Ø§Ø¦ÙĤ": 1287,
      "ĠØ§ÙĦØ®Ø·": 1288,
      "ĠØ¬Ø¯ÙĬØ¯": 1289,
      "ØŃÙĤ": 1290,
      "ĠÙħØ¯ÙĬÙĨØ©": 1291,
      "ĠÙħÙħØ§": 1292,
      "ÙĪÙĬÙĦ": 1293,
      "ÙĨØ³Ø¨Ø©": 1294,
      "ĠØ¨Ø³": 1295,
      "ÙĩÙĪØ±": 1296,
      "Ø±ÙĬÙģ": 1297,
      "ØŃÙĦØ©": 1298,
      "ÙĨØ¹": 1299,
      "Ø§ÙĦÙĥ": 1300,
      "ĠØ£ÙģØ¶ÙĦ": 1301,
      "Ġ14": 1302,
      "ĠØ§ÙĦØ¨ØŃ": 1303,
      "ĠÙĪØ®": 1304,
      "ÙĤØª": 1305,
      "ĠØ§ÙĬ": 1306,
      "Ø¸ÙħØ©": 1307,
      "ĠÙĪØ§ØŃØ¯": 1308,
      "Ø¶ÙĬ": 1309,
      "ÙĪØ±ÙĬØ§": 1310,
      "ĠØ¹Ø¯Ùħ": 1311,
      "Ø§Ø¦Ø¹": 1312,
      "ĠØ³Ùħ": 1313,
      "Ø¹ÙħÙĦ": 1314,
      "ĠØ§ÙĦØ£Ø±Ø¨Ø¹Ø§Ø¡": 1315,
      "ĠÙ": 1316,
      "ĠÙĥÙĨØª": 1317,
      "ĠØ§ÙĦÙģÙĦØ³Ø·ÙĬÙĨ": 1318,
      "Ø¬ÙĨØ©": 1319,
      "ĠØ«ÙĦØ§Ø«": 1320,
      "ĠØ§ÙĦØ¯ÙĪÙĦØ©": 1321,
      "ØºÙĦ": 1322,
      "ĠØªÙĥ": 1323,
      "ĠØªØ±Ùĥ": 1324,
      "ĠÙħØ®ØªÙĦÙģ": 1325,
      "ĠØ§ÙĨØª": 1326,
      "ÙĪÙĦÙĩ": 1327,
      "ĠØ³ÙĨØ©": 1328,
      "ĠØ§ÙĦØ®Ø§ØµØ©": 1329,
      "201": 1330,
      "ĠØ§ÙĦØ¢ÙĨ": 1331,
      "Ø§ØªÙĩØ§": 1332,
      "Ø§Ø¹Ø¨": 1333,
      "ÙĥØªÙĪØ±": 1334,
      "Ø§Ø³Ùħ": 1335,
      "Ø¬ÙĬÙĦ": 1336,
      "ĠØŃØ§ÙĦ": 1337,
      "Ø±Øª": 1338,
      "ÙĦÙħØ©": 1339,
      "ĠÙĥØ¨ÙĬØ±": 1340,
      "ĠØ§ÙĦØ¬Ùĩ": 1341,
      "ĠØ¹ÙĦÙħ": 1342,
      "Ø«Ùħ": 1343,
      "ÙĪØ¡": 1344,
      "ÙĪØ¨Ø±": 1345,
      "ÙĬØ§Ùĩ": 1346,
      "ĠØ£ÙħØ§": 1347,
      "ĠØ¶Ø¯": 1348,
      "ĠØ§ÙĦØ³Ø¨Øª": 1349,
      "ĠÙĦÙĦØŃ": 1350,
      "Ø§Ø¹Ø¯Ø©": 1351,
      "Ø²Ùħ": 1352,
      ")ØĮ": 1353,
      "ĠØ¯Ø§Ø®ÙĦ": 1354,
      "ĠØ¯ÙĪØ±": 1355,
      "ĠØ¹Ø¨": 1356,
      "ĠØ¬Ø¯ÙĬØ¯Ø©": 1357,
      "ĠØ£Ø¬ÙĦ": 1358,
      "Ø§ÙĦÙģ": 1359,
      "âĢ¦": 1360,
      "ÙĳÙı": 1361,
      "ĠÙĥØ«ÙĬØ±": 1362,
      "ĠØ§ÙĦØ£ÙĪÙĦÙī": 1363,
      "Ġ15": 1364,
      "ĠØ§ÙĦÙħØ®": 1365,
      "ÙĪØ¶Ø¹": 1366,
      "ÙĤØ¨ÙĦ": 1367,
      "Ø§ÙħØ§": 1368,
      "ĠØ§ÙĦØŃÙĥÙĪÙħØ©": 1369,
      "ĠÙħÙģ": 1370,
      "ĠØ§ÙĦØ£ÙħÙĨ": 1371,
      "ĠS": 1372,
      "ĠØ£ÙĨÙĩØ§": 1373,
      "ĠØ¬Ø²": 1374,
      "ĠØŃÙĬÙĨ": 1375,
      "ĠØ§ÙĦÙħÙĦÙĥ": 1376,
      "ĠØ§Ø³ØªØ®Ø¯Ø§Ùħ": 1377,
      "ĠØ§Ø¨ÙĨ": 1378,
      "ÙĥØ±ÙĬ": 1379,
      "ĠÙĪÙĤØª": 1380,
      "Ø·ÙĬØ¹": 1381,
      "ĠØ§ÙĦÙħØ¨": 1382,
      "Ø¶Ø©": 1383,
      "ĠÙģÙĬÙħØ§": 1384,
      "ĠØ§ÙĦØ±Ø¦ÙĬØ³ÙĬØ©": 1385,
      "Ø·Ø¨": 1386,
      "ĠØ£Ø«": 1387,
      "ØŃØª": 1388,
      "ÙĪØ¨Ø©": 1389,
      "ĠØ§ÙĦØ¬ÙĨ": 1390,
      "ĠØ§Ø´": 1391,
      "ĠÙģØ¹": 1392,
      "Ø§ÙĦØ¯": 1393,
      "Ø§Ø¸": 1394,
      "ĠØ£Ùģ": 1395,
      "Ø§ÙĨØ§Øª": 1396,
      "ĠÙħØ¬ÙħÙĪØ¹Ø©": 1397,
      "ĠÙĪØ¬ÙĪØ¯": 1398,
      "Ø¬ÙħØ¹": 1399,
      "Ø§ÙĩØ±Ø©": 1400,
      "ÙģØ§Ø¹": 1401,
      "Ġ*": 1402,
      "Ø§ÙģÙĤ": 1403,
      "Ø¸ÙĬÙģ": 1404,
      "ĠØ§ÙĦØ´Ø¹Ø¨": 1405,
      "ÙĥØ§Øª": 1406,
      "Ø§ÙĤØ§Øª": 1407,
      "ĠØ¹ÙĨÙĩ": 1408,
      "Ø³Ø±Ø§Ø¦ÙĬÙĦ": 1409,
      "ĠÙĬØ¤": 1410,
      "ĠØµÙģ": 1411,
      "Ø§Ø¦Ø¨": 1412,
      "ĠØ§ÙĦØµÙģ": 1413,
      "ĠÙĥØ¨ÙĬØ±Ø©": 1414,
      "ĠØ¹ÙħØ±": 1415,
      "ØªØ¹": 1416,
      "ĠØ§ÙĦØ®Ø§Ø±Ø¬": 1417,
      "Ø¨Ø¯Ø£": 1418,
      "Ø§Ø¨ÙĦ": 1419,
      "on": 1420,
      "ĠØŃØ±": 1421,
      "ĠÙĤØ§Ùħ": 1422,
      "ĠØ£ÙĩÙħ": 1423,
      "ĠÙĪØ¥ÙĨ": 1424,
      "ĠÙĪØ¶Ø¹": 1425,
      "Ø¨ÙĨ": 1426,
      "Ø§Ø¨Ø¹Ø©": 1427,
      "ØªØ¨Ø§Ø±": 1428,
      "ĠP": 1429,
      "Ø·Ø¹": 1430,
      "ĠÙħÙĥØ§ÙĨ": 1431,
      "Ø¨ÙĬØ±": 1432,
      "Ø§ÙĨØ§": 1433,
      "Ø§Ø·ÙĤ": 1434,
      "Ø·ÙģØ§ÙĦ": 1435,
      "ĠØªØ¹Ø§ÙĦÙī": 1436,
      "Ø³Ø³": 1437,
      "ÙħÙĬÙĦ": 1438,
      "ĠØ§ÙĦØ´Ø®Øµ": 1439,
      "Ø§Ø±Ùĥ": 1440,
      "ĠØ§ÙĦØ¹Ø±Ø¨ÙĬ": 1441,
      "ĠÙĦØ¯": 1442,
      "Ø®Ø°": 1443,
      "ĠØ§ÙĦÙĤØ§ÙĨÙĪÙĨ": 1444,
      "ÙĦÙĥØ©": 1445,
      "Ø¨Ø§ØŃ": 1446,
      "Ø¶Ùħ": 1447,
      "ĠØ§ÙĦØ§ÙĤØªØµ": 1448,
      "ĠÙħØ±Ø©": 1449,
      "ÙĪÙĪ": 1450,
      "ØªÙĩÙħ": 1451,
      "ĠØ§ÙĦØªØ¹ÙĦÙĬÙħ": 1452,
      "ĠÙĦÙĩÙħ": 1453,
      "ĠÙĪØ²ÙĬØ±": 1454,
      "ĠÙĢ": 1455,
      "ĠÙħØ®": 1456,
      "ĠØ§ÙĦØªØµ": 1457,
      "ĠÙĪØºÙĬØ±": 1458,
      "ÙģÙĬØ°": 1459,
      "ĠØ´ÙĬØ¡": 1460,
      "Ø¹ÙĬØ¯": 1461,
      "ĠÙĬÙĪÙĨ": 1462,
      "ĠØ§ÙĦÙģØª": 1463,
      "ĠØŃÙĦ": 1464,
      "ĠÙĬÙģ": 1465,
      "ĠØ¹ÙħÙĦÙĬØ©": 1466,
      "ĠØ§ÙĦØ·Ø¨ÙĬ": 1467,
      "ØŃØ¨": 1468,
      "ĠØ§ÙĦØ¹ÙĤ": 1469,
      "Ø¬Ø±Ø§Ø¡": 1470,
      "Ø§ØµØ±": 1471,
      "Ø±Ø¨Ø©": 1472,
      "Ø¨ÙĦØº": 1473,
      "ĠØ§ÙĦÙħÙĦ": 1474,
      "ĠÙĪØ§Ø³Øª": 1475,
      "ĠØ§ÙĦØ´ÙĬØ®": 1476,
      "Ø§ÙģÙĬØ©": 1477,
      "ĠØ§ÙĦØ¹Ø¯ÙĬØ¯": 1478,
      "ĠØ§ÙĦÙħØ§Ø¶ÙĬ": 1479,
      "ĠÙĬÙĤÙĪÙĦ": 1480,
      "Ø§Ø³Ø¨": 1481,
      "ĠØ§Ø³Ùħ": 1482,
      "ĠØ§ÙĦØ¸": 1483,
      "ÙĥØ±Ø©": 1484,
      "an": 1485,
      "ØºØ±": 1486,
      "Ø§ØªÙģ": 1487,
      "Ø³ÙĬÙĨ": 1488,
      "Ø¢ÙĨ": 1489,
      "ĠØ³ÙĦ": 1490,
      "Ø¯ÙħØ©": 1491,
      "ĠÙĥØªØ§Ø¨": 1492,
      "ĠØ§ÙĦØªØ¯": 1493,
      "ĠØ§ÙĦØªÙī": 1494,
      "Ø§ÙģØ¸Ø©": 1495,
      "ĠØ§ÙĦÙĨØ³": 1496,
      "ĠØ§ÙĦØªØ·": 1497,
      "ĠÙħØ«": 1498,
      "ĠÙĬØ±": 1499,
      "Ø¹ÙĦÙĪÙħØ§Øª": 1500,
      "ĠÙĪØ¹ÙĦÙī": 1501,
      "ĠÙħÙĩ": 1502,
      "ĠÙĪØµ": 1503,
      "ĠÙĪØ²Ø§Ø±Ø©": 1504,
      "ĠØ°Ø§Øª": 1505,
      "Ġ2009": 1506,
      "ĠØ¹Ø¯": 1507,
      "ĠÙĥÙħ": 1508,
      "Ø·ÙĦØ§ÙĤ": 1509,
      "ĠØ§ÙĦØ¨ØŃØ«": 1510,
      "Ø§Ø¦ÙħØ©": 1511,
      "ĠÙħØ¨Ø§Ø±": 1512,
      "ÙĦÙħÙĬÙĨ": 1513,
      "ĠÙħÙĦÙĬÙĪÙĨ": 1514,
      "ĠØ§ÙĦØ¥ÙĨØ³Ø§ÙĨ": 1515,
      "ÙĤØ§ÙĦ": 1516,
      "ĠØªØŃØ¯": 1517,
      "ÙĤÙĪÙĦ": 1518,
      "ĠØ§ÙĦÙħØ¬ØªÙħØ¹": 1519,
      "ÙĪÙģØ±": 1520,
      "ÙħÙĬÙħ": 1521,
      "ĠØ§ÙĦÙĪØ·ÙĨÙĬ": 1522,
      "Ø§ÙģÙĬ": 1523,
      "Ø¯ÙĬØ©": 1524,
      "Ø±ÙĬØŃ": 1525,
      "ĠÙĨØŃÙĪ": 1526,
      "ĠØ´ÙĩØ±": 1527,
      "ĠÙĦÙĦØ¥": 1528,
      "ĠØ§ÙĦØŃÙĬØ§Ø©": 1529,
      "ĠØ§ÙĦØ±ÙĬØ§Ø¶": 1530,
      "ĠØ§ÙĦÙħØ±ÙĥØ²": 1531,
      "ĠØ¨Øµ": 1532,
      "ĠØ³Ø±": 1533,
      "ÙĬØ¯Ø§": 1534,
      "Ø§ÙĩÙħ": 1535,
      "ĠØ°ÙĥØ±": 1536,
      "Ø§Ø§": 1537,
      "ĠØ§ÙĦØ§Ø±": 1538,
      "Ø¹Ø§Ùħ": 1539,
      "Ø·ÙĦØ¨": 1540,
      "ĠØ£ÙħØ±": 1541,
      "ĠØ§ÙĦÙĨØ¸Ø§Ùħ": 1542,
      "ÙĪØ³Ø·": 1543,
      "ĠØªØ®": 1544,
      "ÙħÙĬÙĨ": 1545,
      "ÙĨØ§ÙĪÙĦ": 1546,
      "ÙĪÙĨØ©": 1547,
      "ĠØªÙĪ": 1548,
      "Ø§Ø¬Ø©": 1549,
      "Ø®Ø±Ø¬": 1550,
      "ĠØªØ¨": 1551,
      "ĠØ£Ø±": 1552,
      "Ø¬Ø¨": 1553,
      "ar": 1554,
      "ÙĦØ§Ùģ": 1555,
      "Ø§ÙĬØ±": 1556,
      "ĠØ¹Ø´Ø±": 1557,
      "ÙĬØŃ": 1558,
      "âĢĿ.": 1559,
      "ĠÙĪÙħØ¹": 1560,
      "Ø±ÙĪÙģ": 1561,
      "ĠØ§ÙĦØ¬Ø¯ÙĬØ¯": 1562,
      "ĠØŃØ§ÙĦØ©": 1563,
      "ĠØ±Ø¨": 1564,
      "ĠÙģØ§ÙĦ": 1565,
      "ĠØ§ÙĦØ¥Ø«": 1566,
      "Ø±ÙĬÙĥÙĬØ©": 1567,
      "ĠÙĬØµ": 1568,
      "Ø¹Ø§ÙĪÙĨ": 1569,
      "ĠÙĪØ§ÙĦØ³": 1570,
      "ĠØ§ÙĨÙĩ": 1571,
      "ÙĪØ¬Ùĩ": 1572,
      "Ø·ÙĦÙĤ": 1573,
      "ĠÙĦÙħÙĨ": 1574,
      "ĠØ§ÙĦØªÙģ": 1575,
      "ĠØ§ÙĦÙħÙĪØ¶ÙĪØ¹": 1576,
      "ĠØ£Ø¨ÙĪ": 1577,
      "ĠÙģØ£": 1578,
      "Ø¹ÙĦÙĨ": 1579,
      "Ø¬ÙħÙĬØ¹": 1580,
      "ĠØ¨Ø¬": 1581,
      "ĠÙĦØ§ÙĨ": 1582,
      "Ġ18": 1583,
      "Ø±ÙĬØ·": 1584,
      "ÙĪÙĬØª": 1585,
      "ĠØµÙĪØ±": 1586,
      "ĠØ§ÙĦØªØ±": 1587,
      "ÙĪÙĬÙĨ": 1588,
      "ÙĪÙĦØ§ÙĬØ§Øª": 1589,
      "ÙĩØ§ÙĬØ©": 1590,
      "ĠØ§ÙĦÙħÙģ": 1591,
      "ØªØ±ÙĨØª": 1592,
      "ĠØ§ÙĦÙħÙĨØ·ÙĤØ©": 1593,
      "ĠØ§ÙĦØŃØ¯ÙĬØ«": 1594,
      "or": 1595,
      "ĠØ¶ÙħÙĨ": 1596,
      "ĠØ§ÙĦØ®Ø§Øµ": 1597,
      "ĠÙĦÙĦÙĨ": 1598,
      "ĠÙĨØ¬": 1599,
      "ĠØ¯ÙĪÙĦØ§Ø±": 1600,
      "ĠÙĨÙĪØ¹": 1601,
      "ĠØ·Ø±Ùģ": 1602,
      "ÙĪØ§Ø¹": 1603,
      "ĠÙĪØ§ÙĦØ´": 1604,
      "ĠÙħÙĨØ·ÙĤØ©": 1605,
      "Ø¯ÙħØ§Øª": 1606,
      "ĠØ¬Ø§Ø¡": 1607,
      "ĠM": 1608,
      "ĠØ§ÙĦØ¯ÙĪÙĦÙĬ": 1609,
      "ĠÙĨØ¸Ø§Ùħ": 1610,
      "ÙĤÙĩ": 1611,
      "Ø§ÙħÙĦØ©": 1612,
      "ÙĬØ§Ø±": 1613,
      "Ġ13": 1614,
      "ĠÙĬÙĪÙĦ": 1615,
      "Ø§Ø³Ø§Øª": 1616,
      "ĠÙĪØ§ØŃØ¯Ø©": 1617,
      "ĠØ§ÙĦØ³ÙĪØ¯": 1618,
      "ĠØ±ÙĬ": 1619,
      "ĠØªØ§Ø±ÙĬØ®": 1620,
      "ÙģØ¸": 1621,
      "ĠØ¥Ø°": 1622,
      "Ø§ØŃÙĬØ©": 1623,
      "ĠØ§ÙĦØªØ³": 1624,
      "Ø¹Ø¯Ø§Ø¯": 1625,
      "Ø³ÙĥØ±": 1626,
      "ÙĢÙĢÙĢÙĢÙĢÙĢÙĢÙĢ": 1627,
      "ĠÙħØ¨Ø§Ø´": 1628,
      "ĠÙģØ±ÙĬÙĤ": 1629,
      "Ø§Ø³Ø¨Ø©": 1630,
      "ĠØ§ÙĦØ¯ÙĥØªÙĪØ±": 1631,
      "ÙĬÙĨÙĬ": 1632,
      "ĠØ§ÙĦØ¨ÙĬ": 1633,
      "ĠØ³ÙĪÙģ": 1634,
      "ĠÙĨÙģØ³Ùĩ": 1635,
      "ĠØ§ÙĦØ´Ø±ÙĥØ©": 1636,
      "Ø§Ø¨ÙĤØ©": 1637,
      "ÙħÙĦØ©": 1638,
      "ÙĪØ¨ÙĬ": 1639,
      "ĠØ§Ø¯": 1640,
      "ĠØ§ÙĦØŃÙĤ": 1641,
      "Ø´Ø©": 1642,
      "ØµØ§ÙĦ": 1643,
      "Ø¶ÙĦ": 1644,
      "ĠC": 1645,
      "Ø£Øª": 1646,
      "ĠÙĪØ§ÙĦÙģ": 1647,
      "ØµÙĪØ±": 1648,
      "ØµØ±ÙĬØ©": 1649,
      "Ø§Ø±Ø¨": 1650,
      "ĠØ§ÙĦØŃØ¯": 1651,
      "ĠØ§ÙĦØ«Ø§ÙĦØ«": 1652,
      "ĠÙħÙĥ": 1653,
      "ĠØ±ÙĤÙħ": 1654,
      "Ø®ÙĪÙĦ": 1655,
      "ĠÙĦÙĥÙĦ": 1656,
      "ĠÙĪØªØ¹": 1657,
      "....": 1658,
      "ØªÙĬØ¬Ø©": 1659,
      "ĠØ¹Ø±Ø¶": 1660,
      "ØºÙĬÙĬØ±": 1661,
      "Ø§Ø¯Ø±Ø©": 1662,
      "ĠØ£ÙĦÙģ": 1663,
      "ĠØ§ÙĦØ¥Ø«ÙĨÙĬÙĨ": 1664,
      "ĠÙģÙĦ": 1665,
      "Ø¨ØŃØ«": 1666,
      "ĠÙĦÙĦØ´": 1667,
      "ĠØ§ÙĦØ£Ø¯": 1668,
      "Ø§Ø¦Ø¬": 1669,
      "ĠØ§ÙĦØ¨ØŃØ±": 1670,
      "Ø´Ø§Ø¡": 1671,
      "ĠØ¨ÙĬØ§ÙĨ": 1672,
      "ÙĥØªÙĪØ¨Ø±": 1673,
      "ĠØ³ÙĨÙĪØ§Øª": 1674,
      "ĠØ±Ùħ": 1675,
      "ĠØ¨Ø§ÙĦØ£": 1676,
      "ØŃØ§": 1677,
      "ĠØ§ÙĦØ¹Ø¯": 1678,
      "Ø³Ø§ÙĨ": 1679,
      "Ø§Ø¹ÙĬ": 1680,
      "Ø´Ø±Ø©": 1681,
      "ÙħØª": 1682,
      "ĠØ§ÙĦØ£Ø±Ø¶": 1683,
      "ĠØµÙĦ": 1684,
      "ĠØ§ÙĦØŃÙĦ": 1685,
      "Ø§Ø¹ÙĬØ©": 1686,
      "ĠØ§ÙĦØ±Ø³": 1687,
      "ĠÙħØ±ÙĥØ²": 1688,
      "ĠØ§ÙĦØ¹ÙĨ": 1689,
      "ĠÙĪØ¬Ùĩ": 1690,
      "ĠØ§ÙĦØªØ´": 1691,
      "Ġ2008": 1692,
      "ĠØ§Øµ": 1693,
      "ĠØ£ØŃÙħØ¯": 1694,
      "ĠØ§ÙĦØ¯Ùħ": 1695,
      "ĠØ§ÙĦØ«ÙĤ": 1696,
      "ĠØ§ÙĦÙĬÙħÙĨ": 1697,
      "Ø¯Ùĩ": 1698,
      "ÙĪÙĨÙĬØ©": 1699,
      "ÙĥÙĬØ©": 1700,
      "Ø±ÙĩØ§Ø¨": 1701,
      "Ø¶ÙĬØ©": 1702,
      "ĠØ¨ÙĥÙĦ": 1703,
      "ĠØ§ÙĦÙĦÙĬ": 1704,
      "ĠÙĦØ¯Ùī": 1705,
      "Ø¬Ø§ÙĦ": 1706,
      "Ø§ÙĨØ©": 1707,
      "ĠÙĦÙĤØ¯": 1708,
      "Ġ2012": 1709,
      "ØµÙĪØµ": 1710,
      "Ø¯Ø§ÙĬØ©": 1711,
      "ĠÙħØ¬Ø§ÙĦ": 1712,
      "ĠØ§ÙĦØ³Ø§Ø¨ÙĤ": 1713,
      "ÙĪÙĦÙĪØ¬": 1714,
      "ĠÙĬÙĪÙĦÙĬÙĪ": 1715,
      "ĠÙħØ´Ø±ÙĪØ¹": 1716,
      "ĠØ·ÙĦØ¨": 1717,
      "Ø¯Øª": 1718,
      "Ø®Ø§Øµ": 1719,
      "ĠØ§ÙĦÙħØµØ±ÙĬ": 1720,
      "Ø¹Ùī": 1721,
      "ÙħÙĬ": 1722,
      "ĠØ§ÙĦØ£ÙħÙĬØ±": 1723,
      "ĠÙĪØ£Ø¶Ø§Ùģ": 1724,
      "ÙĦØ§Ø¡": 1725,
      "Ø§Ø¦Ùģ": 1726,
      "ĠÙĬÙħÙĥÙĨÙĥ": 1727,
      "ĠØ§ÙĦØ¬Ø¯ÙĬØ¯Ø©": 1728,
      "ĠØ¹Ø§ÙĦÙħ": 1729,
      "al": 1730,
      "ĠØŃÙĥ": 1731,
      "ÙĥÙĦØ©": 1732,
      "ĠÙĪØ§ÙĦÙĤ": 1733,
      "ĠÙħÙĨØª": 1734,
      "Ø±ÙĬÙĦ": 1735,
      "Ġ16": 1736,
      "Ġ2017": 1737,
      "ØŃÙĬØŃ": 1738,
      "Ø¬ÙĬ": 1739,
      "ĠÙĪØªÙħ": 1740,
      "ÙĬØ³ÙħØ¨Ø±": 1741,
      "ÙħØ§ÙĬØ©": 1742,
      "ĠÙĨÙĤÙĦ": 1743,
      "ØªÙĬØ§Ø±": 1744,
      "ĠØŃÙĬØ§Øª": 1745,
      "Ø§Ø¯ÙĦ": 1746,
      "ĠØ§ÙĦÙħØ¹ÙĦÙĪÙħØ§Øª": 1747,
      "Ø²Ø§": 1748,
      "Ġ25": 1749,
      "ĠÙħØ³ØªÙĪÙī": 1750,
      "ĠÙħØ§Ø±Ø³": 1751,
      "ĠÙĨØ´Ø±": 1752,
      "ĠØ¨ÙĢ": 1753,
      "ÙĩØ¨": 1754,
      "Ø¹Ø§Øª": 1755,
      "Ø¹ÙĦÙĤ": 1756,
      "ĠØ¯Ø§Ø¦": 1757,
      "ĠØ¥Ø¯Ø§Ø±Ø©": 1758,
      "ĠØ§ÙĦÙħÙĪØ³": 1759,
      "Ùĭ.": 1760,
      "Ø²Ø§Ùħ": 1761,
      "ĠÙĬÙĤÙĪÙħ": 1762,
      "ĠØ§ÙĦØªØ£": 1763,
      "ÙĨØªØ§Ø¬": 1764,
      "ĠØ¨ÙħÙĨ": 1765,
      "ĠÙĦØ´": 1766,
      "ĠØªÙĦ": 1767,
      "ÙĪÙħÙĬØ©": 1768,
      "ĠØ§ÙĦÙĢ": 1769,
      "Ø¯Ø§Ø¯": 1770,
      "Ø·Ø§ÙĨ": 1771,
      "ÙĩÙħØ©": 1772,
      "ĠÙĨØ´": 1773,
      "ÙĩØ±Ø¨": 1774,
      "ĠâĢĿ": 1775,
      "ĠÙĪØ§ÙĦØ°ÙĬ": 1776,
      "ĠØ¥ÙĦÙĬÙĩ": 1777,
      "ĠÙĬÙĪÙĨÙĬÙĪ": 1778,
      "Ø§Ø±Ø¯": 1779,
      "ĠÙĦØ°ÙĦÙĥ": 1780,
      "ĠÙĦÙħØ§": 1781,
      "ØªÙħØ¨Ø±": 1782,
      "ĠØªØ·Ø¨ÙĬÙĤ": 1783,
      "Ø±ÙĬÙĥÙĬ": 1784,
      "ĠÙħØ¶": 1785,
      "ĠÙħØ¯ÙĬØ±": 1786,
      "Ø§ÙĩØ±": 1787,
      "Ø·Ø§Øª": 1788,
      "Ø°Ø±": 1789,
      "ĠØ¯ÙĬØ³ÙħØ¨Ø±": 1790,
      "ĠØ£ÙĥØ¨Ø±": 1791,
      "Ġ30": 1792,
      "Ø§Ø¯Ø«": 1793,
      "ÙĢÙĢÙĢ": 1794,
      "ĠØ§ÙĦØ¯ÙĪÙĦÙĬØ©": 1795,
      "ĠÙĦÙĨØ§": 1796,
      "ĠÙħØ´Ø§Ø±": 1797,
      "ĠØ¨ÙĪØ§Ø³": 1798,
      "Ġ#": 1799,
      "ĠØ¨Ø§Ø³Øª": 1800,
      "ĠØ¹Ø¨Ø¯Ø§ÙĦ": 1801,
      "ĠØ±Ø£": 1802,
      "ĠØªÙĤØ¯Ùħ": 1803,
      "ĠÙĪØ¹Ø¯": 1804,
      "ÙĪØ¨Ø§": 1805,
      "ĠÙĪØ¨Ø¹Ø¯": 1806,
      "Ġ17": 1807,
      "ĠØ£Ø¨ÙĬ": 1808,
      "ĠÙģÙĨ": 1809,
      "ĠØ§ÙĦÙħÙĪÙĤØ¹": 1810,
      "ĠØ¥ÙĨÙĩ": 1811,
      "ĠÙħÙĪØ³": 1812,
      "ĠØ²ÙĪØ¬": 1813,
      "ĠØ§ÙĦÙĪÙĦØ§ÙĬØ§Øª": 1814,
      "ĠØ§ÙĦÙħØ¯ÙĬÙĨØ©": 1815,
      "Ø³Ø¨ÙĪØ¹": 1816,
      "ÙĬØ¯ÙĬÙĪ": 1817,
      "Ø¸Ø©": 1818,
      "ĠÙĨØµ": 1819,
      "Ø®Ø©": 1820,
      "ĠØ§ÙĦØ±Ø³Ùħ": 1821,
      "ĠØ§ÙĦØ¥Ùħ": 1822,
      "ĠØªÙĤÙĪÙħ": 1823,
      "ĠØŃØ³Ø¨": 1824,
      "ÙĬÙĪÙĨ": 1825,
      "ØŃØ§Ø¨": 1826,
      "ĠØ±Ø³ÙĪÙĦ": 1827,
      "ĠØ¹Ø¯Ø©": 1828,
      "ĠÙĬØŃØª": 1829,
      "ĠÙĨÙĪÙģ": 1830,
      "ĠØ§ÙĦØ§Ø¨": 1831,
      "ĠØ£ÙĥØªÙĪØ¨Ø±": 1832,
      "ĠÙĬÙĨØ§": 1833,
      "Ø³Ø·Ø³": 1834,
      "ĠØ§ÙĦØ¯Ø§Ø®": 1835,
      "ĠØ§ÙĦØ´Ø±ÙĤ": 1836,
      "Ø§Ø¯Ùĩ": 1837,
      "ĠØªØŃÙĤÙĬÙĤ": 1838,
      "ĠÙĪØ§Ø³": 1839,
      "ĠØ§ÙĦØ¹Ø±Ø¨": 1840,
      "ÙĥØ§Ø±": 1841,
      "ĠØ§ÙĦÙĪØ·ÙĨÙĬØ©": 1842,
      "ĠØ§ÙĦÙħØ±Ø£Ø©": 1843,
      "ĠØ§ÙĦØªØ±Ùĥ": 1844,
      "ĠØ£ÙĪØ±": 1845,
      "ĠØ§ÙĦÙħØ²ÙĬØ¯": 1846,
      "Ø¯ÙĬÙĨ": 1847,
      "Ø¹Ø¶Ø§Ø¡": 1848,
      "ĠØ¨Ø§ÙĨ": 1849,
      "Ø¶ÙĪØ±": 1850,
      "ĠÙħØ·": 1851,
      "ĠØ§ÙĦØ¢Ø®Ø±": 1852,
      "ĠØ§ÙĦØ£ÙĪØ±": 1853,
      "ĠØ§ÙĦØ£ØŃ": 1854,
      "ĠØ§ÙĦÙĨÙģ": 1855,
      "ÙĦÙĬØ§": 1856,
      "ĠØ³Ø¨ØªÙħØ¨Ø±": 1857,
      "ĠÙĬØ£": 1858,
      "es": 1859,
      "ĠØªØ¹Ø¯": 1860,
      "ÙĩØ¯Ø§Ùģ": 1861,
      "ĠØ§ÙĦØ§ØªØŃØ§Ø¯": 1862,
      "Ø¶ÙħÙĨ": 1863,
      "ÙģØ§Ø¡": 1864,
      "Ø¬Ø§Ø²": 1865,
      "ĠØ¹ÙĤ": 1866,
      "ĠØ¯Ø±Ø¬": 1867,
      "ÙĤØ±ÙĬØ±": 1868,
      "ÙĪØ¶ØŃ": 1869,
      "ĠÙĥØªØ¨": 1870,
      "ĠØ¬Ø¯": 1871,
      "ĠØ¨Ø§ÙĦÙĨØ³Ø¨Ø©": 1872,
      "ĠØ³ÙĪØ±ÙĬØ§": 1873,
      "Ø³Ø³Ø©": 1874,
      "ĠØ¨ÙĪØ§Ø³Ø·Ø©": 1875,
      "ÙĥÙħØ©": 1876,
      "ĠØ¨Ø§ÙĦÙĤ": 1877,
      "ĠØ§Ø¶": 1878,
      "ÙĤÙĤ": 1879,
      "ĠØ¯ÙĪÙĦØ©": 1880,
      "ĠT": 1881,
      "ĠØ¨Ø§ÙĦÙģ": 1882,
      "ÙĪÙĬØ¯": 1883,
      "ĠØ§ÙĦØ¨ÙĨ": 1884,
      "Ø¨Ø§": 1885,
      "ÙĩÙĪØ¯": 1886,
      "Ø·ÙĨ": 1887,
      "ĠØ¹ÙĨÙĩØ§": 1888,
      "Ø·Ø§Ø¡": 1889,
      "ĠÙĤÙĨ": 1890,
      "ĠÙĬÙĨØ§ÙĬØ±": 1891,
      "ÙĬØ²Ø©": 1892,
      "ĠØ§ÙĦØ³ÙĨ": 1893,
      "Ø¹Ø¨Ø©": 1894,
      "Ø¬ÙĩØ²Ø©": 1895,
      "ĠÙĪØ§Ø¶": 1896,
      "ĠÙĦÙĢ": 1897,
      "ØªÙħØ§Ùħ": 1898,
      "ĠØ§ÙĦØ«Ø§ÙĨÙĬØ©": 1899,
      "Ø§ÙĩØ¯Ø©": 1900,
      "ĠØ®Ø§Ø±Ø¬": 1901,
      "ĠØ¬Ø§ÙħØ¹Ø©": 1902,
      "Ø¬ÙĦÙĬ": 1903,
      "ĠÙĦÙĤ": 1904,
      "ĠÙģÙĩÙĪ": 1905,
      "ĠØ§ÙĦØ£ÙħØ±ÙĬÙĥÙĬØ©": 1906,
      "ĠØ§ÙĦØªØ§Ø±ÙĬØ®": 1907,
      "ØºÙĬØ±Ø©": 1908,
      "Ġ24": 1909,
      "ĠØ§ÙĦØ£Ø®ÙĬØ±Ø©": 1910,
      "Ø®ØµØµ": 1911,
      "ĠÙĤØ§ÙĨÙĪÙĨ": 1912,
      "ĠØ§ÙĦØ¥Ø¹ÙĦØ§Ùħ": 1913,
      "Ø¬Ø§ÙĨ": 1914,
      "ĠØ¯Ø¹": 1915,
      "ÙĦÙĥØªØ±": 1916,
      "ÙĪÙĬØ§Øª": 1917,
      "Ø·ÙĬ": 1918,
      "ĠÙĨÙģ": 1919,
      "ĠØ´Ø¨": 1920,
      "ĠØŃÙħ": 1921,
      "ĠÙĨÙĪÙģÙħØ¨Ø±": 1922,
      "ĠØ§ÙĦÙĨØ¨ÙĬ": 1923,
      "en": 1924,
      "ĠØ§ÙĦØ³ÙĬØ§Ø³ÙĬØ©": 1925,
      "ÙĪØ¬ÙĪØ¯": 1926,
      "ÙĦÙħØ§ÙĨ": 1927,
      "ĠØ¹Ø¶": 1928,
      "ĠØ§ÙĦÙħÙħÙĦÙĥØ©": 1929,
      "ĠÙĨØ¸Ø±": 1930,
      "Ø§Ø¬Ùĩ": 1931,
      "Ø§ÙĥÙĦ": 1932,
      "ĠØŃØ¯ÙĬØ«": 1933,
      "ĠØ§ÙĦØ£Ø´": 1934,
      "ÙĦÙĬÙĤ": 1935,
      "ÙĬØ±ÙĬ": 1936,
      "ĠØ·Ø¨ÙĬ": 1937,
      "ĠØ¨Ø§Ø±": 1938,
      "Ø§Ø¦Ùĩ": 1939,
      "Ø§ØµÙĬÙĦ": 1940,
      "Ø²Ø§ÙĦ": 1941,
      "at": 1942,
      "ĠØ§ÙĦØ®Ø§Ø±Ø¬ÙĬØ©": 1943,
      "ĠÙĪÙĦÙĬØ³": 1944,
      "Ø§ØŃØ¨": 1945,
      "Ø¨Ø±Ø§ÙĬØ±": 1946,
      "ØªÙģØ§Ø¹": 1947,
      "ĠØ§ÙĦÙĨÙĩ": 1948,
      "ÙĪÙĦÙĬ": 1949,
      "ĠØ£ØºØ³Ø·Ø³": 1950,
      "ĠØ£ÙĨØ§": 1951,
      "ĠÙĥØª": 1952,
      "ĠØ§ÙĦÙĨÙĤ": 1953,
      "ĠÙĤØ¯Ùħ": 1954,
      "ĠÙĤØµ": 1955,
      "ĠØ¬Ø±": 1956,
      "ĠØªØ¤": 1957,
      "10": 1958,
      "ÙĨØ³ÙĬØ©": 1959,
      "ĠÙħØ§ÙĬÙĪ": 1960,
      "ĠØ¬Ø§ÙĨØ¨": 1961,
      "ĠØªØªÙħ": 1962,
      "ÙĦØ§Ø¨": 1963,
      "ĠÙĩÙħ": 1964,
      "ĠØ£ØµØ¨ØŃ": 1965,
      "ĠØ£Ø«ÙĨØ§Ø¡": 1966,
      "ĠÙĦÙĦÙĩ": 1967,
      "ĠØ§ÙĦÙħØ¬ÙĦØ³": 1968,
      "ĠÙĨÙĩ": 1969,
      "ĠØ§ÙĦØ¥Ø³ÙĦØ§ÙħÙĬØ©": 1970,
      "ĠØ§ÙĦØ´Ø¹": 1971,
      "Ø§Ø¬Ø§Øª": 1972,
      "Ø§Ø±Ø¹": 1973,
      "ĠÙĬÙĥÙĨ": 1974,
      "ÙĪØ§ÙĤ": 1975,
      "ĠÙĪÙĬØª": 1976,
      "ĠØ®Ø§Øµ": 1977,
      "ĠØ§ÙĦÙĤØ±Ø¢ÙĨ": 1978,
      "Ø§Ø¨Ø·": 1979,
      "ĠÙĪÙĬØ¹": 1980,
      "ĠÙĥØ±": 1981,
      "ĠØ´Ùĩ": 1982,
      "Ġï»": 1983,
      "ÙĦØŃØ©": 1984,
      "ĠØ§ÙĦÙħØ¨Ø§Ø±": 1985,
      "ĠØ§ÙĦØ¨ÙĦØ§Ø¯": 1986,
      "ĠØ§ÙĦØ´Ø¨Ø§Ø¨": 1987,
      "ĠØ¹ÙĦÙĬÙĥ": 1988,
      "ĠØ§ÙĦØ¬ÙĬØ´": 1989,
      "ĠÙĦØ³": 1990,
      "ĠÙħØ¹ÙĦ": 1991,
      "ÙĩÙĨ": 1992,
      "Ġïº": 1993,
      "ĠÙĬÙĪØ¬Ø¯": 1994,
      "om": 1995,
      "ĠØ£Ø¬": 1996,
      "ØªÙĨØ§": 1997,
      "ĠØ§ÙĦØ³ÙĬØ¯": 1998,
      "ĠÙĪØµÙĦ": 1999,
      "Ø³Ø³Ø§Øª": 2000,
      "ØºÙĬÙĦ": 2001,
      "ØªØ®Ø§Ø¨Ø§Øª": 2002,
      "Ø§Ø¦Ø¹Ø©": 2003,
      "ĠÙĪØ§ÙĦØµ": 2004,
      "ĠÙĦÙĦØ¯": 2005,
      "ĠØ§ÙĦÙģØ±ÙĬÙĤ": 2006,
      "ĠØ§ÙĦØ¨Ø±ÙĨØ§ÙħØ¬": 2007,
      "ĠÙĤØ±Ø§Ø±": 2008,
      "ĠØ§ÙĦØ³Ùħ": 2009,
      "ĠÙģØ¨Ø±Ø§ÙĬØ±": 2010,
      "ĠØ§ÙĦÙħÙĪØ§Ø·": 2011,
      "ĠÙĪÙĥÙĦ": 2012,
      "ĠÙĥØ§ÙģØ©": 2013,
      "Ø«ÙĤ": 2014,
      "ĠØ§ÙĦØ£Ø®Ø±Ùī": 2015,
      "ĠÙħÙĨÙĩÙħ": 2016,
      "Ø¯Ø±Ø³Ø©": 2017,
      "Ø³ÙĥØ±ÙĬØ©": 2018,
      "ĠØªÙĤØ¯ÙĬÙħ": 2019,
      "ĠÙĬØ®": 2020,
      "ĠØ§ÙĦØ¹Ø§ÙĦÙħÙĬØ©": 2021,
      "ĠÙĤØ¯Ø±": 2022,
      "ĠØ¨ÙĨØ§Ø¡": 2023,
      "ĠÙĦÙħØ¯Ø©": 2024,
      "ÙĨÙĬØ§": 2025,
      "Ø§ØµÙħØ©": 2026,
      "ĠÙĦÙĥÙħ": 2027,
      "ĠØ¯Ùħ": 2028,
      "Ø§ÙĦÙĩ": 2029,
      "ĠØ£ÙĬØ§Ùħ": 2030,
      "ĠØ§ÙĦØ´Ùĩ": 2031,
      "ÙĤØ±Ø§Ø±": 2032,
      "ĠØ§ÙĦØ³ÙĪØ±ÙĬ": 2033,
      "ÙĬØ¯ÙĬ": 2034,
      "ÙĦÙħØ§Øª": 2035,
      "ĠÙħØªØ±": 2036,
      "ØªÙĨ": 2037,
      "ÙĦÙĬÙĨ": 2038,
      "ĠØ§ÙĦØ³Ø±": 2039,
      "Ø§ÙħÙĬ": 2040,
      "ÙĦØ¹": 2041,
      "ĠÙģÙĦØ³Ø·ÙĬÙĨ": 2042,
      "Ø§ÙĩÙĬÙħ": 2043,
      "Ø²ÙħØ©": 2044,
      "ĠÙģÙĦØ§": 2045,
      "ĠÙĪØªØŃ": 2046,
      "ĠÙĬØ¹ÙĨÙĬ": 2047,
      "ÙĥÙĪ": 2048,
      "Ø§ÙĨÙĩ": 2049,
      "Ø§ÙģØ±": 2050,
      "ĠÙĥØ«": 2051,
      "âĢĿØĮ": 2052,
      "ĠØ§Ø«": 2053,
      "ĠÙĪØ¢": 2054,
      "ĠØ¨Ø¯ÙĪÙĨ": 2055,
      "Ø±Ø§ØªÙĬØ¬": 2056,
      "Ø¨Ø¯ÙĪ": 2057,
      "Ø´ÙĦ": 2058,
      "Ø§ÙħØ¨": 2059,
      "ĠØ§ÙĦÙĥØ±ÙĬÙħ": 2060,
      "ĠÙĨØŃÙĨ": 2061,
      "ÙĪØ¨ÙĬØ©": 2062,
      "ĠØ§ÙĦÙĤØ§Ø¯": 2063,
      "ĠØ§ÙĦÙħØ§ÙĦÙĬØ©": 2064,
      "ÙĪØ±Ø§Øª": 2065,
      "ĠÙĨØ¸": 2066,
      "ÙĪÙħÙĬ": 2067,
      "Ø§Ø¨ÙĬØ©": 2068,
      "Ø¤Ø§ÙĦ": 2069,
      "ĠÙĪÙĬÙħ": 2070,
      "ĠØ¨Øº": 2071,
      "12": 2072,
      "ĠÙĦÙĦØ¹": 2073,
      "Ø¦Ø§Øª": 2074,
      "ĠÙĪØ§ÙĦØ±": 2075,
      "ĠØ§ÙĦØŃØ±Ø¨": 2076,
      "ĠØ§ÙĦÙħÙĨØªØ¯Ùī": 2077,
      "ĠØ§ÙĦØ³Ø¨": 2078,
      "ĠâĢ¦": 2079,
      "ÙĦÙĪØ¨": 2080,
      "ĠÙĪØªÙĨ": 2081,
      "ĠÙĬØ¹ÙħÙĦ": 2082,
      "Ø§Ø¦ÙĬÙĦÙĬ": 2083,
      "ĠØ¨Ùģ": 2084,
      "ĠØ£ÙĩÙĦ": 2085,
      "Ø³Ø¨Ø§Ø¨": 2086,
      "ĠÙĦÙĦØ¨ÙĬØ¹": 2087,
      "ÙĨØ¯ÙĤ": 2088,
      "ØªÙĦØ§ÙĦ": 2089,
      "ĠÙģØªØ±Ø©": 2090,
      "ĠØ¨Ø§ÙĦÙĨ": 2091,
      "ĠØ³ÙĪØ§Ø¡": 2092,
      "ĠH": 2093,
      "ÙĪÙģÙĬØ±": 2094,
      "ĠÙĦÙĩØ°Ø§": 2095,
      "ĠÙĨØ¹": 2096,
      "Ø§Ø¦Ø¯Ø©": 2097,
      "ĠÙģØªØŃ": 2098,
      "Ġ!": 2099,
      "ĠØ·Ø±ÙĬÙĤØ©": 2100,
      "Ġ2013": 2101,
      "ĠÙĪÙĬÙĨ": 2102,
      "ĠØ§ÙĦØ±ØŃ": 2103,
      "ĠÙĪØ§ÙĦØ®": 2104,
      "ÙĬØµ": 2105,
      "ÙĪØ³ÙĬØ§": 2106,
      "ĠØ§ÙĦÙĥØªØ§Ø¨": 2107,
      "ĠØ¹ÙĤØ¯": 2108,
      "ĠØ£Ø¹ÙħØ§ÙĦ": 2109,
      "Ø§ØŃÙĦ": 2110,
      "ĠB": 2111,
      "ĠØ§ÙĦÙħØ³ÙĦÙħÙĬÙĨ": 2112,
      "ĠØ¨Ø§ÙĦØ¥Ø¶Ø§ÙģØ©": 2113,
      "ÙĬØªÙĩØ§": 2114,
      "ĠØŃÙĤÙĪÙĤ": 2115,
      "ĠØ¥Ø³Ø±Ø§Ø¦ÙĬÙĦ": 2116,
      "ÙĪØ¨Ø§Øª": 2117,
      "ĠØªØŃÙħÙĬÙĦ": 2118,
      "ÙĬÙĨÙĬØ©": 2119,
      "ĠÙģØ¶": 2120,
      "ĠÙĦÙģ": 2121,
      "Ø§Ø¤": 2122,
      "ĠÙħØ²": 2123,
      "ĠÙĪÙĥØ°ÙĦÙĥ": 2124,
      "Ø§Ø¦ØŃ": 2125,
      "Ġ2016": 2126,
      "ĠØ§ÙĨØ§": 2127,
      "ĠÙĨÙĩØ§ÙĬØ©": 2128,
      "ĠÙĩØ¯": 2129,
      "ĠØ§ÙĦÙĩÙĬ": 2130,
      "ĠØ§Ùĩ": 2131,
      "ĠÙĦÙĦÙĤ": 2132,
      "ĠØ§ÙĦØŃØµÙĪÙĦ": 2133,
      "ÙĨÙĬÙĩ": 2134,
      "ĠØ§ÙĦÙħØµØ±ÙĬØ©": 2135,
      "Ø¶Ø§ÙĨ": 2136,
      "ĠÙĦÙĬØ³Øª": 2137,
      "ĠØ§ÙĦÙĤØ¯Ùħ": 2138,
      "Ø§Ø¯ÙĤ": 2139,
      "ĠÙģØ¹ÙĦ": 2140,
      "ĠØ§ÙĦØ£Ø¹ÙħØ§ÙĦ": 2141,
      "ĠØ¹Ø§ÙħØ§": 2142,
      "ÙģÙĬÙĨ": 2143,
      "Ġ22": 2144,
      "ĠØªØ¹Ø±Ùģ": 2145,
      "Ø§Ø¦ÙĦØ©": 2146,
      "Ġ21": 2147,
      "Ø§Ø¬Ø¹": 2148,
      "ĠÙĤØ¨": 2149,
      "ÙģÙĤ": 2150,
      "Ø¯Ø§ÙĪÙĦ": 2151,
      "ÙħÙĥØ§ÙĨ": 2152,
      "Ø£ÙĦ": 2153,
      "ØŃØµ": 2154,
      "ĠÙĬÙĥ": 2155,
      "ĠØ§ÙĦØµÙĦ": 2156,
      "ÙĬÙĬÙĬÙĬ": 2157,
      "Ø§Ø¨Ùĩ": 2158,
      "ĠØ§Ø¬ØªÙħØ§Ø¹": 2159,
      "ĠØ§ÙĦÙĦØºØ©": 2160,
      "ĠØ²ÙĬ": 2161,
      "ÙĥØ§ÙĦ": 2162,
      "Ø¹ÙĦØ§ÙĨ": 2163,
      "ĠØ§ÙĦØ¨Ø·": 2164,
      "ĠØ§ÙĦØµÙĨ": 2165,
      "ĠØ£Ø¨Ø±ÙĬÙĦ": 2166,
      "ĠØ¬ÙĩØ§Ø²": 2167,
      "19": 2168,
      "ĠØ¥ÙĤ": 2169,
      "Ø§ÙĪØ²": 2170,
      "ĠØ§ÙĦÙĨÙģØ³": 2171,
      "ĠÙĬÙĦ": 2172,
      "Â».": 2173,
      "ÙĥØ§": 2174,
      "ĠØ±Ø¤": 2175,
      "Ø¬Ø§Ùĩ": 2176,
      "ĠR": 2177,
      "ĠØ§ÙĦØªÙĪØ§ØµÙĦ": 2178,
      "ÙĬØ§Ø¡": 2179,
      "ĠØ¶Ø±": 2180,
      "ÙĪÙĨØ³": 2181,
      "Ø§ÙĥÙħ": 2182,
      "ĠD": 2183,
      "Ø¹ÙĬÙĨ": 2184,
      "ĠØ§ÙĦØ¨ÙĬØ§ÙĨ": 2185,
      "ĠØ§ÙĦØ£Ø·ÙģØ§ÙĦ": 2186,
      "ĠÙĪØ¶": 2187,
      "ĠØ±Ø³Ùħ": 2188,
      "ĠÙĪÙĥØ§ÙĨØª": 2189,
      "ic": 2190,
      "ÙĩÙĪØ±ÙĬØ©": 2191,
      "ÙĬÙĦØ§": 2192,
      "ĠØªÙĨØ¸ÙĬÙħ": 2193,
      "ĠÙĥØ°ÙĦÙĥ": 2194,
      "ĠØ§ÙĦØ±ÙĪØ³": 2195,
      "ØªÙħØ¯": 2196,
      "ĠØ§Ø°Ø§": 2197,
      "Ġ23": 2198,
      "ĠØ£ÙħØ³": 2199,
      "Ø¹ÙĪ": 2200,
      "ĠÙĪØ§Ø¹": 2201,
      "ĠØ¹ÙĦÙĬÙĩÙħ": 2202,
      "ĠØªØ¹ÙħÙĦ": 2203,
      "Ø¬ÙĪÙħ": 2204,
      "ÙģØ§Øª": 2205,
      "Ø²ÙĬØ©": 2206,
      "ĠØ®Ø¯ÙħØ©": 2207,
      "Ø¨ÙĬÙĨ": 2208,
      "ÙĤØ±Ø§Ø·": 2209,
      "ĠØ§ÙĦØ®ÙĦÙĬ": 2210,
      "ĠØ§ÙĦÙģØªØ±Ø©": 2211,
      "ĠØ«ÙĦØ§Ø«Ø©": 2212,
      "Ø¨ÙĬØ§": 2213,
      "ĠØ§ÙĦÙĪØ²Ø±Ø§Ø¡": 2214,
      "ÙĨÙĩ": 2215,
      "Ø¤ÙĦØ§Ø¡": 2216,
      "ĠØ¨Ø§Ø³Ùħ": 2217,
      "ĠØ§ÙĦØ´Ø¹Ø±": 2218,
      "Ø´Ø±ÙĬÙĨ": 2219,
      "Ø³ØªØ±": 2220,
      "ĠÙħØ¹Ø¯": 2221,
      "ÙĦÙĬÙĩ": 2222,
      "ĠØ§ÙĦØ®Ø§Ùħ": 2223,
      "ĠØŃÙĪ": 2224,
      "ĠØ§ÙĦØ³ÙĬØ§Ø³ÙĬ": 2225,
      "ÙģØ§": 2226,
      "ÙĥÙĬÙĦ": 2227,
      "ĠØ¨ÙĨÙģØ³": 2228,
      "ĠÙĦÙĦØº": 2229,
      "Ø®ÙĦØµ": 2230,
      "ĠâĢ¢": 2231,
      "Ø·Ø§ÙĦ": 2232,
      "ØµØ§Ø¨Ø©": 2233,
      "ĠØ§ÙĦØ¥ÙħØ§Ø±Ø§Øª": 2234,
      "ĠØ¨ÙĩØ°Ø§": 2235,
      "Ø¹Ø±Ø¶": 2236,
      "ĠØŃØ¯Ø«": 2237,
      "ĠÙĪØŃØ¯": 2238,
      "ĠØ¯Ø§Ø¦ÙħØ§": 2239,
      "11": 2240,
      "ĠØ§Ø·": 2241,
      "ĠØµÙĨ": 2242,
      "Ø³Ø§Ùħ": 2243,
      "ĠØ¨Ø§Ø¨": 2244,
      "ĠÙĪØ¨ÙĬÙĨ": 2245,
      "ĠØ·Ø¨": 2246,
      "ĠØµÙĪØ±Ø©": 2247,
      "Ġ{": 2248,
      "ĠØ§ÙĦØ±Ø¨": 2249,
      "ĠØ§ÙĦØ§Ø«": 2250,
      "ĠØ±ØºÙħ": 2251,
      "ÙĥØ±Ø§": 2252,
      "ĠÙĦØµ": 2253,
      "ÙĪØªØ±": 2254,
      "ĠØ§ÙĦØ§Ø¬ØªÙħØ§Ø¹ÙĬ": 2255,
      "ĠÙĤØ³Ùħ": 2256,
      "ĠÙħØ³Ø¤ÙĪÙĦ": 2257,
      "ĠÙĪØ¸": 2258,
      "ĠÙĬØ³Ùħ": 2259,
      "ĠØ§ÙĦØ¹Ø¨": 2260,
      "Ø§Ø¦ÙĩØ§": 2261,
      "ÙĥÙĬÙĨ": 2262,
      "ĠÙĦÙĦÙģ": 2263,
      "ĠÙģÙĤØ§ÙĦ": 2264,
      "ØµØ§Ø±": 2265,
      "Ø°Ø©": 2266,
      "Ġ2014": 2267,
      "Ø§Ø¶ÙĬØ©": 2268,
      "ĠÙĥÙĨ": 2269,
      "Ø³ÙĥØ±ÙĬ": 2270,
      "ĠÙĥÙĦÙħØ©": 2271,
      "ĠÙĤØ·Ø§Ø¹": 2272,
      "ĠØ§ÙĦØ³Ø§Ø¹Ø©": 2273,
      "Ø¬Ø§Ø±": 2274,
      "ĠØ§ÙĦØ¥Ø±ÙĩØ§Ø¨": 2275,
      "ĠÙĤÙĪØ§Øª": 2276,
      "ĠØ±Ø£Ø³": 2277,
      "ĠÙħØ³Ø§Ø¡": 2278,
      "ĠØŃØ³ÙĨ": 2279,
      "ØªØ±Ùĥ": 2280,
      "ÙĬÙħÙĤØ±Ø§Ø·": 2281,
      "ĠØ¨Ø¯Ø§ÙĬØ©": 2282,
      "ĠØ§ÙĦØ´Ø±ÙĥØ§Øª": 2283,
      "Ø§ÙĦØ£": 2284,
      "ĠØ§ÙĦØµÙĪØ±": 2285,
      "Ø§Ø¦Ø±Ø©": 2286,
      "ĠØ§ÙĦØ³ÙĨØ©": 2287,
      "Ø¨Ø§Ø¡": 2288,
      "Ø¬ÙħÙĪØ¹": 2289,
      "ÙĥØ§Ùħ": 2290,
      "ĠG": 2291,
      "ĠÙĨØªÙĬØ¬Ø©": 2292,
      "ĠØ§ÙĦØ±Ø¬ÙĦ": 2293,
      "ĠØµØ¯": 2294,
      "ĠØ¨ÙĬØª": 2295,
      "ÙĨØ§Ùĥ": 2296,
      "Ùł": 2297,
      "ĠÙĬØ¹Ø±Ùģ": 2298,
      "ĠØ¨ÙĬÙĨÙħØ§": 2299,
      "ĠØ§ÙĦÙħØ§ÙĦ": 2300,
      "ĠØªÙĨØ§ÙĪÙĦ": 2301,
      "ØªÙĤØ¯": 2302,
      "ÙĪÙħØ§": 2303,
      "ĠØ±ØŃ": 2304,
      "000": 2305,
      "ĠØ§ÙĦØ¨Ø´Ø±": 2306,
      "ĠØ§ØŃØ¯": 2307,
      "ĠØ§ÙĦØ¥ÙĦÙĥØªØ±": 2308,
      "Ø·Ø±Ø©": 2309,
      "Ø¹Ùĩ": 2310,
      "ĠÙħÙĦÙģ": 2311,
      "ĠØ¬Ø¹ÙĦ": 2312,
      "ĠØ§ÙĥØ«Ø±": 2313,
      "ĠÙĪØ§ÙĦØ¨": 2314,
      "Ø°ÙĩØ¨": 2315,
      "Ø§ÙĪÙĬ": 2316,
      "ĠØ¹Ø±": 2317,
      "Ø¦Ø§": 2318,
      "ĠØ¥Ø¶Ø§ÙģØ©": 2319,
      "ĠÙĦÙĦØ³": 2320,
      "ĠÙħØ®ØªÙĦÙģØ©": 2321,
      "50": 2322,
      "ĠØ£ÙĨØª": 2323,
      "Ø§ØªØ¨": 2324,
      "Ø¶Ø§ÙĬØ§": 2325,
      "ĠØ§ÙĦØ§Ø´": 2326,
      "ÙĨØ§Ùĩ": 2327,
      "ĠØ§ÙĦØ£Ø±": 2328,
      "ĠØ§ÙĦØ¯Ø§Ø®ÙĦÙĬØ©": 2329,
      "ĠÙħØ¹Ùĩ": 2330,
      "Ø¤ÙĪÙĨ": 2331,
      "Ø§ÙĦØ¬": 2332,
      "ĠØ§ÙĦÙĤØ§ÙĩØ±Ø©": 2333,
      "ĠÙĥØ«ÙĬØ±Ø§": 2334,
      "ĠØ§ÙĦÙħØ´Ø±ÙĪØ¹": 2335,
      "ĠØ§ÙĦØ¬ÙħÙĬØ¹": 2336,
      "Ø§ÙĪ": 2337,
      "ĠØ¯Ø¹Ùħ": 2338,
      "ĠØ´ÙĥÙĦ": 2339,
      "ĠÙĪØµÙģ": 2340,
      "ĠØµØ§ØŃØ¨": 2341,
      "Ø±ÙĬÙĨ": 2342,
      "ĠØµØ¨Ø§ØŃ": 2343,
      "ĠÙĦØ¨ÙĨØ§ÙĨ": 2344,
      "Ø¬Ø±Ø©": 2345,
      "ĠÙĪØ§ÙĦÙħÙĨ": 2346,
      "ĠØ¯ÙĬÙĨ": 2347,
      "ÙĥÙĨÙĪÙĦÙĪØ¬": 2348,
      "Ø°Ø¨": 2349,
      "ÙĬØ±ÙĬØ©": 2350,
      "Ø¨ÙĤÙī": 2351,
      "ÙĨØ³ÙĬ": 2352,
      "ÙĦÙĦ": 2353,
      "Ø§Ø¯Øª": 2354,
      "ĠÙĦØ§Ø³Øª": 2355,
      "ÙĤØµ": 2356,
      "ĠÙĪØ§ÙĦØ§Ø³Øª": 2357,
      "ÙĬØ±Ø§Øª": 2358,
      "ĠÙĪØ§ÙĦÙĥ": 2359,
      "Ø±Ø§": 2360,
      "ĠØ¨Ø¨": 2361,
      "Ø§Ø±Øª": 2362,
      "ĠØ§ÙĦØ³Ø¹ÙĪØ¯ÙĬ": 2363,
      "Ø¹ÙĦÙī": 2364,
      "Ø§ÙĤÙĬ": 2365,
      "Ø§ØŃØ«": 2366,
      "ĠØ¨Ø§ÙĦØ¹": 2367,
      "ĠØ§ÙĦØ·Ø¹Ø§Ùħ": 2368,
      "Ġ2015": 2369,
      "ĠØ¥ÙĦ": 2370,
      "ĠØ§ÙĦÙĥØ±": 2371,
      "ĠÙĪØ³Ø·": 2372,
      "ĠØ§ÙĦØ®Ø¨Ø±": 2373,
      "ĠØ§ÙĦØ³Ùģ": 2374,
      "ĠÙĪØ§ÙĦØ¬": 2375,
      "ĠÙĦØ±": 2376,
      "ĠØ¸ÙĦ": 2377,
      "ØªÙħØ±Ø§Ø±": 2378,
      "ÙģØ±Ø§Ø¯": 2379,
      "Ø£ÙĬ": 2380,
      "ĠØ§ÙĦØŃÙĥÙħ": 2381,
      "Ø§ØªÙĩÙħ": 2382,
      "ĠØ²ÙĬØ§Ø¯Ø©": 2383,
      "ĠØ¨Ø´Ø£ÙĨ": 2384,
      "ĠØ£ÙħÙĨ": 2385,
      "ĠÙĦØ£ÙĨÙĩ": 2386,
      "Ø¹Ø§ÙĬØ©": 2387,
      "ĠØ§ÙĦÙģÙĦØ³Ø·ÙĬÙĨÙĬØ©": 2388,
      "ĠÙģÙĪÙĤ": 2389,
      "ĠØ§ÙĦÙĦØ¬ÙĨØ©": 2390,
      "ĠÙĦØªØŃ": 2391,
      "Ø¬Ø±Ø§Ø¡Ø§Øª": 2392,
      "ÙĤØ¯Ø±": 2393,
      "Ø«ÙħØ§Ø±": 2394,
      "ÙĪÙĨÙĩ": 2395,
      "ĠØ¯Ø±Ø¬Ø©": 2396,
      "ÙĪØ´": 2397,
      "ĠØ§ÙĦØ£Ùģ": 2398,
      "ĠØ´Ø¹": 2399,
      "ĠØ§ÙĦÙħØ®ØªÙĦÙģ": 2400,
      "ĠÙħØ¨Ø§Ø´Ø±Ø©": 2401,
      "st": 2402,
      "it": 2403,
      "ØºØ¨": 2404,
      "Ø§Ø¨ÙĬ": 2405,
      "ĠØŃØ²Ø¨": 2406,
      "Ġ26": 2407,
      "ĠØ§ÙĦØŃØ³": 2408,
      "ĠØ±ÙħØ¶Ø§ÙĨ": 2409,
      "Ø°Ùĥ": 2410,
      "ĠØ¥ÙĦÙĬÙĩØ§": 2411,
      "Ø±Ø§Ø¡Ø©": 2412,
      "Ø³Ø±Ø§Ø¦ÙĬÙĦÙĬ": 2413,
      "ĠØ§ÙĨØªÙĩ": 2414,
      "ĠÙħØ¨Ø§Ø±Ø§Ø©": 2415,
      "ĠØ§ÙĦØ¯ÙģØ§Ø¹": 2416,
      "Ø³ØªØ§ÙĨ": 2417,
      "ĠØ§ÙĦØµÙģØŃØ©": 2418,
      "ÙħØ¹": 2419,
      "ÙĦØ§Ùĥ": 2420,
      "ĠØŃØ±ÙĥØ©": 2421,
      "ĠØ§Øº": 2422,
      "ĠØ§ÙĦØ·ÙģÙĦ": 2423,
      "ĠÙħÙĤØ§Ø¨ÙĦ": 2424,
      "ĠØ§ÙĦÙħØ·": 2425,
      "ÙĪØ±Ø¯": 2426,
      "ĠØºØ²Ø©": 2427,
      "Ø¹ÙĦÙĬÙħ": 2428,
      "ØµÙĦØ§ØŃ": 2429,
      "ĠØ§ÙĦØ¥ÙĤ": 2430,
      "Ø±ÙģØ¹": 2431,
      "ĠØªØ±ÙĬØ¯": 2432,
      "ĠØ§ÙĦØ£ÙħØ±ÙĬÙĥÙĬ": 2433,
      "le": 2434,
      "ĠØ§ÙĦØ¨Ø¯": 2435,
      "ĠØ§ÙĦÙħØ²": 2436,
      "ĠØ§ÙĦÙĤØ¨": 2437,
      "ÙĪØŃØ©": 2438,
      "ĠØ§ÙĦÙĤÙĬ": 2439,
      "ĠÙĤÙĬ": 2440,
      "ÙĨØ¨": 2441,
      "ĠØ¨Ø§ÙĦØ³": 2442,
      "ĠØ§ÙĦØ³ÙĪÙĤ": 2443,
      "ĠØ§ÙĦÙĨØ³Ø§Ø¡": 2444,
      "ĠÙĦØ¬ÙĨØ©": 2445,
      "Ġ28": 2446,
      "Ø´ÙĤ": 2447,
      "ÙĥÙĬØ¯": 2448,
      "ĠØ¹Ø²": 2449,
      "ĠØ§ÙĦØ·Ø¨": 2450,
      "ĠØ¨Ø§Øª": 2451,
      "Ġ27": 2452,
      "ĠØ±ÙģØ¹": 2453,
      "ĠØ¹Ø§ÙĦÙĬØ©": 2454,
      "ĠØ§ÙĦØŃØ¨": 2455,
      "ĠØ§ÙĦØ¬Ø³Ùħ": 2456,
      "ĠØ§ÙĦÙĨØ¸Ø±": 2457,
      "Ø«Ø§Ø±": 2458,
      "ØŃØ§Øª": 2459,
      "ĠØ§ÙĦØ§Ø¬ØªÙħØ§Ø¹ÙĬØ©": 2460,
      "ĠØ§ÙĦØªØ·Ø¨ÙĬÙĤ": 2461,
      "ÙĪØ§Ø¬Ùĩ": 2462,
      "ÙĥØ¨Ø±": 2463,
      "ĠØ§ÙĦÙħÙĬØ§Ùĩ": 2464,
      "ĠØ³ÙĬØ±": 2465,
      "Ø±ÙĬØ¨Ø§": 2466,
      "30": 2467,
      "ĠØ³Ø§Ø¹Ø©": 2468,
      "ĠF": 2469,
      "ĠØ§ÙĦØ¨ÙĬØª": 2470,
      "ĠØ¥ØŃØ¯": 2471,
      "Ø§ÙĪÙĦØ©": 2472,
      "ĠÙħØº": 2473,
      "Ø§Ø¬ÙĩØ©": 2474,
      "ĠØ§ÙĦÙħØ«": 2475,
      "ĠØ¬Ø²Ø¡": 2476,
      "ĠÙĪØªØ´": 2477,
      "ÙĩÙĢ": 2478,
      "Ø¬Ø§ØŃ": 2479,
      "ĠØ¸ÙĩØ±": 2480,
      "Ø¦Ø§Ø³Ø©": 2481,
      "ĠØ¯Ø§Ø±": 2482,
      "ĠØ§ÙĦÙĤØ·Ø§Ø¹": 2483,
      "ĠØ§ÙĦØ¬ÙĩØ§Ø²": 2484,
      "ĠØ§ÙĦØ¯Ø¹": 2485,
      "ĠØŃÙĥÙħ": 2486,
      "ĠØ¨Ø§ÙĦØŃ": 2487,
      "Ø§Ø¹Ø±": 2488,
      "Ø±ÙĬØ¨Ø©": 2489,
      "ĠÙĦØ§ØŃ": 2490,
      "ĠØ§ÙĦØ°Ùī": 2491,
      "ÙĦÙĬÙģ": 2492,
      "ĠØ§ÙĦÙħØ§Ø¡": 2493,
      "ĠØ¨Ø°ÙĦÙĥ": 2494,
      "ĠØ´Ø§Ø¡": 2495,
      "ĠÙĪØºÙĬØ±ÙĩØ§": 2496,
      "ĠØ§ÙĦÙħØ´Ø§Ø±ÙĥØ©": 2497,
      "ĠØ£ÙĦ": 2498,
      "ĠÙħÙĪØ§ÙĤØ¹": 2499,
      "ĠØªØ¹Ø±Ø¶": 2500,
      "ĠØªÙĨÙģÙĬØ°": 2501,
      "ĠÙĬØ¹Ø¯": 2502,
      "ĠØ¨Ø§ÙĦÙĥ": 2503,
      "Ø®Ø¨": 2504,
      "ĠØŃØ¨": 2505,
      "ÙĪÙĬÙĦØ©": 2506,
      "ĠÙĬØ¹ØªØ¨Ø±": 2507,
      "ĠØªÙĩ": 2508,
      "ĠØ§ÙĦÙĦØ¨ÙĨ": 2509,
      "ĠØ¥ÙĬØ±Ø§ÙĨ": 2510,
      "ÙĬØªÙĩ": 2511,
      "ĠÙĥØ§ÙĦ": 2512,
      "ĠÙĪØ§Ø´": 2513,
      "Ø³ØªØ§Ø°": 2514,
      "ÙĦØ³ÙĦ": 2515,
      "ĠÙĪØ¨Ø§ÙĦØª": 2516,
      "Ø±ÙĬØ¹Ø©": 2517,
      "ĠØ§ÙĦÙħÙĤØ¯": 2518,
      "Ø±ÙĬÙĤÙĬØ§": 2519,
      "Ø±ÙĬØ¹": 2520,
      "ĠÙĦØ¹Ø¨Ø©": 2521,
      "ĠÙĥØ§ÙħÙĦ": 2522,
      "ĠÙĨØ³Ø¨Ø©": 2523,
      "ĠØ±ÙĬØ§ÙĦ": 2524,
      "Ø§ÙħÙĬÙĨ": 2525,
      "ĠØ§ÙĦØ¬Ø§Ùħ": 2526,
      "ÙĬØ±Ùĩ": 2527,
      "ĠØ§ÙĦØ·Ø±ÙĬÙĤ": 2528,
      "Ġ((": 2529,
      "ĠÙĬØ±ÙĬØ¯": 2530,
      "ĠØ®ÙĦÙģ": 2531,
      "ĠØ£ÙĥØ¯": 2532,
      "ĠØ§ÙĦÙħØ®ØªÙĦÙģØ©": 2533,
      "ĠÙĩØ¤ÙĦØ§Ø¡": 2534,
      "ĠØ§ÙĦÙĩÙĨØ¯": 2535,
      "Ø®Ùģ": 2536,
      "ÙĦØ¨ÙĬØ©": 2537,
      "Ġâ": 2538,
      "ĠØ§ÙĦØ´ÙĩØ±": 2539,
      "ĠÙĩÙĬØ¦Ø©": 2540,
      "ĠØ§ÙĦØ®Ø¯ÙħØ§Øª": 2541,
      "ĠÙħØ¹ÙĦÙĪÙħØ§Øª": 2542,
      "ÙħÙĩ": 2543,
      "ÙĬØ³ÙĬ": 2544,
      "Ø§Ø²ÙĦ": 2545,
      "14": 2546,
      "ĠÙĨØªØ§Ø¦Ø¬": 2547,
      "ïºİ": 2548,
      "Ø§Ø´Ø©": 2549,
      "ĠÙĪØ³Ø§Ø¦ÙĦ": 2550,
      "ØµØ¨ØŃ": 2551,
      "ĠØ§ÙĦÙħØ³Ø¤ÙĪÙĦ": 2552,
      "Ø²ÙĬÙĨ": 2553,
      "Ø§Ø¨Øª": 2554,
      "ĠØ§ÙĦØ¬Ø§ÙħØ¹Ø©": 2555,
      "ÙĬØ§Ø±Ø§Øª": 2556,
      "ØªØª": 2557,
      "ĠØªØ³Ùħ": 2558,
      "ØªÙĤØ§ÙĦ": 2559,
      "ï»Ł": 2560,
      "ĠØŃØµÙĦ": 2561,
      "ĠÙĪÙĬÙħÙĥÙĨ": 2562,
      "ĠØ§ÙĦØ¹Ø§ÙĦÙħÙĬ": 2563,
      "ĠI": 2564,
      "ĠØ§ÙĦØ£Ø±Ø¯": 2565,
      "ĠØ§ÙĦØ¨Ø¹Ø¶": 2566,
      "ĠØ§ÙĦØ³ÙĪØ¯Ø§ÙĨ": 2567,
      "ĠØ§ÙĦÙħÙĦÙģ": 2568,
      "ĠØ§ÙĦÙħØºØ±Ø¨": 2569,
      "ĠØ±Ø¬ÙĦ": 2570,
      "ĠØ±Ø³Ø§ÙĦØ©": 2571,
      "ÙĪØ§Ùħ": 2572,
      "ÙĬÙħØ§ÙĨ": 2573,
      "ĠØ¥Ø³Øª": 2574,
      "ĠØ§ÙĦÙĥÙĩØ±Ø¨": 2575,
      "ĠØ§ØªÙģØ§ÙĤ": 2576,
      "ĠØ§ÙĦÙģÙĬØ¯ÙĬÙĪ": 2577,
      "ĠÙĤØ§Ø¦ÙħØ©": 2578,
      "ĠÙĪØ«": 2579,
      "ĠØ§ÙĦØªØ§ÙĦÙĬ": 2580,
      "Ø´Ø§Ø±Ùĥ": 2581,
      "ĠÙĪÙģÙĤ": 2582,
      "ĠØ³Ø¨ÙĬÙĦ": 2583,
      "ĠÙħÙĦÙĬØ§Ø±": 2584,
      "ĠØ¥Ø¯": 2585,
      "ĠØ¨ÙĦØº": 2586,
      "ĠØ³ÙĬÙĥÙĪÙĨ": 2587,
      "ĠØ§ÙĦÙĪØ§ÙĤØ¹": 2588,
      "Ø±ÙĬØ³": 2589,
      "ĠØ´Ø¹Ø¨": 2590,
      "ĠØ§ÙĦØ£Ùĩ": 2591,
      "ĠØ§ÙĦØªØ±Ø¨ÙĬØ©": 2592,
      "ĠØŃØ³Ø§Ø¨": 2593,
      "ĠØ¢ÙĦ": 2594,
      "ĠØ³Ø¹Ø±": 2595,
      "Ø§Ø¨Ø³": 2596,
      "Ø´Ø±Ø§Øª": 2597,
      "Ø±ÙĬÙħØ©": 2598,
      "ĠØ§ÙĦØ¹ÙħÙĦÙĬØ©": 2599,
      "ĠL": 2600,
      "ÙĪØ§ØµÙĦ": 2601,
      "ĠØ§ÙĦØ³ÙĪØ±ÙĬØ©": 2602,
      "ĠØ§ÙĦØ¨ÙĦØ¯": 2603,
      "ÙĩÙĩ": 2604,
      "ĠØ§ÙĦØµÙĪØ±Ø©": 2605,
      "ĠØ§ÙĦÙħÙĤØ¨ÙĦ": 2606,
      "ĠØ¨Ø®": 2607,
      "ÙĩÙĪÙĦØ©": 2608,
      "ĠØªØµØ±ÙĬØŃ": 2609,
      "ĠE": 2610,
      "ĠÙħØŃÙħ": 2611,
      "re": 2612,
      "ØªØ§Ø²": 2613,
      "ĠÙħØ´Ø§ÙĩØ¯Ø©": 2614,
      "ĠØ«ÙĤ": 2615,
      "Ø±ÙĬØ¶": 2616,
      "ĠÙģÙĩÙĬ": 2617,
      "Ø³Ø§Ø¡": 2618,
      "ĠØ£ÙĨÙĪØ§Ø¹": 2619,
      "Ø¨Ø§ÙĦ": 2620,
      "Ø«Ø©": 2621,
      "Ø´Ø·Ø©": 2622,
      "Â»ØĮ": 2623,
      "ĠØ§ÙĦØ§ØŃØªÙĦØ§ÙĦ": 2624,
      "¡Ù": 2625,
      "ĠØ§ÙĦØ§Ùģ": 2626,
      "ĠØ§ÙĦÙĥÙĪÙĬØª": 2627,
      "ĠØ±ÙĪØ³ÙĬØ§": 2628,
      "Ø¶ÙĬÙģ": 2629,
      "ĠØ§ÙĦØµØŃØ©": 2630,
      "ĠØ¬ÙĨÙĪØ¨": 2631,
      "ĠØ·Ø§ÙĦØ¨": 2632,
      "ĠØ£Ø´ÙĩØ±": 2633,
      "ĠØ¯ÙĬ": 2634,
      "ÙĤÙĪÙħ": 2635,
      "Ø´ÙģÙī": 2636,
      "Ø¨Ø±Ø²": 2637,
      "Ø§Ø¹Ø´": 2638,
      "Ø§Ø¬Ø¦": 2639,
      "ĠØ®ÙĬØ±": 2640,
      "ĠÙħØ¹Ø¸Ùħ": 2641,
      "ĠØ§ÙĦØ³ÙĦØ·Ø©": 2642,
      "Ø¨Ø±Ùī": 2643,
      "Ø¨ÙĬÙĪØªØ±": 2644,
      "ĠØªØº": 2645,
      "ÙĲÙĳ": 2646,
      "ĠØ§ÙĦÙħÙĨØªØ¬": 2647,
      "ÙĪØ§Ø¯": 2648,
      "ĠØªØ·ÙĪÙĬØ±": 2649,
      "ÙĪØ±Ø§": 2650,
      "ĠØ§ÙĦÙĤÙĪØ§Øª": 2651,
      "ĠØªØ²": 2652,
      "ØµØ¨": 2653,
      "ĠØ§ÙĦÙħÙĪØ§Ø¯": 2654,
      "ĠØ§ÙĦØºØ°": 2655,
      "ĠØªØ¹ÙĦÙħ": 2656,
      "ÙģØ§Ø¸": 2657,
      "ĠÙħØ§Ø°Ø§": 2658,
      "ad": 2659,
      "ĠÙĥØ§ÙĨÙĪØ§": 2660,
      "ĠÙĬØ¬Ø¹ÙĦ": 2661,
      "ÙĪØ¹Ø¯": 2662,
      "Ø§ÙħÙĬØ©": 2663,
      "ĠØ§ÙĦÙĦØ§Ø¹Ø¨": 2664,
      "ĠØµØŃÙĬÙģØ©": 2665,
      "ĠØ§ÙĦØ´Ø±Ø·Ø©": 2666,
      "ĠØŃÙĬØ§Ø©": 2667,
      "ĠØ§ÙĦÙħÙĥØ§ÙĨ": 2668,
      "ĠØ¹ÙħÙĦÙĬØ§Øª": 2669,
      "Ø¨ÙĬØª": 2670,
      "ÙĪÙĦØ§Øª": 2671,
      "Ø§Ø·Ø±": 2672,
      "ĠØªØ±Ø§ÙħØ¨": 2673,
      "ĠÙĪØ£ÙĥØ¯": 2674,
      "ĠØ¨Ø³ÙĬ": 2675,
      "ĠØ§ÙĦÙħÙĨØ§Ø·ÙĤ": 2676,
      "ĠØ¨Ø±Ø§ÙħØ¬": 2677,
      "ĠÙħØµØ¯Ø±": 2678,
      "Ø§Ø´Ø±": 2679,
      "ĠØ§ÙĦÙħØ¹Ø¯": 2680,
      "ÙħØ¯ÙĬÙĨØ©": 2681,
      "ĠØ§ÙĦØ´Ùħ": 2682,
      "ĠÙĤØªÙĦ": 2683,
      "ou": 2684,
      "Ø¹ÙĦÙħ": 2685,
      "ĠØ§ÙĦÙĨÙģØ·": 2686,
      "ĠØ¨ÙĩØ°Ùĩ": 2687,
      "ĠØ±Ø§Ø¦Ø¹": 2688,
      "Ġ29": 2689,
      "ĠØªØ±ÙĥÙĬØ§": 2690,
      "ĠØ§ÙĦØ¬Ø±": 2691,
      "ĠØ®ÙĦ": 2692,
      "ĠØ§ÙĦÙĥØ¨ÙĬØ±": 2693,
      "ĠØ§ÙĦØ¬Ø²Ø§Ø¦Ø±": 2694,
      "Ø±ÙĬÙĥØ§": 2695,
      "ĠÙħØŃØ¯": 2696,
      "Ø±ÙĬØ¯Ø©": 2697,
      "ĠØ§ÙĦØ§Ø¯": 2698,
      "ÙĩØ§Ùħ": 2699,
      "ĠØ£ÙĤÙĦ": 2700,
      "ĠØ¨Ø£ÙĨÙĩ": 2701,
      "ĠØ§ÙĦÙĪØ·ÙĨ": 2702,
      "ĠØ§ÙĦÙħØ·ÙĦ": 2703,
      "ĠØ§ÙĦØªØ¹Ø§ÙĪÙĨ": 2704,
      "ØŃÙĬÙĨ": 2705,
      "Ø§ÙģØŃØ©": 2706,
      "ĠØ§ÙĦÙģÙĨ": 2707,
      "ĠØ§ÙĦØªÙħ": 2708,
      "Ø§ÙģØ¹": 2709,
      "ĠÙģÙĬØ¯ÙĬ": 2710,
      "ĠÙĪÙĤØ§ÙĦØª": 2711,
      "ĠØ¥Ø·Ø§Ø±": 2712,
      "ĠØ§ÙĦØ§ÙĪÙĦ": 2713,
      "ØµØ±ÙĬ": 2714,
      "ĠÙĤÙĦØ¨": 2715,
      "Ø¹ÙĦÙĨØª": 2716,
      "ĠØ§ÙĦÙĤÙĨ": 2717,
      "ĠØ£Ø±Ø¶": 2718,
      "ĠØ³ÙĬØ¯": 2719,
      "ĠÙĦÙĥÙĬ": 2720,
      "ĠÙĪØº": 2721,
      "ĠØ§ÙĥØª": 2722,
      "ĠØ§ÙĦØ£Øµ": 2723,
      "Ø§Ø¶ÙĬØ¹": 2724,
      "ĠØ£Ø³Ø§Ø³": 2725,
      "Ø§Ø¦Ø²Ø©": 2726,
      "ĠØ®Ø¨Ø±": 2727,
      "ĠØ§ÙĦÙĤØ±Ø§Ø±": 2728,
      "ĠØ§ÙĦØŃØ§ÙĦÙĬ": 2729,
      "18": 2730,
      "ĠÙģØ§ÙĨ": 2731,
      "Ø¶ØŃ": 2732,
      "ÙĪØ§Ùĩ": 2733,
      "ĠØ¨Ø§ÙĦÙĦ": 2734,
      "ĠØ¬ÙĬØ¯": 2735,
      "ĠØ§ÙĦØ£ÙħÙħ": 2736,
      "Ġ>": 2737,
      "ĠØ§ÙĦÙĤØµ": 2738,
      "ĠØ§ÙĦÙĤØ¯Ø³": 2739,
      "Ø´Ø§Ø±ÙĥØ©": 2740,
      "ĠØ§ÙĦÙĪØµÙĪÙĦ": 2741,
      "ÙĪØ¬ÙĬÙĩ": 2742,
      "Ġ100": 2743,
      "ÙĥØ°Ø§": 2744,
      "ĠØ§ÙĦØ·Ø§ÙĤØ©": 2745,
      "ĠØ¯Ø±Ø§Ø³Ø©": 2746,
      "ĠÙĪÙĪ": 2747,
      "Ø§Ø±Ùĩ": 2748,
      "ĠÙĤÙħ": 2749,
      "Ġ!!": 2750,
      "ĠØ§ÙĦÙĪØŃ": 2751,
      "ĠØ§ÙĦØ§ÙĤØªØµØ§Ø¯ÙĬØ©": 2752,
      "ĠÙħØ·ÙĦ": 2753,
      "Ø±Ø§Ø¹": 2754,
      "ĠØ§ÙĦØ¥ÙĬØ±": 2755,
      "ĠØ§Ø±ØªÙģØ§Ø¹": 2756,
      "ĠÙĦÙĩØ°Ùĩ": 2757,
      "ĠÙĦÙĦÙħÙĨ": 2758,
      "ĠÙĦÙħØ§Ø°Ø§": 2759,
      "ĠÙĥØ£Ø³": 2760,
      "ĠØ§ÙĦØ®Ø±": 2761,
      "ĠÙĪÙĦÙĪ": 2762,
      "ĠÙĬÙĤØ¯Ùħ": 2763,
      "ĠØ§ÙĦØ£Ø³Ø¨ÙĪØ¹": 2764,
      "ĠÙĤØ§ÙĦØª": 2765,
      "ÙĪØ§ÙĨÙĬÙĨ": 2766,
      "ĠØ§ÙĦÙĩÙĬØ¦Ø©": 2767,
      "ĠØ¯ÙģØ¹": 2768,
      "ØªØ¯Ø§Ø¡": 2769,
      "ÙĪØº": 2770,
      "ĠØªØŃØ¯ÙĬØ¯": 2771,
      "ĠØªØºÙĬÙĬØ±": 2772,
      "Ø¯ÙĬÙĤ": 2773,
      "ĠØ´ÙĩØ¯": 2774,
      "ĠÙĬÙĨØª": 2775,
      "ĠØ¨Ø§ÙĦØ´": 2776,
      "ØªØ§": 2777,
      "Ø¥Ø°Ø§": 2778,
      "ĠØ§ÙĦÙħØ±ØŃÙĦØ©": 2779,
      "ĠØ§ÙĦÙħØ¹Ø§Ø±": 2780,
      "ÙĪØ¬ÙĪØ¯Ø©": 2781,
      "ĠØ¶Ø¹": 2782,
      "ĠÙĥØ«ÙĬØ±Ø©": 2783,
      "Ø¯Ø§Ø¡": 2784,
      "ĠØ§ÙĦØ§Ø³ÙĦØ§Ùħ": 2785,
      "ĠÙĪØ§Øª": 2786,
      "ĠÙĤÙĪ": 2787,
      "ĠÙĪØ§ÙĤ": 2788,
      "Ġ199": 2789,
      "Ø¬Ø¹": 2790,
      "Ø§Ø·Ùģ": 2791,
      "ĠØ§Ø®ØªÙĬØ§Ø±": 2792,
      "ĠØ¯Ø¨ÙĬ": 2793,
      "ĠÙĪØ¨Ø§ÙĦ": 2794,
      "ÙĬÙĦÙĬ": 2795,
      "ĠØ¥Ø¹Ø§Ø¯Ø©": 2796,
      "ÙĦØ§ÙħØ©": 2797,
      "ĠØ§ÙĦØ¥Ø¯Ø§Ø±Ø©": 2798,
      "ĠØ§ÙĦØ¹ÙĦØ§ÙĤØ§Øª": 2799,
      "ĠØ§ÙĦÙħØ§Ø¯Ø©": 2800,
      "ĠØ§ÙĦÙĨØµ": 2801,
      "ĠØ§ÙĦØ´Ø®ØµÙĬØ©": 2802,
      "ĠØ§ÙĦÙģÙĦØ³Ø·ÙĬÙĨÙĬ": 2803,
      "ĠØ§ÙĦØµÙĦØ§Ø©": 2804,
      "ĠÙĪØ§ÙĦØ·": 2805,
      "ĠØ§ÙĦØ²ÙĪØ¬": 2806,
      "ĠØªÙħØ§ÙħØ§": 2807,
      "ĠÙģÙĬÙĦÙħ": 2808,
      "ĠØªÙĤØ±ÙĬØ±": 2809,
      "ĠØ§ÙħØ±": 2810,
      "el": 2811,
      "ĠÙħØŃØ§ÙģØ¸Ø©": 2812,
      "ÙĨÙģ": 2813,
      "ĠØ§ÙĦØ£ÙĦÙħ": 2814,
      "ĠØ§ÙĦØ¹Ø³ÙĥØ±ÙĬØ©": 2815,
      "ĠØ§ÙĦØ¹Ø§ØµÙħØ©": 2816,
      "ØªÙħØ§Ø¯": 2817,
      "ĠØ±ÙģØ¶": 2818,
      "ÙĩÙĬØ±": 2819,
      "Ø§ÙĦÙĬØ§": 2820,
      "Ø¨Ø±Ø©": 2821,
      "ĠÙĦÙĦØºØ§ÙĬØ©": 2822,
      "ÙĨØ³Ø§": 2823,
      "ï´": 2824,
      "ÙĪØ§Ø²": 2825,
      "ĠÙĦÙĦØ¬": 2826,
      "ĠØªØµÙĦ": 2827,
      "ĠØ§ÙģØ¶ÙĦ": 2828,
      "ÙĬÙĦØ§Øª": 2829,
      "ĠÙĪØ£Ø´Ø§Ø±": 2830,
      "ĠÙĪÙĬØ±": 2831,
      "ĠÙĪØ¹ÙĨØ¯": 2832,
      "Ø§Ø¨Ø¯": 2833,
      "ĠØ§ÙĦØ¨Ø±ÙĬØ·": 2834,
      "Ø®Ø¨Ø§Ø±": 2835,
      "ĠÙĬØµÙĦ": 2836,
      "ot": 2837,
      "ĠØ§ÙĦØ¥ÙħØ§Ùħ": 2838,
      "ĠØ§ÙĦÙħØ¬Ø§ÙĦ": 2839,
      "ØªÙĦØ§Ùģ": 2840,
      "Ø§ÙģØ³": 2841,
      "ĠØ§ÙĦÙĤØ±ÙĨ": 2842,
      "ÙĪØ²ÙĬØ¹": 2843,
      "Ø§Ø²ÙħØ©": 2844,
      "ĠØ¨Ø§ÙĦØ¯": 2845,
      "ĠÙĪÙħØ±": 2846,
      "ĠØ§ÙĦÙĨÙĪ": 2847,
      "ĠÙĪØ§Ø®": 2848,
      "15": 2849,
      "ĠÙĪÙĩÙħ": 2850,
      "Ø§Ø±Ø³Ø©": 2851,
      "ĠØ§ÙĦÙħØŃÙĦÙĬØ©": 2852,
      "ĠØ£Ø®Ø¨Ø§Ø±": 2853,
      "ÙĬÙħÙĬ": 2854,
      "ĠÙĪÙĩØ°Ùĩ": 2855,
      "ĠØ£Ø±Ø¨": 2856,
      "Ø¬Ø§Ø¨": 2857,
      "ĠØ§ÙĦÙĪØ±": 2858,
      "ĠØ¬ÙĨÙĬÙĩ": 2859,
      "ĠØ§ÙĦØµÙĬÙĨ": 2860,
      "Ø±ÙĬØ§Øª": 2861,
      "ĠØ§ÙĦÙĨØ§Ø±": 2862,
      "ĠÙĨÙĤØ·Ø©": 2863,
      "ĠÙĦØªÙĨ": 2864,
      "ĠÙħØµØ§Ø¯Ø±": 2865,
      "ĠØ®Ø¯ÙħØ§Øª": 2866,
      "Ø¶Ø¨": 2867,
      "ĠØ§ÙĦØ§Øµ": 2868,
      "ĠØ´Ø±ÙĥØ§Øª": 2869,
      "ĠW": 2870,
      "ĠÙĪØŃØªÙī": 2871,
      "ÙħÙħ": 2872,
      "ĠÙĦÙĦØ·": 2873,
      "ÙĪÙĬØªØ±": 2874,
      "ĠN": 2875,
      "ĠÙĤØ·Ø±": 2876,
      "ĠÙĪØ³ÙĬ": 2877,
      "ĠÙĤÙĦÙĬ": 2878,
      "ĠÙħØ§Ø±": 2879,
      "ĠØŃØ¬Ùħ": 2880,
      "ĠØ§ÙĦØ¹ÙħØ±": 2881,
      "Ø´Ø§Ø±Ø©": 2882,
      "ĠÙĦØ§Ø¹Ø¨": 2883,
      "Ø¯Ø±Ø³": 2884,
      "ĠØ²ÙĬØ§Ø±Ø©": 2885,
      "ÙĤØ±Ø±": 2886,
      "ÙĥÙĨÙĪÙĦÙĪØ¬ÙĬØ§": 2887,
      "ĠØ£Ø³Ø¹Ø§Ø±": 2888,
      "ĠØ¨Ø³Ø±": 2889,
      "ĠØ¨Ø´Ø±": 2890,
      "Ø®ØµÙĪØµ": 2891,
      "ĠØ£Ø¹ÙĦÙĨ": 2892,
      "ĠÙĦØ¬": 2893,
      "ĠÙĤÙĪÙĦÙĩ": 2894,
      "ĠÙħØªÙĨ": 2895,
      "16": 2896,
      "ĠØ§ÙĦØ¥Ø³ÙĦØ§ÙħÙĬ": 2897,
      "ĠØ§ÙĦØ¥Ø³Ø±Ø§Ø¦ÙĬÙĦÙĬ": 2898,
      "ĠØ¹Ø¶ÙĪ": 2899,
      "ĠØ¬ÙĩØ©": 2900,
      "Ø´Ø¯": 2901,
      "ĠØ®Øµ": 2902,
      "ĠÙĦÙĦØ±": 2903,
      "ĠÙĤÙĦ": 2904,
      "ĠÙĪØ§ÙĦÙħØ³": 2905,
      "ĠØ£Ùĩ": 2906,
      "Ø·ÙĪÙĬØ±": 2907,
      "ĠØ§ÙĦØ¥ÙĨØªØ±ÙĨØª": 2908,
      "ĠÙĬØŃØ¯Ø«": 2909,
      "ĠØ§ÙĦÙħØ¯ÙĨÙĬ": 2910,
      "ĠØ§ÙĦØ³Ø§Ø¨ÙĤØ©": 2911,
      "ĠÙĪØ¹ÙĨ": 2912,
      "Ø§ÙĬØª": 2913,
      "ĠØ§ÙĦØ£ÙħÙĪØ±": 2914,
      "Ø¦ÙĦØ©": 2915,
      "ĠÙĥÙĬÙģÙĬØ©": 2916,
      "ĠØ§ÙĦØ¯ÙĪØ±ÙĬ": 2917,
      "ÙĤØ¨Ø§ÙĦ": 2918,
      "ĠØ§ÙĦØªØ¹Ø§ÙħÙĦ": 2919,
      "ĠØ¨ØŃØ«": 2920,
      "Ø§ÙĦÙĬØ§Øª": 2921,
      "ĠØ§ÙĦØŃØ¯ÙĪØ¯": 2922,
      "ed": 2923,
      "ĠØ£ÙĦÙħ": 2924,
      "ĠØ¹ÙĬÙĨ": 2925,
      "ĠØ§ÙĦØ¥Ø¯": 2926,
      "ĠÙħØ±Ø¶": 2927,
      "Ø¸Ø§Ø±": 2928,
      "ĠØ³ÙĪÙĤ": 2929,
      "ĠÙĤÙĪØ©": 2930,
      "ĠØ¨Ø¯Ø£Øª": 2931,
      "ĠÙĪØ§ÙĦØ§ÙĨ": 2932,
      "ØªÙĦÙĥ": 2933,
      "ÙĪØ±Ùĩ": 2934,
      "Ø®Ø¯ÙħØ©": 2935,
      "Ø§ÙĥØ²": 2936,
      "ĠØ¹ÙĦÙĬÙĨØ§": 2937,
      "ĠØ§ÙĦÙħØ±Ø¶": 2938,
      "ĠØ¨ÙĦØ§": 2939,
      "ĠØ§ÙĦØ§ØªÙģØ§ÙĤ": 2940,
      "ĠØ´Ùĥ": 2941,
      "ĠØ³ÙĬÙĨ": 2942,
      "ĠÙĨÙģØ³ÙĩØ§": 2943,
      "ĠÙħØ¯Ùī": 2944,
      "ĠØ´Ø¨ÙĥØ©": 2945,
      "ĠÙĤÙĨØ§Ø©": 2946,
      "ÙĬÙĤØ©": 2947,
      "ĠØ¨Ø§Ø¹": 2948,
      "ĠÙĥÙĪÙĨ": 2949,
      "ĠØ§ÙĬØ¶Ø§": 2950,
      "ĠÙĨØ§Ø¯ÙĬ": 2951,
      "ĠØ§ÙĦØ·ÙĦØ§Ø¨": 2952,
      "ÙĬØ§ÙĨØ©": 2953,
      "ĠØ§ÙĦØ³ÙĬØ§Ø±Ø§Øª": 2954,
      "ĠØ¹ÙĦÙĬÙĥÙħ": 2955,
      "ĠØ§ÙĦØ¯ÙĬÙħÙĤØ±Ø§Ø·": 2956,
      "ĠÙģÙĩÙħ": 2957,
      "ĠØ§ÙĦØŃÙĬÙĪ": 2958,
      "ĠØ±Ø¶ÙĬ": 2959,
      "ĠÙĪØ¨Ø±": 2960,
      "Ø±Ùħ": 2961,
      "Ø¹Ø§Ø¯": 2962,
      "ĠØ§ÙĦØ§ÙĨØªØ®Ø§Ø¨Ø§Øª": 2963,
      "ĠØ§ÙĦØ¬ÙĦ": 2964,
      "ĠØµØºÙĬØ±Ø©": 2965,
      "ĠØ£Ø¹Ø¶Ø§Ø¡": 2966,
      "ĠØ´ÙħØ§ÙĦ": 2967,
      "ĠØµØŃÙĬØŃ": 2968,
      "ĠÙĨØ²": 2969,
      "ĠØ£ÙĩÙħÙĬØ©": 2970,
      "Ø§ÙĦØº": 2971,
      "ÙĪØ§ÙĬØ©": 2972,
      "ĠÙģÙħÙĨ": 2973,
      "Ġ....": 2974,
      "ĠØ·ÙĪÙĬÙĦØ©": 2975,
      "ĠØ§ÙĦØ²Ø±": 2976,
      "Ø±Ø§ØªÙĬØ¬ÙĬØ©": 2977,
      "ĠÙĦØ§Øª": 2978,
      "ĠØ¨ÙĦØ¯": 2979,
      "Ø§Ø±Ø§": 2980,
      "ĠØ§ÙĦØŃØ±ÙĥØ©": 2981,
      "ĠØ³Ø¨ØŃ": 2982,
      "ĠØªØµÙħÙĬÙħ": 2983,
      "ĠØ§ÙĦØªØ¬Ø§Ø±ÙĬØ©": 2984,
      "ĠØ¨Ø§Ø³ØªØ®Ø¯Ø§Ùħ": 2985,
      "Ø¬ÙĦÙĬØ²ÙĬØ©": 2986,
      "ĠÙĪØ¹Ø¯Ùħ": 2987,
      "ĠØ§ÙĦÙħÙĥ": 2988,
      "ĠÙħÙĥØª": 2989,
      "ØªØ±Ø§Ùĥ": 2990,
      "ĠÙħÙĨØ§Ø·ÙĤ": 2991,
      "ĠØ¨ÙĬØ±": 2992,
      "ĠÙģÙĬØ¯ÙĬÙĪ": 2993,
      "ĠØŃØ§ÙĦÙĬØ§": 2994,
      "ĠØ¨Ø¯Ø£": 2995,
      "ĠÙĦØ·": 2996,
      "ĠØ±Ø¨ÙħØ§": 2997,
      "ĠÙĦÙĦØ§Ø³Øª": 2998,
      "ĠØ§ÙĦØ§Ø«ÙĨÙĬÙĨ": 2999,
      "Ø°ÙĬØ©": 3000,
      "ĠØ§ÙĦÙĤÙĦØ¨": 3001,
      "ĠÙħÙĪÙĤÙģ": 3002,
      "ĠØ£ÙħÙĬØ±": 3003,
      "ĠØ§ÙĦÙħØ¤ØªÙħØ±": 3004,
      "ĠÙĤØ§ÙħØª": 3005,
      "ĠØ¯Ø®ÙĦ": 3006,
      "ĠØ§ÙĦØµØŃÙĬØ©": 3007,
      "ĠÙĤÙĬÙħØ©": 3008,
      "ĠÙħØ´ÙĥÙĦØ©": 3009,
      "ĠØµØ§ÙĦØŃ": 3010,
      "ĠØªØ¹ØªØ¨Ø±": 3011,
      "Ø§ÙĤØ¨Ø©": 3012,
      "ĠØ¥Ø·ÙĦØ§ÙĤ": 3013,
      "Ø§Ø¦Ø©": 3014,
      "ĠÙĪØªØ³": 3015,
      "ĠØ§ÙĦØ³Ø§Ø¯": 3016,
      "ĠØ³Ø¨Ø¨": 3017,
      "ĠØ§ÙĦØ±ÙĤÙħ": 3018,
      "ÙģÙĩ": 3019,
      "Ø¹Ø±Ùģ": 3020,
      "ĠØ¥ØŃØ¯Ùī": 3021,
      "ĠØ§ÙĦÙģÙĨØ§ÙĨ": 3022,
      "ĠÙĪØ§ÙĦÙħØ±": 3023,
      "ÙĪÙĩØ§": 3024,
      "ĠØ§ÙĦØ¶Ø±": 3025,
      "ĠØ£Ø¹ÙĦÙĨØª": 3026,
      "ØŃØ¯ÙĬØ«": 3027,
      "ĠØªØŃØªØ§Ø¬": 3028,
      "ÙĪØ§Ø¦Ø¯": 3029,
      "ĠØŃÙĬ": 3030,
      "ĠØ§ÙĦØ´ÙħØ³": 3031,
      "ĠØ§ÙĦÙħÙĨØ²ÙĦ": 3032,
      "ĠØ§ÙĦÙħÙĪØ§Ø·ÙĨÙĬÙĨ": 3033,
      "ĠØ§ÙĨÙĩØ§": 3034,
      "Ø³Ø¯": 3035,
      "Ø§ØªÙĬ": 3036,
      "ÙĤÙĬØ©": 3037,
      "ÙĨØ¯ÙĪÙĤ": 3038,
      "Ø¯ÙĬØ§Øª": 3039,
      "ÙħÙĪØ°": 3040,
      "ÙĪØ³Ùģ": 3041,
      "ÙĤÙĪÙĤ": 3042,
      "ĠÙĪÙħØŃ": 3043,
      "ÙĨØ³ÙĬÙĤ": 3044,
      "ĠØªØŃØ¯Ø«": 3045,
      "is": 3046,
      "ro": 3047,
      "Ø¨ÙĬØ¨": 3048,
      "ĠØ§ÙĦÙĤÙĬØ§Ùħ": 3049,
      "ĠÙĬØ³ØªØ·ÙĬØ¹": 3050,
      "Ø±ÙĬØ§Ø¶": 3051,
      "ĠØ§ÙĦØ®Ø¯ÙħØ©": 3052,
      "ĠØ¹Ø±Ùģ": 3053,
      "Ø³ÙħØ§Ø¡": 3054,
      "Ø³ØªØ®Ø¯Ùħ": 3055,
      "ĠØºØ±ÙģØ©": 3056,
      "Ø§ÙĦØ¹": 3057,
      "ÙĦØ¹Ø§Ø¨": 3058,
      "ĠÙĪØ³Øª": 3059,
      "ĠØ¨Ø§ÙĦØ±": 3060,
      "ĠØ¹ÙĦØ§Ø¬": 3061,
      "ĠØ§ÙĦÙħÙĪØ³Ùħ": 3062,
      "ĠØ§ÙĦØ¹ÙĦØ§Ø¬": 3063,
      "ĠØªØŃÙħÙĦ": 3064,
      "et": 3065,
      "ĠÙĩØ§ØªÙģ": 3066,
      "13": 3067,
      "Ø®ØµØµØ©": 3068,
      "ĠØ§ÙĦØªØ§ÙĦÙĬØ©": 3069,
      "ÙĪÙĨØ§": 3070,
      "ĠÙħØ¨Ø§Ø´Ø±": 3071,
      "ĠØ£ØµØŃØ§Ø¨": 3072,
      "ÙĬÙģØ§": 3073,
      "ÙģÙĬØ¯": 3074,
      "ĠØ®ÙĦÙĤ": 3075,
      "ĠØ±Ø§Ø¦Ø¹Ø©": 3076,
      "ĠØ¥Ø¨Ø±": 3077,
      "ĠÙĬØªØ¹ÙĦÙĤ": 3078,
      "ĠÙĦØº": 3079,
      "Ø§ÙħÙĨ": 3080,
      "ĠØŃÙħÙĦ": 3081,
      "ĠÙħÙĬÙĦ": 3082,
      "ÙĪØªÙĬ": 3083,
      "ĠÙĪØ§ÙĦØ«": 3084,
      "ĠØ¨ÙĩØ¯Ùģ": 3085,
      "ĠØ¨Ø§ÙĦØ·": 3086,
      "ĠÙħÙħÙĥÙĨ": 3087,
      "ĠÙĪØ¥Ø°Ø§": 3088,
      "Ġ50": 3089,
      "Ø´Ø§Ùģ": 3090,
      "com": 3091,
      "ĠÙĥÙĬ": 3092,
      "ĠÙĨØ§Ø¦Ø¨": 3093,
      "ĠØŃÙĪØ§ÙĦÙĬ": 3094,
      "ÙħÙĨØ©": 3095,
      "Ø§Ø§Ø§Ø§": 3096,
      "Ø¬Ø§Ø¬": 3097,
      "ÙĦÙĬØ¨": 3098,
      "ÙĥÙĬØ±": 3099,
      "ĠÙĪÙħØ³": 3100,
      "ĠÙĪÙģÙĤØ§": 3101,
      "ĠÙĬØ£ØªÙĬ": 3102,
      "ÙĩØ°Ø§": 3103,
      "ĠØ§ÙĦÙħØ¨Ø§Ø±Ø§Ø©": 3104,
      "25": 3105,
      "ĠØµÙĪØª": 3106,
      "ĠØ§ÙĦØ®ÙĦÙĬØ¬": 3107,
      "Ø¶Ùī": 3108,
      "ÙģÙĪ": 3109,
      "ĠÙħÙĨØªØ¯Ùī": 3110,
      "ĠÙĨØµÙģ": 3111,
      "ĠØ¨ØŃÙĬØ«": 3112,
      "ĠØ®Ø§ÙĦØ¯": 3113,
      "ĠØ®ØµÙĪØµ": 3114,
      "ĠØ§ÙĦÙħØ³ØªÙĤØ¨ÙĦ": 3115,
      "ĠÙĪÙĥØ§ÙĦØ©": 3116,
      "ĠØŃØ±Ø¨": 3117,
      "17": 3118,
      "ĠØ§ÙĦØ«Ø§ÙĨ": 3119,
      "Ø§Ø±ÙĤ": 3120,
      "ĠØ§ÙĦÙĩØ§ØªÙģ": 3121,
      "ĠØ§ÙĦØ¬ÙħÙĩÙĪØ±ÙĬØ©": 3122,
      "ĠÙĥÙĦÙĬØ©": 3123,
      "ĠÙĪÙĬØ³": 3124,
      "Ø²ÙĪØ¬": 3125,
      "Ø³ÙĪÙĨ": 3126,
      "ĠØªØ£Ø«ÙĬØ±": 3127,
      "ĠØªØŃØ±": 3128,
      "Ø§ØŃØ¸": 3129,
      "ĠØ§ÙĦÙĪØ¶Ø¹": 3130,
      "ĠØ§ÙĦØ£ÙĪØ³Ø·": 3131,
      "ĠØªÙĦÙĤ": 3132,
      "ĠØ³ÙĬØªÙħ": 3133,
      "ĠØ§ÙĦØŃØ²Ø¨": 3134,
      "ÙĦØ³ÙĦØ©": 3135,
      "ĠØ§ÙĦØ¯Ø±Ø§Ø³Ø©": 3136,
      "ÙĨØ§Øª": 3137,
      "ÙĪÙĦÙĬØ©": 3138,
      "ĠØ§ÙĦØ¨ÙĬØ§ÙĨØ§Øª": 3139,
      "ĠØ£Ø¹ÙĦÙī": 3140,
      "ĠØ§ÙĦØ±ØºÙħ": 3141,
      "ØŃØ¯ÙĬØ¯": 3142,
      "ĠÙħØ¹Ø§": 3143,
      "ĠØ§ÙĦÙħØ§Ø¶ÙĬØ©": 3144,
      "ĠØªØ¬Ø§Ùĩ": 3145,
      "ÙĦØ§ÙĤ": 3146,
      "ĠØ¨ÙĨÙĬ": 3147,
      "ÙħÙĪØ°Ø¬": 3148,
      "ĠÙĦØ°Ø§": 3149,
      "Ø¹Ø§ÙħÙĦ": 3150,
      "Ø²ÙĨ": 3151,
      "ĠØ¯ÙĤÙĬÙĤØ©": 3152,
      "ac": 3153,
      "Ø§ÙĩØªÙħØ§Ùħ": 3154,
      "ĠØ§ÙĦÙĥÙħ": 3155,
      "ÙĬØ§Ø¨": 3156,
      "ĠØ§ÙĦØ¹ÙĦÙĬØ§": 3157,
      "ĠØ§ÙĦØ§Ø¬": 3158,
      "24": 3159,
      "as": 3160,
      "ĠÙĬØ¨Ø¯ÙĪ": 3161,
      "ØªØ±Ø§": 3162,
      "ĠØ§ÙĦÙĨÙĪØ¹": 3163,
      "ÙĪÙĬØ³": 3164,
      "Ø´Ø§Ø·": 3165,
      "ĠØ§ÙĦÙħØŃØª": 3166,
      "ÙĪØ±Øª": 3167,
      "ĠØ§Ø®Øª": 3168,
      "ĠÙĪØ§ÙĦÙĦÙĩ": 3169,
      "Ø®Ø§Ø°": 3170,
      "ĠØ§ÙĦØ¬Ø§ÙĨØ¨": 3171,
      "ĠÙģØ¥ÙĨÙĩ": 3172,
      "ĠØªÙĤÙĪÙĦ": 3173,
      "ĠÙħÙĨØ¸ÙħØ©": 3174,
      "ĠØ³ÙĪÙī": 3175,
      "ĠØ³Ø¬ÙĦ": 3176,
      "Ø°ÙĨ": 3177,
      "il": 3178,
      "ØµØ§ÙĦØ§Øª": 3179,
      "ĠØ¹Ø´": 3180,
      "ÙĤÙĬÙĤÙĬ": 3181,
      "ÙĪÙĤØ§Øª": 3182,
      "ĠÙħØ¤ØªÙħØ±": 3183,
      "ĠÙĬØŃØªØ§Ø¬": 3184,
      "ØŃÙĩ": 3185,
      "ĠÙĤØ§Ø¦": 3186,
      "ĠØ±Ø¬Ø§ÙĦ": 3187,
      "ĠØ¨ØŃØ³Ø¨": 3188,
      "ĠØ§ÙĦØ·Ø±ÙĤ": 3189,
      "ĠØ£Ø³Ø±": 3190,
      "ĠØ§ÙĦÙħØ³ØªØ®Ø¯Ùħ": 3191,
      "ĠØ§ÙĦØ¬Ø²Ø¡": 3192,
      "ĠØ§ÙĦØ¨Ø§Ø¨": 3193,
      "ĠÙĪØªØ£": 3194,
      "ĠØªÙĥÙĨ": 3195,
      "ĠÙĤØ·": 3196,
      "ĠÙģØ³": 3197,
      "ĠØ¨ÙĨØ³Ø¨Ø©": 3198,
      "ĠÙħØ±Ø§Øª": 3199,
      "Ø§Ø¨ÙĦØ©": 3200,
      "ĠÙĪØ§ÙĦØº": 3201,
      "ĠÙħÙĨØªØ¬": 3202,
      "ĠÙĪØ¨Ø§ÙĦØªØ§ÙĦÙĬ": 3203,
      "ĠÙħÙĤØ¯": 3204,
      "ĠØ§ÙĦØ¹Ø²ÙĬØ²": 3205,
      "ĠØ§ÙĦÙĥØ¨": 3206,
      "ĠØªÙĪÙģÙĬØ±": 3207,
      "ĠÙĪØ±Ø¯": 3208,
      "ÙĪÙĪÙĪÙĪ": 3209,
      "ØªØ®Ø¨": 3210,
      "Ø§ÙĪØ¶": 3211,
      "Ø±ÙģØ¶": 3212,
      "ĠÙĦÙĥØ±Ø©": 3213,
      "ÙĪØªÙĬÙĨ": 3214,
      "ĠØ§ÙĦØ¯ÙĨÙĬØ§": 3215,
      "ÙĪØ§Ø·": 3216,
      "ĠÙĨØ¹Ùħ": 3217,
      "ĠÙĦÙĦØ¹ÙħÙĦ": 3218,
      "ĠÙħÙĦÙĥ": 3219,
      "ĠØ´ÙĬØ¦Ø§": 3220,
      "ĠØ´Ø¹Ø±": 3221,
      "ĠØ³Ø¹ÙĪØ¯": 3222,
      "ÙĤØ§Ø¦ÙĤ": 3223,
      "ÙĩÙĬÙĦ": 3224,
      "ĠØ§ÙĦØ¹ÙĦÙħÙĬØ©": 3225,
      "ÙĦØ³Ø©": 3226,
      "ĠØ§ÙĦÙħØµØ¯Ø±": 3227,
      "Ø§ÙĦØ§": 3228,
      "ĠØ¨Ø§ÙĦØ¬": 3229,
      "ĠÙĤØµØ©": 3230,
      "ĠÙħØ±ØŃÙĦØ©": 3231,
      "ÙĩØ±Ø¬Ø§ÙĨ": 3232,
      "ĠØ§ÙĦØ³ÙĦØ·Ø§Øª": 3233,
      "ÙģÙĬØ§Øª": 3234,
      "ĠØªØ¹ÙĦÙĬÙħ": 3235,
      "ĠØ¨ÙĤÙĬ": 3236,
      "ĠÙĪØ§ÙĦØªÙĨ": 3237,
      "ĠØ£ÙĨÙĩÙħ": 3238,
      "ÙĪÙģÙĬ": 3239,
      "ĠØ¹ÙĦØ§ÙĤØ©": 3240,
      "Ø§Ø±Ø¨Ø©": 3241,
      "ĠÙħØ¹ÙĩØ§": 3242,
      "ĠÙħÙĥØªØ¨": 3243,
      "ĠØŃÙĥÙĪÙħØ©": 3244,
      "ĠØ§ÙĦØ®ÙĦ": 3245,
      "ĠØ¨ÙĬØ¹": 3246,
      "Ø®ÙģØ¶": 3247,
      "ĠÙĦÙĤØ§Ø¡": 3248,
      "ĠØ§ÙĦØ«ÙĪØ±Ø©": 3249,
      "Ø¹Ø±Ø§Ø¶": 3250,
      "Ø§Ø¦Ø²": 3251,
      "ĠØ§ÙĦÙģØµÙĦ": 3252,
      "Ø§Ø±ÙĨØ©": 3253,
      "ĠÙĤØ¶ÙĬØ©": 3254,
      "Ø¨ÙĬÙĩ": 3255,
      "ĠØ§ÙĦØ£ÙĥØ«Ø±": 3256,
      "ĠØ§ÙĦØ¥Ø³Øª": 3257,
      "ĠØ§ÙĦØ¹Ø¶": 3258,
      "ĠÙĬÙħÙĨ": 3259,
      "ÙĦØ§ÙĨ": 3260,
      "ĠØ³Ùģ": 3261,
      "ĠØ£ÙĪØ±ÙĪØ¨Ø§": 3262,
      "ĠØ§ÙĦØ¯ÙĪØ±": 3263,
      "ĠO": 3264,
      "ĠÙĦØ¯ÙĬÙĨØ§": 3265,
      "ĠØ³Ø¹ÙĬØ¯": 3266,
      "ØªØ±Ùģ": 3267,
      "ĠØ§ÙĦØ£Ø¨": 3268,
      "ĠØ§ÙĦÙħÙĪØ§ÙĤØ¹": 3269,
      "ÙĬØ¨Ø©": 3270,
      "Ø§ÙĪÙħØ©": 3271,
      "ÙĨÙĬÙģ": 3272,
      "ØªÙĩÙĬ": 3273,
      "ĠÙĬØº": 3274,
      "ĠØ§ÙĦØºØ±Ø¨ÙĬØ©": 3275,
      "ĠØ¬ÙĦ": 3276,
      "Ø¨ÙĬØ¶": 3277,
      "ĠØ¨Ø§ÙĦÙħÙĨ": 3278,
      "ÙĲØĮ": 3279,
      "ĠØ§ÙĦÙĪØ§ØŃ": 3280,
      "ØµØ¯Ø§Ø±": 3281,
      "ĠØ§ÙĦÙĦÙĤØ§Ø¡": 3282,
      "Ø·ÙĪØ±": 3283,
      "ĠØ³Ø§Ø¹Ø§Øª": 3284,
      "ĠØ§ÙĦØ¯Ø³Øª": 3285,
      "Ġm": 3286,
      "he": 3287,
      "ĠØ§ÙĦØ£Ø®ÙĬØ±": 3288,
      "ĠØ§ÙĦØ¬Ø¯": 3289,
      "ÙģØ³ÙĬØ±": 3290,
      "ÙģÙĬØ©": 3291,
      "Ø§ÙĤÙĬØ©": 3292,
      "ĠÙĦÙĦÙħØ±": 3293,
      "ĠØ§ÙĦØ´Ø¨": 3294,
      "ĠØ£ÙĩØ¯Ø§Ùģ": 3295,
      "ÙĤØ·Ø¹": 3296,
      "ĠÙħÙģØª": 3297,
      "ĠØ²Ø±": 3298,
      "ĠØ§ÙĦØ¯ÙĪØ±Ø©": 3299,
      "ĠÙħÙĤØ±": 3300,
      "40": 3301,
      "ĠØªØ³Ø§Ø¹Ø¯": 3302,
      "ÙĩØ§Ø±": 3303,
      "ĠÙĬØ³Ø§Ø¹Ø¯": 3304,
      "ĠÙĦØ¹Ø¯": 3305,
      "ÙĤÙī": 3306,
      "ĠØ§ÙĦØ±Ø³ÙħÙĬ": 3307,
      "Ø°ÙĬÙĨ": 3308,
      "ĠØªÙħÙĥÙĨ": 3309,
      "Ø·ØŃ": 3310,
      "ĠÙĪØµÙĪÙĦ": 3311,
      "ÙĤØ±Ø©": 3312,
      "ĠÙħÙĩÙħ": 3313,
      "Ø¸Ø§ÙĩØ±": 3314,
      "ĠØªÙĪÙĤ": 3315,
      "ĠÙģÙĥ": 3316,
      "Ø¬Ø§Ø¨Ø©": 3317,
      "ĠØ¬ÙĬØ¯Ø©": 3318,
      "ĠØ¥ÙĬØ¬": 3319,
      "ÙĤÙĬÙĬÙħ": 3320,
      "ĠÙģØ±ØµØ©": 3321,
      "Ø³Ø§Ø¨": 3322,
      "ĠÙĪÙĥÙĬÙģ": 3323,
      "ĠÙĤØ·Ø¹": 3324,
      "ĠØ·Ùģ": 3325,
      "ĠÙħØ¤Ø³Ø³Ø©": 3326,
      "ÙĤØ§Øª": 3327,
      "ĠØ§ÙĦÙħØŃÙĥÙħØ©": 3328,
      "ĠØ§ÙĦÙĨØª": 3329,
      "ĠÙĬØ¨": 3330,
      "ĠØªØ³ØªØ®Ø¯Ùħ": 3331,
      "ÙĤØ§Ø·": 3332,
      "ĠÙĪØ§ÙĦÙĦ": 3333,
      "ĠÙħØŃÙħÙĪØ¯": 3334,
      "ĠÙĦÙħØ³": 3335,
      "ĠÙĥØ´Ùģ": 3336,
      "Ø¨ÙĪ": 3337,
      "ĠØ§ÙĤØªØµ": 3338,
      "ÙĪØ§Ùĥ": 3339,
      "ĠØ®Ùħ": 3340,
      "ÙħØŃ": 3341,
      "ĠØ§ÙĦØ«Ø§ÙĦØ«Ø©": 3342,
      "ĠØ§ÙĦØ§ØªØµØ§ÙĦ": 3343,
      "Ø²Ø±": 3344,
      "ĠØ§ÙĦØŃÙĤÙĬÙĤØ©": 3345,
      "ÙĪØ±Ùĥ": 3346,
      "Ø§ÙĦØ¬Ø©": 3347,
      "ĠØ¯Ø®ÙĪÙĦ": 3348,
      "Ø£ÙĦØ©": 3349,
      "ĠØ´Ø£ÙĨ": 3350,
      "ĠØªØ³ØªØ·ÙĬØ¹": 3351,
      "ĠÙĬÙĨØ¨": 3352,
      "22": 3353,
      "ĠØ¥ÙĨÙĩØ§": 3354,
      "ĠØ¨Ø·Ø±ÙĬÙĤØ©": 3355,
      "ĠØ¬ÙħØ¹": 3356,
      "Ø§Ø¯ÙĬÙħ": 3357,
      "ĠØ§ÙĦØªØ¯Ø±ÙĬØ¨": 3358,
      "Ø¨ÙĦØ©": 3359,
      "ÙĪØ§ØŃ": 3360,
      "ĠÙĪØ¬Ø¯": 3361,
      "ØŁØŁØŁØŁ": 3362,
      "ĠØ´ÙĥØ±Ø§": 3363,
      "ĠØŃÙħØ§ÙĬØ©": 3364,
      "ĠÙĪØªÙĤ": 3365,
      "ÙĪØ§Øµ": 3366,
      "ĠØ¨ÙĩÙħ": 3367,
      "ion": 3368,
      "ĠØŃØ¯ÙĪØ¯": 3369,
      "ĠØ£Øª": 3370,
      "Ø±Ø³Ø§ÙĦ": 3371,
      "Ø³Ø¬ÙĬÙĦ": 3372,
      "Ø¨ÙĩØ©": 3373,
      "ĠÙĩØ¯Ùģ": 3374,
      "ĠÙĬÙĪÙħØ§": 3375,
      "ĠØ§ÙĦÙħÙĨØªØ®Ø¨": 3376,
      "ĠØ§ÙĦØ¨Ø±Ø§ÙħØ¬": 3377,
      "ĠÙĪØ±Ø§Ø¡": 3378,
      "oo": 3379,
      "ĠØ£Ø®Ø°": 3380,
      "ĠØ§ÙĦØ£ÙĪØ±ÙĪØ¨ÙĬ": 3381,
      "ĠÙĬØ¤Ø¯ÙĬ": 3382,
      "Ø±ÙĬØ©": 3383,
      "ĠØ§ÙĦÙħØ¤ÙħÙĨ": 3384,
      "ØŃÙĦ": 3385,
      "ĠØ§ÙĦØ¹ÙĦÙħÙĬ": 3386,
      "ĠØªÙĨØª": 3387,
      "ÙĦÙģØ²ÙĬ": 3388,
      "ĠØªÙĨØ¸ÙĬÙģ": 3389,
      "ĠØ¨ÙħØ¹": 3390,
      "Ø§ÙĦÙĤ": 3391,
      "Ø§Ø·Ø©": 3392,
      "ØŃØ±ÙĬØ±": 3393,
      "Ø¹ÙĦÙĤØ©": 3394,
      "ĠØ§ÙĦØ±Ø³ÙĪÙĦ": 3395,
      "Ø²Ø§Ø¨": 3396,
      "ĠÙħÙĩÙħØ©": 3397,
      "ĠØ¶Ø±ÙĪØ±Ø©": 3398,
      "ĠØ£ÙĪÙĦØ§": 3399,
      "ĠØŃØ§ÙĪÙĦ": 3400,
      "ĠØ¥ÙĨØªØ§Ø¬": 3401,
      "ĠØ§ÙĦÙĬÙĩÙĪØ¯": 3402,
      "ÙĪØ§Ø¬Ø¯": 3403,
      "ĠØ§Ø®Ø¨Ø§Ø±": 3404,
      "ĠØ§ÙĦÙħØ¯ÙĬØ±": 3405,
      "ĠØ§ÙĦØ£Ø´Ø®Ø§Øµ": 3406,
      "ÙģØ§Ø¯Ø©": 3407,
      "ĠØ§ÙĦØŃÙħ": 3408,
      "ĠØ£Ø¨Ø¯": 3409,
      "ĠØ¨ØªØ§Ø±ÙĬØ®": 3410,
      "Ø¹ÙĪÙĨ": 3411,
      "Ùĭ:": 3412,
      "ĠÙĩØ§": 3413,
      "ĠØ§ÙĦØªÙĥ": 3414,
      "].": 3415,
      "ĠØ¹ÙĬØ¯": 3416,
      "ĠÙĤÙĪÙĦ": 3417,
      "ĠØ§ÙĦØ¯Ø®ÙĪÙĦ": 3418,
      "ĠØ±ØŃÙħ": 3419,
      "--": 3420,
      "ĠÙĨØ¨": 3421,
      "ÙĤØ±Ø£": 3422,
      "ØªÙģØ¹": 3423,
      "Ø§Ø±ÙĬØ±": 3424,
      "ĠØ·Ø±ÙĤ": 3425,
      "ĠØ£ÙĦØ§": 3426,
      "ĠØ§ÙĦØ§ÙĤØªØµØ§Ø¯": 3427,
      "ØªØ±Ø§Ùħ": 3428,
      "Ø«ÙĦØ§Ø«": 3429,
      "Ø®Ùħ": 3430,
      "ĠØ¹Øµ": 3431,
      "ØªØ²": 3432,
      "ÙĪØ¹ÙĬ": 3433,
      "ĠØ¹Ø¨Ø§Ø±Ø©": 3434,
      "ĠØ´Ø§ÙĩØ¯": 3435,
      "ÙĬÙĦÙħ": 3436,
      "ĠÙĦÙħØ¹": 3437,
      "ĠÙĪÙĩÙĨØ§Ùĥ": 3438,
      "ĠØ¹ÙĨÙĪØ§ÙĨ": 3439,
      "ĠØ¬ÙĬØ¯Ø§": 3440,
      "ĠØªØ³Ø¬ÙĬÙĦ": 3441,
      "ĠØ§ÙĦØ¥Ø³": 3442,
      "ĠØºØ±": 3443,
      "ĠØ§ÙĦÙĪØ³": 3444,
      "ĠØ§ÙĦÙħØ¯Ø±Ø³Ø©": 3445,
      "ĠÙħØ§ÙĨ": 3446,
      "ĠÙħØ¹Ø±ÙģØ©": 3447,
      "ĠØ§ÙĦØ¹ÙĦÙĪÙħ": 3448,
      "Ø·Ø±Ø§Ùģ": 3449,
      "ĠÙĨØ¯": 3450,
      "ĠØ§ÙĦÙĪØ²Ø§Ø±Ø©": 3451,
      "ĠÙĦÙĦØ¨": 3452,
      "Ø§Ø¬Ø±": 3453,
      "ĠÙĪØ§": 3454,
      "Ø³Ø§Ø±Ø©": 3455,
      "Ø§Ø¯Ùħ": 3456,
      "ĠÙĥØ§Ùħ": 3457,
      "ĠØ§ÙĦØ§ÙĨØªØ±ÙĨØª": 3458,
      "ĠØ§ÙĦØ¹Ø³ÙĥØ±ÙĬ": 3459,
      "ĠØ³ÙĬØ§Ø±Ø©": 3460,
      "ĠÙĪØ§ÙĦØ³ÙĬ": 3461,
      "Ø§ØŃØ§Øª": 3462,
      "ĠØĽ": 3463,
      "ĠÙģÙĥØ±Ø©": 3464,
      "ĠÙħØ´Ø§ÙĥÙĦ": 3465,
      "ĠÙĪÙĨØŃÙĨ": 3466,
      "ĠÙĨÙĬ": 3467,
      "ĠØ§ÙĦØ£ÙĬØ§Ùħ": 3468,
      "ĠØ¨ÙĬÙĨÙĩÙħ": 3469,
      "ĠØ¹Ø¨Ø¯Ø§ÙĦÙĦÙĩ": 3470,
      "ĠØ§ÙĦØ³Ø¨Ø¨": 3471,
      "ØŃØ§Ø¡": 3472,
      "ĠÙĨÙħ": 3473,
      "ĠØ§ÙĦØ¹ÙĦÙħØ§Ø¡": 3474,
      "Ø¹Ø²ÙĬØ²": 3475,
      "ĠØªÙĤØ¯": 3476,
      "ĠÙĪØ§Ø¬": 3477,
      "Ø§Ø¦ÙĩÙħ": 3478,
      "ÙĨØ¯Ø³": 3479,
      "ĠÙģÙħØ§": 3480,
      "ÙĪØ®": 3481,
      "ĠØ§ÙĦØŃØ§ÙĦØ©": 3482,
      "ĠØ§ÙĦÙĤØ¶Ø§Ø¡": 3483,
      "ĠØ³ÙĪØ±ÙĬØ©": 3484,
      "ĠØªØ¬Ø¯": 3485,
      "ĠØ§ÙĦØµØŃÙĬ": 3486,
      "ĠÙħØŃØ§ÙĪÙĦØ©": 3487,
      "ĠÙĨÙĬÙĪ": 3488,
      "ĠÙĬØ·": 3489,
      "Ø§Ø¨Ø±": 3490,
      "ØªÙĬØ¨": 3491,
      "ĠÙĥØ±Ø©": 3492,
      "ĠØ¨Ø¯Ø¡": 3493,
      "Ø§Ø¯Ø¦": 3494,
      "ra": 3495,
      "ĠÙĬØŃÙħÙĦ": 3496,
      "Ø§ÙĩØ§": 3497,
      "ĠÙĪØ°ÙĥØ±": 3498,
      "ĠØªØ¶": 3499,
      "ĠÙĦØ¯ÙĬÙĩ": 3500,
      "ÙĦÙĬØ³": 3501,
      "ĠÙĥÙĦØ§Ùħ": 3502,
      "Ø§ÙĦØ³": 3503,
      "ĠØ§ÙĦØ·Ø±ÙĬÙĤØ©": 3504,
      "ÙĨÙĪÙĨ": 3505,
      "ĠØ§ÙĦÙģÙĨÙĬ": 3506,
      "ĠØ§ÙĦØ¬ÙħØ¹ÙĬØ©": 3507,
      "ĠØ§ÙĪÙĦ": 3508,
      "ÙĤÙĬÙĤÙĬØ©": 3509,
      "ĠÙĪØªØ±": 3510,
      "ĠØµÙĦØ§ØŃ": 3511,
      "ĠØªØ¸ÙĩØ±": 3512,
      "Ġ05": 3513,
      "Ø§ÙģÙĤØ©": 3514,
      "ĠØ§ÙĦØ£Ø³Ø§Ø³ÙĬØ©": 3515,
      "ĠÙĪÙĦØ¯": 3516,
      "ĠØ±Ø¬": 3517,
      "ĠØ§ÙĦÙħØ¤Ø³Ø³Ø§Øª": 3518,
      "ĠØ§ÙĦØªÙĨØ¸ÙĬÙħ": 3519,
      "ĠØ¥Ø¹": 3520,
      "ĠÙħØŃØª": 3521,
      "ÙĬØ²Ø§Øª": 3522,
      "ĠØ§ÙĦØ£ÙħÙĨÙĬØ©": 3523,
      "ĠØ§ÙĦØ£ØµÙĦ": 3524,
      "Ġs": 3525,
      "ÙĨØ·ÙĨ": 3526,
      "ĠØ³Ø§Ø¨": 3527,
      "ĠØ§ÙĦÙħØ³ØªÙĪÙī": 3528,
      "ØªÙħÙĦ": 3529,
      "ĠØ§ÙĦÙĪÙĦ": 3530,
      "ÙĨÙĬØ§Øª": 3531,
      "ÙĦÙĬÙĥ": 3532,
      "ĠØ¥Ø¨Ø±Ø§ÙĩÙĬÙħ": 3533,
      "Ø§Ø²ÙĬ": 3534,
      "ØªÙĤÙĦ": 3535,
      "ĠØ·Ø±ØŃ": 3536,
      "ĠÙĦÙĦØ®": 3537,
      "Ø¯ÙĤ": 3538,
      "ĠØ®Ø±": 3539,
      "Ø·Ø¨ÙĬÙĤ": 3540,
      "ĠÙģØ¥Ø°Ø§": 3541,
      "ĠØ§Ø®Ø±": 3542,
      "Ø¹Ø¯Ø¯Ø©": 3543,
      "Ø²Ø¹": 3544,
      "ĠØ§ÙĦÙĨØ§Ø¯ÙĬ": 3545,
      "ĠØ§ÙĦØŃÙĦÙĤØ©": 3546,
      "Ø®ÙĪØ§ÙĨ": 3547,
      "ĠØ§ÙĦØ¢Ø®Ø±ÙĬÙĨ": 3548,
      "Ø¬Ø§ÙĪØ²": 3549,
      "ĠÙ¢": 3550,
      "ĠØ§ÙĦÙģØ±ÙĨØ³ÙĬØ©": 3551,
      "Ø·ÙĤ": 3552,
      "ĠÙħØ¬ÙħÙĪØ¹": 3553,
      "ĠØ§ÙĦØªÙĨÙħÙĬØ©": 3554,
      "ØªØ±Ø§Ùģ": 3555,
      "ĠØ¥ÙħÙĥØ§ÙĨ": 3556,
      "ĠÙĪØŃØ¯Ø©": 3557,
      "ĠØ§ÙĦÙĥØ¨Ø±Ùī": 3558,
      "ĠØ§ÙĦØ·Ø¨ÙĬØ©": 3559,
      "ØµÙĦØŃØ©": 3560,
      "ww": 3561,
      "ĠÙĬØ°ÙĥØ±": 3562,
      "ĠÙĦÙĦØŃØµÙĪÙĦ": 3563,
      "ÙĬØ³Ø©": 3564,
      "Ø°Ø§Ø±": 3565,
      "ĠÙĦÙĦØµ": 3566,
      "ĠØ¬ÙħÙĬØ¹Ø§": 3567,
      "Ø¨ÙĦÙĪÙħ": 3568,
      "ĠØ§ÙĦÙĩØ¯Ùģ": 3569,
      "ĠÙħØ§Ø¯Ø©": 3570,
      "ÙĦØ§ÙĦØ©": 3571,
      "ĠØ§ÙĦÙħØ³ÙĬØŃ": 3572,
      "ĠØ§ÙĦØ±Ø§Ø¨Ø¹": 3573,
      "ĠØ§ÙĦØ¨Ø§ØŃØ«": 3574,
      "ÙĨØ§Ø¦ÙĬØ©": 3575,
      "ĠÙĦÙĦÙħØ³": 3576,
      "Ø§Ø¬Ø¹Ø©": 3577,
      "ÙĨØ³Ø§ÙĨ": 3578,
      "2018": 3579,
      "Ø§Ø¬Ùħ": 3580,
      "ĠÙĥØ§ÙħÙĦØ©": 3581,
      "ĠÙĦÙĦØ§ÙĨ": 3582,
      "ĠØ¬ÙħØ§ÙĦ": 3583,
      "ĠØ¬ÙĪ": 3584,
      "ĠÙħØ¯Ø±ÙĬØ¯": 3585,
      "ĠØ§ÙĦÙģÙĥØ±": 3586,
      "200": 3587,
      "ĠÙĨØ³Øª": 3588,
      "ÙĦÙĨ": 3589,
      "ĠØªÙĪÙģØ±": 3590,
      "Ø¶Ø§Ø¦ÙĬØ©": 3591,
      "ĠÙģØ±ÙĨØ³Ø§": 3592,
      "ĠØµÙĨØ¹": 3593,
      "ĠØªØ¹ÙĦÙĬÙĤ": 3594,
      "ØŃØ³Ø¨": 3595,
      "))": 3596,
      "ĠØ§ÙĦÙĤØ¶ÙĬØ©": 3597,
      "Ġ::": 3598,
      "ĠÙħØ³ÙĦØ³ÙĦ": 3599,
      "ĠØ§ÙĦÙĦØŃ": 3600,
      "ĠØ§ÙĦØ¯Ø¹Ùħ": 3601,
      "ĠÙĬØ²ÙĬØ¯": 3602,
      "ĠØ§ÙĦØ¨ÙĨÙĥ": 3603,
      "ÙĤØ±Ø§Ø¡": 3604,
      "ĠØ³ÙĦÙĬÙħ": 3605,
      "ĠØ§ÙĦØŃÙĥÙĪÙħÙĬØ©": 3606,
      "ĠÙħÙĪØ§Ø¬ÙĩØ©": 3607,
      "ØŃØ§ÙģØ¸Ø©": 3608,
      "ĠØ³Ø¨ØŃØ§ÙĨÙĩ": 3609,
      "Ø§Ø¦ØŃØ©": 3610,
      "ĠØ§ÙĦÙħØ¬ÙħÙĪØ¹Ø©": 3611,
      "ĠÙģØ±Ø¶": 3612,
      "Ġ+": 3613,
      "ĠØ¬ÙħÙĬÙĦ": 3614,
      "ØŃÙĬØ§Ø©": 3615,
      "Ø§ÙĦØ¥": 3616,
      "ĠØ§ÙĦØ¹Ø±Ø§ÙĤÙĬ": 3617,
      "ĠØ§ÙĦÙĨØ¨": 3618,
      "ĠØ§ÙĦØ¨Ø´Ø±ÙĬØ©": 3619,
      "ĠØ§ÙĦÙĤØ§Ø¯ÙħØ©": 3620,
      "ÙĪÙĬÙĩ": 3621,
      "ĠØ¨Ø«": 3622,
      "ĠØ³ÙĦÙħØ§ÙĨ": 3623,
      "ĠÙĦÙĦÙĥ": 3624,
      "ĠÙĪØ®Ø§ØµØ©": 3625,
      "ĠÙĪØ£ÙĪØ¶ØŃ": 3626,
      "ĠÙĦÙĥÙĨÙĩ": 3627,
      "ĠÙĬÙĪØ³Ùģ": 3628,
      "ÙĪØ¶Ø§Ø¹": 3629,
      "Ø§Ø²Ùħ": 3630,
      "Ø·Ø§ÙĤ": 3631,
      "Ø¸ÙħØ§Øª": 3632,
      "23": 3633,
      "ĠÙĬÙĩ": 3634,
      "ĠÙĬØ¹ÙĬØ´": 3635,
      "ĠØ§ÙĦØ¬ÙĨØ³": 3636,
      "Ø¬ØªÙħØ¹": 3637,
      "ÙĪØ²Ø§Ø±Ø©": 3638,
      "ĠÙĦØ£ÙĨÙĩØ§": 3639,
      "ĠØ§ÙĦØ£ÙĤÙĦ": 3640,
      "ĠØ³Ø§ÙĨ": 3641,
      "Ø«ÙĦØ©": 3642,
      "Ø¸ÙĦ": 3643,
      "ĠÙħÙĪØ§Ø·": 3644,
      "ĠÙħØ§Øª": 3645,
      "ĠØ¥Ø¬Ø±Ø§Ø¡": 3646,
      "ĠØ§ÙĦØ±Ø³ÙħÙĬØ©": 3647,
      "ĠØ§ÙĦÙħØ´ÙĥÙĦØ©": 3648,
      "Ġ198": 3649,
      "ĠØ¯ÙĦÙĬÙĦ": 3650,
      "ÙģÙī": 3651,
      "ĠÙħØ¤Ùĥ": 3652,
      "ÙĪØ§ÙħÙĦ": 3653,
      "Ø®Ø¯ÙħØ§Øª": 3654,
      "ĠÙĪØ§ÙĦÙħØ¹": 3655,
      "ĠØ¯ÙĪØ±ÙĬ": 3656,
      "Ø¦ÙĬ": 3657,
      "Ø§ÙħØ±": 3658,
      "ĠØ§ÙĦØªØŃÙĤÙĬÙĤ": 3659,
      "ĠØªÙģØ§ØµÙĬÙĦ": 3660,
      "ĠØ¥Ø³": 3661,
      "ĠØ®ÙħØ³": 3662,
      "ĠØ§ÙĦØ¹Ø±Ø§ÙĤÙĬØ©": 3663,
      "Ø§ÙĨÙĬÙĬÙĨ": 3664,
      "Ø¹ÙĦØ§Ø¬": 3665,
      "ĠÙĪØªØ¯": 3666,
      "ĠÙħÙĪØ¸": 3667,
      "ĠØ¹ÙĨØ§ØµØ±": 3668,
      "ĠØ¨Ø³Ø±Ø¹Ø©": 3669,
      "Ø¹Ø§Ø¡": 3670,
      "ĠØ¨ØµÙĪØ±Ø©": 3671,
      "ĠØ¸ÙĩÙĪØ±": 3672,
      "ĠÙĪØ±Ø¨": 3673,
      "Ø´ÙģØª": 3674,
      "ĠØ§ÙĦØ²ÙħÙĨ": 3675,
      "ÙĥÙĦÙģØ©": 3676,
      "ĠØ§ÙĦØ´Ø±ÙĬÙģ": 3677,
      "Ġ40": 3678,
      "ÙĪØ¹ÙĬØ©": 3679,
      "ĠÙĪÙĦÙĨ": 3680,
      "Ø®ÙĬØµ": 3681,
      "ÙĪØ¬Ø¨": 3682,
      "ĠØ¹Ø§ÙħØ©": 3683,
      "Ø§ÙĤØ´": 3684,
      "ĠÙĪØ¬ÙĦ": 3685,
      "ĠØ¢ÙĦØ§Ùģ": 3686,
      "26": 3687,
      "ĠÙħÙħÙĨ": 3688,
      "ĠØ¥ÙĨØ´Ø§Ø¡": 3689,
      "Ø±ÙĬØª": 3690,
      "ĠØ³Ø§Ø¨ÙĤ": 3691,
      "ĠÙħØ´ÙĬØ±Ø§": 3692,
      "ĠØ³Ø¨ÙĤ": 3693,
      "ĠØ§ÙĦØ±Ø¬Ø§ÙĦ": 3694,
      "ĠØ§ÙĦØ§ÙĤØªØµØ§Ø¯ÙĬ": 3695,
      "ĠØ£Ø¬ÙĩØ²Ø©": 3696,
      "ĠÙħØ«ÙĦØ§": 3697,
      "ĠØ§ÙĦÙħÙĪØª": 3698,
      "ĠØ´Ø¦": 3699,
      "ĠÙģÙĦÙħ": 3700,
      "ÙĤØ§Ùħ": 3701,
      "ÙĩØ§Øª": 3702,
      "ĠØ£Ø¨ÙĨØ§Ø¡": 3703,
      "ĠØªØ´ØºÙĬÙĦ": 3704,
      "ĠØ¨Ø£Ø³": 3705,
      "ĠÙĤØ§Ø¦ÙĦØ§": 3706,
      "ĠØ¨Ø¯Ø±": 3707,
      "ĠØ§ÙĦÙĥÙĦØ§Ùħ": 3708,
      "ÙĦÙħÙĬ": 3709,
      "ĠØ£Ø±Ø¯": 3710,
      "ĠÙħÙĬ": 3711,
      "ĠØ´Ø±Ø§Ø¡": 3712,
      "ĠØ§ÙĦØ¹ÙĦØ§ÙĤØ©": 3713,
      "ĠØ§Ø²": 3714,
      "ch": 3715,
      "ÙĪÙĬØ§": 3716,
      "ĠÙĬÙĪÙħÙĬØ§": 3717,
      "Ġïºį": 3718,
      "Ø¦ÙĬØ©": 3719,
      "Ø¯Ø±ÙĪÙĬØ¯": 3720,
      "ĠØ£Ø³Ø¨Ø§Ø¨": 3721,
      "ĠÙĥÙĬÙĦ": 3722,
      "ĠØ¹Ø´Ø±Ø©": 3723,
      "ĠÙħØ§ÙĬ": 3724,
      "ĠØ§ÙĦØ±Ø§Ø¨Ø·": 3725,
      "ĠØ§ÙĦØ´Ø¹Ø¨ÙĬØ©": 3726,
      "ØªØ±ÙĥØ©": 3727,
      "ĠØ£ÙĬØ¶": 3728,
      "ÙĤØ·Ø§Ø¹": 3729,
      "ÙĦØ§ÙĬÙĬÙĨ": 3730,
      "ĠØ³Ø£": 3731,
      "ĠØ£ØµØ¨ØŃØª": 3732,
      "Ø§ÙĪÙĬØ©": 3733,
      "Â«": 3734,
      "ĠØ§ÙĦØ¹ÙĬÙĨ": 3735,
      "ĠØ´Ø±ÙĤ": 3736,
      "ÙĪØ±ÙĪ": 3737,
      "ĠØ¬Ø§ÙĨ": 3738,
      "ĠÙħØ¬Ø±Ø¯": 3739,
      "ĠØ¨Ø§ÙĦÙģØ¹ÙĦ": 3740,
      "ĠØŃÙģØ¸": 3741,
      "ĠÙĨØ´Ø§Ø·": 3742,
      "ĠÙģÙħ": 3743,
      "ĠØµØ¯Ø±": 3744,
      "ĠØ§Ø³Ø±": 3745,
      "ĠØ§ÙĦØªØ§Ø¨Ø¹Ø©": 3746,
      "ĠØ§ÙĦÙĦØ¹Ø¨Ø©": 3747,
      "ĠØ¨ÙħØ±": 3748,
      "ØªÙĬØ§Ø¬Ø§Øª": 3749,
      "ĠÙĥÙĦÙĩØ§": 3750,
      "ĠØ´Ø±ØŃ": 3751,
      "ĠØ§ÙĦØ·Ø¨ÙĬØ¹ÙĬØ©": 3752,
      "ĠØ§ÙĦÙĨÙĪÙħ": 3753,
      "ĠØ§ÙĦØ¬Ø§Ø±ÙĬ": 3754,
      "ht": 3755,
      "ĠØ§ÙĦÙħØ³ÙĦØŃØ©": 3756,
      "Ø°ÙĦ": 3757,
      "ØªÙħÙĬØ²": 3758,
      "Ø®Ø·Ø·": 3759,
      "ÙĪÙĨØ§Øª": 3760,
      "Ø§ÙĨØ³": 3761,
      "ĠØµØºÙĬØ±": 3762,
      "ĠØ§ÙĦØ±ØŃÙħÙĨ": 3763,
      "ĠÙĬØ³ØªØ®Ø¯Ùħ": 3764,
      "ĠØ§ÙĦÙģØ±ÙĨØ³ÙĬ": 3765,
      "ĠØ³ØªÙĥÙĪÙĨ": 3766,
      "ĠØ§ÙĦÙĤÙĪÙĦ": 3767,
      "ĠÙħÙĨØ¹": 3768,
      "ĠÙĨØ¬Ø§ØŃ": 3769,
      "ĠØŃÙĤÙĬÙĤØ©": 3770,
      "ĠØ§ÙĦØŃØ¯ÙĬØ«Ø©": 3771,
      "ĠØ§ÙĦÙĥØª": 3772,
      "ĠØ®ÙĦØ§ÙĦÙĩØ§": 3773,
      "39": 3774,
      "ĠÙĦØ¬ÙħÙĬØ¹": 3775,
      "ĠØ¯ÙĪØ±Ø©": 3776,
      "ĠØªÙĪØ¬Ø¯": 3777,
      "ĠÙĨØ³Ø®Ø©": 3778,
      "ĠÙĬØ¹ÙĪØ¯": 3779,
      "ĠØ§ÙĦØ°ÙĩØ¨": 3780,
      "ĠØ§ÙĦØ³ÙĬÙĨ": 3781,
      "35": 3782,
      "ØªØ±Ø¶": 3783,
      "ĠØ³Ø¹Ø¯": 3784,
      "ĠØ·ÙĪÙĬÙĦ": 3785,
      "ĠÙĦØ¯ÙĬÙĥ": 3786,
      "Ø´ØŃ": 3787,
      "21": 3788,
      "ĠÙĩÙĨ": 3789,
      "ĠÙĬÙĨØ¨ØºÙĬ": 3790,
      "ĠØ£Ø³Ø¨ÙĪØ¹": 3791,
      "ĠØ§ÙĦØ£Øº": 3792,
      "ĠÙħØ´Ø§Ø±ÙĥØ©": 3793,
      "Ø«ÙħØ±": 3794,
      "ĠØ±ÙĪØŃ": 3795,
      "ĠØ§ÙĦØ¥ÙĦÙĥØªØ±ÙĪÙĨÙĬ": 3796,
      "ĠØ§ÙĦØ·Ø±Ùģ": 3797,
      "ĠØ§ÙĦÙĥÙĨ": 3798,
      "27": 3799,
      "ĠØ§ÙĦØ³ÙĬØ§Ø±Ø©": 3800,
      "ĠØ£Ø¨Ø±Ø²": 3801,
      "Ġ31": 3802,
      "ĠØ¨Ø·ÙĪÙĦØ©": 3803,
      "Ø§Ø¯Ùī": 3804,
      "ĠØ§ÙĦÙĬØ§Ø¨": 3805,
      "ÙĪÙĨÙĩØ§": 3806,
      "28": 3807,
      "ĠØ§ÙĦÙĥÙĦ": 3808,
      "ĠÙĬØ¹ÙĦÙħ": 3809,
      "ĠÙĪØªØª": 3810,
      "Ø±ÙĬØ¬": 3811,
      "ĠØªÙĤÙĦ": 3812,
      "ĠØ¨ØºØ¯Ø§Ø¯": 3813,
      "ĠÙĪÙĬØŃ": 3814,
      "ĠØ§ÙĦØ¥Ùģ": 3815,
      "ÙĨØ§ÙĬØ©": 3816,
      "ĠÙĪØ§ÙĦØªØ¹ÙĦÙĬÙħ": 3817,
      "ĠØ§ÙĦÙĥØ¨ÙĬØ±Ø©": 3818,
      "ĠØªØ¯Ø±ÙĬØ¨": 3819,
      "ĠØ§ÙĦØ¹ÙĤÙĦ": 3820,
      "ĠØ£Ø³Øª": 3821,
      "ÙĨÙĪØ§ÙĨ": 3822,
      "ĠØ³Ø¤Ø§ÙĦ": 3823,
      "ĠØ§ÙĦØŃÙĪØ§Ø±": 3824,
      "ĠØ´Ø¨Ø§Ø¨": 3825,
      "ĠØ¨Ø¹Ø¯ÙħØ§": 3826,
      "id": 3827,
      "ĠV": 3828,
      "Ø§Ø¦Ø±Ø§Øª": 3829,
      "ag": 3830,
      "ĠØ§ÙĦÙħØ¹Ø±ÙĪÙģ": 3831,
      "ĠØ´Ø®ØµÙĬØ©": 3832,
      "ÙĪØ¸": 3833,
      "Ø³Ùĥ": 3834,
      "Ø´ÙĥÙĦ": 3835,
      "ĠØ§ÙĦÙħØŃÙĦÙĬ": 3836,
      "Ø±Ø£": 3837,
      "ĠØ§ÙĦÙĤØ¯ÙĬÙħØ©": 3838,
      "ĠØµØŃØ©": 3839,
      "Ø§Ø¬Ø¦ÙĬÙĨ": 3840,
      "ĠÙĨØŃ": 3841,
      "ĠØªÙĤØ¹": 3842,
      "Ø§ÙģØ§Øª": 3843,
      "ĠÙħØ¤Ø®Ø±": 3844,
      "ĠØ§ÙĦØ¥ÙĨØ³Ø§ÙĨÙĬØ©": 3845,
      "ĠØªØ¯Ø®ÙĦ": 3846,
      "Ø§ÙĦÙĥØªØ±": 3847,
      "ĠØªÙĪÙĨØ³": 3848,
      "ĠØ§ÙĦØ£Ø®Ø¨Ø§Ø±": 3849,
      "Ġ01": 3850,
      "ĠØ£ÙĨÙģØ³": 3851,
      "ĠØ³ÙĥØ§ÙĨ": 3852,
      "ÙĪÙĬÙĤ": 3853,
      "ĠØªØ¬Ø±Ø¨Ø©": 3854,
      "ØŃØ¯Ø¯": 3855,
      "ÙĬØ¯Ø§ÙĨ": 3856,
      "ØºØ¨Ø©": 3857,
      "ĠÙĥØ§Ø±": 3858,
      "ĠÙĬØ¸ÙĩØ±": 3859,
      "Ø®ØªØ§Ø±": 3860,
      "ol": 3861,
      "ĠØ§ÙĦØŃÙħÙĦ": 3862,
      "ĠØ§ÙĦØ¹ÙĪØ¯Ø©": 3863,
      "ÙģØ§Ùģ": 3864,
      "ØµÙī": 3865,
      "ÙĤÙĦØ§ÙĦ": 3866,
      "ĠØ§ÙĦØ«ÙĤØ§ÙģØ©": 3867,
      "ĠØ§ÙĦØ±Ø¯": 3868,
      "ĠØ§ÙĦØµØºÙĬØ±Ø©": 3869,
      "ĠØ¨Ø¹ÙħÙĦ": 3870,
      "ĠØ¹ÙĤØ¨": 3871,
      "ĠÙħÙĪØ¹Ø¯": 3872,
      "Ø³Ø§Ø¯": 3873,
      "ĠÙĪØ§ÙĦØ³ÙĦØ§Ùħ": 3874,
      "ĠØªØ´ÙĥÙĬÙĦ": 3875,
      "ĠØ²ÙħÙĨ": 3876,
      "ĠØ§Ø®Ø±Ùī": 3877,
      "ĠÙħÙĩÙħØ§": 3878,
      "ĠÙĥØ¨ÙĬØ±Ø§": 3879,
      "Ø£Ø³ÙĬØ³": 3880,
      "ĠØ§ÙĦØªØ¹Ø¯": 3881,
      "ĠÙĤØª": 3882,
      "ØªØ¨Ø©": 3883,
      "ĠØŃØ³ÙĬÙĨ": 3884,
      "ĠØ§ÙĦØ·ÙĦØ¨": 3885,
      "ĠØ£ØŃÙĬ": 3886,
      "ĠØ§ÙĦÙħÙĪØ¬ÙĪØ¯Ø©": 3887,
      "ĠØ§ÙĦÙĪØ¬Ùĩ": 3888,
      "Ø¢Ø®Ø±": 3889,
      "ĠØ§ÙĦØ¯Ø±Ø§Ø³Ø§Øª": 3890,
      "ĠØ§ÙĦØ£Ø³ØªØ§Ø°": 3891,
      "ØºØ§ÙĦ": 3892,
      "ÙĬÙĪÙħ": 3893,
      "ĠÙĤÙĬØ§Ùħ": 3894,
      "Ø´ÙĬØ§Ø¡": 3895,
      "ĠØ§ÙĦØ®Ø§ÙħØ³": 3896,
      "ing": 3897,
      "Ø¹ÙĬÙħ": 3898,
      "ĠØ§Ø°": 3899,
      "ĠØ§ÙħØ§": 3900,
      "ĠØ§ÙĦØ£Ø¬": 3901,
      "Ø·Ø±ØŃ": 3902,
      "ĠØªÙĤØ±ÙĬØ¨Ø§": 3903,
      "Ø³Ø±Ø§Ø¦ÙĬÙĦÙĬØ©": 3904,
      "Ø§ÙĪØ±": 3905,
      "ĠØºØ±Ùģ": 3906,
      "ĠÙĪØ§ÙĦÙĩ": 3907,
      "Ø¹ØªÙĤØ¯": 3908,
      "ÙĦØ§ÙĬØ§": 3909,
      "ĠØ¨ÙĪÙĥ": 3910,
      "ĠØ¹ÙĩØ¯": 3911,
      "ĠØ§ÙĦÙĤØ§Ø¯Ùħ": 3912,
      "ĠØ®Ø±Ø¬": 3913,
      "ĠÙĬÙĤØ¹": 3914,
      "29": 3915,
      "Ø§ÙĤØ¨": 3916,
      "Ø±ÙĬØ§": 3917,
      "Ø¯ÙĬÙĩ": 3918,
      "Ø®Ø·ÙĬØ·": 3919,
      "ĠÙħÙĤØªÙĦ": 3920,
      "ĠØ§ÙĦØ±Ø¬": 3921,
      "ÙĤÙĪØ·": 3922,
      "ĠØ¥ØŃ": 3923,
      "ĠÙħØ¹Ø±Ø¶": 3924,
      "ĠØªØ¹Ø²ÙĬØ²": 3925,
      "Ø¹ÙĦÙĪÙħ": 3926,
      "ĠØ§ÙĦØ£Ø²": 3927,
      "ĠØ§ÙĦÙĦÙĩÙħ": 3928,
      "ĠØ§ÙĦÙħØ´Ø§Ø±ÙĥØ§Øª": 3929,
      "ĠØ³ÙĦØ³ÙĦØ©": 3930,
      "ĠØ§ÙĦÙģÙĨØ¯ÙĤ": 3931,
      "ĠØ®ÙĦÙĬ": 3932,
      "ĠØ§ÙĦØ³ÙģØ±": 3933,
      "ĠØ§ÙĦØ£ÙħÙĬØ±ÙĥÙĬØ©": 3934,
      "Ø°Ùģ": 3935,
      "ĠØ±Ø¤ÙĬØ©": 3936,
      "ĠØ§ÙĦÙħØ¶": 3937,
      "Ġ09": 3938,
      "ĠÙĬØ±Ø¬": 3939,
      "Ø´ÙĨ": 3940,
      "ĠØ§ÙĦÙħÙĨØ´": 3941,
      "ĠÙħØŃØ§ÙģØ¸": 3942,
      "Ġ07": 3943,
      "ĠØ§ÙĦØ´Ø±ÙĤÙĬØ©": 3944,
      "Ø§Ø¦ÙĨ": 3945,
      "ĠØ§ÙĦÙĨÙĤØ¯": 3946,
      "Ø§Ø·ÙĦ": 3947,
      "ĠØ§ÙĦÙħØ¤Ø³Ø³Ø©": 3948,
      "ĠØµØ§Ø±": 3949,
      "ĠÙĦØ¹Ø¨": 3950,
      "ĠØ§ÙĦØ¥ÙĤÙĦÙĬÙħ": 3951,
      "ĠØ®ØµÙĪØµØ§": 3952,
      "Ø¨ÙĪÙĦ": 3953,
      "ĠØ¥Ùģ": 3954,
      "ĠØ£ØŃØ¨": 3955,
      "ĠØ§ÙĦØŃÙĤÙĪÙĤ": 3956,
      "ØªÙĬØŃ": 3957,
      "Ø§ÙĦÙĨ": 3958,
      "ĠØ§ÙĦØ£ÙħØ©": 3959,
      "ĠÙĪØ£ÙĬ": 3960,
      "ĠØ§ÙĦÙĨÙĬ": 3961,
      "Ġt": 3962,
      "ĠØ§ÙĦÙħØ´Ø±": 3963,
      "Ø§ÙĦÙħØ²ÙĬØ¯": 3964,
      "Ø¨Ø¹Ø¯": 3965,
      "ÙĪÙĬØ¶": 3966,
      "ĠÙĪØ¨Ø¯": 3967,
      "ĠÙĦØ§Ùģ": 3968,
      "ĠØ¨ÙĬÙĨÙĩØ§": 3969,
      "ĠØ§ÙĦÙħØŃØ§ÙģØ¸Ø©": 3970,
      "ÙĩÙħÙĬØ©": 3971,
      "ĠØ¨ÙĪØ±": 3972,
      "ĠØ§ÙĦØ£Ø¬ÙĩØ²Ø©": 3973,
      "ĠØ§ÙĦÙħØ³ÙĦÙħ": 3974,
      "ĠØ·Ø±": 3975,
      "ĠØ³Ø§Ø¨ÙĤØ§": 3976,
      "ĠØ§ÙĦØ§ÙĦÙĥØªØ±": 3977,
      "ĠØ§ÙĦØ±ÙĪØ³ÙĬØ©": 3978,
      "ĠØ¨ÙħØ³": 3979,
      "Ø·ÙģÙī": 3980,
      "ĠØ§ÙĦÙĪØ¬": 3981,
      "ĠØ§ÙĦØ®ÙĬØ±": 3982,
      "ĠÙģØ¶ÙĦØ§": 3983,
      "ĠØ§ÙĦÙĥØªØ¨": 3984,
      "ĠØ§ÙĦÙĦØ§Ø²ÙħØ©": 3985,
      "ĠÙĬØªØŃ": 3986,
      "Ø³Ø¨ÙĤ": 3987,
      "Ø¬ÙĬØ±": 3988,
      "ĠØŃÙģÙĦ": 3989,
      "ay": 3990,
      "ĠØ¨ÙĦØ§Ø¯": 3991,
      "ĠØ§ÙĦØ±ÙĬØ§Ø¶ÙĬØ©": 3992,
      "Ġ06": 3993,
      "ĠØµÙģØŃØ©": 3994,
      "ĠØ§ÙĦØ¨Ø±ÙĦÙħØ§ÙĨ": 3995,
      "ĠØ§ÙĦØ£ÙĤ": 3996,
      "ÙĬØ¯Ùĩ": 3997,
      "Ø®ÙģØ§Ø¶": 3998,
      "36": 3999,
      "ĠÙĨÙģØ³Ùĥ": 4000,
      "ĠØ¨Ø±ÙĬØ·": 4001,
      "ĠÙĦØªØŃÙĤÙĬÙĤ": 4002,
      "ĠØ§ÙĦØ³Ø¤Ø§ÙĦ": 4003,
      "ĠÙĦØ§ÙĬÙĨ": 4004,
      "ĠØ§ÙĦÙĨØ²": 4005,
      "ĠÙĪØ§ÙĦÙħØª": 4006,
      "ow": 4007,
      "ĠÙĬØ¬ÙĪØ²": 4008,
      "ĠØ§ÙĦÙĥÙħØ¨ÙĬÙĪØªØ±": 4009,
      "ĠÙĦÙĦØªØŃ": 4010,
      "ĠØ§ÙĦÙħØ¹Ø§Ø±Ø¶Ø©": 4011,
      "Ġ02": 4012,
      "ĠØ§ÙĦØªØ±ÙĥÙĬØ©": 4013,
      "ĠØ§ÙĦÙĨÙĪØ§Ø¨": 4014,
      "ĠØ§ÙĦÙģÙĨÙĬØ©": 4015,
      "Ġ03": 4016,
      "Ø¹Ø¨ÙĬØ±": 4017,
      "ØªØ¨Ø·": 4018,
      "ĠØ§ÙĦÙĤØ³Ùħ": 4019,
      "ĠÙĪØ§Ø±": 4020,
      "ĠØ§ÙĦÙĨÙĤÙĦ": 4021,
      "ĠÙĤØ±Ø§Ø¡Ø©": 4022,
      "ĠØºØ§ÙĦØ¨": 4023,
      "ĠØŃØ§ÙĦØ§Øª": 4024,
      "ĠØ§ÙĦØŃØ¬": 4025,
      "ĠØ£Ø«Ø±": 4026,
      "ĠØ®ÙħØ³Ø©": 4027,
      "ĠØ§ÙĦÙĤÙĬØ§Ø¯Ø©": 4028,
      "ĠØ§ÙĦØ¬ÙĩØ§Øª": 4029,
      "ĠØ§ÙĦØ³Ø§Ø¯Ø³": 4030,
      "ĠØ§ÙĦØªØ¬Ø§Ø±Ø©": 4031,
      "ÙĥÙĪÙħØ©": 4032,
      "ĠØ§ÙĦÙĨØªØ§Ø¦Ø¬": 4033,
      "ĠØŃÙħÙĦØ©": 4034,
      "ĠØ§ÙĦØªÙĤÙĦÙĬ": 4035,
      "ØµØ§Ø¨": 4036,
      "ÙĦØ¨Ø©": 4037,
      "ĠØªØŃØ±ÙĬØ±": 4038,
      "48": 4039,
      "ĠÙĬØŃØªÙĪÙĬ": 4040,
      "ĠØ§ÙĦØ²ÙĪØ§Ø¬": 4041,
      "ĠØ£Ø¯Ø§Ø¡": 4042,
      "Ø¯Ø±Ø§Øª": 4043,
      "38": 4044,
      "ĠØ§ÙĦØªÙģØ§ØµÙĬÙĦ": 4045,
      "ĠØ§ÙħØ§Ùħ": 4046,
      "Ø¯ÙĪÙĨ": 4047,
      "ĠØ§ÙĦØ¶ØºØ·": 4048,
      "ÙĪØ¶Ø©": 4049,
      "ĠØ§ÙĦÙĪØŃÙĬØ¯": 4050,
      "ĠÙĩØ§Ùħ": 4051,
      "ĠÙħØ¬ØªÙħØ¹": 4052,
      "ĠØ§ÙĦØ§ÙĨØ³Ø§ÙĨ": 4053,
      "ĠÙĬØŃØ¨": 4054,
      "ĠØ§ÙĦÙĤÙĪÙī": 4055,
      "ĠØ§ÙĦØµÙĪØª": 4056,
      "ĠØ£ÙħØ±ÙĬÙĥØ§": 4057,
      "ÙĪØ§Ø¨Ø·": 4058,
      "ÙĬÙĦÙĩ": 4059,
      "ĠØ¹Ø±Ø¨ÙĬØ©": 4060,
      "ĠØ£ÙĨÙĥ": 4061,
      "ĠØ§ÙĦØªÙĨÙģÙĬØ°": 4062,
      "ĠÙģÙĨØ¯ÙĤ": 4063,
      "Ġ04": 4064,
      "ĠØ§ÙĦØŃØ§ÙĦ": 4065,
      "ĠØ§ÙĦÙħÙĥØª": 4066,
      "Ġ2007": 4067,
      "Ø§Ø¨ÙĨ": 4068,
      "ÙĩÙĦØ©": 4069,
      "ĠØªØ¬Ø¹ÙĦ": 4070,
      "ĠØ§ÙĦØ£Ø¬ÙĨ": 4071,
      "ĠØ§ÙĦÙħÙĤØ¨ÙĦØ©": 4072,
      "Ø§Ø¶Ø±": 4073,
      "ĠØ±Ùĥ": 4074,
      "ĠØ¯ÙĤØ§Ø¦ÙĤ": 4075,
      "ĠÙĪØ§ÙĦØ¹ÙħÙĦ": 4076,
      "ĠØ¨Ø§Ø³": 4077,
      "45": 4078,
      "Ø¬ÙĦØ©": 4079,
      "ĠÙĦØ¥ÙĨ": 4080,
      "ĠÙĪØ¥ÙĨÙħØ§": 4081,
      "ĠØ¹Ø§Ø¯Ø©": 4082,
      "Ø§ÙĪÙĨ": 4083,
      "ĠØ®Ø·Ø±": 4084,
      "ĠÙħØ³Ø§Ø¹Ø¯": 4085,
      "ĠØ¨ÙĬØ§ÙĨØ§Øª": 4086,
      "ĠØ§ÙĦØªØ¹Ø±ÙĬÙģ": 4087,
      "ĠÙĪÙħØ¯": 4088,
      "ĠØ§Ø®ØªØ±": 4089,
      "ØªØªØ§ØŃ": 4090,
      "ĠØ¯ÙħØ´ÙĤ": 4091,
      "ĠØ¨Ø§ÙĦØ®": 4092,
      "ĠÙħØ³ÙĦÙħ": 4093,
      "37": 4094,
      "Ø¹ÙĨ": 4095,
      "Ø¢Øª": 4096,
      "Ø¹ÙħØ§Ø±": 4097,
      "ĠÙĪØ¸Ø§Ø¦Ùģ": 4098,
      "ĠÙĪØ§Ø´ÙĨØ·ÙĨ": 4099,
      "ÙĪØ£": 4100,
      "ĠØªØŃØªÙĪÙĬ": 4101,
      "ØªÙħÙĨÙī": 4102,
      "ĠÙħÙĨØ§": 4103,
      "Ø§ÙĤÙģ": 4104,
      "Ġ]": 4105,
      "ÙĪÙĦØ¯": 4106,
      "Ġ197": 4107,
      "ĠØ§ÙĦÙĥØ±Ø©": 4108,
      "Ø²Ø§ÙĦØ©": 4109,
      "ĠÙħÙĥØ§ÙģØŃØ©": 4110,
      "ØŃÙģ": 4111,
      "ĠØ§ÙĦØ¥ÙĨØªØ§Ø¬": 4112,
      "ĠØ§ÙĦØ±ÙĪØ³ÙĬ": 4113,
      "ĠÙħÙĨØŃ": 4114,
      "ĠØ·Ø§ÙĦ": 4115,
      "Ø´Ø¨": 4116,
      "ĠØ§ÙĦØ£Ø¨ÙĬØ¶": 4117,
      "ĠÙħÙĨØ²": 4118,
      "ĠØ¨Ø§ÙĦÙĦÙĩ": 4119,
      "Ø§Ø®Ø±": 4120,
      "ĠØ³ÙĬØ§Ø³ÙĬØ©": 4121,
      "ĠØ§ÙĦØ¥Ø³Ø±Ø§Ø¦ÙĬÙĦÙĬØ©": 4122,
      "**": 4123,
      "ĠÙĬØ±Ùī": 4124,
      "ĠØ·ÙĪÙĦ": 4125,
      "ĠÙĪÙĤØ¹": 4126,
      "ÙĪØ§ØªÙģ": 4127,
      "ØºØ±Ø¨": 4128,
      "ĠÙĥÙĦÙħØ§Øª": 4129,
      "ĠØ§ÙĦØ¹Ø±Ø¶": 4130,
      "ĠØµÙĨØ§Ø¹Ø©": 4131,
      "ĠÙģÙĩØ°Ø§": 4132,
      "ĠÙĦÙĬÙĦØ©": 4133,
      "ĠØ§ÙĦÙħØªØ¹ÙĦÙĤØ©": 4134,
      "ĠÙģØ±Øµ": 4135,
      "ĠØ¨ÙħØ¯ÙĬÙĨØ©": 4136,
      "ĠØ¨ØªÙĨ": 4137,
      "ĠØ§ÙĦØ¨ÙĬØ¦Ø©": 4138,
      "ĠØ®Ø·Ø©": 4139,
      "ĠÙĦÙĬØ¨ÙĬØ§": 4140,
      "ĠÙģÙĥØ§ÙĨ": 4141,
      "ĠÙĬØ²": 4142,
      "ĠØ§ÙĦØ±Ø¦ÙĬØ³ÙĬ": 4143,
      "ØªØµØ§Øµ": 4144,
      "Ø®Ø±Ø§Ø¬": 4145,
      "ĠØ§ÙĦÙĤÙĪØ©": 4146,
      "ØµØ¯Ø±": 4147,
      "ĠÙĩÙī": 4148,
      "ĠØ§ÙĦØ¹Ø§Ø¨": 4149,
      "Ø§ÙĨÙī": 4150,
      "Ø§Ø¹Ùĩ": 4151,
      "ÙĤØ§Ø°": 4152,
      "ĠÙĪØ£ÙĨØ§": 4153,
      "ĠÙĨÙĤØ§Ø·": 4154,
      "ĠØ´ÙĩØ§Ø¯Ø©": 4155,
      "ĠØ§ÙĦØ¹Øµ": 4156,
      "ĠØ§ÙĦØ¯Ùĩ": 4157,
      "ĠØ£ÙĬÙĨ": 4158,
      "ĠØ§ÙĦÙħÙĪØ¸": 4159,
      "ĠØ³Ø§Ùħ": 4160,
      "ĠÙħØ¯Ø©": 4161,
      "ÙĬÙĩØ§": 4162,
      "ĠØ¨ÙĨØª": 4163,
      "ĠØ§ÙĦØ³ÙĬØ§Ø³Ø©": 4164,
      "ĠÙĪÙĬØ³Øª": 4165,
      "Ø¬ÙĪ": 4166,
      "ĠØ£Ø±Ø¨Ø¹Ø©": 4167,
      "ĠØ§ÙĦÙģØ±ÙĤ": 4168,
      "ĠØ§ÙĦØ£ØŃÙħØ±": 4169,
      "ĠÙĤÙĪÙĬØ©": 4170,
      "ĠØ§ÙĦÙħÙĨØ¸ÙħØ©": 4171,
      "ĠØŃØ¶ÙĪØ±": 4172,
      "ĠØ§ÙĦØªÙĤØ±ÙĬØ±": 4173,
      "ØºØ§Ø¡": 4174,
      "ĠØ§ÙĦÙĤØ¯Ø±Ø©": 4175,
      "ÙĨØ§Ùģ": 4176,
      "ĠØ§ÙĦÙĪØ³Ø·": 4177,
      "ĠØ§ÙĦØ£Ø³Ø¯": 4178,
      "ĠØ£ÙģØ±Ø§Ø¯": 4179,
      "ĠØ§ÙĦØ·Ø§ÙĦØ¨": 4180,
      "ĠÙĤÙĬÙħ": 4181,
      "ĠØ§ÙĦØ¬ÙĪÙĬØ©": 4182,
      "ĠØ§ÙĦØ£ÙĩÙĦÙĬ": 4183,
      "Ø§ÙĤØªØµ": 4184,
      "ĠØ¬ÙĩÙĪØ¯": 4185,
      "ĠÙĬÙĤÙĦ": 4186,
      "Ø¬ÙĬØ©": 4187,
      "ĠØ¨ÙĪÙĦ": 4188,
      "Ø§ÙħØª": 4189,
      "ĠØ¯Ø§Ø¹Ø´": 4190,
      "ĠÙĦØ¶": 4191,
      "ÙĪÙģÙĬÙĤ": 4192,
      "Ġï´": 4193,
      "ĠÙħØ§ÙĦ": 4194,
      "ĠØ§ÙĦÙħÙħÙĥÙĨ": 4195,
      "ĠØ§Ø¬ÙĦ": 4196,
      "ĠØªÙħÙĨ": 4197,
      "ĠØ§ÙĦÙĩÙĪØ§Ø¡": 4198,
      "ĠÙĪÙĦØ§ÙĬØ©": 4199,
      "ĠØ§ÙĦØ¹ÙĨÙģ": 4200,
      "Ø±ÙĬØŃØ©": 4201,
      "ĠØ§ÙĦØ³ÙĨÙĪØ§Øª": 4202,
      "ĠØ£ÙĨÙĨØ§": 4203,
      "ĠÙĪØ¨Ø¹Ø¶": 4204,
      "Ø§ÙĨØ¯": 4205,
      "ĠØ§ÙĦØªØ¹ÙĦÙĬÙħÙĬØ©": 4206,
      "ĠÙĦØ§Ø¨Ø¯": 4207,
      "ÙĪØ¬ÙĦ": 4208,
      "ĠØ§ÙĦØ£Ø¹ÙĦÙī": 4209,
      "ĠØ§ÙĦÙģØ¹": 4210,
      "ĠØ¨Ø¹ÙĨÙĪØ§ÙĨ": 4211,
      "ĠØ¨Ø§ÙĦØµÙĪØ±": 4212,
      "ÙĢØ©": 4213,
      "ÙĬÙĨÙĩ": 4214,
      "ĠÙħØ³Ø§ØŃØ©": 4215,
      "ĠØ§ÙĦØ¬ÙĪ": 4216,
      "ĠØ§ÙĦØªØ¨": 4217,
      "ĠØ§ÙĦØŃÙħØ¯": 4218,
      "ĠØªØºÙĬØ±": 4219,
      "ĠØ¨Ø¯ÙĦØ§": 4220,
      "ÙĬØ¯Ø±": 4221,
      "ĠØ§ÙĦØ§ÙħØ±": 4222,
      "ĠØ¨Ø¹Ø¯ÙĩØ§": 4223,
      "Ø±Ø´": 4224,
      "ĠØ§ÙĦØŃØ³ÙĬÙĨ": 4225,
      "):": 4226,
      "ĠØ§ÙĦØ£Ø²ÙħØ©": 4227,
      "ĠØ§ÙĦÙĤØ·": 4228,
      "ï»Łï»": 4229,
      "ÙĦØ§ÙħÙĬ": 4230,
      "Ø§Ø¦Ø·": 4231,
      "ĠÙĨÙĬÙĪØ²": 4232,
      "ĠØ§ÙĦØŃØ¶": 4233,
      "ĠØ´Ø§Ø±Ùĥ": 4234,
      "ĠØ¥Ø¹ÙĦØ§ÙĨ": 4235,
      "ĠØ§ÙĦØ¯ÙĬÙĨÙĬØ©": 4236,
      "Ø§ÙĤØ´Ø©": 4237,
      "Ø®Ø§ÙĦ": 4238,
      "ĠÙĪØ§ÙĦØ¨Ø±": 4239,
      "ØµÙĬÙĦ": 4240,
      "Ø£ÙĥÙĬØ¯": 4241,
      "ÙĬÙĪØª": 4242,
      "Ø±Ø±": 4243,
      "Ø®Ø±Ø©": 4244,
      "ĠÙĪÙģØ±": 4245,
      "ĠØŃØ§Ø¬Ø©": 4246,
      "ĠØ§ÙĦØ£ØŃÙĬ": 4247,
      "ĠØ³ÙĪØ±Ø©": 4248,
      "ĠØªØ¨Ø¯Ø£": 4249,
      "ĠÙĩÙĢ": 4250,
      "ÙĨØ³Ø§Ø¡": 4251,
      "ĠØªØ«": 4252,
      "ĠØ¨ÙħÙĨØ§Ø³Ø¨Ø©": 4253,
      "ĠÙĨØ¬Ø¯": 4254,
      "ĠÙħØ¹ÙĬÙĨØ©": 4255,
      "Ø·Ø§Ø¹Ùħ": 4256,
      "ĠÙĬÙĦÙĬ": 4257,
      "ĠØ§ÙĦÙĦÙĪÙĨ": 4258,
      "Ø´ÙĬØ±": 4259,
      "ĠØ§ÙĦÙħØ³Ø¬Ø¯": 4260,
      "ĠØ¨ÙĨØ§": 4261,
      "ĠÙģÙģÙĬ": 4262,
      "ĠØ§ÙĦØ°Ø§Øª": 4263,
      "ĠØ¹Ø¯ÙĬØ¯Ø©": 4264,
      "ĠØ¬ÙħÙĬÙĦØ©": 4265,
      "ĠØ§ÙĦØµØŃÙģÙĬ": 4266,
      "ri": 4267,
      "ĠØ§ÙĦÙħÙĩÙħ": 4268,
      "ĠÙĪÙĤÙģ": 4269,
      "ÙĬØ¶": 4270,
      "ÙĥØ±Ùĩ": 4271,
      "ĠÙĬÙħØ«ÙĦ": 4272,
      "34": 4273,
      "ĠØ§ÙĦØ¨Ø±ÙĬØ·Ø§ÙĨÙĬØ©": 4274,
      "ĠØ£ÙĨØŃØ§Ø¡": 4275,
      "ĠÙħØ¹ÙĨÙī": 4276,
      "Ø«Ø±Ø©": 4277,
      "ĠÙħÙĪØ¬": 4278,
      "ĠØ§ÙĦØµÙĩÙĬ": 4279,
      "ĠÙħÙĨÙĥ": 4280,
      "ĠÙĤÙĬØ§Ø¯Ø©": 4281,
      "ĠØ§ÙĦÙħØ¯Ø§Ø±Ø³": 4282,
      "ĠØ§ÙĦØºØ±Ø¨": 4283,
      "ĠØ§ÙĦÙĤØ§ÙĨÙĪÙĨÙĬØ©": 4284,
      "ĠØ§ÙĦØ£ÙħÙĬØ±ÙĥÙĬ": 4285,
      "ÙĬØ¯ÙĬØ§": 4286,
      "ĠØ§ÙĦÙħØ´Ø§ÙĥÙĦ": 4287,
      "ĠØ§ÙĦÙĤØ§Ø¦ÙħØ©": 4288,
      "ĠÙĪÙĬØªÙħ": 4289,
      "Ø¯ÙĬÙĤØ©": 4290,
      "ĠÙĪØ§ÙĦÙħØ¤": 4291,
      "ĠØ§ÙĦÙħÙĥØªØ¨": 4292,
      "ĠÙĦÙĦØªÙĨ": 4293,
      "Ø·ÙĦØ¹": 4294,
      "ĠØ§ÙĦØ¹ÙĩØ¯": 4295,
      "ĠØ§ÙĦØªØŃØ§ÙĦÙģ": 4296,
      "ĠÙĥÙĦÙĩ": 4297,
      "ØµÙģØŃ": 4298,
      "ÙħØ±Ø©": 4299,
      "ĠÙĤØ±Ø¨": 4300,
      "ĠØ¹Ø§Ø¯": 4301,
      "ĠØ¥Ø®": 4302,
      "ÙĨÙĥ": 4303,
      "ĠØ§ÙĦÙĥØ§ØªØ¨": 4304,
      "ĠØ§ÙĦØ³Ø¬": 4305,
      "ĠÙĬØŃØµÙĦ": 4306,
      "ĠØ§ÙĦÙģÙĬÙĦÙħ": 4307,
      "ĠØªØŃÙĪÙĬÙĦ": 4308,
      "ÙĢÙĬ": 4309,
      "ĠÙħØ¹ÙĨØ§": 4310,
      "ÙģÙĬÙģ": 4311,
      "Ú©": 4312,
      "ĠØ¹Ø¨Ø§Ø³": 4313,
      "ÙĪØ°": 4314,
      "ĠØ§ÙĦØªØ®": 4315,
      "ĠØ§ÙĦØ£ØŃØ¯Ø§Ø«": 4316,
      "ĠÙģØµÙĦ": 4317,
      "33": 4318,
      "Ø¤ÙĬØ©": 4319,
      "ÙĥÙħØ§ÙĦ": 4320,
      "Ø²ÙĤ": 4321,
      "ÙĥÙĨØ¯Ø±": 4322,
      "Ø¶Ø±ÙĪØ±Ø©": 4323,
      "ĠÙĦØ¹ÙħÙĦ": 4324,
      "ĠÙĪØ§Ø³Ø¹Ø©": 4325,
      "ĠØ§ÙĦØªÙĩ": 4326,
      "ØºÙĦØ§ÙĦ": 4327,
      "Ġ196": 4328,
      "Ø§Ø¦ÙĬØ§": 4329,
      "ÙĪØ§Ø¬ÙĩØ©": 4330,
      "ĠØ¬ÙħØ¹ÙĬØ©": 4331,
      "ĠØ¨Ø§ÙĦØµ": 4332,
      "ĠÙĤÙĦØª": 4333,
      "ĠØ§ÙħØ±Ø£Ø©": 4334,
      "ĠØªÙħØ±": 4335,
      "ĠÙħØ¬ÙĦØ©": 4336,
      "ĠØ§ÙĦØ¨ÙĨØ§Ø¡": 4337,
      "ĠPM": 4338,
      "Ø§Ø¦Ø±ÙĬ": 4339,
      "ĠÙĪÙĦØ°ÙĦÙĥ": 4340,
      "ĠÙħÙĤØ§Ø±ÙĨØ©": 4341,
      "ĠØ§ÙĦØ£Ø±Ø¯ÙĨ": 4342,
      "Ø³ÙĬÙħ": 4343,
      "ĠØ§ÙĦÙĤØª": 4344,
      "ĠØ§ÙĦÙħÙĨØªØ¬Ø§Øª": 4345,
      "ĠÙĪÙħÙĨÙĩØ§": 4346,
      "ĠØ§ÙĦÙħÙģØª": 4347,
      "ĠØ§ÙĦÙĪØ¸": 4348,
      "ĠØŃØ¯ÙĪØ«": 4349,
      "Ø´Ùĩ": 4350,
      "Ø·Ø¨Ø®": 4351,
      "ĠÙĦØ£ÙĬ": 4352,
      "ĠÙĪÙħØª": 4353,
      "ĠÙĦØ¯ÙĬÙĩÙħ": 4354,
      "ĠÙħØ¤Ø®Ø±Ø§": 4355,
      "Ø§ÙĦÙĬØ¨": 4356,
      "ÙĬÙħÙĬÙĨ": 4357,
      "Ø«ÙĨØ§Ø¡": 4358,
      "ÙħØ§ÙĩÙĬØ±": 4359,
      "ĠØ§ÙĦØªØ±ÙĥÙĬ": 4360,
      "ĠÙħØŃÙĦ": 4361,
      "ĠØ§ÙĦØ¬Ø²ÙĬØ±Ø©": 4362,
      "ĠÙĪÙħÙĦ": 4363,
      "Ø¬ØŃ": 4364,
      "ĠØªÙĪÙĤØ¹": 4365,
      "ĠØ§ÙĦØªØ³Ø¬ÙĬÙĦ": 4366,
      "ÙģØ±Ø¯": 4367,
      "ĠØ§ÙĦÙħØ±ÙĥØ²ÙĬ": 4368,
      "ĠØ¨ØŃÙĤ": 4369,
      "ĠØ§ÙĦØ·Ø¨ÙĬØ¹ÙĬ": 4370,
      "55": 4371,
      "ĠØ§ÙĦØ¥ÙĦÙĥØªØ±ÙĪÙĨÙĬØ©": 4372,
      "ĠØ§ÙĦØŃØ±Ø§Ø±Ø©": 4373,
      "ĠØ§ÙĦØ¨Ø¯Ø§ÙĬØ©": 4374,
      "ĠÙĪØ£Ø³": 4375,
      "ĠÙĪÙĦÙĥÙĨÙĩ": 4376,
      "ĠØ§ÙĦØŃÙĪØ«": 4377,
      "ĠØ§ÙĦÙĥÙĪÙĨ": 4378,
      "ĠØ§ÙĦØ¹Ø¸ÙĬÙħ": 4379,
      "ĠØ§ÙĦÙģØ±Ø¯": 4380,
      "ĠØªØ£ØªÙĬ": 4381,
      "Ø¹ØªØ¨Ø±": 4382,
      "ĠÙĦÙĥÙĨÙĩØ§": 4383,
      "ĠÙħØ¹ÙĩÙħ": 4384,
      "ĠÙĨÙĪØ±": 4385,
      "ÙĪÙĦØ§ÙĬØ©": 4386,
      "ĠÙĪÙĬÙĤÙĪÙĦ": 4387,
      "ÙıÙĳ": 4388,
      "ĠØ§ÙĦØ¹ÙħÙĦÙĬØ§Øª": 4389,
      "ĠÙĤØ§Ø¯Ø±": 4390,
      "ĠÙĪÙħØ³Øª": 4391,
      "ĠØ§ÙĦÙħÙĦÙģØ§Øª": 4392,
      "ĠØ§ÙĦØ¯ÙĬÙħÙĤØ±Ø§Ø·ÙĬØ©": 4393,
      "ÙĤÙĬØ§Ùħ": 4394,
      "32": 4395,
      "ÙĩÙĪ": 4396,
      "ĠÙĦÙĦØ³ÙĬ": 4397,
      "Ø§ØŃÙĬ": 4398,
      "Ø§Ø·ÙĬ": 4399,
      "ĠÙĪØ¹ÙĨØ¯ÙħØ§": 4400,
      "ĠÙħØ±ÙĪØ±": 4401,
      "ĠØ§ÙĦØµØ¯": 4402,
      "ĠÙĥÙĨØ§": 4403,
      "ĠØ§ÙĦØºØ°Ø§Ø¦ÙĬØ©": 4404,
      "Ø¬ÙħØ©": 4405,
      "Ġ60": 4406,
      "ĠØ§ÙĪÙĨ": 4407,
      "ĠØ¯Ø§Ø®": 4408,
      "ĠØ§ÙĦÙģÙĪØ±": 4409,
      "ĠØ§ÙĦØºØ§Ø²": 4410,
      "ÙĥØªØ§Ø¨": 4411,
      "ĠØŃÙĬØ§ØªÙĩ": 4412,
      "ĠØ¨Ø£ÙĨÙĩØ§": 4413,
      "ĠÙĪØ´Ø±": 4414,
      "ĠÙĬØ¯Ø®ÙĦ": 4415,
      "ĠÙĬÙĪ": 4416,
      "ĠØŃØµ": 4417,
      "ĠØ§ÙĦØ´ÙħØ§ÙĦÙĬØ©": 4418,
      "ĠØ§ÙĦØªØ§Ø³": 4419,
      "ÙģØ²": 4420,
      "ĠØ§ÙĦÙĪØ²ÙĬØ±": 4421,
      "ÙĩÙĪÙħ": 4422,
      "ĠÙĪØ§ÙĦØªØ±": 4423,
      "ĠÙģÙĪØ²": 4424,
      "ĠØªØªØŃ": 4425,
      "ØªØ©": 4426,
      "ÙĨÙĬØ¹": 4427,
      "ĠØ§ÙĦÙĦÙĬÙĦ": 4428,
      "ĠØ§ÙĦÙĬØ¯": 4429,
      "ĠÙ¡Ù": 4430,
      "ĠØ§ÙĦØ£ÙĦ": 4431,
      "ĠØ´Ø±Ùĥ": 4432,
      "ĠØ¨Ø§ÙĦÙĤØ±Ø¨": 4433,
      "ĠØ¬ÙħØ§Ø¹Ø©": 4434,
      "ĠØ§ÙĦÙħÙĨØ§Ø³Ø¨Ø©": 4435,
      "ĠØ³ÙĬØ§Ø³Ø©": 4436,
      "Ġ08": 4437,
      "ĠÙĦØ¯ÙĬÙĩØ§": 4438,
      "ĠØ§ÙĦÙħØ¯ÙĨ": 4439,
      "ĠØ§ÙĦÙĪØ«": 4440,
      "Ġ2019": 4441,
      "ĠÙħÙĪØ§Ø¯": 4442,
      "Ù°": 4443,
      "ĠØ§ÙĦØŃØ¯ÙĬØ¯": 4444,
      "ĠÙĨØ¸Ùħ": 4445,
      "ØªØ±Ø§Øª": 4446,
      "ĠØ³ÙĬØ§Ø±Ø§Øª": 4447,
      "Ø¯ÙĪØ²": 4448,
      "ĠØ§ÙĦÙĪØ²ÙĨ": 4449,
      "ĠÙĥÙĦÙħ": 4450,
      "ï»´": 4451,
      "ĠÙĪÙĬØ¯": 4452,
      "ĠÙħÙĨØ²ÙĦ": 4453,
      "Ø§ÙĥÙĨ": 4454,
      "ĠÙħÙħØªØ§Ø²": 4455,
      "ĠØ¨Ø²ÙĬ": 4456,
      "ĠØ§ÙĦØŃØ§ÙĦÙĬØ©": 4457,
      "ĠØ§ÙĦØ´Ø±Ø¹ÙĬØ©": 4458,
      "ĠÙĪØªØ¬": 4459,
      "ÙĤÙĦØª": 4460,
      "ĠÙĦØ§Ø¹": 4461,
      "ĠÙĬØ¨ÙĦØº": 4462,
      "ĠÙĪØ£Ø®": 4463,
      "us": 4464,
      "Ø§Ø±Ùģ": 4465,
      "ĠØ¥Ø¹ÙĦØ§Ùħ": 4466,
      "ĠÙĥØªØ¨ÙĩØ§": 4467,
      "ter": 4468,
      "ĠØ¶Ø±Ø¨": 4469,
      "ĠÙĪØ§ÙĦØ´Ø±": 4470,
      "ĠÙħØŃÙĥÙħØ©": 4471,
      "Ø§ÙĤØ¯": 4472,
      "ĠØ£Ø¬Ø±": 4473,
      "ĠÙĪØªØ±Ùĥ": 4474,
      "ØŃÙĤÙĤ": 4475,
      "ĠØ§ÙĦØŃØ±Ø©": 4476,
      "Ø¶ØºØ·": 4477,
      "ĠÙĪØ§ÙĦÙħØŃ": 4478,
      "ĠØŃØ¶Ø±": 4479,
      "ĠÙĬØ²Ø§ÙĦ": 4480,
      "ĠÙģÙĩÙĦ": 4481,
      "ĠØ¨Ø¹ÙĬØ¯": 4482,
      "ĠØ¹ØµØ±": 4483,
      "ĠØµÙĦØ§Ø©": 4484,
      "ĠØµØŃÙĬ": 4485,
      "ĠÙĥÙģ": 4486,
      "Ø§ÙĨØ¹": 4487,
      "ĠØ§ÙĦÙĨØ¬Ø§ØŃ": 4488,
      "ĠØ£ØŃØ¯Ø«": 4489,
      "ĠÙĦÙģØª": 4490,
      "ØŁ!": 4491,
      "Ø·Ùĩ": 4492,
      "Ø·Ø¨Ø§Ø¡": 4493,
      "Ø«ÙĪØ±": 4494,
      "ĠØ¨Ø§ÙĦØ¨": 4495,
      "ĠØ§ÙĦØ¬ÙĪØ¯Ø©": 4496,
      "ÙĤÙĦØ©": 4497,
      "ĠØ§ÙĦÙĪØŃØ¯Ø©": 4498,
      "ĠØ§ØŃÙħØ¯": 4499,
      "ĠØ¨ØµÙģ": 4500,
      "ĠÙĤØ¶": 4501,
      "ĠØ¹Ø±ÙĪØ¶": 4502,
      "ĠØ§ÙĦØ¹Ø¯Ø¯": 4503,
      "ĠÙĦØ¹Ø§Ùħ": 4504,
      "Ø¬ØªÙħØ§Ø¹": 4505,
      "ĠU": 4506,
      "Ø´ÙĦÙĪÙĨØ©": 4507,
      "Ø§ÙĪÙĦØ§Øª": 4508,
      "ÙĥÙħÙĦ": 4509,
      "ÙħØ§ÙĥÙĨ": 4510,
      "ĠØ§ÙĦØµÙĬÙģ": 4511,
      "ĠØªØ¯Ø§ÙĪÙĦ": 4512,
      "Ø§Ø¦ÙĬØ§Øª": 4513,
      "Ġ}": 4514,
      "ÙĥÙĪÙĨØ§Øª": 4515,
      "ĠÙĪÙĩÙĦ": 4516,
      "ĠÙģÙĤ": 4517,
      "05": 4518,
      "ØªØ§Ø¬": 4519,
      "Ø£Ùħ": 4520,
      "ÙģØ§Ø¡Ø©": 4521,
      "ĠØªØ±Ùī": 4522,
      "ÙĬÙĬÙĬÙĬÙĬÙĬÙĬÙĬ": 4523,
      "ĠØ¥Ø¶Ø§Ùģ": 4524,
      "ĠØ§ÙĦÙħØºØ±Ø¨ÙĬØ©": 4525,
      "ĠØ§Ø®ØªØ¨Ø§Ø±": 4526,
      "ØªÙĩØ§Ø¡": 4527,
      "Ø§Ø¯ÙĬÙħÙĬØ©": 4528,
      "Ø¹ÙĦÙĩ": 4529,
      "ĠÙĪØµÙĦØª": 4530,
      "ĠØ§ÙĦÙħÙĤØ§ÙĪÙħØ©": 4531,
      "Ø§ÙħØ§Øª": 4532,
      "ÙĪØ±ÙĩØ§": 4533,
      "ĠÙĤØ§Ø¹Ø¯Ø©": 4534,
      "ĠÙĥØªØ¨Øª": 4535,
      "ĠØ§ÙĦØ¹Ø§ÙĦÙĬ": 4536,
      "ĠØ§Ø³ØªÙħØ±Ø§Ø±": 4537,
      "ØªØ±ÙĬ": 4538,
      "ĠØ§ÙĦØ§Ø³ØªØ«ÙħØ§Ø±": 4539,
      "ĠÙĨÙģØ³ÙĬ": 4540,
      "ĠØ¨Ø§Ø¹ØªØ¨Ø§Ø±": 4541,
      "ĠØ§ÙĦØŃÙĤÙĬÙĤÙĬ": 4542,
      "ÙģØ°": 4543,
      "ĠØ§ÙĦÙħØ«Ø§ÙĦ": 4544,
      "ĠØ£Ø±Ø¨Ø¹": 4545,
      "ĠÙĥÙĦØ§": 4546,
      "ĠØ§ØªØ®Ø§Ø°": 4547,
      "ÙĬÙĤÙī": 4548,
      "ĠØ§ÙĦÙģØ³Ø§Ø¯": 4549,
      "ĠØºØ±Ø¨": 4550,
      "ĠØªÙħØ«ÙĦ": 4551,
      "ĠØ§ÙĦØ¬ÙĪÙĦØ©": 4552,
      "ĠÙĪÙħØ´": 4553,
      "Ø§ÙĬØ¯": 4554,
      "ÙĨÙĬÙĬÙĨ": 4555,
      "ÙģÙĨ": 4556,
      "ĠÙħØ¬Ø§ÙĨØ§": 4557,
      "ĠØ§ÙĦØªØºÙĬÙĬØ±": 4558,
      "Ø¬ÙħØ§Øª": 4559,
      "ĠÙĪÙĥØ£ÙĨ": 4560,
      "ĠÙĪØªØµ": 4561,
      "ĠØ§Ø³ØªØ®Ø¯Ùħ": 4562,
      "ĠÙħÙħØ§Ø±Ø³Ø©": 4563,
      "ĠÙĦØ®": 4564,
      "Ø§Ø´Ø±Ø©": 4565,
      "ĠØ§ÙĦØ¥Ø¬Ø±Ø§Ø¡Ø§Øª": 4566,
      "ĠØ¥ÙħÙĥØ§ÙĨÙĬØ©": 4567,
      "ĠÙĪØ¬Ø§Ø¡": 4568,
      "Ø«Ø§ÙĦ": 4569,
      "ØªØ§Ø¨Ø¹Ø©": 4570,
      "ĠØ§ÙĦØ£Ø´ÙĬØ§Ø¡": 4571,
      "ĠÙħØ¯Ø±Ø³Ø©": 4572,
      "Ø§ØªÙĥ": 4573,
      "ĠØ§ÙĦØ§Ùĥ": 4574,
      "ĠØ£ØµØ¯Ø±": 4575,
      "ĠØ§ÙĦØ³Ø¹Ø±": 4576,
      "ÙģØ¹ÙĬÙĦ": 4577,
      "09": 4578,
      "31": 4579,
      "Ø«ÙħØ§ÙĨ": 4580,
      "ĠØ¥ÙĤØ§ÙħØ©": 4581,
      "ØªØµØ§Ø±": 4582,
      "ÙĥØ±Ø±": 4583,
      "ĠÙĤØ§Ø¦Ø¯": 4584,
      "ĠØ§Ø¹ØªØ¨Ø§Ø±": 4585,
      "Ø·ÙĦØ¨Ø§Øª": 4586,
      "ĠØŃØ²": 4587,
      "Ø§ÙĦÙĦ": 4588,
      "ĠØ¨Ø§Ø±ÙĬØ³": 4589,
      "ĠØ§ÙĦØŃØ§Ø¬Ø©": 4590,
      "ĠØ£Ø´Ø§Ø±": 4591,
      "ĠØ¬Ø§Ùħ": 4592,
      "ĠØ§ÙĦØ±Ùħ": 4593,
      "Ù¡Ù": 4594,
      "ĠØªØµØ±ÙĬØŃØ§Øª": 4595,
      "Ø±Ø³ÙĦ": 4596,
      "ÙĪÙĤØ©": 4597,
      "ØªØµÙģ": 4598,
      "ĠØ§ÙĦØŃØ§ÙĦØ§Øª": 4599,
      "ĠØ§ÙĦÙħØªØŃØ¯Ø«": 4600,
      "ÙĨØªÙĬÙĨ": 4601,
      "Ø®ÙĦØ§ÙĤ": 4602,
      "ØªØ§ÙĨ": 4603,
      "ÙĨØ¯ÙĨ": 4604,
      "ĠÙĨØ¸Ø±Ø§": 4605,
      "ĠØ§ÙĦØ¬ÙĨØ³ÙĬØ©": 4606,
      "Ø§ÙĥÙħØ©": 4607,
      "ĠØ§ÙĦØºØ±ÙģØ©": 4608,
      "ĠØªÙħØª": 4609,
      "ĠØ§ÙĦÙħØ´Ø§Ø±ÙĬØ¹": 4610,
      "ĠØ§ÙĦØŃÙĬ": 4611,
      "of": 4612,
      "ĠØ§ÙĦÙĦØº": 4613,
      "ĠÙħØ·Ø§Ø±": 4614,
      "ĠÙħÙĦØ§ÙĬÙĬÙĨ": 4615,
      "ĠØ§ÙĦÙģÙĦ": 4616,
      "Ø¯Ø±Ø¬Ø©": 4617,
      "ĠØ¬Ø§Ø¡Øª": 4618,
      "ĠØ§ÙĦØ£Ø±Ø§Ø¶ÙĬ": 4619,
      "ĠØ·ÙĪØ§ÙĦ": 4620,
      "ĠØ§ÙĦØµØŃÙĬØŃ": 4621,
      "ĠÙĨÙĪ": 4622,
      "ÙĪØ§Ø±Ø¹": 4623,
      "ĠØ¨Ø¹Ø¶ÙĩØ§": 4624,
      "ĠØ§ÙĦÙħØŃØ§ÙģØ¸": 4625,
      "ĠØ§ÙĦØ£Ø¹": 4626,
      "ĠØ§ÙĦØ£Ø³Ø±": 4627,
      "ĠØ£Ø´Ø®Ø§Øµ": 4628,
      "ĠØ¥Ø¹Ø¯Ø§Ø¯": 4629,
      "ĠÙĩÙĥØ°Ø§": 4630,
      "ĠØ§ÙĦØ¬ÙĨÙĪØ¨ÙĬØ©": 4631,
      "ĠØ§ÙĦØ¨Ø§Ø±": 4632,
      "ĠØ§ÙĦØ¥ÙĬØ±Ø§ÙĨÙĬ": 4633,
      "ĠÙĦØºØ©": 4634,
      "08": 4635,
      "ĠØ¹Ø§Ø´": 4636,
      "Ø§ÙĦØµ": 4637,
      "ĠØ§ÙĦØ±Ùĥ": 4638,
      "Ø¯Ø§Ø±": 4639,
      "Ø¯Ø±Ø¬": 4640,
      "ĠØ§ÙĦÙĪØ§ØŃØ¯": 4641,
      "ĠØ°Ø§ØªÙĩ": 4642,
      "ĠÙħÙĨØªØ®Ø¨": 4643,
      "Ø§Ø¯Ø§": 4644,
      "01": 4645,
      "ĠØ§ÙĦÙħØ¯ÙĨÙĬØ©": 4646,
      "Ø¨ØŃØ§Ø«": 4647,
      "ĠØªØ¬Ø§ÙĪØ²": 4648,
      "ĠÙħÙĪØ³Ùī": 4649,
      "ĠØªØŃØ³ÙĬÙĨ": 4650,
      "ĠÙħØ¤ÙĥØ¯Ø§": 4651,
      "ĠÙħØ¹Ø±ÙĪÙģ": 4652,
      "ĠØ§ÙĦÙħØªÙĪØ³Ø·": 4653,
      "Ø¨Ø±ÙĨØ§ÙħØ¬": 4654,
      "ĠØ§ÙĦØ£Ùĥ": 4655,
      "Ø°Ø§Ø¨": 4656,
      "ĠØ¨ÙĨÙģØ³Ùĥ": 4657,
      "ÙĨØ¯ÙĬØ©": 4658,
      "07": 4659,
      "ĠØªØ³Ø¨Ø¨": 4660,
      "ĠØ£ÙģØ±ÙĬÙĤÙĬØ§": 4661,
      "ĠØ·ÙģÙĦ": 4662,
      "ĠØ§ÙĦØ·Ø¨ÙĬØ¨": 4663,
      "ĠØ¨ØŃØ§Ø¬Ø©": 4664,
      "ĠØ§ÙĦÙħÙĪØ§ÙģÙĤ": 4665,
      "ĠØ§ÙĦÙĨØ¸": 4666,
      "ĠØ§ÙĦØ¥Ø³Ø¨": 4667,
      "ĠØ§ÙĦÙĥÙĦÙħØ§Øª": 4668,
      "ĠØ³ÙĦÙħ": 4669,
      "ÙĪÙĬØ¬": 4670,
      "ÙĳÙĭ": 4671,
      "ĠÙħØªÙħ": 4672,
      "ĠØ§ÙĦØ¬ÙĨÙĪØ¨": 4673,
      "ĠÙģØ¹ÙĦØ§": 4674,
      "ĠØ£ÙĦÙħØ§ÙĨÙĬØ§": 4675,
      "ĠÙĪØªÙģ": 4676,
      "ĠØ¨Ø§ÙĦÙĦØºØ©": 4677,
      "Ø§Ø²ÙĨ": 4678,
      "56": 4679,
      "ĠØ§ÙĦÙģÙĪØ²": 4680,
      "ĠØ§ÙĦÙħØ¤ÙħÙĨÙĬÙĨ": 4681,
      "ĠÙħÙĪØ¬ÙĪØ¯": 4682,
      "ĠØ§ÙĦØŃÙģØ§Ø¸": 4683,
      "ĠØªØ¬ÙħØ¹": 4684,
      "ĠØ§ÙĦÙĥÙĩØ±Ø¨Ø§Ø¡": 4685,
      "ÙĪØ§Ø¹Ø¯": 4686,
      "ĠÙĪÙħØ¤": 4687,
      "ĠÙģÙĪØ§Ø¦Ø¯": 4688,
      "ĠØ§ÙĦØ§ÙĪÙĦÙī": 4689,
      "ĠØ¶Ø¨Ø·": 4690,
      "Ø§Ø±Ø¶": 4691,
      "Ø§Ø¯Ø±Ø§Øª": 4692,
      "Ø±Ø¨ÙĬÙĨ": 4693,
      "ĠÙĤØ¶Ø§ÙĬØ§": 4694,
      "ĠÙĪØ¢ÙĦÙĩ": 4695,
      "ur": 4696,
      "ĠØ«Ø§ÙĨÙĬØ©": 4697,
      "ĠØ¶ØºØ·": 4698,
      "Ø±ÙĤØ§Ùħ": 4699,
      "ĠÙĬØ³ÙħØŃ": 4700,
      "ĠØ§ÙĦÙĤØ¶Ø§ÙĬØ§": 4701,
      "ĠØ§ÙĦØ¸Ø±ÙĪÙģ": 4702,
      "Ø¬Ø±Ø¯": 4703,
      "ĠÙĬØ¤ÙĥØ¯": 4704,
      "Ø·ÙĦÙĤØª": 4705,
      "ĠØ¨Ø¶": 4706,
      "ÙĥÙĨØ¯Ø±ÙĬØ©": 4707,
      "ĠØªÙĪØ§Ø¬Ùĩ": 4708,
      "ĠØ¥Ùħ": 4709,
      "ĠØ§ÙĦØ¢ÙĬØ©": 4710,
      "ĠÙĨÙĨ": 4711,
      "ĠØ¹Ø§Ø¬": 4712,
      "ĠØ§ÙĦØ²ÙĬØª": 4713,
      "06": 4714,
      "ĠØ§ÙĦØ¥ØµØ§Ø¨Ø©": 4715,
      "Ø§Ø¬Ø¯": 4716,
      "ĠØ§Ø¨ÙĪ": 4717,
      "Ø¨ÙĪØ¹": 4718,
      "Ø¬Ø²Ø§Ø¡": 4719,
      "Ø®ÙĦÙĤ": 4720,
      "ÙİØĮ": 4721,
      "ĠØ§ÙĦØ±Ø§Ø¨Ø¹Ø©": 4722,
      "ÙĬÙĦÙĬØ©": 4723,
      "ØŃÙħÙĬÙĦ": 4724,
      "ĠØ§ÙĦØ¯ÙĤÙĬÙĤØ©": 4725,
      "ĠØ§ÙĦØ£Ø³Ø±Ø©": 4726,
      "ĠÙĪØ§Ø¶ØŃ": 4727,
      "ĠØªÙģØ³ÙĬØ±": 4728,
      "Ø§ØªÙĦ": 4729,
      "Ø±Ø®": 4730,
      "ĠØªØ¹ÙĪØ¯": 4731,
      "ĠÙĪØ£Ùħ": 4732,
      "ĠØ²ÙĬØª": 4733,
      "ĠØ§ÙĦØ³ÙĥØ§ÙĨ": 4734,
      "Ø´ÙĩØ¯": 4735,
      "ĠØ§ÙĦØªØ´ØºÙĬÙĦ": 4736,
      "ĠØ£Ø¯Ùī": 4737,
      "ĠØ£ØµÙĦ": 4738,
      "ĠØ§ÙĦÙħØ°Ùĥ": 4739,
      "ĠØ§ÙĦÙģÙĦØ³Ø·ÙĬÙĨÙĬÙĬÙĨ": 4740,
      "ĠÙĦÙĬÙĨ": 4741,
      "ĠØ§ÙĦÙħÙĪØ§Ø¶ÙĬØ¹": 4742,
      "Ø§Ø·Ø¹": 4743,
      "ØŃØ§ÙĬØ§": 4744,
      "ĠØ§ÙĦØ°Ùĩ": 4745,
      "47": 4746,
      "ĠÙħØ¨Ø§Ø±ÙĬØ§Øª": 4747,
      "ĠØ§ÙĦÙĪÙģ": 4748,
      "ĠØ§ÙĦÙĨØ´Ø§Ø·": 4749,
      "ĠØ§ÙĦÙħØºØ±Ø¨ÙĬ": 4750,
      "ØµØ¯ÙĤ": 4751,
      "ĠØ§ÙĦÙĦØ¨ÙĨØ§ÙĨÙĬØ©": 4752,
      "ĠØ§ÙĦÙħØŃÙħ": 4753,
      "Ø¦ÙĪÙĦ": 4754,
      "ĠØ§ÙĦÙħØ·ÙĦÙĪØ¨": 4755,
      "ĠÙĪØ³ÙĪÙģ": 4756,
      "ĠÙĪØ£ÙĨÙĩ": 4757,
      "ĠØ§ÙĦØ±Ø£ÙĬ": 4758,
      "ĠØªÙĪØ²ÙĬØ¹": 4759,
      "Ø§ÙĦØªØ²Ø§Ùħ": 4760,
      "ĠÙĦÙĦØ¬ÙħÙĬØ¹": 4761,
      "ĠØ¨Ø³ÙĩÙĪÙĦØ©": 4762,
      "ĠÙĪÙĦÙĦ": 4763,
      "ĠØ§ÙĦØŃØ³ÙĨ": 4764,
      "Ø£ØªÙĬ": 4765,
      "ĠØ§ÙĦØ±Ø¦": 4766,
      "ØµØ§Øª": 4767,
      "ĠØ¹Ø³ÙĥØ±ÙĬØ©": 4768,
      "ĠÙĨØ·Ø§ÙĤ": 4769,
      "ĠØ§ÙĩØªÙħØ§Ùħ": 4770,
      "ĠØ¯Ø§Ø¦Ø±Ø©": 4771,
      "ĠÙħÙĬØ§Ùĩ": 4772,
      "Ø§ÙĥØ©": 4773,
      "ÙĦÙģØ²ÙĬÙĪÙĨ": 4774,
      "ĠØ£Ø¹Ø¯": 4775,
      "ĠÙĪØ§ÙĦØªØŃ": 4776,
      "ÙĥÙĦØ§Øª": 4777,
      "Ø´Ø±Ø§Ùģ": 4778,
      "ĠØ«Ø§ÙĦØ«": 4779,
      "ĠØ±ØŃÙħÙĩ": 4780,
      "ĠØ§ÙĦÙħÙĪØ§Ø·ÙĨ": 4781,
      "ĠØ§ÙĦØ§ÙĦ": 4782,
      "ÙĨØ²": 4783,
      "Ø§ÙģØ³Ø©": 4784,
      "ĠØ§ÙĦØ£Ø¹Ø¶Ø§Ø¡": 4785,
      "ÙĪØ¯Ùĩ": 4786,
      "ĠØ§ÙĦØ¥Ø¹ÙĦØ§ÙĨ": 4787,
      "ĠÙĬØµØ¨ØŃ": 4788,
      "ĠØ¨Ø±Ø¬": 4789,
      "ĠØ§ÙĦØ£ÙħØ±Ø§Ø¶": 4790,
      "Ø¯Ø®ÙĦ": 4791,
      "ĠÙĦØ£ÙĪÙĦ": 4792,
      "ĠÙħØªØ¹Ø¯Ø¯Ø©": 4793,
      "ÙĬÙĪØ§ÙĨ": 4794,
      "ĠØ§ÙĦÙħÙĨØ§Ø³Ø¨": 4795,
      "Ġ%": 4796,
      "ĠÙĪØ§ÙĬ": 4797,
      "49": 4798,
      "ĠÙĬØ¨Ø¯Ø£": 4799,
      "ĠØ´Ø¯ÙĬØ¯": 4800,
      "ØŃÙĪØ§ÙĦ": 4801,
      "ĠØ§ÙĦØ´Ø¹Ø¨ÙĬ": 4802,
      "ĠÙĤÙĦÙĬÙĦØ§": 4803,
      "//": 4804,
      "ÙĬÙĥÙĬØ©": 4805,
      "46": 4806,
      "ĠØ§ÙĦØªØ¹ÙĦÙĬÙĤ": 4807,
      "Ø§ÙĬÙĦ": 4808,
      "ĠØ§ÙĦØ¯Ø±Ø¬": 4809,
      "ĠØ¹ÙħØ§ÙĨ": 4810,
      "Ø±Ø¬Ø§ÙĦ": 4811,
      "ĠÙģØ±ÙĤ": 4812,
      "ĠÙĪØ§ÙĦÙħØ³Øª": 4813,
      "ĠÙģÙĪØ±": 4814,
      "ÙĬÙĤØ§Ùģ": 4815,
      "ĠØ§ÙĤØªØ±": 4816,
      "ÙĪØ³ÙĬ": 4817,
      "ĠØ§ØŃØªØ¬": 4818,
      "ÙĬØ¬Ø§": 4819,
      "ĠØ¬ÙĬ": 4820,
      "ĠØªØ±Ø¯": 4821,
      "Ø§Ø¶Ø©": 4822,
      "Ø¬Ø§Ø±Ø©": 4823,
      "ÙħØ±Ø§Ø¡": 4824,
      "ÙĩÙĦÙĥ": 4825,
      "Ø§Ø±ÙĤØ©": 4826,
      ".[": 4827,
      "ĠØ¨Ø£ÙĬ": 4828,
      "ØµÙĬ": 4829,
      "ÙĪØŃØ§Øª": 4830,
      "Ø±ÙĬÙĤÙĬØ©": 4831,
      "Ø³Ø§": 4832,
      "ĠØ´Ø§Ø¨": 4833,
      "ĠÙĬØ´Ø¹Ø±": 4834,
      "Ø§Ø³ÙĦ": 4835,
      "ĠØ£Ø·": 4836,
      "ĠØ§ÙĦØ¨Ø±ÙĬØ¯": 4837,
      "ÙĪØ³Ø·Ø©": 4838,
      "ĠØªØŃØ¯ÙĬØ«": 4839,
      "ĠØµØ¯ÙĬÙĤ": 4840,
      "Ġ'": 4841,
      "ĠØ§ÙĨÙģ": 4842,
      "ĠØ¨ÙĨÙĥ": 4843,
      "Ø§Ø±ÙĬÙĨ": 4844,
      "ĠØ®ÙĦØ§Ùģ": 4845,
      "ĠØ¥Ø±Ø³Ø§ÙĦ": 4846,
      "ĠÙĨÙħÙĪØ°Ø¬": 4847,
      "Ø§Ø¨ÙĬØ¹": 4848,
      "ĠØµÙĬ": 4849,
      "ĠØªØŃÙĪÙĦ": 4850,
      "ÙĤÙģ": 4851,
      "ÙĤØ§ÙħØ©": 4852,
      "ĠØ§ÙĦØªØ±Ø¨": 4853,
      "ab": 4854,
      "ÙĪØªÙĩ": 4855,
      "Ø¹Ø±Ø§ÙĤ": 4856,
      "04": 4857,
      "Ø¬ÙĦÙĬØ²ÙĬ": 4858,
      "ĠØ£ÙħÙĦ": 4859,
      "ĠÙģØ¹Ø§ÙĦÙĬØ§Øª": 4860,
      "ĠØ§ÙĦØ£ÙģØ¶ÙĦ": 4861,
      "ÙĪØ³Ø¹": 4862,
      "ĠÙħØ¯Ø§Ø±": 4863,
      "ĠØ£Ø·ÙģØ§ÙĦ": 4864,
      "58": 4865,
      "ĠØ§ÙĦÙĨÙĩØ§ÙĬØ©": 4866,
      "ĠØ§ÙĦØ¨ØŃØ±ÙĬÙĨ": 4867,
      "03": 4868,
      "ĠÙħØ¨Ø±": 4869,
      "ÙĪØ§ÙĤØ¹": 4870,
      "ĠØ¨ÙĥØ±": 4871,
      "ØªÙħØª": 4872,
      "ĠÙĦÙĦØ£Ø³": 4873,
      "ĠØ§ÙĦØ§ÙĩØªÙħØ§Ùħ": 4874,
      "Ø°ÙĬØ¨": 4875,
      "ĠØ¨Ø¹ÙĬØ¯Ø§": 4876,
      "ĠØ§ÙĦØ¯Ø³ØªÙĪØ±": 4877,
      "ĠØ³ÙĬØª": 4878,
      "Ø°Ùī": 4879,
      "ĠØ¹Ø±Ø¨": 4880,
      "02": 4881,
      "ĠØ§ÙĦÙĪØ§ÙĤ": 4882,
      "ĠÙĦÙĪÙĨ": 4883,
      "ĠØ£Ø®Ø±": 4884,
      "Ø§Ø¯ÙĩØ§": 4885,
      "Ø§Ø¦Ùĥ": 4886,
      "ĠØ¬Ø§Ùĩ": 4887,
      "ÙĨÙĩØ§": 4888,
      "Ø¬ÙĬØ¹": 4889,
      "ĠØ¨ÙĬØ±ÙĪØª": 4890,
      "Ø±Ø¬ÙħØ©": 4891,
      "ĠK": 4892,
      "ĠØ¨ÙĬÙĨÙĩÙħØ§": 4893,
      "ĠÙħØ´Ø§Ø±ÙĬØ¹": 4894,
      "âĢľ": 4895,
      "ĠÙĦØªØ±": 4896,
      "ĠÙĥØªØ§Ø¨Ø©": 4897,
      "ĠØ¬Ø³Ùħ": 4898,
      "ĠØ¥Ø±": 4899,
      "ĠØ§ÙĦØ¨Ø®": 4900,
      "ĠØ¨Ø®ØµÙĪØµ": 4901,
      "Ø§Ø¦Øµ": 4902,
      "ĠÙĪØ§Ø¶ØŃØ©": 4903,
      "ÙĤÙĦØ§Ø¨": 4904,
      "ÙģÙĬØ°ÙĬ": 4905,
      "ÙĨØ§Ø¦ÙĬ": 4906,
      "Ø¹ÙĪØ¨Ø©": 4907,
      "ĠØ§ÙĦØ¬ÙĨØ©": 4908,
      "ĠØ£Ùī": 4909,
      "ÙĪØ§ÙĨÙĬ": 4910,
      "ĠÙĪØ§ÙĦØ§Ø¬ØªÙħØ§Ø¹": 4911,
      "ĠØ§ÙĦÙħÙģØ±": 4912,
      "ĠØ§ÙĦØ´Ø§Ø±Ø¹": 4913,
      "ĠØ§ØŃØªÙģ": 4914,
      "ĠÙĦÙĨÙģØ³": 4915,
      "ĠØ§ÙĦØ±ÙĪØŃ": 4916,
      "Ø¯ÙĦ": 4917,
      "ĠØ´Ø§Ø±Ø¹": 4918,
      "ØºØ·ÙĬØ©": 4919,
      "Ø£ÙĥØ¯": 4920,
      "ĠØ§ÙĦÙĨÙĩØ§Ø¦ÙĬ": 4921,
      "ĠØ§ÙĦÙĤØ±Ø§Ø¡Ø©": 4922,
      "Ø§ÙĬÙĬØ±": 4923,
      "ĠØ§ÙĦØ³ÙĥØ±": 4924,
      "ĠØ£Ø¨Ø¯Ø§": 4925,
      "ec": 4926,
      "ÙĦÙĤÙī": 4927,
      "ĠÙĪØ§ÙĤØ¹": 4928,
      "ÙĢÙĢÙĢÙĢÙĢÙĢÙĢÙĢÙĢÙĢÙĢÙĢÙĢÙĢÙĢÙĢ": 4929,
      "Ġ))": 4930,
      "Ø§ÙĥØ±Ø©": 4931,
      "ĠØ§ÙĦØ±ÙĬØ§Ø¶Ø©": 4932,
      "ĠØ´Ø±ÙĪØ·": 4933,
      "ĠÙĬØ¶": 4934,
      "ÙįØĮ": 4935,
      "ĠØ§ÙĦÙħØ§ÙĦÙĬ": 4936,
      "Ø°Ø§Øª": 4937,
      "Ø¨ÙĩØ§": 4938,
      "ĠØ¥Ø¬Ø±Ø§Ø¡Ø§Øª": 4939,
      "ĠØ§ÙĨØªØ´Ø§Ø±": 4940,
      "ØªØ¯Ùī": 4941,
      "Ø²Ø§Ø¡": 4942,
      "\\\\": 4943,
      "ĠØ°ÙĪ": 4944,
      "Ø§Ø¦ÙĨØ§": 4945,
      "Ø±ÙĬÙĤÙĬ": 4946,
      "ĠØ§ÙĦØµÙĨØ§Ø¹ÙĬØ©": 4947,
      "ÙĪØµÙĪÙĦ": 4948,
      "ĠÙĪØ§ÙĦØ§Øª": 4949,
      "ĠØ§ÙĦØ³ÙĬØ·Ø±Ø©": 4950,
      "ĠÙĪÙħÙħ": 4951,
      "Ø³Ø§Ø³": 4952,
      "ĠØ¹Ø¯ÙĦ": 4953,
      "ĠÙĪÙģØ§Ø©": 4954,
      "ĠØ¨ØªØµ": 4955,
      "ĠØŃØ§Ø¯Ø«": 4956,
      "ĠÙĪÙĬÙĥ": 4957,
      "ïº®": 4958,
      "ĠØ§ÙĦØªÙģÙĥÙĬØ±": 4959,
      "ĠÙĪØ£ØŃ": 4960,
      "ĠØ§ÙĦØªØŃØ±ÙĬØ±": 4961,
      "Ġd": 4962,
      "ĠØ¯Ùĩ": 4963,
      "ĠÙĪØ§ÙĦØ«ÙĤ": 4964,
      "ĠØ¨Ø±ÙĬØ·Ø§ÙĨÙĬØ§": 4965,
      "Ø§ÙĪØ¶Ø§Øª": 4966,
      "ĠØ±ØŃÙĦØ©": 4967,
      "ĠÙĦÙĬØª": 4968,
      "ĠÙħØ³ØªÙĤØ¨ÙĦ": 4969,
      "ĠØ§ÙĤØ±Ø£": 4970,
      "ĠØªØ´Ø±ÙĬÙĨ": 4971,
      "ĠÙħØªØ§Ø¨Ø¹Ø©": 4972,
      "ĠØ§ÙĦØªÙĤÙĨÙĬØ©": 4973,
      "ĠØ¢ÙĨ": 4974,
      "ĠÂ·": 4975,
      "ĠØ´Ø®ØµØ§": 4976,
      "ĠÙĤÙĦÙĬÙĦ": 4977,
      "ĠØ£ÙħØ§ÙĥÙĨ": 4978,
      "ĠØ¬ÙĪØ¯Ø©": 4979,
      "ĠÙĦØµØ§ÙĦØŃ": 4980,
      "ĠØ§ÙĦØ¨Ø´Ø±Ø©": 4981,
      "ĠÙĪØ¬Ø¯Øª": 4982,
      "Ø§Ø·Ø¦": 4983,
      "ĠØ§ÙĦØ¹Ø§ÙħÙĦÙĬÙĨ": 4984,
      "Ø·Ø¹ÙħØ©": 4985,
      "ĠØ§ÙĦØ®Øµ": 4986,
      "ĠØ§ÙĦÙĩÙĦØ§ÙĦ": 4987,
      "ĠÙĨÙĤØ¯Ùħ": 4988,
      "ĠØ§ÙĦØ§Ø³Ùħ": 4989,
      "ĠÙĦØ¨Ø¹Ø¶": 4990,
      "ĠØ§ÙĦØªÙĤØ¯Ùħ": 4991,
      "un": 4992,
      "ĠØ§ÙĦÙħØ®ØªØµ": 4993,
      "ĠÙħØµØ·ÙģÙī": 4994,
      "ÙĪØ¯ÙĬ": 4995,
      "ĠÙħØ³Ø¨": 4996,
      "ĠØ¹ÙĦÙħØ§Ø¡": 4997,
      "ĠØ¨Ø±Ø´ÙĦÙĪÙĨØ©": 4998,
      "ĠØ§ÙĦÙħÙĩÙħØ©": 4999,
      "ĠØ§ÙĦÙĦØ§Ø¬Ø¦ÙĬÙĨ": 5000,
      "Ø¶ÙĬØ±": 5001,
      "ĠØ§ÙĨØ·ÙĦØ§ÙĤ": 5002,
      "ĠØ§ÙĦØ¥ÙĬØ·": 5003,
      "ÙģÙĪØ±": 5004,
      "ĠØªØ¹Ø±ÙĬÙģ": 5005,
      "ĠØµÙĨØ¯ÙĪÙĤ": 5006,
      "ĠÙĬØ¬Ø¯": 5007,
      "ĠØ·ÙĨ": 5008,
      "ïºĶ": 5009,
      "Ø·ÙĦØ§Ø¨": 5010,
      "ĠÙĦØªØ³": 5011,
      "ĠØ±Ùģ": 5012,
      "ĠØ§ÙĦÙħØ¹Ø±ÙģØ©": 5013,
      "ĠØªØ¶Ùħ": 5014,
      "ĠÙĪØ§Ùģ": 5015,
      "ĠÙħØ¨Ø§Ø±Ùĥ": 5016,
      "ĠØ§ÙĦÙħØµØ§Ø¯Ø±": 5017,
      "ĠØ§ÙĦÙĨØ§Ø¦Ø¨": 5018,
      "ĠØ§ÙĦØªØº": 5019,
      "ĠØ®Ø·ÙĪØ©": 5020,
      "ĠØ¢Ø³": 5021,
      "em": 5022,
      "ĠÙħÙĬØ²": 5023,
      "Ø³ÙħØ§Ø¹": 5024,
      "ĠØ§ÙĦØ§ØŃØªÙģ": 5025,
      "ØªØ´": 5026,
      "ĠØ£ØŃØ¯Ø§Ø«": 5027,
      "57": 5028,
      "ĠÙĪØ§ÙĦØ£Ø³": 5029,
      "ĠØ§ÙĦØ¶ÙĪØ¡": 5030,
      "ĠØ§ÙĦØ¹ÙħÙĦØ§Ø¡": 5031,
      "ĠØ§ÙĦØ±ÙĤ": 5032,
      "ĠØ§ØªØŃØ§Ø¯": 5033,
      "Ġf": 5034,
      "ĠØ§Ùĥ": 5035,
      "ĠØŁØŁ": 5036,
      "ĠÙĪØ±Ø¨ÙħØ§": 5037,
      "ĠØ§ÙĦØ¨Ø·ÙĪÙĦØ©": 5038,
      "ĠØ§ÙĦØ£ÙħÙĬÙĨ": 5039,
      "ØªØ³": 5040,
      "ĠØªØ¹Ø¯ÙĬÙĦ": 5041,
      "ĠØ¨ÙĥÙħ": 5042,
      "ĠÛ": 5043,
      "ĠØ§ÙĦÙħØ´ØªØ±Ùĥ": 5044,
      "ĠØ§ÙĦØªØŃÙĥÙħ": 5045,
      "44": 5046,
      "ĠÙħÙĥØ©": 5047,
      "ĠÙĬÙħÙĦÙĥ": 5048,
      "ĠØ§ÙĦØ§Ø³Ø±": 5049,
      "ĠØ§ÙĦÙĦØ§Ø¹Ø¨ÙĬÙĨ": 5050,
      "ĠØ°ÙĩØ¨": 5051,
      "ÙĤÙĬÙħ": 5052,
      "ÙĥÙĪØ±": 5053,
      "Ġï´¿": 5054,
      "59": 5055,
      "ĠØ·ÙĦØ§Ø¨": 5056,
      "ĠÙĦØªØ´": 5057,
      "ĠÙĥÙħÙĬØ©": 5058,
      "ÙĬØ³Ùī": 5059,
      "ĠÙħÙĨØ¸": 5060,
      "ÙĥØ§ØªØ¨": 5061,
      "ØºÙĦØ§ÙĤ": 5062,
      "ÙĪØŃÙĬØ¯": 5063,
      "ĠØ§ÙĦÙĨØ¨Ø§Øª": 5064,
      "ĠØ§ÙĦÙħØªÙħ": 5065,
      "ĠØ°Ùĩ": 5066,
      "ĠØ¹Ø¨Ø¯Ø§ÙĦØ¹Ø²ÙĬØ²": 5067,
      "ÙĪØ³Øª": 5068,
      "ĠØªØ²Ø§ÙĦ": 5069,
      "ĠØ§ÙĦØ¹ØµØ±": 5070,
      "ĠØ¬ÙĪØ¬ÙĦ": 5071,
      "ĠØ§ÙĦÙħØ³Ø§Ø¹Ø¯Ø©": 5072,
      "ĠÙħÙĨØ§Ø³Ø¨Ø©": 5073,
      "ĠØ£Ø³ÙħØ§Ø¡": 5074,
      "ĠØ§ÙĦØ£ÙĥØ¨Ø±": 5075,
      "Ø§Ø¯ÙĦØ©": 5076,
      "ĠØ§ÙĦÙħØªÙĨ": 5077,
      "ĠÙĥØ¨Ø§Ø±": 5078,
      "ØªØ¨Ø§Ø·": 5079,
      "ĠØ¬Ø§Ø¦Ø²Ø©": 5080,
      "ĠÙĪÙĦÙĥÙĨÙĩØ§": 5081,
      "ĠØ§ÙĦØŃØ±ÙĬØ©": 5082,
      "ÙĥÙĦÙģ": 5083,
      "Ø§ØŃÙĩ": 5084,
      "ĠØ§ÙĦØ°ÙĥØ±": 5085,
      "ĠØ§ÙĦØ³ÙħØ§Ø¡": 5086,
      "ĠÙħØ¹ÙĬÙĨ": 5087,
      "ĠØ¥ÙĨÙħØ§": 5088,
      "ĠØªØ´ÙħÙĦ": 5089,
      "ĠÙħØŃØ·Ø©": 5090,
      "ĠØ§ÙĦØ±Ø³Ø§ÙĦØ©": 5091,
      "Ø§ÙĬØ§Øª": 5092,
      "ĠÙħÙĦØ¹Ø¨": 5093,
      "ĠØ§ÙĦÙĦØ¹Ø¨": 5094,
      "ĠØ¹Ø±Ø¨ÙĬ": 5095,
      "ĠØªØ´ÙĥÙĦ": 5096,
      "ĠÙĩØ¬ÙĪÙħ": 5097,
      "ĠØ§Ø³ØªÙħØ±": 5098,
      "ĠØ¥Ø«": 5099,
      "ÙĦØ§ÙħØ§Øª": 5100,
      "Ø§ÙĩÙħØ©": 5101,
      "ĠÙĤØ±ÙĬØ©": 5102,
      "ĠØ§ÙĦØ´ÙĥÙĦ": 5103,
      "ÙħØ§Ø±": 5104,
      "ĠØ§ÙĦØ£Ø³Ø¹Ø§Ø±": 5105,
      "ĠØªØ¹ÙĦÙĨ": 5106,
      "ĠØ§ÙĦØµØ¨Ø§ØŃ": 5107,
      "ÙĩØ±Ø§ÙĨ": 5108,
      "ÙĪØ§Ø±ÙĬØ®": 5109,
      "ĠÙĬØªØ±": 5110,
      "ÙĦÙĪÙĦ": 5111,
      "ĠØ¨Ø§ÙĦØªØ¹Ø§ÙĪÙĨ": 5112,
      "ĠØ¨Ø¹Ø¯Ùħ": 5113,
      "ĠØ§ÙĦØ°ÙĥÙĬØ©": 5114,
      "ØŃÙħØ©": 5115,
      "ĠÙĪØªØ§Ø¨Ø¹": 5116,
      "ØµÙĦÙī": 5117,
      "Ø·Ùħ": 5118,
      "ĠÙĦÙħØŃ": 5119,
      "ĠØ§ÙĦØ¹Ø¯ÙĦ": 5120,
      "ĠØ£ÙĬØ©": 5121,
      "ÙĬÙģÙĪÙĨ": 5122,
      "tp": 5123,
      "ĠØ±Ø´": 5124,
      "ĠØ§Ø¨Ø±": 5125,
      "ĠØ³ÙĬØ§Ø³ÙĬ": 5126,
      "ĠØ¹ÙĨÙĩÙħ": 5127,
      "ĠØ§ÙĦÙĦØ¨ÙĨØ§ÙĨÙĬ": 5128,
      "ĠØ¨ØŃØ¶ÙĪØ±": 5129,
      "ÙĢÙĨ": 5130,
      "Ø§ÙħÙĩ": 5131,
      "Ø³ÙĬØ·": 5132,
      "ĠØ¨Ø§ÙĦØº": 5133,
      "ØªØŃØ§ÙĨ": 5134,
      "ĠØµØ±": 5135,
      "Ø§ÙĦÙĦÙĩ": 5136,
      "ĠØ§ÙĦÙĤØ¨Ø¶": 5137,
      "ĠØ§ÙĦÙħÙĤØ§ÙĦ": 5138,
      "ia": 5139,
      "ĠÙĪØ§ÙĦØ²": 5140,
      "ĠØ§ÙĦÙħÙĬÙĦ": 5141,
      "ĠÙģØ¬": 5142,
      "ĠØ§ÙĦØ£ÙĪØ±ÙĪØ¨ÙĬØ©": 5143,
      "ĠØ§ÙĦÙħÙĪØ§Ø±Ø¯": 5144,
      "ĠÙĪÙĩÙĥØ°Ø§": 5145,
      "ÙĬÙĨØ§Øª": 5146,
      "ĠØ§ÙĦØ¹ÙħÙĦØ§Øª": 5147,
      "ĠØ§ÙĦØ´Ø§Ø¨": 5148,
      "ĠØªØŃÙĤÙĤ": 5149,
      "ĠØ§ÙĦÙħÙĪÙĤÙģ": 5150,
      "ĠÙħÙĨØªØ¯ÙĬØ§Øª": 5151,
      "ĠØ§ÙĦÙħÙĦÙĥÙĬ": 5152,
      "ĠØ¨Ø¹Ø¶ÙĩÙħ": 5153,
      "Ø§Ø¨Ø·Ø©": 5154,
      "ĠØ§ÙĦÙĥØ´Ùģ": 5155,
      "ĠÙĥØ´ÙģØª": 5156,
      "ĠØ²ÙĪØ¬ÙĩØ§": 5157,
      "ĠØ§Ø³ØªØ¹Ø¯Ø§Ø¯": 5158,
      "ĠÙħÙĪÙĨ": 5159,
      "ĠØ§ÙĦÙĤØ¯ÙĬÙħ": 5160,
      "ĠØ¹Ø²ÙĬØ²": 5161,
      "ĠÙĪØ§Øµ": 5162,
      "ĠØŃÙħØ§Ø³": 5163,
      "ĠØ§ÙĦØ«ÙĤØ§ÙģÙĬ": 5164,
      "ĠØ¥ÙĬ": 5165,
      "ĠØ§ÙĦØ«ÙĤØ§ÙģÙĬØ©": 5166,
      "Ø¯ÙħÙĬØ±": 5167,
      "ĠÙĬØ¨ØŃØ«": 5168,
      "ĠÙĦÙĨØ¯ÙĨ": 5169,
      "ĠØ§ÙĦØ¥Ø¯Ø§Ø±ÙĬØ©": 5170,
      "ĠØ§ÙĦØ¯Ø¹ÙĪØ©": 5171,
      "ØªÙĬØ©": 5172,
      "ĠØ£Ø²ÙħØ©": 5173,
      "ĠÙĨØ§ØŃÙĬØ©": 5174,
      "ĠØ§ÙĦÙĤØ§Ø¦Ùħ": 5175,
      "ĠØ§ÙĦØ¬ÙĦØ¯": 5176,
      "ĠÙĦØ³ÙĨØ©": 5177,
      "ÙĪØ§Ø¦ÙĬØ©": 5178,
      "ĠØ§ÙĦØªØ¯Ø§ÙĪÙĦ": 5179,
      "ĠØ§ÙĦÙĬÙĪÙħÙĬØ©": 5180,
      "ĠÙĪØ§ÙĨØª": 5181,
      "ĠØ§ÙĦÙħØ¬Ø§ÙĦØ§Øª": 5182,
      "54": 5183,
      "ĠØ§ÙģØªØªØ§ØŃ": 5184,
      "ĠØºÙĬØ±Ùĩ": 5185,
      "ĠØªÙĪØ¬ÙĬÙĩ": 5186,
      "ĠØ¨Ø§Ø±Ùĥ": 5187,
      "ĠØ§ÙĦØŃØ§Ø¯Ø«": 5188,
      "ĠÙĪØ§ÙĦØ¬Ùħ": 5189,
      "ĠÙģÙĥØ±": 5190,
      "ĠØ£Ø·ÙĦÙĤ": 5191,
      "ĠØ§ÙĦÙħØªÙĩÙħ": 5192,
      "ØŃÙĬØ©": 5193,
      "ĠÙħÙĦÙģØ§Øª": 5194,
      "ĠÙĨØµØ±": 5195,
      "ĠØ§ÙĦÙĤÙĪÙħÙĬ": 5196,
      "ĠØ¨Ø§ÙĦÙĥØ§ÙħÙĦ": 5197,
      "ĠÙħØ±Ø§ÙĥØ²": 5198,
      "ĠJ": 5199,
      "Ø²ÙħØ§Øª": 5200,
      "ÙħØ§ÙĦÙĥ": 5201,
      "ĠØ§ÙĦØ³Ø§Ø¨Ø¹": 5202,
      "ĠØ£Ø±Ø¬": 5203,
      "ĠØ§ÙĦÙħÙĩÙĨØ¯Ø³": 5204,
      "ĠÙĬØ¬Ø±ÙĬ": 5205,
      "ĠÙĪØ£Ùģ": 5206,
      "ĠÙĪÙĪØ¶Ø¹": 5207,
      "ĠØ§ÙĦØµØ±Ø§Ø¹": 5208,
      "ĠØ¯Ø¹ÙĪØ©": 5209,
      "ØªÙħØ§ÙĦ": 5210,
      "ĠÙĪØ¹ÙħÙĦ": 5211,
      "ÙģÙĬØ¶": 5212,
      "ĠØ§ÙĦØ³ÙĬØ³ÙĬ": 5213,
      "ĠØ¯Ø§": 5214,
      "Ø¶Ø§Ø±": 5215,
      "Ø¨Ùĥ": 5216,
      "ĠØ§ÙĦØ§Ø¨ØªØ¯": 5217,
      "Ø§ÙĦØ´": 5218,
      "ĠØ¨Ø³ÙĬØ·Ø©": 5219,
      "ĠØ§Ø³ØªØ¹ÙħØ§ÙĦ": 5220,
      "ĠØ§ÙĦÙĬÙĩ": 5221,
      "ĠÙĦÙĦÙħØŃ": 5222,
      "ĠØ§ÙĦØ«ÙĦØ§Ø«Ø©": 5223,
      "ĠØ³Ø·ØŃ": 5224,
      "ĠØ§ÙĦÙĦÙĪØ§Ø¡": 5225,
      "ĠÙģÙĨØ§Ø¯ÙĤ": 5226,
      "Ø°ÙĥØ±Ø©": 5227,
      "ÙĪÙĬÙħ": 5228,
      "ĠØ¯Ø§Ø¦Ùħ": 5229,
      "ĠØ§ÙĦØ³ÙĬØ§ØŃØ©": 5230,
      "Ġc": 5231,
      "ĠØ§ÙĦØ¯Ø§Ø®ÙĦÙĬ": 5232,
      "ĠØ¥ÙĦÙĩ": 5233,
      "ØºÙĪØ·": 5234,
      "ĠØªÙĪØ¬Ùĩ": 5235,
      "ĠØ§ÙĦÙħØ³Ø§Ø¹Ø¯": 5236,
      "ĠÙĪØ§ÙĦØ¢": 5237,
      "ĠÙħÙĨØ´": 5238,
      "ĠÙĬØŃØ§ÙĪÙĦ": 5239,
      "ĠÙħÙĪÙĦ": 5240,
      "ĠØ¨Ø§Ø®": 5241,
      "ĠØ§ÙĦØ±Ø§Ø¦Ø¹": 5242,
      "Ø§ÙĦØŃØ©": 5243,
      "ĠØ§ÙĦØ£ÙħÙĪØ§ÙĦ": 5244,
      "ĠÙĥØ±ÙĬÙħ": 5245,
      "ÙĥØ§Ø¡": 5246,
      "ĠØ¶Ø¹Ùģ": 5247,
      "ĠØ§ÙĦØ¯Ø±Ø§Ø³ÙĬ": 5248,
      "ĠØ¨ÙĦØºØª": 5249,
      "ĠØ§ÙĦØ£Ø³Ø¨Ø§Ø¨": 5250,
      "ÙĨØ§Ø¹Ø©": 5251,
      "ĠØ§ÙĦØ¹ÙĤØ¯": 5252,
      "ÙĤØ¯ÙĬØ±": 5253,
      "ÙĦÙģØª": 5254,
      "ĠØ§ÙĦØ¬Ø§ÙħØ¹Ø§Øª": 5255,
      "ĠØªØ±Ø¨": 5256,
      "ÙĪÙĬÙĪØ±Ùĥ": 5257,
      "ÙĪÙĥØ³": 5258,
      "ĠØ§ÙĨÙĥ": 5259,
      "ĠØ§ÙĦÙĨÙĪÙĪÙĬ": 5260,
      "Ø§ÙĨØª": 5261,
      "ĠÙĪØ¬Ùħ": 5262,
      "ĠØ¹ÙħØ§": 5263,
      "ĠØ¹Ø§Ø¦ÙĦ": 5264,
      "ĠØ§ÙĦÙħØ±ÙĬØ¶": 5265,
      "ĠØ¥Ø³ÙĦØ§Ùħ": 5266,
      "Ø²ÙĬÙĦ": 5267,
      "Ø¬ÙĩØ§Ø²": 5268,
      "ĠØ§ÙĦØ£ØµÙĦÙĬØ©": 5269,
      "ÙĪØ¯ÙĬØ©": 5270,
      "ĠØ¸Ø±ÙĪÙģ": 5271,
      "ĠØ§ÙĨØªÙĩØ§Ø¡": 5272,
      "ĠÙģØ§Ø¹": 5273,
      "ĠØŃØµØ±ÙĬ": 5274,
      "ĠØ§ÙĦØ¥Ø¹": 5275,
      "ĠØ§ÙĦØªÙĨÙģÙĬØ°ÙĬ": 5276,
      "ĠØ§ÙĦÙĨØ§Øª": 5277,
      "ĠØ§ÙĦØ«ÙĤØ©": 5278,
      "ĠØ«Ø§ÙĨÙĬ": 5279,
      "http": 5280,
      "ĠX": 5281,
      "ĠÙĦÙĦØªØ³Ø¬ÙĬÙĦ": 5282,
      "ĠÙĤØ¯Ø±Ø©": 5283,
      "Ø³Ø§Ø¦Ø±": 5284,
      "Ø§Ø·ÙģØ§ÙĦ": 5285,
      "ĠØªÙĪØµ": 5286,
      "ĠÙĪÙĪÙģ": 5287,
      "ĠØ§ÙĦØ¨ØŃØ±ÙĬØ©": 5288,
      "ĠÙĬØªØŃØ¯Ø«": 5289,
      "ĠÙĤÙĦÙĬÙĦØ©": 5290,
      "ĠÙĪØ³ÙĦ": 5291,
      "ĠÙĤØ±Ø±": 5292,
      "Ø¬Ø§": 5293,
      "ĠÙĥØ§ÙĨÙĪÙĨ": 5294,
      "Ø«ÙħØ§Ø±Ø§Øª": 5295,
      "ĠØ¬ÙĦØ³Ø©": 5296,
      "ĠØºÙĬØ§Ø¨": 5297,
      "ĠØ¹Ø³ÙĥØ±ÙĬ": 5298,
      "ĠØ§ÙĦØªØ¬Ø§Ø±ÙĬ": 5299,
      "Ø¶ÙħØ§Ùħ": 5300,
      "ÙĥØ±Ùħ": 5301,
      "ĠÙĪØ§ÙĦÙħØ¯": 5302,
      "ĠØ¥Ø«Ø±": 5303,
      "ĠÙĦÙĬÙģ": 5304,
      "ĠØ§ÙĥØ¨Ø±": 5305,
      "ĠØ§ÙĦÙħØªØ·": 5306,
      "ĠØ§ÙĦØ²ÙĬ": 5307,
      "ÙĢØ±": 5308,
      "ĠÙħÙĦØ§Ø¨Ø³": 5309,
      "ĠÙĨÙĩØ§Ø¦ÙĬ": 5310,
      "ĠÙĤÙĪØ§Ø¹Ø¯": 5311,
      "ĠØ³Ø±Ø¹Ø©": 5312,
      "ĠØ§ÙĦÙħØ±Ø©": 5313,
      "ĠÙĪÙĬØ´": 5314,
      "ÙĬØ§ÙĦ": 5315,
      "ĠØ¨Ø§Ùĥ": 5316,
      "ÙĦØŃ": 5317,
      "ĠÙĦØŃØ¸Ø©": 5318,
      "ĠØªØ¹ÙĬØ´": 5319,
      "ĠØ§ÙĦØ®Ø±ÙĪØ¬": 5320,
      "ĠØ§ÙĦØªÙħÙĪ": 5321,
      "Ø§Ø¨ÙĬÙĨ": 5322,
      "ĠØ§Ø³ØªØ·Ø§Ø¹": 5323,
      "ĠØ§ÙĦØªØµÙħÙĬÙħ": 5324,
      "ĠØ±ÙĪØ§Ùĩ": 5325,
      "ĠØ¨Ø§ÙĦÙħØ¦Ø©": 5326,
      "ØºØ§ÙĨ": 5327,
      "ĠØ§ÙĦØ§ØªØµØ§ÙĦØ§Øª": 5328,
      "ÙĬØŃÙĬ": 5329,
      "ĠØªØŃØµÙĦ": 5330,
      "ĠØ§ÙĦØªØ§Ø±ÙĬØ®ÙĬØ©": 5331,
      "ĠØ´Ø¨Ùĩ": 5332,
      "52": 5333,
      "ĠØªØ¨ØŃØ«": 5334,
      "ĠÙħØ¬Ø§ÙĦØ§Øª": 5335,
      "ĠØ¹ÙĪØ¯Ø©": 5336,
      "ĠÙĦØ²ÙĬ": 5337,
      "ĠØ§ÙĦØ¨ÙĬØ¶Ø§Ø¡": 5338,
      "ĠØ³ÙĦØ§Ùħ": 5339,
      "ĠÙħÙħÙĬØ²": 5340,
      "ĠÙĥØ£ÙĨ": 5341,
      "ĠØ¥ØµØ¯Ø§Ø±": 5342,
      "ØŃØªØ§Ø¬": 5343,
      "ĠØŃÙĤØ§": 5344,
      "ï»Łïº": 5345,
      "ĠÙħØ³ØªØ®Ø¯Ùħ": 5346,
      "ĠÙĪØ§ÙĦØ¹Ø¯": 5347,
      "Ø¬ÙĬÙĨ": 5348,
      "ĠØ¨ÙģØ¶ÙĦ": 5349,
      "ĠÙħØ·Ø§ÙĦØ¨": 5350,
      "ĠÙĪØ£Ø¹": 5351,
      "ĠØ§ÙĦØ£Ø³ÙĪØ§ÙĤ": 5352,
      "ÙĪÙĦÙĨ": 5353,
      "ĠØ°ÙĪÙĬ": 5354,
      "ØªÙĬØ§Øª": 5355,
      "Ø§Ø¯ØªÙĩ": 5356,
      "ĠØ³ÙĤÙĪØ·": 5357,
      "ĠÙĦÙĦÙĬ": 5358,
      "ĠÙĦÙĦØ§Øª": 5359,
      "ĠØªÙĤÙĨÙĬØ©": 5360,
      "ÙĪÙģØ©": 5361,
      "://": 5362,
      "ĠØ§ÙĦÙģØ¹ÙĦ": 5363,
      "ĠÙħØµØ§ÙĦØŃ": 5364,
      "ĠÙĨÙĪÙħ": 5365,
      "ĠØªØ±Ø§Ø¬Ø¹": 5366,
      "ÙĪÙĨØ³ÙĬ": 5367,
      "ÙĬØ±ÙĪØ³": 5368,
      "ÙĦÙĪ": 5369,
      "ĠÙĬØ¹ØªÙĤØ¯": 5370,
      "ĠØ³ØªØ©": 5371,
      "Ø§Ø±Ùī": 5372,
      ".\"": 5373,
      "ĠÙĥÙĦÙħØ§": 5374,
      "ĠØ§ÙĨØ³": 5375,
      "ĠØ§ÙĦØ§Ø³ÙĦØ§ÙħÙĬØ©": 5376,
      "ĠØ¨ÙĦØ§Ø¯Ùĩ": 5377,
      "ĠØ§ÙĦØ¨Ø±Ø§Ø²": 5378,
      "ĠØ±Ø£ÙĬ": 5379,
      "Ø´Ø±ÙĬ": 5380,
      "ØªØŃØ§ÙĨØ§Øª": 5381,
      "Ġb": 5382,
      "ĠØ§ÙĦÙħÙĤØ±Ø±": 5383,
      "ĠØ§ÙĦØ«Ø§ÙĨÙĪÙĬØ©": 5384,
      "ĠØ§ÙĦØºÙĬØ±": 5385,
      "Ø¯Ø±Ø§Ø³Ø©": 5386,
      "ĠØ§ÙĦÙħÙĦÙĥÙĬØ©": 5387,
      "ĠØ§Ø¹ØªØ¨Ø±": 5388,
      "Ġi": 5389,
      "ĠØ§ÙĦØ¨Ø¹": 5390,
      "ĠÙĨØ³Ø¨": 5391,
      "ĠØ§ÙĦØŃÙĪ": 5392,
      "ØŃÙĥ": 5393,
      "Ø§Ø³Ø±": 5394,
      "ĠÙĪÙĬÙĦ": 5395,
      "ÙħØ§Ùĩ": 5396,
      "ĠØ¢Ø®Ø±ÙĬÙĨ": 5397,
      "ĠØ§ÙĦØ³ÙĬØ±": 5398,
      "ÙĤØµÙī": 5399,
      "ĠÙĤÙĦÙĪØ¨": 5400,
      "ĠØ§ÙĦØªØŃØ¯": 5401,
      "ĠÙħÙĨØªØµÙģ": 5402,
      "ĠØ¢Ø«Ø§Ø±": 5403,
      "ÙĤÙĦØ¨": 5404,
      "ĠÙĪÙĬØ¬Ø¨": 5405,
      "ĠØ§ÙĦØ·Ø§Ø¦Ø±Ø©": 5406,
      "ĠÙĨÙĤÙĪÙħ": 5407,
      "ĠØªØ®Øµ": 5408,
      "ĠØ¹ÙħÙĦÙĩ": 5409,
      "ĠØ§ÙĦÙħÙĪØ¬ÙĪØ¯": 5410,
      "ĠØªØ²ÙĬØ¯": 5411,
      "ĠØªØ¨ÙĤÙī": 5412,
      "ØªÙħÙĬ": 5413,
      "ĠØ£Ø¨Ø·Ø§ÙĦ": 5414,
      "ĠØ¬ÙĪÙĨ": 5415,
      "ÙĤØ³": 5416,
      "ĠÙĪØ±Ø¦ÙĬØ³": 5417,
      "ĠÙħØªÙī": 5418,
      "ĠØ§ÙĦÙĩØ¬ÙĪÙħ": 5419,
      "ĠØ§ÙĦØ¥ÙĬÙħØ§ÙĨ": 5420,
      "ĠØµÙģÙĪÙģ": 5421,
      "ĠØªÙĪÙĤÙģ": 5422,
      "ĠØªØµØ¨ØŃ": 5423,
      "ĠØºÙĬØ±ÙĩØ§": 5424,
      "ĠÙħØ³ØªØ´ÙģÙī": 5425,
      "ĠØ§ÙĦØ¥Ø®ÙĪØ§ÙĨ": 5426,
      "ÙĥÙĨØª": 5427,
      "ent": 5428,
      "ĠØ§ÙĦØ§ÙĨØªÙĤ": 5429,
      "ðŁ": 5430,
      "Ġ36": 5431,
      "ĠÙĪØªØ¹Ø§ÙĦÙī": 5432,
      "ĠØ§ÙĦÙħØ´ØªØ±ÙĥØ©": 5433,
      "ĠØ§ÙĦÙĩÙĪØ§ØªÙģ": 5434,
      "ÙĬÙĪÙĬØ©": 5435,
      "Ø®ÙĬØ±": 5436,
      "ĠØ§Ø³ÙħÙĩ": 5437,
      "ĠØ°ÙĥØ±Øª": 5438,
      "ÙĩØ¬": 5439,
      "ĠØ§ÙĦØ´ÙĬØ¡": 5440,
      "Ø¹Ø¯Ø§Ùħ": 5441,
      "ĠÙħØ¤Ø´Ø±": 5442,
      "53": 5443,
      "ÙħÙĥÙĨ": 5444,
      "ĠÙĬÙĪÙģØ±": 5445,
      "and": 5446,
      "ĠÙĪÙģÙī": 5447,
      "ĠØ«ÙĪØ±Ø©": 5448,
      "ĠØ¶ÙħØ§ÙĨ": 5449,
      "ĠØ¨ØªØŃ": 5450,
      "ĠØŃØªÙĬ": 5451,
      "ĠÙģØªØ§Ø©": 5452,
      "ĠØ§ÙĦÙħÙĨØ²": 5453,
      "ØµÙĬØ¯": 5454,
      "ĠØ§ÙĦÙĬØ³": 5455,
      "ĠØ¯Ø±Ø¬Ø§Øª": 5456,
      "ew": 5457,
      "ĠØŃÙĤÙĤ": 5458,
      "ĠØ§ÙĦÙĤØ§Ø¹Ø¯Ø©": 5459,
      "ĠØ§ÙĦØ£Ø·Ø±Ø§Ùģ": 5460,
      "ĠØ·ÙĬØ¨": 5461,
      "ĠØ®Ø·ÙĪØ§Øª": 5462,
      "ĠØ¨ÙĬØ¯": 5463,
      "ĠØŃÙĪØ§Ø±": 5464,
      ",,": 5465,
      "Ø¯Ø±ÙĬØ¨": 5466,
      "iv": 5467,
      "ĠØ§ÙĦØ§ÙĨØªØ®": 5468,
      "Ø±ÙģÙĬØ©": 5469,
      "ĠØªØ¹ØªÙħØ¯": 5470,
      "Ø§ÙģÙĬØ§": 5471,
      "Ø¦Ùĥ": 5472,
      "ĠÙĬØ¶Ø¹": 5473,
      "ĠØ´Ø¹Ø§Ø±": 5474,
      "ir": 5475,
      "ĠÙĬØ³ÙħÙī": 5476,
      "ĠØ´ÙĬØ®": 5477,
      "Ø²Ø§ÙĬØ¯": 5478,
      "ĠØ«Ø§Ø¨Øª": 5479,
      "ĠÙĬØŃÙĬ": 5480,
      "ĠØ§ÙĦØ¨ÙĦØ¯Ø§ÙĨ": 5481,
      "ÙĪØ±Ø¬": 5482,
      "ĠÙĥØ£": 5483,
      "ĠÙĪØ¹Ø¯Ø¯": 5484,
      "ĠÙĬØ¹Ø§ÙĨÙĬ": 5485,
      "ĠÙĤØ±ÙĬØ¨": 5486,
      "ĠÙĨÙĤØµ": 5487,
      "ĠÙħÙģÙĩÙĪÙħ": 5488,
      "ĠØŃÙĦÙĪÙĦ": 5489,
      "Ø³Ø§Øª": 5490,
      "Ø´Ø§Ø±Ø§Øª": 5491,
      "ĠØ£Ø®ÙĬ": 5492,
      "Ø¹ÙĪØ¯Ø©": 5493,
      "Ø®ÙħØ©": 5494,
      "ÙħÙĦÙĥØ©": 5495,
      "ĠÙĪØ£ÙĥØ«Ø±": 5496,
      "ĠÙħØ³Ø£ÙĦØ©": 5497,
      "ĠØ¨Ø§ÙĦØ§ÙĨ": 5498,
      "ĠØ§ÙĦØ¹ÙħØ§ÙĦ": 5499,
      "ĠÙħØ³ØªÙĪÙĬØ§Øª": 5500,
      "Ø²Ùĩ": 5501,
      "ĠÙħØ²ÙĬØ¯": 5502,
      "ĠØ§ÙĦÙĤÙĬÙħ": 5503,
      "ĠØ§ÙĦØ¥ØŃ": 5504,
      "ĠÙĪØ§ÙĦØ§Ø¹": 5505,
      "ÙĬØ¡": 5506,
      "ÙĨØ³Ùī": 5507,
      "ĠØ§ÙĦÙħØªÙĪÙĤØ¹": 5508,
      "ĠÙĪØ§ÙĦÙħÙĦ": 5509,
      "41": 5510,
      "ĠÙĬØ´ÙĥÙĦ": 5511,
      "ĠØ´ÙĨ": 5512,
      "Ø·Ùī": 5513,
      "ĠÙĪØ§ÙĦØ§ÙĤØªØµ": 5514,
      "ĠØ§ÙĦÙĤÙĪØ§ÙĨÙĬÙĨ": 5515,
      "Ø¨Ø¯Ø§Ø¹": 5516,
      "Ø³ØªÙĬØ±": 5517,
      "ĠÙĪØµØŃ": 5518,
      "ÙĩÙĦØ§Ùĥ": 5519,
      "ĠØ§ÙĦÙĨØ³Ø®Ø©": 5520,
      "ĠØ§ÙĦØ£ÙĦØ¹Ø§Ø¨": 5521,
      "ĠÙħÙĪØ§Ø¶ÙĬØ¹": 5522,
      "Ø¯Ø¯Ø§": 5523,
      "ĠÙĬØ¹ØªÙħØ¯": 5524,
      "ĠØ§ÙĦÙħØªØ±": 5525,
      "ĠØ¢ÙĦØ©": 5526,
      "Ø´Ø¹": 5527,
      "ĠØ§ÙĦÙĥÙĦÙĬØ©": 5528,
      "ØĮØĮ": 5529,
      "ĠØ³ÙĦÙĬÙħØ§ÙĨ": 5530,
      "ÙħÙī": 5531,
      "ĠØ§ÙĦØ®Ø§ÙħØ³Ø©": 5532,
      "42": 5533,
      "ĠÙħÙĨØ§Ø³Ø¨": 5534,
      "ĠØ§ÙĦØ¬Ø²Ø§Ø¦Ø±ÙĬ": 5535,
      "ĠÙĪÙĩÙĨØ§": 5536,
      "Ø³ÙħØ¹": 5537,
      "Ø§ÙĦØ±": 5538,
      "ĠÙĪØ£ÙĬØ¶Ø§": 5539,
      "ĠØ§ÙĦÙĥØ§Ùħ": 5540,
      "ĠØ£ØºÙĦØ¨": 5541,
      "Ø«ÙĬÙĦ": 5542,
      "ĠØªØ³ÙħØŃ": 5543,
      "ĠØ§ÙĦØ´Øª": 5544,
      "ĠÙħÙĬÙĨ": 5545,
      "ĠAM": 5546,
      "ĠÙĬØ¨ÙĤÙī": 5547,
      "ÙĤØ¯ÙħØ©": 5548,
      "ĠØ§ÙĦØŃÙĬÙĪØ§ÙĨØ§Øª": 5549,
      "ĠØªØ£Ø³ÙĬØ³": 5550,
      "ĠØ¨ÙĤÙĪØ©": 5551,
      "51": 5552,
      "ĠØ§ÙĦØ¨ÙĦØ¯ÙĬÙĨ": 5553,
      "ĠØ¹Ø¯Ø¯Ø§": 5554,
      "ĠÙĤÙħØ©": 5555,
      "ÙĪØ§ÙĬØ§Øª": 5556,
      "Ø¨Ø¹Ø§Ø¯": 5557,
      "ĠØ§ÙĦØ¹ÙĨØ§ØµØ±": 5558,
      "ĠÙĦÙħØ¹Ø§": 5559,
      "ĠØ§Ø¶Ø·Ø±": 5560,
      "ĠØ§ØªØ¬Ø§Ùĩ": 5561,
      "ĠØªØ¤Ø¯ÙĬ": 5562,
      "43": 5563,
      "ĠØ§ÙĦÙĨÙģØ³ÙĬØ©": 5564,
      "ĠØ¯Ø¹Ø§": 5565,
      "ØªØ¨Ø§Ùĩ": 5566,
      "ĠØ§ÙĦØ´ÙħØ§ÙĦ": 5567,
      "ÙĪØ±ÙĬÙĨ": 5568,
      "ÙĪØ¶ÙĬØŃ": 5569,
      "Ø§Ø«Ø©": 5570,
      "Ø«Ø¨Øª": 5571,
      "ĠØ®ÙĬØ§Ø±": 5572,
      "ØªØ§ÙħÙĬÙĨ": 5573,
      "ĠÙħØ§ÙĦÙĬØ©": 5574,
      "ĠØ²ÙĪØ¬ØªÙĩ": 5575,
      "ĠØ´Ùħ": 5576,
      "ĠØ¯ÙĪ": 5577,
      "ĠØ§ÙĦØµØŃÙĬÙģØ©": 5578,
      "ÙĥÙĪÙĬÙĨ": 5579,
      "ĠØ§ÙĦØ£ÙĦÙħØ§ÙĨÙĬØ©": 5580,
      "ĠØ§ÙĦØ®ÙĬØ§Ø±Ø§Øª": 5581,
      "ĠÙģØ§Øª": 5582,
      "ĠÙħÙĨÙĬ": 5583,
      "ĠØªØ´ÙĩØ¯": 5584,
      "ØºØ§Ø±": 5585,
      "ĠØ§ÙĦØ·ÙĦØ¨Ø©": 5586,
      "Ø¨ÙĪÙĥ": 5587,
      "ÙıØĮ": 5588,
      "ĠØ´Ø±Ø·Ø©": 5589,
      "ĠØ¹Ø·": 5590,
      "ĠÙĦØŃÙĤÙĪÙĤ": 5591,
      "ÙĩÙĬØ¦Ø©": 5592,
      "ĠÙĬØ®Ø±Ø¬": 5593,
      "ĠØªØ°ÙĥØ±": 5594,
      "ĠÙĪØ¥ÙĦÙī": 5595,
      "ĠØ§Ø³Ø±Ø§Ø¦ÙĬÙĦ": 5596,
      "ÙĥÙĦÙħ": 5597,
      "ĠØªØµÙĨÙĬÙģ": 5598,
      "ĠØ§ÙĦØ´Ø¨ÙĥØ©": 5599,
      "ĠØ¥ÙĨØ¬Ø§Ø²": 5600,
      "Ø§Ø±Ø¦": 5601,
      "ĠÙĤØ±Ø§Ø±Ø§Øª": 5602,
      "Ø²Ø²": 5603,
      "Ø§ØŃØ¸Ø©": 5604,
      "ĠØ£ÙħÙĪØ§ÙĦ": 5605,
      "ÙĤÙĬÙĨ": 5606,
      "ĠØ´Ø§Ø±": 5607,
      "ÙĢÙĢÙĢÙĢÙĢ": 5608,
      "ĠØ§ÙĦØ¯ÙĪÙĦØ§Ø±": 5609,
      "Ø§ÙĬØ§": 5610,
      "ĠÙħØ³Ø§Ø¹Ø¯Ø©": 5611,
      "ĠØ§ÙĦÙĥÙģ": 5612,
      "ĠØ§ÙĦØªØ®ÙĦØµ": 5613,
      "ĠØ§ÙĩÙħ": 5614,
      "ĠÙģÙĬÙĥ": 5615,
      "ÙĦØ§Ùĩ": 5616,
      "ĠÙĪÙĬÙģ": 5617,
      "ØŃÙĬÙĦ": 5618,
      "ĠÙĥØ±ÙĬ": 5619,
      "Ø§Ø¦Ùī": 5620,
      "Ø´ÙĬÙģ": 5621,
      "ĠØ§ÙĦØ§ÙĨØ³": 5622,
      "ĠØ§ÙĦØªØ·Ø¨ÙĬÙĤØ§Øª": 5623,
      "ĠØ§ÙĨØ®ÙģØ§Ø¶": 5624,
      "ĠØŃÙħØ§Ùħ": 5625,
      "ĠÙĪØ¬ÙĩØ©": 5626,
      "ĠØ§ÙĦÙĥÙĦÙħØ©": 5627,
      "ĠØ£ÙĤÙĪÙĦ": 5628,
      "ĠØªÙħØ§Ùħ": 5629,
      "ĠØ£ÙĨÙģØ³ÙĩÙħ": 5630,
      "ĠÙĬØ¯ÙĦ": 5631,
      "ĠÙĪØªØ³Øª": 5632,
      "Ø¸Ø¨ÙĬ": 5633,
      "ĠØ¨Ø¨Ø¹Ø¶": 5634,
      "ĠØ§ÙĦØ³ÙĥÙĨ": 5635,
      "2017": 5636,
      "ĠØ§ÙĦÙģØ±ØµØ©": 5637,
      "ĠØ§Ùī": 5638,
      "ØªÙĬØ§ÙĦ": 5639,
      "im": 5640,
      "ÙĪØ§ÙĨØ¨": 5641,
      "ĠØ£ÙĨÙĨÙĬ": 5642,
      "Ø§ØµØ±Ø©": 5643,
      "ĠØ§ÙĦØ·ÙĬØ±Ø§ÙĨ": 5644,
      "ĠØ§ÙĦÙħØŃØ¯": 5645,
      "ĠØŃØ§Ø¬": 5646,
      "ÛĮØ©": 5647,
      "Ø¯Ø§Ø¹Ø´": 5648,
      "ĠÙħØ¨ÙĦØº": 5649,
      "ĠØ¬Ø±Ø§Ø¡": 5650,
      "ÙĦÙĬÙĪÙĨ": 5651,
      "ĠØ§ÙĦØ³ÙĪÙĬØ³": 5652,
      "ĠØ§ÙĦØ³ÙĬØ¯Ø©": 5653,
      "ĠÙħØ¹Ø¯ÙĦ": 5654,
      "Ø±Ø§Ø¡Ø§Øª": 5655,
      "ÙĬØ¬Ø§Ø±": 5656,
      "ĠØ§ÙĦØ¯Ø§Ø®ÙĦ": 5657,
      "ÙĩÙĦØ§": 5658,
      "ĠÙĤØ·Ø¹Ø©": 5659,
      "ĠØ¹Ø´Ø±Ø§Øª": 5660,
      "ĠØ§ÙĦÙĥÙĩØ±Ø¨Ø§Ø¦ÙĬØ©": 5661,
      "ĠØ§ÙĦÙħØ·ÙĦÙĪØ¨Ø©": 5662,
      "ØºØ±ÙĤ": 5663,
      "ĠØ§ÙĦØ¬ÙħØ§Ø¹Ø©": 5664,
      "ĠØ§ÙĦÙĤØµØ©": 5665,
      "ĠØ¨ÙĤÙĬÙħØ©": 5666,
      "ĠØ£ØŃÙĬØ§ÙĨØ§": 5667,
      "ĠÙĪØ¹ÙĦ": 5668,
      "ĠØ§ÙĦØ¹Ø¯Ø§ÙĦØ©": 5669,
      "ĠØªÙĪÙĤÙĬØ¹": 5670,
      "ĠÙĥØªØ§Ø¨Ùĩ": 5671,
      "ĠØ§ÙĦÙĨÙħÙĪ": 5672,
      "ÙĩØ¯Ø§Ø¡": 5673,
      "ĠØ§ÙĦÙħØ±ÙĥØ²ÙĬØ©": 5674,
      "ĠÙ¢Ùł": 5675,
      "ĠØ§ÙĦØ¬ÙĩÙĪØ¯": 5676,
      "ĠÙħØ®Øª": 5677,
      "ĠØ§ÙĦÙĥØ§ÙħÙĦØ©": 5678,
      "ÙĩÙĩÙĩÙĩ": 5679,
      "ĠÙĨÙħÙĪ": 5680,
      "ØŃÙĪÙĬÙĦ": 5681,
      "ĠØ§ÙĦÙħØµØ±": 5682,
      "ĠØªØ¶ÙħÙĨ": 5683,
      "ĠÙĤØ±ÙĬØ¨Ø§": 5684,
      "ĠØ¶ÙĪØ¡": 5685,
      "ĠÙĥÙĪÙħ": 5686,
      "ĠØ§ÙĦÙĬÙĪÙĨ": 5687,
      "ĠÙĪØ§ÙĦØ£ÙĨ": 5688,
      "Ø¯Ø±Ø§Ø³Ø§Øª": 5689,
      "ĠØ¨Ø¯Ø§": 5690,
      "Ø¤ÙĥØ¯": 5691,
      "ĠØ¥ÙĤÙĦÙĬÙħ": 5692,
      "ĠÙħØµÙĨØ¹": 5693,
      "Ø§Ø³Ùĥ": 5694,
      "ĠÙħÙĨØªØ¬Ø§Øª": 5695,
      "ĠÙħÙĪØ§Øµ": 5696,
      "ĠØ§ÙĦØ³ÙĦØ§ØŃ": 5697,
      "ĠØ·Ø¨ÙĬØ¹Ø©": 5698,
      "Ùİ:": 5699,
      "ÙĬØ³Ø§ÙĨ": 5700,
      "Ø§Ø¨ÙĦØ³": 5701,
      "ĠÙħÙĩØ±Ø¬Ø§ÙĨ": 5702,
      "ĠØ¹ÙĦÙħØ§": 5703,
      "Ø·ÙĪÙħ": 5704,
      "ĠÙĦØ¯Ø¹Ùħ": 5705,
      "ĠØ§ÙĦØ±Ø§Ø¦Ø¹Ø©": 5706,
      "Ù¢": 5707,
      "ĠØ§ÙĦØªØ¹Ø¨ÙĬØ±": 5708,
      "ÙĥÙħØ§": 5709,
      "Ø¨ÙĬØ¹Ø§Øª": 5710,
      "ĠØ§ÙĦØ£Ø³Ø§Ø³ÙĬ": 5711,
      "ĠÙģÙĬØ±": 5712,
      "Ø®Ø±ÙĪØ¬": 5713,
      "ĠØ¨Ø§ÙĦØ¹ÙħÙĦ": 5714,
      "ĠØ®ÙĬØ§Ø±Ø§Øª": 5715,
      "Ø¸Ø§Ùĩ": 5716,
      "ÙħÙĨÙī": 5717,
      "ĠØªØ¶Ø¹": 5718,
      "ĠØ§ÙĦÙĨØ§Ø´": 5719,
      "ĠØ£ÙĥØ¯Øª": 5720,
      "ĠÙĬÙģØ¹ÙĦ": 5721,
      "ĠØ§ÙĦØ¹Ø¯ÙĪ": 5722,
      "Ø¹Ø¯Ø¯": 5723,
      "ĠØªØ´Ø¹Ø±": 5724,
      "ĠØ§ÙĦØ£ØŃÙĬØ§ÙĨ": 5725,
      "Ø´ÙĬØ§Øª": 5726,
      "ĠØºØ¯Ø§": 5727,
      "Ø¬ÙĬØ¨": 5728,
      "ĠØµØŃÙģÙĬ": 5729,
      "ĠÙħØ§ÙĦÙĥ": 5730,
      "ĠØªÙĤÙĬÙĬÙħ": 5731,
      "ĠØ§ÙĦØ¹ÙĤÙĪØ¨Ø§Øª": 5732,
      "Ø§Ø´Ø§Øª": 5733,
      "Ø¹Ø§ÙĨ": 5734,
      "ĠÙħØ¤Ø³Ø³Ø§Øª": 5735,
      "ĠÙģØ±Ø¯": 5736,
      "ĠØªØ¨ÙĦØº": 5737,
      "ĠØ§ÙĦØ¬ÙħÙĬÙĦØ©": 5738,
      "ĠØ£Ø±Ø§Ø¯": 5739,
      "Ø¬ÙħÙĪØ¹Ø§Øª": 5740,
      "ĠØ´ÙĥØ±": 5741,
      "Ø§Ø´Ø¯": 5742,
      "ĠØ¨Ø°": 5743,
      "ĠØªØ¹ÙĬÙĬÙĨ": 5744,
      "ĠØ§ÙĦØ®Ø·Ø§Ø¨": 5745,
      "ĠØ¨ÙĥØ«ÙĬØ±": 5746,
      "ÙĥØ§ÙģØŃØ©": 5747,
      "ĠÙĪØ§ÙĦØ§ØŃ": 5748,
      "ÙģØ¹Ø§ÙĦ": 5749,
      "ĠØ¹ÙĦØ§ÙĤØ§Øª": 5750,
      "Ø¨Ø³": 5751,
      "Ø¹ÙĦØ§ÙĨØ§Øª": 5752,
      "ĠÙĦÙĦÙħØ³Øª": 5753,
      "ĠØ§ÙĦÙħØ±Ùĥ": 5754,
      "ĠØŃÙħØ¯": 5755,
      "ĠÙħØªÙĪØ³Ø·": 5756,
      "ĠØ§ÙĦÙħØ³ØªØ´ÙģÙī": 5757,
      "ĠÙĤÙĪÙĬ": 5758,
      "ĠØ§ÙĦÙĨØµØ±": 5759,
      "ĠØ§ÙĦÙħÙĪØ¸ÙģÙĬÙĨ": 5760,
      "ĠÙħØ§Ø¡": 5761,
      "ĠÙĪØ£Ø¶Ø§ÙģØª": 5762,
      "ĠØ¹ÙħØ±ÙĪ": 5763,
      "ĠØ§ÙĦØ£ÙĨØ´Ø·Ø©": 5764,
      "ØªÙĪÙĨ": 5765,
      "ĠÙĪØŃØ¯Ùĩ": 5766,
      "ĠÙĦØ§ÙĬ": 5767,
      "Ø¹ÙĪÙĥ": 5768,
      "ĠÙĪØ±ØºÙħ": 5769,
      "Ø·Ø§ÙĦØ¨": 5770,
      "ÙĪÙħÙĩ": 5771,
      "ĠÙĪØ§ÙĦØªÙĨÙħÙĬØ©": 5772,
      "ĠÙĤÙħØª": 5773,
      "ĠÙĤØµÙĬØ±Ø©": 5774,
      "ĠØ¨ØªØ±": 5775,
      "ØµØ§Øµ": 5776,
      "Ø¹ÙĩØ§": 5777,
      "ĠØ§ÙĦØ´Ø§Ø´Ø©": 5778,
      "ĠØ§ØªÙģØ§ÙĤÙĬØ©": 5779,
      "ØªØ±Ø¨": 5780,
      "ĠÙħØ¹ÙĬ": 5781,
      "ĠØ¨Ø·Ø§ÙĤØ©": 5782,
      "ĠÙħØªÙĨÙĪØ¹Ø©": 5783,
      "ÙĪÙĬØªØ±Ø²": 5784,
      "ØªØ¨Ø·Ø©": 5785,
      "ÙĬÙħØ§": 5786,
      "ĠØ§ÙĦÙĨÙĩØ§Ø¦ÙĬØ©": 5787,
      "ĠÙĤØ±Ø±Øª": 5788,
      "ĠØ§ÙĦØ¬ÙħÙĩÙĪØ±": 5789,
      "ÙĩØ¯Ø¯": 5790,
      "ĠÙĨØ´Ø±Øª": 5791,
      "ĠØ§ÙĦÙĤÙĬÙħØ©": 5792,
      "ĠØ§ÙĦØ§Ø±Ø¯": 5793,
      "ĠÙĦÙĦØ¬Ùħ": 5794,
      "ĠØ§ÙĦÙĥØªØ§Ø¨Ø©": 5795,
      "Ø¨ÙĬØ§Ø¡": 5796,
      "ĠØ§Ø¹ØªÙħØ§Ø¯": 5797,
      "ĠØ§ÙĦÙħØ±ÙĪØ±": 5798,
      "ØªÙĪ": 5799,
      "ĠØ·Ø¨ÙĤ": 5800,
      "ĠØ§ÙĨØªÙĤ": 5801,
      "ĠØ³ÙĦÙĪÙĥ": 5802,
      "ĠÙĪØ§ÙĦÙģØ±": 5803,
      "ĠØªØ´ÙĬØ±": 5804,
      "Ø±ÙģÙĬ": 5805,
      "ÙĦÙĥÙħ": 5806,
      "ĠØ§ÙĦØ°ÙĩØ§Ø¨": 5807,
      "ĠØ¥Ø¬Ùħ": 5808,
      "ĠØŃØµÙĦØª": 5809,
      "ĠØ§ÙĦØ®ØµÙĪØµ": 5810,
      "ĠØ§ÙĦØ¬ÙħØ¹": 5811,
      "ĠÙĪØ¸ÙĬÙģØ©": 5812,
      "ĠØ§ÙĦØ¥ØµÙĦØ§ØŃ": 5813,
      "ĠÙĦØ´Ø±": 5814,
      "ĠØ¬ÙĬØ´": 5815,
      "Ø¹ÙĤ": 5816,
      "ÙĪØ³Ø©": 5817,
      "ĠØ§ÙĦØ¥ÙĨØ¬ÙĦÙĬØ²ÙĬØ©": 5818,
      "ØªØ±Ø§Ø¶": 5819,
      "ĠØ®Ø·Ø£": 5820,
      "ĠØ¨ÙħÙĨØ·ÙĤØ©": 5821,
      "ÙĬØ¯Ø§Øª": 5822,
      "ĠÙģØ§ÙĦÙħ": 5823,
      "ÙĤÙĬÙĩ": 5824,
      "ĠØ¯ÙĬÙĨØ§Ø±": 5825,
      "ØµÙĦØ©": 5826,
      "ĠØµØ¨Ø§ØŃØ§": 5827,
      "Ø´ÙĬØ®": 5828,
      "ĠØ¨Ø§ÙĦØ±ÙĬØ§Ø¶": 5829,
      "ĠØ§ÙĦÙĥØ§ÙħÙĦ": 5830,
      "ĠØ§ÙĦØªØ±ÙĥÙĬØ²": 5831,
      "ØµÙĦØ§Ø©": 5832,
      "ĠØ§ÙĦØ§ØªØ¬Ø§Ùĩ": 5833,
      "ĠØ·Ø¨Ø¹Ø§": 5834,
      "ĠÙĬØ³ØªØŃÙĤ": 5835,
      "ĠØ§ÙĦØ£Ø¬ÙĨØ¨ÙĬØ©": 5836,
      "ÙħÙĬØ±": 5837,
      "ĠØ£Ø¬ÙħÙĦ": 5838,
      "ĠØ¹Ø§Ø¦": 5839,
      "ÙĦÙĤØ§Ø¡": 5840,
      "ĠØ§ÙĦØ£Ø±Ø¨": 5841,
      "ĠÙĪÙĬÙĥÙĪÙĨ": 5842,
      "ĠØªØ³Ø¹Ùī": 5843,
      "ĠÙĦÙĦÙħØ¤": 5844,
      "Ø¹ÙĪØ¯ÙĬØ©": 5845,
      "ĠÙħØ¹Ùĥ": 5846,
      "ĠØ¨Ø¥ÙħÙĥØ§ÙĨ": 5847,
      "ĠØ¨Ø§ÙĤÙĬ": 5848,
      "ĠØ¨Ø§ÙĦØªØ£ÙĥÙĬØ¯": 5849,
      "ĠØŃØ¶": 5850,
      "lo": 5851,
      "ĠØ§ÙĦÙħÙĦØ§Ø¨Ø³": 5852,
      "Ø§ÙĦÙģØ©": 5853,
      "ĠØ±ÙĪØ§ÙĬØ©": 5854,
      "Ø§Ø±ØªÙĩ": 5855,
      "ĠØµØ±Ùģ": 5856,
      "ĠØ§ÙĦØ£ÙĪ": 5857,
      "ÙĦØ§ÙĪØ©": 5858,
      "ØªØ±ØŃ": 5859,
      "ĠØ§Ø¯Ø§Ø±Ø©": 5860,
      "ĠØ§ÙĦÙħØµØ±ÙĬÙĬÙĨ": 5861,
      "ĠØ´Ø§Ø´Ø©": 5862,
      "ĠØ§ÙĦØ£Ø¯Ø§Ø¡": 5863,
      "ĠØ¨Ø¬Ø§ÙħØ¹Ø©": 5864,
      "Ġ500": 5865,
      "ĠØ§ÙĦØ´Ø¹ÙĪØ±": 5866,
      "ĠÙħØ¹Ø¯Ø§Øª": 5867,
      "ut": 5868,
      "ĠØ§ÙĦØ§Ø¹ÙĦØ§Ùħ": 5869,
      "ÙĥØªØ§Ø¨Ø©": 5870,
      "ĠÙħØ±Ø§ØŃÙĦ": 5871,
      "ĠØ§ÙĨÙĪØ§Ø¹": 5872,
      "ĠØ§ÙĦØ´Ø¤ÙĪÙĨ": 5873,
      "ĠØ§ÙĦØŃÙħØ§ÙĬØ©": 5874,
      "ĠØ§ÙĦÙĨÙĬØ§Ø¨Ø©": 5875,
      "Ø¨ÙĬØ¹Ø©": 5876,
      "ĠØ§Ø±ØªÙĥ": 5877,
      "ĠØªÙĨÙħÙĬØ©": 5878,
      "ĠØ£Ø±ÙĬØ¯": 5879,
      "ĠØ³Ùĥ": 5880,
      "ĠØ¸Ø§ÙĩØ±Ø©": 5881,
      "Ġ35": 5882,
      "ØªØ¨Ø§Ùĥ": 5883,
      "ĠØ§ÙĦØµÙĩÙĬÙĪÙĨÙĬ": 5884,
      "ĠØ§ÙĦØ£ÙĩØ¯Ø§Ùģ": 5885,
      "ĠØ¹ÙĦØ§ÙĤ": 5886,
      "ĠØ§ÙĦØ¯ÙģØ¹": 5887,
      "ĠØ´ÙĩØ¯Øª": 5888,
      "Ø´Ø³ØªØ±": 5889,
      "ØµÙĬØ¨": 5890,
      "ÙĪØ¶ØŃØª": 5891,
      "Ø¹ÙĦÙĬÙĩ": 5892,
      "ap": 5893,
      "ÙģÙĬØ±": 5894,
      "ĠØ¨Ø³ÙĬØ·": 5895,
      "Ø²ÙĬÙħØ©": 5896,
      "ĠØªÙĤØ§Ø±ÙĬØ±": 5897,
      "Ø´ÙģÙĬØ§Øª": 5898,
      "ĠØ³ÙĪØ¡": 5899,
      "ĠØ§ÙĬØ±Ø§ÙĨ": 5900,
      "ĠÙĥÙĩØ±Ø¨": 5901,
      "ĠØŃØ±ÙĬØ©": 5902,
      "ĠØ§ÙĦØ±ÙĪÙħ": 5903,
      "ĠØŃÙĬØ§ØªÙĥ": 5904,
      "ĠØ§ÙĦØµØŃØ§ÙģØ©": 5905,
      "ĠØ£Ø¯ÙĪØ§Øª": 5906,
      "ĠÙĪØ³ÙĬÙĦØ©": 5907,
      "ĠØ§ÙĦØ§Øº": 5908,
      "ĠØ§ÙĦÙĬÙħÙĨÙĬ": 5909,
      "ĠÙģØ´ÙĦ": 5910,
      "Ø§Ø¨Ø§": 5911,
      "ĠØ³ÙĬÙģ": 5912,
      "ĠØ§ÙĦÙħØ¨Ø§Ø±Ùĥ": 5913,
      "ĠØ£ÙĨØ´Ø·Ø©": 5914,
      "ĠØ¬Ø±Ùī": 5915,
      "ĠÙģØ±Ø¹": 5916,
      "ĠØ§ÙĦØ£Ø³ÙĪØ¯": 5917,
      "ĠÙĪØ§ÙĦÙħØ´": 5918,
      "ĠÙĪÙĥÙħØ§": 5919,
      "Ø°Ø§Ø¡": 5920,
      "ÙĦØªÙĤÙī": 5921,
      "ĠÙĨØ¬Ùħ": 5922,
      "Ø¨ØªØ¯": 5923,
      "ĠÙĪØ¨Ø¯Ø£": 5924,
      "ĠØ¨Ø±Ø¦Ø§Ø³Ø©": 5925,
      "ĠØ§ÙĦÙĩØ¬Ø±Ø©": 5926,
      "ØŃØ¯Ø§Ø«": 5927,
      "ĠØªØ®Ø±Ø¬": 5928,
      "ĠÙĦÙĤØ¨": 5929,
      "Ø¨Ø§Ø·": 5930,
      "ÙĢÙĦ": 5931,
      "ĠØ³ÙģØ±": 5932,
      "ig": 5933,
      "ĠÙĥÙĪØ¨": 5934,
      "ĠØ±ÙĪ": 5935,
      "ĠÙĬØ¯ÙģØ¹": 5936,
      "Ø§ÙģÙĩ": 5937,
      "ĠØ§ÙĦÙħØ¨Ø§Ø´Ø±": 5938,
      "ĠØ§ÙĦØŃÙħÙĦØ©": 5939,
      "ÙĬØ·Ø§ÙĦÙĬØ§": 5940,
      "ÙģØ§Ø¹ÙĦ": 5941,
      "ĠØ§ÙĦÙĨØªÙĬØ¬Ø©": 5942,
      "ĠØ§ÙĦØµÙĬÙĨÙĬØ©": 5943,
      "ĠØ³ÙĬØ¹": 5944,
      "ĠØªØ·ÙĪØ±": 5945,
      "ĠØ§ÙĦØ§Ø±Ø¶": 5946,
      "ĠØŃØ±Øµ": 5947,
      "ĠØªØµÙĪÙĬØ±": 5948,
      "ĠØ§ÙĦØªØ§Ø¨Ø¹": 5949,
      "Ø¨ÙĬØ§ÙĨ": 5950,
      "Ø·ÙĦØ§Ø¹": 5951,
      "Ø§ÙĩÙĬØ©": 5952,
      "ĠØ§ÙĥØªØ´Ø§Ùģ": 5953,
      "ĠØ§ÙĦØ£Ø³ÙĦØŃØ©": 5954,
      "ĠØ¨Ø¬Ø§ÙĨØ¨": 5955,
      "ĠÙĦØ´Ø±ÙĥØ©": 5956,
      "Ø§ÙĤÙĦ": 5957,
      "ĠØŃØ¸": 5958,
      "ĠØ°ÙĬ": 5959,
      "ĠÙħÙĤØ¯Ùħ": 5960,
      "ĠØ§ÙĦØ¹Ø§Ø¦ÙĦØ©": 5961,
      "ĠØ§ÙĦØ£Ø³Ø¦ÙĦØ©": 5962,
      "ĠØ¨ØªÙĤØ¯ÙĬÙħ": 5963,
      "ĠÙĪØ§ÙĦØªÙĤ": 5964,
      "ĠÙĪØ±Ø³": 5965,
      "Ø³ÙĬØ©": 5966,
      "ĠØŃÙĤÙĬÙĤÙĬØ©": 5967,
      "ĠÙĬÙħÙĨØ¹": 5968,
      "ÙĩÙĪØ©": 5969,
      "ĠØ§ÙĦØ·Ùģ": 5970,
      "ĠØ²ÙĬÙĨ": 5971,
      "ĠRe": 5972,
      "ĠØ§ÙĦØ³Ø¬ÙĨ": 5973,
      "ÙĪØ·ÙĨ": 5974,
      "ÙĪÙĤÙĬØª": 5975,
      "Ø¹ÙħÙĦÙĬØ§Øª": 5976,
      "ØªØ§Ø±": 5977,
      "ĠÙĨØ§Ø¬": 5978,
      "Ø§Ø·Ø¹Ø©": 5979,
      "ĠØ§ÙĬØ§Ùħ": 5980,
      "ĠØªØªØ¹ÙĦÙĤ": 5981,
      "ĠØ³ÙĥÙĨ": 5982,
      "ĠÙħØªØ£": 5983,
      "ÙĪØ·Ø©": 5984,
      "ĠØ§ÙĦØ´Ø®ØµÙĬ": 5985,
      "ÙģØ¹Ø©": 5986,
      "ĠÙħØ¹Ø§ÙĦØ¬Ø©": 5987,
      "ĠØ£ØŃÙĥØ§Ùħ": 5988,
      "ĠÙĦØªÙĤØ¯ÙĬÙħ": 5989,
      "ï»®": 5990,
      "ĠØ±Ø£Ùī": 5991,
      "ĠØ¨Ø§ÙĦÙħØ±": 5992,
      "ØµÙĦØª": 5993,
      "ØªÙĬØ§Ø²": 5994,
      "ÙĬØ§ØªÙĩ": 5995,
      "Ø¸Ø§ÙĩØ±Ø§Øª": 5996,
      "ĠØ§ØµØ¨ØŃ": 5997,
      "Ø´Ùĥ": 5998,
      "ĠØ³ÙĬÙħØ§": 5999,
      "Ø³Ø¹": 6000,
      "ĠÙħÙĪØ³ÙĥÙĪ": 6001,
      "ĠØ§ÙĦØºØ±Ø¨ÙĬ": 6002,
      "Ø±ÙĥØ§ÙĨ": 6003,
      "ĠØ·Ø§Ø¦Ø±Ø©": 6004,
      "ĠÙħÙħØ«ÙĦ": 6005,
      "ĠØ¬Ø¯ÙĪÙĦ": 6006,
      "ĠØ§ÙĦØ£ÙħØ§ÙĥÙĨ": 6007,
      "ĠØ¬Ø±ÙĬØ¯Ø©": 6008,
      "ĠØ§ÙĦØ´Ø¯ÙĬØ¯": 6009,
      "ĠØªØ¹Ø§ÙĨÙĬ": 6010,
      "ĠØ§ÙĦØ±ÙĬØ§Ø¶ÙĬ": 6011,
      "ĠØ§ÙĦÙħÙĤØ¯ÙħØ©": 6012,
      "ĠØ´ÙĤØ©": 6013,
      "ĠØŃÙģ": 6014,
      "ĠØ§ÙĦØ¥ÙĬØ±Ø§ÙĨÙĬØ©": 6015,
      "ĠÙħØ·ÙĦÙĪØ¨": 6016,
      "ÙĦÙĬÙĦØ©": 6017,
      "ĠÙĦØ¹Ø¯Ùħ": 6018,
      "ĠÙĪÙĩÙī": 6019,
      "ĠÙĪÙĦÙĩØ°Ø§": 6020,
      "ÙĪØºØ§ÙĨ": 6021,
      "ĠÙĪØ§ÙĨØ§": 6022,
      "ĠØ§ÙĦÙħØ³Ø¤ÙĪÙĦÙĬØ©": 6023,
      "ĠØ¬Ø°": 6024,
      "ĠØ§ÙĨØªØ®Ø§Ø¨Ø§Øª": 6025,
      "ĠÙĬØ®Øµ": 6026,
      "ĠÙĦÙĪØŃØ©": 6027,
      "ĠØ²Ø§ÙĦ": 6028,
      "ĠÙĪÙĤØ¨ÙĦ": 6029,
      "ĠØ§ÙĦÙħØ³Ø±ØŃ": 6030,
      "ĠØ§ÙĦÙģÙĤÙĩ": 6031,
      "ĠØ§ÙĦÙĬÙħÙĨÙĬØ©": 6032,
      "ĠØ¸ÙĩØ±Øª": 6033,
      "ĠØ·Ø¨ÙĬØ¹ÙĬ": 6034,
      "ÙĦÙģÙĬØ©": 6035,
      "ÙĬØªÙĬÙĨ": 6036,
      "Ø³ÙħÙī": 6037,
      "ĠØ§ÙĦØ¥Ø¬ØªÙħØ§Ø¹": 6038,
      "ĠÙĪØ§Ùħ": 6039,
      "ÙĪÙģØ§": 6040,
      "ØµØ±Ùģ": 6041,
      "ĠIn": 6042,
      "ĠÙĨØ±Ùī": 6043,
      "ĠØ§ØªØµØ§ÙĦ": 6044,
      "ĠØ§ÙĦØµØºÙĬØ±": 6045,
      "ĠØ³Ø±ÙĬØ¹Ø©": 6046,
      "ĠØ£Ø¸ÙĩØ±": 6047,
      "ĠØ¹Ø«ÙħØ§ÙĨ": 6048,
      "Ø§Ø³Ø¨Ø§Øª": 6049,
      "ĠThe": 6050,
      "Ø§ÙĩÙĦ": 6051,
      "ĠÙĤØ§Ø¯": 6052,
      "ÙħØ§Ùĥ": 6053,
      "ĠÙĪÙĨØ´Ø±": 6054,
      "ĠÙĦÙħØ´": 6055,
      "ÙĪÙĤØª": 6056,
      "Ø§Ø¶Ø§ÙģØ©": 6057,
      "ĠØ¨Ø§ÙĦÙģÙĬØ¯ÙĬÙĪ": 6058,
      "ĠÙģØ¶ÙĦ": 6059,
      "Ø§Ø±ÙĩØ§": 6060,
      "ĠÙĪØªØ·ÙĪÙĬØ±": 6061,
      "Ø§ÙĥØ±": 6062,
      "Ø¯ÙĬØ±": 6063,
      "ĠÙħØ§Ø²": 6064,
      "ĠØ§ÙĦØ³ÙĬØ§ØŃÙĬØ©": 6065,
      "ĠØ¨ÙĪØ¬ÙĪØ¯": 6066,
      "ĠÙĪØ§ÙĦØªÙī": 6067,
      "ï´¾": 6068,
      "Ø´Ø§Ø¨": 6069,
      "ĠØ§ÙĦÙħØ³ØªØ®Ø¯ÙħÙĬÙĨ": 6070,
      "ĠØ§ÙĦØ®Ø·ÙĪØ©": 6071,
      "ÙģÙĬÙĩ": 6072,
      "ĠÙĬØ±Ø¯": 6073,
      "ĠØ§ÙĦØ§Ø´ØªØ±Ø§Ùĥ": 6074,
      "ĠØ§ÙĦØµØ±": 6075,
      "Ø¹ÙĪØ©": 6076,
      "ĠØ¥Ø±ÙĩØ§Ø¨": 6077,
      "Ø§ØºØ©": 6078,
      "ĠÙĦÙĦØ¹Ø§Ùħ": 6079,
      "ĠØ¹Ø§ÙĦÙħÙĬØ©": 6080,
      "ĠØ¬Ø¯Ø©": 6081,
      "ĠØ¨Ø¥ÙĨ": 6082,
      "Ø§Ø°Ø¬": 6083,
      "ĠØ«ÙĤØ§ÙģØ©": 6084,
      "ĠØºØ§ÙĬØ©": 6085,
      "Ø±Øµ": 6086,
      "ĠØ§ÙĦØªÙĤÙĦÙĬØ¯ÙĬØ©": 6087,
      "Ø¨Ø§Ø¹": 6088,
      "ĠØ£ÙģÙĥØ§Ø±": 6089,
      "ĠØ£Ø¹ÙĦÙħ": 6090,
      "ĠÙħØ³Ø§Ø¨ÙĤØ©": 6091,
      "ĠØ§ÙĦØ£Ø³Ø§Ø³": 6092,
      "ÙĪÙĦÙĬÙĨ": 6093,
      "ĠØŃÙĬÙĨÙħØ§": 6094,
      "ĠØ±Ø§Ùħ": 6095,
      "Ø¹ÙĪØ§": 6096,
      "ÙĢÙĩ": 6097,
      "ĠØ®Ø±ÙĪØ¬": 6098,
      "Ø¨Ø§Ø±Ùĥ": 6099,
      "www": 6100,
      "ĠØ§ÙĦØ£ÙģÙĥØ§Ø±": 6101,
      "ĠØ¨Ø§ÙĦØ°ÙĥØ±": 6102,
      "ĠØ§ÙĦÙģØ¶Ø§Ø¡": 6103,
      "ĠØ§ÙĦØ³ÙģÙĬØ±": 6104,
      "ĠÙħØ±Ùĥ": 6105,
      "ĠÙĪØ§ÙĦØ³ÙĦ": 6106,
      "ĠÙĦÙħØ¹Ø§ÙĬÙĨØ©": 6107,
      "ĠØ®Ø¯Ùħ": 6108,
      "ĠÙĬÙĪÙħÙĬ": 6109,
      "ĠØ¥ÙĬØ±": 6110,
      "ĠØ§ÙĦØ±ÙĪØ§ÙĬØ©": 6111,
      "ĠÙħØªØ±Ø¬Ùħ": 6112,
      "ul": 6113,
      "ĠØŃÙĦÙħ": 6114,
      "ĠÙĦÙĪÙĥ": 6115,
      "ĠÙĦÙĦÙħØ±Ø©": 6116,
      "ĠØ§ÙĦØ¹Ø§ÙħÙĦØ©": 6117,
      "ĠØ®ÙĦÙģÙĬØ©": 6118,
      "ĠØ§ÙĦØ§Ø·": 6119,
      "ĠØ¨ÙħØ«": 6120,
      "ĠÙĬØ¯Ø¹ÙĪ": 6121,
      "ĠÙģØ§Ø±": 6122,
      "ĠÙħØµÙĦØŃØ©": 6123,
      "ĠØ§ÙĦØ®ÙĦØ§Ùģ": 6124,
      "ĠÙĪØ§ÙĦÙħÙĩ": 6125,
      "ĠÙĦÙħÙĪØ§Ø¬ÙĩØ©": 6126,
      "Ø¯Ø§Ø¨": 6127,
      "ÙĬØ±ÙĬØ§": 6128,
      "ĠØ¨ÙĤÙĬØ§Ø¯Ø©": 6129,
      "Ø±Ùĩ": 6130,
      "ĠØ§ÙĦØ§ÙĬØ±": 6131,
      "ĠØ§ÙĦØ´ÙĥØ±": 6132,
      "Ø´ÙĬØ©": 6133,
      "ĠÙĪÙĤØ¹Øª": 6134,
      "ĠØ§ÙĦÙħØ³Ø¤ÙĪÙĦÙĬÙĨ": 6135,
      "ĠØªÙĥÙĪÙĬÙĨ": 6136,
      "ĠØµØŃÙĬØ©": 6137,
      "ĠØ§ÙĦØªØ´Ø±ÙĬ": 6138,
      "ĠØ§Ø¹Øª": 6139,
      "ĠØºØ§ÙĦØ¨Ø§": 6140,
      "Ø§Ø³ÙĬØ§": 6141,
      "ĠÙĬÙĦØª": 6142,
      "ĠØ¢Ø³ÙĬØ§": 6143,
      "ĠÙĪØ§Ùĥ": 6144,
      "ÙĨØ¯Ø§Øª": 6145,
      "ĠØªØ·Ø¨ÙĬÙĤØ§Øª": 6146,
      "ĠÙĬÙĪØ§Ø¬Ùĩ": 6147,
      "ĠØ§ÙĦÙĩØ±": 6148,
      "ĠØªØŃÙĦÙĬÙĦ": 6149,
      "ĠØ§ÙĦØŃÙĤÙĬÙĤÙĬØ©": 6150,
      "ĠØ´Ø¤ÙĪÙĨ": 6151,
      "ĠØ§ÙĦØ¯ÙĩÙĪÙĨ": 6152,
      "ØŃØ¯Ø§Øª": 6153,
      "ĠÙĪØ£ØµØ¨ØŃ": 6154,
      "ĠØ¨Ø±Ø³": 6155,
      "ĠØ§ÙĦØµØ§ÙĦØŃ": 6156,
      "ĠØ¢Ø¨": 6157,
      "ĠØ£Ø¨ÙĪØ¸Ø¨ÙĬ": 6158,
      "ĠØ¨Ø§ÙĦØ¶": 6159,
      "ØªÙĥØ§Ø±": 6160,
      "ĠÙĦÙĦØ£ÙĨ": 6161,
      "ĠØ§ÙĦØ´Ø¹ÙĪØ¨": 6162,
      "ĠØ§ÙĦØ¹Ø«ÙĪØ±": 6163,
      "ĠØ§Ø¶ØºØ·": 6164,
      "ĠØ§ÙĦÙħØ¹ÙĨÙĬØ©": 6165,
      "ÙĪØ§ÙģÙĤ": 6166,
      "Ø·Ø±ÙĬØ©": 6167,
      "ĠÙĦÙģØªØ±Ø©": 6168,
      "ĠÙħÙĩØ§Ø±Ø§Øª": 6169,
      "ĠØ£ÙĪÙĦÙī": 6170,
      "ĠÙĨÙĬÙĪÙĬÙĪØ±Ùĥ": 6171,
      "Ø§ÙĤÙħ": 6172,
      "ĠÙĪÙĬÙĤ": 6173,
      "ĠØªÙĪØ§ØµÙĦ": 6174,
      "ĠØ§ÙĦØªÙĪÙĨØ³ÙĬ": 6175,
      "ĠØªÙĩØ¯Ùģ": 6176,
      "ĠØ´Ùģ": 6177,
      "Ø¸ÙĨ": 6178,
      "ÙĪØ¬Ø©": 6179,
      "ĠÙĨØ§Ø±": 6180,
      "ĠØ§ÙĦØ³ÙĦÙĪÙĥ": 6181,
      "ĠØ§ÙĦØ¨Ø®Ø§Ø±ÙĬ": 6182,
      "ĠØ§ÙĦØªØ¬Ø±Ø¨Ø©": 6183,
      "ĠÙĩØ±": 6184,
      "ĠØ§ÙĦØ¨Ø±ÙĬØ·Ø§ÙĨÙĬ": 6185,
      "ÙĤÙĬØ¨": 6186,
      "ĠÙĦÙĦÙħØ´Ø§Ø±ÙĥØ©": 6187,
      "Ġ70": 6188,
      "ĠÙħÙĪØ¬ÙĪØ¯Ø©": 6189,
      "ĠØ§ÙĦÙħØµÙĨ": 6190,
      "ÙĬØ§ÙĩÙĪ": 6191,
      "os": 6192,
      "ĠÙĪØ§Ø³Ø¹": 6193,
      "ĠÙħØ¯ÙĨ": 6194,
      "ĠØ¬Ø³": 6195,
      "ĠØ§ÙĦØŃØ§ÙĥÙħ": 6196,
      "ĠØ§ÙĦÙħÙĥØ±": 6197,
      "ÙĨØ§ÙĩØ§": 6198,
      "ÙĤØ¯Ø³": 6199,
      "ĠØ§ÙĦÙĪØ¸Ø§Ø¦Ùģ": 6200,
      "ĠØ§ÙĦØ£Ø·Ø¹ÙħØ©": 6201,
      "ĠØ£Ø´ÙĥØ§ÙĦ": 6202,
      "ĠØ§ÙĦØ¬ÙĩØ©": 6203,
      "ĠØ¹Ø§Ø¦ÙĦØ©": 6204,
      "ĠÙħØ¯Ø±Ø¨": 6205,
      "ĠØ§ÙĦØ¥Ø¹ÙĦØ§ÙħÙĬ": 6206,
      "ÙĪØ¯Ø§": 6207,
      "ĠØ§ÙĦØ³ÙĪÙĬØ¯": 6208,
      "ĠØ§ÙĦØ§Ø³ØªØ®Ø¯Ø§Ùħ": 6209,
      "ÙħØ¬": 6210,
      "ĠØ¨ÙħØ¹ÙĨÙī": 6211,
      "ĠØŃÙĦØ¨": 6212,
      "ĠÙĦÙĦØ£Ø·ÙģØ§ÙĦ": 6213,
      "ØªØ±Ø§ÙĪØŃ": 6214,
      "ĠØ¥ÙĦÙĬÙĥ": 6215,
      "ĠØ§ÙĦÙħÙĩÙĨÙĬØ©": 6216,
      "ÙĦØ³ÙģØ©": 6217,
      "ĠØ·Ø¨ÙĬØ¹ÙĬØ©": 6218,
      "Ø¯ÙĤØ§Ø¡": 6219,
      "Ø§Ø±Ø³Ø§Øª": 6220,
      "Ø¸Ø§Øª": 6221,
      "ĠØ³ÙĦØ·Ø©": 6222,
      "ØªØ±Ùħ": 6223,
      "ĠØ§ÙĦÙĥÙĨÙĬØ³Ø©": 6224,
      "ĠØªØŃØ¨": 6225,
      "ĠÙĪØ¨ØŃ": 6226,
      "ĠØ¹Ø§Ø¯ÙĦ": 6227,
      "ĠØ§ÙĦØªÙĦ": 6228,
      "ĠØŃØµÙĪÙĦ": 6229,
      "ĠØ£Ø¶": 6230,
      "Ø¬ÙĨØ¨": 6231,
      "Ø§ÙĦØªÙĩ": 6232,
      "ĠØ§ÙĦØ¯Ø±Ø¬Ø©": 6233,
      "ĠØ¯ÙĪÙĦÙĬØ©": 6234,
      "ĠØ§ÙĦØ£Ø±Ø¬": 6235,
      "ĠØ¥ÙħØ§": 6236,
      "ĠØ§ÙĦÙģÙĤ": 6237,
      "ĠØ§ÙĦØ¹Ø´": 6238,
      "ĠÙĪÙħØµ": 6239,
      "Ø¬ÙħÙĬÙĦ": 6240,
      "ĠØ§ÙĦØ«ÙĨØ§Ø¦ÙĬØ©": 6241,
      "ĠØ±Ø§Ø¨Ø·": 6242,
      "ÙĩØ±Ø©": 6243,
      "ĠØ§ÙĦØ¹Ø§ÙĦÙĬØ©": 6244,
      "Ø¶Ø±Ø§Ø±": 6245,
      "ĠØ¥ÙĨØ³": 6246,
      "ĠØ§ÙĦØ¨Ø§ÙĦØº": 6247,
      "ØªØ¨Ùĩ": 6248,
      "ÙħØ±Ø§Ø¶": 6249,
      "ÙĪØ²ÙĬØ±": 6250,
      "ĠØ³Ø¬": 6251,
      "ĠØ¯ÙĪÙĨØ§ÙĦØ¯": 6252,
      "ĠÙĨØ¹Ø±Ùģ": 6253,
      "ĠÙĪÙĬØ¬": 6254,
      "ØµØ±Ø©": 6255,
      "Ø¹Ø¯ÙĦ": 6256,
      "ĠØ§ÙĦÙħØ³ØªØ´Ø§Ø±": 6257,
      "ĠØ¨ÙħØŃ": 6258,
      "ÙĬÙħÙĨ": 6259,
      "ĠØ§ÙĦØ¥Ø±ÙĩØ§Ø¨ÙĬØ©": 6260,
      "ĠÙĦÙĬÙĥÙĪÙĨ": 6261,
      "ÙĪØ±Ùī": 6262,
      "ĠØ§ÙĦØªØ²Ø§Ùħ": 6263,
      "ĠØ¥Ø¨": 6264,
      "ĠØªØ¤ÙĥØ¯": 6265,
      "ĠÙĬØ·ÙĦÙĤ": 6266,
      "ĠØ±Ø³Ø§Ø¦ÙĦ": 6267,
      "ĠØ§ÙĦØ·Ø¨ÙĬØ¹Ø©": 6268,
      "ĠØ£ÙħÙĬÙĨ": 6269,
      "Ġ80": 6270,
      "ĠØ£ÙĤØ±Ø¨": 6271,
      "ĠÙħØ³ØªÙħØ±": 6272,
      "ĠØ§ÙĦÙģØ¶": 6273,
      "ÙĢÙħ": 6274,
      "ĠÙĬÙĪØ±ÙĪ": 6275,
      "Ø®ÙĬÙĨ": 6276,
      "ĠØ§ÙĦØ¬ÙĬÙĦ": 6277,
      "ĠØ¨ÙħØ«Ø§Ø¨Ø©": 6278,
      "ĠØ£ÙħØ±ÙĬÙĥÙĬ": 6279,
      "ĠØ¨ÙĪØ¶Ø¹": 6280,
      "ÙĨØ¯Ø¹ÙĪÙĥ": 6281,
      "ĠÙĬÙĤØ¨ÙĦ": 6282,
      "Ø¬ÙĪØ¡": 6283,
      "ĠØªØ§Ø¨Ø¹": 6284,
      "Ø´Ùī": 6285,
      "ĠØ³Ø±ÙĬ": 6286,
      "Ġ48": 6287,
      "ĠØ§ÙĦÙħÙĤØ±": 6288,
      "ĠØ³Ø¹": 6289,
      "ÙĪÙĤÙĬØ¹": 6290,
      "ĠØ§ÙĦØºØ±Ùģ": 6291,
      "ĠØ§ÙĦÙģÙĥØ±Ø©": 6292,
      "ï»ł": 6293,
      "ÙĦÙĤØª": 6294,
      "ĠØ§ÙĦØ±Ø£Ø³": 6295,
      "ĠØ¨ÙħØŃØ§ÙģØ¸Ø©": 6296,
      "ĠØ§ÙĦÙĪØ§ÙĤØ¹Ø©": 6297,
      "Ø§ÙĪØ§Ø©": 6298,
      "ĠØ£Ø¹Ø±Ùģ": 6299,
      "ĠØ²ÙĬØ§Ø±": 6300,
      "ĠØªØ®ØªÙĦÙģ": 6301,
      "ĠØ£ÙħÙĪØ±": 6302,
      "ĠØ±Ø³ÙħÙĬØ§": 6303,
      "Ø§Ø¶ØŃ": 6304,
      "ĠÙĪÙĦÙĤØ¯": 6305,
      "Ø´Ø·": 6306,
      "ĠØµØ§ØŃ": 6307,
      "ĠØ§ÙĦÙħØªØŃ": 6308,
      "ĠØ·Ø¹Ø§Ùħ": 6309,
      "ĠÙĪØ±ÙĤ": 6310,
      "Ø³ØªÙĩØ§": 6311,
      "ĠÙĪØ§ØŃØ¯Ø§": 6312,
      "__": 6313,
      "ĠÙĬØ±ØºØ¨": 6314,
      "ĠÙħÙħÙĬØ²Ø©": 6315,
      "ĠØ§ÙĦÙĤØ±Ø§Ø±Ø§Øª": 6316,
      "ĠØ§ÙĦÙħØ¹Ø±Ø¶": 6317,
      "ĠØ§ÙĦØŃØ¬Ø±": 6318,
      "ĠØ§ÙĦØ³ÙĪØ¯Ø§ÙĨÙĬ": 6319,
      "ĠØ§ÙĦØ£Ø«": 6320,
      "ÙĪÙĨØ¯": 6321,
      "Ø§Ø¬Ø³ØªÙĬØ±": 6322,
      "ĠØ§ÙĦØªÙĥÙĨÙĪÙĦÙĪØ¬ÙĬØ§": 6323,
      "ĠØªØ¨Ø¯ÙĪ": 6324,
      "Ø§ÙģÙĦ": 6325,
      "ĠØ§ÙĦÙģÙĬØ³": 6326,
      "ĠØ§Ø®ÙĬ": 6327,
      "ĠØ§ÙĦÙĤØ¶": 6328,
      "ĠÙħØ±Ø§Ø¬Ø¹Ø©": 6329,
      "ÙĢØ§": 6330,
      "ĠÙĪØ§ÙĦØ§Ø³": 6331,
      "ĠØ£Ø®Ø¨Ø±": 6332,
      "ĠØªØ±ØºØ¨": 6333,
      "ĠØ§ÙĦØ«ÙĦ": 6334,
      "ĠØ£Ø¬ÙĨ": 6335,
      "ĠØ§ÙĦÙĨØ§Ø¬": 6336,
      "Ø®ÙĬ": 6337,
      "ĠØ¨ÙĪØ§Ø¨Ø©": 6338,
      "Ø¨Ø§Ø±Ø§Øª": 6339,
      "ØªØµØ±": 6340,
      "Ø§ÙĤÙĩ": 6341,
      "Ø§Ø±ÙĬÙĪ": 6342,
      "ĠÙĦÙħØ¹Ø±ÙģØ©": 6343,
      "ĠØªØµØ¯Ø±": 6344,
      "Ø°Ø§Ùĥ": 6345,
      "ĠØ§ÙĦØ´Ø±ÙĪØ·": 6346,
      "ĠÙħØ¬Ø§ÙĨÙĬØ©": 6347,
      "ÙģØªØ§Ø¡": 6348,
      "ĠØ¬Ø²ÙĬØ±Ø©": 6349,
      "ĠØ¨Ø±ÙĬ": 6350,
      "Ø«ÙħØ±ÙĬÙĨ": 6351,
      "ĠØ§ÙĦØ²ÙħØ§ÙĦÙĥ": 6352,
      "ĠÙħÙĪØ¶": 6353,
      "Ġ300": 6354,
      "ĠØ§ÙĦÙģØªØ§Ø©": 6355,
      "ĠÙģØ¦Ø©": 6356,
      "Ø§Ø¯ÙĨ": 6357,
      "ĠØªÙħÙĦÙĥ": 6358,
      "ĠÙĪÙģØ¯": 6359,
      "ÙĪØ³ÙĬØ¹": 6360,
      "ĠØªØ±ØªÙĬØ¨": 6361,
      "ĠØ§ÙĦØ§Ø³ØªÙģØ§Ø¯Ø©": 6362,
      "ĠÙĪØ£Ø¯": 6363,
      "ĠØ§ÙĦÙħØ±Ø¶Ùī": 6364,
      "ĠØªÙĥØ±": 6365,
      "ĠÙĥÙĪØ±ÙĬØ§": 6366,
      "ĠÙĤØµØ±": 6367,
      "ĠØ¥Ø°ÙĨ": 6368,
      "ĠÙģØ§Ø²": 6369,
      "ĠÙħÙģØ±": 6370,
      "ĠÙĪÙĬÙĨØ¯ÙĪØ²": 6371,
      "ÙĩØ°Ùĩ": 6372,
      "ĠÙĪØªÙĤØ¯ÙĬÙħ": 6373,
      "ÙĪØ³Ø§Ø¦ÙĦ": 6374,
      "ĠÙĨØ¬ÙĪÙħ": 6375,
      "Ø¹Ùĥ": 6376,
      "ĠØ§ÙĦÙĤÙĨØ§Ø©": 6377,
      "ÙĦÙĤØ§Øª": 6378,
      "ĠÙĪÙĨØª": 6379,
      "ĠÙħØ´Ø±": 6380,
      "ĠÙħØ±Øª": 6381,
      "Ø§Ø¶Ùī": 6382,
      "ĠÙħØ±Ø¨Ø¹": 6383,
      "ĠØ£ÙħØ±Ø§Ø¶": 6384,
      "ĠÙĬØ£Ø®Ø°": 6385,
      "ĠØªØªØ±": 6386,
      "ĠØ¨ÙĨØ§Øª": 6387,
      "ĠØ§ÙĦØ§Ø®Ø¨Ø§Ø±": 6388,
      "ĠØŃØ¬Ø±": 6389,
      "ĠØ§ÙĦØªØ®ØµØµ": 6390,
      "ĠØµØ¨": 6391,
      "ĠØ§ÙĦÙĤÙħØ±": 6392,
      "ÙĤØ¯Ø§Ùħ": 6393,
      "Ø¨Ø²": 6394,
      "ĠØ¨Ø·ÙĦ": 6395,
      "Ø¨Ø§Ø¯ÙĦ": 6396,
      "ĠØ§ØŃØª": 6397,
      "ĠØ¨ÙĤØ¯Ø±": 6398,
      "ĠØ§ÙĦØ¹Ø´Ø±ÙĬÙĨ": 6399,
      "ïºİïº": 6400,
      "ĠØ§Ø¶Ø§ÙģØ©": 6401,
      "ĠØ§ÙĦØªØ¹ÙĦÙĬÙĤØ§Øª": 6402,
      "ĠØ§ÙĦØ§ÙĦØªØ²Ø§Ùħ": 6403,
      "ĠÙģÙĬÙĩÙħ": 6404,
      "ĠØ±Ø³ÙħÙĬØ©": 6405,
      "ĠØ§ÙĦØ£Ø³ÙĨØ§ÙĨ": 6406,
      "ĠØ±Ø³ÙħÙĬ": 6407,
      "ÙĪØ¹Ùĩ": 6408,
      "ĠÙĬÙĩÙħ": 6409,
      "Ø§Ø´ÙĤ": 6410,
      "ĠÙĤÙĪØ§ÙĨÙĬÙĨ": 6411,
      "ĠÙĬØ·ÙĦØ¨": 6412,
      "ĠØ¥ÙĨØª": 6413,
      "ĠØ§ÙĦØ³ÙĬØ§ÙĤ": 6414,
      "ĠÙĤØ¨ÙĪÙĦ": 6415,
      "ĠØ§ÙĦØ¨ÙĨÙĪÙĥ": 6416,
      "ĠØ®Ø²": 6417,
      "Ø§ÙĦÙĬÙĩ": 6418,
      "ĠØ£Ø²": 6419,
      "ĠØ¨ØªØ¹": 6420,
      "ĠØ§ÙĦØ®ÙĦØ§ÙĬØ§": 6421,
      "ĠØ§ÙĦØµØŃÙģ": 6422,
      "ĠÙĬØ¤Ø«Ø±": 6423,
      "ÙĨØ¬": 6424,
      "ĠØ®Ø§Ø±Ø¬ÙĬØ©": 6425,
      "ĠØ§ÙĦÙħØªØ¹": 6426,
      "Ø§Ø¯ÙĬÙĨ": 6427,
      "ĠØ®ÙĬØ±Ø§": 6428,
      "ĠÙħØ¬Ø§ÙĨÙĬ": 6429,
      "ĠØ§ÙĦØªØ±Ø§Ø«": 6430,
      "ÙģØ§ÙĦ": 6431,
      "ĠØ§ÙĦØ£ØŃØ²Ø§Ø¨": 6432,
      "ØŃÙĬØ§Ø¡": 6433,
      "ÙĪØªÙĬÙĪØ¨": 6434,
      "Ø¹Ø¯ÙĬÙĦ": 6435,
      "Ø§Ø¶Ø±Ø©": 6436,
      "ĠØ§Ø«ÙĨÙĬÙĨ": 6437,
      "ĠÙĦÙĤÙĬ": 6438,
      "ÙĪØ±ÙĬØª": 6439,
      "ÙĪØ§ÙĬ": 6440,
      "ÙĥÙĬÙħ": 6441,
      "Ø¸ÙĬÙħØ©": 6442,
      "ĠØ¹Ø§ÙħÙĦ": 6443,
      "Ø§ØªÙĬÙĨ": 6444,
      "ĠØ§ÙĦØ£ÙĤØµÙī": 6445,
      "Ø§ÙĬÙħ": 6446,
      "ĠÙĪØ£ÙĨØª": 6447,
      "ĠØ§Ø±ØªÙģØ¹": 6448,
      "Ġ......": 6449,
      "ation": 6450,
      "ĠØ§ÙĦØŃØ¬Ùħ": 6451,
      "ØµØ¯ÙĤØ§Ø¡": 6452,
      "ĠØ§Ø³ØªØ±Ø§ØªÙĬØ¬ÙĬØ©": 6453,
      "ĠØ³Ø§ÙħØ³ÙĪÙĨ": 6454,
      "ĠØ§ÙĦØªØ¯Ø®ÙĦ": 6455,
      "ÙĪÙĥØ¨": 6456,
      "ĠÙĪØ¬Ø¹ÙĦ": 6457,
      "ĠØ§ÙĦØªØ®Ø·ÙĬØ·": 6458,
      "ĠØ§ÙĦØ¯Ø¨ÙĦÙĪÙħ": 6459,
      "ĠÙĬØªØ¹Ø±Ø¶": 6460,
      "ĠÙĨØ³Ø®": 6461,
      "ĠØ§ÙĦØ¬ÙħÙĬÙĦ": 6462,
      "ĠØ§ÙĦØ§ØŃØ¯": 6463,
      "ÙģÙĬÙģØ©": 6464,
      "ĠÙħØ¬Ùĩ": 6465,
      "ĠØ±Ø¦Ø§Ø³Ø©": 6466,
      "ĠÙĪÙĥÙĬÙĦ": 6467,
      "Ø·Ø§ÙĦØ¨Ø©": 6468,
      "ĠØªØ¤Ø«Ø±": 6469,
      "ĠØ§ÙĦØ¨ÙĬØ¹": 6470,
      "ĠÙĪØ§ÙĦØ¹Ø§ÙĦÙħ": 6471,
      "ĠÙħÙĨØµÙĪØ±": 6472,
      "ĠØªØ±ÙĥÙĬØ¨": 6473,
      "ĠÙħØ³Ø¤ÙĪÙĦÙĬØ©": 6474,
      "ĠØ¥ØµØ§Ø¨Ø©": 6475,
      "ĠØ§ÙĦØ£ÙĦÙħØ§ÙĨÙĬ": 6476,
      "Ø§ÙĦØ®": 6477,
      "ĠØ§ÙĦØ´Ø±ÙĬØ¹Ø©": 6478,
      "ĠÙĦØ§ÙĨÙĩ": 6479,
      "ĠØ¹ÙĤÙĪØ¯": 6480,
      "ĠØ§ÙĦÙĪØ³Ø§Ø¦ÙĦ": 6481,
      "ĠØ¬ÙħÙĩÙĪØ±ÙĬØ©": 6482,
      "Ø±ÙĬØ¨ÙĬ": 6483,
      "ĠØ³ÙĩÙĦØ©": 6484,
      "ĠÙħØŃØ¯Ø¯Ø©": 6485,
      "ĠØ§ÙĦØªØ£ÙħÙĬÙĨ": 6486,
      "ĠÙĨÙĤÙĪÙĦ": 6487,
      "Ø±Ø¨Ø§Øª": 6488,
      "ĠØ£ÙĤØ¯Ùħ": 6489,
      "ĠÙģÙĥÙĦ": 6490,
      "Ø§Ø·ÙĦØ§Ø¹": 6491,
      "ĠØ¬Ø±Ø§Ø¦Ùħ": 6492,
      "ĠØªÙĤÙĦÙĬ": 6493,
      "ĠØ§ÙĦØ²Ø±Ø§Ø¹Ø©": 6494,
      "ĠÙħÙĪØª": 6495,
      "Ø¦ÙĨØ§Ùģ": 6496,
      "ĠØ§ÙĦØ§ÙħÙĬØ±": 6497,
      "ĠØ±Ø§ØŃ": 6498,
      "Ø§Ø³ÙĪØ¨": 6499,
      "ĠÙĦÙħØ±": 6500,
      "Ø¹Ø¯Ø©": 6501,
      "ĠØ§ÙĦØ±Ø³Ø§Ø¦ÙĦ": 6502,
      "ĠØ£Ø¨ÙĨ": 6503,
      "ĠØ£Ø³ØªØ§Ø°": 6504,
      "ĠØ§ÙĦØ¬ÙĦØ³Ø©": 6505,
      "Ø§ÙĦÙĬØ¯": 6506,
      "ĠØ§ÙĦØ¹ÙħÙĪÙħÙĬØ©": 6507,
      "ĠØ³ÙħØ¹": 6508,
      "ÙĪÙģØ±Ø©": 6509,
      "ĠØ¥ØµÙĦØ§ØŃ": 6510,
      "ĠÙģØµ": 6511,
      "ĠÙħÙĨØ§ÙģØ³": 6512,
      "ĠØ¨ÙĤÙĬØ©": 6513,
      "Ø§ÙĩÙĨ": 6514,
      "ĠØ¯Ø±ÙĩÙħ": 6515,
      "ĠØ·ÙĩØ±Ø§ÙĨ": 6516,
      "ĠØ£ÙĤØ±": 6517,
      "ĠØªÙĪÙĬØªØ±": 6518,
      "ĠØ¹ÙĦÙħÙĬØ©": 6519,
      "ØªÙĨÙĬ": 6520,
      "ÙĨØ§Ø¹": 6521,
      "ĠÙĬØ³Ø¨Ø¨": 6522,
      "ĠØ§Ø³ØªØ®Ø¯Ø§ÙħÙĩØ§": 6523,
      "ĠØ§ÙĦÙĪÙĥ": 6524,
      "ÙĬØªÙĩÙħ": 6525,
      "âĢĻ": 6526,
      "ĠÙĬØ¶Ùħ": 6527,
      "ĠÙħØ¦Ø§Øª": 6528,
      "ĠÙĪØ§ÙĦØŃØ±": 6529,
      "ĠÙĬÙĨØ¸Ø±": 6530,
      "ĠØ®Ø¨Ø±Ø©": 6531,
      "ÙĬØªÙĥ": 6532,
      "ĠØ³ÙĦØ§ÙħØ©": 6533,
      "ĠØ¥ÙĨØ³Ø§ÙĨ": 6534,
      "ĠÙħÙĬØ±": 6535,
      "ĠØ§ÙĦÙħØ·Ø±": 6536,
      "ĠÙħØ³Ø±ØŃ": 6537,
      "ĠØ¹ÙĨØ¯ÙĬ": 6538,
      "ĠÙħÙĨÙĥÙħ": 6539,
      "Ø§Ø¶ÙĦ": 6540,
      "Ø´Ø±Ø·Ø©": 6541,
      "Ù£": 6542,
      "ÙĥØªØ´Ùģ": 6543,
      "ĠÙĬÙĤÙģ": 6544,
      "ĠØ§ÙĦØ´Ø§Ùħ": 6545,
      "Ø±ÙģÙĬÙĩ": 6546,
      "ĠÙĪØŃØ³Ø¨": 6547,
      "ĠØ²Ø§ÙĬØ¯": 6548,
      "ĠØªØªØ¶ÙħÙĨ": 6549,
      "ĠØ§ÙĦØªØ¶": 6550,
      "ĠØ§ÙĦØ¯ÙĬÙħÙĤØ±Ø§Ø·ÙĬ": 6551,
      "ĠÙĬØªØ·ÙĦØ¨": 6552,
      "ĠØ®ÙĦØ§ÙĦÙĩ": 6553,
      "ĠØ§ÙĦØ´Ø§Ø¹Ø±": 6554,
      "ÙĦØ§ÙħÙĬØ°": 6555,
      "ĠÙĪØ§ÙĦØ¯Ùĩ": 6556,
      "Ġ&": 6557,
      "ĠØ§ÙĦØ§Ø®ØªØ¨Ø§Ø±": 6558,
      "Ø§ÙĨØ§Ø©": 6559,
      "ĠÙĬÙħØ±": 6560,
      "Ø±ÙĥÙĩ": 6561,
      "ĠÙĥØ³Ø§Ø±Ø©": 6562,
      "ĠØ¹ÙĨØ¯Ùĩ": 6563,
      "ĠØ§ÙĦØ´ÙĬØ·Ø§ÙĨ": 6564,
      "ĠÙĦÙĦØµÙģ": 6565,
      "ĠØªÙĤØ¨ÙĦ": 6566,
      "ĠØ§ÙĦØ¨ÙĪ": 6567,
      "ĠØ¬Ø¨ÙĦ": 6568,
      "ĠÙĬØªÙĨ": 6569,
      "ĠØ£Ø¨ÙĪØ§Ø¨": 6570,
      "ĠØ³ÙĦØ·Ø§ÙĨ": 6571,
      "ĠÙĪØ£Ø´": 6572,
      "ĠØ§ÙĦØ¯ÙĬÙĨÙĬ": 6573,
      "ĠØ§ÙĦØ£Ø·Ø¨Ø§Ø¡": 6574,
      "ĠÙħØ£": 6575,
      "ĠÙħÙĪØ§ÙĤÙģ": 6576,
      "ĠØ§ÙĦØŃÙģÙĦ": 6577,
      "ÙħØ§Ø·": 6578,
      "ind": 6579,
      "ĠØŃØµØ±ÙĬØ§": 6580,
      "ĠØ§ÙĦØ®ÙħØ³": 6581,
      "ĠÙĦØ¶ÙħØ§ÙĨ": 6582,
      "ĠÙħØ¯ÙĬØ±ÙĬØ©": 6583,
      "ĠÙĦØ§Ø®": 6584,
      "ĠØ§ÙĦØ¶Ø¹": 6585,
      "ĠØªØµØ±Ùģ": 6586,
      "ĠÙĨØ§Ø³": 6587,
      "ĠÙħÙĨÙĩÙħØ§": 6588,
      "ĠØ§ÙĦÙĨÙĬÙĦ": 6589,
      "ÙĢÙĢÙĢÙĢÙĢÙĢ": 6590,
      "ĠÙĦØªØµ": 6591,
      "Ø³Ùī": 6592,
      "ĠØ§ÙĦØ³Ø±ÙĬØ¹": 6593,
      "ĠØ§ÙĦØ¬Ø±ÙĬÙħØ©": 6594,
      "ÙħÙĨØª": 6595,
      "ĠØ§ÙĦØ£ÙģØ±Ø§Ø¯": 6596,
      "Ø§Ø¨Ø±Ø§Øª": 6597,
      "][": 6598,
      "ĠÙħØ·Ø¹Ùħ": 6599,
      "ÙĥÙĪÙħ": 6600,
      "ÙīØ¡": 6601,
      "ĠØ®Ø·Ø§Ø¨": 6602,
      "Ø¦ÙĬÙĨ": 6603,
      "ĠØ¹ÙĦØ§ÙħØ©": 6604,
      "Ø§ÙħØ±Ø©": 6605,
      "ĠØ¨Ø§": 6606,
      "ĠØªØ³ÙĦÙĬÙħ": 6607,
      "ĠSt": 6608,
      "ĠØ±ÙĪÙĨ": 6609,
      "ĠÙĪØ°": 6610,
      "ĠØ¨Ø¬ÙħÙĬØ¹": 6611,
      "ĠÙĤÙĪÙī": 6612,
      "Ø·Ø¨ÙĤ": 6613,
      "ÙĬÙĦÙĪÙĦ": 6614,
      "Ø§Ø¡Ø§Øª": 6615,
      "ĠØ¹Ø§ØµÙħØ©": 6616,
      "ĠØ¥ÙĦÙĥØªØ±": 6617,
      "ĠÙĬØ¹Ø·ÙĬ": 6618,
      "ĠÙĤØ§ÙĦÙĪØ§": 6619,
      "ĠØ§ÙĦØŃØ¯Ø«": 6620,
      "ĠØ¨Ø³Ø¹Ø±": 6621,
      "Ø²ÙĪ": 6622,
      "ĠØªØŃØ§ÙĪÙĦ": 6623,
      "Ġ=": 6624,
      "ĠØ±Øº": 6625,
      "ĠÙĬØŃÙĤÙĤ": 6626,
      "ĠØ¨Ø´Ø§Ø±": 6627,
      "ĠØ¥ÙģØ±ÙĬÙĤÙĬØ§": 6628,
      "ĠÙĪØ§Ø¬Ùĩ": 6629,
      "ĠØ¨ØŃØ±": 6630,
      "ĠØ¹ÙħØ±Ùĩ": 6631,
      "ĠÙĪØ®ØµÙĪØµ": 6632,
      "Ø®ÙĦØ§Øµ": 6633,
      "ĠØ§ÙĪØ±": 6634,
      "ĠØ«Ø§ÙĨÙĬØ§": 6635,
      "Ø¬ÙĦØ¯": 6636,
      "ĠÙħÙĪØ³Ùħ": 6637,
      "Ø¬ÙĦØ§Øª": 6638,
      "ÙĬÙĪØ±": 6639,
      "ĠÙĪØ¯Ø¹Ùħ": 6640,
      "ĠØ¯Ø±Ø³": 6641,
      "Ġ32": 6642,
      "ĠØ¢Ùħ": 6643,
      "ĠØ¹ÙĥØ³": 6644,
      "ĠØ³ÙĤØ·": 6645,
      "ĠØ§ÙĦÙħØ´Ø§Ø±ÙĥÙĬÙĨ": 6646,
      "ĠÙĬÙħØªÙĦÙĥ": 6647,
      "Ø§Ø³ÙĬÙĬÙĨ": 6648,
      "ØŃÙĪØ«": 6649,
      "ĠØ§ÙĦØ®Ø§Ø±Ø¬ÙĬ": 6650,
      "ĠØ§ÙĦØ®Ø²": 6651,
      "ÙĦØ·": 6652,
      "ĠÙħØ¹ÙĩØ¯": 6653,
      "Ø§ÙģÙĦØ©": 6654,
      "ĠØ§ÙĦØ£ÙĪØ¶Ø§Ø¹": 6655,
      "ĠØ¹ÙĦÙĪÙħ": 6656,
      "ĠØ§ÙĦØ£ÙģÙĦØ§Ùħ": 6657,
      "ĠØ§ÙĦØµÙĬØ¯": 6658,
      "ÙĨÙĬØ§ÙĩÙĪ": 6659,
      "\":": 6660,
      "ĠÙħÙĥÙĪÙĨ": 6661,
      "ĠØ§ÙĦØ£Ø¯ÙĪÙĬØ©": 6662,
      "um": 6663,
      "ĠØ§ÙĦØ¥ÙĬØ¬": 6664,
      "ĠØ§ÙĦÙħØŃÙĬØ·": 6665,
      "ÙĩÙĬØ§Ø±": 6666,
      "ĠØ¹ÙĤÙĦ": 6667,
      "Ø¹ÙĤØ¯": 6668,
      "ĠØ§ÙĦØ¢Ø«Ø§Ø±": 6669,
      "ĠØªØ¹Ø§ÙħÙĦ": 6670,
      "ĠØ§ÙĦØ¥ÙĦÙĩ": 6671,
      "ĠÙħÙĨØµØ¨": 6672,
      "Ġ90": 6673,
      "ĠØ£ÙĬÙĩØ§": 6674,
      "ĠØ¨ØŃØ¬Ùħ": 6675,
      "ĠÙĬØ´Ø§Ø±Ùĥ": 6676,
      "ĠØªÙĩØ¯ÙĬØ¯": 6677,
      "ĠØ§ÙĦØŃØ´Ø±Ø§Øª": 6678,
      "ĠØŃØ±Ø§Ø±Ø©": 6679,
      "ĠÙĪØ¨ØŃØ³Ø¨": 6680,
      "ÙĬÙĥØ§": 6681,
      "99": 6682,
      "ĠØŃØ¨ÙĬØ¨": 6683,
      "ĠØ³ÙĬÙĨØ§Ø¡": 6684,
      "ĠÙĤØ§Ø¯Ø©": 6685,
      "ĠÙĥØ³": 6686,
      "ĠØ§ÙĦØ£Ø³ÙĩÙħ": 6687,
      "ĠØ§ÙĦØ®Ø·ÙĪØ§Øª": 6688,
      "ĠØ§ÙĦØ¥Ø´Ø§Ø±Ø©": 6689,
      "ĠØ³ÙĬÙĦ": 6690,
      "ĠÙħØ¹Ø±ÙĥØ©": 6691,
      "Ø£ÙħÙĦ": 6692,
      "ÙĪÙĤÙĪÙģ": 6693,
      "ĠØ§ÙĦØµØ¹Ø¨": 6694,
      "ĠØ§ÙĦÙģÙĨØ§Ø¯ÙĤ": 6695,
      "ĠØ±ÙĤ": 6696,
      "ĠØ§Ø¬ÙħÙĦ": 6697,
      "ĠØ§ÙĦÙĤØ§Ø¶ÙĬ": 6698,
      "ĠÙħØ´Ø§ÙĩØ¯": 6699,
      "ĠÙĦÙħØ¯": 6700,
      "ĠØ®Ø¨Ø±Ø§Ø¡": 6701,
      "Ù¥": 6702,
      "ĠØ¨ÙĦØ¯Ø©": 6703,
      "ĠÙĨØµØ§Ø¦ØŃ": 6704,
      "ĠÙĬÙĤØ§ÙĦ": 6705,
      "ÙĦÙħØ§ÙĨÙĬØ©": 6706,
      "ØªÙĩÙī": 6707,
      "Ø¯Ø±Ø§Ùĥ": 6708,
      "ĠØ§ÙĦÙĨÙĪØ±": 6709,
      "ĠØ§ÙĦÙĨØ¬Ùħ": 6710,
      "ĠØ§ÙĦØ²ÙĬØ§Ø±Ø©": 6711,
      "Ø³ÙĬØ·Ø±": 6712,
      "ah": 6713,
      "ĠØ§ÙĦØŃÙħØ§Ùħ": 6714,
      "ĠØŃØª": 6715,
      "ĠÙĪØ²Ø±Ø§Ø¡": 6716,
      "ĠØ§ÙĦÙĤÙĨÙĪØ§Øª": 6717,
      "ĠØ§ÙĦØ²Ø±Ø§Ø¹ÙĬØ©": 6718,
      "Ø¨ÙĦØ§Ø¯": 6719,
      "ĠØ§ÙĦØ³ÙĪØ±ÙĬÙĬÙĨ": 6720,
      "ub": 6721,
      "ĠØªØªÙħÙĬØ²": 6722,
      "ĠØ§ÙĦÙħØ³ØªÙħØ±": 6723,
      "ÙĦÙĩØ§": 6724,
      "ĠÙĦÙĦÙĪØµÙĪÙĦ": 6725,
      "ĠÙĪÙĨÙĤÙĦ": 6726,
      "Ø²ÙĬØ§Ø¡": 6727,
      "ĠØ¨ÙħÙĪØ¬Ø¨": 6728,
      "ĠÙĥÙģØ±": 6729,
      "ĠØ§ÙĦÙĩØ¯": 6730,
      "ĠØ§ÙĦØ¥ÙĨØª": 6731,
      "ĠØ£ÙĪØ¨": 6732,
      "ĠØ±Ø¹Ø§ÙĬØ©": 6733,
      "ĠÙĬØ¹ÙĦÙĨ": 6734,
      "ess": 6735,
      "ĠØ§ÙĦÙħØ¤ÙĦÙģ": 6736,
      "ĠÙħÙĬØ¯": 6737,
      "ĠÙĬØ³Ø¹Ùī": 6738,
      "ĠØ§ÙĦØ±ÙĪ": 6739,
      "ÙĲ.": 6740,
      "ĠØ§ÙĦØ´Ø£ÙĨ": 6741,
      "ĠÙĢÙĢ": 6742,
      "ĠØ§ÙĦÙĤØ¶Ø§Ø¦ÙĬØ©": 6743,
      "ĠØ§ÙĦØ¥Ø³Ø¨Ø§ÙĨÙĬ": 6744,
      "ØªÙħØªØ¹": 6745,
      "ĠÙĦØŃÙħØ§ÙĬØ©": 6746,
      "ĠÙĪÙĤØ§Ùħ": 6747,
      "ÙĤÙĪØ¯": 6748,
      "ĠØºØ¶": 6749,
      "Ġï»£": 6750,
      "ĠÙĦØªÙĥÙĪÙĨ": 6751,
      "ĠÙĬÙĥÙģÙĬ": 6752,
      "ĠØ®ÙĦÙĬÙģØ©": 6753,
      "ĠØ¥Ø²Ø§ÙĦØ©": 6754,
      "ĠØªÙĬ": 6755,
      "ĠØ§ÙĦØŃØ±ÙħÙĬÙĨ": 6756,
      "ÙĩØ§ÙĨ": 6757,
      "ĠØ§ÙĦØªØ£Ø«ÙĬØ±": 6758,
      "Ġhttp": 6759,
      "Ø§ÙģØ°": 6760,
      "ĠØ§ÙĦØ±Ø´": 6761,
      "ĠØµØ¹Ø¨": 6762,
      "ÙĳØĮ": 6763,
      "ĠØ§ÙĦØ§ÙħØ§Ø±Ø§Øª": 6764,
      "Ġ45": 6765,
      "ĠØ¨Ø§ÙĦØ±ØºÙħ": 6766,
      "Ø§ÙĦÙĩØ§": 6767,
      "ĠØ¬Ø§ÙĨØ¨Ùĩ": 6768,
      "ĠâĨ": 6769,
      "ØºÙĬØ±Ø§Øª": 6770,
      "ĠØ§ÙĦØ°Ø§ØªÙĬØ©": 6771,
      "ĠØ§ÙĦÙħÙĨØ¸ÙħØ§Øª": 6772,
      "ex": 6773,
      "ĠÙĦÙĦØ£ÙħÙħ": 6774,
      "ĠÙħØ§ÙĨØ´Ø³ØªØ±": 6775,
      "ĠØ§ÙĦØ£ØµÙĦÙĬ": 6776,
      "th": 6777,
      "ĠØ§ÙĦØ®Ø¶": 6778,
      "ØªØ§Ùħ": 6779,
      "ĠÙĬÙĨØªØ¸Ø±": 6780,
      "Ø§Ø¹Ùħ": 6781,
      "Ø³ÙĬÙĦ": 6782,
      "Ø§ÙĪÙħ": 6783,
      "ÙĬÙģÙĩ": 6784,
      "ĠØ§ÙĦØ¶ÙģØ©": 6785,
      "ĠÙħÙĪØ§Ø·ÙĨ": 6786,
      "ĠÙħØ´ØªØ±Ùĥ": 6787,
      "Ġ2000": 6788,
      "ĠØ¨ÙħØ³Øª": 6789,
      "ĠØ§ÙĦØ¥Ø·ÙĦØ§ÙĤ": 6790,
      "ĠÙĪØ§Ø¨": 6791,
      "ĠÙħØ³ÙĬØ±Ø©": 6792,
      "ĠØªÙĪÙĦ": 6793,
      "Ġ.....": 6794,
      "Ġ2006": 6795,
      "ĠÙĬÙĥØªØ¨": 6796,
      "ÙĨÙĤ": 6797,
      "ĠÙħÙĥØªØ¨Ø©": 6798,
      "ïºĺ": 6799,
      "ĠØ¹ÙĬ": 6800,
      "Ø²Ø§ÙĬØ§": 6801,
      "ĠØ§ÙĦÙħØµØ±Ùī": 6802,
      "ĠÙħØªÙĥ": 6803,
      "ØŃØ¨Ø§": 6804,
      "ĠØ³Ø±ÙĬØ¹": 6805,
      "ĠØ§ÙĦØªØ§Ø³Ø¹": 6806,
      "ĠØ§ÙĦØ§Ø³ØªØ±Ø§ØªÙĬØ¬ÙĬØ©": 6807,
      "ÙĦÙĪÙĨ": 6808,
      "ĠØ§ÙĦØ¹ÙħÙĬÙĦ": 6809,
      "ĠØ§ÙĦØ¯Ø±Ø§Ø³ÙĬØ©": 6810,
      "ĠØ³ÙĨÙĪÙĬØ§": 6811,
      "ĠØ§ÙĦØ³ÙĦÙħ": 6812,
      "ĠØ§ÙĦØ§ÙĨØªÙĩØ§Ø¡": 6813,
      "ĠØ§ÙĦÙĥÙĬÙħÙĬ": 6814,
      "ĠÙħØ¶ÙĬÙģØ§": 6815,
      "ĠØ§ÙĦØ§ÙħÙĨ": 6816,
      "ĠØ§Ø®ØªÙĦØ§Ùģ": 6817,
      "ĠØªÙģØ¹ÙĬÙĦ": 6818,
      "ĠØŃØ¯Ø¯": 6819,
      "ØºØ§": 6820,
      "ÙĬØ´Ø©": 6821,
      "ĠØ§ÙĦØµØŃØ±Ø§Ø¡": 6822,
      "ïºª": 6823,
      "ĠØ£ÙĪÙĨ": 6824,
      "ĠØ§ÙĦØ§Ø±ÙĩØ§Ø¨": 6825,
      "ĠØ§ÙĦØ¥Ø¹ÙĦØ§ÙħÙĬØ©": 6826,
      "Ùª": 6827,
      "Ø´ÙĬÙĨ": 6828,
      "ĠÙĥÙĬÙĦÙĪ": 6829,
      "ĠÙĬØªÙħØªØ¹": 6830,
      "Ø´Ø£": 6831,
      "Ø§Ø²Ø©": 6832,
      "ĠØ§ÙĦØ§ÙĪØ±": 6833,
      "ĠØ£Ø¹ØªÙĤØ¯": 6834,
      "ÙĬØ¦Ø©": 6835,
      "ĠØ§ÙĦØ³ÙģØ§Ø±Ø©": 6836,
      "ĠØ§ÙĦÙħØ¦Ø©": 6837,
      "Ø§Ø¹ÙĬØ¯": 6838,
      "ØªÙħÙĥÙĨ": 6839,
      "ĠØ§ÙĦÙħØ¯Ø±Ø¨": 6840,
      "ĠÙĪØ±ØŃÙħØ©": 6841,
      "ĠØ¬Ø±ÙĬÙħØ©": 6842,
      "ĠØ§ÙĦØµØ§Ø¯Ø±": 6843,
      "ĠØªØ£Ø®Ø°": 6844,
      "ĠÙħÙĤØ¯ÙħØ©": 6845,
      "ĠÙĪØ§ÙĦØ§Ø¬ØªÙħØ§Ø¹ÙĬØ©": 6846,
      "ĠØ§Ø«ÙĨØ§Ø¡": 6847,
      "ĠØ§ÙĦØ¹ÙĬØ¯": 6848,
      "ØŃØ§ÙĪÙĦØ©": 6849,
      "ĠÙĨÙĤØ¯": 6850,
      "ĠØ¨Ø®Ø·": 6851,
      "ĠØ§ÙĦØ¹ÙĪØ§ÙħÙĦ": 6852,
      "ĠØ§ÙĦØ§ÙĨØª": 6853,
      "ĠÙĨØ³Ø§Ø¡": 6854,
      "Ø³Ùĩ": 6855,
      "ĠØ³Ø§ÙĩÙħ": 6856,
      "ĠØ§ÙĦØµØ¯Ø±": 6857,
      "ĠØ§ÙĦØ®Ø·Ø£": 6858,
      "ĠØªÙĤØ¯ÙĬØ±": 6859,
      "ØªØ±ÙĪÙĦ": 6860,
      "ĠØ§ÙĦÙħØ¯Ø±": 6861,
      "ĠØ®Ø·Ø·": 6862,
      "ĠØ§ÙĦÙħØ¨Ø§Ø¯Ø±Ø©": 6863,
      "ĠÙĤØ¯ÙħØª": 6864,
      "Ø§ÙĪØ±Ø©": 6865,
      "Ø¯Ø§ÙħØ©": 6866,
      "ĠØ§ÙĦØ£ØŃÙĪØ§ÙĦ": 6867,
      "ĠØ§ÙĦÙĨÙģØ³ÙĬ": 6868,
      "ĠØ£Ø¬Ø²Ø§Ø¡": 6869,
      "ĠØ¯ÙĤÙĬÙĤ": 6870,
      "ĠØ§ÙĦÙĤÙĬØ§ÙħØ©": 6871,
      "ĠØ£ÙħÙĨÙĬØ©": 6872,
      "ĠÙĨØ§ØµØ±": 6873,
      "Ø±ÙĪØ©": 6874,
      "ĠØªØ¹ÙĨÙĬ": 6875,
      "ĠÙģØŃ": 6876,
      "ĠØ³ÙĬØªÙĬ": 6877,
      "ĠØ¨Ø²": 6878,
      "ĠØ«ÙħÙĨ": 6879,
      "ĠØ§ÙĦØ±Ø¹Ø§ÙĬØ©": 6880,
      "ĠÙĦØ³Ø§ÙĨ": 6881,
      "ĠØ§ÙĦÙĤÙħØ©": 6882,
      "ĠØ¨ÙħØ¯": 6883,
      "ÙĦÙĬÙĩØ§": 6884,
      "Ø§Ø¬Ø±ÙĬÙĨ": 6885,
      "ĠØ£ØµÙĪÙĦ": 6886,
      "ĠØ¨Ø§ØŃ": 6887,
      "ĠÙĪØ¨ÙĨØ§Ø¡": 6888,
      "ĠÙĥØ±Ø¯": 6889,
      "Ø±ÙĬØ·Ø©": 6890,
      "ĠØ§Ø³ØªÙĤØ¨Ø§ÙĦ": 6891,
      "ĠÙĬØ¯ÙĬ": 6892,
      "ĠÙĤÙĬÙĦ": 6893,
      "ĠØªØªØ¨Ø¹": 6894,
      "ÙĢØ¯": 6895,
      "ĠÙĨØ±ÙĬØ¯": 6896,
      "ĠØ§ÙĦÙħØ³ÙĬØŃÙĬ": 6897,
      "ĠÙĪØ§Ø¯": 6898,
      "Ø±ÙĬØ¶Ø©": 6899,
      "ĠØ¹ÙĨØµØ±": 6900,
      "ĠØ§ÙĦØ§Ø¶": 6901,
      "ĠØ§ÙĦÙģÙĤØ±": 6902,
      "ĠØµØ±ØŃ": 6903,
      "ĠØ®Ø§Ø¯Ùħ": 6904,
      "ĠØ§ÙĦÙħØ¯Ùī": 6905,
      "ĠØ¬Ø¯ÙĬØ¯Ø§": 6906,
      "ĠÙħØ¨Ø§Ø¯Ø±Ø©": 6907,
      "ĠØ§ÙĦØ®Ø±Ø·ÙĪÙħ": 6908,
      "ĠÙĪÙĥØ°Ø§": 6909,
      "ĠØ§ÙĦÙħØ®Ø¯Ø±Ø§Øª": 6910,
      "Ø±ÙĬÙĩ": 6911,
      "ĠØ³ÙĪØ¯": 6912,
      "Ø¦ÙĪÙĨ": 6913,
      "ĠØ§ÙĦØªØ¹Ø±Ùģ": 6914,
      "ĠØ£ÙĪØ¶ØŃ": 6915,
      "ĠØ¬Ø¹": 6916,
      "ĠØ§ÙĦÙĪØ¹ÙĬ": 6917,
      "Ġof": 6918,
      "ĠØ²Ø§ÙĦØª": 6919,
      "ĠÙĤØµØµ": 6920,
      "ĠÙĤØ§Ø¯Ø±Ø©": 6921,
      "ĠÙĦÙĦØ¨Ø±": 6922,
      "Ġh": 6923,
      "ÙĪÙĤØ±": 6924,
      "ĠÙĪØ§ÙĦØ¥ÙĨ": 6925,
      "ĠÙĨÙĥÙĪÙĨ": 6926,
      "Ø§Ø·ÙĬØ©": 6927,
      "ĠØ¢ÙĬØ©": 6928,
      "ØªÙĥÙħ": 6929,
      "ĠØ§ÙĦØ§ÙĦÙĥØªØ±ÙĪÙĨÙĬ": 6930,
      "ĠØ³ÙĬØ¯ÙĨØ§": 6931,
      "ĠØ³ÙĨØª": 6932,
      "ĠÙħØ±Ø§ÙĤØ¨Ø©": 6933,
      "Ø§Ø¤Ùĩ": 6934,
      "ĠÙĬØ´ÙĬØ±": 6935,
      "ĠØ§ÙĦÙĦØŃØ¸Ø©": 6936,
      "ĠÙħØ®Ø§ÙĦÙģ": 6937,
      "ĠÙģØ®": 6938,
      "ĠØ§ÙĤØªØµØ§Ø¯": 6939,
      "ĠÙĬØ¹Ø±Ø¶": 6940,
      "ĠØ§ÙĦÙħØ¯ÙĨÙĬÙĬÙĨ": 6941,
      "ĠØ§ÙĦØµÙĨØ§Ø¹Ø©": 6942,
      "ĠØªÙģØ¹ÙĦ": 6943,
      "ĠØ§ÙĦØŃØ¶ÙĪØ±": 6944,
      "Ø§Ø¯Ø«Ø§Øª": 6945,
      "ĠØªØ®ØµØµ": 6946,
      "ĠØ£ÙĤÙĪÙī": 6947,
      "ĠØ³ÙĦØ§ØŃ": 6948,
      "Ø¨ÙĤØ§Ø¡": 6949,
      "ĠÙĬÙĦØ¹Ø¨": 6950,
      "ĠØ§ÙĦØ®ÙĪÙģ": 6951,
      "ĠØµØ¹ÙĪØ¨Ø©": 6952,
      "ĠØ¯ÙĪØ±Ø§": 6953,
      "ØµÙĬØ±": 6954,
      "ĠØ§ÙĦØ³ÙĪØ¯Ø§ÙĨÙĬØ©": 6955,
      "ĠÙģØ¨": 6956,
      "ĠÙĪØ£ÙħØ§": 6957,
      "ĠØ¥Ø¶Ø§ÙģÙĬØ©": 6958,
      "ĠÙħØ³Ø¬Ø¯": 6959,
      "ĠØ§ÙĦÙħØ³ØªØ®Ø¯ÙħØ©": 6960,
      "ĠØ§ÙĨØªÙĩÙī": 6961,
      "ĠÙĬØ¯Ø¹Ùħ": 6962,
      "ĠØªØ¹Ø¨": 6963,
      "ĠØ§ÙĦØ®Ø¨Ø±Ø©": 6964,
      "ĠÙĪØ§ÙĦØªÙģ": 6965,
      "ĠØ§ÙĦÙħØ¬ØªÙħØ¹Ø§Øª": 6966,
      "ĠØ³ÙĬØ§ÙĤ": 6967,
      "ĠØ§ØªØ®Ø°": 6968,
      "ĠÙħØŃÙĦÙĬØ©": 6969,
      "Ø°Ø§ÙĨ": 6970,
      "ĠØ§ÙĦÙħÙĬØ²": 6971,
      "ĠØ§ÙĦÙħØŃØªÙĦØ©": 6972,
      "ĠØ¨Ø§ÙĦØ§Ø³Øª": 6973,
      "ØªÙĬØ´": 6974,
      "ĠØ§ÙĦØ³ÙĪØ¯Ø§Ø¡": 6975,
      "ĠØ§ÙĦØ´Ùģ": 6976,
      "ÙĬØ§ØªÙĩØ§": 6977,
      "ĠØºØ°": 6978,
      "ĠØ±ØŃÙħØ©": 6979,
      "ÙĪÙģØª": 6980,
      "ĠØ¨ÙĬØ¦Ø©": 6981,
      "ĠÙĪÙĨØµÙģ": 6982,
      "ĠØ§ÙĦÙĤØ§Ø¦Ø¯": 6983,
      "ĠØ§ÙĦØ¬ÙħØ§ÙĩÙĬØ±": 6984,
      "Ø§ÙĬÙĨ": 6985,
      "ĠÙĨÙĪØ¹ÙĬØ©": 6986,
      "ĠØ§ÙĦØ§Ø·ÙģØ§ÙĦ": 6987,
      "ĠØ§ÙĦØŃØ±ÙĬØ±ÙĬ": 6988,
      "ĠÙĩØ´": 6989,
      "ĠØ§ÙĦÙĬÙĩØ§": 6990,
      "op": 6991,
      "Ø§ØªÙħ": 6992,
      "ĠØ¥ÙĦØºØ§Ø¡": 6993,
      "ĠØ¬Ø²Ø¡Ø§": 6994,
      "ĠØ§ÙĨØªÙĩØª": 6995,
      "ĠØ³ÙħØ¹Øª": 6996,
      "ĠØ§ÙĦØµÙĪÙħ": 6997,
      "80": 6998,
      "ĠØ±ØŃÙĦØ§Øª": 6999,
      "ĠØ§ÙĦØ·Ø±ÙģÙĬÙĨ": 7000,
      "ĠØµØ¯ÙĪØ±": 7001,
      "Ø¨ÙĪØ¨": 7002,
      "ĠØ§ÙĦÙħÙģØ§ÙĪØ¶Ø§Øª": 7003,
      "Ø³Ø¨Ø§ÙĨÙĬØ§": 7004,
      "ĠØ§ÙĦØ¯ÙħØ§Øº": 7005,
      "ĠØ§ÙĦÙħØ¹ÙĦÙħ": 7006,
      "ĠØ¨Ø¯ÙĦ": 7007,
      "ĠØ§ÙĦØ§Ø³ØªÙĤØ±Ø§Ø±": 7008,
      "ĠØªØ¨ÙĬÙĨ": 7009,
      "ĠÙĤÙĬØ¯": 7010,
      "Ø£ÙĪ": 7011,
      "ĠØ§ÙĦØ³Ø§ØŃ": 7012,
      "ĠÙĪØªØ®": 7013,
      "ĠØ§ÙĦÙħØ¯Ø±Ø³": 7014,
      "ĠØ§ÙĦØ§Ø¹ØªØ¨Ø§Ø±": 7015,
      "ĠØ§ÙĦØ´Ø®ØµÙĬØ§Øª": 7016,
      "ĠÙģØ¥ÙĨÙĩØ§": 7017,
      "ĠØ§ÙĦÙĨÙĤØ§Ø·": 7018,
      "!!!": 7019,
      "ĠØ³ØŃØ¨": 7020,
      "Ġv": 7021,
      "ĠÙĬØ¬ÙħØ¹": 7022,
      "ĠÙģÙĥÙĬÙģ": 7023,
      "ĠØªÙħÙĪÙĬÙĦ": 7024,
      "ĠØ±Ø¨Ø·": 7025,
      "ĠØ§ÙĦÙħÙĪØ³ÙĪØ¹Ø©": 7026,
      "ĠØ§ÙĦÙĪØ§Ø¬": 7027,
      "ĠØ§ÙĦØ¥ÙĨØ¬ÙĦÙĬØ²ÙĬ": 7028,
      "ØµÙĪØ±Ø©": 7029,
      "ĠØ³ÙĪ": 7030,
      "ÙĦÙĬÙħØ©": 7031,
      "ĠÙħÙĨÙģ": 7032,
      "ĠØ§ÙĦÙĨÙħ": 7033,
      "ĠHD": 7034,
      "ĠØ§Ø¹ÙħØ§ÙĦ": 7035,
      "Ø§Ø¡Ø©": 7036,
      "ÙĩØ§Ø¡": 7037,
      "ĠØ§ÙĦØ³Ø§ØŃØ©": 7038,
      "ÙĬÙĬØ±": 7039,
      "ĠÙĩÙĨØ§ÙĦÙĥ": 7040,
      "ĠØ§ÙĦØ¹Ø¶ÙĪ": 7041,
      "ĠØ§ØŃØªØ±Ø§Ùħ": 7042,
      "ĠÙĪØ¬ÙħÙĬØ¹": 7043,
      "ĠÙĪÙĬØ¹ØªØ¨Ø±": 7044,
      "ĠÙĪØ§Ø¨ÙĨ": 7045,
      "ĠÙģØ£ÙĨ": 7046,
      "ĠÙĦØªÙħ": 7047,
      "ĠØ§ÙĦØ®Ø¨Ø±Ø§Ø¡": 7048,
      "ĠÙĪØ±ÙģØ¹": 7049,
      "ÙĬØ¬Ø§Ø¯": 7050,
      "Ø¦ÙĪÙĦÙĬØ©": 7051,
      "ĠØ¹ÙĨØ§": 7052,
      "ĠÙĬÙĪÙģ": 7053,
      "ĠØ§ÙĦÙĥØ±Ø¯": 7054,
      "ĠØ§ÙĦØ³Ø§Ø¯Ø³Ø©": 7055,
      "ĠØ£Ø³ÙĦÙĪØ¨": 7056,
      "ĠÙĪØ§Ø¶Ø§Ùģ": 7057,
      "ĠØ§Ø¨Øª": 7058,
      "ĠÙĪØ§ÙĦØªØ¹": 7059,
      "ĠÙħØ°Ùĩ": 7060,
      "Ø´Ø¹Ø±": 7061,
      "ĠØŃØ±Ùģ": 7062,
      "ĠØ§ÙĦØŃØµ": 7063,
      "ĠØ¢ÙħÙĨ": 7064,
      "ĠØªÙĪØ±": 7065,
      "Ø§Ø´ÙĬ": 7066,
      "ĠÙħØŃØ±Ùĥ": 7067,
      "ĠØ§ÙĦØ¬Ø²Ø§Ø¦Ø±ÙĬØ©": 7068,
      "ĠØ§ÙĦØ£ÙħÙĦ": 7069,
      "ĠÙĩÙħØ§": 7070,
      "ĠØ£ÙĦØ¹Ø§Ø¨": 7071,
      "ĠØ§ÙĦÙĬØ§Ø¨Ø§ÙĨ": 7072,
      "ÙĬØ³Ø±": 7073,
      "ĠØ¨Ø¬Ø±": 7074,
      "Ø®ØµØ©": 7075,
      "ĠØŃØ¯ÙĬØ«Ø©": 7076,
      "ÙħØ¬Ø©": 7077,
      "ĠÙħÙĨØµØ©": 7078,
      "ĠØ§ÙĦØªØ¹ÙĦÙħ": 7079,
      "Ø¯Ø¨": 7080,
      "ÙħÙĦØª": 7081,
      "ĠØ§ÙĦØ®Ø·ÙĪØ·": 7082,
      "ĠÙĪØ¬Ø¨Ø©": 7083,
      "ÙĨÙħ": 7084,
      "ÙĪØ¶Ùī": 7085,
      "ĠÙĬØ®ØªÙĦÙģ": 7086,
      "Ø¬Ø£": 7087,
      "ĠØ±ÙĬÙģ": 7088,
      "ØµØŃØ§Ø¨": 7089,
      "ĠÙĦØªÙĤ": 7090,
      "ĠÙĦØ³Øª": 7091,
      "ĠØ§ÙĦÙħØ´ÙĩØ¯": 7092,
      "ÙĪØ¹Ø§Øª": 7093,
      "Ø§ÙħÙĨØ©": 7094,
      "ĠØ§ÙĦØ±ÙĤÙħÙĬØ©": 7095,
      "Ø¬ÙĩÙĪØ¯": 7096,
      "ĠØ§ÙĦØ³Ø±Ø·Ø§ÙĨ": 7097,
      "ĠØµÙĬØ§ÙĨØ©": 7098,
      "ÙģÙĬÙĤ": 7099,
      "ĠØ§ÙĦÙħØ±Ø§Ùĩ": 7100,
      "ĠØ£Ø³Ø¦ÙĦØ©": 7101,
      "ĠØ§ÙĨØªØ®": 7102,
      "ĠØ§ÙĦÙħÙĪØµÙĦ": 7103,
      "ov": 7104,
      "Ø¯ÙĬØ§ÙĨ": 7105,
      "ĠØ§ÙĦØ±Ø¤ÙĬØ©": 7106,
      "ĠÙħÙĦØ§ØŃØ¸Ø©": 7107,
      "ĠØ§ÙĨÙĬ": 7108,
      "ĠØ§ÙĦØ§Ø±Ø¨Ø¹": 7109,
      "ï»¤": 7110,
      "ĠØ³ÙĩÙĦ": 7111,
      "ĠØ§ÙĦØ¬ÙħØ§ÙĦ": 7112,
      "Ø§Ø¦ÙģØ©": 7113,
      "ĠÙĦØªØ¹": 7114,
      "ĠÙĤÙĨÙĪØ§Øª": 7115,
      "ĠØ§ÙĦÙħØ¹Ùħ": 7116,
      "ĠØ³Ø§ÙħØ³ÙĪÙĨØ¬": 7117,
      "Ø§ØªÙĨØ§": 7118,
      "ÙĪÙĤØ¹Ø©": 7119,
      "ÙĬØ¨ÙĬØ¯ÙĬØ§": 7120,
      "ĠÙĦÙĦØ¯ÙĪÙĦØ©": 7121,
      "ØŁØŁØŁ": 7122,
      "ĠØ§ÙĦÙĨØ¬": 7123,
      "Ø±Ø¨Øª": 7124,
      "ĠÙĦØŃÙĦ": 7125,
      "ĠØ§ÙĦØ¥Ø®": 7126,
      "ĠÙĦØ£ØŃØ¯": 7127,
      "ĠØ§ÙĦÙħÙĨÙĪØ±Ø©": 7128,
      "ĠØ§ÙĦÙĪÙģØ¯": 7129,
      "ĠØºØ¯": 7130,
      "ØŃÙĬØ¨": 7131,
      "ĠØ´Ø±Ø·": 7132,
      "ĠØ¨ØµÙģØ©": 7133,
      "ĠÙħØ³Ø§Ø±": 7134,
      "ĠØ§Ø±Ø¶": 7135,
      "Ø¹Ø¯Ø§Øª": 7136,
      "ÙħØ¦": 7137,
      "ĠØªØ£ÙĥÙĬØ¯": 7138,
      "Ø±ÙĤÙĬØ©": 7139,
      "ĠØ¥Ø´Ø§Ø±Ø©": 7140,
      "ĠÙĬØªØ¶ÙħÙĨ": 7141,
      "Ø§ÙĤØ¶": 7142,
      "ÙĪØ¶ÙĪØŃ": 7143,
      "ĠØ§ÙĦØ¹Ø«Ùħ": 7144,
      "Ø§ÙĬØªØ¯": 7145,
      "ĠÙĪØ¹Ùħ": 7146,
      "ĠÙģÙĨØŃÙĨ": 7147,
      "Ø±Ø¨Ùĩ": 7148,
      "Ġ:-": 7149,
      "ĠØ±ÙĪÙħ": 7150,
      "ĠØ¨Ø§ÙĦØ£Ø³": 7151,
      "Ø¹Ø¯Ø§Ø¯Ø§Øª": 7152,
      "ĠØ§ÙĦØ´ÙĩÙĬØ¯": 7153,
      "ĠÙĨØ¸ÙĬÙģØ©": 7154,
      "ÙĩÙī": 7155,
      "ĠØªØ¬ÙĨØ¨": 7156,
      "ĠØ§ÙĦØ®ÙĬØ§Ø±": 7157,
      "ĠÙĪØ¢Ø®Ø±": 7158,
      "ÙĬÙĪØ®": 7159,
      "ĠØ®Ø·ÙĬØ±Ø©": 7160,
      "ĠØªÙĥØ´Ùģ": 7161,
      "ĠØ§ÙĦÙĦØ¬ÙĪØ¡": 7162,
      "ĠØ§ÙĦÙħØ®Øª": 7163,
      "ĠÙĥØ¨Ø±Ùī": 7164,
      "eb": 7165,
      "Ø§Ø§Ø§Ø§Ø§Ø§Ø§Ø§": 7166,
      "ĠØ§ÙĦÙĤÙĪÙħÙĬØ©": 7167,
      "ĠØ§ÙĦÙħÙĨØ§Ø²ÙĦ": 7168,
      "Ġ37": 7169,
      "ĠØ§ÙĦÙħÙĨØ§Ø®": 7170,
      "ĠÙĨØ¸Ø±Ø©": 7171,
      "ĠØ§ÙĦØªÙĬØ§Ø±": 7172,
      "ĠÙĨØªÙĨÙĬØ§ÙĩÙĪ": 7173,
      "ĠØ´Ø±Ùģ": 7174,
      "ĠØ§Ø¹Ø±Ùģ": 7175,
      "ĠØ§ÙĦÙģØ¦Ø©": 7176,
      "ĠÙĬØªÙħÙĬØ²": 7177,
      "ĠØ§ÙĦØ¥ÙģØ·Ø§Ø±": 7178,
      "ĠÙĪØ§ÙĦØªØµ": 7179,
      "Ø£ÙĨØ§": 7180,
      "ĠÙħÙĨØ³": 7181,
      "ĠØ£ÙĨØ¸ÙħØ©": 7182,
      "ĠÙĤØ¶Ø§Ø¡": 7183,
      "ÙĪØµÙĦ": 7184,
      "ĠØ§ÙĦØ§Ø®Ø±Ùī": 7185,
      "ĠØ§ÙĦØ±ØŃÙĬÙħ": 7186,
      "ĠÙĪØ§ÙĦØ¨ÙĬ": 7187,
      "Ø±ÙĬØ´": 7188,
      "ĠØ§Ø¨Ø±Ø§ÙĩÙĬÙħ": 7189,
      "ÙĪØ§Ø±Ø¯": 7190,
      "ĠØªØ¯ÙĪØ±": 7191,
      "ĠØ§ÙĦØªØ¯Ø±ÙĬØ³": 7192,
      "Ø§Ø¶Ø¹": 7193,
      "Ġ,,": 7194,
      "ĠØ§ÙĦØ¥ÙĤØ§ÙħØ©": 7195,
      "ĠØ§ÙĦØ§ÙĨÙģ": 7196,
      "ĠØ§ÙĦØ¹Ø¯ÙĪØ§ÙĨ": 7197,
      "ĠØ§ÙĦØ·ÙĬØ¨": 7198,
      "ĠØ±ØµØ¯": 7199,
      "ĠØ§ÙĦØªÙĨÙģÙĬØ°ÙĬØ©": 7200,
      "ĠAn": 7201,
      "ĠÙĦØªØ·ÙĪÙĬØ±": 7202,
      "Ø³ÙĬØ¯": 7203,
      "ĠÙħØ·ÙĦØ¹": 7204,
      "ĠØ§ÙĦÙĩÙĨØ¯Ø³Ø©": 7205,
      "ĠØ¨ØªØ´": 7206,
      "ĠÙĬÙħÙĥÙĨÙĨØ§": 7207,
      "Ø¨ÙĪØ·": 7208,
      "Ø³ÙħØ§Ø¹ÙĬÙĦ": 7209,
      "ĠØ§ÙĦØ¹ÙĨÙĪØ§ÙĨ": 7210,
      "Ø§ÙĦØ¨Ø©": 7211,
      "ĠØ´Ø¹Ø¨ÙĬØ©": 7212,
      "ÙĪÙħÙĨ": 7213,
      "ĠØ¨Ø§Ø³ØªÙħØ±Ø§Ø±": 7214,
      "ĠØ§ÙĦØµØ¹ÙĬØ¯": 7215,
      "ÙĬÙħØ§Øª": 7216,
      "ĠÙĦÙĦØªØµ": 7217,
      "ĠØ¹ÙĦØ§ÙħØ§Øª": 7218,
      "ĠØ§ÙĦØªÙĨØ¸ÙĬÙģ": 7219,
      "ĠØ§Ø³ØªØºÙĦØ§ÙĦ": 7220,
      "ĠØ£ØµØ¯ÙĤ": 7221,
      "ĠÙĨØ®": 7222,
      "ÙĩÙĪØ±ÙĬ": 7223,
      "Ø±ÙĥÙħ": 7224,
      "ĠØ¥ÙĬØ¬Ø§Ø¯": 7225,
      "ĠØ§ÙĦÙħØŃØ±": 7226,
      "Ø§Ø´ÙĤØ¬ÙĬ": 7227,
      "ĠÙĪØ±ÙĤØ©": 7228,
      "ĠØ§ÙĦØ«Ø¯ÙĬ": 7229,
      "ĠÙĥÙĪØ±": 7230,
      "ĠØ¹ÙĬØ³Ùī": 7231,
      "ĠØ§ÙĦÙħÙĩØ¯ÙĬ": 7232,
      "ĠØ§ÙĦØªÙĨØ³ÙĬÙĤ": 7233,
      "ĠÙħÙĨØ§Ø²ÙĦ": 7234,
      "ĠØ£ÙģÙĦØ§Ùħ": 7235,
      "Ø·ÙĪÙĦ": 7236,
      "ĠØ§ØŃØªÙĬØ§Ø¬Ø§Øª": 7237,
      "ĠØ·Ø¨ÙĬØ¨": 7238,
      "Ø¯Ø±Ø§ÙĨ": 7239,
      "ĠÙĪØ·ÙĨÙĬØ©": 7240,
      "ĠØªÙħØªÙĦÙĥ": 7241,
      "ĠØªØ¨Ø±": 7242,
      "ĠÙĬØ¹Ø§ÙĨÙĪÙĨ": 7243,
      "Ø¨Ø¹Ø«": 7244,
      "ĠÙĪØ°ÙĥØ±Øª": 7245,
      "âĢ¦]": 7246,
      "ĠÙĪØ§ÙĦØ¨ØŃ": 7247,
      "Ø³ØªÙĪØ±": 7248,
      "ĠØ¬ÙħÙĦØ©": 7249,
      "ĠØ¯Ø®ÙĦØª": 7250,
      "ĠØ§ÙĦØŃØ§Ø¬": 7251,
      "Ø¨ÙĦØ¯": 7252,
      "ĠÙģÙĬØµÙĦ": 7253,
      "Ø¨Ø¹Ø©": 7254,
      "ĠØ§ÙĦØ·Ø§Ø¦Ø±Ø§Øª": 7255,
      "ĠØªØ§Ø¨Ø¹Ø©": 7256,
      "Ø·ÙĬÙĥ": 7257,
      "ĠØ¨Ø®ÙĬØ±": 7258,
      "ĠÙĪÙĥÙħ": 7259,
      "ĠØ±ÙĬØ§Ø¶": 7260,
      "ĠØ§ÙĦØ³Ø±Ø¹Ø©": 7261,
      "ĠØ¨ÙĨØ¸Ø§Ùħ": 7262,
      "Ø¸Ùī": 7263,
      "ÙĪØ¹Ø§": 7264,
      "ĠÙħØ±Ùĩ": 7265,
      "ĠØ§ÙħØªØ¯": 7266,
      "ĠÙħÙĪØ¯": 7267,
      "ĠØ¨Ø§ÙĦØ·Ø¨Ø¹": 7268,
      "ĠØµÙģØŃØ§Øª": 7269,
      "ĠÙĪØªÙĥÙĪÙĨ": 7270,
      "ÙĥÙĦÙĬ": 7271,
      "ĠÙħÙĪØ¸ÙģÙĬ": 7272,
      "ĠÙĪØ§ÙĦØ¨ØŃØ«": 7273,
      "Ø·ÙĪØ§ÙĨ": 7274,
      "ĠØ«Ø§ÙĨ": 7275,
      "ÙģØ§Ø±": 7276,
      "ĠØ¨ÙħØ´Ø§Ø±ÙĥØ©": 7277,
      "ĠØ§ÙĨØªØ¸Ø§Ø±": 7278,
      "60": 7279,
      "ĠØ§ÙĦØ§ØŃØªØ¬": 7280,
      "ĠØ£ÙĤÙĬÙħ": 7281,
      "ÙĦÙĤÙĬ": 7282,
      "ĠØ§ÙĦÙĪÙĥØ§ÙĦØ©": 7283,
      "ĠØªÙĥÙĨÙĪÙĦÙĪØ¬ÙĬØ§": 7284,
      "ĠØ§ÙĦØ³ÙĦØ¹": 7285,
      "ĠÙħØ·Ø§Ø¹Ùħ": 7286,
      "ĠØ§ÙĦØ£Ø®Ø¶Ø±": 7287,
      "ĠÙħØªØŃ": 7288,
      "ÙĤØ³Ø§Ùħ": 7289,
      "ĠØ§ÙĦØ¯Ø§Ø±": 7290,
      "ĠØ¹Ø¸ÙĬÙħ": 7291,
      "Ġ$": 7292,
      "ĠØ§ÙĦØ±Ø¦Ø§Ø³Ø©": 7293,
      "ĠØ¬ÙĨØ³": 7294,
      "ÙĨØ¯Ø³Ø©": 7295,
      "Ø§ÙĪÙģ": 7296,
      "ĠÙĪØ¹ÙĦÙħ": 7297,
      "ÙĥØ§ØªÙĩ": 7298,
      "ĠØ§ÙĦÙĪÙĦØ§Ø¯Ø©": 7299,
      "ĠØ§ÙĦØ´ÙĩÙĬØ±": 7300,
      "ÙĪÙĩÙħ": 7301,
      "ĠÙĪÙĤÙĪØ¹": 7302,
      "ĠØ¬ÙĦØ³": 7303,
      "ĠÙĦØ¬Ùħ": 7304,
      "ĠÙĪÙĬÙĥÙĬØ¨ÙĬØ¯ÙĬØ§": 7305,
      "iz": 7306,
      "Ø§ØªØ°Ø©": 7307,
      "Ø´ØŃÙĬÙĨ": 7308,
      "ĠØ¨Ø¯Ø¹Ùħ": 7309,
      "ĠØ¶Ùħ": 7310,
      "ĠØ§ÙĦØ¬ÙĪÙĬ": 7311,
      "ĠÙĪÙĦÙĩ": 7312,
      "ers": 7313,
      "Ġ[âĢ¦]": 7314,
      "ĠØªØ£ÙħÙĬÙĨ": 7315,
      "Ø·ÙĪØ±Ø©": 7316,
      "ÙĤØ§Ø¨": 7317,
      "ĠÙĪØ§ÙĦØ§Ø®": 7318,
      "ĠÙĦÙĦÙħØ¯": 7319,
      "ĠØ§ÙĦØŃÙĦÙĪÙĦ": 7320,
      "ĠÙĦÙĦÙħØ¹": 7321,
      "ĠØ¨Ø²ÙĬØ§Ø±Ø©": 7322,
      "ĠØ¨Ø§ÙĦØªØŃ": 7323,
      "ĠØ¹ÙĪØ¯": 7324,
      "ĠÙĪØªÙĥ": 7325,
      "ĠØ§ÙĦØ¹ÙĨØ§ÙĬØ©": 7326,
      "ĠÙĪØ§ÙĦØ¶": 7327,
      "ĠØ§ÙĦÙħÙĨØ¸": 7328,
      "ĠØ§ÙĦØ§ÙħØ§Ùħ": 7329,
      "ĠØ³ÙĬØ³": 7330,
      "ÙĬÙħÙĥÙĨ": 7331,
      "ĠÙħØºÙĦ": 7332,
      "ĠØ§ÙĨÙĩÙħ": 7333,
      "Ø±ÙĬØ§Ø¶Ø©": 7334,
      "ĠØ§ÙĦØŃÙħØ±Ø§Ø¡": 7335,
      "Ø±Ø¨ÙĪÙĦ": 7336,
      "ĠØ§ÙĤØªØµØ§Ø¯ÙĬØ©": 7337,
      "ĠØ³Ø§Ø¨ÙĤØ©": 7338,
      "ĠØ°Ø§ØªÙĩØ§": 7339,
      "ĠØ§ÙĦÙħØ´Ø§ÙĩØ¯": 7340,
      "Ø³ÙĪ": 7341,
      "ĠÙĦÙĦØ§Ø³": 7342,
      "Ø¹Ø¯ÙĬØ¯": 7343,
      "ĠØ§ÙĦÙĤØ±ÙĬØ©": 7344,
      "ØµØ§Ø¨Ø§Øª": 7345,
      "ĠÙĦÙħØ¬ÙĦØ³": 7346,
      "ĠØ¢Ø¯Ùħ": 7347,
      "ĠØ§ÙĦØ´ÙĩØ¯Ø§Ø¡": 7348,
      "Ńïº": 7349,
      "ĠØ§ÙĦÙĪØµÙģ": 7350,
      "ĠØ®ÙģØ¶": 7351,
      "ĠØ§ÙĦØ§Ùĩ": 7352,
      "ĠØ¬ÙĪØ±Ø¬": 7353,
      "ĠØ§ÙĦØ²Ø¨": 7354,
      "ĠØ§ÙĦÙĥØ±Ø§Ùħ": 7355,
      "ĠÙĬØ´ÙħÙĦ": 7356,
      "ĠØªØ¯Ø¹Ùħ": 7357,
      "ÙĪÙĬØªÙĬ": 7358,
      "ĠÙĦÙĬØ¹": 7359,
      "ĠØ³Ø¨Ø¹Ø©": 7360,
      "Ø£ÙħÙĬÙĨ": 7361,
      "Ø²Øª": 7362,
      "ĠÙģÙĤØ¯Ø§ÙĨ": 7363,
      "Ø§Ø±Ø¯Ø©": 7364,
      "ĠÙĦÙĦØµØŃ": 7365,
      "ĠÙħØªØ¬Ø±": 7366,
      "ĠØ¨ÙĨÙģØ³Ùĩ": 7367,
      "ÙĤØ±Ø§Ø¡Ø©": 7368,
      "ĠØ§ÙĦØºØ±": 7369,
      "Ø¨Ø·ÙĪÙĦØ©": 7370,
      "ĠÙĪØ®ÙĦØ§ÙĦ": 7371,
      "ĠØ§ÙĦØªØµÙĪÙĬØ±": 7372,
      "ĠÙĩÙĪØ§ØªÙģ": 7373,
      "Ø§Ø·ÙħØ©": 7374,
      "ĠÙĤØ±ÙĬØ¨Ø©": 7375,
      "ĠØ§ÙĦÙħÙĨØ§ÙģØ³Ø©": 7376,
      "ĠØ´ÙĪ": 7377,
      "Ø¹Ø§Ø±Ø¶": 7378,
      "Ø¹ÙĤØ©": 7379,
      "ĠØ§ÙĦØ¨ÙĪÙĦ": 7380,
      "ĠØ¥Ø¬": 7381,
      "ĠØŃØ³Ø§Ø¨Ø§Øª": 7382,
      "ĠØªØ¨Ø§Ø¯ÙĦ": 7383,
      "Ø¦Ø§Ø¨": 7384,
      "ĠÙħØ±ØªÙĬÙĨ": 7385,
      "ĠØ§ÙĦÙĦÙĬÙĦØ©": 7386,
      "Ø§ÙģØ°Ø©": 7387,
      "ĠÙģØŃØµ": 7388,
      "ĠØ§ÙĦØ§ÙĥØª": 7389,
      "Ø¬Ø²Ø¡": 7390,
      "ĠÙĤÙĦÙĤ": 7391,
      "ĠØ§ÙĦØ°Ø§ÙĥØ±Ø©": 7392,
      "ÙģØ´": 7393,
      "ĠØ¨Ø§ÙĦØ§Ø¶Ø§ÙģØ©": 7394,
      "ĠØ§ÙĦÙĨØ´Ø±": 7395,
      "ĠØ§ÙĦÙħØŃØ§ÙģØ¸Ø§Øª": 7396,
      "ØªØº": 7397,
      "ĠÙĪØ³Ø±": 7398,
      "Ø«ÙĤØ§ÙģØ©": 7399,
      "ĠÙĪØ§Ø¹ØªØ¨Ø±": 7400,
      "ĠØ´Ø¯ÙĬØ¯Ø©": 7401,
      "ĠØ§ÙĦØµØŃÙĬØŃØ©": 7402,
      "ĠØ¨Ø´Ø¯Ø©": 7403,
      "Ø§Ø²Ø§Øª": 7404,
      "ĠÙĬØªÙħÙĥÙĨ": 7405,
      "ĠØªØªÙĨ": 7406,
      "Ġ).": 7407,
      "ĠØ§ÙĦØ¥Ø¯Ø§Ø±ÙĬ": 7408,
      "ĠÙģØŃØ³Ø¨": 7409,
      "ĠØ§ÙĦØ¯ÙĪ": 7410,
      "ĠØ§ÙĦØ«Ø§ÙħÙĨ": 7411,
      "ĠQ": 7412,
      "ĠØ²ÙĪØ§Ø¬": 7413,
      "ĠÙĬØ±Øª": 7414,
      "ĠÙĦÙĦØ§": 7415,
      "ĠØ§ÙĦÙħØ¹ÙĨÙī": 7416,
      "ĠØ¨Ø³Ùħ": 7417,
      "ĠÙĪØ¨Ùħ": 7418,
      "ĠØ±Ø³ÙĪÙħ": 7419,
      "ĠØ¨Ø¥Ø°ÙĨ": 7420,
      "ÙģØªØ§ØŃ": 7421,
      "ĠØ£ÙĬØ¯ÙĬ": 7422,
      "ĠØ¨Ø§ØªØ¬Ø§Ùĩ": 7423,
      "ĠØ§ÙĦÙħØ¬ÙħÙĪØ¹Ø§Øª": 7424,
      "Ø·ÙĬØ¨": 7425,
      "ĠØ§ÙĦØ£ÙĦØ¨": 7426,
      "ĠØ£Ø«Ø¨Øª": 7427,
      "ïºİï»": 7428,
      "ĠÙħÙģØ§Ø¬": 7429,
      "ĠÙĬÙĪÙħÙĬÙĨ": 7430,
      "ĠÙĪØ¶Ø¹Øª": 7431,
      "ĠØ®Ø·ÙĪØ·": 7432,
      "ĠØ£Ø³Ø§Ø¨ÙĬØ¹": 7433,
      "ĠØ§ÙĦÙħØ¹Ø¯Ø§Øª": 7434,
      "ĠØµØ¯ÙĤ": 7435,
      "Ø¯ÙĬØ§ÙĦ": 7436,
      "ĠÙħÙĨØ®ÙģØ¶": 7437,
      "ĠÙĦØ¢": 7438,
      "Ø³Ø§Ø·Ø©": 7439,
      "ĠØ§ÙĦØ²ÙħØ§ÙĨ": 7440,
      "ĠÙĬØªØ±Ùĥ": 7441,
      "ÙģØ±ÙĤ": 7442,
      "ĠÙħÙĤØª": 7443,
      "2016": 7444,
      "ĠØ§ÙĦÙħØ³Ø£ÙĦØ©": 7445,
      "ĠÙĥÙĪÙĦ": 7446,
      "Ø¬Ø§Ùħ": 7447,
      "ĠØ§ÙĦØ¨ÙĤØ§Ø¡": 7448,
      "ĠØ§ÙĦØµØ±Ùģ": 7449,
      "ĠØ§ï»": 7450,
      "ĠØ§ÙĦÙĦÙĬØ¨ÙĬ": 7451,
      "Ø«Ùī": 7452,
      "ÙĨÙĪØ¨": 7453,
      "ĠØ§ÙĦÙģÙĨØ§ÙĨØ©": 7454,
      "ĠØ§ÙĦØ³ÙĪ": 7455,
      "ĠØ±Ø¨Ø¹": 7456,
      "ĠØªØªØŃØ¯Ø«": 7457,
      "ĠØŃÙĤÙĬÙĤÙĬ": 7458,
      "ĠÙģØ´": 7459,
      "ĠØ§ÙĦÙħÙħØªØ§Ø²": 7460,
      "ĠØ§ÙĦÙĪØŃÙĬØ¯Ø©": 7461,
      "ĠØ§ÙĦØ¥ÙĬØ·Ø§ÙĦÙĬ": 7462,
      "ĠÙĬØµØ¯Ø±": 7463,
      "ÙĪØ§Ø±Ø¦": 7464,
      "ĠØ³Ø§Ø¹Ø¯": 7465,
      "Ø¬ÙĩØ©": 7466,
      "ĠØ´ÙħØ³": 7467,
      "ĠØ§ÙĦÙħÙĪØ³ÙĬÙĤÙī": 7468,
      "ĠÙĪØ®ØµÙĪØµØ§": 7469,
      "ĠØ§Ø¹ÙĦ": 7470,
      "ĠâĹ": 7471,
      "ĠÙħØ¨ÙĨÙī": 7472,
      "ĠØ¨Ø¯ÙĤØ©": 7473,
      "Ø¬Ø§Ø²Ø§Øª": 7474,
      "ĠÙĦØŃÙħ": 7475,
      "ĠÙħØ¯Ø±": 7476,
      "ĠÙħØ¬ÙħÙĪØ¹Ø§Øª": 7477,
      "ĠØ§ÙĦØªØµÙĪÙĬØª": 7478,
      "ĠÙĪØªØŃÙĤÙĬÙĤ": 7479,
      "ĠØŃÙĦÙĤØ©": 7480,
      "ĠØ¥Ø´": 7481,
      "ĠØ¬ÙĩØ¯": 7482,
      "ÙħØ§Øª": 7483,
      "ĠÙħÙħØ§Ø±": 7484,
      "ĠØªÙĪØ§Ø¬Ø¯": 7485,
      "ĠÙĦØ§ØŃÙĤØ§": 7486,
      "ĠØ§ÙĦÙħØªØ§ØŃØ©": 7487,
      "ĠØ§ÙĦÙģØ§Ø¦Ø¯Ø©": 7488,
      "ĠØ§ÙĦÙħÙĩØ±Ø¬Ø§ÙĨ": 7489,
      "ĠØ¹Ø§ÙĦ": 7490,
      "ĠØ§ÙĦÙħÙĪØ¬": 7491,
      "ĠØ§ÙĦØ§Ø¹ØªÙħØ§Ø¯": 7492,
      "ĠØ§ÙĦØ§Ø¹Ø¶Ø§Ø¡": 7493,
      "ĠØ§ÙĦØ¨ÙĤ": 7494,
      "ĠØ¯ÙĥØªÙĪØ±": 7495,
      "ĠØ£Ø³ÙĩÙħ": 7496,
      "ĠÙħØ´Ø§Ø¹Ø±": 7497,
      "ÙĢÙĢØª": 7498,
      "od": 7499,
      "ĠØ°ÙĥØ±Ùī": 7500,
      "ØªØŃØ§Ø¯": 7501,
      "Ù¤": 7502,
      "ĠØ¨ØºÙĬØ±": 7503,
      "ĠØ£ØŃØ³ÙĨ": 7504,
      "ĠÙĨÙĬØ³Ø§ÙĨ": 7505,
      "ĠØ·Ø¨ÙĬØ©": 7506,
      "ĠØ§ÙĦØ§ÙħØ±ÙĬÙĥÙĬØ©": 7507,
      "ĠØ§ÙĦØ§Ø³ØªØ§Ø°": 7508,
      "ĠÙħØ¨Ø¯Ø£": 7509,
      "ĠØ§ÙĦØŃØ¨ÙĬØ¨": 7510,
      "ĠØºØ±ÙĬØ¨": 7511,
      "ĠØŃÙĬÙĨÙĩØ§": 7512,
      "ĠÙĨØ²ÙĦ": 7513,
      "ĠØ§ÙĦØ¨Ø´Ø±ÙĬ": 7514,
      "ĠØªØµÙĨÙĬØ¹": 7515,
      "ĠÙħØ¹Ø±Ùģ": 7516,
      "Ø´ÙĬØ·": 7517,
      "ĠÙĪØ£Ø´Ø§Ø±Øª": 7518,
      "ĠØ§ÙĦØ§Ø³Ø¨ÙĪØ¹": 7519,
      "Ø´Ø±ØŃ": 7520,
      "Ø®ÙģÙĬÙģ": 7521,
      "ĠØ§ÙĦØ¥ÙĨØ³Ø§ÙĨÙĬ": 7522,
      "ĠØ¨ÙĦØ¯ÙĬØ©": 7523,
      "ĠØ§ÙĦØµÙĨØ¯ÙĪÙĤ": 7524,
      "ĠØ§ÙĦØ§ÙĨØªØ®Ø§Ø¨ÙĬØ©": 7525,
      "ĠÙĦÙĦÙħØ±Ø£Ø©": 7526,
      "Ġw": 7527,
      "ĠØªØ±Ø¬ÙħØ©": 7528,
      "ĠØ¯Ø±Ø§Ø³Øª": 7529,
      "ĠØ¨Ø§ÙĦÙħØ³": 7530,
      "ĠØ§ÙĦØ¹ÙĦØ§ÙħØ©": 7531,
      "ĠØ§ÙĦØ£Ø±Ø¯ÙĨÙĬØ©": 7532,
      "ĠØ«ÙĤØ©": 7533,
      "ĠÙĪØŃØ¯Ø§Øª": 7534,
      "ĠØ³Ø§ÙĦÙħ": 7535,
      "ÙĨÙĬÙĩØ§": 7536,
      "ĠØªØ¬Ø¯ÙĬØ¯": 7537,
      "Ø§Ø¦ÙĥØ©": 7538,
      "ĠÙĥØ§Ø¨": 7539,
      "ĠØ±ØºØ¨Ø©": 7540,
      "ĠØ¯ÙĬØ±": 7541,
      "ĠÙĬÙģØ¶ÙĦ": 7542,
      "Ġ\".": 7543,
      "ĠÙĨÙĩØ±": 7544,
      "ĠØ§ÙĦØ¹Ø§Ø¯ÙĬØ©": 7545,
      "Ø¹ÙĪØ¨Ø§Øª": 7546,
      "ĠØ§ÙĦÙħØµØ§ÙĦØŃ": 7547,
      "ĠØ£Ø´ÙĬØ§Ø¡": 7548,
      "ĠØ®Ø§Ùħ": 7549,
      "ĠÙģÙĦÙĬ": 7550,
      "oc": 7551,
      "ÙĥØ±ÙĪÙĨ": 7552,
      "ĠÙĪÙĤØ¯Ùħ": 7553,
      "ĠØ§ÙĦØ¸ÙĩØ±": 7554,
      "ĠØ¨Ø§ÙĦÙĩ": 7555,
      "ĠØ£ÙĤØµÙī": 7556,
      "ĠÙĨÙģØ°": 7557,
      "ĠØ§ÙĦØ¬ÙĨÙĪØ¨ÙĬ": 7558,
      "Ø·ÙĦØŃ": 7559,
      "ĠØ§ÙĦØªÙĤØ§Ø±ÙĬØ±": 7560,
      "ĠØ§ÙĦÙħØªØ®ØµØµØ©": 7561,
      "ĠØ§ÙĦÙĨØµÙģ": 7562,
      "ĠØ§ÙĦÙħØ¹ÙĩØ¯": 7563,
      "ĠØ¯ÙĪÙħØ§": 7564,
      "ĠØ§ÙĦØŃØ³Ø§Ø¨": 7565,
      "ĠØ¨Ø§ÙĤ": 7566,
      "ĠÙĪÙħÙĤ": 7567,
      "ĠØ§ÙĦÙħØ§Ø¦Ø©": 7568,
      "ĠÙĬØ±Ø¬Ùī": 7569,
      "ĠØ§ÙĦØ¨Ø¯Ø¡": 7570,
      "ĠÙĭ": 7571,
      "ĠØ§ÙĦØ¬Ø¨ÙĩØ©": 7572,
      "ĠÙĦØ§ØŃØ¸": 7573,
      "ĠÙĪØ²ÙĬØ§Ø¯Ø©": 7574,
      "ĠÙģØ¥": 7575,
      "ĠØ§ÙĦÙħÙĤØ§Ø¨ÙĦ": 7576,
      "ĠØ§ÙĦØ´ÙĬØ¹Ø©": 7577,
      "ĠØ§ÙĦØºØ°Ø§Ø¡": 7578,
      ".....": 7579,
      "ĠÙĦÙĦØ²": 7580,
      "ĠØ§ÙĦØ£Ø¯Ø¨": 7581,
      "ĠÙħØ¯Ø§Ø±Ø³": 7582,
      "ĠØªØ¹Ø¨ÙĬØ±": 7583,
      "ĠØ§ÙĦØ¬ØºØ±": 7584,
      "ØºØ§ÙĨØ³ØªØ§ÙĨ": 7585,
      "ĠØ³ØªØŃ": 7586,
      "Ø¨Ø¯Ø¡": 7587,
      "ĠØ£ÙĨÙĬ": 7588,
      "ĠÙħØ¤ÙĤØª": 7589,
      "ĠØ¯Ø±Ø§Ø³Ø§Øª": 7590,
      "ĠØ§ÙĦØ¯Ø§Ø¦Ùħ": 7591,
      "ÙĬÙħÙĤØ±Ø§Ø·ÙĬØ©": 7592,
      "ĠÙĬÙĪÙĨØ§ÙĬØªØ¯": 7593,
      "Ø¯ÙĩØ§": 7594,
      "ĠÙħÙģØªÙĪØŃ": 7595,
      "ĠØ§ÙĦØ§Ø¦": 7596,
      "ĠØ§ÙĦÙħÙĬÙĦØ§Ø¯": 7597,
      "ĠØ£ÙĪØ¯": 7598,
      "Ø§ØµØ¨": 7599,
      "ĠØ±Ø¦ÙĬØ³Ø§": 7600,
      "ĠØ³ÙĬØ¯ÙĬ": 7601,
      "Ġïºįï»Łï»": 7602,
      "ĠØ§ÙĦØªØ·ÙĪØ±": 7603,
      "Ġn": 7604,
      "ĠÙĦÙħÙĨØ¹": 7605,
      "ĠØ§ÙĦØ£ÙĦÙĪØ§ÙĨ": 7606,
      "Ø±Ø§ØªÙĬØ¬ÙĬ": 7607,
      "ĠÙĦÙħÙĪÙĤØ¹": 7608,
      "Ø£Ø«Ø±": 7609,
      "ĠÙĪØ¨ÙĬ": 7610,
      "ĠÙĪÙĦÙĬØ³Øª": 7611,
      "ĠØ§Ø¹ØªÙĤØ§ÙĦ": 7612,
      "Ø®Ø¨Ø§Ø±ÙĬØ©": 7613,
      "ĠØ¨ÙħØ¬Ø±Ø¯": 7614,
      "ĠØ§ÙĦÙħÙĤØ¯Ø³": 7615,
      "ĠØ§ÙĦØ³ÙħÙĪ": 7616,
      "Ø¬Ø±ÙĬ": 7617,
      "ĠØ§ØªÙĩØ§Ùħ": 7618,
      "Ø§Ø¦ÙĤØ©": 7619,
      "ĠØ§ÙĦØ§ÙĦÙĥØªØ±ÙĪÙĨÙĬØ©": 7620,
      "ĠØ¥ÙĦÙĬÙĩÙħ": 7621,
      "ÙĥØªÙĪØ±Ø©": 7622,
      "ÙĪØªÙĪ": 7623,
      "ĠÙĩØ§ÙħØ©": 7624,
      "ĠØ§ÙĦÙħØ¹Ø§Ø±Ø¶": 7625,
      "ĠØ§ÙĦØ¨ÙĦØ¯ÙĬØ©": 7626,
      "ĠØ§ÙĦØ¹Ø±ÙĪØ¶": 7627,
      "ĠØ§ÙĦÙĥØ«": 7628,
      "ÙĬØ§ØªÙĬ": 7629,
      "ĠÙĬØ´ÙĩØ¯": 7630,
      "ĠØ£Ø¹Ø¸Ùħ": 7631,
      "Ø¬ÙĪØ²": 7632,
      "ĠØ§ÙĨØ¸Ø±": 7633,
      "ÙĪØ§Ø·ÙĨÙĬÙĨ": 7634,
      "Ø§Ø¤ÙĩØ§": 7635,
      "ĠØ£Ø±Ø§Ø¶ÙĬ": 7636,
      "ÙĪÙħÙĬÙĨ": 7637,
      "ĠÙĦØ§Ø³": 7638,
      "ĠÙĪØ·Ø§ÙĦØ¨": 7639,
      "ĠØ§ÙĦØµØ§Ø¯Ø±Ø©": 7640,
      "Ø£Ø®Ø°": 7641,
      "ĠØ§ÙĦØ²ÙĬØªÙĪÙĨ": 7642,
      "ĠÙħØµØ±ÙĬ": 7643,
      "ĠØ§ÙĦØ¬ÙħØ§Ø¹Ø§Øª": 7644,
      "ĠÙĬÙĤÙĪØ¯": 7645,
      "Ø§ÙĩØ©": 7646,
      "Ø«ÙĦØ§Ø«Ø©": 7647,
      "ĠØ£Ø³Ø±Ø©": 7648,
      "ÙĥØ±ÙĪØ³": 7649,
      "ĠØ§ÙĦØ´Ùĥ": 7650,
      "ĠÙĪØ³Ùħ": 7651,
      "Ø·ÙĨØ©": 7652,
      "ĠÙĦÙĦØªÙĨÙħÙĬØ©": 7653,
      "ĠØ§ÙĦÙħØ®ØªØµØ©": 7654,
      "ĠØªØ¯ÙģØ¹": 7655,
      "ĠÙĥØ±ÙĬØ³Øª": 7656,
      "ĠØ§ÙĦØªÙħØ±": 7657,
      "ÙĪÙĦÙĪØ¬ÙĬØ©": 7658,
      "ĠÙħØ¬Ø¯Ø¯Ø§": 7659,
      "ĠØ§ÙĦÙĪØ§Ø³": 7660,
      "ĠÙĪØ§ÙĦØ£ÙħÙĨ": 7661,
      "Ø¹ÙĦØ§ÙĤØ§Øª": 7662,
      "ĠØ§ÙĦÙħÙĦÙĬ": 7663,
      "ĠØ§ÙĦÙĨÙĩØ§Ø±": 7664,
      "ĠØ§ÙĦØŃÙĬÙĪÙĬØ©": 7665,
      "ĠØ§ÙĦØ¥ÙĤÙĦÙĬÙħÙĬØ©": 7666,
      "ĠÙĪØ³ÙĨ": 7667,
      "ØŃÙĥØ§Ùħ": 7668,
      "ĠØĮØĮ": 7669,
      "ĠØ§ÙĦÙħØ°ÙĥÙĪØ±Ø©": 7670,
      "Ø±Ø¬Ø¹": 7671,
      "ĠØ§ÙĦØ®Ø·Ø©": 7672,
      "ĠØªÙĥÙĦÙģØ©": 7673,
      "ĠØ¨ÙħÙĦ": 7674,
      "ĠÙĪØ§ÙĦÙħØ¬ØªÙħØ¹": 7675,
      "ĠÙħØ¬ÙħØ¹": 7676,
      "ĠØªØŃØ§ÙĦÙģ": 7677,
      "ĠØ¨ØªØ³": 7678,
      "ĠÙĥØ³Ø±": 7679,
      "ĠØ¨Ø¹ÙĬÙĨ": 7680,
      "ĠØªÙĨØ¸Ùħ": 7681,
      "ĠØ§ÙĦÙĤØªØ§ÙĦ": 7682,
      "ĠØ´Ø±ÙĬÙĥ": 7683,
      "Ø¤ÙħÙĨ": 7684,
      "ĠÙĦÙĦØ§ØŃ": 7685,
      "Ø®Ø¨Ø§Ø±Ø§Øª": 7686,
      "ĠÙĪÙĦØ¹ÙĦ": 7687,
      "ĠØ®ÙĬ": 7688,
      "ĠØ§ÙĦØŃÙĥÙĪÙħÙĬ": 7689,
      "Ø±Ø§ÙĨ": 7690,
      "ĠÙĦÙĦØ§Ø¹": 7691,
      "ĠØ§ÙĦØ³Ø§Ø¨Ø¹Ø©": 7692,
      "ĠØ¯Ø§ÙĪØ¯": 7693,
      "ĠÙĨØ¶": 7694,
      "ĠØ§ÙĪÙĦØ§": 7695,
      "ĠØ¥ØºÙĦØ§ÙĤ": 7696,
      "ĠØ§ÙĦØ§ÙĤØªØ±": 7697,
      "ĠØ£Ø±Ø´ÙĬÙģ": 7698,
      "ÙĪÙĪÙĪÙĪÙĪÙĪÙĪÙĪ": 7699,
      "ĠÙħØªØ³": 7700,
      "ĠÙĤÙĬØ§Ø³": 7701,
      "ĠØ±Ø£ÙĬØª": 7702,
      "Ø§ÙĦØ¯ÙĪ": 7703,
      "Ø°ÙĬØ±": 7704,
      "ĠÙĦØ§Ùħ": 7705,
      "ĠÙĪØºÙĬØ±ÙĩÙħ": 7706,
      "ĠÙĦØªÙģ": 7707,
      "ĠØ´ÙĩÙĪØ±": 7708,
      "ĠØŃØ²ÙĬØ±Ø§ÙĨ": 7709,
      "ĠÙĪÙĦÙħØ§": 7710,
      "ÙĤÙĦÙĤ": 7711,
      "ĠØŃØ°": 7712,
      "ÙĬØ±Ø§Ø¯": 7713,
      "ĠØ§ØŃØªÙĬ": 7714,
      "Ø´Ø±Øª": 7715,
      "ĠÙĦÙĦØŃÙģØ§Ø¸": 7716,
      "ĠØ£Ø³Ùħ": 7717,
      "ĠØ®Ø§Ø´ÙĤØ¬ÙĬ": 7718,
      "ĠÙĬÙĥØ´Ùģ": 7719,
      "ĠØ²Ø§Ø¯": 7720,
      "ĠØ¹ÙĪØ§ÙħÙĦ": 7721,
      "ĠÙ£": 7722,
      "ĠÙĥÙĬÙĦÙĪÙħ": 7723,
      "ĠØ§ÙĦØ¨ÙĬØ¶": 7724,
      "ĠØ§ÙĦÙħØ·Ø§Ø±": 7725,
      "ĠØ§ÙĦÙħØŃØªÙĪÙī": 7726,
      "Ø´Ø§Ø±ÙĬØ¹": 7727,
      "ĠÙĬØªÙĬØŃ": 7728,
      "ĠÙĦÙĬÙĦ": 7729,
      "ĠÙĨØ¬ØŃ": 7730,
      "Ø¤ÙĪÙĦØ©": 7731,
      "ĠØ§ÙĦÙħÙĪØ§ÙĤÙģ": 7732,
      "ĠØ¨Ø§Ùħ": 7733,
      "ĠØ£Ø¹Ø±Ø§Ø¶": 7734,
      "ĠØ§ÙĦØªØŃØ¯ÙĬØ§Øª": 7735,
      "ĠÙĪØ¨Ø°ÙĦÙĥ": 7736,
      "ĠÙĬØ³ÙĪØ¹": 7737,
      "ĠÙģØ¬Ø±": 7738,
      "Ø¤Ø¯ÙĬ": 7739,
      "ï»²": 7740,
      "ĠØ¨Ø¯ÙĪØ±": 7741,
      "Ġ38": 7742,
      "ĠÙĬØªØ¬Ø§ÙĪØ²": 7743,
      "ĠÙĪÙĥÙĬÙģÙĬØ©": 7744,
      "ĠÙĬÙĩØ¯Ùģ": 7745,
      "ĠØ¬Ø¨": 7746,
      "ĠØ£Ø¹Ø·": 7747,
      "ĠØ´ÙĤÙĤ": 7748,
      "ĠÙĨØ±": 7749,
      "ĠØ£ÙĪØ¨Ø§ÙħØ§": 7750,
      "ĠØ§ÙĦØ£ÙħÙĨÙĬ": 7751,
      "ĠÙĦØ¥Ø¹Ø§Ø¯Ø©": 7752,
      "ĠØ§ÙĦÙģÙĥØ±ÙĬØ©": 7753,
      "ĠØ¬ÙĪÙĦØ©": 7754,
      "ĠØ¥Ø³ÙħØ§Ø¹ÙĬÙĦ": 7755,
      "ĠØ§ÙĦØªØŃØªÙĬØ©": 7756,
      "Ø¸Ø§ÙĩØ±Ø©": 7757,
      "Ø§Ø±ØªÙĩØ§": 7758,
      "ĠØ§Ø³ØªÙĨ": 7759,
      "ĠØ¯ÙģØ§Ø¹": 7760,
      "ĠÙģÙĩØ°Ùĩ": 7761,
      "ĠØ§ÙĦØ³ÙĬÙĨÙħ": 7762,
      "ĠØ¨ÙĦØ¯Ø§ÙĨ": 7763,
      "ĠØ§ÙĦÙĪØ§ØŃØ¯Ø©": 7764,
      "ĠØ§ÙĦØ±Ø³ÙĪÙħ": 7765,
      "ĠØ§ÙĦØ¯ÙħÙĪÙĬØ©": 7766,
      "ĠØ§Ø³Ø¹Ø§Ø±": 7767,
      "ĠÙĦÙĨÙĤÙĦ": 7768,
      "ĠØ§ÙĦØªÙħÙĪÙĬÙĦ": 7769,
      "ĠØ§ÙĦÙĪØ«Ø§Ø¦ÙĤ": 7770,
      "ĠØ§ÙĦØ±Ø§ØŃØ©": 7771,
      "ĠØ£ÙĪØ±Ø§ÙĤ": 7772,
      "ĠÙģÙĩØ¯": 7773,
      "ĠØ³ÙĬØ±ÙģØ±": 7774,
      "ĠØªØ¹Ø§ÙĪÙĨ": 7775,
      "ĠÙħØ³ÙĦ": 7776,
      "ĠØ§ÙĦÙĤØªÙĦ": 7777,
      "ĠÙħÙĬØ²Ø©": 7778,
      "ĠÙħØµÙĨ": 7779,
      "ĠÙĪØ§Ø«": 7780,
      "ĠØ§ÙĦØ±Ø¤": 7781,
      "ĠØ§ÙĦØ§ØªØŃ": 7782,
      "ØªÙħØ±Ø§Øª": 7783,
      "ĠØ§ÙĦÙĨØ§ØŃÙĬØ©": 7784,
      "ĠÙ¢ÙłÙ¡Ù": 7785,
      "Ø§Ø±ÙĬØ§": 7786,
      "ĠÙħØ¹Ø§ÙĬÙĬØ±": 7787,
      "ĠÙĦØªÙĨÙģÙĬØ°": 7788,
      "Ø¸ÙĦÙħ": 7789,
      "ĠØ·ÙĦ": 7790,
      "ĠØ§ÙĦØµÙĬ": 7791,
      "ÙĨØ¯ÙĬ": 7792,
      "ĠÙħØŃØªÙĪÙī": 7793,
      "ĠÙģÙĩÙĨØ§Ùĥ": 7794,
      "ĠØ§ÙĦÙħØŃÙĬ": 7795,
      "ĠØ§ÙĨØ´Ø§Ø¡": 7796,
      "ĠÙĪØ§ÙĦØ§": 7797,
      "ĠÙħØŃÙģÙĪ": 7798,
      "ĠØ§ÙĦØ±Ø¨Ø¹": 7799,
      "ĠØ§ÙĦØ¹Ø¨Ø¯": 7800,
      "Ġ2005": 7801,
      "Ø¶Ø§Ø¡Ø©": 7802,
      "ĠØ§ÙĦÙĤÙĩÙĪØ©": 7803,
      "ĠØ§ÙĦØ·Ø§Ø¦Ùģ": 7804,
      "ĠØ§ÙĥØ³": 7805,
      "ĠÙħØ´ØªØ±ÙĥØ©": 7806,
      "Ø§ÙĪÙī": 7807,
      "ĠØ§ÙĦØ¹Ø§ÙĦÙħÙĬÙĨ": 7808,
      "ĠØ¹Ø¯ÙĨ": 7809,
      "ĠÙģÙĪØ±Ø§": 7810,
      "ĠÙĥÙħØ§ÙĦ": 7811,
      "ĠÙģØ¯": 7812,
      "ĠØ£Ø³Ø³": 7813,
      "ĠØ¬ÙĬÙĦ": 7814,
      "rab": 7815,
      "ĠØ§ÙĦØ³Ø§Ø®": 7816,
      "ĠØ°Ø§": 7817,
      "ĠÙħØªØ®ØµØµ": 7818,
      "ĠØ§ÙĦØ¹ÙĬØ´": 7819,
      "ĠÙĥØ§ÙģÙĬØ©": 7820,
      "ĠØ¨ÙĤÙĪÙĦÙĩ": 7821,
      "ĠÙĪØ£ÙĪØ¶ØŃØª": 7822,
      "ĠØ§ÙĦÙĨØ¯": 7823,
      "ĠØ§ÙĦØ³Ø¹Ø§Ø¯Ø©": 7824,
      "ĠØ¯Ø±ÙĪØ³": 7825,
      "ĠØ§ÙĦØ£Ø²ÙĩØ±": 7826,
      "ĠØ£Ø·Ø±Ø§Ùģ": 7827,
      "ØªÙĤØ§Ø¯": 7828,
      "ĠØ¹ÙħÙĦÙĬ": 7829,
      "ĠØ§ÙĦÙħØ³ÙĦÙħÙĪÙĨ": 7830,
      "ĠÙĪØ¹Ø±Ø¶": 7831,
      "ĠØ§ÙĦÙģØ±Øµ": 7832,
      "ĠØ§ÙĦØ£Ø«Ø±": 7833,
      "ĠØ£Ø¯ÙĨÙī": 7834,
      "ĠÙĦÙĦØ±Ø¦ÙĬØ³": 7835,
      "Ø¯Ø§Ùħ": 7836,
      "ĠØ§ÙĦØ£ÙĨØ¸ÙħØ©": 7837,
      "ĠÙħÙĨØ§ÙĤØ´Ø©": 7838,
      "ĠÙĦØ¹ÙĦØ§Ø¬": 7839,
      "ĠØ§ÙĦØ³ÙĥØ±ÙĬ": 7840,
      "ĠÙĤÙĦØ¨ÙĬ": 7841,
      "ĠÙĥÙħÙĬØ§Øª": 7842,
      "Ø³ÙĪÙħ": 7843,
      "Ø«ÙĦØ§": 7844,
      "ĠØµØ¹Ø¨Ø©": 7845,
      "ĠØ¨Ø§ÙĦÙħØ¯ÙĬÙĨØ©": 7846,
      "ĠØ§ØŃØªØ¬Ø§Ø¬": 7847,
      "ĠØ§ÙĦÙħÙĤØ¯Ø³Ø©": 7848,
      "ĠØ¨ØµØ±": 7849,
      "ĠÙĤÙĪÙħ": 7850,
      "ĠØ§ÙĦØ¹Ø¸Ùħ": 7851,
      "ĠÙĦØ³ÙĬ": 7852,
      "ĠØ§ÙĦÙģÙĬØ±ÙĪØ³": 7853,
      "ĠÙħØ³Ø§ÙģØ©": 7854,
      "ĠØ¨ÙĪØªÙĬÙĨ": 7855,
      "ĠØ£Ø³Ø±Ø¹": 7856,
      "ØªÙĩØ§ÙĥØ§Øª": 7857,
      "ĠÙĪØ§ÙĦÙĤØ±": 7858,
      "ĠØ«ÙĦ": 7859,
      "ĠÙĪØ§ÙĦØ¹Ø´Ø±ÙĬÙĨ": 7860,
      "ĠØ§ÙĦÙħÙĨØ²ÙĦÙĬØ©": 7861,
      "ĠÙĪØ§ÙĦØªØ´": 7862,
      "ĠØ§ÙĦØ´ÙħØ§ÙĦÙĬ": 7863,
      "ĠØ§ÙĦØ¥Ø³ÙĥÙĨØ¯Ø±ÙĬØ©": 7864,
      "ĠØ§ÙĦØªÙĪØ¬Ùĩ": 7865,
      "ĠØ£Ø¯Ø§Ø©": 7866,
      "ĠØ³ÙĬØ·Ø±": 7867,
      "Ø§Ø¸Ø±": 7868,
      "ĠÙģÙĦÙĨ": 7869,
      "ÙĪÙĨÙĬØ§": 7870,
      "ÙĨØªÙĩØ§": 7871,
      "ĠØ§ÙĦÙħØ³Ø§Ø¹Ø¯Ø§Øª": 7872,
      "ÙĥÙĥ": 7873,
      "ĠØ¨ØªÙĤ": 7874,
      "Ø§Ø³ÙĬÙħØ§": 7875,
      "ØŃÙĪÙĦ": 7876,
      "ĠØ§ÙĦØªÙĪØ§ÙĦÙĬ": 7877,
      "ĠØ§ÙĦØ±Ø¨ÙĬØ¹": 7878,
      "ĠÙĬÙħØ§Ø±Ø³": 7879,
      "ÙĨØ¯ÙħØ§": 7880,
      "ĠØªÙĩÙħ": 7881,
      "ĠØ£Ø±Ø¯ÙĪØºØ§ÙĨ": 7882,
      "ĠØ§ÙĦØ³ÙĨÙĪÙĬ": 7883,
      "Ø§Ø¯ÙĤØ©": 7884,
      "Ġ^": 7885,
      "ĠØ§ÙĦÙħØ¹Ø¯Ø©": 7886,
      "Ù¡": 7887,
      "ĠØªØ«Ø¨ÙĬØª": 7888,
      "Ġg": 7889,
      "ĠØ§ÙĦØ´ØªØ§Ø¡": 7890,
      "Ø¹Ø¨Ø¯": 7891,
      "ĠÙĪØ®Ø·": 7892,
      "ĠÙĥØ§Ùģ": 7893,
      "ĠÙĪØ¨ÙħØ§": 7894,
      "ĠØ§ÙĦÙĨÙĪÙĪÙĬØ©": 7895,
      "ĠØ§ÙĦÙħÙĥÙĪÙĨØ§Øª": 7896,
      "ĠØªÙħÙĥÙĨØª": 7897,
      "ĠØ¨Ø§ÙĦÙħØ§Ø¡": 7898,
      "ĠÙģÙĦÙħØ§": 7899,
      "ØªÙħØªØ§Ø¹": 7900,
      "ÙĥÙĦÙĩ": 7901,
      "Ø§Ø¬ÙĦ": 7902,
      "ÙħØŃÙħØ¯": 7903,
      "ĠØ£Ø¹Ø¯Ø§Ø¯": 7904,
      "ĠØ§ÙĦØ§Ø¹ØªØ±Ø§Ùģ": 7905,
      "Ø²ÙĪÙĨ": 7906,
      "ĠØ§ÙħØ³": 7907,
      "ĠØ§ÙĦÙĨØ®": 7908,
      "ĠÙģÙĨÙĬØ©": 7909,
      "ĠØ·Ø§Ø±ÙĤ": 7910,
      "ĠØ±Ø¶": 7911,
      "Ø¦Ø°": 7912,
      "ØªØµØ§Ø¨": 7913,
      "ĠØ§ÙĦØ³ÙĬÙĨÙħØ§": 7914,
      "ĠØµÙĨØ¹Ø§Ø¡": 7915,
      "Ø¦Ùĩ": 7916,
      "Ø§Ø¬ÙĩØ²Ø©": 7917,
      "ĠØªØ±Ø¯Ø¯": 7918,
      "ĠÙĪØ§ÙĦØªØ¬": 7919,
      "ĠÙħØµÙĬØ±": 7920,
      "ĠØŃØ¬Ø²": 7921,
      "ĠÙĪØ¨Ø±ÙĥØ§ØªÙĩ": 7922,
      "ĠØ¥ÙĨÙĬ": 7923,
      "ĠÙħÙĤØ§ÙĪÙħØ©": 7924,
      "ĠÙĦÙĦØ¨ÙĨ": 7925,
      "ÙĪØ¶ÙĬØ©": 7926,
      "ĠØªØ¬Ø§Ø±ÙĬØ©": 7927,
      "ÙħÙĪØŃ": 7928,
      "ÙĪØ§ØµÙĦØ©": 7929,
      "ĠØ¢ÙĬ": 7930,
      "ĠÙĦØ£Ø¬ÙĦ": 7931,
      "ak": 7932,
      "Ø¨Ø±Ø§": 7933,
      "ĠØ§ÙĦØµÙĬÙĨÙĬ": 7934,
      "Ø§ÙĬÙĬÙĨ": 7935,
      "Ø±Ø§Ø¯": 7936,
      "ĠØ§ÙĦÙĤØ¯Ø±": 7937,
      "Ø¹Ø¶ÙĪ": 7938,
      "Ġ150": 7939,
      "ĠØ§ÙĦØ¬Ø±Ø§Ø¦Ùħ": 7940,
      "ĠÙĬØ¤ÙħÙĨ": 7941,
      "ĠØ§ÙĦÙĨØµÙĪØµ": 7942,
      "ĠÙĪÙģÙĬÙħØ§": 7943,
      "ÙĬØªØ´": 7944,
      "ĠØµÙģÙĤØ©": 7945,
      "ĠØ§ÙĦÙħØ³Ø§Ø¨ÙĤØ©": 7946,
      "ĠØªØ¹Ø±Ø¶Øª": 7947,
      ":\"": 7948,
      "ĠØ§ÙĦÙħØ¹Ø±ÙĪÙģØ©": 7949,
      "Ø§ÙĨÙĥ": 7950,
      "ĠÙĪØ¨Ø¹Ø¯ÙĩØ§": 7951,
      "ĠÙģÙĬØ³Ø¨": 7952,
      "Ø±Ø¨Ø·": 7953,
      "ÙĬØ±ÙĪÙĨ": 7954,
      "ĠÙĦØ§ÙģØªØ§": 7955,
      "ÙĪØ³ÙĬØ©": 7956,
      "ĠÙĦÙħØ³Øª": 7957,
      "ĠØ§ÙĦØªØŃØ¯ÙĬØ«": 7958,
      "ĠØ¨Ø¬Ø¯": 7959,
      "ĠØ§ÙĦØ§Ø²": 7960,
      "ĠØ§ÙĦØ§ÙĨØ¬ÙĦÙĬØ²ÙĬØ©": 7961,
      "ĠØ§Ø±ÙĬØ¯": 7962,
      "Ø¬ÙĬØ§ÙĦ": 7963,
      "ÙĤÙĦÙĬÙħ": 7964,
      "Ġ400": 7965,
      "ĠÙĪØ§ÙĦØ®Ø¯ÙħØ§Øª": 7966,
      "ĠÙĦØ±Ø¦ÙĬØ³": 7967,
      "ine": 7968,
      "ĠÙħØ³ØªØ´Ø§Ø±": 7969,
      "ĠØªØŃÙĥÙħ": 7970,
      "Ø³ÙĬØ·Ø©": 7971,
      "ØŃÙĪØ§Ø±": 7972,
      "ĠØ§ÙĦØ´ÙĩÙĬØ±Ø©": 7973,
      "Ø¨Ø·Ø§ÙĦ": 7974,
      "ĠÙĬØ°ÙĩØ¨": 7975,
      "ĠØ§ÙĦÙħØ¹ØªÙĤÙĦ": 7976,
      "ĠØ§ÙĦÙĨÙħÙĪØ°Ø¬": 7977,
      "ĠØ§ÙĦÙĪØ³Ø·Ùī": 7978,
      "ÙģÙĪÙĨ": 7979,
      "ĠØ§ÙĦØ´Ø±ÙĬÙģÙĬÙĨ": 7980,
      "ĠÙĪØ§ÙĦØ¯ÙĬ": 7981,
      "ØŃÙĨØ©": 7982,
      "ĠÙħØŃØ§ÙĪÙĦØ§Øª": 7983,
      "ÙĪØ«ÙĬÙĤ": 7984,
      "ĠØ§ÙĨÙĨØ§": 7985,
      "ĠØ·ÙĦØ¨Ø§Øª": 7986,
      "ĠØªÙħÙĬØ²": 7987,
      "ĠØ§ÙĦØ±Ø§ØŃÙĦ": 7988,
      "ĠÙĪØªØŃÙħÙĬÙĦ": 7989,
      "ĠØŃØ§Ùħ": 7990,
      "Ġ2003": 7991,
      "ĠÙĪØ§ÙĦØ°ÙĬÙĨ": 7992,
      "ĠØŃÙĬØ§ØªÙĨØ§": 7993,
      "Ø±Ø¨ÙĪÙĨ": 7994,
      "ĠÛĮ": 7995,
      "ĠÙħØ³ØªÙħØ±Ø©": 7996,
      "ĠÙĨØ¨ÙĬ": 7997,
      "ĠØ§ÙĦØ§Ø³ØªÙĤÙĦØ§ÙĦ": 7998,
      "ÙĤØ§ÙĪÙħØ©": 7999,
      "ĠØ§ÙĦÙħØ³ÙĦØ³ÙĦ": 8000,
      "ĠÙħÙħØªØ§Ø²Ø©": 8001,
      "ĠÙĪØ±Ø´Ø©": 8002,
      "ĠØ³Ø§ØŃØ©": 8003,
      "ĠÙĪØªØ¹Ø²ÙĬØ²": 8004,
      "ĠØ§ÙĦØ¨ÙĪØ±": 8005,
      "ĠØ§ÙĦØ´ÙĪØ§Ø±Ø¹": 8006,
      "ĠØªÙĨØªÙĩÙĬ": 8007,
      "ĠØ§ÙħØª": 8008,
      "ĠÙĪØ·ÙĨ": 8009,
      "Ø§Ø¹Ø§Ø©": 8010,
      "ĠÙĥÙĪÙĨÙĩ": 8011,
      "ĠÙħØªØ§Ø¨Ø¹": 8012,
      "Ø±ÙĬØŃØ§Øª": 8013,
      "ĠØ§ÙĦØ¹ÙħÙĦØ©": 8014,
      "ĠÙħÙĤØ§ÙĦ": 8015,
      "ÙĪØ§ØªØ¨": 8016,
      "ĠØ£Ø³ÙģÙĦ": 8017,
      "ÙĬØ¬Ø§Ø¨": 8018,
      "ĠÙĪØ§ÙĦÙħØµ": 8019,
      "ĠØ£Ø¬Ø¯": 8020,
      "ï»¨": 8021,
      "ĠØ§ÙĦØªÙĪØªØ±": 8022,
      "ĠY": 8023,
      "ÙĬØ§ÙĨØ§": 8024,
      "ØªÙħØ¯Ø©": 8025,
      "ĠØ§ÙĦÙħÙħÙĬØ²Ø©": 8026,
      "ÙĪØ§Ùģ": 8027,
      "Ø§Ø¹ÙħØ©": 8028,
      "ĠØ§ÙĦØªÙĪØµÙĦ": 8029,
      "ĠØ§ÙĦÙģØªÙĬØ§Øª": 8030,
      "Ø§ÙĩØ¯Ø§Ùģ": 8031,
      "ĠÙħÙĦÙħ": 8032,
      "ĠÙĪØ£ÙĥØ¯Øª": 8033,
      "Ø±Ø§Ø¶": 8034,
      "ĠØ¬Ø¨ÙĩØ©": 8035,
      "Ø§Ø¹ÙĦ": 8036,
      "ĠÙĪÙĨØ³": 8037,
      "ĠÙħÙĤØ§Ø¨ÙĦØ©": 8038,
      "ĠØ§ÙĦØ£ÙĨØ¨Ø§Ø¡": 8039,
      "ĠØ§ÙĦØ¥Ø·Ø§Ø±": 8040,
      "Ø±ÙģÙĤ": 8041,
      "ĠØ¢Ø°Ø§Ø±": 8042,
      "Ø±ÙģÙĬÙĨ": 8043,
      "ĠÙħÙĨØ¸ÙĪÙħØ©": 8044,
      "Ø§ÙĥÙĬ": 8045,
      "ĠØ¹Ø§ÙĦÙħÙĬØ§": 8046,
      "ĠÙĦÙĦØªØ±": 8047,
      "ĠØ§ÙĦØ£ØµÙĪÙĦ": 8048,
      "ĠÙĪØ¹ÙĦÙĬÙĩ": 8049,
      "ĠØªØ¬Ùĩ": 8050,
      "ĠØªØ®ÙĦ": 8051,
      "ĠØ§ÙĦÙħÙĩÙĨÙĬ": 8052,
      "Ø³ØªØ§ÙĨÙĬ": 8053,
      "ĠÙħÙĩØ§Ùħ": 8054,
      "ĠÙħØ³ØŃ": 8055,
      "ĠØ³ÙĩÙĪÙĦØ©": 8056,
      "ØºØ·ÙĬ": 8057,
      "Ø±ÙĬØ®": 8058,
      "ĠÙģÙĬØ³Ø¨ÙĪÙĥ": 8059,
      "ĠØ´Ø§ÙħÙĦØ©": 8060,
      "ĠÙĦØªÙĦÙĥ": 8061,
      "ĠÙħØ§Ø¯": 8062,
      "ĠØ¹Ø¯Ø§": 8063,
      "ĠÙĨØ³ØªØ·ÙĬØ¹": 8064,
      "ÙģØ±ÙĤØ©": 8065,
      "ĠØ§ÙĦØªÙĪÙĨØ³": 8066,
      "ĠØ§ÙĦÙħØ£": 8067,
      "ĠØ¨ØŃØ¯": 8068,
      "ĠØ§ÙĦÙħØ±Ø§Ø¯": 8069,
      "ÙĢÙĢÙĢÙĢÙĢÙĢÙĢ": 8070,
      "ĠØ§ÙĨØ´": 8071,
      "ĠÙĪØªÙĪÙģÙĬØ±": 8072,
      "ĠØ§ÙĦÙħØ±Ø§ÙĥØ²": 8073,
      "ĠØ¬ÙĬØ±": 8074,
      "ĠØ§ÙĦÙħØ¨ÙĦØº": 8075,
      "ĠÙħÙĬØ¬Ø§": 8076,
      "ĠØµØ¯ÙĬ": 8077,
      "ĠØ§ÙĦØ§Ø¹ÙħØ§ÙĦ": 8078,
      "ĠÙģØ§Ø¦Ø¯Ø©": 8079,
      "ĠØ§ÙĦØ§ØŃØªÙĬ": 8080,
      "ĠØŁ!": 8081,
      "Ø¨Ø±ÙĬ": 8082,
      "ĠØ§ÙĦØ¬Ø¯Ø¯": 8083,
      "ÙĤØ§ÙĦØ©": 8084,
      "ĠØ§ÙĦØ¯Ø±Ø³": 8085,
      "ÙĥÙĬÙĥ": 8086,
      "ĠØ§ÙĦÙĥØ±ÙĬÙħØ©": 8087,
      "ØŃØ±ÙĬØ©": 8088,
      "ĠÙĬØªÙĥÙĪÙĨ": 8089,
      "ĠØ§ÙĦÙĩØ§ÙħØ©": 8090,
      "ĠØ§ÙĦØ²ÙĪØ¬Ø©": 8091,
      "ĠØ§ÙĦÙħØ¹ÙĦ": 8092,
      "ĠØ§ÙĦØ£ÙĪØ±Ø§ÙĤ": 8093,
      "ĠØ§ÙĦÙĤÙĪØ§Ø¹Ø¯": 8094,
      "ØŃØ³ÙĨ": 8095,
      "ĠØ´Ø±Ø¨": 8096,
      "ĠÙĪØŃÙĬÙĨ": 8097,
      "ĠØ¹ÙħÙĦÙĩØ§": 8098,
      "ĠØ§ÙĦØµØŃØ§Ø¨Ø©": 8099,
      "Ø·ÙĦØ¨Ø©": 8100,
      "ĠØ§ÙĦØªØŃÙħÙĬÙĦ": 8101,
      "ĠØ§ÙĦØ§ØŃØªÙĬØ§Ø¬Ø§Øª": 8102,
      "ĠØ£ÙĪÙĦØ¦Ùĥ": 8103,
      "ĠØ¬ÙĪØ²": 8104,
      "ĠÙĪÙĦØ£ÙĨ": 8105,
      "ĠØ§ÙĦÙħØ®Ø§Ø·Ø±": 8106,
      "ĠØ§Ø¹Ø¶Ø§Ø¡": 8107,
      "ĠØ§ÙĦØ«Ø§ÙħÙĨØ©": 8108,
      "ĠØ§ÙĦØ£ØŃÙĥØ§Ùħ": 8109,
      "ĠØ§Ø®ØªÙĬ": 8110,
      "ĠÙģØ¹ÙĦÙĩ": 8111,
      "ÙĦÙĪØ§ÙĨ": 8112,
      "ĠÙĪØ§ÙĦÙħØ¤Ø³Ø³Ø§Øª": 8113,
      "ĠØ§ÙĦÙĪØ¬ÙĪØ¯": 8114,
      "ĠÙĪØ¥Ø¹Ø§Ø¯Ø©": 8115,
      "ØŃØ¯Ùī": 8116,
      "ĠÙĥÙĨØ¯Ø§": 8117,
      "Ø±ÙĬØ¨ÙĬØ©": 8118,
      "ĠÙĩØ§Ø¯": 8119,
      "ĠØ§ÙĦØ±ÙĤØ§Ø¨Ø©": 8120,
      "ĠÙĪØ¹ÙĦÙĬ": 8121,
      "ĠÙĦÙĦÙĤÙĬØ§Ùħ": 8122,
      "ĠØ§Ø³ØªÙĤØ±Ø§Ø±": 8123,
      "ĠØ§ÙĦÙģÙĬØ²": 8124,
      "ĠØ¨Ø¹Ø¯Ùĩ": 8125,
      "Ġl": 8126,
      "ĠÙĨØ§Ø´": 8127,
      "ĠØ§ÙĦÙħØ¹Ø±ÙĥØ©": 8128,
      "ĠÙĨÙĪØ¹Ø§": 8129,
      "ĠØ§ÙĦØµØ§Ø¯ÙĤ": 8130,
      "ĠØ¨Ø¶Ø±ÙĪØ±Ø©": 8131,
      "Ø¬ÙĪÙĨ": 8132,
      "ØºÙĦØ¨": 8133,
      "ĠØ¹ÙħÙĪÙħØ§": 8134,
      "ÛĮÙĨ": 8135,
      "Ø£Ùī": 8136,
      "Ø§ØªÙĬØŃ": 8137,
      "ĠØ§ÙĦØ§Ø¯Ø§Ø±Ø©": 8138,
      "ĠØ§ÙĦØ®ÙĦÙĤ": 8139,
      "]ØĮ": 8140,
      "ĠØªÙħÙĪØ²": 8141,
      "ĠØ¨Ø¯ÙĪØ±Ùĩ": 8142,
      "ĠØ§ÙĦÙħØ±ØŃ": 8143,
      "ĠÙĩÙĪÙĦ": 8144,
      "ÙģØ±Ø©": 8145,
      "ĠØ§ÙĦÙĤØ¨ÙĪÙĦ": 8146,
      "ĠØªØ¯Ø¹ÙĪ": 8147,
      "ĠØ§ÙĦØ±Ø¦Ø§Ø³ÙĬØ©": 8148,
      "ĠØªØ¬Ø±ÙĬ": 8149,
      "ĠØ§ÙĦØ¯Ø¹Ø§Ø¡": 8150,
      "ĠÙĦÙĦÙħØ´": 8151,
      "ĠØ§ÙĦØ´ÙĩØ§Ø¯Ø©": 8152,
      "Ø§ÙħÙĬÙħ": 8153,
      "ĠØ°Ø§Ùĥ": 8154,
      "ĠØŃØ°Ùģ": 8155,
      "ĠÙħÙĦØŃÙĪ": 8156,
      "Ø¸ÙĩØ§Ø±": 8157,
      "ĠØ§ØªÙħÙĨÙī": 8158,
      "ĠÙĬÙĤÙĪÙĦÙĪÙĨ": 8159,
      "Ø§Ø¬ÙĩØ§Øª": 8160,
      "one": 8161,
      "if": 8162,
      "ĠØŃÙĬØ§ØªÙĩÙħ": 8163,
      "ĠØ§ÙĦØªØ³ÙĪÙĬÙĤ": 8164,
      "ĠØ¬Ø³Ø¯": 8165,
      "ĠÙħØºÙĦÙĤØ©": 8166,
      "ÙĦÙĬØº": 8167,
      "ĠÙĪØ§Ø¯ÙĬ": 8168,
      "ĠÙĦÙĦØ³ÙĦ": 8169,
      "ĠÙĬÙĤØ¯Ø±": 8170,
      "ĠØªÙĬÙħ": 8171,
      "ĠØ§ÙĦÙħØ³ØªÙĩÙĦÙĥ": 8172,
      "ĠÙĬØ·Ø§ÙĦØ¨": 8173,
      "ÙĬÙģÙĬØ©": 8174,
      "ĠØ§ÙĦØ§Ø®ÙĬØ±Ø©": 8175,
      "ĠÙħÙĪØ¶Ø¹": 8176,
      "ĠÙħØ®Ø§Ø·Ø±": 8177,
      "ĠØ§ÙĦØ³Ø¨Ø¹": 8178,
      "ĠØ§ÙĦØ³ÙĦØ·Ø§ÙĨ": 8179,
      "ÙģÙģ": 8180,
      "Ø§Ø¦Ø³": 8181,
      "ĠÙĪØ§Ø³ØªØ®Ø¯Ø§Ùħ": 8182,
      "ĠØ§Ø±Ø¬ÙĪ": 8183,
      "ĠØ§ÙĦÙĤØ§ÙĨÙĪÙĨÙĬ": 8184,
      "ĠÙħØ°ÙĥØ±Ø©": 8185,
      "ĠØªØ´Ø§Ø±Ùĥ": 8186,
      "ĠØªÙĦÙĤÙĬ": 8187,
      "Ø§Ø²ÙĨØ©": 8188,
      "70": 8189,
      "ĠØ¢ÙĦÙĩ": 8190,
      "ĠØ§ÙĦÙģØ¶Ø§Ø¦ÙĬØ©": 8191,
      "ÙĥØ±ÙĪØ³ÙĪÙģØª": 8192,
      "ĠØ²ÙħÙĦ": 8193,
      "ĠØªØ¬Ø±Ø¨": 8194,
      "ĠØŃØ¨ÙĬ": 8195,
      "ĠØ´ÙĤÙĬÙĤ": 8196,
      "ĠØªÙĦØ¹Ø¨": 8197,
      "ĠØ§ÙĦØ´Ø±ÙĤÙĬ": 8198,
      "ĠØ§Ø¹ØªÙĤØ¯": 8199,
      "ĠØ§ÙĦØµÙģØ±": 8200,
      "ĠÙĦÙħÙĥØ§ÙģØŃØ©": 8201,
      "ØªØ±Ø§ÙĤ": 8202,
      "ĠØ§ÙĦØ±ÙĬØ§Ø¶ÙĬØ§Øª": 8203,
[...]
