{
  "version": "1.0",
  "truncation": null,
  "padding": null,
  "added_tokens": [
    {
      "id": 0,
      "content": "<s>",
      "single_word": false,
      "lstrip": false,
      "rstrip": false,
      "normalized": false,
      "special": true
    },
    {
      "id": 1,
      "content": "<pad>",
      "single_word": false,
      "lstrip": false,
      "rstrip": false,
      "normalized": false,
      "special": true
    },
    {
      "id": 2,
      "content": "</s>",
      "single_word": false,
      "lstrip": false,
      "rstrip": false,
      "normalized": false,
      "special": true
    },
    {
      "id": 3,
      "content": "<unk>",
      "single_word": false,
      "lstrip": false,
      "rstrip": false,
      "normalized": false,
      "special": true
    },
    {
      "id": 4,
      "content": "<mask>",
      "single_word": false,
      "lstrip": false,
      "rstrip": false,
      "normalized": false,
      "special": true
    }
  ],
  "normalizer": null,
  "pre_tokenizer": {
    "type": "ByteLevel",
    "add_prefix_space": true,
    "trim_offsets": true,
    "use_regex": true
  },
  "post_processor": {
    "type": "RobertaProcessing",
    "sep": [
      "</s>",
      2
    ],
    "cls": [
      "<s>",
      0
    ],
    "trim_offsets": true,
    "add_prefix_space": true
  },
  "decoder": {
    "type": "ByteLevel",
    "add_prefix_space": true,
    "trim_offsets": true,
    "use_regex": true
  },
  "model": {
    "type": "BPE",
    "dropout": null,
    "unk_token": null,
    "continuing_subword_prefix": null,
    "end_of_word_suffix": null,
    "fuse_unk": false,
    "vocab": {
      "<s>": 0,
      "<pad>": 1,
      "</s>": 2,
      "<unk>": 3,
      "<mask>": 4,
      "!": 5,
      "\"": 6,
      "#": 7,
      "$": 8,
      "%": 9,
      "&": 10,
      "'": 11,
      "(": 12,
      ")": 13,
      "*": 14,
      "+": 15,
      ",": 16,
      "-": 17,
      ".": 18,
      "/": 19,
      "0": 20,
      "1": 21,
      "2": 22,
      "3": 23,
      "4": 24,
      "5": 25,
      "6": 26,
      "7": 27,
      "8": 28,
      "9": 29,
      ":": 30,
      ";": 31,
      "<": 32,
      "=": 33,
      ">": 34,
      "?": 35,
      "@": 36,
      "A": 37,
      "B": 38,
      "C": 39,
      "D": 40,
      "E": 41,
      "F": 42,
      "G": 43,
      "H": 44,
      "I": 45,
      "J": 46,
      "K": 47,
      "L": 48,
      "M": 49,
      "N": 50,
      "O": 51,
      "P": 52,
      "Q": 53,
      "R": 54,
      "S": 55,
      "T": 56,
      "U": 57,
      "V": 58,
      "W": 59,
      "X": 60,
      "Y": 61,
      "Z": 62,
      "[": 63,
      "\\": 64,
      "]": 65,
      "^": 66,
      "_": 67,
      "`": 68,
      "a": 69,
      "b": 70,
      "c": 71,
      "d": 72,
      "e": 73,
      "f": 74,
      "g": 75,
      "h": 76,
      "i": 77,
      "j": 78,
      "k": 79,
      "l": 80,
      "m": 81,
      "n": 82,
      "o": 83,
      "p": 84,
      "q": 85,
      "r": 86,
      "s": 87,
      "t": 88,
      "u": 89,
      "v": 90,
      "w": 91,
      "x": 92,
      "y": 93,
      "z": 94,
      "{": 95,
      "|": 96,
      "}": 97,
      "~": 98,
      "¡": 99,
      "¢": 100,
      "£": 101,
      "¤": 102,
      "¥": 103,
      "¦": 104,
      "§": 105,
      "¨": 106,
      "©": 107,
      "ª": 108,
      "«": 109,
      "¬": 110,
      "®": 111,
      "¯": 112,
      "°": 113,
      "±": 114,
      "²": 115,
      "³": 116,
      "´": 117,
      "µ": 118,
      "¶": 119,
      "·": 120,
      "¸": 121,
      "¹": 122,
      "º": 123,
      "»": 124,
      "¼": 125,
      "½": 126,
      "¾": 127,
      "¿": 128,
      "À": 129,
      "Á": 130,
      "Â": 131,
      "Ã": 132,
      "Ä": 133,
      "Å": 134,
      "Æ": 135,
      "Ç": 136,
      "È": 137,
      "É": 138,
      "Ê": 139,
      "Ë": 140,
      "Ì": 141,
      "Í": 142,
      "Î": 143,
      "Ï": 144,
      "Ð": 145,
      "Ñ": 146,
      "Ò": 147,
      "Ó": 148,
      "Ô": 149,
      "Õ": 150,
      "Ö": 151,
      "×": 152,
      "Ø": 153,
      "Ù": 154,
      "Ú": 155,
      "Û": 156,
      "Ü": 157,
      "Ý": 158,
      "Þ": 159,
      "ß": 160,
      "à": 161,
      "á": 162,
      "â": 163,
      "ã": 164,
      "ä": 165,
      "å": 166,
      "æ": 167,
      "ç": 168,
      "è": 169,
      "é": 170,
      "ê": 171,
      "ë": 172,
      "ì": 173,
      "í": 174,
      "î": 175,
      "ï": 176,
      "ð": 177,
      "ñ": 178,
      "ò": 179,
      "ó": 180,
      "ô": 181,
      "õ": 182,
      "ö": 183,
      "÷": 184,
      "ø": 185,
      "ù": 186,
      "ú": 187,
      "û": 188,
      "ü": 189,
      "ý": 190,
      "þ": 191,
      "ÿ": 192,
      "Ā": 193,
      "ā": 194,
      "Ă": 195,
      "ă": 196,
      "Ą": 197,
      "ą": 198,
      "Ć": 199,
      "ć": 200,
      "Ĉ": 201,
      "ĉ": 202,
      "Ċ": 203,
      "ċ": 204,
      "Č": 205,
      "č": 206,
      "Ď": 207,
      "ď": 208,
      "Đ": 209,
      "đ": 210,
      "Ē": 211,
      "ē": 212,
      "Ĕ": 213,
      "ĕ": 214,
      "Ė": 215,
      "ė": 216,
      "Ę": 217,
      "ę": 218,
      "Ě": 219,
      "ě": 220,
      "Ĝ": 221,
      "ĝ": 222,
      "Ğ": 223,
      "ğ": 224,
      "Ġ": 225,
      "ġ": 226,
      "Ģ": 227,
      "ģ": 228,
      "Ĥ": 229,
      "ĥ": 230,
      "Ħ": 231,
      "ħ": 232,
      "Ĩ": 233,
      "ĩ": 234,
      "Ī": 235,
      "ī": 236,
      "Ĭ": 237,
      "ĭ": 238,
      "Į": 239,
      "į": 240,
      "İ": 241,
      "ı": 242,
      "Ĳ": 243,
      "ĳ": 244,
      "Ĵ": 245,
      "ĵ": 246,
      "Ķ": 247,
      "ķ": 248,
      "ĸ": 249,
      "Ĺ": 250,
      "ĺ": 251,
      "Ļ": 252,
      "ļ": 253,
      "Ľ": 254,
      "ľ": 255,
      "Ŀ": 256,
      "ŀ": 257,
      "Ł": 258,
      "ł": 259,
      "Ń": 260,
      "er": 261,
      "en": 262,
      "Ġd": 263,
      "ch": 264,
      "Ã©": 265,
      "Ġa": 266,
      "Ã©i": 267,
      "un": 268,
      "es": 269,
      "Ã«": 270,
      "Ġv": 271,
      "nn": 272,
      "at": 273,
      "Ã¤": 274,
      "Ġg": 275,
      "el": 276,
      "et": 277,
      "ĠD": 278,
      "ir": 279,
      "Ġs": 280,
      "ss": 281,
      "ĠS": 282,
      "an": 283,
      "Ġan": 284,
      "it": 285,
      "em": 286,
      "Ġo": 287,
      "cht": 288,
      "ll": 289,
      "Ġm": 290,
      "is": 291,
      "Ġz": 292,
      "Ġw": 293,
      "Ã©ier": 294,
      "Ġh": 295,
      "Ġvun": 296,
      "Ġde": 297,
      "eng": 298,
      "um": 299,
      "ĠA": 300,
      "ro": 301,
      "ar": 302,
      "io": 303,
      "Ġf": 304,
      "in": 305,
      "ech": 306,
      "Ġb": 307,
      "eg": 308,
      "ĠM": 309,
      "ĠP": 310,
      "st": 311,
      "Ġder": 312,
      "al": 313,
      "Ġk": 314,
      "ung": 315,
      "Ġe": 316,
      "ou": 317,
      "ĠB": 318,
      "Ġn": 319,
      "ĠK": 320,
      "ĠE": 321,
      "or": 322,
      "ioun": 323,
      "ĠL": 324,
      "inn": 325,
      "ent": 326,
      "on": 327,
      "uer": 328,
      "ei": 329,
      "ĠF": 330,
      "ĠdÃ©i": 331,
      "ĠW": 332,
      "kt": 333,
      "esch": 334,
      "ĠG": 335,
      "Ġeng": 336,
      "Ġfir": 337,
      "Ġass": 338,
      "tz": 339,
      "sch": 340,
      "âĢ": 341,
      "der": 342,
      "ĠI": 343,
      "us": 344,
      "Ġop": 345,
      "Ġze": 346,
      "ann": 347,
      "ĠR": 348,
      "ĠC": 349,
      "Ã©iert": 350,
      "Ġvum": 351,
      "wer": 352,
      "tt": 353,
      "eb": 354,
      "ra": 355,
      "mm": 356,
      "ie": 357,
      "re": 358,
      "lech": 359,
      "Ġ1": 360,
      "ell": 361,
      "ĠH": 362,
      "ĠT": 363,
      "ier": 364,
      "Ã«s": 365,
      "Ã«nn": 366,
      "ĠN": 367,
      "Ġden": 368,
      "ĠV": 369,
      "ck": 370,
      "ur": 371,
      "Ã¤it": 372,
      "Ġp": 373,
      "la": 374,
      "de": 375,
      "ft": 376,
      "âĢĻ": 377,
      "atioun": 378,
      "Ġ2": 379,
      "Ġmat": 380,
      "Ġhu": 381,
      "Ġet": 382,
      "ri": 383,
      "Ġver": 384,
      "ol": 385,
      "Ã©ieren": 386,
      "ert": 387,
      "ach": 388,
      "ĠÃ": 389,
      "Ġdat": 390,
      "Ã«tt": 391,
      "ĠZ": 392,
      "wwer": 393,
      "est": 394,
      "ĠO": 395,
      "ill": 396,
      "Ġam": 397,
      "om": 398,
      "ed": 399,
      "ĠJ": 400,
      "ik": 401,
      "id": 402,
      "eet": 403,
      "Ġginn": 404,
      "ĠIn": 405,
      "Ã¤i": 406,
      "ter": 407,
      "ff": 408,
      "and": 409,
      "Ġl": 410,
      "ĠSt": 411,
      "ess": 412,
      "il": 413,
      "ĠDir": 414,
      "am": 415,
      "ng": 416,
      "ef": 417,
      "Ġer": 418,
      "Ġvu": 419,
      "Ã«tz": 420,
      "uss": 421,
      "Ġhuet": 422,
      "ut": 423,
      "icht": 424,
      "echt": 425,
      "iwwer": 426,
      "ĠDe": 427,
      "onn": 428,
      "ĠwÃ©i": 429,
      "iv": 430,
      "Ġnet": 431,
      "ĠmÃ©i": 432,
      "Ġsinn": 433,
      "ĠdÃ«s": 434,
      "Ġ(": 435,
      "Ġoder": 436,
      "Ġoch": 437,
      "Ġall": 438,
      "ĠSch": 439,
      "otz": 440,
      "uerg": 441,
      "Ã©it": 442,
      "ĠU": 443,
      "oll": 444,
      "Ġzu": 445,
      "eren": 446,
      "Ġiwwer": 447,
      "Ġaus": 448,
      "ew": 449,
      "scht": 450,
      "orm": 451,
      "ĠgÃ«tt": 452,
      "unn": 453,
      "00": 454,
      "escht": 455,
      "ĠÃĦ": 456,
      "oo": 457,
      "enotz": 458,
      "ien": 459,
      "ee": 460,
      "ist": 461,
      "Ã¤r": 462,
      "nt": 463,
      "Ġeis": 464,
      "art": 465,
      "ĠPro": 466,
      "ebuerg": 467,
      "ot": 468,
      "Ġsch": 469,
      "Ġdatt": 470,
      "ass": 471,
      "Ã«ll": 472,
      "Ã«tzebuerg": 473,
      "Ã«mm": 474,
      "pp": 475,
      "ang": 476,
      "wen": 477,
      "elt": 478,
      "ion": 479,
      "ag": 480,
      "ers": 481,
      "ĠkÃ«nn": 482,
      "Ġsech": 483,
      "ul": 484,
      "anz": 485,
      "den": 486,
      "ouf": 487,
      "pt": 488,
      "aach": 489,
      "Ġ20": 490,
      "ic": 491,
      "Ã©ck": 492,
      "lo": 493,
      "itÃ©it": 494,
      "ek": 495,
      "Ġgouf": 496,
      "Ġen": 497,
      "ekt": 498,
      "elen": 499,
      "sp": 500,
      "Ġt": 501,
      "all": 502,
      "ĠLÃ«tzebuerg": 503,
      "Ġal": 504,
      "Ġengem": 505,
      "omm": 506,
      "Ã¼": 507,
      "ab": 508,
      "Ġst": 509,
      "du": 510,
      "Ġdem": 511,
      "ĠVer": 512,
      "uerch": 513,
      "ig": 514,
      "ĠSp": 515,
      "end": 516,
      "Ã«n": 517,
      "Ġhunn": 518,
      "Ġwar": 519,
      "ber": 520,
      "form": 521,
      "Ġun": 522,
      "Ġu": 523,
      "ant": 524,
      "Ġseng": 525,
      "rÃ©i": 526,
      "le": 527,
      "ĠAn": 528,
      "ĠJo": 529,
      "Ġin": 530,
      "Ġdeen": 531,
      "im": 532,
      "eh": 533,
      "Ġ-": 534,
      "Ġbei": 535,
      "ont": 536,
      "ite": 537,
      "Ġals": 538,
      "aft": 539,
      "ĠÃĦr": 540,
      "Ã©ng": 541,
      "Ġr": 542,
      "Ã¤ich": 543,
      "Ġenger": 544,
      "Ã¤nn": 545,
      "ĠâĢ": 546,
      "Ġdo": 547,
      "ort": 548,
      "iz": 549,
      "ran": 550,
      "Ġhir": 551,
      "as": 552,
      "umm": 553,
      "ad": 554,
      "enz": 555,
      "Ġmir": 556,
      "etz": 557,
      "ĠCh": 558,
      "Ã«nner": 559,
      "ing": 560,
      "og": 561,
      "ĠJoer": 562,
      "ez": 563,
      "ru": 564,
      "au": 565,
      "Ġsi": 566,
      "Ġvir": 567,
      "Ġ19": 568,
      "ies": 569,
      "Ġsou": 570,
      "Ġj": 571,
      "ĠEt": 572,
      "alt": 573,
      "akt": 574,
      "Ã«ss": 575,
      "ook": 576,
      "te": 577,
      "cher": 578,
      "ungen": 579,
      "Ġno": 580,
      "Ã¤ert": 581,
      "Ġbenotz": 582,
      "qu": 583,
      "Ġduerch": 584,
      "Ġse": 585,
      "Ġum": 586,
      "we": 587,
      "Ġganz": 588,
      "aar": 589,
      "os": 590,
      "ĠSite": 591,
      "Ã«m": 592,
      "ement": 593,
      "Ġkann": 594,
      "ĠDÃ«s": 595,
      "Ġges": 596,
      "per": 597,
      "keet": 598,
      "Ġvill": 599,
      "ĠWeb": 600,
      "Ġbis": 601,
      "Ġaner": 602,
      "itt": 603,
      "iicht": 604,
      "af": 605,
      "eit": 606,
      "Ġ3": 607,
      "ĠAr": 608,
      "formatioun": 609,
      "ich": 610,
      "Ġawer": 611,
      "ver": 612,
      "op": 613,
      "Ġent": 614,
      "Ġ\"": 615,
      "our": 616,
      "ĠDen": 617,
      "rouss": 618,
      "uch": 619,
      "schaft": 620,
      "Ã©ischt": 621,
      "rop": 622,
      "ĠÃ«nner": 623,
      "ĠIech": 624,
      "iss": 625,
      "ĠDat": 626,
      "ungs": 627,
      "bl": 628,
      "rÃ¤": 629,
      "och": 630,
      "Ã«scht": 631,
      "ĠWann": 632,
      "Ġwat": 633,
      "ation": 634,
      "sÃ¤it": 635,
      "ten": 636,
      "ĠCook": 637,
      "Ġre": 638,
      "esche": 639,
      "rei": 640,
      "Ġzum": 641,
      "ĠFir": 642,
      "he": 643,
      "ron": 644,
      "ĠkÃ«nnt": 645,
      "Ġsp": 646,
      "eescht": 647,
      "egen": 648,
      "ial": 649,
      "aus": 650,
      "ĠAm": 651,
      "ĠÃĭ": 652,
      "ust": 653,
      "ĠInformatioun": 654,
      "Ã¤er": 655,
      "Ġnach": 656,
      "heet": 657,
      "ĠDÃ©i": 658,
      "Ġeen": 659,
      "rÃ¤i": 660,
      "becht": 661,
      "aachen": 662,
      "Ã«st": 663,
      "ep": 664,
      "Ġversch": 665,
      "ian": 666,
      "ĠDo": 667,
      "omp": 668,
      "aut": 669,
      "eider": 670,
      "ken": 671,
      "Ġwann": 672,
      "Ġ202": 673,
      "oen": 674,
      "annt": 675,
      "oun": 676,
      "erv": 677,
      "Ã©in": 678,
      "iounen": 679,
      "Ġ4": 680,
      "ĠMa": 681,
      "Ġla": 682,
      "ip": 683,
      "glech": 684,
      "ult": 685,
      "emeng": 686,
      "alen": 687,
      "Ġmuss": 688,
      "Ġnei": 689,
      "Qu": 690,
      "ĠSÃ¤it": 691,
      "Ġbenotzt": 692,
      "ĠkÃ«nnen": 693,
      "Ã©int": 694,
      "ĠAl": 695,
      "ce": 696,
      "ĠWebsÃ¤it": 697,
      "aa": 698,
      "Ġug": 699,
      "Ġgrouss": 700,
      "ĠKon": 701,
      "Ġof": 702,
      "ĠZÃ¤it": 703,
      "tern": 704,
      "dukt": 705,
      "Ġ201": 706,
      "unge": 707,
      "ze": 708,
      "Ġzw": 709,
      "ckt": 710,
      "lu": 711,
      "ember": 712,
      "ud": 713,
      "if": 714,
      "uel": 715,
      "ĠNo": 716,
      "ĠBenotz": 717,
      "Ġee": 718,
      "ierk": 719,
      "atur": 720,
      "sst": 721,
      "unkt": 722,
      "echn": 723,
      "tik": 724,
      "Ġc": 725,
      "Ġsoll": 726,
      "gen": 727,
      "een": 728,
      "Ã«mmer": 729,
      "eis": 730,
      "ellen": 731,
      "xt": 732,
      "Ġpro": 733,
      "Ġel": 734,
      "ater": 735,
      "ĠdÃ«se": 736,
      "utt": 737,
      "Ġ5": 738,
      "Ġverschid": 739,
      "ct": 740,
      "ia": 741,
      "Ã¤ch": 742,
      "Ġwou": 743,
      "ĠÃ©ischt": 744,
      "Ġes": 745,
      "ĠQu": 746,
      "Ġpuer": 747,
      "ĠÃ«mmer": 748,
      "ĠÃ«m": 749,
      "Ġgen": 750,
      "ĠEr": 751,
      "Ġon": 752,
      "ens": 753,
      "deg": 754,
      "ĠReg": 755,
      "Ã©e": 756,
      "esumm": 757,
      "ma": 758,
      "Ġesou": 759,
      "Ġgem": 760,
      "..": 761,
      "ap": 762,
      "Ã¤n": 763,
      "ler": 764,
      "Ġdeem": 765,
      "anner": 766,
      "Ġgesch": 767,
      "od": 768,
      "ys": 769,
      "ĠnÃ«mm": 770,
      "Ġ18": 771,
      "Ġhat": 772,
      "Ġech": 773,
      "Ġmaachen": 774,
      "Ġgew": 775,
      "ress": 776,
      "ĠEng": 777,
      "ine": 778,
      "ÃĦ": 779,
      "isÃ©iert": 780,
      "iewen": 781,
      "ativ": 782,
      "erd": 783,
      "ĠKont": 784,
      "ank": 785,
      "Ġmam": 786,
      "Ã«ff": 787,
      "ede": 788,
      "ĠWÃ©i": 789,
      "ĠGes": 790,
      "ges": 791,
      "ĠwÃ¤ert": 792,
      "ons": 793,
      "Ġbest": 794,
      "aat": 795,
      "ĠEnt": 796,
      "rooch": 797,
      "Ġdass": 798,
      "eschen": 799,
      "ooss": 800,
      "Ġweider": 801,
      "ire": 802,
      "ale": 803,
      "ĠBenotzer": 804,
      "Ã«llef": 805,
      "Ã¤ng": 806,
      "sche": 807,
      "ĠdÃ«sem": 808,
      "ger": 809,
      "ĠdÃ«ser": 810,
      "ĠOp": 811,
      "zen": 812,
      "li": 813,
      "Ã¨": 814,
      "ĠAll": 815,
      "halt": 816,
      "land": 817,
      "fir": 818,
      "ĠLeit": 819,
      "Ġverb": 820,
      "Ġda": 821,
      "ege": 822,
      "Ã¤tz": 823,
      "Ġwell": 824,
      "idd": 825,
      "escher": 826,
      "jet": 827,
      "yst": 828,
      "Ġsel": 829,
      "ĠEn": 830,
      "aass": 831,
      "sk": 832,
      "itioun": 833,
      "aapt": 834,
      "olit": 835,
      "ĠArtik": 836,
      "res": 837,
      "stell": 838,
      "wÃ©ck": 839,
      "hr": 840,
      "rÃ©ck": 841,
      "idder": 842,
      "ser": 843,
      "ĠAus": 844,
      "ug": 845,
      "eler": 846,
      "egt": 847,
      "ĠGesch": 848,
      "Ġhei": 849,
      "uni": 850,
      "Ġkl": 851,
      "eur": 852,
      "alitÃ©it": 853,
      "nneren": 854,
      "20": 855,
      "urop": 856,
      "egkeet": 857,
      "pill": 858,
      "nner": 859,
      "ĠPl": 860,
      "mp": 861,
      "Ġ0": 862,
      "Ã©cher": 863,
      "ond": 864,
      "deem": 865,
      "Ġ6": 866,
      "ĠEx": 867,
      "inf": 868,
      "Ġgi": 869,
      "ĠRe": 870,
      "ĠMar": 871,
      "ĠhÃ©i": 872,
      "ĠIwwer": 873,
      "kl": 874,
      "rad": 875,
      "ervic": 876,
      "rÃ©": 877,
      "ĠMir": 878,
      "Ġri": 879,
      "rie": 880,
      "Ġgeh": 881,
      "ob": 882,
      "rans": 883,
      "St": 884,
      "ĠwÃ«ll": 885,
      "Ã©iere": 886,
      "aart": 887,
      "ib": 888,
      "ĠLand": 889,
      "Ġzou": 890,
      "ĠPar": 891,
      "ĠÂ": 892,
      "ĠVir": 893,
      "lt": 894,
      "ĠmÃ©iglech": 895,
      "rÃ©ng": 896,
      "ĠâĢĵ": 897,
      "eden": 898,
      "Ġkomm": 899,
      "rau": 900,
      "ystem": 901,
      "ĠPla": 902,
      "iell": 903,
      "ĠProdukt": 904,
      "rat": 905,
      "ÃĦnneren": 906,
      "min": 907,
      "gan": 908,
      "),": 909,
      "fen": 910,
      "esser": 911,
      "mÃ©i": 912,
      "Ã«sch": 913,
      "rÃ«tt": 914,
      "ĠArtikel": 915,
      "lung": 916,
      "arbecht": 917,
      "ĠBer": 918,
      "egr": 919,
      "Ã©ierung": 920,
      "leche": 921,
      "esp": 922,
      "Ġkeng": 923,
      "ste": 924,
      "ong": 925,
      "Ġhien": 926,
      "aang": 927,
      "Ġgel": 928,
      "Benotz": 929,
      "Ġgoufen": 930,
      "ĠdÃ«st": 931,
      "oment": 932,
      "Ġelo": 933,
      "ĠMat": 934,
      "Ġjust": 935,
      "Ġschw": 936,
      "oss": 937,
      "ord": 938,
      "ĠCookies": 939,
      "uell": 940,
      "Ġdee": 941,
      "Ġgemaach": 942,
      "ett": 943,
      "olog": 944,
      "amm": 945,
      "Ġ2022": 946,
      "Ġkr": 947,
      "ak": 948,
      "infach": 949,
      "ac": 950,
      "ĠnÃ«mmen": 951,
      "Ġdir": 952,
      "emb": 953,
      "atiounen": 954,
      "lecht": 955,
      "ierung": 956,
      "ĠIntern": 957,
      "bar": 958,
      "Ġpers": 959,
      "ok": 960,
      "Ġwicht": 961,
      "ĠPart": 962,
      "Ġgef": 963,
      "roen": 964,
      "Ã«ssen": 965,
      "ĠSi": 966,
      "Ġsengem": 967,
      "enn": 968,
      "Ã«nsch": 969,
      "ĠThe": 970,
      "fl": 971,
      "ema": 972,
      "Ġbescht": 973,
      "ĠPers": 974,
      "Ġ200": 975,
      "ĠLÃ«tzebuerger": 976,
      "gesch": 977,
      "ĠUf": 978,
      "ktiv": 979,
      "ĠInformatiounen": 980,
      "ele": 981,
      "ĠÃĭm": 982,
      "ym": 983,
      "ĠMoment": 984,
      "annen": 985,
      "Ġdann": 986,
      "ph": 987,
      "ĠNumm": 988,
      "ubl": 989,
      "ĠAut": 990,
      "ument": 991,
      "ĠGeb": 992,
      "erg": 993,
      "ux": 994,
      "ish": 995,
      "ĠUn": 996,
      "ĠMin": 997,
      "of": 998,
      "Ġeinfach": 999,
      "ail": 1000,
      "av": 1001,
      "ĠGemeng": 1002,
      "Ġgutt": 1003,
      ").": 1004,
      "Ã¤nner": 1005,
      "Ã©is": 1006,
      "ĠSprooch": 1007,
      "imm": 1008,
      "rgan": 1009,
      "ĠSe": 1010,
      "Ġbeim": 1011,
      "ĠâĢŀ": 1012,
      "Ġverschidden": 1013,
      "âĢľ": 1014,
      "In": 1015,
      "ĠMan": 1016,
      "Ġ7": 1017,
      "az": 1018,
      "ĠtÃ«scht": 1019,
      "att": 1020,
      "Ġkon": 1021,
      "ĠStaat": 1022,
      "Ġiwwert": 1023,
      "onnÃ©e": 1024,
      "lechen": 1025,
      "app": 1026,
      "aarbecht": 1027,
      "utz": 1028,
      "ĠSu": 1029,
      "ĠForm": 1030,
      "Sch": 1031,
      "Ġgeb": 1032,
      "ffen": 1033,
      "Ġ10": 1034,
      "ĠAarbecht": 1035,
      "alys": 1036,
      "reiwen": 1037,
      "oul": 1038,
      "rÃ¤ich": 1039,
      "onnen": 1040,
      "ĠWelt": 1041,
      "innen": 1042,
      "Ġopg": 1043,
      "row": 1044,
      "Ġkleng": 1045,
      "Ġex": 1046,
      "Ã¤itsch": 1047,
      "ĠInternet": 1048,
      "chen": 1049,
      "out": 1050,
      "Ġerla": 1051,
      "eier": 1052,
      "ĠTh": 1053,
      "cken": 1054,
      "ĠKat": 1055,
      "Ġ/": 1056,
      "Ġzesumm": 1057,
      "lass": 1058,
      "Ġ8": 1059,
      "ĠDeel": 1060,
      "ĠGr": 1061,
      "ĠServic": 1062,
      "Ġvirun": 1063,
      "Ġricht": 1064,
      "rÃ©ien": 1065,
      "ĠgÃ©i": 1066,
      "Ġbes": 1067,
      "rank": 1068,
      "Ġwichteg": 1069,
      "gra": 1070,
      "Ġdes": 1071,
      "Ã¤in": 1072,
      "Ġdu": 1073,
      "ild": 1074,
      "ĠAd": 1075,
      "eispill": 1076,
      "egor": 1077,
      "loss": 1078,
      "Ġlaang": 1079,
      "ide": 1080,
      "ure": 1081,
      "Ã¤erz": 1082,
      "ĠZou": 1083,
      "Ã¤nneren": 1084,
      "zÃ¤it": 1085,
      "zent": 1086,
      "rÃ©iss": 1087,
      "ĠFall": 1088,
      "uecht": 1089,
      "ĠEl": 1090,
      "ĠInhalt": 1091,
      "che": 1092,
      "Ġoff": 1093,
      "Ġ17": 1094,
      "ĠÃĭnner": 1095,
      "ard": 1096,
      "Ġgeet": 1097,
      "zept": 1098,
      "rowser": 1099,
      "Ã¤is": 1100,
      "uert": 1101,
      "Ã«ffent": 1102,
      "ne": 1103,
      "Ġouni": 1104,
      "Ġeisem": 1105,
      "Ġka": 1106,
      "ĠKier": 1107,
      "uerder": 1108,
      "weis": 1109,
      "rich": 1110,
      "ment": 1111,
      "Benotze": 1112,
      "cc": 1113,
      "ioune": 1114,
      "ĠMet": 1115,
      "rond": 1116,
      "ĠFl": 1117,
      "ĠDÃ«st": 1118,
      "are": 1119,
      "Ã¶": 1120,
      "iller": 1121,
      "ational": 1122,
      "ĠRes": 1123,
      "Ã«lle": 1124,
      "ĠhÃ©ich": 1125,
      "iesen": 1126,
      "rÃ¤is": 1127,
      "se": 1128,
      "ident": 1129,
      "ain": 1130,
      "off": 1131,
      "ost": 1132,
      "ĠLiewen": 1133,
      "000": 1134,
      "ichel": 1135,
      "deems": 1136,
      "ĠBeispill": 1137,
      "ĠHand": 1138,
      "ĠÃĦrem": 1139,
      "oz": 1140,
      "ĠDonnÃ©e": 1141,
      "ĠkrÃ©ien": 1142,
      "ĠgÃ©int": 1143,
      "sm": 1144,
      "ĠMus": 1145,
      "bÃ¤i": 1146,
      "Ġro": 1147,
      "omat": 1148,
      "ultur": 1149,
      "onnt": 1150,
      "lient": 1151,
      "itÃ©iert": 1152,
      "Ġag": 1153,
      "ĠPr": 1154,
      "ww": 1155,
      "ĠOf": 1156,
      "bs": 1157,
      "uckt": 1158,
      "pro": 1159,
      "roll": 1160,
      "Ġeenz": 1161,
      "ĠBes": 1162,
      "rakt": 1163,
      "Ġselwer": 1164,
      "Ã«nnt": 1165,
      "rauch": 1166,
      "riv": 1167,
      "ielt": 1168,
      "ĠEurop": 1169,
      "ĠHÃ«llef": 1170,
      "olitik": 1171,
      "Ġreg": 1172,
      "izÃ©iert": 1173,
      "ĠKomm": 1174,
      "ĠWee": 1175,
      "stÃ«tz": 1176,
      "Ġgest": 1177,
      "âĢĺ": 1178,
      "iew": 1179,
      "Ġ15": 1180,
      "ĠWat": 1181,
      "eld": 1182,
      "echen": 1183,
      "erm": 1184,
      "ĠdÃ¤r": 1185,
      "ium": 1186,
      "ast": 1187,
      "weck": 1188,
      "ĠMÃ©i": 1189,
      "ĠPh": 1190,
      "ĠGeschicht": 1191,
      "Ã¤scht": 1192,
      "onnert": 1193,
      "komm": 1194,
      "ben": 1195,
      "ĠpersÃ©in": 1196,
      "ĠClient": 1197,
      "ore": 1198,
      "Ã¨re": 1199,
      "allt": 1200,
      "Ġkomp": 1201,
      "ees": 1202,
      "vent": 1203,
      "Ġ9": 1204,
      "...": 1205,
      "ive": 1206,
      "ikatioun": 1207,
      "duerch": 1208,
      "Ġ16": 1209,
      "eien": 1210,
      "dust": 1211,
      "usser": 1212,
      "Ver": 1213,
      "ĠkÃ«nne": 1214,
      "aterial": 1215,
      "Ġbe": 1216,
      "oc": 1217,
      "Ġwaren": 1218,
      "gemeng": 1219,
      "Ġmeescht": 1220,
      "ĠOn": 1221,
      "Ġkont": 1222,
      "ool": 1223,
      "Ġerf": 1224,
      "raucht": 1225,
      "age": 1226,
      "ind": 1227,
      "ai": 1228,
      "no": 1229,
      "Ġber": 1230,
      "Ġverschidde": 1231,
      "Ġdirekt": 1232,
      "ieft": 1233,
      "Ġhaut": 1234,
      "Ġdofir": 1235,
      "ott": 1236,
      "Ã«ttel": 1237,
      "Ġsenger": 1238,
      "Ġverst": 1239,
      "isen": 1240,
      "Ġlescht": 1241,
      "iess": 1242,
      "Ġeraus": 1243,
      "Ġwier": 1244,
      "teress": 1245,
      "Ġmee": 1246,
      "Ġ12": 1247,
      "akter": 1248,
      "uxemb": 1249,
      "lÃ¤ich": 1250,
      "ĠFot": 1251,
      "aasser": 1252,
      "gramm": 1253,
      "rÃ«": 1254,
      "Ġhutt": 1255,
      "ext": 1256,
      "ner": 1257,
      "ub": 1258,
      "Ã¤ren": 1259,
      "Ã¤hr": 1260,
      "rukt": 1261,
      "ĠKategor": 1262,
      "Ġbez": 1263,
      "Ã¤lt": 1264,
      "ransÃ©i": 1265,
      "âĢĿ": 1266,
      "ĠTra": 1267,
      "edia": 1268,
      "19": 1269,
      "ĠÃ«nn": 1270,
      "ĠFil": 1271,
      "aler": 1272,
      "duz": 1273,
      "Ġdeenen": 1274,
      "ĠPol": 1275,
      "Ġverl": 1276,
      "ue": 1277,
      "Ġzur": 1278,
      "onnesch": 1279,
      "ĠVers": 1280,
      "rupp": 1281,
      "ĠwÃ©in": 1282,
      "Pro": 1283,
      "ĠInst": 1284,
      "wecht": 1285,
      "rag": 1286,
      "Ã«lleft": 1287,
      "ied": 1288,
      "Ġbenotzen": 1289,
      "10": 1290,
      "pl": 1291,
      "zess": 1292,
      "riw": 1293,
      "Ġalso": 1294,
      "Ġak": 1295,
      "Ġlu": 1296,
      "ĠKl": 1297,
      "ack": 1298,
      "ĠZu": 1299,
      "Ġausg": 1300,
      "ĠManÃ©ier": 1301,
      "Ġ100": 1302,
      "oog": 1303,
      "iel": 1304,
      "ĠMÃ«nsch": 1305,
      "Ġâ": 1306,
      "ister": 1307,
      "Ġinv": 1308,
      "ektiv": 1309,
      "ren": 1310,
      "ĠY": 1311,
      "oren": 1312,
      "rit": 1313,
      "ĠKa": 1314,
      "ise": 1315,
      "ĠhÃ«lleft": 1316,
      "uf": 1317,
      "wÃ©cklung": 1318,
      "ĠKanner": 1319,
      "ilitÃ©it": 1320,
      "anter": 1321,
      "ism": 1322,
      "feren": 1323,
      "Ġ|": 1324,
      "gend": 1325,
      "ĠâĢľ": 1326,
      "ozial": 1327,
      "amp": 1328,
      "Ã¤ft": 1329,
      "iter": 1330,
      "oogle": 1331,
      "ans": 1332,
      "ign": 1333,
      "hÃ©i": 1334,
      "recht": 1335,
      "Ġbek": 1336,
      "ĠRef": 1337,
      "onym": 1338,
      "idden": 1339,
      "ĠCookien": 1340,
      "auer": 1341,
      "line": 1342,
      "ourg": 1343,
      "Ġbl": 1344,
      "ĠRecht": 1345,
      "Ã«r": 1346,
      "ah": 1347,
      "ĠStad": 1348,
      "Ġgesinn": 1349,
      "ementer": 1350,
      "ov": 1351,
      "Ã©cht": 1352,
      "ĠSchw": 1353,
      "nam": 1354,
      "Ġob": 1355,
      "ĠKichel": 1356,
      "ieder": 1357,
      "amill": 1358,
      "Ġanalys": 1359,
      "ĠKichelcher": 1360,
      "ĠLin": 1361,
      "deel": 1362,
      "ĠLÃ«tzebuergesch": 1363,
      "ĠdrÃ¤i": 1364,
      "cks": 1365,
      "ĠPersoun": 1366,
      "Ġkritt": 1367,
      "ĠBe": 1368,
      "ĠGesetz": 1369,
      "Ġsidd": 1370,
      "ĠProjet": 1371,
      "ĠNov": 1372,
      "setz": 1373,
      "Ġanere": 1374,
      "honnert": 1375,
      "ĠAb": 1376,
      "ĠApp": 1377,
      "ĠMee": 1378,
      "uerz": 1379,
      "ay": 1380,
      "22": 1381,
      "ĠPre": 1382,
      "ĠZesumm": 1383,
      "ĠGen": 1384,
      "isk": 1385,
      "ex": 1386,
      "Ã©cherheet": 1387,
      "ker": 1388,
      "ĠTheema": 1389,
      "Ġzwee": 1390,
      "minist": 1391,
      "abel": 1392,
      "ĠbestÃ«mm": 1393,
      "Ġakt": 1394,
      "Reg": 1395,
      "Ã©iss": 1396,
      "irt": 1397,
      "Ġspez": 1398,
      "ĠDem": 1399,
      "ĠSchl": 1400,
      "ogra": 1401,
      "ĠsÃ¤i": 1402,
      "oft": 1403,
      "uren": 1404,
      "sten": 1405,
      "Ġresp": 1406,
      "wÃ©i": 1407,
      "ĠDag": 1408,
      "Ġong": 1409,
      "ĠOch": 1410,
      "edeit": 1411,
      "hal": 1412,
      "ĠComm": 1413,
      "aire": 1414,
      "eter": 1415,
      "ionn": 1416,
      "afen": 1417,
      "Ġbesch": 1418,
      "ĠGoogle": 1419,
      "Ġmer": 1420,
      "Ġkommen": 1421,
      "aangen": 1422,
      "Ġakzept": 1423,
      "ĠÃĦre": 1424,
      "rÃ©ieren": 1425,
      "Ġfannt": 1426,
      "ĠsÃ©ier": 1427,
      "ĠPlaz": 1428,
      "ikip": 1429,
      "Ã¤rend": 1430,
      "ĠChr": 1431,
      "isatioun": 1432,
      "ikipedia": 1433,
      "itu": 1434,
      "uelen": 1435,
      "wierk": 1436,
      "issioun": 1437,
      "erz": 1438,
      "Ġ13": 1439,
      "ĠMill": 1440,
      "ĠGe": 1441,
      "ĠgÃ©if": 1442,
      "ese": 1443,
      "Ġeiser": 1444,
      "Ġwe": 1445,
      "sph": 1446,
      "ral": 1447,
      "lecher": 1448,
      "ĠGew": 1449,
      "gang": 1450,
      "ein": 1451,
      "Ġ&": 1452,
      "ivers": 1453,
      "Ġschonn": 1454,
      "amber": 1455,
      "ĠBl": 1456,
      "esetz": 1457,
      "ĠImp": 1458,
      "ĠHaapt": 1459,
      "ĠHei": 1460,
      "ĠÃ¤nneren": 1461,
      "ĠFra": 1462,
      "ĠmÃ¤": 1463,
      "ern": 1464,
      "ER": 1465,
      "Ġ11": 1466,
      "ka": 1467,
      "ĠmÃ©cht": 1468,
      "spro": 1469,
      "ransÃ©isch": 1470,
      "ĠsÃ©cher": 1471,
      "ued": 1472,
      "ktivitÃ©it": 1473,
      "nk": 1474,
      "raaft": 1475,
      "ĠStro": 1476,
      "ĠJoerhonnert": 1477,
      "Ġbew": 1478,
      "ĠPrÃ¤is": 1479,
      "uxembourg": 1480,
      "irtschaft": 1481,
      "ĠzrÃ©ck": 1482,
      "ĠBas": 1483,
      "Ġanonym": 1484,
      "inanz": 1485,
      "ĠkÃ©int": 1486,
      "oossen": 1487,
      "ĠDÃ¤itsch": 1488,
      "lament": 1489,
      "itÃ©": 1490,
      "Ġalles": 1491,
      "Ã¤re": 1492,
      "ina": 1493,
      "ĠSk": 1494,
      "ĠKultur": 1495,
      "ĠDÃ«se": 1496,
      "ĠDonnÃ©eÃ«n": 1497,
      "th": 1498,
      "ĠdÃ«sen": 1499,
      "Ġmeng": 1500,
      "ĠEnn": 1501,
      "eil": 1502,
      "que": 1503,
      "ĠUm": 1504,
      "ĠAls": 1505,
      "ow": 1506,
      "oum": 1507,
      "ere": 1508,
      "fus": 1509,
      "Ġverbess": 1510,
      "ĠBerÃ¤ich": 1511,
      "ry": 1512,
      "ĠBel": 1513,
      "ĠFrank": 1514,
      "sb": 1515,
      "Ã¤ll": 1516,
      "Ġstaar": 1517,
      "ate": 1518,
      "emer": 1519,
      "Ã«l": 1520,
      "ais": 1521,
      "stÃ¤nn": 1522,
      "ĠanalysÃ©ieren": 1523,
      "yp": 1524,
      "ĠDuerch": 1525,
      "SA": 1526,
      "Ġfest": 1527,
      "ĠKontakt": 1528,
      "ĠProdukter": 1529,
      "ologie": 1530,
      "egung": 1531,
      "Ar": 1532,
      "Ġ...": 1533,
      "ĠBei": 1534,
      "wat": 1535,
      "ĠFro": 1536,
      "ĠSich": 1537,
      "ĠMed": 1538,
      "igur": 1539,
      "ĠFe": 1540,
      "welt": 1541,
      "ĠProgramm": 1542,
      "emper": 1543,
      "arant": 1544,
      "aum": 1545,
      "ĠNovember": 1546,
      "ĠÃ«ffent": 1547,
      "istesch": 1548,
      "ipp": 1549,
      "ierger": 1550,
      "ĠÃī": 1551,
      "ienz": 1552,
      "ĠHÃ©i": 1553,
      "Ã«nscht": 1554,
      "Ã©ideg": 1555,
      "Ġhire": 1556,
      "Ġ14": 1557,
      "usst": 1558,
      "Ġgenannt": 1559,
      "Ġbesonnesch": 1560,
      "EN": 1561,
      "reg": 1562,
      "Ġduer": 1563,
      "atier": 1564,
      "Ġdor": 1565,
      "Ġfr": 1566,
      "ark": 1567,
      "lag": 1568,
      "ĠerÃ«m": 1569,
      "rÃ©isst": 1570,
      "iÃ«": 1571,
      "ĠBet": 1572,
      "ĠEch": 1573,
      "ĠWikipedia": 1574,
      "Ġerlaben": 1575,
      "ĠakzeptÃ©iert": 1576,
      "ppes": 1577,
      "gel": 1578,
      "rot": 1579,
      "EO": 1580,
      "ĠSur": 1581,
      "ĠWell": 1582,
      "ath": 1583,
      "sphÃ¤r": 1584,
      "ull": 1585,
      "ismus": 1586,
      "aten": 1587,
      "ĠSystem": 1588,
      "ouert": 1589,
      "istik": 1590,
      "ital": 1591,
      "ĠNor": 1592,
      "ntwer": 1593,
      "Ġ199": 1594,
      "ĠDaten": 1595,
      "Ġselwecht": 1596,
      "dustrie": 1597,
      "glechkeet": 1598,
      "ektioun": 1599,
      "ĠRegierung": 1600,
      "dd": 1601,
      "Ġbet": 1602,
      "eger": 1603,
      "ĠKomp": 1604,
      "sÃ¤tz": 1605,
      "sÃ¤ch": 1606,
      "Ġrefus": 1607,
      "reet": 1608,
      "ĠPriv": 1609,
      "ĠExper": 1610,
      "ĠNew": 1611,
      "ock": 1612,
      "Ġsollt": 1613,
      "oer": 1614,
      "eholl": 1615,
      "men": 1616,
      "ĠAktivitÃ©it": 1617,
      "uff": 1618,
      "ruecht": 1619,
      "Ġhier": 1620,
      "ĠhÃ«llef": 1621,
      "ĠErf": 1622,
      "ĠMusek": 1623,
      "ĠFamill": 1624,
      "Ġdeene": 1625,
      "sÃ¤chlech": 1626,
      "Ġkonf": 1627,
      "Â°": 1628,
      "ari": 1629,
      "ĠQuell": 1630,
      "riwwen": 1631,
      "pr": 1632,
      "ĠSc": 1633,
      "Ġbesser": 1634,
      "ĠlÃ«tzebuerg": 1635,
      "oder": 1636,
      "ĠlÃ¤it": 1637,
      "Ġger": 1638,
      "ĠWaasser": 1639,
      "ĠJe": 1640,
      "unner": 1641,
      "ĠServicer": 1642,
      "dro": 1643,
      "ven": 1644,
      "ĠgrÃ©iss": 1645,
      "halen": 1646,
      "ueren": 1647,
      "ĠPort": 1648,
      "rig": 1649,
      "ax": 1650,
      "Ġeppes": 1651,
      "ĠOrgan": 1652,
      "pla": 1653,
      "ĠTechn": 1654,
      "ĠFoto": 1655,
      "mer": 1656,
      "opp": 1657,
      "affen": 1658,
      "hÃ¤ng": 1659,
      "ieren": 1660,
      "Ã¼d": 1661,
      "Ġaut": 1662,
      "Ġfannen": 1663,
      "ĠDoduerch": 1664,
      "Ġkee": 1665,
      "ĠSonn": 1666,
      "Ġbeh": 1667,
      "Ġ30": 1668,
      "ĠZw": 1669,
      "Regierung": 1670,
      "Ġneie": 1671,
      "Ġstaark": 1672,
      "ewen": 1673,
      "Ġpar": 1674,
      "eisen": 1675,
      "onal": 1676,
      "ĠChar": 1677,
      "Ġjo": 1678,
      "Ã¤nd": 1679,
      "ĠAf": 1680,
      "ĠUfank": 1681,
      "wort": 1682,
      "rain": 1683,
      "ĠOb": 1684,
      "ĠwÃ«ss": 1685,
      "Ã©ngt": 1686,
      "Ġblei": 1687,
      "ellschaft": 1688,
      "ĠDez": 1689,
      "Ch": 1690,
      "ĠRad": 1691,
      "stellunge": 1692,
      "onc": 1693,
      "ĠDes": 1694,
      "ĠLe": 1695,
      "emperatur": 1696,
      "ĠKategorie": 1697,
      "flÃ¤ch": 1698,
      "ĠSÃ©cherheet": 1699,
      "Ġhie": 1700,
      "ster": 1701,
      "Ð°": 1702,
      "ĠVerb": 1703,
      "ous": 1704,
      "elle": 1705,
      "ĠÃĦerd": 1706,
      "rÃ«ft": 1707,
      "Ġkompl": 1708,
      "auss": 1709,
      "up": 1710,
      "Ã¤ischt": 1711,
      "Ġpubl": 1712,
      "hn": 1713,
      "utÃ©iert": 1714,
      "ĠKader": 1715,
      "aff": 1716,
      "Ġrichteg": 1717,
      "iww": 1718,
      "oire": 1719,
      "und": 1720,
      "Ġbekannt": 1721,
      "ix": 1722,
      "sh": 1723,
      "abt": 1724,
      "Ġverschiddene": 1725,
      "Mail": 1726,
      "Ġier": 1727,
      "ĠBez": 1728,
      "ĠGÃ©i": 1729,
      "antwort": 1730,
      "Ġbraucht": 1731,
      "ĠnÃ©ideg": 1732,
      "onk": 1733,
      "ĠFrankrÃ¤ich": 1734,
      "ober": 1735,
      "echent": 1736,
      "eschutz": 1737,
      "ĠOkt": 1738,
      "ĠnÃ«mme": 1739,
      "LÃ«tzebuerg": 1740,
      "ĠMoun": 1741,
      "isÃ©ieren": 1742,
      "uersch": 1743,
      "Ġ[": 1744,
      "assen": 1745,
      "ĠTer": 1746,
      "Ġ:": 1747,
      "Ġeise": 1748,
      "Ġinteress": 1749,
      "ĠrefusÃ©ieren": 1750,
      "iteratur": 1751,
      "itut": 1752,
      "Ġged": 1753,
      "Ġsteet": 1754,
      "Ġhirem": 1755,
      "Ġzweet": 1756,
      "ĠEntwÃ©cklung": 1757,
      "sg": 1758,
      "ĠQualitÃ©it": 1759,
      "iet": 1760,
      "olut": 1761,
      "ĠerÃ©ischt": 1762,
      "ĠentwÃ©ck": 1763,
      "enten": 1764,
      "Ġhirer": 1765,
      "ĠBest": 1766,
      "ĠOpt": 1767,
      "Ġallgemeng": 1768,
      "ĠEnerg": 1769,
      "ĠGrond": 1770,
      "ĠpersÃ©inlech": 1771,
      "ĠDro": 1772,
      "ferenzen": 1773,
      "Sp": 1774,
      "innek": 1775,
      "Ã«ssenschaft": 1776,
      "ĠDezember": 1777,
      "Ġausser": 1778,
      "ance": 1779,
      "Ã¼g": 1780,
      "ahr": 1781,
      "Ġch": 1782,
      "ĠSh": 1783,
      "ĠSchoul": 1784,
      "ĠSurfen": 1785,
      "sÃ¤tzlech": 1786,
      "ĠVide": 1787,
      "Ġallem": 1788,
      "ĠwÃ©inst": 1789,
      "ĠÃ«nnerstÃ«tz": 1790,
      "ĠX": 1791,
      "Ġsoen": 1792,
      "ĠFr": 1793,
      "Ġmanner": 1794,
      "Ġnees": 1795,
      "ĠLuxembourg": 1796,
      "Ġem": 1797,
      "Ã«tzt": 1798,
      "ĠEuropa": 1799,
      "Ġge": 1800,
      "ĠVun": 1801,
      "18": 1802,
      "ec": 1803,
      "ĠMÃ«tt": 1804,
      "Ã©ien": 1805,
      "isÃ©ierung": 1806,
      "ĠGrouss": 1807,
      "resent": 1808,
      "Ġaktuell": 1809,
      "Browser": 1810,
      "Ġgarant": 1811,
      "ĠGest": 1812,
      "ellt": 1813,
      "Ã¼r": 1814,
      "schen": 1815,
      "resident": 1816,
      "sver": 1817,
      "Ġsozial": 1818,
      "umin": 1819,
      "ĠDep": 1820,
      "ĠVerk": 1821,
      "Astellunge": 1822,
      "Ġschreiwen": 1823,
      "afft": 1824,
      "rÃ©ngen": 1825,
      "lin": 1826,
      "atierlech": 1827,
      "air": 1828,
      "Ġbrauch": 1829,
      "ools": 1830,
      "Ġkonfigur": 1831,
      "ĠMaterial": 1832,
      "ĠExperienz": 1833,
      "ĠAkt": 1834,
      "Ġintern": 1835,
      "ĠChamber": 1836,
      "wÃ¤ert": 1837,
      "ary": 1838,
      "Ġhiren": 1839,
      "oe": 1840,
      "Ã«llen": 1841,
      "Ġmiss": 1842,
      "Ã«ssel": 1843,
      "ĠRei": 1844,
      "vis": 1845,
      "ĠhÃ©ij": 1846,
      "inÃ©iert": 1847,
      "ĠDeeg": 1848,
      "Ġscho": 1849,
      "ĠoffrÃ©ieren": 1850,
      "fer": 1851,
      "sam": 1852,
      "ĠAcc": 1853,
      "Ġnom": 1854,
      "ĠNei": 1855,
      "ewer": 1856,
      "ĠWoch": 1857,
      "ĠkonfigurÃ©ieren": 1858,
      "act": 1859,
      "etail": 1860,
      "Ġkuerz": 1861,
      "estallt": 1862,
      "Ã«llt": 1863,
      "Ġerlaabt": 1864,
      "oy": 1865,
      "Ġ22": 1866,
      "ĠgehÃ©iert": 1867,
      "rid": 1868,
      "ĠwÃ«llt": 1869,
      "ĠPreferenzen": 1870,
      "aache": 1871,
      "Ġregelen": 1872,
      "ueden": 1873,
      "zou": 1874,
      "sser": 1875,
      "urg": 1876,
      "ĠschwÃ©ier": 1877,
      "Ã¤tt": 1878,
      "Ġgek": 1879,
      "ĠOff": 1880,
      "ĠDrÃ«tt": 1881,
      "rib": 1882,
      "ĠComp": 1883,
      "ht": 1884,
      "ĠSou": 1885,
      "anen": 1886,
      "uerwen": 1887,
      "ĠPlan": 1888,
      "Ġaneren": 1889,
      "lechkeet": 1890,
      "ewe": 1891,
      "ĠResult": 1892,
      "11": 1893,
      "ĠnÃ¤ch": 1894,
      "iod": 1895,
      "kun": 1896,
      "ĠBrowser": 1897,
      "Ã©ngs": 1898,
      "ĠJul": 1899,
      "Ã©ngscht": 1900,
      "ĠEis": 1901,
      "iouns": 1902,
      "ĠCo": 1903,
      "ĠAnt": 1904,
      "stoff": 1905,
      "ĠhÃ«llefen": 1906,
      "Ðº": 1907,
      "ĠInv": 1908,
      "ielen": 1909,
      "ĠKÃ©ier": 1910,
      "ptember": 1911,
      "ours": 1912,
      "ĠKrich": 1913,
      "Ġweisen": 1914,
      "Ġheescht": 1915,
      "ĠTel": 1916,
      "Ġ25": 1917,
      "ĠGu": 1918,
      "ĠÃ«nnert": 1919,
      "ĠwÃ¤it": 1920,
      "ĠPolitik": 1921,
      "ĠProbl": 1922,
      "kunft": 1923,
      "walt": 1924,
      "enh": 1925,
      "erdÃ©ngs": 1926,
      "ĠLa": 1927,
      "ograph": 1928,
      "Ġkonnt": 1929,
      "Ġbel": 1930,
      "deeler": 1931,
      "ĠStat": 1932,
      "istor": 1933,
      "ĠâĨ": 1934,
      "do": 1935,
      "fil": 1936,
      "ition": 1937,
      "ĠSeptember": 1938,
      "Ġandeems": 1939,
      "ĠOktober": 1940,
      "nis": 1941,
      "outwen": 1942,
      "Ã¤nnert": 1943,
      "2022": 1944,
      "raff": 1945,
      "ĠMaart": 1946,
      "Ã©ckt": 1947,
      "ĠLiteratur": 1948,
      "Ġverbesseren": 1949,
      "rum": 1950,
      "ĠNet": 1951,
      "Er": 1952,
      "co": 1953,
      "efÃ©ier": 1954,
      "ĠService": 1955,
      "mot": 1956,
      "Ġorgan": 1957,
      "Ġkm": 1958,
      "ĠZent": 1959,
      "Ġint": 1960,
      "ĠÃ©ischte": 1961,
      "ĠinvitÃ©iert": 1962,
      "Ġgoen": 1963,
      "Ġzwou": 1964,
      "ratioun": 1965,
      "Ġentst": 1966,
      "ĠKierch": 1967,
      "Ñģ": 1968,
      "ĠEd": 1969,
      "Ġpolit": 1970,
      "Ġdacks": 1971,
      "Ġhinnen": 1972,
      "ĠSÃ¤iten": 1973,
      "Ġfunkt": 1974,
      "edung": 1975,
      "erf": 1976,
      "arm": 1977,
      "Ġ24": 1978,
      "Ġdov": 1979,
      "ĠÐ": 1980,
      "Ġverf": 1981,
      "ĠVerf": 1982,
      "ĠwÃ¤rend": 1983,
      "text": 1984,
      "egel": 1985,
      "Ġdr": 1986,
      "ĠBierger": 1987,
      "iveau": 1988,
      "rÃ©ch": 1989,
      "wuel": 1990,
      "lex": 1991,
      "ĠÃ«nnersch": 1992,
      "let": 1993,
      "Ġgrousse": 1994,
      "acht": 1995,
      "ruktur": 1996,
      "ĠAss": 1997,
      "ennen": 1998,
      "uminium": 1999,
      "Ã©ch": 2000,
      "ĠAw": 2001,
      "Ġext": 2002,
      "ĠCont": 2003,
      "uro": 2004,
      "Ãĭ": 2005,
      "Ġ2020": 2006,
      "gesat": 2007,
      "ĠExp": 2008,
      "ĠFilm": 2009,
      "sel": 2010,
      "ĠInf": 2011,
      "Ã¼ler": 2012,
      "Ġofg": 2013,
      "ucken": 2014,
      "raum": 2015,
      "ransp": 2016,
      "ĠDofir": 2017,
      "uropÃ¤": 2018,
      "Ġverg": 2019,
      "bed": 2020,
      "ĠGeschÃ¤ft": 2021,
      "ĠschwÃ¤tz": 2022,
      "Ã¤icht": 2023,
      "uter": 2024,
      "Ġ'": 2025,
      "Ġbeg": 2026,
      "Ġkoum": 2027,
      "ĠKom": 2028,
      "ĠBild": 2029,
      "laf": 2030,
      "ĠText": 2031,
      "wend": 2032,
      "Ġab": 2033,
      "Ġmech": 2034,
      "ĠPat": 2035,
      "obil": 2036,
      "lement": 2037,
      "ĠZweck": 2038,
      "Ġprof": 2039,
      ".[": 2040,
      "Ġzer": 2041,
      "ĠAug": 2042,
      "Ġzesumme": 2043,
      "Ent": 2044,
      "ĠLÃ¤nner": 2045,
      "Ã¤hrend": 2046,
      "ituatioun": 2047,
      "Ġeran": 2048,
      "ĠEff": 2049,
      "duzÃ©iert": 2050,
      "ĠDi": 2051,
      "ĠGef": 2052,
      "schinn": 2053,
      "illen": 2054,
      "uen": 2055,
      "ĠSEO": 2056,
      "ĠVis": 2057,
      "ĠwÃ«sst": 2058,
      "ĠhÃ¤tt": 2059,
      "ichtung": 2060,
      "log": 2061,
      "Leit": 2062,
      "gab": 2063,
      "Ġas": 2064,
      "ositioun": 2065,
      "ĠFirma": 2066,
      "yt": 2067,
      "ĠNatur": 2068,
      "ĠÂ»": 2069,
      "Ã©nk": 2070,
      "ĠStrooss": 2071,
      "Ġkeen": 2072,
      "onne": 2073,
      "ĠLink": 2074,
      "ĠLiicht": 2075,
      "ĠJan": 2076,
      "Ġrel": 2077,
      "Ġ194": 2078,
      "ge": 2079,
      "Ġ2021": 2080,
      "ibel": 2081,
      "Ġsetz": 2082,
      "Ġmussen": 2083,
      "\",": 2084,
      "Ġaktiv": 2085,
      "ĠAt": 2086,
      "ĠUr": 2087,
      "ekter": 2088,
      "punkt": 2089,
      "umenter": 2090,
      "get": 2091,
      "anc": 2092,
      "Ġerkl": 2093,
      "Ġew": 2094,
      "ouss": 2095,
      "Ã¼n": 2096,
      "attform": 2097,
      "ĠLu": 2098,
      "ĠFunkt": 2099,
      "amer": 2100,
      "ĠProzess": 2101,
      "ĠKonscht": 2102,
      "odell": 2103,
      "Ã¼tz": 2104,
      "ĠongefÃ©ier": 2105,
      "AQ": 2106,
      "heem": 2107,
      "ĠÂ©": 2108,
      "Ġvoll": 2109,
      "itiounen": 2110,
      "egkeeten": 2111,
      "dag": 2112,
      "Ġentsp": 2113,
      "ĠQuelltext": 2114,
      "ĠDon": 2115,
      "ĠKinnek": 2116,
      "Ġ198": 2117,
      "Ġronn": 2118,
      "dress": 2119,
      "ps": 2120,
      "ĠNews": 2121,
      "ierder": 2122,
      "ĠAuer": 2123,
      "itiv": 2124,
      "Ġerre": 2125,
      "ĠglÃ¤ich": 2126,
      "stand": 2127,
      "Ġth": 2128,
      "ĠBasis": 2129,
      "ĠZort": 2130,
      "ĠInd": 2131,
      "Ġwierk": 2132,
      "ĠJuni": 2133,
      "rik": 2134,
      "ĠZil": 2135,
      "Ġstellen": 2136,
      "sseg": 2137,
      "ĠSchlÃ«ssel": 2138,
      "ĠInter": 2139,
      "ator": 2140,
      "ĠAart": 2141,
      "Ġugef": 2142,
      "ĠsÃ¤in": 2143,
      "Ġprop": 2144,
      "ĠHandel": 2145,
      "ĠâĨĳ": 2146,
      "voll": 2147,
      "âĢ¦": 2148,
      "Ġtechn": 2149,
      "able": 2150,
      "euren": 2151,
      "essen": 2152,
      "Ġkrut": 2153,
      "ĠBau": 2154,
      "ĠÃĦrer": 2155,
      "Ġmusst": 2156,
      "ĠentwÃ©ckelt": 2157,
      "Ã¤erzlech": 2158,
      "fr": 2159,
      "Ġgep": 2160,
      "Ġph": 2161,
      "schein": 2162,
      "ĠprÃ¤": 2163,
      "nen": 2164,
      "Ġbann": 2165,
      "ĠJean": 2166,
      "ĠEuro": 2167,
      "schl": 2168,
      "Ġerw": 2169,
      "ĠAluminium": 2170,
      "erc": 2171,
      "Ġgesp": 2172,
      "ĠCookiÃ«": 2173,
      "ĠÃ©ischter": 2174,
      "ĠSer": 2175,
      "oud": 2176,
      "ĠTit": 2177,
      "loer": 2178,
      "verst": 2179,
      "ĠEnergie": 2180,
      "ĠBed": 2181,
      "ĠBiller": 2182,
      "ĠLÃ«scht": 2183,
      "guer": 2184,
      "ĠVill": 2185,
      "Ġerof": 2186,
      "Ġbesteet": 2187,
      "ĠÃĭmwelt": 2188,
      "ĠKierper": 2189,
      "50": 2190,
      "ĠPost": 2191,
      "ĠProv": 2192,
      "opul": 2193,
      "LÃ«tzebuerger": 2194,
      "bau": 2195,
      "ĠhÃ¤erzlech": 2196,
      "andelt": 2197,
      "Ã«mmung": 2198,
      "izenz": 2199,
      "ĠPartei": 2200,
      "entlech": 2201,
      "geb": 2202,
      "ĠPubl": 2203,
      "ĠStand": 2204,
      "Ġrichtegen": 2205,
      "ĠDÃ¤itschland": 2206,
      "rÃ©iert": 2207,
      "zeg": 2208,
      "ĠRoll": 2209,
      "eeÃ«n": 2210,
      "ĠSpa": 2211,
      "ĠGrupp": 2212,
      "ics": 2213,
      "Ġhuelen": 2214,
      "Ġentde": 2215,
      "oritÃ©it": 2216,
      "ĠRel": 2217,
      "ĠAugust": 2218,
      "Recht": 2219,
      "ĠMÃ¤erz": 2220,
      "Ġnorm": 2221,
      "Ġiwwerh": 2222,
      "iziell": 2223,
      "zip": 2224,
      "ĠKand": 2225,
      "ĠProduktioun": 2226,
      "com": 2227,
      "ĠHaus": 2228,
      "efouert": 2229,
      "Ġjidder": 2230,
      "ĠDateschutz": 2231,
      "atiouns": 2232,
      "me": 2233,
      "iten": 2234,
      "ĠRep": 2235,
      "Ġhaten": 2236,
      "ette": 2237,
      "ĠAk": 2238,
      "Ġ23": 2239,
      "Ã«nz": 2240,
      "bserv": 2241,
      "Ġeegen": 2242,
      "Ġ2019": 2243,
      "ucht": 2244,
      "Ġbal": 2245,
      "izz": 2246,
      "ĠSproochen": 2247,
      "ande": 2248,
      "Ġbidden": 2249,
      "ĠWeider": 2250,
      "ĠwÃ«ssen": 2251,
      "Ġpl": 2252,
      "Ġgroussen": 2253,
      "ĠMember": 2254,
      "hÃ©ij": 2255,
      "nes": 2256,
      "eeder": 2257,
      "Ġmusse": 2258,
      "ĠMark": 2259,
      "aarbechtung": 2260,
      "ntwert": 2261,
      "ĠPunkt": 2262,
      "ĠdobÃ¤i": 2263,
      "rypt": 2264,
      "ĠOr": 2265,
      "ction": 2266,
      "ret": 2267,
      "Ġdomat": 2268,
      "egal": 2269,
      "Ġwierklech": 2270,
      "hÃ¤lt": 2271,
      "ĠNotz": 2272,
      "Ġwa": 2273,
      "Ġschaffen": 2274,
      "vers": 2275,
      "ĠRed": 2276,
      "ĠParlament": 2277,
      "int": 2278,
      "ffer": 2279,
      "zed": 2280,
      "teren": 2281,
      "ĠStonnen": 2282,
      "duktioun": 2283,
      "Ã¤nkt": 2284,
      "ĠOnline": 2285,
      "Ã¤t": 2286,
      "ĠEU": 2287,
      "ĠTÃ©i": 2288,
      "ewerflÃ¤ch": 2289,
      "ĠvÃ©ier": 2290,
      "ĠwÃ¤hrend": 2291,
      "ĠSchreiwen": 2292,
      "ĠEngl": 2293,
      "ude": 2294,
      "ĠSÃ¤tz": 2295,
      "immel": 2296,
      "ĠnÃ¤ischt": 2297,
      "old": 2298,
      "ĠProdu": 2299,
      "Ġgeholl": 2300,
      "Artik": 2301,
      "kon": 2302,
      "ĠKap": 2303,
      "Ġkomplett": 2304,
      "ĠJuli": 2305,
      "ware": 2306,
      "eth": 2307,
      "Ġthe": 2308,
      "ĠAwunner": 2309,
      "12": 2310,
      "ief": 2311,
      "anten": 2312,
      "Ġ2017": 2313,
      "Ġgenee": 2314,
      "ĠReferen": 2315,
      "halter": 2316,
      "Ġnatierlech": 2317,
      "Ġville": 2318,
      "Ġzoug": 2319,
      "ĠRadio": 2320,
      "Ġy": 2321,
      "ĠKuckt": 2322,
      "ĠHÃ©ich": 2323,
      "ĠGesellschaft": 2324,
      "ĠMeth": 2325,
      "rÃ«ll": 2326,
      "ĠPer": 2327,
      "Ã«nter": 2328,
      "bo": 2329,
      "Ġuf": 2330,
      "ummer": 2331,
      "Ġewech": 2332,
      "30": 2333,
      "FAQ": 2334,
      "Ġdi": 2335,
      "Ġeff": 2336,
      "ĠFuersch": 2337,
      "ĠHe": 2338,
      "ĠUnivers": 2339,
      "uedem": 2340,
      "IS": 2341,
      "Ġanescht": 2342,
      "ĠMÃ©int": 2343,
      "reift": 2344,
      "aacht": 2345,
      "ratis": 2346,
      "Ġopt": 2347,
      "Ġanerer": 2348,
      "ĠWÃ¤ert": 2349,
      "ourn": 2350,
      "ĠSkizz": 2351,
      "ES": 2352,
      "fe": 2353,
      "nung": 2354,
      "ĠWierk": 2355,
      "ĠHer": 2356,
      "ĠHien": 2357,
      "zeechn": 2358,
      "dlech": 2359,
      "ĠKraaft": 2360,
      "Ġkontroll": 2361,
      "ĠPrivat": 2362,
      "Ġhaapt": 2363,
      "iewe": 2364,
      "Ġpropos": 2365,
      "ĠFac": 2366,
      "Ġeenzeg": 2367,
      "best": 2368,
      "uar": 2369,
      "ĠNe": 2370,
      "duzÃ©ieren": 2371,
      "Gesetz": 2372,
      "Ġkloer": 2373,
      "ĠInt": 2374,
      "eeft": 2375,
      "Ġluusst": 2376,
      "ĠdÃ¤itsch": 2377,
      "ĠSÃ«nn": 2378,
      "ĠfrÃ¤i": 2379,
      "ĠRom": 2380,
      "eeschter": 2381,
      "zef": 2382,
      "ĠVert": 2383,
      "abl": 2384,
      "iichten": 2385,
      "Ã¤schte": 2386,
      "zer": 2387,
      "emol": 2388,
      "ĠRaum": 2389,
      "ĠDÃ«sen": 2390,
      "200": 2391,
      "ĠAnn": 2392,
      "ĠGra": 2393,
      "Ã©ierte": 2394,
      "Ġub": 2395,
      "ative": 2396,
      "feld": 2397,
      "ĠTemperatur": 2398,
      "iker": 2399,
      "essary": 2400,
      "aktioun": 2401,
      "Ã¤nken": 2402,
      "Ġverh": 2403,
      "lock": 2404,
      "ique": 2405,
      "enter": 2406,
      "Ã©isung": 2407,
      "ĠGener": 2408,
      "ifiz": 2409,
      "Ġweist": 2410,
      "aur": 2411,
      "Ã§": 2412,
      "ĠGer": 2413,
      "Ġstinn": 2414,
      "Ġron": 2415,
      "Ġgud": 2416,
      "iti": 2417,
      "ĠPresident": 2418,
      "ente": 2419,
      "eiden": 2420,
      "ice": 2421,
      "Ã¤ichert": 2422,
      "ĠKons": 2423,
      "Ã«nschtler": 2424,
      "ĠComputer": 2425,
      "ĠhaaptsÃ¤chlech": 2426,
      "rem": 2427,
      "Ġhim": 2428,
      "ĠFroen": 2429,
      "isten": 2430,
      "Ġ197": 2431,
      "prÃ©i": 2432,
      "Ġrad": 2433,
      "krich": 2434,
      "ual": 2435,
      "ĠBi": 2436,
      "ĠHaut": 2437,
      "ĠPlanÃ©it": 2438,
      "mo": 2439,
      "Ġ%": 2440,
      "derÃ«m": 2441,
      "olz": 2442,
      "ĠStÃ¤r": 2443,
      "ĠZougang": 2444,
      "Ġautomat": 2445,
      "Ãª": 2446,
      "Ġfol": 2447,
      "ĠCom": 2448,
      "Ġprob": 2449,
      "eechent": 2450,
      "lÃ¤icht": 2451,
      "Ġ27": 2452,
      "ĠAnal": 2453,
      "Ġgewielt": 2454,
      "ĠGott": 2455,
      "ĠEntre": 2456,
      "Ġsu": 2457,
      "Ġvert": 2458,
      "amt": 2459,
      "ĠUfro": 2460,
      "rotz": 2461,
      "eim": 2462,
      "Ġim": 2463,
      "ĠAng": 2464,
      "Ġbed": 2465,
      "ĠDeeler": 2466,
      "Ġinform": 2467,
      "ĠWebsÃ¤iten": 2468,
      "Ġelekt": 2469,
      "Ã©isst": 2470,
      "anesch": 2471,
      "ĠÃĦnner": 2472,
      "ĠÃĦren": 2473,
      "ĠObjet": 2474,
      "ris": 2475,
      "Ġi": 2476,
      "ager": 2477,
      "ationale": 2478,
      "ĠAuto": 2479,
      "ĠgarantÃ©ieren": 2480,
      "ĠMot": 2481,
      "dr": 2482,
      "ĠChina": 2483,
      "ĠClienten": 2484,
      "ĠSÃ¼d": 2485,
      "ĠFran": 2486,
      "Ġvers": 2487,
      "ĠAdress": 2488,
      "Ġvis": 2489,
      "Ġkucken": 2490,
      "ĠeuropÃ¤": 2491,
      "itioune": 2492,
      "ĠSpaweck": 2493,
      "ĠÃ¤": 2494,
      "Ġfonnt": 2495,
      "Ġkre": 2496,
      "urs": 2497,
      "agn": 2498,
      "Aut": 2499,
      "Ġzanter": 2500,
      "ĠAbrÃ«ll": 2501,
      "hÃ¤ngeg": 2502,
      "ĠAst": 2503,
      "siicht": 2504,
      "Ġqu": 2505,
      "emp": 2506,
      "Ġbedeit": 2507,
      "stellen": 2508,
      "ronom": 2509,
      "Ġoffiziell": 2510,
      "ĠronderÃ«m": 2511,
      "ĠJoren": 2512,
      "Ġ2018": 2513,
      "ondheet": 2514,
      "ĠInvest": 2515,
      "asst": 2516,
      "Ġbas": 2517,
      "ĠZum": 2518,
      "Artikelen": 2519,
      "riech": 2520,
      "ĠJanuar": 2521,
      "ĠLizenz": 2522,
      "Ġ21": 2523,
      "ĠVerg": 2524,
      "ets": 2525,
      "amb": 2526,
      ".,": 2527,
      "ende": 2528,
      "ĠAuss": 2529,
      "ĠlÃ©ieren": 2530,
      "ĠStud": 2531,
      "ĠwÃ«llen": 2532,
      "ĠÃ«ffentlech": 2533,
      "rÃ©chent": 2534,
      "ĠfÃ©ieren": 2535,
      "Ġanerem": 2536,
      "ĠThema": 2537,
      "ĠInstitut": 2538,
      "Ġseet": 2539,
      "annte": 2540,
      "Ġleschte": 2541,
      "De": 2542,
      "ilit": 2543,
      "rÃ¤isser": 2544,
      "ĠDesign": 2545,
      "des": 2546,
      "los": 2547,
      "Ġ196": 2548,
      "ifizÃ©iert": 2549,
      "ĠZukunft": 2550,
      "ĠDetail": 2551,
      "Ġdeel": 2552,
      "aarf": 2553,
      "Ã©ift": 2554,
      "ith": 2555,
      "Ġ40": 2556,
      "Ġkontakt": 2557,
      "ick": 2558,
      "inzip": 2559,
      "illt": 2560,
      "mÃ©iglech": 2561,
      "Ġzesummen": 2562,
      "erzog": 2563,
      "ĠZe": 2564,
      "ange": 2565,
      "aktiv": 2566,
      "ibilitÃ©it": 2567,
      "eef": 2568,
      "outwenn": 2569,
      "ED": 2570,
      "ichen": 2571,
      "aul": 2572,
      "ĠMÃ«ttel": 2573,
      "red": 2574,
      "ĠGrÃ«nn": 2575,
      "Aus": 2576,
      "gn": 2577,
      "Ã«lt": 2578,
      "ĠSÃ«tz": 2579,
      "ĠBuch": 2580,
      "áĥ": 2581,
      "auen": 2582,
      "scheed": 2583,
      "egrÃ«nnt": 2584,
      "Ġ50": 2585,
      "Ġgenuch": 2586,
      "ammelt": 2587,
      "ÑĢ": 2588,
      "ellung": 2589,
      "riechen": 2590,
      "Ġgesot": 2591,
      "ĠDom": 2592,
      "ald": 2593,
      "Ġlim": 2594,
      "Ġdozou": 2595,
      "quip": 2596,
      "Ġgratis": 2597,
      "artik": 2598,
      "Ġsenge": 2599,
      "klus": 2600,
      "fro": 2601,
      "ĠFest": 2602,
      "ĠCons": 2603,
      "ĠTest": 2604,
      "ĠMinister": 2605,
      "Ġgebaut": 2606,
      "Ġspeziell": 2607,
      "Ã«lker": 2608,
      "15": 2609,
      "Ã©ist": 2610,
      "ĠII": 2611,
      "ĠRuss": 2612,
      "Ġund": 2613,
      "ĠsouwÃ©i": 2614,
      "Ã«sse": 2615,
      "TI": 2616,
      "Et": 2617,
      "Ġdef": 2618,
      "ebook": 2619,
      "ĠTr": 2620,
      "ĠNord": 2621,
      "igital": 2622,
      "ogen": 2623,
      "Ġapp": 2624,
      "Ġsuerg": 2625,
      "Ġmark": 2626,
      "ĠHell": 2627,
      "ĠÃł": 2628,
      "quenz": 2629,
      "Ġ2016": 2630,
      "ĠÃĭnnerstÃ«tz": 2631,
      "edeitung": 2632,
      "itter": 2633,
      "atioune": 2634,
      "mÃ©isseg": 2635,
      "ĠspÃ©it": 2636,
      "ĠKontroll": 2637,
      "wierker": 2638,
      "ĠDu": 2639,
      "ĠDis": 2640,
      "Ã«mmt": 2641,
      "agÃ©iert": 2642,
      "par": 2643,
      "ĠfransÃ©isch": 2644,
      "cker": 2645,
      "oph": 2646,
      "ĠprÃ¤z": 2647,
      "ram": 2648,
      "ĠNiveau": 2649,
      "olleg": 2650,
      "be": 2651,
      "ke": 2652,
      "dex": 2653,
      "Ġsougen": 2654,
      "udget": 2655,
      "Gesch": 2656,
      "vir": 2657,
      "unikatioun": 2658,
      "ĠBuedem": 2659,
      "ĠKo": 2660,
      "ierf": 2661,
      "lott": 2662,
      "edeelt": 2663,
      "IP": 2664,
      "ball": 2665,
      "ĠBew": 2666,
      "iÃ¨re": 2667,
      "ĠHÃ¤r": 2668,
      "Ġle": 2669,
      "Ã¼st": 2670,
      "dent": 2671,
      "ĠFransÃ©isch": 2672,
      "ĠRegioun": 2673,
      "Ġradio": 2674,
      "//": 2675,
      "ĠFrÃ¤i": 2676,
      "ĠNot": 2677,
      "Ġsouguer": 2678,
      "ugend": 2679,
      "oung": 2680,
      "Ã©t": 2681,
      "stall": 2682,
      "onct": 2683,
      "ĠIP": 2684,
      "ĠSchrÃ«tt": 2685,
      "duc": 2686,
      "site": 2687,
      "Ġdrop": 2688,
      "Ã©ider": 2689,
      "ĠgrÃ©ng": 2690,
      "Ġkonn": 2691,
      "ĠEm": 2692,
      "one": 2693,
      "anzen": 2694,
      "ransport": 2695,
      "ytics": 2696,
      "rypto": 2697,
      "21": 2698,
      "oden": 2699,
      "pers": 2700,
      "ĠSem": 2701,
      "ischt": 2702,
      "arch": 2703,
      "ifikatioun": 2704,
      "ĠMann": 2705,
      "ĠGrand": 2706,
      "rom": 2707,
      "ĠMÃ¤": 2708,
      "Ġverm": 2709,
      "://": 2710,
      "Ġgeschitt": 2711,
      "ollek": 2712,
      "oftware": 2713,
      "aw": 2714,
      "gr": 2715,
      "itÃ©ieren": 2716,
      "ĠGla": 2717,
      "ĠSchÃ¼ler": 2718,
      "uerdert": 2719,
      "Ġar": 2720,
      "isioun": 2721,
      "Ã«nneren": 2722,
      "ĠInhalter": 2723,
      "DR": 2724,
      "sou": 2725,
      "Ġdis": 2726,
      "Ġand": 2727,
      "Ġfinanz": 2728,
      "ino": 2729,
      "Ã©id": 2730,
      "ole": 2731,
      "aux": 2732,
      "uan": 2733,
      "ĠgegrÃ«nnt": 2734,
      "stad": 2735,
      "Ġverd": 2736,
      "oossnam": 2737,
      "ĠPhil": 2738,
      "Ġdovun": 2739,
      "MÃ©i": 2740,
      "erk": 2741,
      "ĠAlter": 2742,
      "Ã©c": 2743,
      "ĠGrenz": 2744,
      "Fir": 2745,
      "ĠfÃ«nnt": 2746,
      "Ã©ierten": 2747,
      "ĠIwwert": 2748,
      "Ð¸": 2749,
      "str": 2750,
      "Ġ26": 2751,
      "Ġlok": 2752,
      "ĠBesÃ«tz": 2753,
      "outwenneg": 2754,
      "emaach": 2755,
      "ĠLoft": 2756,
      "ĠAnalytics": 2757,
      "Al": 2758,
      "joer": 2759,
      "ĠLog": 2760,
      "'s": 2761,
      "vert": 2762,
      "Ġ*": 2763,
      "Ġget": 2764,
      "Ġugeb": 2765,
      "steller": 2766,
      "oci": 2767,
      "ait": 2768,
      "ĠDrÃ©chent": 2769,
      "abilitÃ©it": 2770,
      "ĠEuropÃ¤": 2771,
      "Ã¤schten": 2772,
      "ĠFacebook": 2773,
      "ĠDisk": 2774,
      "ĠSchm": 2775,
      "reiw": 2776,
      "Ġpre": 2777,
      "ĠProblem": 2778,
      "Ġhalen": 2779,
      "ĠFeb": 2780,
      "ĠRechter": 2781,
      "ĠerklÃ¤ert": 2782,
      "16": 2783,
      "ĠDist": 2784,
      "ĠDonnÃ©eÃ«": 2785,
      "03": 2786,
      "osst": 2787,
      "ĠWunn": 2788,
      "ĠSchutz": 2789,
      "ĠâĢ¢": 2790,
      "Ġgesat": 2791,
      "Ġ09": 2792,
      "ierper": 2793,
      "iden": 2794,
      "ĠParÃ¤is": 2795,
      "smÃ«ttel": 2796,
      "ierungs": 2797,
      "Ġverantwort": 2798,
      "ĠInteress": 2799,
      "iwwert": 2800,
      "ĠSpill": 2801,
      "egrÃ«ff": 2802,
      "yc": 2803,
      "ĠAusser": 2804,
      "ĠJes": 2805,
      "ĠLeg": 2806,
      "ĠIdd": 2807,
      "Ġerop": 2808,
      "ĠgespÃ¤ichert": 2809,
      "els": 2810,
      "ĠBit": 2811,
      "ĠRot": 2812,
      "ĠSchn": 2813,
      "ĠKond": 2814,
      "anscht": 2815,
      "ity": 2816,
      "ĠbÃ¤i": 2817,
      "Ġjonk": 2818,
      "ĠfrÃ©ier": 2819,
      "ĠGem": 2820,
      "ĠResp": 2821,
      "ĠHier": 2822,
      "wÃ¤it": 2823,
      "Ġopz": 2824,
      "anne": 2825,
      "Ã¤erdeg": 2826,
      "ins": 2827,
      "ĠTrans": 2828,
      "ĠallerdÃ©ngs": 2829,
      "ider": 2830,
      "len": 2831,
      "Ġstellt": 2832,
      "yn": 2833,
      "Ġgez": 2834,
      "eleg": 2835,
      "ichten": 2836,
      "ĠSport": 2837,
      "minister": 2838,
      "ĠÃ«nnerstÃ«tzt": 2839,
      "oir": 2840,
      "Ġ60": 2841,
      "bild": 2842,
      "ĠgÃ¤r": 2843,
      "ĠKann": 2844,
      "ĠNational": 2845,
      "ĠIndustrie": 2846,
      "ĠProp": 2847,
      "Ġgebraucht": 2848,
      "rankheet": 2849,
      "ĠChrÃ«scht": 2850,
      "\".": 2851,
      "iqu": 2852,
      "à¤": 2853,
      "Ġwaar": 2854,
      "ĠewÃ©i": 2855,
      "ĠStart": 2856,
      "ĠVerwalt": 2857,
      "ĠzousÃ¤tzlech": 2858,
      "ĠpersÃ©inlechen": 2859,
      "zeechnes": 2860,
      "23": 2861,
      "ĠgÃ«llen": 2862,
      "ierg": 2863,
      "ĠÂ«": 2864,
      "ĠChrist": 2865,
      "ĠKrypto": 2866,
      "ĠVersch": 2867,
      "dustri": 2868,
      "ĠKategorien": 2869,
      "ÑģÐº": 2870,
      "gew": 2871,
      "lang": 2872,
      "ĠSituatioun": 2873,
      "ĠGrÃ©isst": 2874,
      "ille": 2875,
      "Ġvirul": 2876,
      "Ġmaache": 2877,
      "ĠArt": 2878,
      "stÃ¤nneg": 2879,
      "Welt": 2880,
      "Ãī": 2881,
      "ennt": 2882,
      "inatioun": 2883,
      "Ġkafen": 2884,
      "ĠKlass": 2885,
      "ĠRichtung": 2886,
      "Ã¤nger": 2887,
      "ĠKlim": 2888,
      "ĠGestuerwen": 2889,
      "Ġviruliesen": 2890,
      ".\"": 2891,
      "tal": 2892,
      "its": 2893,
      "Ġwielen": 2894,
      "ĠAtt": 2895,
      "ĠEsch": 2896,
      "schn": 2897,
      "lamm": 2898,
      "ĠZuel": 2899,
      "idÃ©iert": 2900,
      "Ã©inst": 2901,
      "Ġfl": 2902,
      "ĠfÃ«nn": 2903,
      "ĠPress": 2904,
      "ĠPlattform": 2905,
      "ĠMon": 2906,
      "ĠFakt": 2907,
      "Ã«nnert": 2908,
      "ĠproduzÃ©iert": 2909,
      "ĠMal": 2910,
      "ĠWal": 2911,
      "ĠDok": 2912,
      "Ġonline": 2913,
      "ĠWeltkrich": 2914,
      "eed": 2915,
      "ĠAwer": 2916,
      "Ġneit": 2917,
      "Ã¤rung": 2918,
      "Ġgoufe": 2919,
      "Ġdoriwwer": 2920,
      "Res": 2921,
      "ect": 2922,
      "ĠStÃ©ck": 2923,
      "ĠHie": 2924,
      "Ġlues": 2925,
      "Ġbannent": 2926,
      "ĠFebru": 2927,
      "saz": 2928,
      "ĠFÃ¤ll": 2929,
      "ĠGal": 2930,
      "rice": 2931,
      "ĠverÃ«ffent": 2932,
      "Ġneien": 2933,
      "degkeet": 2934,
      "ĠMeter": 2935,
      "ĠgrÃ©issten": 2936,
      "17": 2937,
      "Ã©d": 2938,
      "elb": 2939,
      "arn": 2940,
      "ĠÃĦert": 2941,
      "ickt": 2942,
      "Ġbleiwen": 2943,
      "Ġdec": 2944,
      "radition": 2945,
      "ĠStatistik": 2946,
      "Ġnational": 2947,
      "rÃ©if": 2948,
      "Ã©issen": 2949,
      "Ġduerno": 2950,
      "ĠMount": 2951,
      "Ġentdeckt": 2952,
      "Ġdunn": 2953,
      "org": 2954,
      "deck": 2955,
      "ĠDP": 2956,
      "ĠBeh": 2957,
      "Ġloossen": 2958,
      "Ã©ngen": 2959,
      "kommes": 2960,
      "ĠZesummenh": 2961,
      "ĠPass": 2962,
      "ĠFinanz": 2963,
      "ĠAnalys": 2964,
      "ĠVerkaf": 2965,
      "EU": 2966,
      "etten": 2967,
      "ĠMass": 2968,
      "Ġni": 2969,
      "ikan": 2970,
      "sen": 2971,
      "zel": 2972,
      "Ġliicht": 2973,
      "asis": 2974,
      "Ġvirum": 2975,
      "blÃ©ck": 2976,
      "ĠlimitÃ©iert": 2977,
      "Ġbitt": 2978,
      "egent": 2979,
      "artikel": 2980,
      "ues": 2981,
      "Ġ00": 2982,
      "ĠAff": 2983,
      "ĠEe": 2984,
      "ĠInhaltsver": 2985,
      "ĠCharakter": 2986,
      "14": 2987,
      "ois": 2988,
      "ĠorganisÃ©iert": 2989,
      "ĠproposÃ©iert": 2990,
      "Ġbef": 2991,
      "ĠPrÃ¤": 2992,
      "Ġkennen": 2993,
      "Ġto": 2994,
      "Ġind": 2995,
      "ĠAdminist": 2996,
      "ufgab": 2997,
      "ĠKomÃ©it": 2998,
      "Haapt": 2999,
      "ĠKÃ«nschtler": 3000,
      "ĠWest": 3001,
      "ĠImm": 3002,
      "ĠCla": 3003,
      "ĠDoss": 3004,
      "ĠFebruar": 3005,
      "ĠInhaltsverzeechnes": 3006,
      "gestallt": 3007,
      "Ġpresent": 3008,
      "ĠJugend": 3009,
      "ĠUewerflÃ¤ch": 3010,
      "eeschtung": 3011,
      "aasst": 3012,
      "stellung": 3013,
      "Informatioun": 3014,
      "cte": 3015,
      "ĠÃ¤r": 3016,
      "Ã¤m": 3017,
      "Ġhistor": 3018,
      "rab": 3019,
      "estaur": 3020,
      "Ġschl": 3021,
      "Ġviru": 3022,
      "ĠBus": 3023,
      "ote": 3024,
      "ĠKomment": 3025,
      "sat": 3026,
      "elz": 3027,
      "ĠIs": 3028,
      "ĠItal": 3029,
      "eller": 3030,
      "Ġ28": 3031,
      "oler": 3032,
      "ĠÃ©ischten": 3033,
      "ĠFeeler": 3034,
      "ĠÃĭnnerstÃ«tzung": 3035,
      "ev": 3036,
      "ient": 3037,
      "ĠdÃ¤it": 3038,
      "ĠFre": 3039,
      "Ġeisen": 3040,
      "agen": 3041,
      "ĠspÃ©ider": 3042,
      "ĠAllgemeng": 3043,
      "ski": 3044,
      "SAP": 3045,
      "ĠSchlÃ«sselw": 3046,
      "resch": 3047,
      "Ġmoder": 3048,
      "inne": 3049,
      "les": 3050,
      "ĠBio": 3051,
      "ĠExt": 3052,
      "Ġliewen": 3053,
      "erman": 3054,
      "ĠResultater": 3055,
      "Adress": 3056,
      "ĠDuer": 3057,
      "Ġsicht": 3058,
      "ĠBesch": 3059,
      "ĠTag": 3060,
      "Ġganze": 3061,
      "issement": 3062,
      "ĠPrivatsphÃ¤r": 3063,
      "ged": 3064,
      "ula": 3065,
      "ĠgeÃ¤nnert": 3066,
      "ridden": 3067,
      "Ã©n": 3068,
      "ĠWierder": 3069,
      "ĠTour": 3070,
      "iken": 3071,
      "ĠgesÃ¤it": 3072,
      "Ġsollen": 3073,
      "ĠwÃ¤erte": 3074,
      "ĠGeograph": 3075,
      "Land": 3076,
      "ĠFab": 3077,
      "Ġalle": 3078,
      "ĠmarkÃ©iert": 3079,
      "MÃ©iglechkeet": 3080,
      "ey": 3081,
      "iat": 3082,
      "Ġ.": 3083,
      "ĠbrÃ©ngen": 3084,
      "ĠGed": 3085,
      "ierch": 3086,
      "ĠSol": 3087,
      "ĠBÃ«sch": 3088,
      "estellen": 3089,
      "agement": 3090,
      "Ġuewen": 3091,
      "ĠCookie": 3092,
      "Ġbleift": 3093,
      "ĠMo": 3094,
      "Ġliesen": 3095,
      "rieder": 3096,
      "aresch": 3097,
      "ĠBegrÃ«ff": 3098,
      "orf": 3099,
      "ork": 3100,
      "reffen": 3101,
      "ĠNetz": 3102,
      "Ġinter": 3103,
      "luecht": 3104,
      "scheeden": 3105,
      "sd": 3106,
      "wirtschaft": 3107,
      "Ġgrad": 3108,
      "ĠAsp": 3109,
      "stÃ«mmung": 3110,
      "zÃ¤iteg": 3111,
      "ĠKommunikatioun": 3112,
      "ble": 3113,
      "Ġ+": 3114,
      "Ã©g": 3115,
      "ĠvlÃ¤icht": 3116,
      "ĠSam": 3117,
      "ĠMeen": 3118,
      "reck": 3119,
      "Ã¤iss": 3120,
      "ions": 3121,
      "Ġbezeechent": 3122,
      "setzung": 3123,
      "ON": 3124,
      "uet": 3125,
      "ĠModell": 3126,
      "ĠMerc": 3127,
      "Ġkom": 3128,
      "acy": 3129,
      "ĠberÃ¼": 3130,
      "Ġrelativ": 3131,
      "ĠZesummenhang": 3132,
      "onst": 3133,
      "ĠRek": 3134,
      "Ġverp": 3135,
      "ict": 3136,
      "ĠschwÃ¤tzen": 3137,
      "renz": 3138,
      "istenz": 3139,
      "Ġrec": 3140,
      "ĠRegierungs": 3141,
      "ĠFamillj": 3142,
      "hand": 3143,
      "Ġra": 3144,
      "ats": 3145,
      "ĠTw": 3146,
      "ime": 3147,
      "Ġrespekt": 3148,
      "DP": 3149,
      "klass": 3150,
      "ĠBedeitung": 3151,
      "ĠschÃ©in": 3152,
      "iessel": 3153,
      "Ġspezif": 3154,
      "Ġeemol": 3155,
      "ĠSaachen": 3156,
      "ongen": 3157,
      "mail": 3158,
      "view": 3159,
      "Ġbruecht": 3160,
      "ichter": 3161,
      "Ã©inlech": 3162,
      "ĠRees": 3163,
      "ĠDoud": 3164,
      "ĠHimmel": 3165,
      "artement": 3166,
      "mpf": 3167,
      "Ġgestallt": 3168,
      "plaz": 3169,
      "An": 3170,
      "Red": 3171,
      "Ġern": 3172,
      "Ġunz": 3173,
      "itÃ©iten": 3174,
      "ĠArch": 3175,
      "echnung": 3176,
      "Ġverschiddenen": 3177,
      "ascht": 3178,
      "ĠSlo": 3179,
      "onner": 3180,
      "ĠUser": 3181,
      "alerweis": 3182,
      "ĠAfloss": 3183,
      "Ġfunktion": 3184,
      "ĠJesus": 3185,
      "schutz": 3186,
      "loscht": 3187,
      "ante": 3188,
      "olutioun": 3189,
      "letter": 3190,
      "system": 3191,
      "Ã¤schen": 3192,
      "ĠEen": 3193,
      "use": 3194,
      "ttps": 3195,
      "rach": 3196,
      "Ġper": 3197,
      "ĠProf": 3198,
      "tens": 3199,
      "Ã¤erd": 3200,
      "Ġ2023": 3201,
      "ĠMier": 3202,
      "Ġfirwat": 3203,
      "ĠConc": 3204,
      "ginn": 3205,
      "ĠDÃ©ngscht": 3206,
      "ander": 3207,
      "anken": 3208,
      "Ġgesammelt": 3209,
      "drock": 3210,
      "ĠVerfÃ¼g": 3211,
      "IT": 3212,
      "Ã«t": 3213,
      "ĠKaart": 3214,
      "ĠCar": 3215,
      "idde": 3216,
      "ĠSpez": 3217,
      "imal": 3218,
      "ĠMilliounen": 3219,
      "hi": 3220,
      "Ġad": 3221,
      "unnen": 3222,
      "ĠÃĦntwert": 3223,
      "Ġ193": 3224,
      "ĠGesondheet": 3225,
      "nec": 3226,
      "riwwe": 3227,
      "ĠVideo": 3228,
      "reechen": 3229,
      "avig": 3230,
      "ĠGel": 3231,
      "ĠVersioun": 3232,
      "ĠpublizÃ©iert": 3233,
      "ĠRoman": 3234,
      "13": 3235,
      "ĠRÃ¤ich": 3236,
      "Ã«lleg": 3237,
      "angen": 3238,
      "ĠPrinzip": 3239,
      "Ġsetzen": 3240,
      "Ex": 3241,
      "Ġabs": 3242,
      "emen": 3243,
      "ĠKar": 3244,
      "ĠRÃ©ck": 3245,
      "geschloss": 3246,
      "Ġgl": 3247,
      "eting": 3248,
      "ĠLinken": 3249,
      "ĠverÃ«ffentlecht": 3250,
      "ĠfÃ¤erdeg": 3251,
      "ĠJong": 3252,
      "Ã¤ngt": 3253,
      "ĠSal": 3254,
      "ĠNom": 3255,
      "istÃ¨re": 3256,
      "ommand": 3257,
      "Ã¤erkt": 3258,
      "aascht": 3259,
      "Ġgener": 3260,
      "Ġverstoen": 3261,
      "ĠHÃ©icht": 3262,
      "Ġjiddereen": 3263,
      "necessary": 3264,
      "ĠHom": 3265,
      "Ġverk": 3266,
      "okus": 3267,
      "ĠResultat": 3268,
      "aill": 3269,
      "emier": 3270,
      "alitioun": 3271,
      "Ġerl": 3272,
      "ĠProzent": 3273,
      "Ġcook": 3274,
      "ĠPersounen": 3275,
      "Ãĭm": 3276,
      "Aarbecht": 3277,
      "emat": 3278,
      "ĠLou": 3279,
      "ĠDec": 3280,
      "Ġerreecht": 3281,
      "Ġimm": 3282,
      "ĠLat": 3283,
      "Ġrespektiv": 3284,
      "man": 3285,
      "ĠUS": 3286,
      "ammlung": 3287,
      "aro": 3288,
      "ling": 3289,
      "Ġhell": 3290,
      "deelt": 3291,
      "Ġhiert": 3292,
      "40": 3293,
      "huelen": 3294,
      "ĠfÃ©iert": 3295,
      "ĠEsou": 3296,
      "lam": 3297,
      "Ġschlecht": 3298,
      "schaften": 3299,
      "ativen": 3300,
      "Ġgebuer": 3301,
      "Ġpolitesch": 3302,
      "iÃ©is": 3303,
      "alsch": 3304,
      "ĠBro": 3305,
      "iko": 3306,
      "ĠBerÃ¤icher": 3307,
      "iwwel": 3308,
      "Ġappl": 3309,
      "pon": 3310,
      "wee": 3311,
      "ĠdÃ¤er": 3312,
      "ĠDemande": 3313,
      "ĠDetailer": 3314,
      "Ġbeaf": 3315,
      "einsam": 3316,
      "ĠTitel": 3317,
      "ÃŁ": 3318,
      "ĠGo": 3319,
      "ĠTyp": 3320,
      "gl": 3321,
      "ssystem": 3322,
      "ĠWÃ¤rend": 3323,
      "Ġ29": 3324,
      "sprooch": 3325,
      "Ġbenotze": 3326,
      "Ġuges": 3327,
      "rateg": 3328,
      "ĠhÃ©ijen": 3329,
      "ĠTelef": 3330,
      "okrat": 3331,
      "ĠSemalt": 3332,
      "reng": 3333,
      "uc": 3334,
      "ategor": 3335,
      "ĠDÃ©ieren": 3336,
      "arat": 3337,
      "Ġuginn": 3338,
      "ĠKontext": 3339,
      "ĠlÃ«tzebuergesch": 3340,
      "drÃ©ck": 3341,
      "ius": 3342,
      "ueg": 3343,
      "Ġaverst": 3344,
      "stat": 3345,
      "annst": 3346,
      "ĠRen": 3347,
      "ikatiounen": 3348,
      "Ġres": 3349,
      "ĠZentrum": 3350,
      "ĠbasÃ©iert": 3351,
      "ouer": 3352,
      "ĠBis": 3353,
      "ĠHall": 3354,
      "ĠUert": 3355,
      "Ã©cken": 3356,
      "Ġlaanscht": 3357,
      "geriicht": 3358,
      "rÃ©ckt": 3359,
      "ĠAuteur": 3360,
      "ĠElekt": 3361,
      "ĠZweet": 3362,
      "orn": 3363,
      "ĠLi": 3364,
      "ehalen": 3365,
      "ĠbestÃ«mmt": 3366,
      "05": 3367,
      "ĠPan": 3368,
      "ĠGro": 3369,
      "ĠParty": 3370,
      "ĠPortug": 3371,
      "ĠTechnologie": 3372,
      "ĠDomain": 3373,
      "reiwung": 3374,
      "Gemeng": 3375,
      "glecht": 3376,
      "ĠKoll": 3377,
      "esse": 3378,
      "ĠUp": 3379,
      "ĠMarc": 3380,
      "emberen": 3381,
      "vÃ«lker": 3382,
      "ĠIdent": 3383,
      "Ġpos": 3384,
      "ĠÃĭnn": 3385,
      "ĠMamm": 3386,
      "ĠAstronom": 3387,
      "ĠSek": 3388,
      "Ġflott": 3389,
      "rekt": 3390,
      "ĠtÃ«sch": 3391,
      "indung": 3392,
      "ĠBelsch": 3393,
      "ĠPrivacy": 3394,
      "ĠAktivitÃ©iten": 3395,
      "ĠAufgab": 3396,
      "ĠHÃ«tzt": 3397,
      "ĠProt": 3398,
      "Ġugeholl": 3399,
      "ox": 3400,
      "ĠFokus": 3401,
      "uerderunge": 3402,
      "atsÃ¤chlech": 3403,
      "ali": 3404,
      "eiert": 3405,
      "ĠGrad": 3406,
      "ĠRÃ©i": 3407,
      "oosst": 3408,
      "ĠArtikelen": 3409,
      "mÃ©iglecht": 3410,
      "Ġphot": 3411,
      "rÃ«nn": 3412,
      "Ĥ¬": 3413,
      "ĠFle": 3414,
      "ervice": 3415,
      "Stad": 3416,
      "ĠElementer": 3417,
      "grond": 3418,
      "isl": 3419,
      "ĠAg": 3420,
      "ĠLies": 3421,
      "ĠGeh": 3422,
      "ika": 3423,
      "Ã«mmen": 3424,
      "ĠVerantwort": 3425,
      "Ġpersonal": 3426,
      "ĠGemenger": 3427,
      "Ġeege": 3428,
      "ĠLaf": 3429,
      "Ġgrousser": 3430,
      "rÃ©ngt": 3431,
      "elev": 3432,
      "sf": 3433,
      "Ã©if": 3434,
      "ĠDiv": 3435,
      "Ġ06": 3436,
      "mosphÃ¤r": 3437,
      "Ġfolgend": 3438,
      "ilitÃ¤r": 3439,
      "Zuel": 3440,
      "ĠDer": 3441,
      "isch": 3442,
      "rooss": 3443,
      "Ġnidder": 3444,
      "ĠKr": 3445,
      "Ġsouwuel": 3446,
      "ĠSuen": 3447,
      "ĠFraen": 3448,
      "ĠPortal": 3449,
      "ĠFuerschung": 3450,
      "ĠAusserdeem": 3451,
      "iner": 3452,
      "ĠRob": 3453,
      "ĠHoll": 3454,
      "scheinlech": 3455,
      "Ã¤l": 3456,
      "gesinn": 3457,
      "ĠGewiicht": 3458,
      "En": 3459,
      "bal": 3460,
      "Ġ,": 3461,
      "ĠBudget": 3462,
      "Ġopp": 3463,
      "ĠObserv": 3464,
      "ike": 3465,
      "ĠMÃ«nschen": 3466,
      "70": 3467,
      "CO": 3468,
      "Ges": 3469,
      "Ġdisk": 3470,
      "ĠgÃ«llt": 3471,
      "ĠzÃ«nter": 3472,
      "ĠKrankheet": 3473,
      "oop": 3474,
      "Ġspillen": 3475,
      "ĠMax": 3476,
      "ultater": 3477,
      "Ġklenge": 3478,
      "setzen": 3479,
      "Ġfunktionn": 3480,
      "sc": 3481,
      "ĠWi": 3482,
      "drun": 3483,
      "Ã©s": 3484,
      "Ġsoss": 3485,
      "emie": 3486,
      "uerm": 3487,
      "ĠRis": 3488,
      "rees": 3489,
      "ĠHir": 3490,
      "cke": 3491,
      "ĠUk": 3492,
      "ĠschÃ¼tz": 3493,
      "Ġstat": 3494,
      "ammelen": 3495,
      "Ġmeeschtens": 3496,
      "amera": 3497,
      "ulaire": 3498,
      "Dat": 3499,
      "sy": 3500,
      "ĠKÃ¤r": 3501,
      "utsch": 3502,
      "ĠâĢ¦": 3503,
      "verb": 3504,
      "ĠspÃ¤ich": 3505,
      "ĠErn": 3506,
      "Geschicht": 3507,
      "Kon": 3508,
      "ssch": 3509,
      "ĠWirtschaft": 3510,
      "Ġpopul": 3511,
      "Ġleg": 3512,
      "ograf": 3513,
      "uelt": 3514,
      "esk": 3515,
      "ĠKapp": 3516,
      "ĠLSAP": 3517,
      "ĠHolz": 3518,
      "riich": 3519,
      "Ġzwar": 3520,
      "ĠLiewensmÃ«ttel": 3521,
      "Ġpublic": 3522,
      "hm": 3523,
      "Ġmol": 3524,
      "enger": 3525,
      "Ġfort": 3526,
      "Ġeig": 3527,
      "Ġinstall": 3528,
      "ĠwÃ¤erten": 3529,
      "ĠGebrauch": 3530,
      "ĠÃīischt": 3531,
      "ĠReferenzen": 3532,
      "Ġkonnten": 3533,
      "ĠDiskuss": 3534,
      "upp": 3535,
      "Ġby": 3536,
      "schw": 3537,
      "uscht": 3538,
      "ĠTe": 3539,
      "ĠSpiller": 3540,
      "ĠInformatioune": 3541,
      "quipe": 3542,
      "EM": 3543,
      "Ġident": 3544,
      "ĠBr": 3545,
      "rast": 3546,
      "erten": 3547,
      "ĠSteier": 3548,
      "ĠSchrÃ«ft": 3549,
      "ĠMarketing": 3550,
      "Ġyou": 3551,
      "UN": 3552,
      "anish": 3553,
      "ĠAud": 3554,
      "laz": 3555,
      "rika": 3556,
      "arte": 3557,
      "Ã¶r": 3558,
      "ĠÃ«nnerstÃ«tzen": 3559,
      "ĠtÃ«schent": 3560,
      "funkt": 3561,
      "ene": 3562,
      "Ġklass": 3563,
      "ebaut": 3564,
      "Ġpass": 3565,
      "aarbechter": 3566,
      "ĠAlso": 3567,
      "aires": 3568,
      "ĠNeiegkeeten": 3569,
      "ĠfÃ«nnef": 3570,
      "port": 3571,
      "ometer": 3572,
      "rauen": 3573,
      "ĠZousÃ¤tzlech": 3574,
      "Ġeenzegen": 3575,
      "mi": 3576,
      "ĠDÃ©ier": 3577,
      "rou": 3578,
      "lach": 3579,
      "apan": 3580,
      "ĠMillioune": 3581,
      "ĠÃ«nnerschidd": 3582,
      "Firma": 3583,
      "Dep": 3584,
      "Ġprakt": 3585,
      "andlung": 3586,
      "ĠStied": 3587,
      "Ġsichen": 3588,
      "Ġbeschte": 3589,
      "deelung": 3590,
      "CH": 3591,
      "Iwwer": 3592,
      "ĠSoftware": 3593,
      "ane": 3594,
      "ĠBuerg": 3595,
      "ĠRT": 3596,
      "Ġleeft": 3597,
      "Ġenthalen": 3598,
      "Ġgeschriwwen": 3599,
      "rieden": 3600,
      "Ġmeeschte": 3601,
      "Ġinteressant": 3602,
      "Ġeenzegaart": 3603,
      "Auteur": 3604,
      "ĠMerci": 3605,
      "ĠVerfÃ¼gung": 3606,
      "dem": 3607,
      "ĠSain": 3608,
      "Ġhann": 3609,
      "Ġkuckt": 3610,
      "ĠGl": 3611,
      "ĠTool": 3612,
      "uergt": 3613,
      "Ġklickt": 3614,
      "Ã«ft": 3615,
      "alter": 3616,
      "berÃ¤ich": 3617,
      "Ġje": 3618,
      "ungsbed": 3619,
      "ĠPartner": 3620,
      "enne": 3621,
      "Ġbauss": 3622,
      "essour": 3623,
      "ollt": 3624,
      "Ġ195": 3625,
      "ĠMaschinn": 3626,
      "onsabel": 3627,
      "Ġeenzel": 3628,
      "Ġintegr": 3629,
      "Ġtechnesch": 3630,
      "'m": 3631,
      "uessen": 3632,
      "ĠKan": 3633,
      "annten": 3634,
      "ĠMÃ©iglechkeet": 3635,
      "ĠwÃ©ineg": 3636,
      "ĠProgrammer": 3637,
      "Ġphotogen": 3638,
      "CR": 3639,
      "kter": 3640,
      "Ġverurs": 3641,
      "ĠAlb": 3642,
      "dukter": 3643,
      "klÃ¤rung": 3644,
      "ribut": 3645,
      "riechend": 3646,
      "win": 3647,
      "ĠSozial": 3648,
      "ĠMy": 3649,
      "ivil": 3650,
      "Ġgelooss": 3651,
      "Ġgefouert": 3652,
      "ventioun": 3653,
      "ÑģÐºÐ¸": 3654,
      "ĠMeenung": 3655,
      "ZÃ¤it": 3656,
      "iellen": 3657,
      "kor": 3658,
      "Ã©ierlech": 3659,
      "Ġnot": 3660,
      "ĠDobÃ¤i": 3661,
      "ĠBesuch": 3662,
      "exter": 3663,
      "ĠEnglish": 3664,
      "ĠEntrepr": 3665,
      "Vir": 3666,
      "ament": 3667,
      "gesÃ¤it": 3668,
      "pillt": 3669,
      "ĠRev": 3670,
      "Ġexist": 3671,
      "ĠprÃ¤zisÃ©iert": 3672,
      "industrie": 3673,
      "Ġkor": 3674,
      "onen": 3675,
      "usioun": 3676,
      "Ġstatt": 3677,
      "Ġons": 3678,
      "Ġgemeinsam": 3679,
      "Ġerfoll": 3680,
      "ĠZwecker": 3681,
      "ĠzerÃ©ck": 3682,
      "ĠUniversitÃ©it": 3683,
      "mierk": 3684,
      "ouv": 3685,
      "peratioun": 3686,
      "rÃ©cht": 3687,
      "ublik": 3688,
      "Ġnormalerweis": 3689,
      "Ġautomatesch": 3690,
      "ĠÃ¤rem": 3691,
      "ĠGemengerot": 3692,
      "35": 3693,
      "DonnÃ©e": 3694,
      "kraaft": 3695,
      "Ãł": 3696,
      "Ġhe": 3697,
      "ĠVerst": 3698,
      "ĠBevÃ«lker": 3699,
      "ĠComment": 3700,
      "onctionn": 3701,
      "Mar": 3702,
      "lÃ¤nner": 3703,
      "zt": 3704,
      "Ã©ierungs": 3705,
      "ĠEsp": 3706,
      "rim": 3707,
      "Ġleien": 3708,
      "Ã«nd": 3709,
      "rÃ©im": 3710,
      "Ġgesetz": 3711,
      "Ġ2015": 3712,
      "maart": 3713,
      "ministÃ¨re": 3714,
      "ĠNation": 3715,
      "Ġreal": 3716,
      "ĠreduzÃ©ieren": 3717,
      "ĠOrganisatioun": 3718,
      "ĠRedakter": 3719,
      "Ġeffektiv": 3720,
      "Ġsuper": 3721,
      "ola": 3722,
      "Ã´": 3723,
      "Ġ<": 3724,
      "Ġsammelen": 3725,
      "ĠSw": 3726,
      "Ġevent": 3727,
      "eif": 3728,
      "eieren": 3729,
      "ester": 3730,
      "ĠenthÃ¤lt": 3731,
      "ysik": 3732,
      "Ġinvest": 3733,
      "sprozess": 3734,
      "ĠDroits": 3735,
      "her": 3736,
      "epasst": 3737,
      "stellungen": 3738,
      "Ã¤hrung": 3739,
      "ferenz": 3740,
      "ĠProvÃ«nz": 3741,
      "ace": 3742,
      "Ġ?": 3743,
      "ĠfrÃ©i": 3744,
      "eche": 3745,
      "ĠIS": 3746,
      "opy": 3747,
      "QualitÃ©it": 3748,
      "skont": 3749,
      "ĠFlÃ¤ch": 3750,
      "Ġverbessert": 3751,
      "ĠKompon": 3752,
      "ahrung": 3753,
      "lungen": 3754,
      "ĠDauer": 3755,
      "ĠPo": 3756,
      "ĠRank": 3757,
      "Ġpriv": 3758,
      "ĠTerrit": 3759,
      "AN": 3760,
      "eschten": 3761,
      "ĠGebai": 3762,
      "Ġselwechter": 3763,
      "ĠMound": 3764,
      "Organ": 3765,
      "ĠSeng": 3766,
      "ĠhÃ©ch": 3767,
      "staat": 3768,
      "otenz": 3769,
      "ĠAner": 3770,
      "Ġriets": 3771,
      "egrÃ¤ich": 3772,
      "ĠDrock": 3773,
      "ĠverfÃ¼g": 3774,
      "EntwÃ©cklung": 3775,
      "hÃ©ijung": 3776,
      "2001": 3777,
      "zell": 3778,
      "zuel": 3779,
      "Ġor": 3780,
      "ĠKil": 3781,
      "ional": 3782,
      "flicht": 3783,
      "ĠMethod": 3784,
      "Web": 3785,
      "wiessel": 3786,
      "Ġess": 3787,
      "Ġform": 3788,
      "ĠLÃ©ier": 3789,
      "ĠAllerdÃ©ngs": 3790,
      "ampag": 3791,
      "ansdo": 3792,
      "actrice": 3793,
      "Basis": 3794,
      "IN": 3795,
      "Ð¾": 3796,
      "Ġauss": 3797,
      "ĠDier": 3798,
      "organ": 3799,
      "iert": 3800,
      "ĠZanter": 3801,
      "aturn": 3802,
      "raktioun": 3803,
      "Ġinternational": 3804,
      "Ġsur": 3805,
      "ĠPapp": 3806,
      "Ġnieft": 3807,
      "ĠEduc": 3808,
      "ĠFeier": 3809,
      "ĠWand": 3810,
      "ĠVol": 3811,
      "ĠSpuen": 3812,
      "ĠPlazen": 3813,
      "ĠnÃ¤chst": 3814,
      "Redactrice": 3815,
      "Ġgaangen": 3816,
      "schinnen": 3817,
      "ĠIniti": 3818,
      "ĠPark": 3819,
      "ĠZoustÃ«mmung": 3820,
      "ĠbeschÃ¤ft": 3821,
      "ĠBlÃ©ck": 3822,
      "ĠProblemer": 3823,
      "Ġasw": 3824,
      "ĠRTL": 3825,
      "ĠerfollegrÃ¤ich": 3826,
      "].": 3827,
      "val": 3828,
      "egraff": 3829,
      "ĠRessour": 3830,
      "Ġperf": 3831,
      "ffic": 3832,
      "Ã¨s": 3833,
      "ĠMinistÃ¨re": 3834,
      "âĢľ,": 3835,
      "herzog": 3836,
      "ini": 3837,
      "ĠWa": 3838,
      "ĠWÃ«ssenschaft": 3839,
      "eschter": 3840,
      "ount": 3841,
      "Ġonof": 3842,
      "ologesch": 3843,
      "ĠCommons": 3844,
      "Ġmengen": 3845,
      "mierksam": 3846,
      "60": 3847,
      "ĠKn": 3848,
      "ĠFR": 3849,
      "ĠinteressÃ©iert": 3850,
      "ĠDeputÃ©iert": 3851,
      "Ġgitt": 3852,
      "Ġoft": 3853,
      "ĠMes": 3854,
      "raus": 3855,
      "laang": 3856,
      "ĠJore": 3857,
      "ĠVirdeeler": 3858,
      "iwwelen": 3859,
      "ournal": 3860,
      "ĠVu": 3861,
      "Ġausz": 3862,
      "Ġdeemools": 3863,
      "ĠZesummen": 3864,
      "ĠTwitter": 3865,
      "Form": 3866,
      "hin": 3867,
      "niss": 3868,
      "rÃ¼st": 3869,
      "erreechen": 3870,
      "ĠSÃ¼": 3871,
      "ĠNidder": 3872,
      "ival": 3873,
      "ĠTemperaturen": 3874,
      "Liewen": 3875,
      "On": 3876,
      "Pl": 3877,
      "Re": 3878,
      "Zil": 3879,
      "Ġwei": 3880,
      "ĠEp": 3881,
      "Ġiergend": 3882,
      "ĠverfÃ¼gbar": 3883,
      "vit": 3884,
      "echer": 3885,
      "ĠFaarf": 3886,
      "rikt": 3887,
      "Ġtrotz": 3888,
      "vern": 3889,
      "Chamber": 3890,
      "ĠChamberw": 3891,
      "Ġmisst": 3892,
      "ifizÃ©ieren": 3893,
      "atal": 3894,
      "ĠPal": 3895,
      "Ġetc": 3896,
      "ĠschÃ©ngt": 3897,
      "25": 3898,
      "itz": 3899,
      "ĠEg": 3900,
      "ĠCO": 3901,
      "andelen": 3902,
      "ĠStruktur": 3903,
      "Ã¼cht": 3904,
      "eph": 3905,
      "Ġweess": 3906,
      "ENU": 3907,
      "Ġessent": 3908,
      "Ã¤mp": 3909,
      "Ġbreet": 3910,
      "Ġtradition": 3911,
      "Ġspillt": 3912,
      "Ġcont": 3913,
      "maschinn": 3914,
      "ĠTraffic": 3915,
      "ĠGeriicht": 3916,
      "Ġeventuell": 3917,
      "gÃ©int": 3918,
      "uede": 3919,
      "zin": 3920,
      "Ġur": 3921,
      "Ã©r": 3922,
      "Ġman": 3923,
      "ĠBlog": 3924,
      "ĠdÃ©if": 3925,
      "ĠErw": 3926,
      "Ġgewisen": 3927,
      "ĠÂ·": 3928,
      "hÃ©ik": 3929,
      "ĠnÃ¤chste": 3930,
      "Ġugebueden": 3931,
      "cen": 3932,
      "enen": 3933,
      "ĠSaturn": 3934,
      "ĠMess": 3935,
      "ĠMÃ¤nner": 3936,
      "Ġ2010": 3937,
      "Ġeleng": 3938,
      "Ġgeliwwert": 3939,
      "barkeet": 3940,
      "ĠZorte": 3941,
      "fall": 3942,
      "ĠWuert": 3943,
      "schrÃ«ft": 3944,
      "ĠTrad": 3945,
      "riber": 3946,
      "ĠChin": 3947,
      "Ġneier": 3948,
      "ĠInstr": 3949,
      "ĠTerrain": 3950,
      "Ġextre": 3951,
      "Ġzerst": 3952,
      "Ġfinanziell": 3953,
      "Ġeigentlech": 3954,
      "Kanner": 3955,
      "iar": 3956,
      "ĠMol": 3957,
      "ĠLeeschtung": 3958,
      "ript": 3959,
      "ivid": 3960,
      "Ã©ngungen": 3961,
      "ase": 3962,
      "lÃ«scht": 3963,
      "itekt": 3964,
      "Ġwelt": 3965,
      "Ġdech": 3966,
      "ĠMont": 3967,
      "Ġnotz": 3968,
      "ĠTransport": 3969,
      "Ġerst": 3970,
      "oten": 3971,
      "Ġware": 3972,
      "ĠQuant": 3973,
      "Benotzung": 3974,
      "ĠschÃ¼tzen": 3975,
      "Geb": 3976,
      "yd": 3977,
      "emin": 3978,
      "ĠAust": 3979,
      "Ġkons": 3980,
      "onom": 3981,
      "ĠGitt": 3982,
      "deeg": 3983,
      "Ġdoduerch": 3984,
      "ĠUnioun": 3985,
      "Ġprofess": 3986,
      "ĠpersonalisÃ©iert": 3987,
      "miesser": 3988,
      "likatioun": 3989,
      "Ã©l": 3990,
      "arung": 3991,
      "ĠGemengen": 3992,
      "ĠAarbechts": 3993,
      "hÃ©icht": 3994,
      "ĠEffekt": 3995,
      "bestÃ«mm": 3996,
      "klusiv": 3997,
      "01": 3998,
      "Fro": 3999,
      "PL": 4000,
      "ode": 4001,
      "Ð½": 4002,
      "Ġwirtschaft": 4003,
      "ĠLiesen": 4004,
      "ĠFouss": 4005,
      "ĠCre": 4006,
      "rah": 4007,
      "ĠUSA": 4008,
      "ĠgeschÃ©ckt": 4009,
      "piller": 4010,
      "ĠKonsument": 4011,
      "eskop": 4012,
      "mar": 4013,
      "Ðµ": 4014,
      "ĠnÃ¤m": 4015,
      "eid": 4016,
      "ĠFort": 4017,
      "assung": 4018,
      "Ġvirdrun": 4019,
      "Ġduerchg": 4020,
      "osoph": 4021,
      "ĠQuest": 4022,
      "Ġubidden": 4023,
      "08": 4024,
      "IV": 4025,
      "mat": 4026,
      "à¦": 4027,
      "Ġ=": 4028,
      "ors": 4029,
      "ĠGre": 4030,
      "Ġdoheem": 4031,
      "afe": 4032,
      "Ġgestuerwen": 4033,
      "right": 4034,
      "ĠSerie": 4035,
      "ĠkontrollÃ©ieren": 4036,
      "ĠAspekter": 4037,
      "45": 4038,
      "mol": 4039,
      "ature": 4040,
      "ĠAp": 4041,
      "ĠbÃ«sse": 4042,
      "Ġne": 4043,
      "onie": 4044,
      "ĠGanz": 4045,
      "ĠVerÃ¤in": 4046,
      "iment": 4047,
      "ymb": 4048,
      "ĠNoriichten": 4049,
      "ĠprobÃ©iert": 4050,
      "ĠÃ¤hn": 4051,
      "DPR": 4052,
      "ame": 4053,
      "rÃ¤iz": 4054,
      "Benotzer": 4055,
      "uerderungen": 4056,
      "schnÃ«tt": 4057,
      "ĠdecidÃ©iert": 4058,
      "Ġpositiv": 4059,
      "ĠdrÃ«tt": 4060,
      "illes": 4061,
      "Ġallen": 4062,
      "Ġsengen": 4063,
      "ading": 4064,
      "ĠMedien": 4065,
      "Ġrecommand": 4066,
      "Ġperfekt": 4067,
      "weg": 4068,
      "inen": 4069,
      "Ġuewe": 4070,
      "Ġ31": 4071,
      "ĠDonieft": 4072,
      "Ġlokal": 4073,
      "ĠAnalyse": 4074,
      "AT": 4075,
      "haus": 4076,
      "ĠgÃ«": 4077,
      "ĠBÃ¼": 4078,
      "ones": 4079,
      "uere": 4080,
      "ĠWanter": 4081,
      "âĢĵ": 4082,
      "ile": 4083,
      "loen": 4084,
      "Ġgespillt": 4085,
      "itten": 4086,
      "ĠFirmen": 4087,
      "ĠRec": 4088,
      "ervicer": 4089,
      "Ġbeschten": 4090,
      "Produktioun": 4091,
      "Ġsetzt": 4092,
      "ĠFunktiounen": 4093,
      "ĠProduit": 4094,
      "ĠkontrollÃ©iert": 4095,
      "Ġverantwortlech": 4096,
      "ĠIddi": 4097,
      "ĠLouis": 4098,
      "El": 4099,
      "aj": 4100,
      "Ġanz": 4101,
      "ĠAsch": 4102,
      "ourag": 4103,
      "ĠBen": 4104,
      "ĠSchÃ«ff": 4105,
      "ĠKommissioun": 4106,
      "Ð°Ñ": 4107,
      "SV": 4108,
      "aier": 4109,
      "het": 4110,
      "ĠÎ": 4111,
      "scher": 4112,
      "ĠTop": 4113,
      "Ġpour": 4114,
      "Ġliwwer": 4115,
      "Ġnodeems": 4116,
      "aange": 4117,
      "ĠVersioune": 4118,
      "ĠDistanz": 4119,
      "Ġkn": 4120,
      "ĠengagÃ©iert": 4121,
      "ĠVum": 4122,
      "Ġverw": 4123,
      "iesartikel": 4124,
      "ound": 4125,
      "ĠGebuert": 4126,
      "eeser": 4127,
      "ethod": 4128,
      "ĠKonditioune": 4129,
      "kret": 4130,
      "ĠSan": 4131,
      "ĠMod": 4132,
      "eign": 4133,
      "ĠSchued": 4134,
      "Ġganzer": 4135,
      "ĠbestÃ«mmte": 4136,
      "Ġsozialen": 4137,
      "ĠZweete": 4138,
      "oalitioun": 4139,
      "Â²": 4140,
      "ĠPen": 4141,
      "Ġeist": 4142,
      "ĠKÃ¤schten": 4143,
      "ĠFor": 4144,
      "abeier": 4145,
      "frist": 4146,
      "gef": 4147,
      "ĠStil": 4148,
      "ĠAutoritÃ©it": 4149,
      "ĠÃĭnnerscheed": 4150,
      "Ã¤ndler": 4151,
      "zedur": 4152,
      "Ġgudde": 4153,
      "ĠkreÃ©ieren": 4154,
      "ĠnÃ¤mlech": 4155,
      "ĠLED": 4156,
      "ĠGDPR": 4157,
      "ĠStÃ¤ren": 4158,
      "Ġtra": 4159,
      "Ġentscheeden": 4160,
      "Ã©isen": 4161,
      "ĠWeeÃ«r": 4162,
      "Ã«rder": 4163,
      "ahl": 4164,
      "ĠErfolleg": 4165,
      "hÃ©ijen": 4166,
      "ĠDossieren": 4167,
      "rÃ¼stung": 4168,
      "mus": 4169,
      "ĠsÃ¤it": 4170,
      "Ġmax": 4171,
      "Ġerz": 4172,
      "Ġzesummeg": 4173,
      "aiser": 4174,
      "ĠAccess": 4175,
      "ĠGefier": 4176,
      "Ġiech": 4177,
      "Ġsuergen": 4178,
      "WebsÃ¤it": 4179,
      "yl": 4180,
      "ros": 4181,
      "ĠPR": 4182,
      "ĠFong": 4183,
      "ĠNap": 4184,
      "ĠlÃ¤schen": 4185,
      "ingunge": 4186,
      "ĠArmÃ©i": 4187,
      "Ġ49": 4188,
      "Ġsolle": 4189,
      "acc": 4190,
      "Ġverfoll": 4191,
      "ĠglÃ¤ichzÃ¤iteg": 4192,
      "ratt": 4193,
      "ĠRussland": 4194,
      "ĠHolland": 4195,
      "Ġpraktesch": 4196,
      "Comm": 4197,
      "NA": 4198,
      "vel": 4199,
      "waasser": 4200,
      "Ã¡": 4201,
      "umÃ©": 4202,
      "ior": 4203,
      "ĠBar": 4204,
      "ĠnÃ«tz": 4205,
      "ĠLiwwer": 4206,
      "ĠElteren": 4207,
      "Ġagefouert": 4208,
      "ĠImpakt": 4209,
      "geluecht": 4210,
      "CD": 4211,
      "Ġvon": 4212,
      "ots": 4213,
      "ologien": 4214,
      "rigin": 4215,
      "ĠHerr": 4216,
      "Ãªt": 4217,
      "Ġcookies": 4218,
      "windegkeet": 4219,
      "fft": 4220,
      "pos": 4221,
      "enden": 4222,
      "ateur": 4223,
      "ĠSaach": 4224,
      "Ġhandelt": 4225,
      "arian": 4226,
      "ĠGeescht": 4227,
      "lub": 4228,
      "rÃ©cken": 4229,
      "Ġbewe": 4230,
      "Ġparlament": 4231,
      "ĠAngscht": 4232,
      "opyright": 4233,
      "lescht": 4234,
      "erb": 4235,
      "Ġdie": 4236,
      "ĠGas": 4237,
      "ĠHen": 4238,
      "ĠNieft": 4239,
      "ulÃ©iert": 4240,
      "kennen": 4241,
      "ĠZÃ¤itraum": 4242,
      "Ġugefaangen": 4243,
      "EL": 4244,
      "SS": 4245,
      "rang": 4246,
      "esystem": 4247,
      "ĠLÃ©isung": 4248,
      "ĠRez": 4249,
      "ĠSpekt": 4250,
      "uele": 4251,
      "gesetz": 4252,
      "ĠMinutt": 4253,
      "ĠVerkÃ©ier": 4254,
      "ĠNewsletter": 4255,
      "ĠBicher": 4256,
      "tensiv": 4257,
      "hu": 4258,
      "Ġacc": 4259,
      "ĠDa": 4260,
      "ĠDor": 4261,
      "ĠDef": 4262,
      "Ġfalsch": 4263,
      "ĠWou": 4264,
      "ĠGlÃ¤ich": 4265,
      "ĠRestaur": 4266,
      "Ġpr": 4267,
      "ĠAnd": 4268,
      "Ġdorop": 4269,
      "ada": 4270,
      "ausch": 4271,
      "ungsm": 4272,
      "ĠAusland": 4273,
      "ĠStaats": 4274,
      "Ġopgeholl": 4275,
      "Ġ179": 4276,
      "ĠVisite": 4277,
      "ĠWierker": 4278,
      "ĠClaude": 4279,
      "ĠDÃ«sch": 4280,
      "ĠEvent": 4281,
      "Ã©ierend": 4282,
      "ilt": 4283,
      "Ġersch": 4284,
      "ĠgehÃ©ieren": 4285,
      "iessen": 4286,
      "ĠKleeder": 4287,
      "ovid": 4288,
      "ĠGewÃ«nn": 4289,
      "athoul": 4290,
      "bildung": 4291,
      "ly": 4292,
      "uucht": 4293,
      "Ġdom": 4294,
      "ĠBENU": 4295,
      "ĠGa": 4296,
      "ĠerhÃ©ijen": 4297,
      "iga": 4298,
      "Ġganzen": 4299,
      "ordin": 4300,
      "Verb": 4301,
      "ĠverlÃ©ieren": 4302,
      "Ġbewosst": 4303,
      "ĠKompet": 4304,
      "DeputÃ©iert": 4305,
      "ĠgÃ«e": 4306,
      "cel": 4307,
      "weil": 4308,
      "ĠMoossnam": 4309,
      "ĠFern": 4310,
      "Ġnohalt": 4311,
      "ĠbestÃ¤t": 4312,
      "Ġresponsabel": 4313,
      "ĠBetrib": 4314,
      "ĠgarantÃ©iert": 4315,
      "Ġentstanen": 4316,
      "09": 4317,
      "II": 4318,
      "wÃ«ssenschaft": 4319,
      "Ð»": 4320,
      "Ã¤pp": 4321,
      "Ġwidder": 4322,
      "ĠMemberen": 4323,
      "ĠBack": 4324,
      "ĠJapan": 4325,
      "ama": 4326,
      "Ġrep": 4327,
      "auscht": 4328,
      "schlÃ©i": 4329,
      "konom": 4330,
      "ĠWunneng": 4331,
      "ĠinstallÃ©iert": 4332,
      "bi": 4333,
      "bunn": 4334,
      "bruecht": 4335,
      "dat": 4336,
      "ha": 4337,
      "Ġfroen": 4338,
      "ĠMe": 4339,
      "istrÃ¤ich": 4340,
      "Ġruss": 4341,
      "rona": 4342,
      "Ġcons": 4343,
      "Ã¤nglech": 4344,
      "ĠFotoen": 4345,
      "rechtleche": 4346,
      "ĠprobÃ©ieren": 4347,
      "ĠFranÃ§": 4348,
      "28": 4349,
      "BN": 4350,
      "kr": 4351,
      "Ġguer": 4352,
      "inue": 4353,
      "ĠBou": 4354,
      "ĠBrÃ©if": 4355,
      "Ġrelev": 4356,
      "ĠMaj": 4357,
      "Ġexzell": 4358,
      "ĠVideoen": 4359,
      "Ġerreechen": 4360,
      "ĠKilometer": 4361,
      "bez": 4362,
      "eneen": 4363,
      "atz": 4364,
      "Ġhin": 4365,
      "Ġfe": 4366,
      "ĠMichel": 4367,
      "ĠKant": 4368,
      "ras": 4369,
      "ĠJos": 4370,
      "Ġklengen": 4371,
      "ruppen": 4372,
      "ĠProjeten": 4373,
      "27": 4374,
      "ouvern": 4375,
      "ulatioun": 4376,
      "ings": 4377,
      "Ġ2014": 4378,
      "Ġverbonnen": 4379,
      "kommen": 4380,
      "ĠSichmot": 4381,
      "Ġparlement": 4382,
      "ĠStandard": 4383,
      "ĠAkzent": 4384,
      "ĠSpezial": 4385,
      "ĠBevÃ«lkerung": 4386,
      "nisser": 4387,
      "Ġliwweren": 4388,
      "burg": 4389,
      "nesser": 4390,
      "Ø±": 4391,
      "Ġfix": 4392,
      "inu": 4393,
      "Ġblock": 4394,
      "Ġnidd": 4395,
      "ĠKol": 4396,
      "ĠLo": 4397,
      "ĠNorm": 4398,
      "rimin": 4399,
      "iste": 4400,
      "icip": 4401,
      "Ġstud": 4402,
      "ĠDate": 4403,
      "ĠPersonal": 4404,
      "ĠResumÃ©": 4405,
      "ĠDuerchmiesser": 4406,
      "ĠDepartement": 4407,
      "Ġverpassen": 4408,
      "04": 4409,
      "24": 4410,
      "ĠBru": 4411,
      "ight": 4412,
      "leescht": 4413,
      "ationalen": 4414,
      "rÃ¤ifen": 4415,
      "ÃĦerd": 4416,
      "Ġkommun": 4417,
      "ransÃ©ische": 4418,
      "Ġverluer": 4419,
      "ĠkontaktÃ©iert": 4420,
      "ĠBitco": 4421,
      "Part": 4422,
      "Un": 4423,
      "bel": 4424,
      "gank": 4425,
      "ĠhÃ¤lt": 4426,
      "iot": 4427,
      "Ġnog": 4428,
      "ĠOver": 4429,
      "Ġsechs": 4430,
      "Ġvillen": 4431,
      "ĠThemen": 4432,
      "graph": 4433,
      "ĠFroe": 4434,
      "cteur": 4435,
      "Ġhannert": 4436,
      "geh": 4437,
      "leet": 4438,
      "Ġfor": 4439,
      "ĠbrÃ©ngt": 4440,
      "ĠKrit": 4441,
      "ĠElo": 4442,
      "Ġverbonne": 4443,
      "geschicht": 4444,
      "Ġabsolut": 4445,
      "ynam": 4446,
      "ĠBeg": 4447,
      "ĠBlu": 4448,
      "rap": 4449,
      "ĠNimm": 4450,
      "ersÃ¤it": 4451,
      "alloun": 4452,
      "igh": 4453,
      "ĠParteien": 4454,
      "ĠEuropÃ¤escher": 4455,
      "ĠKlima": 4456,
      "ampagne": 4457,
      "DrÃ¤": 4458,
      "Duc": 4459,
      "Ġiew": 4460,
      "echan": 4461,
      "ĠLuxemb": 4462,
      "ĠFÃ¤": 4463,
      "ktioun": 4464,
      "Ġiwwerw": 4465,
      "blig": 4466,
      "Ġgeschafft": 4467,
      "ĠwÃ¤ertvoll": 4468,
      "apport": 4469,
      "ministr": 4470,
      "esetzen": 4471,
      "ĠgrÃ©isste": 4472,
      "ĠspÃ¤icheren": 4473,
      "ĠDiskussioun": 4474,
      "Joer": 4475,
      "fÃ©ier": 4476,
      "Ø§": 4477,
      "ĠNoutwenneg": 4478,
      "lose": 4479,
      "ĠVerp": 4480,
      "ĠKonzept": 4481,
      "Ġgefrot": 4482,
      "Ġgekuckt": 4483,
      "ĠContinue": 4484,
      "ĠIntegr": 4485,
      "uesst": 4486,
      "ĠfunktionnÃ©iert": 4487,
      "Ġ#": 4488,
      "Ġdigital": 4489,
      "ĠsÃ¼d": 4490,
      "egelen": 4491,
      "ĠMam": 4492,
      "ĠPaul": 4493,
      "ĠKuerz": 4494,
      "ĠKeeser": 4495,
      "ĠIr": 4496,
      "ierm": 4497,
      "ierre": 4498,
      "iger": 4499,
      "Ġ2013": 4500,
      "ĠMataarbechter": 4501,
      "ĠUfroen": 4502,
      "ave": 4503,
      "Ġkonzent": 4504,
      "ĠSchluss": 4505,
      "deckung": 4506,
      "Pers": 4507,
      "bek": 4508,
      "ieb": 4509,
      "ko": 4510,
      "uellen": 4511,
      "Ã¢": 4512,
      "err": 4513,
      "ĠLinn": 4514,
      "ĠGilles": 4515,
      "ĠTur": 4516,
      "ĠTools": 4517,
      "ĠlÃ©isst": 4518,
      "angel": 4519,
      "ulg": 4520,
      "Ġreegel": 4521,
      "rennt": 4522,
      "ĠbestÃ«mmen": 4523,
      "ĠBesÃ«tzer": 4524,
      "Zu": 4525,
      "Ã¤eg": 4526,
      "Ġgriich": 4527,
      "Ġwww": 4528,
      "ĠÃĦnneren": 4529,
      "ĠreduzÃ©iert": 4530,
      "Ġugeet": 4531,
      "ĠKonse": 4532,
      "ĠEntwÃ©ck": 4533,
      "rechter": 4534,
      "ĠImpf": 4535,
      "Ġgerecht": 4536,
      "ĠWochen": 4537,
      "ĠzougÃ¤nglech": 4538,
      "Ġdefin": 4539,
      "Ġimmens": 4540,
      "ĠgÃ«eegent": 4541,
      "Ã©es": 4542,
      "atter": 4543,
      "Ġlegal": 4544,
      "ĠSchlass": 4545,
      "ĠUN": 4546,
      "ierkoalitioun": 4547,
      "mÃ©iglechkeet": 4548,
      "ĠMusÃ©e": 4549,
      "mÃ©iglechen": 4550,
      "ĠChamberwalen": 4551,
      "App": 4552,
      "lÃ©isung": 4553,
      "Ġhttps": 4554,
      "Ġverdeelt": 4555,
      "ĠJust": 4556,
      "eweil": 4557,
      "Ġale": 4558,
      "rÃ¤nk": 4559,
      "ĠwoubÃ¤i": 4560,
      "ĠdorÃ«nner": 4561,
      "ĠGÃ©igend": 4562,
      "IPT": 4563,
      "ĠrespektÃ©ieren": 4564,
      "ĠSaint": 4565,
      "CRIPT": 4566,
      "ces": 4567,
      "zesser": 4568,
      "Ġdet": 4569,
      "ĠMagn": 4570,
      "ĠEk": 4571,
      "rasch": 4572,
      "ellig": 4573,
      "ĠStÃ«mm": 4574,
      "reif": 4575,
      "affe": 4576,
      "Ġbrauchen": 4577,
      "ĠMaterialien": 4578,
      "eeÃ«nheet": 4579,
      "Ġiwwerhaapt": 4580,
      "ade": 4581,
      "dÃ©ngscht": 4582,
      "opt": 4583,
      "inhalt": 4584,
      "ĠTrotz": 4585,
      "ĠNott": 4586,
      "Ġkrit": 4587,
      "Ġautor": 4588,
      "Ġgeplang": 4589,
      "verstÃ¤nd": 4590,
      "ĠverhÃ«nneren": 4591,
      "ĠVerglach": 4592,
      "ID": 4593,
      "Par": 4594,
      "SEO": 4595,
      "maachen": 4596,
      "ĠSCRIPT": 4597,
      "isatiounen": 4598,
      "ĠAstellungen": 4599,
      "ĠWieder": 4600,
      "schoul": 4601,
      "schloss": 4602,
      "ĠIns": 4603,
      "igit": 4604,
      "Ã«ndlech": 4605,
      "ĠChef": 4606,
      "ounen": 4607,
      "ĠNodeems": 4608,
      "Ġ2000": 4609,
      "ĠReform": 4610,
      "ĠErfahrung": 4611,
      "bst": 4612,
      "ĠzÃ¤it": 4613,
      "ĠMob": 4614,
      "ĠPositioun": 4615,
      "ĠWien": 4616,
      "ĠCent": 4617,
      "ĠCon": 4618,
      "ĠCass": 4619,
      "lack": 4620,
      "Ġschn": 4621,
      "ĠVeraarbechtung": 4622,
      "ĠDatum": 4623,
      "ĠbestÃ«mmten": 4624,
      "Ġeegene": 4625,
      "ĠPeriod": 4626,
      "klassesch": 4627,
      "Ġniddereg": 4628,
      "ĠOverview": 4629,
      "kur": 4630,
      "komp": 4631,
      "uy": 4632,
      "atoire": 4633,
      "elst": 4634,
      "Ġsot": 4635,
      "ĠSektioun": 4636,
      "ĠbÃ©id": 4637,
      "ĠMÃ«n": 4638,
      "ĠMissioun": 4639,
      "ĠFond": 4640,
      "ĠHot": 4641,
      "ĠHanner": 4642,
      "ĠOpp": 4643,
      "abil": 4644,
      "ĠEditioun": 4645,
      "rausf": 4646,
      "DrÃ¤ierkoalitioun": 4647,
      "ĠKonsequenz": 4648,
      "36": 4649,
      "AR": 4650,
      "ĠmÃ«nsch": 4651,
      "ĠCopyright": 4652,
      "ĠVÃ«": 4653,
      "Ġveraarbecht": 4654,
      "olf": 4655,
      "ĠIndustri": 4656,
      "agÃ©ieren": 4657,
      "verl": 4658,
      "ĠFirwat": 4659,
      "ĠErhÃ©ijung": 4660,
      "ĠMaria": 4661,
      "SchÃ¼ler": 4662,
      "Ġwieren": 4663,
      "halb": 4664,
      "ĠCommun": 4665,
      "ĠGewalt": 4666,
      "ĠImpakter": 4667,
      "geholl": 4668,
      "liesen": 4669,
      "ualitÃ©it": 4670,
      "ĠSim": 4671,
      "ĠAusst": 4672,
      "ĠAsaz": 4673,
      "ĠMen": 4674,
      "ĠRescht": 4675,
      "ĠStol": 4676,
      "Ġugew": 4677,
      "ĠPlang": 4678,
      "Ġ2008": 4679,
      "Ġaktual": 4680,
      "ĠQuestions": 4681,
      "erecht": 4682,
      "ĠPrÃ¤isser": 4683,
      "onian": 4684,
      "ĠWÃ©inst": 4685,
      "ĠlÃ©nk": 4686,
      "ionell": 4687,
      "Ġstoung": 4688,
      "Ã«sseg": 4689,
      "Ġbezuelen": 4690,
      "Ġgeduecht": 4691,
      "Ġemol": 4692,
      "eweegung": 4693,
      "Ã¼tzt": 4694,
      "ĠRegierungswiessel": 4695,
      "Ġeenzegaarteg": 4696,
      "ĠNationalitÃ©it": 4697,
      "ĠonofhÃ¤ngeg": 4698,
      "Ġextreemer": 4699,
      "Ġparlementaires": 4700,
      "Ġair": 4701,
      "stitut": 4702,
      "ouch": 4703,
      "ĠVari": 4704,
      "ĠUlt": 4705,
      "ĠUwend": 4706,
      "ĠProfil": 4707,
      "spolitik": 4708,
      "ĠKonf": 4709,
      "gende": 4710,
      "Ġgeschwat": 4711,
      "ĠKontrakt": 4712,
      "ĠMediat": 4713,
      "stero": 4714,
      "lee": 4715,
      "rÃ¤it": 4716,
      "Ñĥ": 4717,
      "Ġant": 4718,
      "Ġbauen": 4719,
      "ĠKor": 4720,
      "ĠFrei": 4721,
      "Ġausl": 4722,
      "sprÃ©ng": 4723,
      "oppen": 4724,
      "ĠEnglesch": 4725,
      "ĠDivert": 4726,
      "Cook": 4727,
      "GE": 4728,
      "RL": 4729,
      "part": 4730,
      "ĠhÃ«lt": 4731,
      "ĠfransÃ©ische": 4732,
      "eie": 4733,
      "ieden": 4734,
      "reff": 4735,
      "ĠschÃ©cken": 4736,
      "ags": 4737,
      "Ã¤nneg": 4738,
      "ĠWeek": 4739,
      "rukturen": 4740,
      "Ġdeelweis": 4741,
      "atsaach": 4742,
      "ĠTerritoire": 4743,
      "ĠDivertissement": 4744,
      "Ġgin": 4745,
      "Ġzent": 4746,
      "Ġdeelen": 4747,
      "Ġbede": 4748,
      "Ġkultur": 4749,
      "ĠReen": 4750,
      "ĠSpam": 4751,
      "Ã«nnerung": 4752,
      "Ġ80": 4753,
      "ĠBeispiller": 4754,
      "regioun": 4755,
      "Ġoptim": 4756,
      "ĠDokumenter": 4757,
      "ĠAffek": 4758,
      "Ġis": 4759,
      "ener": 4760,
      "roch": 4761,
      "Ġnoutwenneg": 4762,
      "ĠZÃ«nter": 4763,
      "ĠEns": 4764,
      "Ġ08": 4765,
      "ĠÃĭmlaf": 4766,
      "Ã¶l": 4767,
      "Ġerfuerdert": 4768,
      "ĠÃ«nnerschiddlech": 4769,
      "fest": 4770,
      "hale": 4771,
      "prÃ¤is": 4772,
      "ĠÃ¤re": 4773,
      "ĠSummer": 4774,
      "ĠCl": 4775,
      "ĠHÃ¤ndler": 4776,
      "ric": 4777,
      "andemie": 4778,
      "ĠStÃ¤re": 4779,
      "ĠerhÃ©icht": 4780,
      "iver": 4781,
      "ĠSchÃ¤": 4782,
      "ĠSchÃ©in": 4783,
      "Ġschafft": 4784,
      "ĠstÃ¤er": 4785,
      "Ġstaat": 4786,
      "Ġstock": 4787,
      "endlech": 4788,
      "ruff": 4789,
      "Ġgesi": 4790,
      "ĠÃ«nnerl": 4791,
      "ĠInstall": 4792,
      "pret": 4793,
      "Ġelektron": 4794,
      "Ġqual": 4795,
      "ĠZesummenaarbecht": 4796,
      "Zukunft": 4797,
      "zÃ©ng": 4798,
      "erung": 4799,
      "Ġmobil": 4800,
      "Ġwuel": 4801,
      "schlag": 4802,
      "ĠIN": 4803,
      "ĠHistor": 4804,
      "ĠVollek": 4805,
      "ĠÃ«mf": 4806,
      "Ġschwaar": 4807,
      "Ġugefaang": 4808,
      "zefÃ©ieren": 4809,
      "ĠdÃ¤itlech": 4810,
      "ĠNetzwierker": 4811,
      "ĠSloven": 4812,
      "ersÃ¤its": 4813,
      "Sh": 4814,
      "ader": 4815,
      "elder": 4816,
      "ĠwÃ¤iss": 4817,
      "ĠWÃ«ll": 4818,
      "Ġli": 4819,
      "Ġreading": 4820,
      "ĠIwwersetzung": 4821,
      "ĠhÃ©ije": 4822,
      "ĠLuc": 4823,
      "ĠFunktioun": 4824,
      "Ġthis": 4825,
      "ĠpresentÃ©iert": 4826,
      "ĠweltwÃ¤it": 4827,
      "apt": 4828,
      "sn": 4829,
      "yr": 4830,
      "iser": 4831,
      "ĠBur": 4832,
      "ĠLÃ©ift": 4833,
      "ĠWicht": 4834,
      "ĠWeis": 4835,
      "ĠIer": 4836,
      "ĠRou": 4837,
      "ĠTexter": 4838,
      "Ġverschw": 4839,
      "Ġ45": 4840,
      "Ġgefall": 4841,
      "ĠprofitÃ©ieren": 4842,
      "Ã©nkel": 4843,
      "eefer": 4844,
      "ĠdefinÃ©iert": 4845,
      "ĠImmobil": 4846,
      "ĠpopulÃ¤r": 4847,
      "ĠgrÃ©isst": 4848,
      "ĠDel": 4849,
      "ĠSm": 4850,
      "roun": 4851,
      "ĠPeter": 4852,
      "ĠBunn": 4853,
      "orie": 4854,
      "ĠCour": 4855,
      "losst": 4856,
      "ehuelen": 4857,
      "oiren": 4858,
      "Ġ<>": 4859,
      ".)": 4860,
      "79": 4861,
      "80": 4862,
      "SÃ¤it": 4863,
      "Å¡": 4864,
      "ĠQ": 4865,
      "aritÃ©it": 4866,
      "ĠfÃ¤nkt": 4867,
      "ĠWÃ«ssen": 4868,
      "ree": 4869,
      "ĠNuecht": 4870,
      "ĠOwend": 4871,
      "ĠFormatioun": 4872,
      "Ġlueden": 4873,
      "ĠCharles": 4874,
      "ĠAfrika": 4875,
      "ĠentsprÃ©cht": 4876,
      "Ġwaarm": 4877,
      "ĠnÃ«tzlech": 4878,
      "26": 4879,
      "ADR": 4880,
      "rand": 4881,
      "van": 4882,
      "Ġ{": 4883,
      "unter": 4884,
      "ĠSÃ©i": 4885,
      "Ġzir": 4886,
      "iness": 4887,
      "ĠBrÃ©iss": 4888,
      "ĠLÃ©is": 4889,
      "Ġdenken": 4890,
      "rient": 4891,
      "ĠermÃ©iglecht": 4892,
      "uelung": 4893,
      "Ġdeemno": 4894,
      "edezin": 4895,
      "Ġ70": 4896,
      "ĠSpuenien": 4897,
      "Ġduerchgefouert": 4898,
      "Ã»": 4899,
      "Ġegal": 4900,
      "roe": 4901,
      "arakter": 4902,
      "ĠMag": 4903,
      "oral": 4904,
      "Ġperman": 4905,
      "ĠBenotzung": 4906,
      "ĠÃ«nnen": 4907,
      "ĠMilliar": 4908,
      "ĠBetriber": 4909,
      "ahrscheinlech": 4910,
      "motioun": 4911,
      "ĠComitÃ©": 4912,
      "ĠUkrain": 4913,
      "Ġstatistesch": 4914,
      "ĠPenis": 4915,
      "Ġmin": 4916,
      "ĠmÃ«tt": 4917,
      "ĠhÃ¤nkt": 4918,
      "ĠMad": 4919,
      "ĠPil": 4920,
      "Ġengl": 4921,
      "deelen": 4922,
      "achen": 4923,
      "fferen": 4924,
      "Ġles": 4925,
      "ili": 4926,
      "rueden": 4927,
      "autÃ©it": 4928,
      "Ġofz": 4929,
      "stoffer": 4930,
      "ĠAssoci": 4931,
      "fristeg": 4932,
      "Ø±Ø": 4933,
      "AM": 4934,
      "Ġdinn": 4935,
      "Ġdigit": 4936,
      "aren": 4937,
      "ĠPÃ¤erd": 4938,
      "ĠPabeier": 4939,
      "ĠRo": 4940,
      "fferd": 4941,
      "ĠSchluecht": 4942,
      "Ġausf": 4943,
      "Ġuk": 4944,
      "Ġjee": 4945,
      "Ġgenau": 4946,
      "Ġheiansdo": 4947,
      "ĠTheater": 4948,
      "ĠSuper": 4949,
      "ĠFormulaire": 4950,
      "Ġleschten": 4951,
      "cksicht": 4952,
      "strument": 4953,
      "86": 4954,
      "Op": 4955,
      "pren": 4956,
      "uess": 4957,
      "Ġau": 4958,
      "Ġagesat": 4959,
      "Ġbil": 4960,
      "ĠMore": 4961,
      "orter": 4962,
      "ĠWiel": 4963,
      "ĠCovid": 4964,
      "ĠTÃ«sch": 4965,
      "omer": 4966,
      "uto": 4967,
      "ĠMac": 4968,
      "Ġugepasst": 4969,
      "ĠVerbindung": 4970,
      "airen": 4971,
      "ĠRespekt": 4972,
      "Ġbeaflosst": 4973,
      "rategie": 4974,
      "ĠbeschÃ¤ftegt": 4975,
      "29": 4976,
      "Komm": 4977,
      "Kont": 4978,
      "Sonn": 4979,
      "gest": 4980,
      "sw": 4981,
      "Ġsief": 4982,
      "ĠStroum": 4983,
      "ĠPropri": 4984,
      "uegd": 4985,
      "ĠChinese": 4986,
      "Ġknapp": 4987,
      "uk": 4988,
      "ĠwÃ«ssenschaft": 4989,
      "Ġhait": 4990,
      "ĠPopul": 4991,
      "ĠVit": 4992,
      "laascht": 4993,
      "richt": 4994,
      "enzÃ¤it": 4995,
      "ĠBeruff": 4996,
      "ĠKath": 4997,
      "ampf": 4998,
      "ĠufÃ¤nken": 4999,
      "ĠDokument": 5000,
      "ĠCommentaire": 5001,
      "ĠISBN": 5002,
      "LL": 5003,
      "Woch": 5004,
      "waach": 5005,
      "Ġatt": 5006,
      "ĠFrÃ©i": 5007,
      "anger": 5008,
      "izit": 5009,
      "enzeg": 5010,
      "Ġsollten": 5011,
      "klang": 5012,
      "ĠBezuch": 5013,
      "lammen": 5014,
      "ĠGeographiesartikel": 5015,
      "Ġkomb": 5016,
      "ymbol": 5017,
      "Duch": 5018,
      "nummer": 5019,
      "ĠdrÃ©": 5020,
      "Ã«pp": 5021,
      "anÃ©it": 5022,
      "Ġmass": 5023,
      "Ġwes": 5024,
      "Ġneg": 5025,
      "ori": 5026,
      "ĠFol": 5027,
      "ĠCro": 5028,
      "ĠTri": 5029,
      "eschte": 5030,
      "Ġmissen": 5031,
      "ĠCompt": 5032,
      "ĠConseil": 5033,
      "Ġvermeiden": 5034,
      "Ġrelevant": 5035,
      "Am": 5036,
      "lungs": 5037,
      "politik": 5038,
      "Ã©iung": 5039,
      "stik": 5040,
      "ĠWuesst": 5041,
      "ĠOng": 5042,
      "Ġtrans": 5043,
      "ĠgeschÃ¼tzt": 5044,
      "ĠHeem": 5045,
      "Ġdetaill": 5046,
      "Liicht": 5047,
      "mann": 5048,
      "sent": 5049,
      "ateuren": 5050,
      "ĠPet": 5051,
      "ĠBand": 5052,
      "issiounen": 5053,
      "Ġofgeschloss": 5054,
      "egrenz": 5055,
      "Ġselwechte": 5056,
      "ĠPolitiker": 5057,
      "ĠPunkten": 5058,
      "Ġjeeweil": 5059,
      "Ġverursaacht": 5060,
      "06": 5061,
      "OF": 5062,
      "da": 5063,
      "ĠMik": 5064,
      "ĠMÃ«ll": 5065,
      "ĠBank": 5066,
      "ĠEven": 5067,
      "iere": 5068,
      "ĠOsten": 5069,
      "ĠausdrÃ©ck": 5070,
      "Ġschafen": 5071,
      "Ġtreffen": 5072,
      "echnen": 5073,
      "kaaft": 5074,
      "ĠkÃ©inten": 5075,
      "ĠSÃ©cherheetsg": 5076,
      "ĠObjeten": 5077,
      "ĠstockÃ©iert": 5078,
      "ban": 5079,
      "fÃ¤ll": 5080,
      "Ġav": 5081,
      "ĠbÃ©i": 5082,
      "ĠkÃ«mm": 5083,
      "Ġnationale": 5084,
      "ĠRapport": 5085,
      "ĠNon": 5086,
      "ica": 5087,
      "loun": 5088,
      "rÃ¤n": 5089,
      "ifest": 5090,
      "ĠGesamt": 5091,
      "ĠzoustÃ¤nneg": 5092,
      "Ġextern": 5093,
      "ĠbeÃ¤": 5094,
      "Ġbezuelt": 5095,
      "ĠâĤ¬": 5096,
      "oppt": 5097,
      "ĠÃĦnnerungen": 5098,
      "Ġdispon": 5099,
      "ĠdÃ¤erf": 5100,
      "ĠUertschaft": 5101,
      "ĠBrÃ©issel": 5102,
      "Ad": 5103,
      "hen": 5104,
      "nei": 5105,
      "vill": 5106,
      "Ġ$": 5107,
      "ĠwÃ¤r": 5108,
      "ĠfÃ¤eg": 5109,
      "ĠFÃ«sch": 5110,
      "Ġpol": 5111,
      "Ã«tzen": 5112,
      "ekuckt": 5113,
      "leef": 5114,
      "ĠproduzÃ©ieren": 5115,
      "iddwer": 5116,
      "ĠGebaier": 5117,
      "uerderung": 5118,
      "Ġdrun": 5119,
      "ĠWeiderliesen": 5120,
      "ĠÃĦnnerung": 5121,
      "ĠGeheim": 5122,
      "43": 5123,
      "goen": 5124,
      "ypt": 5125,
      "itim": 5126,
      "Ġwill": 5127,
      "Ġwollt": 5128,
      "ĠEN": 5129,
      "ĠGeld": 5130,
      "ĠInn": 5131,
      "ĠJor": 5132,
      "ĠDee": 5133,
      "unnt": 5134,
      "berg": 5135,
      "izin": 5136,
      "izÃ©ieren": 5137,
      "etzung": 5138,
      "ĠReegel": 5139,
      "ĠMatiÃ¨re": 5140,
      "ĠOfkommes": 5141,
      "ĠPolen": 5142,
      "undes": 5143,
      "ĠhÃ©ijer": 5144,
      "ĠLinks": 5145,
      "ĠinformÃ©iert": 5146,
      "ĠeuropÃ¤esch": 5147,
      "oleon": 5148,
      "ĠMalay": 5149,
      "mierksamkeet": 5150,
      "ĠÃ¤hnlech": 5151,
      "Ber": 5152,
      "mÃ«tt": 5153,
      "ĠDigital": 5154,
      "once": 5155,
      "ĠFinn": 5156,
      "ĠRet": 5157,
      "iers": 5158,
      "ience": 5159,
      "ĠAmer": 5160,
      "Ġ2009": 5161,
      "ĠBesonnesch": 5162,
      "ĠGÃ©iges": 5163,
      "ĠIndones": 5164,
      "ĠHiersteller": 5165,
      "33": 5166,
      "gress": 5167,
      "Ġdier": 5168,
      "atesch": 5169,
      "ink": 5170,
      "ĠMart": 5171,
      "ĠMÃ©d": 5172,
      "ĠJav": 5173,
      "ĠJup": 5174,
      "ical": 5175,
      "Ġjur": 5176,
      "Ġlafen": 5177,
      "liw": 5178,
      "Ġwichtege": 5179,
      "ĠÃīistrÃ¤ich": 5180,
      "Ġerwaart": 5181,
      "ĠTrend": 5182,
      "ĠItalien": 5183,
      "Ġspezifesch": 5184,
      "ĠDÃ©ngschtleescht": 5185,
      "Mir": 5186,
      "enee": 5187,
      "irekt": 5188,
      "anal": 5189,
      "ĠADR": 5190,
      "ĠKur": 5191,
      "ĠLim": 5192,
      "ĠIessen": 5193,
      "riz": 5194,
      "ĠtatsÃ¤chlech": 5195,
      "inger": 5196,
      "Ġentw": 5197,
      "ĠMail": 5198,
      "Ġ2006": 5199,
      "ĠSucc": 5200,
      "hÃ¤ngegkeet": 5201,
      "sych": 5202,
      "DonnÃ©eÃ«": 5203,
      "ĠzerstÃ©iert": 5204,
      "Min": 5205,
      "haft": 5206,
      "kont": 5207,
      "ve": 5208,
      "erw": 5209,
      "Ġbannen": 5210,
      "ĠFridden": 5211,
      "ĠUeleg": 5212,
      "Ġiwwersch": 5213,
      "ular": 5214,
      "Ġunerk": 5215,
      "Ġkanns": 5216,
      "rÃ¤ft": 5217,
      "epro": 5218,
      "scheedung": 5219,
      "Ġkaaft": 5220,
      "ermeeschter": 5221,
      "einschaft": 5222,
      "ietnam": 5223,
      "Ã¼nft": 5224,
      "ĠAarte": 5225,
      "ĠEntrepren": 5226,
      "ĠVerschidde": 5227,
      "ĠSÃ©cherheetsgrÃ«nn": 5228,
      "MP": 5229,
      "dru": 5230,
      "eo": 5231,
      "ĠSoc": 5232,
      "anese": 5233,
      "Ġwien": 5234,
      "informatioun": 5235,
      "ĠKuel": 5236,
      "ĠCr": 5237,
      "ĠNatierlech": 5238,
      "Ġpost": 5239,
      "Ġhues": 5240,
      "igel": 5241,
      "Ġinf": 5242,
      "ĠEtapp": 5243,
      "2019": 5244,
      "Ġkommerz": 5245,
      "Ġ2004": 5246,
      "ĠInternetsÃ¤it": 5247,
      "iewent": 5248,
      "ĠPhot": 5249,
      "ĠTraitÃ©": 5250,
      "ĠApparat": 5251,
      "Ġzweete": 5252,
      "ĠKompetenz": 5253,
      "SE": 5254,
      "hel": 5255,
      "Ġann": 5256,
      "Ġsc": 5257,
      "Ġweb": 5258,
      "ĠPri": 5259,
      "ĠKrÃ¤iz": 5260,
      "ĠEst": 5261,
      "ĠClose": 5262,
      "Ġetabl": 5263,
      "ĠZuch": 5264,
      "ikal": 5265,
      "ĠÃĦis": 5266,
      "ried": 5267,
      "Ġgelies": 5268,
      "ecessary": 5269,
      "ĠKandid": 5270,
      "ĠRepublik": 5271,
      "ĠVerwaltung": 5272,
      "Ġmodern": 5273,
      "Ġaverstanen": 5274,
      "ĠSekonnen": 5275,
      "LU": 5276,
      "engem": 5277,
      "als": 5278,
      "ĠKre": 5279,
      "entwÃ©ck": 5280,
      "ĠWar": 5281,
      "ĠiwwerprÃ©i": 5282,
      "ĠSpanish": 5283,
      "jeten": 5284,
      "Ġ07": 5285,
      "ĠwÃ«lle": 5286,
      "Ã«ffentlech": 5287,
      "ĠLiewens": 5288,
      "www": 5289,
      "ĠTitan": 5290,
      "ĠBehandlung": 5291,
      "ĠDuerf": 5292,
      "ĠTelefon": 5293,
      "ĠSchrÃ«ftsteller": 5294,
      "99": 5295,
      "All": 5296,
      "ML": 5297,
      "di": 5298,
      "ji": 5299,
      "wn": 5300,
      "Ġagesch": 5301,
      "itel": 5302,
      "Ġobserv": 5303,
      "ĠAklang": 5304,
      "sthet": 5305,
      "eiÃŁ": 5306,
      "Ã©ierter": 5307,
      "uergung": 5308,
      "Ġendlech": 5309,
      "ash": 5310,
      "ĠofhÃ¤ngeg": 5311,
      "isÃ©ierte": 5312,
      "immlech": 5313,
      "azitÃ©it": 5314,
      "Ġbesicht": 5315,
      "rikatioun": 5316,
      "ycÃ©e": 5317,
      "ĠCharakteristik": 5318,
      "Ġstattf": 5319,
      "Detail": 5320,
      "lich": 5321,
      "liewen": 5322,
      "ala": 5323,
      "ĠKore": 5324,
      "urger": 5325,
      "ĠOut": 5326,
      "ommen": 5327,
      "leit": 5328,
      "alten": 5329,
      "rÃ¤g": 5330,
      "Schw": 5331,
      "âĢĿ,": 5332,
      "owjet": 5333,
      "Ġabegraff": 5334,
      "Ġsougenannte": 5335,
      "Ġkorrekt": 5336,
      "Ġdisponibel": 5337,
      "gor": 5338,
      "numm": 5339,
      "Ġà": 5340,
      "ĠArab": 5341,
      "Ġfoll": 5342,
      "Ġbliw": 5343,
      "ĠBon": 5344,
      "ĠTipp": 5345,
      "ĠNecessary": 5346,
      "Ġzuk": 5347,
      "ĠKonst": 5348,
      "Ġhatt": 5349,
      "Ġverbueden": 5350,
      "ĠgÃ©ing": 5351,
      "rÃ«fft": 5352,
      "ĠlÃ«tzebuergesche": 5353,
      "ĠGestioun": 5354,
      "ĠPublic": 5355,
      "ĠberÃ¼cksicht": 5356,
      "Bez": 5357,
      "Fest": 5358,
      "Pir": 5359,
      "Ġaf": 5360,
      "Ã¤sch": 5361,
      "Ġzimmlech": 5362,
      "ĠhÃ©ieren": 5363,
      "ĠGrÃ©ng": 5364,
      "rax": 5365,
      "ĠHel": 5366,
      "ĠUV": 5367,
      "angs": 5368,
      "ĠâĢĺ": 5369,
      "ĠgÃ©ifen": 5370,
      "weisen": 5371,
      "ĠBeso": 5372,
      "ĠwÃ«sse": 5373,
      "ĠFrÃ«nn": 5374,
      "Ġvisuell": 5375,
      "ĠCassini": 5376,
      "48": 5377,
      "buch": 5378,
      "fÃ©ierung": 5379,
      "hier": 5380,
      "looss": 5381,
      "ische": 5382,
      "ĠMiwwelen": 5383,
      "Ġkierper": 5384,
      "ĠBo": 5385,
      "ĠKaf": 5386,
      "raut": 5387,
      "ĠHy": 5388,
      "Ġamer": 5389,
      "ĠIndex": 5390,
      "ĠrÃ¤ich": 5391,
      "Ġvirgesinn": 5392,
      "ensioun": 5393,
      "stellt": 5394,
      "ĠGebitt": 5395,
      "Ġrichtege": 5396,
      "ĠZoustand": 5397,
      "Ġbetraff": 5398,
      "ĠBestellung": 5399,
      "ĠAktioun": 5400,
      "waltung": 5401,
      "outwendeg": 5402,
      "Ġentspriechen": 5403,
      "ĠStatistike": 5404,
      "ĠHenri": 5405,
      "ĠMobilitÃ©it": 5406,
      "39": 5407,
      "55": 5408,
      "Bild": 5409,
      "Ġide": 5410,
      "itativ": 5411,
      "Ġhanner": 5412,
      "ĠAstero": 5413,
      "ĠEmail": 5414,
      "ĠErausf": 5415,
      "ĠWel": 5416,
      "Ġpla": 5417,
      "ĠInsel": 5418,
      "essioun": 5419,
      "spir": 5420,
      "weder": 5421,
      "Ġ36": 5422,
      "ultat": 5423,
      "ĠGesetzer": 5424,
      "ĠAktivitÃ©ite": 5425,
      "Ġbehandelt": 5426,
      "ĠProvider": 5427,
      "ĠMethoden": 5428,
      "Ġbedreift": 5429,
      "Ġugesinn": 5430,
      "ĠTeam": 5431,
      "Ġnohalteg": 5432,
      "Mus": 5433,
      "ays": 5434,
      "by": 5435,
      "eel": 5436,
      "ucher": 5437,
      "Ã©igend": 5438,
      "esc": 5439,
      "Ġmaacht": 5440,
      "Ġzielt": 5441,
      "schent": 5442,
      "schrÃ«tt": 5443,
      "ĠJournal": 5444,
      "Ġervir": 5445,
      "Ġausgesch": 5446,
      "ĠChance": 5447,
      "ipl": 5448,
      "ĠzwÃ©i": 5449,
      "esserung": 5450,
      "Ġ2007": 5451,
      "ĠKontaktÃ©iert": 5452,
      "ĠMuseks": 5453,
      "droid": 5454,
      "ĠFrÃ¤iheet": 5455,
      "Ġadministr": 5456,
      "ĠPortugu": 5457,
      "ĠGÃ©igesaz": 5458,
      "78": 5459,
      "LÃ«scht": 5460,
      "elaang": 5461,
      "ĠDÃ©": 5462,
      "ĠmÃ«ttel": 5463,
      "ĠBierg": 5464,
      "ĠFaar": 5465,
      "Ġcon": 5466,
      "ĠRegist": 5467,
      "ĠLandwirtschaft": 5468,
      "profil": 5469,
      "ĠschwÃ¤tzt": 5470,
      "Ġentspriechend": 5471,
      "ĠNotzung": 5472,
      "ĠIII": 5473,
      "ĠArchitekt": 5474,
      "ĠNapoleon": 5475,
      "ĠbestÃ¤tegt": 5476,
      "ĠAffekot": 5477,
      "Ġbilden": 5478,
      "Kierch": 5479,
      "va": 5480,
      "wel": 5481,
      "ĠBrÃ©ck": 5482,
      "Ġnavig": 5483,
      "ĠKu": 5484,
      "ĠLes": 5485,
      "ĠGri": 5486,
      "ĠCatal": 5487,
      "Ã©cker": 5488,
      "isslech": 5489,
      "ĠWebsÃ¤ite": 5490,
      "ĠInternational": 5491,
      "Ġkontinu": 5492,
      "Ġerfuerder": 5493,
      "iversitÃ©it": 5494,
      "ĠAfÃ©ierung": 5495,
      "ĠRespons": 5496,
      "ĠRessourcen": 5497,
      "Ġparlamentaresch": 5498,
      "sz": 5499,
      "vest": 5500,
      "west": 5501,
      "Äį": 5502,
      "aner": 5503,
      "ĠbÃ«ssen": 5504,
      "Ġmatg": 5505,
      "iese": 5506,
      "roph": 5507,
      "ĠGeschlecht": 5508,
      "ennung": 5509,
      "ĠÃ«ffentleche": 5510,
      "Ġversuergt": 5511,
      "eefeg": 5512,
      "ĠVerwaltungs": 5513,
      "bleemer": 5514,
      "ĠintegrÃ©iert": 5515,
      "ĠRevolutioun": 5516,
      "Servicer": 5517,
      "material": 5518,
      "pf": 5519,
      "tel": 5520,
      "à¥": 5521,
      "erie": 5522,
      "ĠSand": 5523,
      "Ġwielt": 5524,
      "Ġwgl": 5525,
      "ĠColl": 5526,
      "raw": 5527,
      "ĠHigh": 5528,
      "ĠZivil": 5529,
      "ilien": 5530,
      "oth": 5531,
      "Ġenc": 5532,
      "liisslech": 5533,
      "Ġexpl": 5534,
      "ĠPremier": 5535,
      "Ġiwwerholl": 5536,
      "ĠfunktionÃ©iert": 5537,
      "ĠursprÃ©ng": 5538,
      "ĠrecommandÃ©iert": 5539,
      "Liewe": 5540,
      "lief": 5541,
      "met": 5542,
      "son": 5543,
      "ĠBÃ¤it": 5544,
      "ĠKart": 5545,
      "ĠKamera": 5546,
      "ĠEqu": 5547,
      "orial": 5548,
      "ĠDirekter": 5549,
      "ĠUran": 5550,
      "elta": 5551,
      "spl": 5552,
      "etzen": 5553,
      "qualitÃ©it": 5554,
      "ose": 5555,
      "Ġcomm": 5556,
      "ĠAlldag": 5557,
      "ergie": 5558,
      "âĢľ.": 5559,
      "zÃ¤iten": 5560,
      "ĠÃ«ffentlechen": 5561,
      "ĠOptim": 5562,
      "ĠRanking": 5563,
      "ĠBlutt": 5564,
      "Dem": 5565,
      "Kl": 5566,
      "Natur": 5567,
      "Ph": 5568,
      "RE": 5569,
      "rÃ©e": 5570,
      "Ġus": 5571,
      "unioun": 5572,
      "ĠsÃ«nn": 5573,
      "Ġwest": 5574,
      "Ġkennt": 5575,
      "ĠKÃ«scht": 5576,
      "ĠFloss": 5577,
      "idÃ©ieren": 5578,
      "ĠVerloscht": 5579,
      "izienz": 5580,
      "aard": 5581,
      "ausend": 5582,
      "ĠVirun": 5583,
      "Ġkonst": 5584,
      "ĠSue": 5585,
      "ĠElement": 5586,
      "ĠAtmosphÃ¤r": 5587,
      "ĠVerantwortung": 5588,
      "ĠEducatioun": 5589,
      "raxis": 5590,
      "Ġwonner": 5591,
      "ror": 5592,
      "ĠTab": 5593,
      "ichte": 5594,
      "anto": 5595,
      "tection": 5596,
      "Ġ2012": 5597,
      "Ġgewonnen": 5598,
      "ĠGesprÃ©i": 5599,
      "Ġgeluecht": 5600,
      "ĠgelÃ¤scht": 5601,
      "ĠAbonn": 5602,
      "ĠfrÃ©iere": 5603,
      "Ð°ÑĢ": 5604,
      "Ġentdecken": 5605,
      "ĠEgal": 5606,
      "ĠzukÃ¼nft": 5607,
      "KÃ¤schte": 5608,
      "Situatioun": 5609,
      "aaft": 5610,
      "vak": 5611,
      "zestellen": 5612,
      "ĠDE": 5613,
      "ĠSuerg": 5614,
      "ĠSens": 5615,
      "Ġfanne": 5616,
      "ĠMilitÃ¤r": 5617,
      "ĠPierre": 5618,
      "steren": 5619,
      "ĠLÃ¤ngt": 5620,
      "ĠCann": 5621,
      "ĠHar": 5622,
      "ĠTo": 5623,
      "ĠJun": 5624,
      "ionalitÃ©it": 5625,
      "ervÃ©iert": 5626,
      "ĠMetall": 5627,
      "Ġobwuel": 5628,
      "ĠMotor": 5629,
      "ĠaktualisÃ©iert": 5630,
      "ld": 5631,
      "tum": 5632,
      "Ã©ie": 5633,
      "Ġgeg": 5634,
      "eleng": 5635,
      "egesch": 5636,
      "ĠMuecht": 5637,
      "ĠKad": 5638,
      "ĠEisen": 5639,
      "ĠEmpf": 5640,
      "ona": 5641,
      "ĠFourn": 5642,
      "Ġlanc": 5643,
      "ollar": 5644,
      "ĠAndeems": 5645,
      "Ġreng": 5646,
      "ĠgewÃ«sse": 5647,
      "Ġ2005": 5648,
      "Ġkompet": 5649,
      "Ãĭnner": 5650,
      "Ġhistoresch": 5651,
      "ĠreegelmÃ©isseg": 5652,
      "ĠauslÃ¤nn": 5653,
      "EC": 5654,
      "kÃ©ier": 5655,
      "erst": 5656,
      "ĠDeb": 5657,
      "ĠzÃ©ng": 5658,
      "rof": 5659,
      "ĠRicht": 5660,
      "Ġpart": 5661,
      "loi": 5662,
      "Ġ2011": 5663,
      "atures": 5664,
      "ĠUfuerderunge": 5665,
      "Ġplus": 5666,
      "ĠPhilipp": 5667,
      "iques": 5668,
      "ĠItalian": 5669,
      "Ġapplic": 5670,
      "ĠSÃ¼den": 5671,
      "Ġessentiell": 5672,
      "graphie": 5673,
      "ĠIntegratioun": 5674,
      "AL": 5675,
      "cy": 5676,
      "wÃ©inst": 5677,
      "Ġill": 5678,
      "ĠBett": 5679,
      "Ġnatier": 5680,
      "ĠLidder": 5681,
      "ĠLycÃ©e": 5682,
      "uerd": 5683,
      "ĠGutt": 5684,
      "ĠCSV": 5685,
      "ĠVoll": 5686,
      "ikum": 5687,
      "Ġ35": 5688,
      "Ġrecht": 5689,
      "Ġ500": 5690,
      "ĠVirdeel": 5691,
      "Ġkomplex": 5692,
      "ĠentwÃ©ckelen": 5693,
      "ĠCode": 5694,
      "selwecht": 5695,
      "Ġnormal": 5696,
      "ĠAdministratioun": 5697,
      "ĠBuergermeeschter": 5698,
      "Ġniddreg": 5699,
      "\")": 5700,
      "binatioun": 5701,
      "pol": 5702,
      "Ġdon": 5703,
      "ĠDan": 5704,
      "Ġhall": 5705,
      "ĠderbÃ¤i": 5706,
      "Ġkg": 5707,
      "eideg": 5708,
      "ĠJud": 5709,
      "andel": 5710,
      "istesche": 5711,
      "spart": 5712,
      "echnologie": 5713,
      "ĠÃĭmfeld": 5714,
      "ube": 5715,
      "ĠDemokrat": 5716,
      "ĠGeor": 5717,
      "esetzung": 5718,
      "liner": 5719,
      "ĠOffer": 5720,
      "ĠVertrieder": 5721,
      "ĠHellege": 5722,
      "date": 5723,
      "oi": 5724,
      "ÃŃ": 5725,
      "Ġbemier": 5726,
      "ĠPomp": 5727,
      "ĠFin": 5728,
      "ĠTaux": 5729,
      "Ġport": 5730,
      "lapp": 5731,
      "Ã«tzer": 5732,
      "ĠVerl": 5733,
      "ezunn": 5734,
      "aarden": 5735,
      "resultater": 5736,
      "Ġselwechten": 5737,
      "Ġinternationale": 5738,
      "ĠInfos": 5739,
      "ĠZiler": 5740,
      "ĠSchlÃ«sselwierder": 5741,
      "ĠDoriwwer": 5742,
      "ouvernement": 5743,
      "ĠBitcoin": 5744,
      "ĠSmart": 5745,
      "Fl": 5746,
      "Ref": 5747,
      "bit": 5748,
      "Ġglo": 5749,
      "elwecht": 5750,
      "Ġkathoul": 5751,
      "ĠBek": 5752,
      "Ġvere": 5753,
      "ĠOperatioun": 5754,
      "ĠschrÃ«ft": 5755,
      "igratioun": 5756,
      "ĠJohn": 5757,
      "ĠPlastik": 5758,
      "ĠFluch": 5759,
      "Ġ90": 5760,
      "ĠSystemer": 5761,
      "ĠRisiko": 5762,
      "Organisatioun": 5763,
      "44": 5764,
      "Bel": 5765,
      "ET": 5766,
      "OD": 5767,
      "ĠrÃ©im": 5768,
      "egungen": 5769,
      "ĠBra": 5770,
      "ĠKal": 5771,
      "ĠEv": 5772,
      "ĠHÃ¤erz": 5773,
      "ulpt": 5774,
      "Ġentweder": 5775,
      "mÃ©igen": 5776,
      "ĠServer": 5777,
      "Ġelektresch": 5778,
      "redit": 5779,
      "ĠPhilosoph": 5780,
      "gewiicht": 5781,
      "ĠBusiness": 5782,
      "ĠGeographie": 5783,
      "Ã«ftung": 5784,
      "Ã¼chtling": 5785,
      "Ġerstallt": 5786,
      "Ġerzielt": 5787,
      "ĠAccessibilitÃ©it": 5788,
      "br": 5789,
      "eff": 5790,
      "ĠSit": 5791,
      "Ġmag": 5792,
      "Ġwi": 5793,
      "inc": 5794,
      "inar": 5795,
      "ĠVietnam": 5796,
      "Ġerg": 5797,
      "Ġersat": 5798,
      "ized": 5799,
      "ĠFirst": 5800,
      "ips": 5801,
      "cept": 5802,
      "lug": 5803,
      "firm": 5804,
      "ugel": 5805,
      "onditioune": 5806,
      "Ġkonkret": 5807,
      "ĠPolic": 5808,
      "Informatiounen": 5809,
      "ĠWeekend": 5810,
      "Of": 5811,
      "asch": 5812,
      "iÃ¨": 5813,
      "woch": 5814,
      "ĠSaache": 5815,
      "ĠLag": 5816,
      "ĠLauscht": 5817,
      "ĠNep": 5818,
      "achs": 5819,
      "ĠJur": 5820,
      "amen": 5821,
      "ĠermÃ©iglechen": 5822,
      "abin": 5823,
      "ads": 5824,
      "Ġsoud": 5825,
      "ission": 5826,
      "auspiller": 5827,
      "genden": 5828,
      "Ġgewi": 5829,
      "ĠEngagement": 5830,
      "2021": 5831,
      "Veraarbechtung": 5832,
      "link": 5833,
      "ĠGeschÃ¤fter": 5834,
      "ĠKoordin": 5835,
      "Ġprepar": 5836,
      "ĠMinutten": 5837,
      "-,": 5838,
      "FP": 5839,
      "Th": 5840,
      "aun": 5841,
      "jes": 5842,
      "Ã¤mm": 5843,
      "ĠDicht": 5844,
      "ĠzÃ©ien": 5845,
      "ĠMos": 5846,
      "ĠBal": 5847,
      "ĠKris": 5848,
      "ebel": 5849,
      "Ġiwwerd": 5850,
      "ĠKonkur": 5851,
      "ĠonbestÃ«mm": 5852,
      "ĠReaktioun": 5853,
      "ĠReegelen": 5854,
      "ĠPhysik": 5855,
      "Ġmengt": 5856,
      "ĠNorden": 5857,
      "ĠExperten": 5858,
      "ĠBeschreiwung": 5859,
      "Ġernimm": 5860,
      "ĠÃĭnnert": 5861,
      "Ġrepresent": 5862,
      "ĠInstallatioun": 5863,
      "Ġzirka": 5864,
      "gorith": 5865,
      "ĠonbestÃ«mmten": 5866,
      "AS": 5867,
      "aÃ": 5868,
      "dÃ©i": 5869,
      "Ġgoung": 5870,
      "ĠmÃ¤i": 5871,
      "Ġheefeg": 5872,
      "ĠWueren": 5873,
      "ĠVict": 5874,
      "urt": 5875,
      "ĠlÃ©isen": 5876,
      "ussball": 5877,
      "Ġindustri": 5878,
      "aser": 5879,
      "isseur": 5880,
      "ausende": 5881,
      "Ġgefeiert": 5882,
      "Ã¼nd": 5883,
      "ĠPanor": 5884,
      "ĠdiskutÃ©iert": 5885,
      "ĠkombinÃ©iert": 5886,
      "ĠdetaillÃ©iert": 5887,
      "Ġunerkannt": 5888,
      "Funkt": 5889,
      "Gew": 5890,
      "Grenz": 5891,
      "OS": 5892,
      "Politik": 5893,
      "Ur": 5894,
      "Ġgle": 5895,
      "etesch": 5896,
      "Ġservice": 5897,
      "anet": 5898,
      "Ġantik": 5899,
      "Ġwahrscheinlech": 5900,
      "rol": 5901,
      "Ġfalen": 5902,
      "ĠMÃ«ss": 5903,
      "oup": 5904,
      "ĠLiewe": 5905,
      "ĠWeier": 5906,
      "schaf": 5907,
      "ĠCours": 5908,
      "ĠClub": 5909,
      "ierwen": 5910,
      "ikat": 5911,
      "ews": 5912,
      "oot": 5913,
      "rÃ©int": 5914,
      "ĠDatei": 5915,
      "Ġhate": 5916,
      "Ġbehaapt": 5917,
      "zeginn": 5918,
      "ĠberÃ¼hm": 5919,
      "aine": 5920,
      "grupp": 5921,
      "mes": 5922,
      "Ġ]": 5923,
      "ĠDidd": 5924,
      "ĠSyn": 5925,
      "anche": 5926,
      "ĠMult": 5927,
      "ĠNaz": 5928,
      "onnÃ©es": 5929,
      "rÃ©ischt": 5930,
      "imum": 5931,
      "ĠAccord": 5932,
      "ĠeuropÃ¤esche": 5933,
      "Ġdisable": 5934,
      "ĠlimitÃ©ierten": 5935,
      "Ġpermanent": 5936,
      "ĠEntrepreneur": 5937,
      "Ġgewiescht": 5938,
      "89": 5939,
      "vun": 5940,
      "Ġdroen": 5941,
      "Ã©en": 5942,
      "ĠDieren": 5943,
      "ĠSiicht": 5944,
      "ĠSerg": 5945,
      "ĠSign": 5946,
      "ani": 5947,
      "Ġfonctionn": 5948,
      "inner": 5949,
      "verg": 5950,
      "ĠDÃ©ifferd": 5951,
      "Ġlass": 5952,
      "ĠQual": 5953,
      "ĠQuart": 5954,
      "Insel": 5955,
      "Ġopgedeelt": 5956,
      "ntwerten": 5957,
      "ĠInvestitioun": 5958,
      "Resultater": 5959,
      "ografie": 5960,
      "skontrakt": 5961,
      "ĠUranus": 5962,
      "DF": 5963,
      "Sc": 5964,
      "eedung": 5965,
      "ĠÃ¤nnert": 5966,
      "Ġwiess": 5967,
      "ĠCas": 5968,
      "ĠHi": 5969,
      "ĠHerzog": 5970,
      "Ġpassen": 5971,
      "Ġiwwerall": 5972,
      "Ġenk": 5973,
      "Ġstabil": 5974,
      "Ġdob": 5975,
      "Ġvirdru": 5976,
      "Ġsex": 5977,
      "ĠMaschinnen": 5978,
      "Ġweidere": 5979,
      "Ġdauert": 5980,
      "ĠIwwersetz": 5981,
      "ĠParticip": 5982,
      "ĠInternetsite": 5983,
      "offer": 5984,
      "Ġfestgeluecht": 5985,
      "ĠBeim": 5986,
      "fferot": 5987,
      "Ġverantwortlecht": 5988,
      "ĠapplizÃ©iert": 5989,
      "Block": 5990,
      "lb": 5991,
      "wei": 5992,
      "Î»": 5993,
      "emaachen": 5994,
      "ara": 5995,
      "ĠMutt": 5996,
      "ĠGare": 5997,
      "ĠRub": 5998,
      "ĠTom": 5999,
      "ĠTonnen": 6000,
      "ronk": 6001,
      "epter": 6002,
      "ĠSex": 6003,
      "ĠPris": 6004,
      "ĠverstÃ¤erkt": 6005,
      "aison": 6006,
      "ĠExpert": 6007,
      "ĠChristus": 6008,
      "ĠEenheet": 6009,
      "ĠGoÃ»": 6010,
      "ĠTelefons": 6011,
      "ĠWieler": 6012,
      "valu": 6013,
      "ĠInstrument": 6014,
      ");": 6015,
      "briechen": 6016,
      "cours": 6017,
      "eck": 6018,
      "elmÃ©isseg": 6019,
      "ssp": 6020,
      "ĠAI": 6021,
      "ĠKÃ¤er": 6022,
      "ĠKampf": 6023,
      "Ġverkaaft": 6024,
      "ĠJon": 6025,
      "izient": 6026,
      "ĠÃ«mgesat": 6027,
      "aarten": 6028,
      "smoossnam": 6029,
      "ĠQuantitÃ©it": 6030,
      "Ġgeplangt": 6031,
      "ĠSchÃ¤fferot": 6032,
      "DuchÃ©": 6033,
      "Ġapplicabel": 6034,
      "07": 6035,
      "56": 6036,
      "Den": 6037,
      "frÃ¤i": 6038,
      "froen": 6039,
      "geet": 6040,
      "linn": 6041,
      "mass": 6042,
      "erap": 6043,
      "Ġgra": 6044,
      "ĠDrÃ¤i": 6045,
      "Ġhandelen": 6046,
      "ĠAarm": 6047,
      "Ġbr": 6048,
      "ĠMiess": 6049,
      "ĠBauer": 6050,
      "ĠNic": 6051,
      "Ã¤iz": 6052,
      "ĠStill": 6053,
      "Ġalen": 6054,
      "ĠWebsite": 6055,
      "iichtung": 6056,
      "opesch": 6057,
      "esprooch": 6058,
      "Ġdirekten": 6059,
      "ĠverlÃ¤ng": 6060,
      "aangenheet": 6061,
      "ranspar": 6062,
      "Ġbedeitend": 6063,
      "ĠAttribut": 6064,
      "ĠFortschrÃ«tt": 6065,
      "ĠPropriet": 6066,
      "yle": 6067,
      "Ġ!": 6068,
      "ĠDr": 6069,
      "ĠSy": 6070,
      "ĠSant": 6071,
      "Ġmot": 6072,
      "ines": 6073,
      "usk": 6074,
      "ĠRos": 6075,
      "ĠNach": 6076,
      "ĠdogÃ©int": 6077,
      "ĠÃ«nnerst": 6078,
      "Ġrezent": 6079,
      "ĠZÃ¤iten": 6080,
      "anks": 6081,
      "ĠÃĭmstÃ¤nn": 6082,
      "Produkt": 6083,
      "ralung": 6084,
      "Ġallgemenge": 6085,
      "boom": 6086,
      "grÃ«ff": 6087,
      "ĠCommunautÃ©it": 6088,
      "ĠEnseign": 6089,
      "DÃ©i": 6090,
      "eau": 6091,
      "zesetzen": 6092,
      "ĠgÃ¤ren": 6093,
      "Ġhun": 6094,
      "Ġfueren": 6095,
      "ĠMoy": 6096,
      "ĠKi": 6097,
      "ĠLith": 6098,
      "ĠIm": 6099,
      "ĠZald": 6100,
      "formation": 6101,
      "Ġ186": 6102,
      "Ġ189": 6103,
      "ĠAusgab": 6104,
      "ondon": 6105,
      "ĠAarbechtskontrakt": 6106,
      "ĠBesucher": 6107,
      "ĠEffort": 6108,
      "ĠProduiten": 6109,
      "ĠEntreprisen": 6110,
      "ĠBÃ¼ro": 6111,
      "Ġverfollegen": 6112,
      "OR": 6113,
      "SÃ©cherheet": 6114,
      "Ġir": 6115,
      "ĠDrÃ©i": 6116,
      "ĠSiten": 6117,
      "roche": 6118,
      "strooss": 6119,
      "ĠBibel": 6120,
      "ĠBundes": 6121,
      "ĠKÃ¤schte": 6122,
      "ĠKoop": 6123,
      "eill": 6124,
      "ĠGold": 6125,
      "ebauen": 6126,
      "Ġluxembourg": 6127,
      "Ġ(\"": 6128,
      "ĠProbleemer": 6129,
      "Ġenorm": 6130,
      "abis": 6131,
      "adder": 6132,
      "ĠAlli": 6133,
      "ĠAusrÃ¼stung": 6134,
      "rauwen": 6135,
      "ongol": 6136,
      "ĠGebuer": 6137,
      "Ġwichtegst": 6138,
      "ruktioun": 6139,
      "Ġongew": 6140,
      "ĠTechnologien": 6141,
      "ĠOptioun": 6142,
      "Ġmisse": 6143,
      "ĠGuide": 6144,
      "ĠreliÃ©is": 6145,
      "ĠBibl": 6146,
      "Ġimpl": 6147,
      "emploi": 6148,
      "ĠLogement": 6149,
      "Ġjonke": 6150,
      "ĠConcert": 6151,
      "ĠGeleeÃ«nheet": 6152,
      "ĠRÃ©im": 6153,
      "Ġtraditionell": 6154,
      "liefnes": 6155,
      "jesboom": 6156,
      "ĠKoopjesboom": 6157,
      "net": 6158,
      "wuert": 6159,
      "eranto": 6160,
      "Ġvari": 6161,
      "ĠDie": 6162,
      "Ġanert": 6163,
      "index": 6164,
      "ĠICO": 6165,
      "ebank": 6166,
      "ierz": 6167,
      "ĠVOF": 6168,
      "ĠZy": 6169,
      "Ġleider": 6170,
      "ĠausgesÃ¤it": 6171,
      "ĠVereen": 6172,
      "isseuren": 6173,
      "rÃ¤cht": 6174,
      "ĠAlt": 6175,
      "Ġweiderhin": 6176,
      "Ã«nschen": 6177,
      "ofhÃ¤ngegkeet": 6178,
      "ottes": 6179,
      "sproch": 6180,
      "Sprooch": 6181,
      "ĠGroussb": 6182,
      "ÑĢÐ": 6183,
      "ĠLegisl": 6184,
      "Ġindirekt": 6185,
      "avigatioun": 6186,
      "Exp": 6187,
      "ĠFernand": 6188,
      "ĠHannergrond": 6189,
      "ĠmÃ«ttler": 6190,
      "ĠPanorama": 6191,
      "Vers": 6192,
      "na": 6193,
      "oix": 6194,
      "ĠMooss": 6195,
      "ĠEquipe": 6196,
      "ĠLondon": 6197,
      "ebild": 6198,
      "Ġamplaz": 6199,
      "ĠJac": 6200,
      "tere": 6201,
      "ĠDokter": 6202,
      "ifi": 6203,
      "Ã¤chst": 6204,
      "ĠOpmierksamkeet": 6205,
      "ĠPluto": 6206,
      "ĠParam": 6207,
      "ritann": 6208,
      "ĠdrÃ©it": 6209,
      "Ġextrem": 6210,
      "ierfnesser": 6211,
      "Resultat": 6212,
      "Ġindivid": 6213,
      "ĠGedanken": 6214,
      "ĠMoien": 6215,
      "CDI": 6216,
      "ĠMÃ©dia": 6217,
      "Ġkommerziell": 6218,
      "Ġwebsite": 6219,
      "Ġbliwwen": 6220,
      "senz": 6221,
      "ĠdonnÃ©es": 6222,
      "Ã©m": 6223,
      "ĠAv": 6224,
      "ĠRa": 6225,
      "Ã«ttelen": 6226,
      "imlech": 6227,
      "ingen": 6228,
      "rÃ¤ie": 6229,
      "ĠAltern": 6230,
      "wecker": 6231,
      "Ġbekannte": 6232,
      "ddi": 6233,
      "ĠBildung": 6234,
      "ĠGraf": 6235,
      "ĠdÃ¤itsche": 6236,
      "Ġbeafloss": 6237,
      "Ġgleewen": 6238,
      "47": 6239,
      "prÃ¤isser": 6240,
      "wÃ«ll": 6241,
      "yth": 6242,
      "Ã¤ss": 6243,
      "Ã¤cht": 6244,
      "irc": 6245,
      "ĠSen": 6246,
      "rout": 6247,
      "ĠBescht": 6248,
      "ĠBulg": 6249,
      "ĠKeefer": 6250,
      "derland": 6251,
      "ebunn": 6252,
      "ĠVak": 6253,
      "olatioun": 6254,
      "Ã«tter": 6255,
      "ĠDeen": 6256,
      "Ġiwwerze": 6257,
      "ood": 6258,
      "ĠVermÃ©igen": 6259,
      "ranÃ§": 6260,
      "ungsmÃ©iglechkeet": 6261,
      "ĠBenotzungsbed": 6262,
      "Ġprot": 6263,
      "Ġ2003": 6264,
      "ĠFlÃ¼chtling": 6265,
      "ĠKleng": 6266,
      "Ġweder": 6267,
      "ĠbehÃ¤lt": 6268,
      "resentatioun": 6269,
      "ĠdrÃ«m": 6270,
      "Ġbegleet": 6271,
      "ĠUrs": 6272,
      "ĠGruppen": 6273,
      "ĠVertrauen": 6274,
      "ĠSolid": 6275,
      "ĠLatv": 6276,
      "Ġmaximal": 6277,
      "02": 6278,
      "Fot": 6279,
      "Famill": 6280,
      "Int": 6281,
      "Mat": 6282,
      "Material": 6283,
      "Tra": 6284,
      "eft": 6285,
      "eechnung": 6286,
      "Ġoblig": 6287,
      "ĠfÃ¼r": 6288,
      "ĠbÃ«lleg": 6289,
      "ĠKri": 6290,
      "ĠEmp": 6291,
      "ĠLux": 6292,
      "ĠCol": 6293,
      "olv": 6294,
      "Ġlog": 6295,
      "ehr": 6296,
      "kennung": 6297,
      "ĠgewÃ«ssen": 6298,
      "2020": 6299,
      "ĠÂ°": 6300,
      "Ġrout": 6301,
      "ĠgestÃ«mmt": 6302,
      "ĠPolice": 6303,
      "ĠZenter": 6304,
      "ĠBeweis": 6305,
      "ĠFleesch": 6306,
      "funktioun": 6307,
      "ĠKonfli": 6308,
      "ĠJupiter": 6309,
      ".:": 6310,
      "PS": 6311,
      "Um": 6312,
      "dis": 6313,
      "https": 6314,
      "atell": 6315,
      "ĠfÃ«rder": 6316,
      "ĠHaiser": 6317,
      "ĠNam": 6318,
      "deed": 6319,
      "ĠOste": 6320,
      "edaktioun": 6321,
      "ĠStrÃ¤it": 6322,
      "ĠVerd": 6323,
      "Ġ300": 6324,
      "ĠgelÃ©iert": 6325,
      "ĠPartie": 6326,
      "ĠNummer": 6327,
      "ĠTrain": 6328,
      "ĠOffre": 6329,
      "ĠAtel": 6330,
      "zegoen": 6331,
      "ifizÃ©ierung": 6332,
      "ĠkontaktÃ©ieren": 6333,
      "ĠWiem": 6334,
      "ĠEsperanto": 6335,
      "Onliner": 6336,
      "ĠAustausch": 6337,
      "Ġdefinitiv": 6338,
      "raschall": 6339,
      "ĠGeheimnis": 6340,
      "Onlineredaktioun": 6341,
      "Kap": 6342,
      "Wuert": 6343,
      "bas": 6344,
      "Ġdeng": 6345,
      "Ġhinne": 6346,
      "Ġeel": 6347,
      "ĠBah": 6348,
      "Ġniewent": 6349,
      "ĠCor": 6350,
      "ĠHÃ¤nn": 6351,
      "ierkt": 6352,
      "Ã«nnegt": 6353,
      "ĠDeutsch": 6354,
      "ollÃ¤nn": 6355,
      "uls": 6356,
      "Ġtyp": 6357,
      "asa": 6358,
      "quem": 6359,
      "ĠMarken": 6360,
      "Ġbezitt": 6361,
      "ĠErfarung": 6362,
      "Ġaktueller": 6363,
      "ĠLuucht": 6364,
      "ĠinformÃ©ieren": 6365,
      "ĠInteressi": 6366,
      "zeloossen": 6367,
      "ĠRobert": 6368,
      "Ġnotze": 6369,
      "osphÃ¤r": 6370,
      "ĠAen": 6371,
      "ĠAlex": 6372,
      "inter": 6373,
      "ĠFonct": 6374,
      "ĠCamp": 6375,
      "Ġausgeschloss": 6376,
      "otal": 6377,
      "Ġrue": 6378,
      "iance": 6379,
      "Ã¨ren": 6380,
      "ĠMath": 6381,
      "Ġ2002": 6382,
      "ergew": 6383,
      "ĠPrÃ¤islÃ«scht": 6384,
      "ousek": 6385,
      "Ġzweeter": 6386,
      "ancen": 6387,
      "ĠGemeinschaft": 6388,
      "Bierger": 6389,
      "UM": 6390,
      "mier": 6391,
      "uv": 6392,
      "Ġduerg": 6393,
      "chs": 6394,
      "ĠDet": 6395,
      "ĠDomat": 6396,
      "ĠAkommes": 6397,
      "ars": 6398,
      "Ġeeler": 6399,
      "ĠKino": 6400,
      "uerf": 6401,
      "wert": 6402,
      "ĠHeb": 6403,
      "ladress": 6404,
      "ĠStull": 6405,
      "Ġerhalen": 6406,
      "utÃ©ieren": 6407,
      "ĠtrÃ«tt": 6408,
      "Ġren": 6409,
      "Ġviraus": 6410,
      "opl": 6411,
      "ĠErz": 6412,
      "Ġgeschw": 6413,
      "ergottes": 6414,
      "Ã¤nnerung": 6415,
      "ĠOfschloss": 6416,
      "ĠSchwÃ©ier": 6417,
      "ĠHaaptstad": 6418,
      "ĠMedik": 6419,
      "ĠlÃ«tzebuerger": 6420,
      "Ġbehalen": 6421,
      "ĠvergrÃ©iss": 6422,
      "ĠKapital": 6423,
      "ĠdÃ¤itschen": 6424,
      "ĠTrÃ©ier": 6425,
      "Ġkonnte": 6426,
      "ategorized": 6427,
      "ĠIdentitÃ©it": 6428,
      "Ġprivat": 6429,
      "ĠhÃ©chst": 6430,
      "hui": 6431,
      "ĠlÃ©nks": 6432,
      "ĠCannabis": 6433,
      "Ġsoudatt": 6434,
      "Press": 6435,
      "oungen": 6436,
      "put": 6437,
      "sweis": 6438,
      "zuch": 6439,
      "ateien": 6440,
      "arater": 6441,
      "Ġnoutwendeg": 6442,
      "ĠGekuckt": 6443,
      "ĠCity": 6444,
      "ieur": 6445,
      "ĠTV": 6446,
      "ĠTÃ©l": 6447,
      "ĠTatsaach": 6448,
      "rick": 6449,
      "amil": 6450,
      "ĠerÃ«nnert": 6451,
      "Ã«nster": 6452,
      "ialisÃ©iert": 6453,
      "ensiounen": 6454,
      "ĠEngland": 6455,
      "php": 6456,
      "ĠanalysÃ©iert": 6457,
      "ĠPersoune": 6458,
      "ĠlÃ«tzebuergescher": 6459,
      "ĠAktualitÃ©it": 6460,
      "ĠZentral": 6461,
      "Ġdovunner": 6462,
      "ĠSchnÃ©i": 6463,
      "ĠKommentar": 6464,
      "ĠSchlÃ«sselwieder": 6465,
      "ĠTagged": 6466,
      "ĠHome": 6467,
      "ĠLuxemburg": 6468,
      "Ġamerikan": 6469,
      "ritannien": 6470,
      "GrÃ©isst": 6471,
      "IR": 6472,
      "UewerflÃ¤ch": 6473,
      "auert": 6474,
      "sdag": 6475,
      "esen": 6476,
      "Ġma": 6477,
      "Ġho": 6478,
      "Ġdeier": 6479,
      "Ġfla": 6480,
      "ĠPÃ©it": 6481,
      "ĠPos": 6482,
      "alisatioun": 6483,
      "ĠKeng": 6484,
      "ĠLÃ©nk": 6485,
      "ĠUerd": 6486,
      "ĠÃĦerz": 6487,
      "Ġschm": 6488,
      "Ġschreift": 6489,
      "Ġganzt": 6490,
      "ĠMauer": 6491,
      "udd": 6492,
      "gens": 6493,
      "Ġelim": 6494,
      "ĠRealitÃ©it": 6495,
      "ĠBerlin": 6496,
      "Ġ2001": 6497,
      "ĠÃĭmgang": 6498,
      "Ġbeant": 6499,
      "Ġberuff": 6500,
      "Ġausgel": 6501,
      "ĠApplikatioun": 6502,
      "ousen": 6503,
      "ĠInfrast": 6504,
      "Ġsuergt": 6505,
      "ĠKonditiounen": 6506,
      "ĠÃīischte": 6507,
      "ĠGlÃ©ck": 6508,
      "ĠJoseph": 6509,
      "ĠlancÃ©iert": 6510,
      "77": 6511,
      "WÃ¤hrung": 6512,
      "iá": 6513,
      "ienten": 6514,
      "jÃ¤r": 6515,
      "ĠAbs": 6516,
      "ĠMalt": 6517,
      "ĠEc": 6518,
      "ĠEenz": 6519,
      "ĠLoc": 6520,
      "ĠGoss": 6521,
      "ĠIV": 6522,
      "ieu": 6523,
      "rew": 6524,
      "ream": 6525,
      "reedung": 6526,
      "âĢĻâĢĻ": 6527,
      "spiller": 6528,
      "Ġindustrie": 6529,
      "ques": 6530,
      "ĠDoheem": 6531,
      "Ġgewuer": 6532,
      "ernach": 6533,
      "geleet": 6534,
      "atoresch": 6535,
      "Ġkruten": 6536,
      "ĠMembere": 6537,
      "ĠIddien": 6538,
      "ĠGalax": 6539,
      "elzecht": 6540,
      "ĠLieser": 6541,
      "ĠAudiod": 6542,
      "ĠInitiativ": 6543,
      "ĠDeputÃ©ierten": 6544,
      "ĠHerrschaft": 6545,
      "ĠetablÃ©iert": 6546,
      "Gef": 6547,
      "Opt": 6548,
      "Pol": 6549,
      "Zesumm": 6550,
      "dest": 6551,
      "mt": 6552,
      "sinn": 6553,
      "ton": 6554,
      "wiel": 6555,
      "ĠdÃ©ck": 6556,
      "Ã¤h": 6557,
      "Ġzielen": 6558,
      "umen": 6559,
      "inder": 6560,
      "ĠnÃ«r": 6561,
      "ĠWalloun": 6562,
      "ĠCN": 6563,
      "ĠCam": 6564,
      "ĠCarte": 6565,
      "ĠOst": 6566,
      "Ġliew": 6567,
      "ĠURL": 6568,
      "ĠProzedur": 6569,
      "ĠProzesser": 6570,
      "Ġentsch": 6571,
      "Ġofgesch": 6572,
      "olitesch": 6573,
      "produktioun": 6574,
      "undament": 6575,
      "ĠGrÃ«nnung": 6576,
      "ĠKommentare": 6577,
      "Ġverkafen": 6578,
      "ĠEntreprise": 6579,
      "ĠKritik": 6580,
      "ĠbeantrÃ¤cht": 6581,
      "ĠAudiodateien": 6582,
      "46": 6583,
      "Lin": 6584,
      "bes": 6585,
      "fra": 6586,
      "han": 6587,
      "itÃ¤r": 6588,
      "inÃ©ieren": 6589,
      "edizin": 6590,
      "ĠschÃ©ckt": 6591,
      "pport": 6592,
      "Ã¼b": 6593,
      "ĠChoix": 6594,
      "altung": 6595,
      "Ã¤erten": 6596,
      "ations": 6597,
      "genland": 6598,
      "Ġ56": 6599,
      "ĠQuellen": 6600,
      "yster": 6601,
      "Ġklenger": 6602,
      "ĠÃĭnnerhalt": 6603,
      "ĠYou": 6604,
      "Ġgehollef": 6605,
      "ĠReklam": 6606,
      "ĠHallef": 6607,
      "ĠLiest": 6608,
      "ĠAufgaben": 6609,
      "konomie": 6610,
      "reffend": 6611,
      "Ġliest": 6612,
      "ĠSerge": 6613,
      "Ġbeaflossen": 6614,
      "ĠFonctiounen": 6615,
      "Roll": 6616,
      "cast": 6617,
      "method": 6618,
      "âĤ¬": 6619,
      "ĠDou": 6620,
      "Ġmoossen": 6621,
      "uman": 6622,
      "ĠAth": 6623,
      "ĠLU": 6624,
      "ref": 6625,
      "ĠerÃ«nneren": 6626,
      "ivÃ©iert": 6627,
      "eeÃ«r": 6628,
      "iichter": 6629,
      "reiung": 6630,
      "ĠInformatiouns": 6631,
      "uelle": 6632,
      "ake": 6633,
      "uechter": 6634,
      "ĠResistenz": 6635,
      "ĠPrÃ«nz": 6636,
      "ĠGeorg": 6637,
      "Ġmengem": 6638,
      "Ġ1999": 6639,
      "ĠEdit": 6640,
      "ĠÃ«nnerschriwwen": 6641,
      "ĠKinnekrÃ¤ich": 6642,
      "ĠUfroDetail": 6643,
      "ĠStudenten": 6644,
      "ĠCentre": 6645,
      "Sich": 6646,
      "Wann": 6647,
      "cis": 6648,
      "meeschter": 6649,
      "Ã³": 6650,
      "Ð¹": 6651,
      "Ġval": 6652,
      "ĠSom": 6653,
      "Ġfrou": 6654,
      "ĠMel": 6655,
      "ĠGust": 6656,
      "ĠRass": 6657,
      "ĠREU": 6658,
      "Ġversp": 6659,
      "ĠZur": 6660,
      "ĠSpann": 6661,
      "ĠAndroid": 6662,
      "ĠSÃ¤ite": 6663,
      "ĠonmÃ©iglech": 6664,
      "uropa": 6665,
      "ĠMarath": 6666,
      "riede": 6667,
      "ĠzoustÃ¤nn": 6668,
      "ĠPersonn": 6669,
      "ĠAutoen": 6670,
      "Schoul": 6671,
      "ĠregelmÃ©isseg": 6672,
      "ĠFrang": 6673,
      "ĠFrÃ«nd": 6674,
      "Ġentsteet": 6675,
      "zeduren": 6676,
      "ĠdÃ¤itscher": 6677,
      "ĠEkipp": 6678,
      "ĠResponsabilitÃ©it": 6679,
      "ĠDÃ©ifferdeng": 6680,
      "ĠREUSE": 6681,
      "49": 6682,
      "Member": 6683,
      "Mai": 6684,
      "dder": 6685,
      "modell": 6686,
      "rusioun": 6687,
      "erce": 6688,
      "Ġhonnert": 6689,
      "ĠbÃ¤": 6690,
      "ĠKaz": 6691,
      "ĠRod": 6692,
      "ĠHond": 6693,
      "ĠTian": 6694,
      "ĠZÃ¤nn": 6695,
      "ĠOcc": 6696,
      "Ġland": 6697,
      "kennt": 6698,
      "udder": 6699,
      "degt": 6700,
      "Ġkomme": 6701,
      "flekt": 6702,
      "produkter": 6703,
      "Ġregist": 6704,
      "Ġ1990": 6705,
      "ĠShare": 6706,
      "ĠLiteraturwÃ«ssenschaft": 6707,
      "Ġentstinn": 6708,
      "ĠVerfassung": 6709,
      "Ġkoumen": 6710,
      "ĠAluminiumprofil": 6711,
      "ĠDossier": 6712,
      "ĠTags": 6713,
      "ĠkonzentrÃ©iert": 6714,
      "ĠDÃ©ngschtleeschtunge": 6715,
      "ĠCharakteristiken": 6716,
      "Ġkierperlech": 6717,
      "Ġencourag": 6718,
      "Cla": 6719,
      "Enn": 6720,
      "Luucht": 6721,
      "TML": 6722,
      "Ġdach": 6723,
      "Ġmon": 6724,
      "ĠMÃ¤r": 6725,
      "ĠderwÃ¤ert": 6726,
      "ĠBos": 6727,
      "ĠKÃ¶l": 6728,
      "ĠLager": 6729,
      "ĠFonctionn": 6730,
      "ĠWill": 6731,
      "ĠGanzen": 6732,
      "ĠHor": 6733,
      "ĠTatsÃ¤chlech": 6734,
      "Ġleescht": 6735,
      "arten": 6736,
      "Ġvirber": 6737,
      "Ġzouzeloossen": 6738,
      "Ġopgel": 6739,
      "Ġkascht": 6740,
      "ĠGeschichten": 6741,
      "ĠScience": 6742,
      "ĠTechnik": 6743,
      "Ġversicht": 6744,
      "ĠFreed": 6745,
      "uppel": 6746,
      "Virdeeler": 6747,
      "Ġugebuedenen": 6748,
      "ĠCreative": 6749,
      "Ġwesentlech": 6750,
      "ĠLauschteren": 6751,
      "BL": 6752,
      "equ": 6753,
      "uz": 6754,
      "ĠSin": 6755,
      "emools": 6756,
      "ĠAMP": 6757,
      "arb": 6758,
      "Ġfuerder": 6759,
      "ĠLive": 6760,
      "ĠverÃ¤nnert": 6761,
      "ĠZeit": 6762,
      "esten": 6763,
      "ĠStonn": 6764,
      "lof": 6765,
      "spi": 6766,
      "formance": 6767,
      "quis": 6768,
      "plang": 6769,
      "Ġausgew": 6770,
      "ĠBlanche": 6771,
      "ĠWaasserstoff": 6772,
      "ĠVergaangenheet": 6773,
      "ĠprÃ¤zis": 6774,
      "ĠBewÃ¤ert": 6775,
      "ĠHierscht": 6776,
      "ĠFakten": 6777,
      "ĠProfit": 6778,
      "ĠidentifizÃ©ieren": 6779,
      "ĠMediathÃ©ik": 6780,
      "Ġnegativ": 6781,
      "ĠSuccÃ¨s": 6782,
      "ĠGroussbritannien": 6783,
      "Mailadress": 6784,
      "37": 6785,
      "500": 6786,
      "Fil": 6787,
      "Ger": 6788,
      "bew": 6789,
      "ranz": 6790,
      "well": 6791,
      "zon": 6792,
      "Ġdeelt": 6793,
      "ĠAN": 6794,
      "ĠLoy": 6795,
      "ĠHoff": 6796,
      "ĠVI": 6797,
      "ulÃ©ieren": 6798,
      "ĠJoeren": 6799,
      "Ġvirgestallt": 6800,
      "ĠreagÃ©iert": 6801,
      "ĠAlles": 6802,
      "obacht": 6803,
      "ĠFormen": 6804,
      "alyse": 6805,
      "ĠApproche": 6806,
      "Ġbeschriwwen": 6807,
      "Ġbetruecht": 6808,
      "ĠMÃ«tteg": 6809,
      "ĠverhÃ«nnert": 6810,
      "ambre": 6811,
      "Ġgetraff": 6812,
      "elbst": 6813,
      "ĠAdministr": 6814,
      "ĠDuerno": 6815,
      "ITA": 6816,
      "ĠKritt": 6817,
      "Ġfortgesch": 6818,
      "Ġwirtschaftlech": 6819,
      "ĠMoossnamen": 6820,
      "ĠPhilippe": 6821,
      "ungsmÃ©iglechkeete": 6822,
      "58": 6823,
      "Best": 6824,
      "Eng": 6825,
      "Per": 6826,
      "gy": 6827,
      "erÃ¤ich": 6828,
      "Ġdonk": 6829,
      "Ġat": 6830,
      "Ġgouvernement": 6831,
      "ĠDelta": 6832,
      "ĠDollar": 6833,
      "itle": 6834,
      "ischen": 6835,
      "ĠMem": 6836,
      "ĠMobil": 6837,
      "ĠLÃ©i": 6838,
      "ĠLab": 6839,
      "ĠRieder": 6840,
      "ĠNiew": 6841,
      "ĠNiwwel": 6842,
      "Ġpm": 6843,
      "las": 6844,
      "ĠIngen": 6845,
      "itÃ©ite": 6846,
      "Ã¼ll": 6847,
      "ĠrÃ©ck": 6848,
      "Ġnodeem": 6849,
      "Ã©inlechkeet": 6850,
      "Ã«schen": 6851,
      "Ġgelieft": 6852,
      "ĠGebied": 6853,
      "Ġbereet": 6854,
      "rench": 6855,
      "ĠDrÃ«ttpers": 6856,
      "ĠPatron": 6857,
      "ĠPublikum": 6858,
      "ĠInvestitiounen": 6859,
      "Ġsougenannten": 6860,
      "ĠKarl": 6861,
      "portÃ©iert": 6862,
      "Ã¤mpfen": 6863,
      "ĠErwuessen": 6864,
      "ĠMajoritÃ©it": 6865,
      "ĠMikro": 6866,
      "ĠbeantrÃ¤chtegen": 6867,
      "GD": 6868,
      "The": 6869,
      "Vert": 6870,
      "__": 6871,
      "jektiv": 6872,
      "kung": 6873,
      "áĢ": 6874,
      "ĠÙ": 6875,
      "ĠÃ«": 6876,
      "eschl": 6877,
      "ĠGarant": 6878,
      "ĠIde": 6879,
      "Ġzef": 6880,
      "raktiv": 6881,
      "ĠHaff": 6882,
      "ĠSchauspiller": 6883,
      "ĠÃĦntwerten": 6884,
      "asi": 6885,
      "asy": 6886,
      "osen": 6887,
      "Ġreflekt": 6888,
      "epolitik": 6889,
      "Ġugek": 6890,
      "oosse": 6891,
      "Ġverbreet": 6892,
      "Ġerfaasst": 6893,
      "ERT": 6894,
      "Ġbetreffen": 6895,
      "Ġausserhalb": 6896,
      "ĠAccident": 6897,
      "ĠorganisÃ©ieren": 6898,
      "uropÃ¤esch": 6899,
      "ĠRelatioun": 6900,
      "ĠNotzungsbed": 6901,
      "ĠReferenz": 6902,
      "Ġugesi": 6903,
      "Ġgesetzleche": 6904,
      "ĠBurgenland": 6905,
      "Temperatur": 6906,
      "leg": 6907,
      "zÃ©ien": 6908,
      "Ã¤sser": 6909,
      "ĠDR": 6910,
      "ĠSil": 6911,
      "Ġmm": 6912,
      "stronom": 6913,
      "Ġnon": 6914,
      "Ġschliisslech": 6915,
      "ekon": 6916,
      "auegkeet": 6917,
      "Ġ400": 6918,
      "ĠZÃ¤itpunkt": 6919,
      "Ġcm": 6920,
      "Strooss": 6921,
      "Ġkomment": 6922,
      "ĠbeschtmÃ©iglecht": 6923,
      "ĠStaaten": 6924,
      "Ġleschter": 6925,
      "ĠgrÃ©isser": 6926,
      "ĠBestand": 6927,
      "Ġsoziale": 6928,
      "Ġyour": 6929,
      "ĠGlawen": 6930,
      "ĠFaktoren": 6931,
      "ĠreservÃ©iert": 6932,
      "ĠAstronomie": 6933,
      "Ġaussergew": 6934,
      "ĠPalais": 6935,
      "ĠLiwwerung": 6936,
      "ĠAusstellung": 6937,
      "Ġbedeel": 6938,
      "Ġattraktiv": 6939,
      "Ġadministrativ": 6940,
      "Ġiwwerdroen": 6941,
      "BlockÃ©iere": 6942,
      "Bet": 6943,
      "eois": 6944,
      "gem": 6945,
      "lant": 6946,
      "zeb": 6947,
      "ĠDim": 6948,
      "ana": 6949,
      "Ġzitt": 6950,
      "Ġzimlech": 6951,
      "ĠPotenz": 6952,
      "ĠBÃ©ier": 6953,
      "ĠFax": 6954,
      "ĠRuff": 6955,
      "urno": 6956,
      "ĠÃĹ": 6957,
      "ĠProstat": 6958,
      "ibil": 6959,
      "ĠGemenge": 6960,
      "Ġbeinhalt": 6961,
      "Ġbequem": 6962,
      "ĠFilmer": 6963,
      "ĠakzeptÃ©ieren": 6964,
      "uerschung": 6965,
      "ographie": 6966,
      "Erliefnes": 6967,
      "ĠGefor": 6968,
      "Ġ1945": 6969,
      "ĠOrth": 6970,
      "ĠNotzungsmÃ©iglechkeete": 6971,
      "ĠÃĦnnerunge": 6972,
      "ĠfransÃ©ischer": 6973,
      "ĠFrÃ¤izÃ¤it": 6974,
      "ĠChristian": 6975,
      "ĠWesten": 6976,
      "ĠUwendungen": 6977,
      "ĠAfrikaans": 6978,
      "ĠFrÃ©ijoer": 6979,
      "ĠPolicy": 6980,
      "ĠGoÃ»t": 6981,
      "Ġhoffen": 6982,
      "100": 6983,
      "Be": 6984,
      "Fond": 6985,
      "Impf": 6986,
      "Kons": 6987,
      "Su": 6988,
      "hou": 6989,
      "wou": 6990,
      "zisioun": 6991,
      "Ġzwe": 6992,
      "ĠAir": 6993,
      "inent": 6994,
      "ĠMÃ©in": 6995,
      "ĠBreet": 6996,
      "ĠWe": 6997,
      "ĠWidder": 6998,
      "ĠGaler": 6999,
      "ĠToun": 7000,
      "riwwer": 7001,
      "Ġloosst": 7002,
      "ĠUewen": 7003,
      "Ġschon": 7004,
      "ĠEntdeckung": 7005,
      "ĠImpress": 7006,
      "Ã«ld": 7007,
      "oncen": 7008,
      "ĠOptiounen": 7009,
      "ĠerklÃ¤ren": 7010,
      "ĠFuerscher": 7011,
      "Ġugebuede": 7012,
      "koratioun": 7013,
      "Ġgesetzlech": 7014,
      "ĠUltraschall": 7015,
      "ĠobservÃ©iert": 7016,
      "ĠTipps": 7017,
      "ĠFaarwen": 7018,
      "ĠGeorges": 7019,
      "):": 7020,
      "Ann": 7021,
      "Cons": 7022,
      "Iddi": 7023,
      "aiss": 7024,
      "fert": 7025,
      "sministÃ¨re": 7026,
      "zech": 7027,
      "zek": 7028,
      "ÛĮ": 7029,
      "erweis": 7030,
      "Ġdivers": 7031,
      "itatioun": 7032,
      "itte": 7033,
      "Ġfree": 7034,
      "alog": 7035,
      "ĠFeld": 7036,
      "ĠVue": 7037,
      "ĠOK": 7038,
      "ĠJuegd": 7039,
      "ffent": 7040,
      "ĠStreck": 7041,
      "utch": 7042,
      "Ã©cksiicht": 7043,
      "spunkt": 7044,
      "verwaltung": 7045,
      "Ġwouduerch": 7046,
      "ĠgenÃ©issen": 7047,
      "erdam": 7048,
      "Ġriicht": 7049,
      "ĠhÃ©ichwÃ¤ert": 7050,
      "Ġ150": 7051,
      "ĠGeschichtÃĦnneren": 7052,
      "Ã¤hrungen": 7053,
      "ovatioun": 7054,
      "ĠSchwaar": 7055,
      "ĠApparater": 7056,
      "ĠzrÃ©ckg": 7057,
      "ĠbetrÃ«fft": 7058,
      "Ġabonn": 7059,
      "ĠPlanÃ©iten": 7060,
      "Ġsougenannt": 7061,
      "ĠMÃ©iglechkeeten": 7062,
      "riginal": 7063,
      "ĠWichteg": 7064,
      "Ġmassiv": 7065,
      "Ġdobauss": 7066,
      "32": 7067,
      "38": 7068,
      "57": 7069,
      "AD": 7070,
      "Daten": 7071,
      "icher": 7072,
      "lementer": 7073,
      "wikipedia": 7074,
      "erei": 7075,
      "Ġmus": 7076,
      "ĠhollÃ¤nn": 7077,
      "ĠAc": 7078,
      "ĠMer": 7079,
      "ĠMongol": 7080,
      "ĠPs": 7081,
      "ĠKennt": 7082,
      "ĠEin": 7083,
      "ĠWh": 7084,
      "ĠHard": 7085,
      "ĠJonk": 7086,
      "Ġiwwerra": 7087,
      "ĠVerz": 7088,
      "Ġjiddwer": 7089,
      "Ġugesch": 7090,
      "ativitÃ©it": 7091,
      "ĠverbrÃ©ngen": 7092,
      "ĠPlanzen": 7093,
      "ĠPlack": 7094,
      "akÃ©it": 7095,
      "ympt": 7096,
      "ĠMindest": 7097,
      "ĠSujet": 7098,
      "Ġopgebaut": 7099,
      "ĠÐĳ": 7100,
      "ĠdrÃ«nner": 7101,
      "ĠIntellig": 7102,
      "ĠAnnonce": 7103,
      "ĠautomatisÃ©iert": 7104,
      "oopst": 7105,
      "ĠinvestÃ©iert": 7106,
      "Ġelektronesch": 7107,
      "ĠUerdnung": 7108,
      "31": 7109,
      "88": 7110,
      "FT": 7111,
      "News": 7112,
      "Waasser": 7113,
      "gt": 7114,
      "har": 7115,
      "kierper": 7116,
      "title": 7117,
      "Ġital": 7118,
      "atian": 7119,
      "Ġmedezin": 7120,
      "Ġben": 7121,
      "ĠBil": 7122,
      "ĠLÃ©ck": 7123,
      "ĠGerman": 7124,
      "usion": 7125,
      "ĠRoy": 7126,
      "ĠCR": 7127,
      "ellekt": 7128,
      "ĠHub": 7129,
      "ĠÃ¼": 7130,
      "ĠDirekt": 7131,
      "ĠPromotioun": 7132,
      "Ġstruktur": 7133,
      "Ġstrikt": 7134,
      "versch": 7135,
      "Ġverschafft": 7136,
      "ceint": 7137,
      "klar": 7138,
      "ĠViraus": 7139,
      "Ġgeform": 7140,
      "ĠManifest": 7141,
      "Ġdesign": 7142,
      "ĠmÃ¤cht": 7143,
      "ĠStroossen": 7144,
      "ĠSerb": 7145,
      "Ġeffizient": 7146,
      "archie": 7147,
      "Ġgetrennt": 7148,
      "ĠinvestÃ©ieren": 7149,
      "Ġprofessionn": 7150,
      "ĠKleederschaf": 7151,
      "ĠFranÃ§ois": 7152,
      "ĠstudÃ©iert": 7153,
      "ĠTurk": 7154,
      "ĠstÃ¤erken": 7155,
      "ĠEvenementer": 7156,
      "ĠkontinuÃ©ierlech": 7157,
      "ĠschrÃ«ftlech": 7158,
      "ceinture": 7159,
      "Hand": 7160,
      "daten": 7161,
      "go": 7162,
      "hann": 7163,
      "kap": 7164,
      "mound": 7165,
      "ura": 7166,
      "une": 7167,
      "ĠDav": 7168,
      "ĠSel": 7169,
      "Ġwuessen": 7170,
      "ĠPas": 7171,
      "ĠBots": 7172,
      "ĠRied": 7173,
      "Ġverz": 7174,
      "efall": 7175,
      "ichtbar": 7176,
      "Ġunzef": 7177,
      "ask": 7178,
      "quote": 7179,
      "period": 7180,
      "uster": 7181,
      "ĠEntscheedung": 7182,
      "Ã¤tzen": 7183,
      "rÃ©nk": 7184,
      "ĠAarbechtsp": 7185,
      "ĠZuelen": 7186,
      "ĠZesummesetzung": 7187,
      "ĠgÃ©ife": 7188,
      "ĠSonnesystem": 7189,
      "ĠSÃ©cherheetsmoossnam": 7190,
      "ĠLuxembourgish": 7191,
      "oldid": 7192,
      "ĠModeller": 7193,
      "ĠSalari": 7194,
      "Ġlegitim": 7195,
      "wegian": 7196,
      "igaspi": 7197,
      "ĠBrudder": 7198,
      "ĠNotturno": 7199,
      "entwÃ©ckelen": 7200,
      "Ġwiesselen": 7201,
      "ĠKÃ¶ln": 7202,
      "MS": 7203,
      "US": 7204,
      "gÃ¤nger": 7205,
      "likatiounen": 7206,
      "pektiv": 7207,
      "ĠÃ¤n": 7208,
      "erkennen": 7209,
      "ĠdÃ«nn": 7210,
      "Ġaacht": 7211,
      "ati": 7212,
      "Ġsin": 7213,
      "ĠSammlung": 7214,
      "eme": 7215,
      "Ġme": 7216,
      "ĠfÃ¤lt": 7217,
      "ĠPraxis": 7218,
      "ĠPoopst": 7219,
      "ĠFelder": 7220,
      "ellungen": 7221,
      "ĠHung": 7222,
      "erte": 7223,
      "edish": 7224,
      "ĠStuf": 7225,
      "otzen": 7226,
      "ĠDown": 7227,
      "alenner": 7228,
      "ĠAlgorith": 7229,
      "ĠBenotzt": 7230,
      "odung": 7231,
      "stelle": 7232,
      "Ġgehalen": 7233,
      "ĠPersÃ©inlechkeet": 7234,
      "ĠGebidder": 7235,
      "Inter": 7236,
      "ĠFlÃ«ss": 7237,
      "own": 7238,
      "ĠTeleskop": 7239,
      "ĠGuy": 7240,
      "Ġpolitesche": 7241,
      "ĠFunktionalitÃ©it": 7242,
      "Ġjidderee": 7243,
      "ESTI": 7244,
      "Ġgudden": 7245,
      "Ġart": 7246,
      "ĠgenerÃ©iert": 7247,
      "Ġerlieft": 7248,
      "ĠidentifizÃ©iert": 7249,
      "ĠInstrumenter": 7250,
      "ĠRestaurant": 7251,
      "ĠVÃ«lo": 7252,
      "ĠbÃ©ide": 7253,
      "Ġjuristesch": 7254,
      "ĠfÃ«rderen": 7255,
      "PrÃ¤is": 7256,
      "oom": 7257,
      "ĠPandemie": 7258,
      "ĠBre": 7259,
      "Ġnationalen": 7260,
      "ĠKle": 7261,
      "eip": 7262,
      "eich": 7263,
      "ĠGast": 7264,
      "ĠRh": 7265,
      "raffen": 7266,
      "ĠNÃ«mmen": 7267,
      "estoff": 7268,
      "ĠInc": 7269,
      "ussendlech": 7270,
      "Ġgesicht": 7271,
      "opro": 7272,
      "Ġgrousst": 7273,
      "lueden": 7274,
      "ĠBenotzungs": 7275,
      "ĠRegiounen": 7276,
      "Ġdeemol": 7277,
      "ĠSecteur": 7278,
      "Ġexp": 7279,
      "Ġlaangfristeg": 7280,
      "check": 7281,
      "prozess": 7282,
      "kommissioun": 7283,
      "ĠberÃ©cksiicht": 7284,
      "ĠkÃ©inte": 7285,
      "Ġaktuelle": 7286,
      "ĠBedingunge": 7287,
      "ĠWÃ¤erter": 7288,
      "Ã©tÃ©": 7289,
      "ĠfunktionÃ©ieren": 7290,
      "sproocheg": 7291,
      "Ġaverstan": 7292,
      "Ġexzellent": 7293,
      "ĠKanton": 7294,
      "ĠMagnÃ©it": 7295,
      "ĠSchÃ©inheet": 7296,
      "ĠÃ«nnerlÃ¤it": 7297,
      "ĠkÃ«mmeren": 7298,
      "ĠGesprÃ©ich": 7299,
      "ĠKoordinaten": 7300,
      "ĠPrisong": 7301,
      "'\"": 7302,
      "71": 7303,
      "],": 7304,
      "hÃ«llef": 7305,
      "rÃ©it": 7306,
      "uum": 7307,
      "×Ļ": 7308,
      "itement": 7309,
      "ĠmilitÃ¤r": 7310,
      "ĠAblÃ©ck": 7311,
      "ĠModer": 7312,
      "Ġeid": 7313,
      "onde": 7314,
      "ĠWon": 7315,
      "ĠGar": 7316,
      "ĠHu": 7317,
      "urm": 7318,
      "agram": 7319,
      "spektioun": 7320,
      "allel": 7321,
      "quell": 7322,
      "Ã¤nz": 7323,
      "gere": 7324,
      "Ã«schung": 7325,
      "Ġbesichen": 7326,
      "âĢĿ.": 7327,
      "Ġausgest": 7328,
      "ahn": 7329,
      "Ġaktuellen": 7330,
      "Ġofginn": 7331,
      "ĠUrsp": 7332,
      "ĠIndivid": 7333,
      "Ġphys": 7334,
      "uanian": 7335,
      "ĠInteressen": 7336,
      "ĠpresentÃ©ieren": 7337,
      "ĠGrof": 7338,
      "Maria": 7339,
      "ĠautorisÃ©iert": 7340,
      "ĠMÃ«nsche": 7341,
      "ĠwÃ«ssenschaftlech": 7342,
      "Ġexplizit": 7343,
      "ĠDemokratie": 7344,
      "Ġflaach": 7345,
      "ĠbÃ¤id": 7346,
      "ĠTianhui": 7347,
      "ĠDRIV": 7348,
      "Plaz": 7349,
      "jo": 7350,
      "missioun": 7351,
      "sl": 7352,
      "ĠDall": 7353,
      "Ġhaart": 7354,
      "ĠMich": 7355,
      "Ġkategor": 7356,
      "oule": 7357,
      "ĠCap": 7358,
      "mmer": 7359,
      "Ġlo": 7360,
      "amenter": 7361,
      "echternach": 7362,
      "Ġtransport": 7363,
      "rÃ©ie": 7364,
      "ĠWebinar": 7365,
      "geruff": 7366,
      "ĠMarch": 7367,
      "ĠUnzuel": 7368,
      "ĠMinett": 7369,
      "ĠFlichten": 7370,
      "play": 7371,
      "sgeescht": 7372,
      "ĠschwÃ¤tze": 7373,
      "ĠaktivÃ©iert": 7374,
      "ĠvollstÃ¤nneg": 7375,
      "ĠAllgemengen": 7376,
      "iothÃ©ik": 7377,
      "atterie": 7378,
      "Parlament": 7379,
      "uygens": 7380,
      "CookiÃ«": 7381,
      "Äįina": 7382,
      "ĠQuartier": 7383,
      "ousekranz": 7384,
      "76": 7385,
      "AktivitÃ©it": 7386,
      "Co": 7387,
      "PI": 7388,
      "Spill": 7389,
      "TA": 7390,
      "buerg": 7391,
      "gaangen": 7392,
      "nd": 7393,
      "rÃ«scht": 7394,
      "Ã©v": 7395,
      "Ã©iwer": 7396,
      "Ã¤egkeet": 7397,
      "ĠDÃ¤it": 7398,
      "ĠSauer": 7399,
      "ĠAffer": 7400,
      "initioun": 7401,
      "Ġblo": 7402,
      "ĠMechan": 7403,
      "Ġev": 7404,
      "ĠKam": 7405,
      "ĠLing": 7406,
      "ĠWuel": 7407,
      "ĠRousekranz": 7408,
      "ĠHaw": 7409,
      "Ġpasst": 7410,
      "ridd": 7411,
      "ĠZert": 7412,
      "idol": 7413,
      "Ġeriwwer": 7414,
      "ĠSchonn": 7415,
      "ĠUer": 7416,
      "Ġinspir": 7417,
      "ĠArg": 7418,
      "Ġonbed": 7419,
      "odcast": 7420,
      "ĠAusnam": 7421,
      "fluch": 7422,
      "ergel": 7423,
      "uba": 7424,
      "ĠOrganisatiounen": 7425,
      "ĠkomplizÃ©iert": 7426,
      "ĠSchmelz": 7427,
      "ĠdiskutÃ©ieren": 7428,
      "ĠMesuren": 7429,
      "ĠGefierer": 7430,
      "ĠLÃ©isungen": 7431,
      "fferenz": 7432,
      "Ġernimmt": 7433,
      "Ech": 7434,
      "Kraaft": 7435,
      "Pr": 7436,
      "fÃ¤lt": 7437,
      "kaart": 7438,
      "loossen": 7439,
      "leeft": 7440,
      "nken": 7441,
      "regen": 7442,
      "à´": 7443,
      "Ġsub": 7444,
      "anesche": 7445,
      "itor": 7446,
      "ĠAs": 7447,
      "ĠBord": 7448,
      "ĠEll": 7449,
      "ĠLaut": 7450,
      "ĠLay": 7451,
      "rak": 7452,
      "ĠNA": 7453,
      "ĠOper": 7454,
      "andic": 7455,
      "Ġliwwert": 7456,
      "leenen": 7457,
      "osa": 7458,
      "ĠNof": 7459,
      "gence": 7460,
      "Ġgeschaf": 7461,
      "gesellschaft": 7462,
      "Ã¶h": 7463,
      "ĠÃ«nners": 7464,
      "ĠZesumme": 7465,
      "ĠspezialisÃ©iert": 7466,
      "ĠFeature": 7467,
      "ĠhÃ«llefe": 7468,
      "ÑģÑ": 7469,
      "ĠÃ«nnerscheet": 7470,
      "Ġextra": 7471,
      "Ġvertrueden": 7472,
      "Ġschlussendlech": 7473,
      "ĠDecember": 7474,
      "statistik": 7475,
      "ĠUpdate": 7476,
      "ĠblockÃ©iert": 7477,
      "ĠPopulatioun": 7478,
      "daags": 7479,
      "ĠCrÃ¨": 7480,
      "Ġmatgedeelt": 7481,
      "ĠDRIVER": 7482,
      "Ab": 7483,
      "Do": 7484,
      "HÃ©i": 7485,
      "beh": 7486,
      "bai": 7487,
      "dum": 7488,
      "dÃ©ieren": 7489,
      "fort": 7490,
      "ja": 7491,
      "ness": 7492,
      "rel": 7493,
      "Ã©on": 7494,
      "ĠDÃ©c": 7495,
      "irk": 7496,
      "Ġsystem": 7497,
      "Ġmoment": 7498,
      "Ġwoll": 7499,
      "Ã©ierbar": 7500,
      "Ġfillen": 7501,
      "ouse": 7502,
      "ĠBast": 7503,
      "ĠEtt": 7504,
      "orisatioun": 7505,
      "ĠLoosst": 7506,
      "schreiwen": 7507,
      "Ã«nnegung": 7508,
      "ĠZwer": 7509,
      "ific": 7510,
      "ĠgewÃ«nscht": 7511,
      "ĠAusdrock": 7512,
      "ugu": 7513,
      "Stand": 7514,
      "ĠBerichter": 7515,
      "ĠPrior": 7516,
      "Ã«rm": 7517,
      "Ġzweeten": 7518,
      "ĠGeneral": 7519,
      "ĠAngola": 7520,
      "ĠHellegkeet": 7521,
      "ĠfransÃ©ischen": 7522,
      "ĠEuropÃ¤esche": 7523,
      "Ã¶rder": 7524,
      "ĠexistÃ©iert": 7525,
      "Ġaussch": 7526,
      "Ġbeweegt": 7527,
      "Ġdomadder": 7528,
      "raping": 7529,
      "ĠOppositioun": 7530,
      "ĠEntrepreneursgeescht": 7531,
      "ĠAttribution": 7532,
      "Ġfortgeschratt": 7533,
      "ESTIGE": 7534,
      "Dir": 7535,
      "Fab": 7536,
      "Grond": 7537,
      "Rel": 7538,
      "TER": 7539,
      "gaang": 7540,
      "ibl": 7541,
      "}}": 7542,
      "ĠØ§": 7543,
      "enu": 7544,
      "Ã«bs": 7545,
      "Ã¤cher": 7546,
      "ĠDutch": 7547,
      "Ġbem": 7548,
      "egungs": 7549,
      "ĠPack": 7550,
      "Ġeent": 7551,
      "ĠLach": 7552,
      "ĠTemp": 7553,
      "ĠZoul": 7554,
      "ĠOder": 7555,
      "enotzt": 7556,
      "istent": 7557,
      "ican": 7558,
      "igr": 7559,
      "etzt": 7560,
      "ĠDateien": 7561,
      "ĠDatebank": 7562,
      "blemer": 7563,
      "maschinnen": 7564,
      "ĠPlus": 7565,
      "stein": 7566,
      "ĠUni": 7567,
      "ĠAarbechter": 7568,
      "ĠpersÃ©inleche": 7569,
      "Ġverloossen": 7570,
      "deels": 7571,
      "ĠBetrag": 7572,
      "ĠQualitÃ©its": 7573,
      "Ġcharakter": 7574,
      "aktivÃ©iert": 7575,
      "olas": 7576,
      "ĠHistoriker": 7577,
      "Share": 7578,
      "ĠBÃ¤itrag": 7579,
      "ĠugekÃ«nnegt": 7580,
      "ĠUrspronk": 7581,
      "75": 7582,
      "eem": 7583,
      "falt": 7584,
      "vat": 7585,
      "Ġque": 7586,
      "ĪĴ": 7587,
      "ĠDaach": 7588,
      "emap": 7589,
      "rock": 7590,
      "Ġfaire": 7591,
      "Ġkal": 7592,
      "ĠBann": 7593,
      "ĠBeet": 7594,
      "ĠBart": 7595,
      "ĠBeweegung": 7596,
      "ĠFried": 7597,
      "ĠFrench": 7598,
      "ĠOw": 7599,
      "istescher": 7600,
      "ĠSpaass": 7601,
      "ĠâĢĭ": 7602,
      "ĠdowÃ©inst": 7603,
      "ĠIwwerwaach": 7604,
      "Ġzouverl": 7605,
      "Ġbetreffend": 7606,
      "ocker": 7607,
      "ĠVerbesserung": 7608,
      "Ã¼gt": 7609,
      "ĠMÃ«ttwoch": 7610,
      "Ġdovu": 7611,
      "box": 7612,
      "ĠproposÃ©ieren": 7613,
      "ables": 7614,
      "Ġubelaang": 7615,
      "ĠMotioun": 7616,
      "Alike": 7617,
      "ĠChrÃ«schtdag": 7618,
      "Haaptstad": 7619,
      "ĠElektro": 7620,
      "ĠrealisÃ©iert": 7621,
      "ĠMessage": 7622,
      "ĠReenert": 7623,
      "egeschaft": 7624,
      "Ġubelaangt": 7625,
      "Grouss": 7626,
      "gner": 7627,
      "Ġ;": 7628,
      "ĠDann": 7629,
      "Ġmyster": 7630,
      "Ġfreet": 7631,
      "ĠPir": 7632,
      "ĠIechternach": 7633,
      "ĠTruppen": 7634,
      "ĠNout": 7635,
      "Ġverflicht": 7636,
      "omen": 7637,
      "ĠSchieb": 7638,
      "very": 7639,
      "ĠDatt": 7640,
      "ĠzwÃ©in": 7641,
      "ĠReglement": 7642,
      "Ġkengem": 7643,
      "Ġpersonn": 7644,
      "ĠManager": 7645,
      "Ġinvolv": 7646,
      "visioun": 7647,
      "ĠCorona": 7648,
      "Ġextrah": 7649,
      "logie": 7650,
      "Ġ1940": 7651,
      "ĠPosts": 7652,
      "ĠKapitel": 7653,
      "ĠInstitutiounen": 7654,
      "desdaags": 7655,
      "ĠFestival": 7656,
      "ĠArchiv": 7657,
      "ĠDÃ©iereschutz": 7658,
      "ĠTraditioun": 7659,
      "Ġkonsequ": 7660,
      "ĠGreek": 7661,
      "ĠPRESTIGE": 7662,
      "verstÃ¤ndnis": 7663,
      "Ġdigitale": 7664,
      "ĠAmerika": 7665,
      "42": 7666,
      "85": 7667,
      "Di": 7668,
      "ganz": 7669,
      "grouss": 7670,
      "holl": 7671,
      "kÃ¤schte": 7672,
      "enf": 7673,
      "unes": 7674,
      "Ġgu": 7675,
      "ĠKop": 7676,
      "eierd": 7677,
      "ĠFlu": 7678,
      "ĠGrÃ©iss": 7679,
      "ĠRem": 7680,
      "ĠRSS": 7681,
      "ĠNopesch": 7682,
      "ĠNavigatioun": 7683,
      "lagen": 7684,
      "ĠlÃ©iert": 7685,
      "iwwerer": 7686,
      "isteschen": 7687,
      "Ġstoen": 7688,
      "izont": 7689,
      "Ġgesond": 7690,
      "Ġweideren": 7691,
      "Ġgefl": 7692,
      "ished": 7693,
      "ĠSubst": 7694,
      "Ġextensiv": 7695,
      "ĠgÃ©igesÃ¤it": 7696,
      "ĠAdel": 7697,
      "Ġroueg": 7698,
      "ĠOnofhÃ¤ngegkeet": 7699,
      "indi": 7700,
      "ĠYuan": 7701,
      "ĠsÃ©cherzestellen": 7702,
      "ĠSchoulen": 7703,
      "film": 7704,
      "ĠprofitÃ©iert": 7705,
      "Ġthat": 7706,
      "Ġtherm": 7707,
      "ĠkontaktÃ©iere": 7708,
      "ĠrespektÃ©iert": 7709,
      "ĠConcours": 7710,
      "ĠPortugal": 7711,
      "rimÃ¤r": 7712,
      "ĠHotel": 7713,
      "Linken": 7714,
      "ĠFonctionnement": 7715,
      "Newsletter": 7716,
      "ĠZouliwwerer": 7717,
      "Bl": 7718,
      "GEN": 7719,
      "acken": 7720,
      "pen": 7721,
      "press": 7722,
      "zy": 7723,
      "ªŀ": 7724,
      "ÙĬ": 7725,
      "èªŀ": 7726,
      "Ġbieden": 7727,
      "egte": 7728,
      "ĠMÃ¼n": 7729,
      "Ġkuer": 7730,
      "ĠkÃ«nscht": 7731,
      "ĠBoun": 7732,
      "ĠLamp": 7733,
      "onscht": 7734,
      "ĠFach": 7735,
      "ĠWork": 7736,
      "ĠTÃ«scht": 7737,
      "omet": 7738,
      "schter": 7739,
      "Ġstreng": 7740,
      "Ġins": 7741,
      "Ġrestaur": 7742,
      "ĠMain": 7743,
      "ĠKonz": 7744,
      "gesp": 7745,
      "essere": 7746,
      "checker": 7747,
      "programm": 7748,
      "ĠerfÃ«llt": 7749,
      "ĠPolish": 7750,
      "ĠRefer": 7751,
      "Ã¤llt": 7752,
      "ĠNorwegian": 7753,
      "ĠObwuel": 7754,
      "ĠDiÃ¤t": 7755,
      "hÃ¤ltnis": 7756,
      "ĠGemÃ©is": 7757,
      "Ġwaarden": 7758,
      "ÃīI": 7759,
      "sdauer": 7760,
      "Ġspezifesche": 7761,
      "ĠHimmelsk": 7762,
      "ĠRomanian": 7763,
      "ĠSwedish": 7764,
      "ĠWuesstem": 7765,
      "ĠMÃ«llech": 7766,
      "Ġideal": 7767,
      "Ġausgeschafft": 7768,
      "ĠursprÃ©nglech": 7769,
      "ĠBenotzungsbedingunge": 7770,
      "Kur": 7771,
      "LS": 7772,
      "Sim": 7773,
      "face": 7774,
      "grÃ©isst": 7775,
      "hol": 7776,
      "keit": 7777,
      "lÃ«tzebuerg": 7778,
      "tlech": 7779,
      "ÙĦ": 7780,
      "ĠDanish": 7781,
      "ĠSelbst": 7782,
      "Ã©ierungen": 7783,
      "ĠMand": 7784,
      "ĠMil": 7785,
      "ĠPÃ«nsch": 7786,
      "ĠPlug": 7787,
      "ĠWalen": 7788,
      "ĠCzech": 7789,
      "Ã¤if": 7790,
      "ĠStrukturen": 7791,
      "Ġerkennen": 7792,
      "elten": 7793,
      "Ã©nger": 7794,
      "ranche": 7795,
      "ĠAment": 7796,
      "ĠgeschÃ©ien": 7797,
      "ĠMarie": 7798,
      "ĠVirus": 7799,
      "mÃ©iss": 7800,
      "ettings": 7801,
      "Ġopgemaach": 7802,
      "Ġeenzege": 7803,
      "ĠInstagram": 7804,
      "ĠFeatures": 7805,
      "ĠAktiounen": 7806,
      "ĠInvas": 7807,
      "gebitt": 7808,
      "Ġgudder": 7809,
      "ĠSpaweckÃĦnneren": 7810,
      "ĠGlas": 7811,
      "ĠFabrÃ©ck": 7812,
      "ĠElektron": 7813,
      "DonnÃ©eÃ«n": 7814,
      "skontroll": 7815,
      "Ġcontact": 7816,
      "ĠSlovenian": 7817,
      "ĠCroatian": 7818,
      "ĠFinnish": 7819,
      "ĠEstonian": 7820,
      "ĠsÃ«nnvoll": 7821,
      "ĠTurkish": 7822,
      "ĠmysteriÃ©is": 7823,
      "At": 7824,
      "USA": 7825,
      "bÃ©iert": 7826,
      "broch": 7827,
      "Ð³": 7828,
      "ĠÃ©ier": 7829,
      "Ġgemeng": 7830,
      "Ġsens": 7831,
      "Ġmar": 7832,
      "eguer": 7833,
      "ĠMeeschter": 7834,
      "ĠLinnen": 7835,
      "ĠFrans": 7836,
      "ĠFussball": 7837,
      "ĠRout": 7838,
      "ĠCan": 7839,
      "repr": 7840,
      "ellchecker": 7841,
      "ĠOD": 7842,
      "Ġlang": 7843,
      "aktiounen": 7844,
      "Ġcomp": 7845,
      "Ġgewannen": 7846,
      "Ġverbannen": 7847,
      "ĠÃĭmfro": 7848,
      "Intern": 7849,
      "Ã¶n": 7850,
      "ĠOfruff": 7851,
      "ĠerfÃ«llen": 7852,
      "ahili": 7853,
      "ove": 7854,
      "gelooss": 7855,
      "ĠhÃ¤tten": 7856,
      "Rechter": 7857,
      "ĠMÃ«ttelalter": 7858,
      "ĠTester": 7859,
      "elbrÃ©ck": 7860,
      "ĠKrankheeten": 7861,
      "ĠSÃ¼de": 7862,
      "ĠblockÃ©ieren": 7863,
      "Ġerfuerderlech": 7864,
      "ĠLithuanian": 7865,
      "ĠLatvian": 7866,
      "ymptomer": 7867,
      "ĠSerbian": 7868,
      "ĠHungarian": 7869,
      "ĠkategorisÃ©iert": 7870,
      "ĠOfruffstatistik": 7871,
      "Leeschtung": 7872,
      "Zou": 7873,
      "ackt": 7874,
      "bert": 7875,
      "gÃ©igend": 7876,
      "Õ¥": 7877,
      "ĠDausende": 7878,
      "iren": 7879,
      "Ġmo": 7880,
      "ĠmÃ¤nn": 7881,
      "Ġmedizin": 7882,
      "Ã©ierer": 7883,
      "Ġbass": 7884,
      "ĠPun": 7885,
      "ĠBlock": 7886,
      "ĠLeescht": 7887,
      "ĠWÃ©nkel": 7888,
      "ĠIll": 7889,
      "ĠRecher": 7890,
      "ĠCraw": 7891,
      "laab": 7892,
      "def": 7893,
      "deckt": 7894,
      "Ġmater": 7895,
      "ĠJidder": 7896,
      "ikanesch": 7897,
      "ĠLÃ«tzebuergeschen": 7898,
      "ĠstÃ«mmt": 7899,
      "ige": 7900,
      "Ã«ster": 7901,
      "ĠGeschwindegkeet": 7902,
      "ĠSec": 7903,
      "Schl": 7904,
      "Ġopgrond": 7905,
      "ĠThai": 7906,
      "projet": 7907,
      "nova": 7908,
      "Ġverstoppt": 7909,
      "ows": 7910,
      "ĠJeff": 7911,
      "ĠverglÃ¤ich": 7912,
      "ĠRelioun": 7913,
      "ĠMÃ«ttelpunkt": 7914,
      "ĠFabrikatioun": 7915,
      "ĠFamilljen": 7916,
      "ĠSlovak": 7917,
      "ĠPower": 7918,
      "Ġnotzen": 7919,
      "Elteren": 7920,
      "ĠSankt": 7921,
      "ĠJapanese": 7922,
      "ĠMilliarde": 7923,
      "Ġknapps": 7924,
      "ĠVerwaltungsrot": 7925,
      "ĠOptimisÃ©ierung": 7926,
      "ĠSuergen": 7927,
      "ĠNepali": 7928,
      "aÃ±": 7929,
      "ĠBulgarian": 7930,
      "ĠGeorgian": 7931,
      "ĠFriedrich": 7932,
      "41": 7933,
      "Gest": 7934,
      "IC": 7935,
      "aalt": 7936,
      "bet": 7937,
      "eu": 7938,
      "kuckt": 7939,
      "lÃ©is": 7940,
      "ĠdÃ©c": 7941,
      "Ġdriwwer": 7942,
      "elic": 7943,
      "anmar": 7944,
      "ĠmÃ«ll": 7945,
      "Ġbre": 7946,
      "ĠPrÃ©": 7947,
      "ĠBeng": 7948,
      "ĠFannt": 7949,
      "ĠWil": 7950,
      "ĠWollek": 7951,
      "Ġopgeriicht": 7952,
      "ĠRand": 7953,
      "ĠConst": 7954,
      "laus": 7955,
      "ĠJPL": 7956,
      "Ġlouch": 7957,
      "ĠStrategie": 7958,
      "amten": 7959,
      "Ġausw": 7960,
      "low": 7961,
      "ektiounen": 7962,
      "formitÃ©it": 7963,
      "Ġup": 7964,
      "ĠChamp": 7965,
      "Ġspueren": 7966,
      "ĠDozou": 7967,
      "ĠGesiicht": 7968,
      "ĠEntscheed": 7969,
      "Ġverbessere": 7970,
      "geschwindegkeet": 7971,
      "ĠThis": 7972,
      "Ġkaum": 7973,
      "Ġverstoe": 7974,
      "rukture": 7975,
      "ĠFilter": 7976,
      "Ġfestgestallt": 7977,
      "ĠStatus": 7978,
      "ĠLiteraturÃĦnneren": 7979,
      "Erf": 7980,
      "Ã©chert": 7981,
      "ĠReferendum": 7982,
      "ĠGeneratioun": 7983,
      "cteuren": 7984,
      "ĠDecisioun": 7985,
      "ĠMyth": 7986,
      "Gebai": 7987,
      "ĠVerÃ¤iner": 7988,
      "ĠDiddeleng": 7989,
      "ĠTraining": 7990,
      "51": 7991,
      "No": 7992,
      "Rep": 7993,
      "aden": 7994,
      "aamt": 7995,
      "iff": 7996,
      "Ġadress": 7997,
      "Ã¤ck": 7998,
      "umer": 7999,
      "instrument": 8000,
      "ĠPor": 8001,
      "sterdam": 8002,
      "ĠKin": 8003,
      "ĠHost": 8004,
      "ierken": 8005,
      "Ġpotenz": 8006,
      "ĠStock": 8007,
      "istanz": 8008,
      "ule": 8009,
      "Ã¼hr": 8010,
      "ĠVerÃ«ffentlech": 8011,
      "ĠEnd": 8012,
      "ĠIwwerblÃ©ck": 8013,
      "ĠFilip": 8014,
      "Ġ1994": 8015,
      "Ġ1995": 8016,
      "ĠGÃ©igen": 8017,
      "armonie": 8018,
      "personal": 8019,
      "ĠgrÃ©isstendeels": 8020,
      "ĠAdministrat": 8021,
      "ĠMyanmar": 8022,
      "ĠWÃ«ssenschaftler": 8023,
      "ĠAndrÃ©": 8024,
      "ĠSichmotor": 8025,
      "ĠJustiz": 8026,
      "ĠIndonesian": 8027,
      "ĠArabic": 8028,
      "ĠVietnamese": 8029,
      "ĠverlÃ¤ngert": 8030,
      "ekonferenz": 8031,
      "ĠabonnÃ©ieren": 8032,
      "Ġgeformt": 8033,
      "ĠEttelbrÃ©ck": 8034,
      "66": 8035,
      "90": 8036,
      "Luxembourg": 8037,
      "OP": 8038,
      "President": 8039,
      "Paul": 8040,
      "besch": 8041,
      "histor": 8042,
      "linnen": 8043,
      "yer": 8044,
      "Ġà¤": 8045,
      "Ġgedeelt": 8046,
      "ĠAri": 8047,
      "ĠfÃ¤nken": 8048,
      "ĠMetz": 8049,
      "ĠPe": 8050,
      "ĠBu": 8051,
      "ĠKrees": 8052,
      "ĠWort": 8053,
      "ĠWÃ¤iss": 8054,
      "ĠCeb": 8055,
      "ttp": 8056,
      "ĠHab": 8057,
      "ĠVen": 8058,
      "olt": 8059,
      "illon": 8060,
      "anzeg": 8061,
      "Ġukomm": 8062,
      "adrat": 8063,
      "ĠJoerzÃ©ng": 8064,
      "Ġ32": 8065,
      "Ã«schter": 8066,
      "reiden": 8067,
      "Ġspr": 8068,
      "ĠDokt": 8069,
      "echnungen": 8070,
      "ĠReglementer": 8071,
      "Ġbestuet": 8072,
      "ĠOpbau": 8073,
      "ielle": 8074,
      "ĠSub": 8075,
      "zentratioun": 8076,
      "ĠTrainer": 8077,
      "ĠwÃ©ini": 8078,
      "ĠMÃ«nscherecht": 8079,
      "ĠYor": 8080,
      "ĠYork": 8081,
      "ĠinteressÃ©ieren": 8082,
      "urgie": 8083,
      "door": 8084,
      "ĠGeschÃ¤fts": 8085,
      "ĠKombinatioun": 8086,
      "ĠOrch": 8087,
      "Ġopzebauen": 8088,
      "ĠIsolatioun": 8089,
      "ĠglÃ©ck": 8090,
      "festival": 8091,
      "Ġantike": 8092,
      "ĠRodange": 8093,
      "ĠfreeÃ«n": 8094,
      "Ġgemengt": 8095,
      "ca": 8096,
      "oan": 8097,
      "uktioun": 8098,
      "vaux": 8099,
      "empl": 8100,
      "Ġmellen": 8101,
      "ront": 8102,
      "Ġfuerdert": 8103,
      "Ġbeispill": 8104,
      "ĠMic": 8105,
      "ĠPav": 8106,
      "ĠPascht": 8107,
      "ĠEquip": 8108,
      "ĠEkonomie": 8109,
      "orld": 8110,
      "entwÃ©cklung": 8111,
      "ĠWei": 8112,
      "ĠIg": 8113,
      "requenz": 8114,
      "ĠVal": 8115,
      "dep": 8116,
      "ikon": 8117,
      "Ġliese": 8118,
      "ĠSchied": 8119,
      "ĠschÃ©i": 8120,
      "ĠVerschl": 8121,
      "enska": 8122,
      "ĠOplÃ©isung": 8123,
      "aassen": 8124,
      "skÃ¤schte": 8125,
      "ĠMars": 8126,
      "ĠMatch": 8127,
      "Ġschwier": 8128,
      "indest": 8129,
      "ituatiounen": 8130,
      "ĠUmeld": 8131,
      "ĠKontaktform": 8132,
      "ĠXV": 8133,
      "ĠGroussregioun": 8134,
      "Ġkuerzer": 8135,
      "ĠLaw": 8136,
      "ĠPatient": 8137,
      "Ġvisit": 8138,
      "uano": 8139,
      "ĠGrenzen": 8140,
      "ĠBegrÃ«ffer": 8141,
      "ĠSamsch": 8142,
      "ĠBroker": 8143,
      "ĠVerantwortleche": 8144,
      "Gesondheet": 8145,
      "ĠKomponenten": 8146,
      "Ġessentiel": 8147,
      "rÃ¤nkungen": 8148,
      "leeÃ«": 8149,
      "rÃ¤nkt": 8150,
      "ĠbeÃ¤ntwert": 8151,
      "ĠKuelestoff": 8152,
      "ĠberÃ¼cksichtegen": 8153,
      "ĠzukÃ¼nfteg": 8154,
      "Ġentscheet": 8155,
      "ĠHawai": 8156,
      "Komp": 8157,
      "ael": 8158,
      "ways": 8159,
      "Ġadd": 8160,
      "ĠDial": 8161,
      "ĠSav": 8162,
      "Ġdekor": 8163,
      "arus": 8164,
      "ios": 8165,
      "ĠBedeit": 8166,
      "ĠKh": 8167,
      "ĠKopp": 8168,
      "ĠWik": 8169,
      "ĠGaart": 8170,
      "scheeder": 8171,
      "rav": 8172,
      "Ġ1000": 8173,
      "ĠTonn": 8174,
      "riÃ¨re": 8175,
      "ilosoph": 8176,
      "ĠProj": 8177,
      "splang": 8178,
      "ĠAmsterdam": 8179,
      "ĠEntdeck": 8180,
      "aassung": 8181,
      "ĠGebieder": 8182,
      "ĠAarbechten": 8183,
      "Ġopgestallt": 8184,
      "outreng": 8185,
      "Ġbesat": 8186,
      "Ġgestart": 8187,
      "ĠPhas": 8188,
      "orea": 8189,
      "ĠStrof": 8190,
      "ĠLeedung": 8191,
      "Ã¼rk": 8192,
      "code": 8193,
      "Ġtechneschen": 8194,
      "Ġerweider": 8195,
      "ĠBedierfnesser": 8196,
      "zerbai": 8197,
      "ĠAnnoncen": 8198,
      "Ãªte": 8199,
      "klusioun": 8200,
      "ĠEmissioun": 8201,
      "Ġarch": 8202,
      "egentum": 8203,
      "ĠBrenn": 8204,
      "funktioune": 8205,
      "organisatioun": 8206,
      "ĠKolon": 8207,
      "ĠIrish": 8208,
      "ĠPortuguese": 8209,
      "Ġbemierken": 8210,
      "ĠTelefonsnummer": 8211,
      "Ġindividuell": 8212,
      "ĠEditus": 8213,
      "Claude": 8214,
      "ĠonbedÃ©ngt": 8215,
      "eierdag": 8216,
      "ĠCebuano": 8217,
      "zerbaij": 8218,
      "34": 8219,
      "AC": 8220,
      "Bedeitung": 8221,
      "Mad": 8222,
      "blech": 8223,
      "krees": 8224,
      "nian": 8225,
      "wieder": 8226,
      "erhalen": 8227,
      "ĠdÃ©": 8228,
      "ĠdÃ©ngen": 8229,
      "Ġastellen": 8230,
      "ĠfranÃ§": 8231,
      "ĠMoler": 8232,
      "ĠPDF": 8233,
      "ĠBrow": 8234,
      "ĠLescht": 8235,
      "ĠLok": 8236,
      "ĠFull": 8237,
      "schÃ«ff": 8238,
      "usp": 8239,
      "iedegt": 8240,
      "ĠNr": 8241,
      "Ġlat": 8242,
      "Ġleet": 8243,
      "ĠStress": 8244,
      "ĠVere": 8245,
      "ezeechent": 8246,
      "ifik": 8247,
      "Ġgeschriwwe": 8248,
      "Ġ01": 8249,
      "infacht": 8250,
      "Ġpersoun": 8251,
      "aarbechte": 8252,
      "zentrum": 8253,
      "ĠKierchen": 8254,
      "ĠNorde": 8255,
      "menian": 8256,
      "Ġgedauert": 8257,
      "ĠPublished": 8258,
      "Ġeegener": 8259,
      "ĠAutoSEO": 8260,
      "ĠNotiz": 8261,
      "ĠRotatioun": 8262,
      "satz": 8263,
      "ĠKanal": 8264,
      "lymp": 8265,
      "Ġqualitativ": 8266,
      "ĠMilliarden": 8267,
      "Ġavec": 8268,
      "Ġpoln": 8269,
      "ĠKurd": 8270,
      "Ġconfirm": 8271,
      "Ġdono": 8272,
      "ĠfonctionnÃ©ieren": 8273,
      "ĠWonsch": 8274,
      "95": 8275,
      "Bed": 8276,
      "Buch": 8277,
      "Fe": 8278,
      "Kom": 8279,
      "Ġdierf": 8280,
      "Ġdausend": 8281,
      "ĠAverstÃ¤ndnis": 8282,
      "Ġflex": 8283,
      "invest": 8284,
      "ĠMach": 8285,
      "ĠBull": 8286,
      "ory": 8287,
      "ĠLex": 8288,
      "entum": 8289,
      "ĠFer": 8290,
      "ĠWÃ¤in": 8291,
      "ĠCategorized": 8292,
      "ĠOrient": 8293,
      "edral": 8294,
      "ĠSteng": 8295,
      "Ġaller": 8296,
      "otzung": 8297,
      "pper": 8298,
      "ĠSpuer": 8299,
      "endÃ©ieren": 8300,
      "Ġwarscheinlech": 8301,
      "Ġintensiv": 8302,
      "ource": 8303,
      "ĠMais": 8304,
      "Ġofleenen": 8305,
      "Ġgenannte": 8306,
      "Ġgemooss": 8307,
      "Ġselbst": 8308,
      "okumenter": 8309,
      "ĠFalls": 8310,
      "ĠMusel": 8311,
      "ĠSchwier": 8312,
      "ĠSichresultater": 8313,
      "ĠFris": 8314,
      "ĠGroussherzog": 8315,
      "ĠAnti": 8316,
      "dopt": 8317,
      "ĠÐł": 8318,
      "siichteg": 8319,
      "iquitÃ©it": 8320,
      "Ġnotre": 8321,
      "Ġprett": 8322,
      "Ã¤ppchen": 8323,
      "ĠSocial": 8324,
      "ĠSitemap": 8325,
      "ĠNicolas": 8326,
      "ĠmÃ«ttlerweil": 8327,
      "Ġkonsequent": 8328,
      "Ġbeispillsweis": 8329,
      "Acc": 8330,
      "Dom": 8331,
      "Haus": 8332,
      "Mamm": 8333,
      "NUM": 8334,
      "SO": 8335,
      "hÃ¤r": 8336,
      "resche": 8337,
      "srechter": 8338,
      "atten": 8339,
      "Ã¤sseg": 8340,
      "eten": 8341,
      "eteren": 8342,
      "ĠSatell": 8343,
      "anlag": 8344,
      "ĠfrÃ©ieren": 8345,
      "Ġfundament": 8346,
      "stÃ©ck": 8347,
      "ĠBauss": 8348,
      "Ġnennen": 8349,
      "ĠKalenner": 8350,
      "ĠdÃ©iselwecht": 8351,
      "edonian": 8352,
      "anda": 8353,
      "ĠStuerm": 8354,
      "artementer": 8355,
      "agasy": 8356,
      "ekret": 8357,
      "ĠSpellchecker": 8358,
      "leun": 8359,
      "iteur": 8360,
      "ĠAmaz": 8361,
      "Ġ51": 8362,
      "ĠProduktiouns": 8363,
      "Ġexklusiv": 8364,
      "vention": 8365,
      "rÃ«pp": 8366,
      "ministesch": 8367,
      "ĠBlieder": 8368,
      "sprogramm": 8369,
      "ĠSkulpt": 8370,
      "uerene": 8371,
      "ĠOptrÃ«tt": 8372,
      "ĠContact": 8373,
      "ĠExport": 8374,
      "ĠGefill": 8375,
      "Ġgepl": 8376,
      "Ã©istrÃ¤ich": 8377,
      "ĠKoalitioun": 8378,
      "ĠfrÃ©ierer": 8379,
      "ĠPrÃ¤zisioun": 8380,
      "ĠExtra": 8381,
      "Ã«tsch": 8382,
      "Konscht": 8383,
      "ÑģÐºÐ¸Ð¹": 8384,
      "ÐµÐ": 8385,
      "ĠfixÃ©ieren": 8386,
      "ĠWÃ«llkomm": 8387,
      "ĠRetour": 8388,
      "ĠnavigÃ©iert": 8389,
      "ĠCasino": 8390,
      "ĠSolidaritÃ©it": 8391,
      "Ġdobaussen": 8392,
      "vatski": 8393,
      "ĠSchiebet": 8394,
      "ĠinvolvÃ©iert": 8395,
      "ĠFilipino": 8396,
      "zerbaijani": 8397,
      "NUMX": 8398,
      "72": 8399,
      "Beh": 8400,
      "Rad": 8401,
      "Uelzecht": 8402,
      "fÃ«rm": 8403,
      "kel": 8404,
      "mÃ«ttel": 8405,
      "niveau": 8406,
      "wann": 8407,
      "zig": 8408,
      "zbek": 8409,
      "zehuelen": 8410,
      "Ġest": 8411,
      "atik": 8412,
      "Ġgr": 8413,
      "Ġwunnen": 8414,
      "ĠAS": 8415,
      "Ġfillt": 8416,
      "ĠPsych": 8417,
      "stag": 8418,
      "Ġkoll": 8419,
      "ĠEegen": 8420,
      "ĠLeider": 8421,
      "werk": 8422,
      "ĠOuni": 8423,
      "Ġerak": 8424,
      "agÃ©ier": 8425,
      "Ġtesten": 8426,
      "ĠVerÃ¤nner": 8427,
      "ĠChau": 8428,
      "qual": 8429,
      "verkÃ©ier": 8430,
      "heiser": 8431,
      "Ġ44": 8432,
      "ultÃ©iert": 8433,
      "ĠErÃ«nnerung": 8434,
      "aparte": 8435,
      "ĠOpen": 8436,
      "ĠPlat": 8437,
      "ĠLandschaft": 8438,
      "ĠmÃ©iglecherweis": 8439,
      "okoll": 8440,
      "aarbechtungs": 8441,
      "ĠPoly": 8442,
      "ĠBeaarbechtung": 8443,
      "setzt": 8444,
      "ĠDuerchschnÃ«tt": 8445,
      "ĠFeed": 8446,
      "ĠScott": 8447,
      "Ġausserdeem": 8448,
      "Ġchines": 8449,
      "ĠnÃ¤chsten": 8450,
      "armon": 8451,
      "Ġufanks": 8452,
      "abled": 8453,
      "ĠMotiv": 8454,
      "Ġkreativ": 8455,
      "ĠMalagasy": 8456,
      "ĠStÃ©cker": 8457,
      "Ġheem": 8458,
      "Plattform": 8459,
      "ĠEpis": 8460,
      "Ã¤mpft": 8461,
      "bestÃ«mmungen": 8462,
      "Ġverfollegt": 8463,
      "ĠFranÃ§ais": 8464,
      "ĠsÃ¼dlech": 8465,
      "ĠJores": 8466,
      "Piraten": 8467,
      "ĠBesoinen": 8468,
      "Ġwonnerbar": 8469,
      "ĠpreparÃ©ieren": 8470,
      "ĠKonflikt": 8471,
      "eschlÃ©issen": 8472,
      "ĠSÃ©cherheetsmoossname": 8473,
      "AG": 8474,
      "\\'": 8475,
      "wung": 8476,
      "zes": 8477,
      "Ġ}": 8478,
      "Ġiessen": 8479,
      "Ġsol": 8480,
      "ĠSÃ¤i": 8481,
      "Ġmann": 8482,
      "isÃ©iere": 8483,
      "ĠAR": 8484,
      "ĠPuppel": 8485,
      "ĠPodcast": 8486,
      "ĠBor": 8487,
      "ĠBall": 8488,
      "ierungen": 8489,
      "ĠNFT": 8490,
      "ĠVÃ©ier": 8491,
      "ĠZul": 8492,
      "ĠSte": 8493,
      "ĠDekoratioun": 8494,
      "ĠSchwe": 8495,
      "ĠSchreif": 8496,
      "ewisen": 8497,
      "agra": 8498,
      "ekut": 8499,
      "sper": 8500,
      "Ġsti": 8501,
      "ĠSpÃ«tz": 8502,
      "Ġ1920": 8503,
      "ĠNodeeler": 8504,
      "ĠNofro": 8505,
      "eisch": 8506,
      "Ġprotection": 8507,
      "gesi": 8508,
      "aasserd": 8509,
      "ĠAusbildung": 8510,
      "onditiounen": 8511,
      "ĠIwwersiicht": 8512,
      "Ġwichtegen": 8513,
      "rÃ©isserung": 8514,
      "Ġroude": 8515,
      "acker": 8516,
      "ĠSchweden": 8517,
      "Ġbeschreift": 8518,
      "Ġfestg": 8519,
      "ENT": 8520,
      "Ã¤ndlech": 8521,
      "Ġempf": 8522,
      "ĠEisebunn": 8523,
      "Ġ1944": 8524,
      "ĠInterview": 8525,
      "Ġerwaarden": 8526,
      "Ġplanet": 8527,
      "ĠStÃ¤rebild": 8528,
      "ĠAussiichten": 8529,
      "ĠLatin": 8530,
      "ĠAlbert": 8531,
      "ĠRessource": 8532,
      "Ġmaxim": 8533,
      "Ġschnell": 8534,
      "ÑĥÑģ": 8535,
      "ĠÃĭmlafbunn": 8536,
      "ĠÃ«mfaasst": 8537,
      "ĠausdrÃ©cklech": 8538,
      "ĠKartheiser": 8539,
      "ĠMuttergottes": 8540,
      "Ġduergestallt": 8541,
      "ĠMaltese": 8542,
      "ĠImpressum": 8543,
      "ffentlechkeet": 8544,
      "63": 8545,
      "81": 8546,
      "AP": 8547,
      "FrÃ¤i": 8548,
      "Kand": 8549,
      "TC": 8550,
      "kÃ«nnt": 8551,
      "wand": 8552,
      "wÃ«lleg": 8553,
      "ĠÄ": 8554,
      "Ġdynam": 8555,
      "Ġgeescht": 8556,
      "ĠDÃ«nsch": 8557,
      "ĠsÃ«tzen": 8558,
      "Ġko": 8559,
      "ĠFri": 8560,
      "schicht": 8561,
      "ĠRu": 8562,
      "ĠRonn": 8563,
      "ĠCors": 8564,
      "ĠHm": 8565,
      "ĠVous": 8566,
      "Ã¤isser": 8567,
      "ĠStoff": 8568,
      "ĠSchreift": 8569,
      "ooper": 8570,
      "ulÃ¤r": 8571,
      "load": 8572,
      "Ã©nge": 8573,
      "Ġrem": 8574,
      "Ã©ini": 8575,
      "2018": 8576,
      "ĠPlÃ¤ng": 8577,
      "egrÃ«nn": 8578,
      "Ġschwaach": 8579,
      "Ġ1998": 8580,
      "ĠrefusÃ©iert": 8581,
      "shop": 8582,
      "Ġ1980": 8583,
      "ĠBedÃ©ngungen": 8584,
      "ĠNederland": 8585,
      "ĠPrÃ¤senz": 8586,
      "ĠBÃ«scher": 8587,
      "aaschtung": 8588,
      "ĠAlban": 8589,
      "eminister": 8590,
      "ynamik": 8591,
      "ĠIndustrien": 8592,
      "Ġugewisen": 8593,
      "Ġstaatlech": 8594,
      "Ġ{\\": 8595,
      "owjetunioun": 8596,
      "otho": 8597,
      "splattform": 8598,
      "ĠregistrÃ©iert": 8599,
      "Ġdonkel": 8600,
      "Ġeidel": 8601,
      "61": 8602,
      "83": 8603,
      "Ass": 8604,
      "IG": 8605,
      "Klass": 8606,
      "Tel": 8607,
      "Typ": 8608,
      "hosa": 8609,
      "iele": 8610,
      "park": 8611,
      "Ġæ": 8612,
      "erla": 8613,
      "Ġare": 8614,
      "esotho": 8615,
      "ĠSettings": 8616,
      "Ġmult": 8617,
      "Ġha": 8618,
      "ume": 8619,
      "arz": 8620,
      "alz": 8621,
      "alam": 8622,
      "ĠFN": 8623,
      "ĠGlo": 8624,
      "Ġopmierksam": 8625,
      "ĠHait": 8626,
      "ĠTuerm": 8627,
      "ĠNatiounen": 8628,
      "ĠNationale": 8629,
      "ĠOze": 8630,
      "ikass": 8631,
      "ĠSteen": 8632,
      "ĠStÃ«bs": 8633,
      "Ġalleguer": 8634,
      "Ġiwwersat": 8635,
      "ptun": 8636,
      "ĠstÃ¤nneg": 8637,
      "ortal": 8638,
      "ourse": 8639,
      "rÃ¤if": 8640,
      "Ġesouguer": 8641,
      "Ġweiderginn": 8642,
      "Ġ04": 8643,
      "espro": 8644,
      "azz": 8645,
      "Ġgeruff": 8646,
      "upfer": 8647,
      "ĠXNUMX": 8648,
      "Ġkuerzem": 8649,
      "ĠProvÃ«n": 8650,
      "ĠHausa": 8651,
      "ĠUniversum": 8652,
      "Ãªs": 8653,
      "ematik": 8654,
      "ĠLieserb": 8655,
      "uschteren": 8656,
      "Basisfunktioune": 8657,
      "ĠFÃ¤egkeet": 8658,
      "ĠFondatioun": 8659,
      "Musek": 8660,
      "Ġvirbereet": 8661,
      "ĠBewÃ¤ertung": 8662,
      "×Ļ×": 8663,
      "ĠReferral": 8664,
      "ĠIgbo": 8665,
      "53": 8666,
      "Bew": 8667,
      "aise": 8668,
      "kre": 8669,
      "leeÃ«n": 8670,
      "run": 8671,
      "Î¹": 8672,
      "ĠdÃ©ngt": 8673,
      "Ġac": 8674,
      "Ġgal": 8675,
      "ĠDank": 8676,
      "ĠSep": 8677,
      "ĠSesotho": 8678,
      "Ġorigin": 8679,
      "engen": 8680,
      "ĠAct": 8681,
      "Ġbegrenz": 8682,
      "ĠPf": 8683,
      "ĠPolit": 8684,
      "ĠKro": 8685,
      "ĠEegeschaft": 8686,
      "ĠTro": 8687,
      "ĠTele": 8688,
      "ĠlÃ©iwer": 8689,
      "eeÃ«": 8690,
      "ĠProzeduren": 8691,
      "Ã¼Ã¼gt": 8692,
      "abi": 8693,
      "abet": 8694,
      "igen": 8695,
      "ĠSpÃ«tzt": 8696,
      "ĠJohann": 8697,
      "Ġ1950": 8698,
      "Ġjon": 8699,
      "teur": 8700,
      "quet": 8701,
      "Quell": 8702,
      "irect": 8703,
      "ĠheibÃ¤i": 8704,
      "klÃ¤r": 8705,
      "ĠBerodung": 8706,
      "akh": 8707,
      "ĠFormat": 8708,
      "ĠdesaktivÃ©iert": 8709,
      "ĠÃĭnnerschrÃ«ft": 8710,
      "ĠHandwierker": 8711,
      "Ġgestalten": 8712,
      "Ġberechent": 8713,
      "Ġausgeb": 8714,
      "ĠSchwÃ¤iz": 8715,
      "ĠNorsk": 8716,
      "Ġ1997": 8717,
      "ĠBezuel": 8718,
      "sgeb": 8719,
      "ĠShona": 8720,
      "sverloscht": 8721,
      "Ġbegeescht": 8722,
      "ĠVisioun": 8723,
      "ĠDateschutzbestÃ«mmungen": 8724,
      "Ġzougemaach": 8725,
      "ĠStudien": 8726,
      "ĠFestung": 8727,
      "Ġnationaler": 8728,
      "ĠKomÃ©iten": 8729,
      "Ġaccord": 8730,
      "ĠKonsequenzen": 8731,
      "Ġschwaarz": 8732,
      "unterrecht": 8733,
      "ĠAssociatioun": 8734,
      "ĠTÃ«schenzÃ¤it": 8735,
      "Ġinfo": 8736,
      "ĠBonaparte": 8737,
      "Ġhallef": 8738,
      "ĠgeschwÃ«nn": 8739,
      "ĠunzefÃ¤nken": 8740,
      "ĠZwerg": 8741,
      "ĠÐłÑĥÑģ": 8742,
      "ĠAmazon": 8743,
      "ĠZulu": 8744,
      "ĠHmong": 8745,
      "Faarf": 8746,
      "IB": 8747,
      "LT": 8748,
      "Met": 8749,
      "eure": 8750,
      "swÃ¤ert": 8751,
      "Ġgrand": 8752,
      "ĠSitten": 8753,
      "itis": 8754,
      "ĠKer": 8755,
      "oratioun": 8756,
      "ĠLong": 8757,
      "ĠengagÃ©ieren": 8758,
      "ĠRechnung": 8759,
      "ĠRÃ«tsch": 8760,
      "urren": 8761,
      "ĠStater": 8762,
      "echter": 8763,
      "Ġalldeeg": 8764,
      "ĠSchi": 8765,
      "ĠUewer": 8766,
      "ewa": 8767,
      "Ġschaffe": 8768,
      "Ã«mme": 8769,
      "ĠChich": 8770,
      "Ã«nnerstÃ«tz": 8771,
      "Ġgesitt": 8772,
      "ĠArrond": 8773,
      "veraarbechtung": 8774,
      "ochzÃ¤it": 8775,
      "reiwer": 8776,
      "iale": 8777,
      "zedeelen": 8778,
      "ified": 8779,
      "echnik": 8780,
      "ĠAuswiel": 8781,
      "Ġ05": 8782,
      "Ġ68": 8783,
      "ĠPlaze": 8784,
      "etta": 8785,
      "ĠPhys": 8786,
      "ruppe": 8787,
      "ĠBeef": 8788,
      "hala": 8789,
      "Ġbewisen": 8790,
      "ĠBeliichtung": 8791,
      "ĠfrÃ«sch": 8792,
      "ĠVideopro": 8793,
      "ĠbelÃ©ift": 8794,
      "Ġintellig": 8795,
      "Ġverhale": 8796,
      "Ġspezielle": 8797,
      "ĠRussian": 8798,
      "ĠSamoan": 8799,
      "Ġerliewen": 8800,
      "Ġcookie": 8801,
      "Ġbaussen": 8802,
      "Ġgemeinsame": 8803,
      "DeputÃ©ierte": 8804,
      "celandic": 8805,
      "Ġexzellente": 8806,
      "Ġzentral": 8807,
      "ĠdrÃ©nken": 8808,
      "Ġentworf": 8809,
      "ĠKorean": 8810,
      "ÑĢÐ¿": 8811,
      "Ġbedeelegt": 8812,
      "ĠGÃ©igendeel": 8813,
      "82": 8814,
      "PrÃ¤isser": 8815,
      "Se": 8816,
      "Sond": 8817,
      "Trans": 8818,
      "Tradition": 8819,
      "brauch": 8820,
      "bay": 8821,
      "glÃ¤ich": 8822,
      "huele": 8823,
      "leng": 8824,
      "nÃ¤chst": 8825,
      "pe": 8826,
      "worf": 8827,
      "Ġdel": 8828,
      "irch": 8829,
      "ĠMÃ¤ert": 8830,
      "ĠMangel": 8831,
      "ĠPaz": 8832,
      "ĠIcelandic": 8833,
      "ĠHindi": 8834,
      "ĠTaj": 8835,
      "ĠNat": 8836,
      "Ġpress": 8837,
      "lager": 8838,
      "decken": 8839,
      "ĠZone": 8840,
      "ĠOct": 8841,
      "ages": 8842,
      "Ġstoungen": 8843,
      "ĠVerdeelung": 8844,
      "ehale": 8845,
      "ĠrÃ©g": 8846,
      "Ġ33": 8847,
      "ope": 8848,
      "Ã©inleche": 8849,
      "ĠAlways": 8850,
      "ĠIwwerprÃ©i": 8851,
      "ĠgefÃ©ierlech": 8852,
      "ĠTheorie": 8853,
      "Initi": 8854,
      "appt": 8855,
      "ĠgÃ©intiwwer": 8856,
      "aueren": 8857,
      "ĠBeem": 8858,
      "ĠZesummef": 8859,
      "ĠsÃ©cherlech": 8860,
      "ĠBasque": 8861,
      "Ġmenger": 8862,
      "Ã¤lleg": 8863,
      "emperature": 8864,
      "Ġierch": 8865,
      "ĠgedrÃ©ckt": 8866,
      "Ġmissten": 8867,
      "hto": 8868,
      "ĠnÃ¤chster": 8869,
      "ĠAntiquitÃ©it": 8870,
      "ĠLao": 8871,
      "ĠFuerschungs": 8872,
      "ĠeuropÃ¤eschen": 8873,
      "Ġoffizieller": 8874,
      "endez": 8875,
      "ĠverdÃ©ngen": 8876,
      "ĠWalfer": 8877,
      "ikaner": 8878,
      "ĠAspekt": 8879,
      "Ġglat": 8880,
      "ĠdÃ¤erfen": 8881,
      "Energie": 8882,
      "verbrauch": 8883,
      "ĠrealisÃ©ieren": 8884,
      "Ð¾Ð½": 8885,
      "ĠGebuertsdag": 8886,
      "ĠFÃ¤egkeeten": 8887,
      "ĠVerpack": 8888,
      "Ġzentr": 8889,
      "Kommissioun": 8890,
      "Kontroll": 8891,
      "ĠiwwerprÃ©ift": 8892,
      "ĠEquator": 8893,
      "ĠSchwÃ©ierpunkt": 8894,
      "Ġfuerderen": 8895,
      "ĠLieserbrÃ©if": 8896,
      "54": 8897,
      "Burm": 8898,
      "SL": 8899,
      "WÃ¤hrungen": 8900,
      "ikt": 8901,
      "jabi": 8902,
      "kan": 8903,
      "oon": 8904,
      "vard": 8905,
      "zwecker": 8906,
      "ÑĤ": 8907,
      "Ġdank": 8908,
      "Ġsammelt": 8909,
      "ĠSet": 8910,
      "ĠSessioun": 8911,
      "Ġmet": 8912,
      "Ġdepos": 8913,
      "roum": 8914,
      "Ġkrank": 8915,
      "ĠkrÃ©ie": 8916,
      "Ġeescht": 8917,
      "ĠnÃ©ng": 8918,
      "ĠCal": 8919,
      "ĠHa": 8920,
      "ĠTamil": 8921,
      "urÃ«": 8922,
      "estrikt": 8923,
      "ĠOur": 8924,
      "ĠInformation": 8925,
      "ngen": 8926,
      "ĠochÃĦnneren": 8927,
      "ĠSchoule": 8928,
      "ĠVerlaf": 8929,
      "ĠÃ«nnerwee": 8930,
      "isst": 8931,
      "Ġsollte": 8932,
      "Ġesouer": 8933,
      "Ġgemellt": 8934,
      "ĠEntrÃ©e": 8935,
      "iddish": 8936,
      "ĠEnabled": 8937,
      "ĠPlanz": 8938,
      "ĠVirber": 8939,
      "ĠVirauss": 8940,
      "ologesche": 8941,
      "Ġopgew": 8942,
      "ĠEurope": 8943,
      "Ġversteet": 8944,
      "ĠverlÃ©iert": 8945,
      "ĠImport": 8946,
      "ntweren": 8947,
      "ÐºÐ°": 8948,
      "ÐºÑĢ": 8949,
      "Ġmechanesch": 8950,
      "ĠLiichtjoer": 8951,
      "zefannen": 8952,
      "Ġ1960": 8953,
      "osstsinn": 8954,
      "ĠspÃ¤ichere": 8955,
      "ĠEspaÃ±": 8956,
      "accord": 8957,
      "velopp": 8958,
      "ĠMeuse": 8959,
      "vanex": 8960,
      "Ġukucken": 8961,
      "ĠWelsh": 8962,
      "ĠCatalan": 8963,
      "ĠAlternativ": 8964,
      "ĠHebrew": 8965,
      "ĠNotzungsbedÃ©ngungen": 8966,
      "ĠPashto": 8967,
      "ĠDÃ¤itsche": 8968,
      "ĠMÃ¼nchen": 8969,
      "Simpl": 8970,
      "arusian": 8971,
      "ĠChichewa": 8972,
      "52": 8973,
      "96": 8974,
      "Eff": 8975,
      "IM": 8976,
      "Ma": 8977,
      "Mot": 8978,
      "OM": 8979,
      "Tube": 8980,
      "iam": 8981,
      "ias": 8982,
      "km": 8983,
      "light": 8984,
      "sa": 8985,
      "à¸": 8986,
      "ĠdrÃ©cken": 8987,
      "Ã©iungen": 8988,
      "ĠSud": 8989,
      "ĠSond": 8990,
      "itÃ©iere": 8991,
      "Ġhttp": 8992,
      "ĠAD": 8993,
      "iographie": 8994,
      "ĠfÃ¶rder": 8995,
      "stens": 8996,
      "ĠGÃ«tt": 8997,
      "Ġassur": 8998,
      "ĠHD": 8999,
      "ĠHoer": 9000,
      "Ġprem": 9001,
      "rix": 9002,
      "ĠauszefÃ©ieren": 9003,
      "ionen": 9004,
      "ician": 9005,
      "Ġdemokrat": 9006,
      "ĠVerhalen": 9007,
      "ĠArm": 9008,
      "ĠArmenian": 9009,
      "blem": 9010,
      "iano": 9011,
      "Ġbestinn": 9012,
      "ĠLandung": 9013,
      "ĠBericht": 9014,
      "ammen": 9015,
      "ĠPersian": 9016,
      "Ġagel": 9017,
      "indlech": 9018,
      "ĠYiddish": 9019,
      "ahlen": 9020,
      "setze": 9021,
      "ateure": 9022,
      "Ġfeststellen": 9023,
      "ridder": 9024,
      "ĠCompl": 9025,
      "Ġintellekt": 9026,
      "Ġpoliteschen": 9027,
      "Ġvergiessen": 9028,
      "Ġasbl": 9029,
      "ĠAtom": 9030,
      "ĠInterpret": 9031,
      "Ġjidderengem": 9032,
      "Ġeegenen": 9033,
      "Ġquasi": 9034,
      "ĠZeechen": 9035,
      "rometer": 9036,
      "Ġgetest": 9037,
      "ĠSchlÃ«sselwuert": 9038,
      "handel": 9039,
      "Ã©ifste": 9040,
      "ĠVerstÃ¤nd": 9041,
      "laangt": 9042,
      "Ġmanuell": 9043,
      "ĠLuxemburger": 9044,
      "ĠNotten": 9045,
      "ĠSupernova": 9046,
      "Ġsexuell": 9047,
      "ĠBahasa": 9048,
      "ĠeliminÃ©iert": 9049,
      "ĠBosnian": 9050,
      "ĠMongolian": 9051,
      "ĠPunjabi": 9052,
      "Ġflexibel": 9053,
      "ĠAlbanian": 9054,
      "urrency": 9055,
      "Traditional": 9056,
      "Simplified": 9057,
      "CSV": 9058,
      "Email": 9059,
      "EuropÃ¤esch": 9060,
      "Fra": 9061,
      "GC": 9062,
      "Vis": 9063,
      "faart": 9064,
      "hans": 9065,
      "haff": 9066,
      "ieler": 9067,
      "jarat": 9068,
      "Ã®": 9069,
      "ated": 9070,
      "emm": 9071,
      "emy": 9072,
      "Ġmod": 9073,
      "Ġhand": 9074,
      "arr": 9075,
      "iol": 9076,
      "ĠPres": 9077,
      "ĠPrakt": 9078,
      "Ġeurop": 9079,
      "ĠBot": 9080,
      "ĠEegentum": 9081,
      "ĠWÃ©ini": 9082,
      "ĠGib": 9083,
      "ĠRendez": 9084,
      "reit": 9085,
      "rekr": 9086,
      "ĠHutt": 9087,
      "ĠHein": 9088,
      "Ġmatz": 9089,
      "Ġmateneen": 9090,
      "Ġliter": 9091,
      "ĠDev": 9092,
      "ĠUsproch": 9093,
      "lomm": 9094,
      "igkeit": 9095,
      "formÃ©ieren": 9096,
      "ima": 9097,
      "Ġvirsiichteg": 9098,
      "Ġgesellschaft": 9099,
      "ĠArden": 9100,
      "hein": 9101,
      "ĠMaori": 9102,
      "ĠQuadrat": 9103,
      "ĠÃ«mzesetzen": 9104,
      "Ġonheem": 9105,
      "obe": 9106,
      "okuss": 9107,
      "Schlass": 9108,
      "indhi": 9109,
      "ferences": 9110,
      "ĠXhosa": 9111,
      "ĠUrdu": 9112,
      "ethoden": 9113,
      "ĠAussch": 9114,
      "ĠDisplay": 9115,
      "Ġgezielt": 9116,
      "ĠKannada": 9117,
      "ĠMonumenter": 9118,
      "zelueden": 9119,
      "Ġinterpret": 9120,
[...]
