{
  "version": "1.0",
  "truncation": null,
  "padding": null,
  "added_tokens": [
    {
      "id": 0,
      "content": "<s>",
      "single_word": false,
      "lstrip": false,
      "rstrip": false,
      "normalized": false,
      "special": true
    },
    {
      "id": 1,
      "content": "<pad>",
      "single_word": false,
      "lstrip": false,
      "rstrip": false,
      "normalized": false,
      "special": true
    },
    {
      "id": 2,
      "content": "</s>",
      "single_word": false,
      "lstrip": false,
      "rstrip": false,
      "normalized": false,
      "special": true
    },
    {
      "id": 3,
      "content": "<unk>",
      "single_word": false,
      "lstrip": false,
      "rstrip": false,
      "normalized": false,
      "special": true
    },
    {
      "id": 4,
      "content": "<mask>",
      "single_word": false,
      "lstrip": false,
      "rstrip": false,
      "normalized": false,
      "special": true
    }
  ],
  "normalizer": null,
  "pre_tokenizer": {
    "type": "ByteLevel",
    "add_prefix_space": true,
    "trim_offsets": true,
    "use_regex": true
  },
  "post_processor": {
    "type": "RobertaProcessing",
    "sep": [
      "</s>",
      2
    ],
    "cls": [
      "<s>",
      0
    ],
    "trim_offsets": true,
    "add_prefix_space": true
  },
  "decoder": {
    "type": "ByteLevel",
    "add_prefix_space": true,
    "trim_offsets": true,
    "use_regex": true
  },
  "model": {
    "type": "BPE",
    "dropout": null,
    "unk_token": null,
    "continuing_subword_prefix": null,
    "end_of_word_suffix": null,
    "fuse_unk": false,
    "byte_fallback": false,
    "vocab": {
      "<s>": 0,
      "<pad>": 1,
      "</s>": 2,
      "<unk>": 3,
      "<mask>": 4,
      "!": 5,
      "\"": 6,
      "#": 7,
      "$": 8,
      "%": 9,
      "&": 10,
      "'": 11,
      "(": 12,
      ")": 13,
      "*": 14,
      "+": 15,
      ",": 16,
      "-": 17,
      ".": 18,
      "/": 19,
      "0": 20,
      "1": 21,
      "2": 22,
      "3": 23,
      "4": 24,
      "5": 25,
      "6": 26,
      "7": 27,
      "8": 28,
      "9": 29,
      ":": 30,
      ";": 31,
      "<": 32,
      "=": 33,
      ">": 34,
      "?": 35,
      "@": 36,
      "A": 37,
      "B": 38,
      "C": 39,
      "D": 40,
      "E": 41,
      "F": 42,
      "G": 43,
      "H": 44,
      "I": 45,
      "J": 46,
      "K": 47,
      "L": 48,
      "M": 49,
      "N": 50,
      "O": 51,
      "P": 52,
      "Q": 53,
      "R": 54,
      "S": 55,
      "T": 56,
      "U": 57,
      "V": 58,
      "W": 59,
      "X": 60,
      "Y": 61,
      "Z": 62,
      "[": 63,
      "\\": 64,
      "]": 65,
      "^": 66,
      "_": 67,
      "`": 68,
      "a": 69,
      "b": 70,
      "c": 71,
      "d": 72,
      "e": 73,
      "f": 74,
      "g": 75,
      "h": 76,
      "i": 77,
      "j": 78,
      "k": 79,
      "l": 80,
      "m": 81,
      "n": 82,
      "o": 83,
      "p": 84,
      "q": 85,
      "r": 86,
      "s": 87,
      "t": 88,
      "u": 89,
      "v": 90,
      "w": 91,
      "x": 92,
      "y": 93,
      "z": 94,
      "{": 95,
      "|": 96,
      "}": 97,
      "~": 98,
      "¡": 99,
      "¢": 100,
      "£": 101,
      "¤": 102,
      "¥": 103,
      "¦": 104,
      "§": 105,
      "¨": 106,
      "©": 107,
      "ª": 108,
      "«": 109,
      "¬": 110,
      "®": 111,
      "¯": 112,
      "°": 113,
      "±": 114,
      "²": 115,
      "³": 116,
      "´": 117,
      "µ": 118,
      "¶": 119,
      "·": 120,
      "¸": 121,
      "¹": 122,
      "º": 123,
      "»": 124,
      "¼": 125,
      "½": 126,
      "¾": 127,
      "¿": 128,
      "À": 129,
      "Á": 130,
      "Â": 131,
      "Ã": 132,
      "Ä": 133,
      "Å": 134,
      "Æ": 135,
      "Ç": 136,
      "È": 137,
      "É": 138,
      "Ê": 139,
      "Ë": 140,
      "Ì": 141,
      "Í": 142,
      "Î": 143,
      "Ï": 144,
      "Ð": 145,
      "Ñ": 146,
      "Ò": 147,
      "Ó": 148,
      "Ô": 149,
      "Õ": 150,
      "Ö": 151,
      "×": 152,
      "Ø": 153,
      "Ù": 154,
      "Ú": 155,
      "Û": 156,
      "Ü": 157,
      "Ý": 158,
      "Þ": 159,
      "ß": 160,
      "à": 161,
      "á": 162,
      "â": 163,
      "ã": 164,
      "ä": 165,
      "å": 166,
      "æ": 167,
      "ç": 168,
      "è": 169,
      "é": 170,
      "ê": 171,
      "ë": 172,
      "ì": 173,
      "í": 174,
      "î": 175,
      "ï": 176,
      "ð": 177,
      "ñ": 178,
      "ò": 179,
      "ó": 180,
      "ô": 181,
      "õ": 182,
      "ö": 183,
      "÷": 184,
      "ø": 185,
      "ù": 186,
      "ú": 187,
      "û": 188,
      "ü": 189,
      "ý": 190,
      "þ": 191,
      "ÿ": 192,
      "Ā": 193,
      "ā": 194,
      "Ă": 195,
      "ă": 196,
      "Ą": 197,
      "ą": 198,
      "Ć": 199,
      "ć": 200,
      "Ĉ": 201,
      "ĉ": 202,
      "Ċ": 203,
      "ċ": 204,
      "Č": 205,
      "č": 206,
      "Ď": 207,
      "ď": 208,
      "Đ": 209,
      "đ": 210,
      "Ē": 211,
      "ē": 212,
      "Ĕ": 213,
      "ĕ": 214,
      "Ė": 215,
      "ė": 216,
      "Ę": 217,
      "ę": 218,
      "Ě": 219,
      "ě": 220,
      "Ĝ": 221,
      "ĝ": 222,
      "Ğ": 223,
      "ğ": 224,
      "Ġ": 225,
      "ġ": 226,
      "Ģ": 227,
      "ģ": 228,
      "Ĥ": 229,
      "ĥ": 230,
      "Ħ": 231,
      "ħ": 232,
      "Ĩ": 233,
      "ĩ": 234,
      "Ī": 235,
      "ī": 236,
      "Ĭ": 237,
      "ĭ": 238,
      "Į": 239,
      "į": 240,
      "İ": 241,
      "ı": 242,
      "Ĳ": 243,
      "ĳ": 244,
      "Ĵ": 245,
      "ĵ": 246,
      "Ķ": 247,
      "ķ": 248,
      "ĸ": 249,
      "Ĺ": 250,
      "ĺ": 251,
      "Ļ": 252,
      "ļ": 253,
      "Ľ": 254,
      "ľ": 255,
      "Ŀ": 256,
      "ŀ": 257,
      "Ł": 258,
      "ł": 259,
      "Ń": 260,
      "ku": 261,
      "ng": 262,
      "Ġu": 263,
      "la": 264,
      "ba": 265,
      "th": 266,
      "le": 267,
      "wa": 268,
      "zi": 269,
      "en": 270,
      "Ġi": 271,
      "an": 272,
      "kh": 273,
      "si": 274,
      "Ġe": 275,
      "Ġn": 276,
      "lu": 277,
      "Ġk": 278,
      "Ġa": 279,
      "Ġng": 280,
      "lo": 281,
      "li": 282,
      "ph": 283,
      "on": 284,
      "ye": 285,
      "Ġku": 286,
      "ma": 287,
      "thi": 288,
      "se": 289,
      "ka": 290,
      "Ġuku": 291,
      "ya": 292,
      "we": 293,
      "oku": 294,
      "in": 295,
      "za": 296,
      "nga": 297,
      "ke": 298,
      "yo": 299,
      "sa": 300,
      "be": 301,
      "sh": 302,
      "nt": 303,
      "ze": 304,
      "bu": 305,
      "yi": 306,
      "da": 307,
      "Ġo": 308,
      "kho": 309,
      "ĠU": 310,
      "kulu": 311,
      "mi": 312,
      "fu": 313,
      "Ġba": 314,
      "bo": 315,
      "ĠI": 316,
      "ĠN": 317,
      "Ġwa": 318,
      "âĢ": 319,
      "Ġaba": 320,
      "di": 321,
      "ni": 322,
      "wen": 323,
      "ko": 324,
      "khu": 325,
      "hla": 326,
      "ben": 327,
      "bi": 328,
      "ha": 329,
      "the": 330,
      "pha": 331,
      "Ġna": 332,
      "Ġum": 333,
      "om": 334,
      "ĠK": 335,
      "Ġnga": 336,
      "lwa": 337,
      "ntu": 338,
      "ele": 339,
      "Ġezi": 340,
      "nd": 341,
      "ela": 342,
      "so": 343,
      "ki": 344,
      "Ġkwa": 345,
      "ini": 346,
      "ona": 347,
      "Ġya": 348,
      "khe": 349,
      "Ġka": 350,
      "nye": 351,
      "na": 352,
      "zo": 353,
      "seben": 354,
      "tha": 355,
      "ani": 356,
      "wi": 357,
      "Ġy": 358,
      "Ġsi": 359,
      "thu": 360,
      "ho": 361,
      "nkulu": 362,
      "onke": 363,
      "lela": 364,
      "ngi": 365,
      "va": 366,
      "Ġlo": 367,
      "ĠNg": 368,
      "ĠA": 369,
      "ana": 370,
      "Ġne": 371,
      "je": 372,
      "Ġizi": 373,
      "and": 374,
      "kulunkulu": 375,
      "sebenzi": 376,
      "kha": 377,
      "Nkulunkulu": 378,
      "tsh": 379,
      "Ġukuba": 380,
      "khulu": 381,
      "um": 382,
      "Ġ1": 383,
      "kwa": 384,
      "Ġla": 385,
      "nge": 386,
      "Ġnge": 387,
      "Ġngoku": 388,
      "su": 389,
      "wo": 390,
      "Ġama": 391,
      "ne": 392,
      "ĠâĢ": 393,
      "ane": 394,
      "phe": 395,
      "wu": 396,
      "de": 397,
      "Ġye": 398,
      "Ġukuthi": 399,
      "qa": 400,
      "Ġngo": 401,
      "bh": 402,
      "tho": 403,
      "Ġno": 404,
      "Ġisi": 405,
      "Ġbe": 406,
      "ĠL": 407,
      "Ġzi": 408,
      "Ġen": 409,
      "ngo": 410,
      "Ġle": 411,
      "mbi": 412,
      "od": 413,
      "ĠE": 414,
      "mu": 415,
      "eni": 416,
      "zu": 417,
      "weni": 418,
      "Ġfu": 419,
      "xa": 420,
      "Ġin": 421,
      "Ġkwe": 422,
      "ti": 423,
      "Ġfuthi": 424,
      "Ġoku": 425,
      "Ġesi": 426,
      "ca": 427,
      "Ġz": 428,
      "Ġ2": 429,
      "anye": 430,
      "ri": 431,
      "ĠS": 432,
      "Ġkwi": 433,
      "phi": 434,
      "ĠY": 435,
      "to": 436,
      "mba": 437,
      "Ġza": 438,
      "Ġ(": 439,
      "hle": 440,
      "mp": 441,
      "ngu": 442,
      "Ġnje": 443,
      "qu": 444,
      "me": 445,
      "ga": 446,
      "lwe": 447,
      "ĠW": 448,
      "ĠâĢľ": 449,
      "ĠKu": 450,
      "pho": 451,
      "Ġli": 452,
      "nto": 453,
      "hlo": 454,
      "kile": 455,
      "ja": 456,
      "âĢĿ": 457,
      "ra": 458,
      "odwa": 459,
      "Ġnoku": 460,
      "sha": 461,
      "hlu": 462,
      "Ġm": 463,
      "Ġem": 464,
      "ĠB": 465,
      "te": 466,
      "bon": 467,
      "Ġeli": 468,
      "fa": 469,
      "Ġwe": 470,
      "ce": 471,
      "ĠO": 472,
      "ngen": 473,
      "kwen": 474,
      "Ġngi": 475,
      "Ġyoku": 476,
      "dla": 477,
      "bona": 478,
      "ĠUku": 479,
      "swa": 480,
      "eho": 481,
      "ta": 482,
      "Ġkunye": 483,
      "qo": 484,
      "fi": 485,
      "ehova": 486,
      "re": 487,
      "ci": 488,
      "ina": 489,
      "phaka": 490,
      "ndi": 491,
      "Ġabantu": 492,
      "Ġse": 493,
      "hi": 494,
      "mo": 495,
      "do": 496,
      "vu": 497,
      "Ġs": 498,
      "Ġze": 499,
      "Ġngen": 500,
      "phu": 501,
      "Ġimi": 502,
      "xo": 503,
      "Ġsa": 504,
      "Ġw": 505,
      "nda": 506,
      "hu": 507,
      "ve": 508,
      "ĠM": 509,
      "Ġkodwa": 510,
      "anda": 511,
      "jalo": 512,
      "ĠNga": 513,
      "khona": 514,
      "ro": 515,
      "kwazi": 516,
      "bantu": 517,
      "Ġyi": 518,
      "Ġukuze": 519,
      "phezu": 520,
      "zwe": 521,
      "kela": 522,
      "Ġkakhulu": 523,
      "andla": 524,
      "leyo": 525,
      "Ġubu": 526,
      "qini": 527,
      "bha": 528,
      "or": 529,
      "Ġeku": 530,
      "gc": 531,
      "leni": 532,
      "kwe": 533,
      "du": 534,
      "bhe": 535,
      "Ġyo": 536,
      "lisa": 537,
      "zwa": 538,
      "no": 539,
      "qon": 540,
      "phambi": 541,
      "ndlela": 542,
      "ĠC": 543,
      "vi": 544,
      "phakathi": 545,
      "dlela": 546,
      "shi": 547,
      "Ġ3": 548,
      "ĠWa": 549,
      "Ġma": 550,
      "yaka": 551,
      "zwi": 552,
      "Ġii": 553,
      "ĠuNkulunkulu": 554,
      "Ġ-": 555,
      "mbe": 556,
      "Ġlu": 557,
      "untu": 558,
      "qala": 559,
      "sho": 560,
      "ĠUm": 561,
      "xe": 562,
      "Ġkanye": 563,
      "ene": 564,
      "Ġkoku": 565,
      "kwenza": 566,
      "gu": 567,
      "man": 568,
      "tsha": 569,
      "qi": 570,
      "fan": 571,
      "hlaba": 572,
      "khathi": 573,
      "he": 574,
      "Ġkuba": 575,
      "Ġloku": 576,
      "Ġnoma": 577,
      "Ġb": 578,
      "funa": 579,
      "st": 580,
      "phela": 581,
      "Ġke": 582,
      "thanda": 583,
      "lelo": 584,
      ".âĢĿ": 585,
      "Ġaku": 586,
      "qe": 587,
      "fanele": 588,
      "ge": 589,
      "Ġiin": 590,
      "beni": 591,
      "kanye": 592,
      "kosi": 593,
      "esu": 594,
      "Ġkan": 595,
      "yen": 596,
      "min": 597,
      "Ġyakho": 598,
      "..": 599,
      "Ġndi": 600,
      "Ġzonke": 601,
      "Ġyen": 602,
      "ĠP": 603,
      "Ġni": 604,
      "âĢĻ": 605,
      "khi": 606,
      "lule": 607,
      "Ġkwaye": 608,
      "Ġnezi": 609,
      "lungi": 610,
      "kele": 611,
      "ny": 612,
      "dawo": 613,
      "oni": 614,
      "Ġwen": 615,
      "mbu": 616,
      "land": 617,
      "Ġzoku": 618,
      "fundi": 619,
      "Thi": 620,
      "ĠuJ": 621,
      "sebenzisa": 622,
      "ngani": 623,
      "Ġuya": 624,
      "sen": 625,
      "fum": 626,
      "Yehova": 627,
      "Ġngu": 628,
      "mandla": 629,
      "00": 630,
      "co": 631,
      "âĢĶ": 632,
      "bhi": 633,
      "Ġolu": 634,
      "ĠBa": 635,
      "Ġ4": 636,
      "Thixo": 637,
      "ĠD": 638,
      "nya": 639,
      "ngena": 640,
      "ĠZ": 641,
      "Ġokanye": 642,
      "ono": 643,
      "kileyo": 644,
      "ĠSi": 645,
      "cwa": 646,
      "jani": 647,
      "Ġumsebenzi": 648,
      "sela": 649,
      "suku": 650,
      "phand": 651,
      "sebenza": 652,
      "Ġkwen": 653,
      "ĠT": 654,
      "gama": 655,
      "Ġnom": 656,
      "phele": 657,
      "kazi": 658,
      "Ġuma": 659,
      "lula": 660,
      "hli": 661,
      "Ġizinto": 662,
      "qhu": 663,
      "hlobo": 664,
      "hayi": 665,
      "phila": 666,
      "kani": 667,
      "wele": 668,
      "fe": 669,
      "zela": 670,
      "ĠKwa": 671,
      "she": 672,
      "cu": 673,
      "shu": 674,
      "Ġ5": 675,
      "boni": 676,
      "Ġko": 677,
      "kaNkulunkulu": 678,
      "wini": 679,
      "Ġngoba": 680,
      "ĠuM": 681,
      "Ġlwa": 682,
      "fana": 683,
      "ant": 684,
      "thand": 685,
      "Ġwaye": 686,
      "Ġ_": 687,
      "sele": 688,
      "bhu": 689,
      "dala": 690,
      "okuba": 691,
      "yin": 692,
      "zeka": 693,
      "phandle": 694,
      "ĠkaNkulunkulu": 695,
      "thetho": 696,
      "pa": 697,
      "Ġnaba": 698,
      "ĠIsi": 699,
      "mali": 700,
      "Ġngayo": 701,
      "Ġumuntu": 702,
      "cha": 703,
      "Ġkhona": 704,
      "beka": 705,
      "ent": 706,
      "01": 707,
      "hamba": 708,
      "minyaka": 709,
      "yeli": 710,
      "Ġindlela": 711,
      "ji": 712,
      "ndo": 713,
      "mele": 714,
      "ĠNa": 715,
      "gi": 716,
      "Ġngenxa": 717,
      "phum": 718,
      "Ġenga": 719,
      "ĠNgo": 720,
      "Ġezin": 721,
      "Ġbonke": 722,
      "Ġyakhe": 723,
      "ĠAba": 724,
      "wana": 725,
      "hlala": 726,
      "thola": 727,
      "zin": 728,
      "Ġunga": 729,
      "Ġwathi": 730,
      "lweni": 731,
      "Ġphambi": 732,
      "er": 733,
      "Ġom": 734,
      "xesha": 735,
      "dwa": 736,
      "ĠAma": 737,
      "Ġlwe": 738,
      "Ġlapho": 739,
      "ĠF": 740,
      "vum": 741,
      "Ġphakathi": 742,
      "Ġnjengo": 743,
      "zen": 744,
      "Ġkuphela": 745,
      "kala": 746,
      "inzi": 747,
      "Ġint": 748,
      "swe": 749,
      "Ġyonke": 750,
      "kan": 751,
      "lelwa": 752,
      "Ġxa": 753,
      "ĠLo": 754,
      "qiniso": 755,
      "ĠH": 756,
      "Ġ\"": 757,
      "Ġwoku": 758,
      "Ġkun": 759,
      "phezulu": 760,
      "lele": 761,
      "EL": 762,
      "fo": 763,
      "ĠKodwa": 764,
      "oya": 765,
      "Bhayi": 766,
      "yela": 767,
      "bani": 768,
      "ĠLa": 769,
      "Si": 770,
      "Ġinto": 771,
      "Ġizin": 772,
      "Ġnen": 773,
      "ar": 774,
      "jo": 775,
      "xi": 776,
      "ziwa": 777,
      "ĠâĢĺ": 778,
      "andi": 779,
      "hlan": 780,
      "es": 781,
      "mpi": 782,
      "ngaba": 783,
      "ngc": 784,
      "ty": 785,
      "Ġnama": 786,
      "ntwana": 787,
      "Ġ6": 788,
      "fune": 789,
      "Ġ.": 790,
      "Ġbu": 791,
      "ĠLe": 792,
      "Ġukuya": 793,
      "ord": 794,
      "Sa": 795,
      "Ġnjalo": 796,
      "int": 797,
      "ĠYa": 798,
      "thwa": 799,
      "bini": 800,
      "nike": 801,
      "Ġwakhe": 802,
      "lokho": 803,
      "gqi": 804,
      "Ġabe": 805,
      "Ġkuye": 806,
      "qinise": 807,
      "dlalo": 808,
      "kuba": 809,
      "Ġkube": 810,
      "Ġkom": 811,
      "ngela": 812,
      "gesi": 813,
      "vela": 814,
      "hosa": 815,
      "ĠJ": 816,
      "nguqu": 817,
      "ngabe": 818,
      "funda": 819,
      "Ġngom": 820,
      "Ġbabe": 821,
      "Xhosa": 822,
      "caba": 823,
      "khon": 824,
      "lwazi": 825,
      "yisi": 826,
      "zinto": 827,
      "bula": 828,
      "rayeli": 829,
      "Ġon": 830,
      "endu": 831,
      "thile": 832,
      "bili": 833,
      "bala": 834,
      "mva": 835,
      "ine": 836,
      "go": 837,
      "stu": 838,
      "ĠIn": 839,
      ".+": 840,
      "tshi": 841,
      "ziyo": 842,
      "Ġwakho": 843,
      "ningi": 844,
      "Ġkum": 845,
      "Ġngesi": 846,
      "ĠNgi": 847,
      "Ngesi": 848,
      "son": 849,
      "Ġowa": 850,
      "ch": 851,
      "Ġngokuba": 852,
      "ĠKa": 853,
      "Ġsoku": 854,
      "zini": 855,
      "Ġwonke": 856,
      "Ġanga": 857,
      "yu": 858,
      "Ġing": 859,
      "ĠUma": 860,
      "Ġkonke": 861,
      "Ġngaphandle": 862,
      "Ġkule": 863,
      "phin": 864,
      "lise": 865,
      "tsho": 866,
      "Jehova": 867,
      "doda": 868,
      "landela": 869,
      "po": 870,
      "hlabeni": 871,
      "ansi": 872,
      "antsi": 873,
      "Ġyesi": 874,
      "gcina": 875,
      "ĠII": 876,
      "ll": 877,
      "Ġngama": 878,
      "kisa": 879,
      "Ma": 880,
      "Ġ7": 881,
      "thetha": 882,
      "Ġkwaku": 883,
      "qobo": 884,
      "nzi": 885,
      "bho": 886,
      "Ġkwaba": 887,
      "Ġema": 888,
      "Ġaka": 889,
      "nguqulelo": 890,
      "Ġwo": 891,
      "ndla": 892,
      "ĠMa": 893,
      "lawu": 894,
      "Ġnto": 895,
      "hlabathi": 896,
      "muntu": 897,
      "Ġbakhe": 898,
      "ĠUNkulunkulu": 899,
      "ngele": 900,
      "mbo": 901,
      "kayo": 902,
      "Ġzo": 903,
      "Ġun": 904,
      "Ġese": 905,
      "ĠNge": 906,
      "daba": 907,
      "bone": 908,
      "Ġkulo": 909,
      "Ġemi": 910,
      "ĠNo": 911,
      "Ġeza": 912,
      "liso": 913,
      "ngelo": 914,
      "mela": 915,
      "usa": 916,
      "Ġayi": 917,
      "ic": 918,
      "ristu": 919,
      "vele": 920,
      "Ġyin": 921,
      "Ġlokhu": 922,
      "kathi": 923,
      "Ġ8": 924,
      "qonda": 925,
      "kene": 926,
      "Ġobu": 927,
      "kon": 928,
      "Ġ201": 929,
      "Ġuthi": 930,
      ",+": 931,
      "khan": 932,
      "Ġc": 933,
      "fumana": 934,
      "men": 935,
      "sana": 936,
      "Ġzabo": 937,
      "hlang": 938,
      "tya": 939,
      "ziwe": 940,
      "Ġyini": 941,
      "Ġ10": 942,
      "ĠNgoku": 943,
      "ĠEzi": 944,
      "Ġnesi": 945,
      "khuluma": 946,
      "dle": 947,
      "mpela": 948,
      "Ġeya": 949,
      "Ġben": 950,
      "balule": 951,
      "ĠYi": 952,
      "nke": 953,
      "khaya": 954,
      "ĠG": 955,
      "cwadi": 956,
      "ĠR": 957,
      "ELEL": 958,
      "qubo": 959,
      "bela": 960,
      "mpa": 961,
      "tom": 962,
      "dlu": 963,
      "manzi": 964,
      "...": 965,
      "zweni": 966,
      "lunga": 967,
      "ĠUmsebenzi": 968,
      "kelo": 969,
      "nce": 970,
      "Ġkuyo": 971,
      "zele": 972,
      "ĠUkuba": 973,
      "cane": 974,
      "zalwa": 975,
      "langa": 976,
      "Ġ,": 977,
      "meni": 978,
      "Ġ9": 979,
      "khawu": 980,
      "Ġim": 981,
      "nta": 982,
      "suka": 983,
      "Ġam": 984,
      ",âĢĿ": 985,
      "odana": 986,
      "Ġf": 987,
      "zayo": 988,
      "ĠuYehova": 989,
      "Ġwaba": 990,
      "Ġphezu": 991,
      "ck": 992,
      "Ġukwenza": 993,
      "cala": 994,
      "Ġkubo": 995,
      "AN": 996,
      "Nkosi": 997,
      "ziswa": 998,
      "ĠX": 999,
      "Ġlesi": 1000,
      "ĠuJehova": 1001,
      "thando": 1002,
      "Ġngendlela": 1003,
      "sayi": 1004,
      "ĠOku": 1005,
      "phendu": 1006,
      "Ġkwezi": 1007,
      "Ġyena": 1008,
      "xh": 1009,
      "ru": 1010,
      "Ġkwakhe": 1011,
      "funeka": 1012,
      "thengi": 1013,
      "Ġ11": 1014,
      "Ġemhlabeni": 1015,
      "elela": 1016,
      "lile": 1017,
      "thatha": 1018,
      "Ġp": 1019,
      "nde": 1020,
      "Ġabanye": 1021,
      "tiona": 1022,
      "Ġbaya": 1023,
      "yizi": 1024,
      "Ġnjenge": 1025,
      "yisa": 1026,
      "fika": 1027,
      "win": 1028,
      "weyo": 1029,
      "phansi": 1030,
      "tu": 1031,
      "Ġngum": 1032,
      "Ġbo": 1033,
      "Ġyabo": 1034,
      "Ġemva": 1035,
      "Ġkanjani": 1036,
      "siza": 1037,
      "ngane": 1038,
      "hlukene": 1039,
      "ĠisiXhosa": 1040,
      "Ġ12": 1041,
      "ries": 1042,
      "Ġaye": 1043,
      "ĠIzi": 1044,
      "cin": 1045,
      "ĠNje": 1046,
      "yana": 1047,
      "Ġube": 1048,
      "ĠLwa": 1049,
      "ĠNdi": 1050,
      "ĠIndlela": 1051,
      "lokhu": 1052,
      "Ġso": 1053,
      "bonisa": 1054,
      "lini": 1055,
      "Ġwase": 1056,
      "tshe": 1057,
      "sithi": 1058,
      "lungelo": 1059,
      "thuba": 1060,
      "ngum": 1061,
      "Ġimali": 1062,
      "zane": 1063,
      "Ġwam": 1064,
      "yise": 1065,
      "ngoku": 1066,
      "Ġasi": 1067,
      "Ġkwabo": 1068,
      "Ġkwakho": 1069,
      "munye": 1070,
      "ngwa": 1071,
      "ĠuThixo": 1072,
      "Ġngoko": 1073,
      "thom": 1074,
      "Ġkunga": 1075,
      "Ġngezi": 1076,
      "mpilo": 1077,
      "ĠuJesu": 1078,
      "thathu": 1079,
      "Ġind": 1080,
      "qhubeka": 1081,
      "fri": 1082,
      "yama": 1083,
      "lwini": 1084,
      "misa": 1085,
      "Ġnemi": 1086,
      "kholwa": 1087,
      "ĠNgen": 1088,
      "Ġabo": 1089,
      "sindi": 1090,
      "ter": 1091,
      "shumi": 1092,
      "Bhayibhi": 1093,
      "xho": 1094,
      "Ġwena": 1095,
      "guqu": 1096,
      "sem": 1097,
      "Ġuthe": 1098,
      "Ġonga": 1099,
      "Ġlokho": 1100,
      "ford": 1101,
      "ii": 1102,
      "zulu": 1103,
      "Ox": 1104,
      "nika": 1105,
      "ano": 1106,
      "Ġnda": 1107,
      "Ġkokuba": 1108,
      "Ġkuthi": 1109,
      "ĠNgakho": 1110,
      "com": 1111,
      "njalo": 1112,
      "Is": 1113,
      "thane": 1114,
      "Ġzen": 1115,
      "phuma": 1116,
      "ĠDic": 1117,
      "Oxford": 1118,
      "ĠDictiona": 1119,
      "ngama": 1120,
      "Ġnjengoba": 1121,
      "ĠuY": 1122,
      "bonakala": 1123,
      "ĠLwakhe": 1124,
      "Ġkwinguqulelo": 1125,
      "webhu": 1126,
      "ĠDictionaries": 1127,
      "Ġyethu": 1128,
      "Kristu": 1129,
      "sayithi": 1130,
      "qondi": 1131,
      "vumela": 1132,
      "kqubo": 1133,
      "khosi": 1134,
      "Ġebu": 1135,
      "mkani": 1136,
      "Ġindawo": 1137,
      "Ġngaphambi": 1138,
      "Ġkuzo": 1139,
      "ena": 1140,
      "Ġyom": 1141,
      "Ġlom": 1142,
      "ĠAku": 1143,
      "Ġngokwe": 1144,
      "anje": 1145,
      "uku": 1146,
      "Ġngokuthi": 1147,
      "Ġ13": 1148,
      "Ġkanga": 1149,
      "Ġlabo": 1150,
      "yona": 1151,
      "Ġlakhe": 1152,
      "Ġili": 1153,
      "Ġibe": 1154,
      "Ġamazwi": 1155,
      "Ġazi": 1156,
      "ngeni": 1157,
      "Ġngaba": 1158,
      "Ġzom": 1159,
      "Ġkwesi": 1160,
      "Ġnam": 1161,
      "Da": 1162,
      "IN": 1163,
      "hliziyo": 1164,
      "ĠV": 1165,
      "chi": 1166,
      "Ġzakhe": 1167,
      "dlala": 1168,
      "konzo": 1169,
      "Ġ15": 1170,
      "dlali": 1171,
      "qha": 1172,
      "Jesu": 1173,
      "Ġ14": 1174,
      "thole": 1175,
      "Ġ19": 1176,
      "tion": 1177,
      "ĠIngabe": 1178,
      "leka": 1179,
      "gcwele": 1180,
      "Ġnjani": 1181,
      "gen": 1182,
      "ĠâĢĵ": 1183,
      "ying": 1184,
      "et": 1185,
      "Ġ#": 1186,
      "Ġiya": 1187,
      "Ġyase": 1188,
      "Ġlakho": 1189,
      "muva": 1190,
      "ĠSa": 1191,
      "Israyeli": 1192,
      "PH": 1193,
      "ndle": 1194,
      "zima": 1195,
      "19": 1196,
      "Ġkuku": 1197,
      "ngom": 1198,
      "wesi": 1199,
      "Ġkusho": 1200,
      "Ġumntu": 1201,
      "pu": 1202,
      "ou": 1203,
      "Ġnabo": 1204,
      "lwi": 1205,
      "ĠUqobo": 1206,
      "zana": 1207,
      "cabanga": 1208,
      "mve": 1209,
      "fane": 1210,
      "Ġuza": 1211,
      "pe": 1212,
      "bele": 1213,
      "enye": 1214,
      "zange": 1215,
      "shwa": 1216,
      "enza": 1217,
      "Ġkuma": 1218,
      "Ġigama": 1219,
      "Ġawu": 1220,
      "KU": 1221,
      "Ġamandla": 1222,
      "faka": 1223,
      "Ġbakho": 1224,
      "phatha": 1225,
      "Ġkufanele": 1226,
      "Ġkuya": 1227,
      "pro": 1228,
      "ĠÂ": 1229,
      "Ġkukho": 1230,
      "Ġinga": 1231,
      "Ġkuka": 1232,
      "dlula": 1233,
      "sti": 1234,
      "Ġzakho": 1235,
      "Ġnobu": 1236,
      "Ġkwin": 1237,
      "tto": 1238,
      "AB": 1239,
      "cela": 1240,
      "Ġapho": 1241,
      "hambi": 1242,
      "kamp": 1243,
      "Ġukuzi": 1244,
      "Bhayibhe": 1245,
      "xha": 1246,
      "Ġnaye": 1247,
      "al": 1248,
      "tye": 1249,
      "jwa": 1250,
      "Ġyaye": 1251,
      "Zi": 1252,
      "phantsi": 1253,
      "kiso": 1254,
      "mvu": 1255,
      "ĠLi": 1256,
      "bonaka": 1257,
      "khatha": 1258,
      "Ġ/": 1259,
      "qondo": 1260,
      "Ġmi": 1261,
      "eli": 1262,
      "ninzi": 1263,
      "Ġis": 1264,
      "Ġngeke": 1265,
      "Ġof": 1266,
      "yazi": 1267,
      "shin": 1268,
      "Ġsom": 1269,
      "manga": 1270,
      "themba": 1271,
      "ngcwele": 1272,
      "Ġoko": 1273,
      "jabu": 1274,
      "Ġwesi": 1275,
      "liswa": 1276,
      "Ba": 1277,
      "Ġukwa": 1278,
      "Ġh": 1279,
      "mile": 1280,
      "ĠAbantu": 1281,
      "ĠNgaba": 1282,
      "ĠYe": 1283,
      "Ġngakho": 1284,
      "ry": 1285,
      "yele": 1286,
      "Ġlaba": 1287,
      "ttoo": 1288,
      "thela": 1289,
      "Ġbese": 1290,
      "ndleni": 1291,
      "Ġ16": 1292,
      "ĠNi": 1293,
      "yini": 1294,
      "qina": 1295,
      "god": 1296,
      "Ġ...": 1297,
      "ĠkuNkulunkulu": 1298,
      "ĠUM": 1299,
      "pi": 1300,
      "Ġki": 1301,
      "set": 1302,
      "phinde": 1303,
      "fundo": 1304,
      "Ġnase": 1305,
      "kelela": 1306,
      "thembe": 1307,
      "ĠFu": 1308,
      "dodana": 1309,
      "10": 1310,
      "zisa": 1311,
      "buzo": 1312,
      "Ġ18": 1313,
      "beke": 1314,
      "Ġuzo": 1315,
      "Ġlezi": 1316,
      "Ġ17": 1317,
      "Ġkwama": 1318,
      "ose": 1319,
      "ï¿": 1320,
      "ĠKe": 1321,
      "Ġyami": 1322,
      "Ng": 1323,
      "Ġbanga": 1324,
      "Bhayibhile": 1325,
      "dinga": 1326,
      "hlelo": 1327,
      "lwimi": 1328,
      "kampani": 1329,
      ".âĢĻ": 1330,
      "bono": 1331,
      "liwe": 1332,
      "ĠSe": 1333,
      "theni": 1334,
      "qeqe": 1335,
      "Ġngalo": 1336,
      ").": 1337,
      "qh": 1338,
      "xenye": 1339,
      "ĠXa": 1340,
      "Ġengu": 1341,
      "Ġkufuneka": 1342,
      "lisi": 1343,
      "Ġyama": 1344,
      "thwe": 1345,
      "ĠNkosi": 1346,
      "ment": 1347,
      "oo": 1348,
      "hambe": 1349,
      "Ġulwazi": 1350,
      "Ġenda": 1351,
      "Ġngokwa": 1352,
      "Ġzethu": 1353,
      "oh": 1354,
      "ss": 1355,
      "zon": 1356,
      "seni": 1357,
      "Ġwom": 1358,
      "uda": 1359,
      "Ġuba": 1360,
      "Ġkuwe": 1361,
      "fumane": 1362,
      "sweni": 1363,
      "Ġisikhathi": 1364,
      "Ġphambili": 1365,
      "Ġeba": 1366,
      "Ġkanti": 1367,
      "tj": 1368,
      "jongo": 1369,
      "Ġ24": 1370,
      "mini": 1371,
      "Ġbona": 1372,
      "hlangani": 1373,
      "Ġngale": 1374,
      "Sathane": 1375,
      "201": 1376,
      "zama": 1377,
      "zimba": 1378,
      "ï¿½": 1379,
      "Ġ20": 1380,
      "gwe": 1381,
      "Ġnee": 1382,
      "khumbu": 1383,
      "Ġengi": 1384,
      "Ġndlela": 1385,
      "qela": 1386,
      "anethi": 1387,
      "Ġsakhe": 1388,
      "gh": 1389,
      "lungu": 1390,
      "thelo": 1391,
      "Ġlika": 1392,
      "Ġaman": 1393,
      "dlule": 1394,
      "kana": 1395,
      "gaba": 1396,
      "loko": 1397,
      "mise": 1398,
      "Ġsiya": 1399,
      "phelele": 1400,
      "keni": 1401,
      "buso": 1402,
      "Davi": 1403,
      "phepha": 1404,
      "layo": 1405,
      "Ġlonke": 1406,
      "Fa": 1407,
      "Ġabanga": 1408,
      "qayizi": 1409,
      "Ġuzi": 1410,
      "Ġiza": 1411,
      "Ġkaku": 1412,
      "yeni": 1413,
      "Ġnokuba": 1414,
      "Ġngesikhathi": 1415,
      "phakade": 1416,
      "yingqayizi": 1417,
      "kolo": 1418,
      "thele": 1419,
      "setyen": 1420,
      "nu": 1421,
      "Ġenye": 1422,
      "caci": 1423,
      "Ġakukho": 1424,
      "Bhayibheli": 1425,
      "Ġsen": 1426,
      "Ġapha": 1427,
      "Ġca": 1428,
      "ĠAfri": 1429,
      "meko": 1430,
      "busi": 1431,
      "Sirayeli": 1432,
      "Ġbaka": 1433,
      "bandla": 1434,
      "wum": 1435,
      "Ġawa": 1436,
      "Ġand": 1437,
      "tshen": 1438,
      "one": 1439,
      "hlale": 1440,
      "hulu": 1441,
      "Ġufuna": 1442,
      "Ġwabo": 1443,
      "Ġbathi": 1444,
      "khetha": 1445,
      "shini": 1446,
      "ngathi": 1447,
      "yanga": 1448,
      "zulwini": 1449,
      "muhla": 1450,
      "Pa": 1451,
      "zeke": 1452,
      "ĠLokhu": 1453,
      "Ġ'": 1454,
      "Ġukwazi": 1455,
      "Ġnokuthi": 1456,
      "sukela": 1457,
      "hlanje": 1458,
      "lingani": 1459,
      "Ġkuna": 1460,
      "Ġbam": 1461,
      "Ġiqiniso": 1462,
      "ĠNjengo": 1463,
      "ĠWe": 1464,
      "kelele": 1465,
      "Ġenkulu": 1466,
      "Ġezint": 1467,
      "Ġendaweni": 1468,
      "Ġkahle": 1469,
      "landelayo": 1470,
      "Ġyaba": 1471,
      "ngcono": 1472,
      "khanya": 1473,
      "ulu": 1474,
      "Ġokwa": 1475,
      "Ġkuze": 1476,
      "zelo": 1477,
      "ĠIi": 1478,
      "Ġase": 1479,
      "kalo": 1480,
      "cinga": 1481,
      "kuthi": 1482,
      "fanayo": 1483,
      "thuthu": 1484,
      "xide": 1485,
      "kisi": 1486,
      "ĠUnga": 1487,
      "zoku": 1488,
      "Ġbase": 1489,
      "tattoo": 1490,
      "moya": 1491,
      "Ku": 1492,
      "fazi": 1493,
      "dum": 1494,
      "Ġusi": 1495,
      "hlabathini": 1496,
      "bomi": 1497,
      "yingqayizivele": 1498,
      "Ġdi": 1499,
      "ziy": 1500,
      "zali": 1501,
      "Ġezinye": 1502,
      "ĠNgoko": 1503,
      "mbisa": 1504,
      "Ġomkhulu": 1505,
      "ĠImi": 1506,
      "Ġesa": 1507,
      "Ġsinga": 1508,
      "noku": 1509,
      "phambili": 1510,
      "hlanu": 1511,
      "gcin": 1512,
      "khutha": 1513,
      "andleni": 1514,
      "lahle": 1515,
      "lungile": 1516,
      "kelwa": 1517,
      "rs": 1518,
      "Ġababe": 1519,
      "tshu": 1520,
      "Ġisa": 1521,
      "Ġbabo": 1522,
      "ĠWonke": 1523,
      "nceda": 1524,
      "ngene": 1525,
      "ĠWathi": 1526,
      "nyama": 1527,
      "ts": 1528,
      "ĠuN": 1529,
      "vo": 1530,
      "fazane": 1531,
      "lungileyo": 1532,
      "Ġyokuba": 1533,
      "ĠNgenxa": 1534,
      "Ġakho": 1535,
      "kholo": 1536,
      "selwa": 1537,
      "Ġ[": 1538,
      "Ġlama": 1539,
      "Ġleyo": 1540,
      "ĠZi": 1541,
      "oxide": 1542,
      "ngekho": 1543,
      "Ġezinga": 1544,
      "nqo": 1545,
      "ĠBe": 1546,
      "Ġsesi": 1547,
      "ELELELEL": 1548,
      "dinge": 1549,
      "ĠuS": 1550,
      "Ġakhe": 1551,
      "hloko": 1552,
      "II": 1553,
      "ĠKuba": 1554,
      "Ġkunjalo": 1555,
      "qale": 1556,
      "fundisa": 1557,
      "Ġiminyaka": 1558,
      "yile": 1559,
      "Ġbazi": 1560,
      "ando": 1561,
      "il": 1562,
      "Ġsakho": 1563,
      "Ġngobu": 1564,
      "Ġbaba": 1565,
      "Ġngempela": 1566,
      "bizwa": 1567,
      "ngwane": 1568,
      "webhusayithi": 1569,
      "Ġmalunga": 1570,
      "LA": 1571,
      "lwane": 1572,
      "khawule": 1573,
      "khasi": 1574,
      "khiqi": 1575,
      "kumbi": 1576,
      "Ġiint": 1577,
      "LU": 1578,
      "ju": 1579,
      "yenza": 1580,
      "Ġend": 1581,
      "20": 1582,
      "lungisa": 1583,
      "Ġethi": 1584,
      "Ġlowo": 1585,
      "hluko": 1586,
      "ĠUbu": 1587,
      "Ġ21": 1588,
      "Ġuyi": 1589,
      "ngesi": 1590,
      "ĠZa": 1591,
      "Ġ2018": 1592,
      "Ġwethu": 1593,
      "okuqala": 1594,
      "000": 1595,
      "hloni": 1596,
      "thweni": 1597,
      "tshin": 1598,
      "labo": 1599,
      "Ġebe": 1600,
      "nyu": 1601,
      "ĠOyingqayizivele": 1602,
      "ndoda": 1603,
      "mukela": 1604,
      "TH": 1605,
      "onyana": 1606,
      "Ġisimo": 1607,
      "setshen": 1608,
      "nyana": 1609,
      "ĠEku": 1610,
      "vume": 1611,
      "xhobo": 1612,
      "xhum": 1613,
      "Ġkumele": 1614,
      "vaka": 1615,
      "phile": 1616,
      "yani": 1617,
      "Ġixesha": 1618,
      "ndaba": 1619,
      "sebenzisi": 1620,
      "Ġwenza": 1621,
      "ordan": 1622,
      "Ġan": 1623,
      "Ġkuwo": 1624,
      "tshela": 1625,
      "Ġl": 1626,
      "Ġneen": 1627,
      "phathi": 1628,
      "yiphi": 1629,
      "ngca": 1630,
      "Ġnjengoko": 1631,
      "ĠEli": 1632,
      "khula": 1633,
      "EN": 1634,
      "ĠLapho": 1635,
      "fanekiso": 1636,
      "Ġkwalokho": 1637,
      "ir": 1638,
      "diyo": 1639,
      "lowo": 1640,
      "umele": 1641,
      "Ġsika": 1642,
      "yameni": 1643,
      "saba": 1644,
      "Ġyam": 1645,
      "Ġimisebenzi": 1646,
      ".âĢĶ": 1647,
      "chaza": 1648,
      "Ġkungen": 1649,
      "gazi": 1650,
      "phendula": 1651,
      "Ġezininzi": 1652,
      "lala": 1653,
      "kwenzeka": 1654,
      "Ġabantwana": 1655,
      "15": 1656,
      "Ġune": 1657,
      "12": 1658,
      "Ġ0": 1659,
      "Ġfor": 1660,
      "hwe": 1661,
      "ĠNe": 1662,
      "Ġumthetho": 1663,
      "khonza": 1664,
      "Ġyayi": 1665,
      "ngeke": 1666,
      "buza": 1667,
      "mbili": 1668,
      "Ġene": 1669,
      "olo": 1670,
      "wula": 1671,
      "Ġ22": 1672,
      "tt": 1673,
      "Ġumhlaba": 1674,
      "ndawo": 1675,
      "qum": 1676,
      "ĠIsiNgesi": 1677,
      "dini": 1678,
      "kanani": 1679,
      "ĠCa": 1680,
      "Ġngisho": 1681,
      "Ngi": 1682,
      "ngana": 1683,
      "dwe": 1684,
      "shiya": 1685,
      "leli": 1686,
      "khethe": 1687,
      "ly": 1688,
      "Ġyezi": 1689,
      "Ġloo": 1690,
      "Mi": 1691,
      "SA": 1692,
      "Ġkwii": 1693,
      "fike": 1694,
      "bhala": 1695,
      "onyaka": 1696,
      "ziyweni": 1697,
      "nje": 1698,
      "lind": 1699,
      "Ġwama": 1700,
      "ĠUkuze": 1701,
      "),": 1702,
      "Ġentsha": 1703,
      "lapho": 1704,
      "bane": 1705,
      "tolo": 1706,
      "intoni": 1707,
      "nti": 1708,
      "hlungu": 1709,
      "Ġonke": 1710,
      "thombe": 1711,
      "Ġseku": 1712,
      "ï¿½ï¿½": 1713,
      "dela": 1714,
      "Ġithi": 1715,
      "Ġbazo": 1716,
      "ndlu": 1717,
      "Ġabafundi": 1718,
      "zathu": 1719,
      "dade": 1720,
      "Ġnjenga": 1721,
      "Yi": 1722,
      "ngoko": 1723,
      "Ġyokuthi": 1724,
      "mbalwa": 1725,
      "zile": 1726,
      "khangela": 1727,
      "Moya": 1728,
      "Ġangi": 1729,
      "Ġwami": 1730,
      "hlakani": 1731,
      "zantsi": 1732,
      "khawuleza": 1733,
      "11": 1734,
      "inye": 1735,
      "miso": 1736,
      "Ġyayo": 1737,
      "Ġali": 1738,
      "Davide": 1739,
      "ĠHa": 1740,
      "yaku": 1741,
      "thethe": 1742,
      "phumela": 1743,
      "mpahla": 1744,
      "ĠYoku": 1745,
      "mehlo": 1746,
      "Ġeyi": 1747,
      "ĠyesiNgesi": 1748,
      "Ġt": 1749,
      "profe": 1750,
      "thula": 1751,
      "khala": 1752,
      "hleli": 1753,
      "nywa": 1754,
      "Ġâ": 1755,
      "He": 1756,
      "sile": 1757,
      "Ġbeku": 1758,
      "ver": 1759,
      "ngisa": 1760,
      "phula": 1761,
      "bonelo": 1762,
      "tshwa": 1763,
      "eleni": 1764,
      "Ġmanje": 1765,
      "Ġngeen": 1766,
      "Ġukuphila": 1767,
      "wenza": 1768,
      "bheka": 1769,
      "lungise": 1770,
      "Ġde": 1771,
      "lisayo": 1772,
      "intanethi": 1773,
      "ĠuYesu": 1774,
      "Ġuye": 1775,
      "Ġkubantu": 1776,
      "hlangano": 1777,
      "Ġngaphakathi": 1778,
      "oma": 1779,
      "Ġndawo": 1780,
      "phoyisa": 1781,
      "Ġkakuhle": 1782,
      "thiwa": 1783,
      "kinga": 1784,
      "Ġuyo": 1785,
      "kanga": 1786,
      "buye": 1787,
      "sasa": 1788,
      "SE": 1789,
      "ngci": 1790,
      "Ġeziningi": 1791,
      "14": 1792,
      "bulala": 1793,
      "loku": 1794,
      "Ġngemi": 1795,
      "Ġthe": 1796,
      "mayela": 1797,
      "hlwa": 1798,
      "rha": 1799,
      "lwandle": 1800,
      "Ġomunye": 1801,
      "celo": 1802,
      "qaku": 1803,
      "kelwe": 1804,
      "qwa": 1805,
      "nzima": 1806,
      "lilo": 1807,
      "sise": 1808,
      "Ġnjengom": 1809,
      "leko": 1810,
      "lawula": 1811,
      "bhalo": 1812,
      "tal": 1813,
      "Ġezo": 1814,
      "ĠWom": 1815,
      "Ġamanzi": 1816,
      "qaleni": 1817,
      "ĠYom": 1818,
      "sebenzini": 1819,
      "xu": 1820,
      "wethu": 1821,
      "Ġzama": 1822,
      "balulekile": 1823,
      "mveliso": 1824,
      "Ġumdlalo": 1825,
      "Ġuthando": 1826,
      "Ġ23": 1827,
      "misele": 1828,
      "Ġbayo": 1829,
      "seku": 1830,
      "ĠQ": 1831,
      "thini": 1832,
      "vidiyo": 1833,
      "Se": 1834,
      "ĠNjengoba": 1835,
      "Ġekhaya": 1836,
      "linye": 1837,
      "Ġzinto": 1838,
      "sikhathi": 1839,
      "Ġkwabantu": 1840,
      "Ġwazi": 1841,
      "Ġthi": 1842,
      "Ġzinga": 1843,
      "ĠKwi": 1844,
      "Ġathi": 1845,
      "setyenziswa": 1846,
      "ft": 1847,
      "ĠPha": 1848,
      "biza": 1849,
      "Ġngaphezu": 1850,
      "gunya": 1851,
      "manye": 1852,
      "qinisekisa": 1853,
      "Ġnd": 1854,
      "funde": 1855,
      "ĠIzinto": 1856,
      "mn": 1857,
      "Ġes": 1858,
      "hlulela": 1859,
      "ceda": 1860,
      "Ġkuyi": 1861,
      "manje": 1862,
      "24": 1863,
      "ld": 1864,
      "Ġuna": 1865,
      "Ġezinta": 1866,
      "Ġubudala": 1867,
      "Ġ25": 1868,
      "Ġsonke": 1869,
      "ĠNgoba": 1870,
      "gle": 1871,
      "biso": 1872,
      "funi": 1873,
      "Na": 1874,
      "lileyo": 1875,
      "ngona": 1876,
      "Ġkwiin": 1877,
      "Ġukufunda": 1878,
      "ĠCar": 1879,
      "bisa": 1880,
      "Ġbethu": 1881,
      "Ġeni": 1882,
      "Ġuse": 1883,
      "16": 1884,
      "yinto": 1885,
      "Ġnabantu": 1886,
      "thaba": 1887,
      "Ġzika": 1888,
      "Ġkukhona": 1889,
      "Bha": 1890,
      "Ġ*": 1891,
      "Yesu": 1892,
      "kwini": 1893,
      "?âĢĿ": 1894,
      "cho": 1895,
      "nikelo": 1896,
      "ĠiNkosi": 1897,
      "siwe": 1898,
      "omo": 1899,
      "ĠkukaNkulunkulu": 1900,
      "ĠIin": 1901,
      "thathe": 1902,
      "qembu": 1903,
      "Ġiz": 1904,
      "ywa": 1905,
      "Ġngabe": 1906,
      "ĠEmva": 1907,
      "ĠWakhe": 1908,
      "Ġezahlukene": 1909,
      "zenzo": 1910,
      "ĠIN": 1911,
      "Ġzezi": 1912,
      "Ġbesi": 1913,
      "senza": 1914,
      "kaze": 1915,
      "Ġziya": 1916,
      "lwano": 1917,
      "ĠYini": 1918,
      "ondo": 1919,
      "fanelekileyo": 1920,
      "Ġomu": 1921,
      "lelwe": 1922,
      "Ġindoda": 1923,
      "zekelo": 1924,
      "Ġent": 1925,
      "elele": 1926,
      "mulo": 1927,
      "Ġukusebenza": 1928,
      "18": 1929,
      "mpawu": 1930,
      "chu": 1931,
      "lesi": 1932,
      "ĠlikaNkulunkulu": 1933,
      "lawulo": 1934,
      "us": 1935,
      "Ġyobu": 1936,
      "hlela": 1937,
      "erusa": 1938,
      "Ġkoko": 1939,
      "erusale": 1940,
      "Ġnt": 1941,
      "bana": 1942,
      "ncin": 1943,
      "Ġphantsi": 1944,
      "ngazi": 1945,
      "thombo": 1946,
      "Ġlase": 1947,
      "Ġesithi": 1948,
      "Ġela": 1949,
      "kholelwa": 1950,
      "Ġkwisi": 1951,
      "Fu": 1952,
      "Ja": 1953,
      "ombi": 1954,
      "yelana": 1955,
      "Ġise": 1956,
      "Ġngazo": 1957,
      "ĠNgokuba": 1958,
      "pheshe": 1959,
      "zalwana": 1960,
      "Ġ=": 1961,
      "selo": 1962,
      "Ġukubu": 1963,
      "xy": 1964,
      "Gi": 1965,
      "Ġlutho": 1966,
      "Li": 1967,
      "13": 1968,
      "Ġnaku": 1969,
      "zenza": 1970,
      "Ġsikhathi": 1971,
      "Ġnayo": 1972,
      "Le": 1973,
      "les": 1974,
      "setshenziswa": 1975,
      "datha": 1976,
      "tyala": 1977,
      "kwi": 1978,
      "phinda": 1979,
      "Ngqina": 1980,
      "ree": 1981,
      "Ġone": 1982,
      "Ġphansi": 1983,
      "Ġ:": 1984,
      "Ġatom": 1985,
      "ĠCarbon": 1986,
      "cebo": 1987,
      "Ngcwele": 1988,
      "shesha": 1989,
      "ngxenye": 1990,
      "gwa": 1991,
      "ncane": 1992,
      "pheleleyo": 1993,
      "ĠKh": 1994,
      "Ġoyi": 1995,
      "Ġkusukela": 1996,
      "oogle": 1997,
      "Uku": 1998,
      "bile": 1999,
      "Ġumoya": 2000,
      "hliziyweni": 2001,
      "Ġcar": 2002,
      "ndeni": 2003,
      "keli": 2004,
      "zeni": 2005,
      "ganga": 2006,
      "riya": 2007,
      "xaki": 2008,
      "wabo": 2009,
      "Ġwaza": 2010,
      "kakhulu": 2011,
      "thumela": 2012,
      "Ġusu": 2013,
      "bingele": 2014,
      "sebenzise": 2015,
      "nte": 2016,
      "mente": 2017,
      "yena": 2018,
      "ngqondo": 2019,
      "ĠYenza": 2020,
      "khono": 2021,
      "Ġezweni": 2022,
      "Ġnezin": 2023,
      "Ġngokukhawuleza": 2024,
      "banga": 2025,
      "ĠeM": 2026,
      "qhele": 2027,
      "ON": 2028,
      "hlawum": 2029,
      "ĠAbanye": 2030,
      "Ġokunga": 2031,
      "hluka": 2032,
      "sebenze": 2033,
      "Ġimihla": 2034,
      "Ġiindaba": 2035,
      "thiwe": 2036,
      "tic": 2037,
      "qonde": 2038,
      "bin": 2039,
      "Ġdioxide": 2040,
      "dele": 2041,
      ".)": 2042,
      "kwesi": 2043,
      "kise": 2044,
      "ohane": 2045,
      "ngozi": 2046,
      "thethweni": 2047,
      "âĢ¦": 2048,
      "phawu": 2049,
      "La": 2050,
      "ĠUya": 2051,
      "limi": 2052,
      "nikeza": 2053,
      "Ġezifana": 2054,
      "holi": 2055,
      "moto": 2056,
      "ĠZonke": 2057,
      "mweni": 2058,
      "Ġamalungelo": 2059,
      "Ġlwakho": 2060,
      "17": 2061,
      "thenga": 2062,
      "mpu": 2063,
      "Ġnazo": 2064,
      "meli": 2065,
      "zelwe": 2066,
      "qond": 2067,
      "jwayele": 2068,
      "Ġleli": 2069,
      "dlo": 2070,
      "ngokuba": 2071,
      "won": 2072,
      "phumelela": 2073,
      "ur": 2074,
      "YE": 2075,
      "Ġ&": 2076,
      "vula": 2077,
      "ĠÂ©": 2078,
      "gcwa": 2079,
      "Ġukubona": 2080,
      "ĠEsi": 2081,
      "ys": 2082,
      "ngco": 2083,
      "lalela": 2084,
      "Ġlula": 2085,
      "bra": 2086,
      "The": 2087,
      "Ġkuqala": 2088,
      "hloso": 2089,
      "lindele": 2090,
      "ĠLonke": 2091,
      "som": 2092,
      "Ġulu": 2093,
      "ĠiN": 2094,
      "ber": 2095,
      "Juda": 2096,
      "nyaka": 2097,
      "Ġmo": 2098,
      "ĠNgu": 2099,
      "Ġphezulu": 2100,
      "mfu": 2101,
      "khwa": 2102,
      "tes": 2103,
      "Ġuze": 2104,
      "Ġamadoda": 2105,
      "ps": 2106,
      "baluleke": 2107,
      "Ġukwe": 2108,
      "ABA": 2109,
      "ĠFuthi": 2110,
      "wenziwa": 2111,
      "ande": 2112,
      "vuma": 2113,
      "lement": 2114,
      "dalwa": 2115,
      "SI": 2116,
      "ĠKungani": 2117,
      "Ġeyo": 2118,
      "OKU": 2119,
      "Ġ;": 2120,
      "Ka": 2121,
      "Ġg": 2122,
      "yoku": 2123,
      "ama": 2124,
      "hala": 2125,
      "kcu": 2126,
      "Ġngangi": 2127,
      "ĠeN": 2128,
      "Ġthina": 2129,
      "Ġezine": 2130,
      "ngempela": 2131,
      "Ġkancane": 2132,
      "bene": 2133,
      "Ġukusebenzisa": 2134,
      "Ġbaza": 2135,
      "it": 2136,
      "ula": 2137,
      "ĠWaye": 2138,
      "liziyo": 2139,
      "zelela": 2140,
      "hluphe": 2141,
      "ĠkaYehova": 2142,
      "Ġyona": 2143,
      "Ġwawu": 2144,
      "len": 2145,
      "ĠEhlabathini": 2146,
      "Ġbenga": 2147,
      "Ġnamhlanje": 2148,
      "Ġowaye": 2149,
      "mbeni": 2150,
      "LE": 2151,
      "Ġemsebenzini": 2152,
      "Ġomnye": 2153,
      "ĠPhakathi": 2154,
      "Ġani": 2155,
      "khiqizo": 2156,
      "Ġabaningi": 2157,
      "lekile": 2158,
      "Ġnxa": 2159,
      "khusele": 2160,
      "thoko": 2161,
      "PHA": 2162,
      "Ġezintathu": 2163,
      "bulu": 2164,
      "khombisa": 2165,
      "Ġinkosi": 2166,
      "Ġnezinye": 2167,
      "Ġngabantu": 2168,
      "Ġzaba": 2169,
      "30": 2170,
      "ul": 2171,
      "ad": 2172,
      "thande": 2173,
      "finye": 2174,
      "Ġabadlali": 2175,
      "Ġukuyi": 2176,
      "Pawu": 2177,
      "Ġkwami": 2178,
      "IT": 2179,
      "ĠuA": 2180,
      "Ġbantu": 2181,
      "ĠUthe": 2182,
      "ngweni": 2183,
      "Ġr": 2184,
      "line": 2185,
      "Ġtattoo": 2186,
      "Ġose": 2187,
      "Ġkusi": 2188,
      "am": 2189,
      "dolo": 2190,
      "Lu": 2191,
      "Ġbaye": 2192,
      "Ġinhliziyo": 2193,
      "Ġmu": 2194,
      "ĠInguqulelo": 2195,
      "Ġ26": 2196,
      "ting": 2197,
      "landeli": 2198,
      "veza": 2199,
      "Ġimpilo": 2200,
      "Ġingesi": 2201,
      "ĠAfrika": 2202,
      "fisa": 2203,
      "Ġnanga": 2204,
      "bhali": 2205,
      "ZI": 2206,
      "lizwe": 2207,
      "vamile": 2208,
      "Ġindodana": 2209,
      "Ġuhla": 2210,
      "Ġake": 2211,
      "yiswa": 2212,
      "ĠingesiNgesi": 2213,
      "Ġemin": 2214,
      "Ġindlu": 2215,
      "mende": 2216,
      "gcineni": 2217,
      "Ġimidlalo": 2218,
      "Ġkwenza": 2219,
      "Ġuhlobo": 2220,
      "butho": 2221,
      "phefum": 2222,
      "khawunti": 2223,
      "zuzo": 2224,
      "ĠThe": 2225,
      "Google": 2226,
      "pp": 2227,
      "andaba": 2228,
      "godliwe": 2229,
      "gomo": 2230,
      "ĠKwathi": 2231,
      "deni": 2232,
      "kweni": 2233,
      "ĠuP": 2234,
      "xibe": 2235,
      "sindo": 2236,
      "ome": 2237,
      "hlukani": 2238,
      "Ġnathi": 2239,
      "gcine": 2240,
      "ĠUJesu": 2241,
      "Ġithuba": 2242,
      "Ġnawe": 2243,
      "chwe": 2244,
      "Ġezinkulu": 2245,
      "Ġusebenzisa": 2246,
      "ted": 2247,
      "ĠCo": 2248,
      "Ġzabantu": 2249,
      "tholakala": 2250,
      "ĠJordan": 2251,
      "fakazi": 2252,
      "Ġyokuqala": 2253,
      "ĠDi": 2254,
      "wonye": 2255,
      "el": 2256,
      "benza": 2257,
      "quke": 2258,
      "rd": 2259,
      "thengisa": 2260,
      "lezo": 2261,
      "Ġbaku": 2262,
      "kiswa": 2263,
      "Ġcarbon": 2264,
      "ĠBonke": 2265,
      "gci": 2266,
      "Ġlen": 2267,
      "Ġkwethu": 2268,
      "Ġ+": 2269,
      "fundisi": 2270,
      "Ġsebe": 2271,
      "rogen": 2272,
      "ngeli": 2273,
      "Ġkanjalo": 2274,
      "Ġubomi": 2275,
      "phathe": 2276,
      "xygen": 2277,
      "phefu": 2278,
      "mvelo": 2279,
      "unye": 2280,
      "jini": 2281,
      "ĠOnke": 2282,
      "Ġeng": 2283,
      "yd": 2284,
      "Ġwenze": 2285,
      "dingo": 2286,
      "fani": 2287,
      "Ġkimi": 2288,
      "Ġmina": 2289,
      "Ġkwenu": 2290,
      "Ġizwi": 2291,
      "phume": 2292,
      "lelwano": 2293,
      "id": 2294,
      "Ġkune": 2295,
      "goli": 2296,
      "ĠUthi": 2297,
      "liswe": 2298,
      "Ġkwayo": 2299,
      "meme": 2300,
      "Ġnabanye": 2301,
      "zuku": 2302,
      "dingeka": 2303,
      "qwe": 2304,
      "Ġbezi": 2305,
      "ĠNoma": 2306,
      "solwa": 2307,
      "Ġ27": 2308,
      "buya": 2309,
      "Ġngokwen": 2310,
      "zom": 2311,
      "endulo": 2312,
      "wn": 2313,
      "Ġlapha": 2314,
      "Ġkwemi": 2315,
      "thulu": 2316,
      "Ġkwakhona": 2317,
      "khiwo": 2318,
      "komo": 2319,
      "ĠBu": 2320,
      "ĠKaNkulunkulu": 2321,
      "hlangana": 2322,
      "omandla": 2323,
      "Ġeze": 2324,
      "thaka": 2325,
      "dleleni": 2326,
      "Ġukufumana": 2327,
      "mfi": 2328,
      "Ġ28": 2329,
      "ĠKan": 2330,
      "ĠIsimo": 2331,
      "Ġaya": 2332,
      "Ġabazi": 2333,
      "quka": 2334,
      "ngenza": 2335,
      "mbini": 2336,
      "ĠoNgcwele": 2337,
      "pri": 2338,
      "ceku": 2339,
      "Ġmayelana": 2340,
      "owa": 2341,
      "Ġyinto": 2342,
      "mnye": 2343,
      "GA": 2344,
      "buka": 2345,
      "ĠAkukho": 2346,
      "mileyo": 2347,
      "Ġibi": 2348,
      "phethe": 2349,
      "cula": 2350,
      "Ġukunga": 2351,
      "Ġlobu": 2352,
      "Ġkude": 2353,
      "mpendulo": 2354,
      "Ġzibe": 2355,
      "lomo": 2356,
      "lima": 2357,
      "gra": 2358,
      "belo": 2359,
      "Ġnjengen": 2360,
      "Ġana": 2361,
      "Ġabane": 2362,
      "ĠlesiXhosa": 2363,
      "Ġngemva": 2364,
      "sandla": 2365,
      "ngiso": 2366,
      "//": 2367,
      "Ġ30": 2368,
      "Ġisintu": 2369,
      "lobo": 2370,
      "ndu": 2371,
      "hola": 2372,
      "gqo": 2373,
      "Isa": 2374,
      "25": 2375,
      "fun": 2376,
      "Ġzokugcina": 2377,
      "Ġngexesha": 2378,
      "hlola": 2379,
      "Ġicala": 2380,
      "Ġndiya": 2381,
      "lin": 2382,
      "Ġethu": 2383,
      "ĠuMa": 2384,
      "ĠYintoni": 2385,
      "Ġwaya": 2386,
      "sapho": 2387,
      "ÂŃ": 2388,
      "khumbula": 2389,
      "khonzi": 2390,
      "Ġngokuphelele": 2391,
      "nikela": 2392,
      "Ġyomuntu": 2393,
      "ngqi": 2394,
      "zalwane": 2395,
      "Ġkuhle": 2396,
      "thembi": 2397,
      "://": 2398,
      "chitha": 2399,
      "Ġkuza": 2400,
      "Ġkuthiwa": 2401,
      "ngubo": 2402,
      "ĠnguNkulunkulu": 2403,
      "Ġukuthola": 2404,
      "ol": 2405,
      "Ġyisi": 2406,
      "Ġeziyi": 2407,
      "culo": 2408,
      ",\"": 2409,
      "Ġesinga": 2410,
      "Ġlokuthi": 2411,
      "hlophe": 2412,
      "zinisi": 2413,
      "Ġelikhulu": 2414,
      "ut": 2415,
      "khwe": 2416,
      "Ġukusuka": 2417,
      "senyameni": 2418,
      "ndisa": 2419,
      "Ġlwakhe": 2420,
      ";+": 2421,
      "Ġmna": 2422,
      "gidi": 2423,
      "bali": 2424,
      "keka": 2425,
      "shwe": 2426,
      "ĠInto": 2427,
      "mon": 2428,
      "MA": 2429,
      "Ġnamuhla": 2430,
      "ght": 2431,
      "Ġngaphansi": 2432,
      "Ġngakumbi": 2433,
      "zelwa": 2434,
      "Ġlethu": 2435,
      "Ġji": 2436,
      "shishini": 2437,
      "gangatho": 2438,
      "jwayelekile": 2439,
      "outh": 2440,
      "khuthaza": 2441,
      "Ġlwen": 2442,
      "Me": 2443,
      "lunye": 2444,
      "thandwa": 2445,
      "Ġsengathi": 2446,
      "KO": 2447,
      "Ġzobu": 2448,
      "visi": 2449,
      "Ġwayo": 2450,
      "ron": 2451,
      "ran": 2452,
      "khundleni": 2453,
      "Ġsibe": 2454,
      "ngoma": 2455,
      "Ġboku": 2456,
      "ks": 2457,
      "Ġiku": 2458,
      "ĠYakhe": 2459,
      "ws": 2460,
      "Ga": 2461,
      "moni": 2462,
      "ĠKha": 2463,
      "nyango": 2464,
      "ĠFunda": 2465,
      "ĠsikaNkulunkulu": 2466,
      "shaya": 2467,
      "yan": 2468,
      "Ġ29": 2469,
      "bhizinisi": 2470,
      "ĠuMoya": 2471,
      "hlweni": 2472,
      "Ama": 2473,
      "vumele": 2474,
      "Ġsisi": 2475,
      "Ġndawonye": 2476,
      "phake": 2477,
      "lwana": 2478,
      "yaniso": 2479,
      "mnyama": 2480,
      "âĢĭ": 2481,
      "Ġukuqonda": 2482,
      "Ġendlini": 2483,
      "banzi": 2484,
      "nama": 2485,
      "Ġabaninzi": 2486,
      ".âĢĿâĢĶ": 2487,
      "ndakan": 2488,
      "Ġmuntu": 2489,
      "Ġezimbili": 2490,
      "Ġsezi": 2491,
      "Ġngaphezulu": 2492,
      "chwepheshe": 2493,
      "Ġilizwi": 2494,
      "ren": 2495,
      "kwakha": 2496,
      "Ġokukhulu": 2497,
      "Ġkangakanani": 2498,
      "Ġsele": 2499,
      "ĠYena": 2500,
      "Lwesi": 2501,
      "ĠNokho": 2502,
      "Ġisandla": 2503,
      "ELELELELELELELEL": 2504,
      "cwangci": 2505,
      "bonga": 2506,
      "Ġkuno": 2507,
      "Ġha": 2508,
      "ino": 2509,
      "nqoba": 2510,
      "Ġamabili": 2511,
      "oses": 2512,
      "Ġkwizi": 2513,
      "tywa": 2514,
      "Ġink": 2515,
      "Ġeme": 2516,
      "ĠInt": 2517,
      "Ġd": 2518,
      "philayo": 2519,
      "Ġkuni": 2520,
      "Ġngaye": 2521,
      "Ġzase": 2522,
      "xwa": 2523,
      "khule": 2524,
      "Ġnalo": 2525,
      "kwenze": 2526,
      "shumayela": 2527,
      "Ġnendlela": 2528,
      "sazi": 2529,
      "Ġamagama": 2530,
      "sane": 2531,
      "ĠuSathane": 2532,
      "ntwini": 2533,
      "sola": 2534,
      "che": 2535,
      "umelelo": 2536,
      "Ã©": 2537,
      "gaqo": 2538,
      "Fi": 2539,
      "nqu": 2540,
      "yili": 2541,
      "up": 2542,
      "sindisa": 2543,
      "busa": 2544,
      "Ġnango": 2545,
      "shiye": 2546,
      "Ġukuhla": 2547,
      "ĠUJehova": 2548,
      "hlakalo": 2549,
      "yina": 2550,
      "Ġngubani": 2551,
      "Ha": 2552,
      "hum": 2553,
      "nci": 2554,
      "Ġaze": 2555,
      "golide": 2556,
      "ema": 2557,
      "ĠLu": 2558,
      "Ġkepha": 2559,
      "Ġkini": 2560,
      "gqa": 2561,
      "kra": 2562,
      "Ġukum": 2563,
      "gqu": 2564,
      "thandi": 2565,
      "Ġbeba": 2566,
      "buyi": 2567,
      "KA": 2568,
      "Ġkwimi": 2569,
      "Ġmsebenzi": 2570,
      "site": 2571,
      "thandayo": 2572,
      "Ġyabantu": 2573,
      "thandaza": 2574,
      "Ġumu": 2575,
      "Ġkwenzeka": 2576,
      "ziphi": 2577,
      "Ġukudla": 2578,
      "Zimu": 2579,
      "kr": 2580,
      "sto": 2581,
      "hen": 2582,
      "kacha": 2583,
      "phaza": 2584,
      "misela": 2585,
      "Ġintando": 2586,
      "balulekileyo": 2587,
      "Ġenze": 2588,
      "kokuqala": 2589,
      "Ġume": 2590,
      "van": 2591,
      "tsa": 2592,
      "sukwini": 2593,
      "fake": 2594,
      "ydrogen": 2595,
      "khundla": 2596,
      "cazelo": 2597,
      "vumelwano": 2598,
      "Ġendi": 2599,
      "ĠKwaku": 2600,
      "ĠNgemva": 2601,
      "kcukacha": 2602,
      "Ġhlobo": 2603,
      "fiso": 2604,
      "Ġwu": 2605,
      "pheph": 2606,
      "Jo": 2607,
      "Ġezulwini": 2608,
      "Ġinani": 2609,
      "nom": 2610,
      "khuba": 2611,
      "ct": 2612,
      "Ġto": 2613,
      "ĠIBhayibhile": 2614,
      "duze": 2615,
      "mpumelelo": 2616,
      "Ġ$": 2617,
      "QA": 2618,
      "shintsha": 2619,
      "ĠWethu": 2620,
      "Ġkungani": 2621,
      "zamo": 2622,
      "qumo": 2623,
      "liya": 2624,
      "ĠSikaNkulunkulu": 2625,
      "Ġlokuqala": 2626,
      "Ġungu": 2627,
      "Ġethile": 2628,
      "Ġezahlukeneyo": 2629,
      "bhola": 2630,
      "ðŁ": 2631,
      "Ġjikelele": 2632,
      "Yuda": 2633,
      "lenye": 2634,
      "mthetho": 2635,
      "hlanganisa": 2636,
      "Ġelo": 2637,
      "ĠNgaphezu": 2638,
      "sindiso": 2639,
      "Ġzesi": 2640,
      "zani": 2641,
      "khadi": 2642,
      "mhlanje": 2643,
      "Ġngathi": 2644,
      "hlukahlukene": 2645,
      "dli": 2646,
      "Ġngase": 2647,
      "Ġunyana": 2648,
      "vin": 2649,
      "ĠAmazwi": 2650,
      "Ġine": 2651,
      "Ġinyama": 2652,
      "Ġkangaka": 2653,
      "ole": 2654,
      "Ġizo": 2655,
      "Ġnina": 2656,
      "qhuba": 2657,
      "Ġilizwe": 2658,
      "'s": 2659,
      "Ġsasi": 2660,
      "phefumlo": 2661,
      "Ġbayi": 2662,
      "suke": 2663,
      "khipha": 2664,
      "thani": 2665,
      "Ġelu": 2666,
      "Ġngokushesha": 2667,
      "Ġyenza": 2668,
      "21": 2669,
      "tomba": 2670,
      "HA": 2671,
      "ngeziwe": 2672,
      "Ġngawo": 2673,
      "ĠuSa": 2674,
      "Ġngolu": 2675,
      "vumelana": 2676,
      ".\"": 2677,
      "Bu": 2678,
      "Ġuthole": 2679,
      "ĠnoNkulunkulu": 2680,
      "hina": 2681,
      "Ġzazi": 2682,
      "aningi": 2683,
      "Ġezintsha": 2684,
      "cimbi": 2685,
      "ms": 2686,
      "hlaka": 2687,
      "Ġendleleni": 2688,
      "Ġzenu": 2689,
      "ĠYonke": 2690,
      "Ġeyen": 2691,
      "susa": 2692,
      "Ġumzimba": 2693,
      "!!": 2694,
      "hweba": 2695,
      "ww": 2696,
      "xhumana": 2697,
      "qhubeke": 2698,
      "ban": 2699,
      "ĠUD": 2700,
      "Ġkubalule": 2701,
      "Ġngemuva": 2702,
      "coko": 2703,
      "Ġngiya": 2704,
      "sekelo": 2705,
      "Ġngeli": 2706,
      "ĠSta": 2707,
      "Ġeyayi": 2708,
      "lli": 2709,
      "Ġusuku": 2710,
      "cwe": 2711,
      "Ġ000": 2712,
      "Ġkuse": 2713,
      "Ġsizi": 2714,
      "loo": 2715,
      "Ġninga": 2716,
      "xelo": 2717,
      "Ġeye": 2718,
      "ĠkaThixo": 2719,
      "yalelo": 2720,
      "Ġindi": 2721,
      "ĠKwakhe": 2722,
      "qeqeshi": 2723,
      "Ġokuhle": 2724,
      "200": 2725,
      "lum": 2726,
      "ngxaki": 2727,
      "ĠAfrica": 2728,
      "Ġesandleni": 2729,
      "Ġukuku": 2730,
      "phutha": 2731,
      "nyan": 2732,
      "Ġekuqaleni": 2733,
      "wule": 2734,
      "Ġidi": 2735,
      "sono": 2736,
      "Lo": 2737,
      "kla": 2738,
      "Ġnjengoku": 2739,
      "Ġemehlweni": 2740,
      "hlisa": 2741,
      "baba": 2742,
      "sani": 2743,
      "tor": 2744,
      "xolo": 2745,
      "ngcwa": 2746,
      "Ġkukuba": 2747,
      "as": 2748,
      "Ġlami": 2749,
      "susela": 2750,
      "ngqo": 2751,
      "23": 2752,
      "bomvu": 2753,
      "ngula": 2754,
      "nyathelo": 2755,
      "ĠNakuba": 2756,
      "Ġlabantu": 2757,
      "ĠNoNkulunkulu": 2758,
      "Ġamakhulu": 2759,
      "ndaweni": 2760,
      "Ġumntwana": 2761,
      "In": 2762,
      "hlwe": 2763,
      "Ġngqo": 2764,
      "han": 2765,
      "UM": 2766,
      "sizi": 2767,
      "Ġmazwi": 2768,
      "Ġamehlo": 2769,
      "pala": 2770,
      "busiso": 2771,
      "ngeza": 2772,
      "Ġinkulu": 2773,
      "khanda": 2774,
      "Ġbakwa": 2775,
      "khulula": 2776,
      "ĠUmuntu": 2777,
      "laba": 2778,
      "ngqina": 2779,
      "qhelekileyo": 2780,
      "hulumente": 2781,
      "Ġzayo": 2782,
      "Ġengena": 2783,
      "Ġwayi": 2784,
      "onasi": 2785,
      "zinye": 2786,
      "Ġnqaku": 2787,
      "Ġzin": 2788,
      "Ġnange": 2789,
      "22": 2790,
      "Ġkwam": 2791,
      "sombulu": 2792,
      "xalenye": 2793,
      "yalezo": 2794,
      "gxi": 2795,
      "WA": 2796,
      "Ġabase": 2797,
      "sini": 2798,
      "qaba": 2799,
      "buyela": 2800,
      "kade": 2801,
      "nene": 2802,
      "kwahlulela": 2803,
      "rt": 2804,
      "cal": 2805,
      "Ġsokuba": 2806,
      "Ġre": 2807,
      "Bhe": 2808,
      "Ġlona": 2809,
      "!âĢĿ": 2810,
      "zala": 2811,
      "keza": 2812,
      "ĠKwe": 2813,
      "Ġizingane": 2814,
      "qotho": 2815,
      "Ġkaloku": 2816,
      "Ġnan": 2817,
      "khulume": 2818,
      "Ġlwesi": 2819,
      "Ġbuka": 2820,
      "bhonasi": 2821,
      "nini": 2822,
      "tshane": 2823,
      "Ġlolu": 2824,
      "Afri": 2825,
      "Ġnakho": 2826,
      "Ġubani": 2827,
      "ĠkaJehova": 2828,
      "cell": 2829,
      "dali": 2830,
      "bhekana": 2831,
      "mpilweni": 2832,
      "Ġntoni": 2833,
      "xibelelwano": 2834,
      "phakeme": 2835,
      "Ġ^": 2836,
      "zise": 2837,
      "zaku": 2838,
      "ĠuK": 2839,
      "fur": 2840,
      "xabiso": 2841,
      "yoni": 2842,
      "ok": 2843,
      "pheleni": 2844,
      "Ġngokusebenzisa": 2845,
      "ĠKukho": 2846,
      "Ġnzima": 2847,
      "phumo": 2848,
      "Ġlokuba": 2849,
      "qalisa": 2850,
      "jikele": 2851,
      "Ġukumkani": 2852,
      "then": 2853,
      "Ġnomsebenzi": 2854,
      "kithi": 2855,
      "Ġiye": 2856,
      "Ġabayi": 2857,
      "ĠkuYehova": 2858,
      "thupha": 2859,
      "hambisana": 2860,
      "Ġincwadi": 2861,
      "swano": 2862,
      "Ġobe": 2863,
      "Ġkomuntu": 2864,
      "TO": 2865,
      "ĠuSomandla": 2866,
      "Ġuli": 2867,
      "Ġize": 2868,
      "xholo": 2869,
      "MM": 2870,
      "sayo": 2871,
      "ĠuD": 2872,
      "mpe": 2873,
      "Ġpa": 2874,
      "nyani": 2875,
      "Ġhhayi": 2876,
      "Ġungum": 2877,
      "gula": 2878,
      "Ġemini": 2879,
      "Funda": 2880,
      "thuluzi": 2881,
      "shela": 2882,
      "Ġelithi": 2883,
      "braha": 2884,
      "ĠNangona": 2885,
      "ĠUN": 2886,
      "fileyo": 2887,
      "ĠNgaphandle": 2888,
      "Ġ31": 2889,
      "letha": 2890,
      "mukele": 2891,
      "kantolo": 2892,
      "Ġlayo": 2893,
      "Ġezinhle": 2894,
      "Ġngaso": 2895,
      "ble": 2896,
      "Ġngee": 2897,
      "Ġkwindawo": 2898,
      "zekile": 2899,
      "ĠiBhayibheli": 2900,
      "Ġikakhulu": 2901,
      "ĠMe": 2902,
      "cy": 2903,
      "bheke": 2904,
      "funeko": 2905,
      "tra": 2906,
      "Ġehamba": 2907,
      "naphakade": 2908,
      "Ya": 2909,
      "zil": 2910,
      "Ġidatha": 2911,
      "cacile": 2912,
      "und": 2913,
      "ngase": 2914,
      "LO": 2915,
      "khiwa": 2916,
      "tshintsha": 2917,
      "nele": 2918,
      "Ġsama": 2919,
      "LUN": 2920,
      "hlalo": 2921,
      "Ġemuva": 2922,
      "Ġkweli": 2923,
      "ĠAsi": 2924,
      "fundiso": 2925,
      "Ġizindlela": 2926,
      "phephandaba": 2927,
      "ĠDa": 2928,
      "Ġalu": 2929,
      "andu": 2930,
      "ĠUS": 2931,
      "zimu": 2932,
      "ĠKristu": 2933,
      "zuza": 2934,
      "ĠLOKU": 2935,
      "Ġngonyaka": 2936,
      "Ca": 2937,
      "zeki": 2938,
      "Ġngokupheleleyo": 2939,
      "Ġeliphezulu": 2940,
      "ime": 2941,
      "Ġamaphoyisa": 2942,
      "xelela": 2943,
      "yon": 2944,
      "Ġokwe": 2945,
      "hlanganye": 2946,
      "enxe": 2947,
      "sika": 2948,
      "bsite": 2949,
      "Ġyenu": 2950,
      "Ġezen": 2951,
      "Ġkungaba": 2952,
      "lezi": 2953,
      "ĠNoku": 2954,
      "tshele": 2955,
      "zandla": 2956,
      "ngxo": 2957,
      "phakamisa": 2958,
      "Ġungathanda": 2959,
      "Ġngabo": 2960,
      "qukethwe": 2961,
      "sta": 2962,
      "sesi": 2963,
      "ĠIPH": 2964,
      "akhawunti": 2965,
      "dia": 2966,
      "Ġimithetho": 2967,
      "kelayo": 2968,
      "SEO": 2969,
      "Ġnangoku": 2970,
      "Ġakekho": 2971,
      "phando": 2972,
      "Ġukholo": 2973,
      "ĠNjalo": 2974,
      "Ġuyaku": 2975,
      "bindi": 2976,
      "Ġizikhathi": 2977,
      "Ġuyazi": 2978,
      "ĠUThixo": 2979,
      "thunye": 2980,
      "Ġkwee": 2981,
      "ndakanya": 2982,
      "qhube": 2983,
      "Ġbebe": 2984,
      "mnandi": 2985,
      "gum": 2986,
      "siya": 2987,
      "Ġabu": 2988,
      "Ġzami": 2989,
      "Um": 2990,
      "Ġengama": 2991,
      "kwenziwa": 2992,
      "Ġandi": 2993,
      "sonto": 2994,
      "qwen": 2995,
      "Ġkungenzeka": 2996,
      "ĠuR": 2997,
      "Ġinkqubo": 2998,
      "sondela": 2999,
      "ĠNdiya": 3000,
      "phefumulo": 3001,
      "Ġukukhanya": 3002,
      "Ġesikhundleni": 3003,
      "ĠNda": 3004,
      "ĠnoM": 3005,
      "Ġoo": 3006,
      "cabango": 3007,
      "khali": 3008,
      "ĠuDavide": 3009,
      "ngan": 3010,
      "luleka": 3011,
      "Ġoneminyaka": 3012,
      "mane": 3013,
      "ĠngoLwesi": 3014,
      "sebenzela": 3015,
      "Ġbenza": 3016,
      "Ġiindlela": 3017,
      "namandla": 3018,
      "Ġenhliziyweni": 3019,
      "Ġubuso": 3020,
      "ĠEm": 3021,
      "Ġsu": 3022,
      "neni": 3023,
      "zisi": 3024,
      "ĠJa": 3025,
      "MB": 3026,
      "Ġmhlawum": 3027,
      "veliso": 3028,
      "Jerusale": 3029,
      "Ġabafuna": 3030,
      "Ġezili": 3031,
      "qeda": 3032,
      "ngakho": 3033,
      "Ġngosuku": 3034,
      "feza": 3035,
      "zuzu": 3036,
      "ĠRe": 3037,
      "soloko": 3038,
      "Ġamazwe": 3039,
      "jonga": 3040,
      "Ġsomuntu": 3041,
      "Ġnawo": 3042,
      "Zulu": 3043,
      "papa": 3044,
      "Ġezithile": 3045,
      "xhenxe": 3046,
      "Ġnent": 3047,
      "hlukile": 3048,
      "Ġagodliwe": 3049,
      "base": 3050,
      "thwalo": 3051,
      "Ġngezinto": 3052,
      "zinsuku": 3053,
      "pla": 3054,
      "fowethu": 3055,
      "ĠSo": 3056,
      "hluku": 3057,
      "Ġazo": 3058,
      "ĠIgama": 3059,
      "Ġozi": 3060,
      "Ġco": 3061,
      "60": 3062,
      "LI": 3063,
      "hambo": 3064,
      "veki": 3065,
      "Ġsiza": 3066,
      "khangele": 3067,
      "Ġikho": 3068,
      "Ġekubeni": 3069,
      "lando": 3070,
      "vuka": 3071,
      "Ġatoms": 3072,
      "Jerusalema": 3073,
      "Ġsabo": 3074,
      "sisa": 3075,
      "ZIN": 3076,
      "Ġkwazo": 3077,
      "Ġwokuqala": 3078,
      "Ġnginga": 3079,
      "EPHA": 3080,
      "Ġabazali": 3081,
      "Ġuqobo": 3082,
      "40": 3083,
      "qho": 3084,
      "Ye": 3085,
      "ilwe": 3086,
      "QALA": 3087,
      "Ġezimbalwa": 3088,
      "Ġokufanele": 3089,
      "tla": 3090,
      "ĠPa": 3091,
      "Ġokubi": 3092,
      "Ġiba": 3093,
      "dalo": 3094,
      "ĠOwenziwa": 3095,
      "Ġukuzedlula": 3096,
      "Ġngc": 3097,
      "futshane": 3098,
      "tela": 3099,
      "kumkani": 3100,
      "vikela": 3101,
      "hambela": 3102,
      "mpyu": 3103,
      "lungele": 3104,
      "wona": 3105,
      "Ġenhle": 3106,
      "rg": 3107,
      "Ġlwimi": 3108,
      "loni": 3109,
      "emailwe": 3110,
      "Ġlinga": 3111,
      ".âĢĿ+": 3112,
      "Ġngokunga": 3113,
      "Roma": 3114,
      "hlali": 3115,
      "Mo": 3116,
      "Ġyemi": 3117,
      "ziphatha": 3118,
      "ĠKo": 3119,
      "Ġkwezinye": 3120,
      "yiku": 3121,
      "Ġinkonzo": 3122,
      "Ġwon": 3123,
      "ĠMo": 3124,
      "Ġangu": 3125,
      "ĠIPHEPHA": 3126,
      "Ġez": 3127,
      "pheli": 3128,
      "dumo": 3129,
      "aba": 3130,
      "lutho": 3131,
      "yakeni": 3132,
      "gqibe": 3133,
      "Fakazi": 3134,
      "Ġbaze": 3135,
      "ombo": 3136,
      "Ne": 3137,
      "py": 3138,
      "don": 3139,
      "Ġukufa": 3140,
      "Ġzawo": 3141,
      "Hu": 3142,
      "nandi": 3143,
      "Ġukusi": 3144,
      "hlin": 3145,
      "etru": 3146,
      "ĠzikaNkulunkulu": 3147,
      "Ġluka": 3148,
      "Ndodana": 3149,
      "melwe": 3150,
      "Ġ32": 3151,
      "thandazo": 3152,
      "lapha": 3153,
      "ĠKwaye": 3154,
      "cinde": 3155,
      "Ġonline": 3156,
      "Ġimin": 3157,
      "Ġiindle": 3158,
      "ngaphakathi": 3159,
      "nkulungwane": 3160,
      "file": 3161,
      "sizo": 3162,
      "onya": 3163,
      "bulawa": 3164,
      "Ġabana": 3165,
      "Be": 3166,
      "ls": 3167,
      "lungisele": 3168,
      "Ġona": 3169,
      "Ġkunge": 3170,
      "inte": 3171,
      "thuma": 3172,
      "Ġiimveliso": 3173,
      "Ġezingama": 3174,
      "Ġnguye": 3175,
      "Ġbama": 3176,
      "soft": 3177,
      "Ġusa": 3178,
      "phathwa": 3179,
      "Ġumhla": 3180,
      "50": 3181,
      "Ġane": 3182,
      "sisi": 3183,
      "sebe": 3184,
      "ngameli": 3185,
      "hliso": 3186,
      "ĠWena": 3187,
      "âĢĭâĢĶ": 3188,
      "Ġbami": 3189,
      "Ġwona": 3190,
      "Ġ200": 3191,
      "razil": 3192,
      "Ġeyodwa": 3193,
      "der": 3194,
      "uma": 3195,
      "fund": 3196,
      "khathini": 3197,
      "mpeleni": 3198,
      "ress": 3199,
      "rofe": 3200,
      "kona": 3201,
      "pto": 3202,
      "ĠEzinye": 3203,
      "hulumeni": 3204,
      "ĠCha": 3205,
      "at": 3206,
      "Ġsami": 3207,
      "hlakanipha": 3208,
      "can": 3209,
      "thabatha": 3210,
      "lt": 3211,
      "Ġngamandla": 3212,
      "Ġunoku": 3213,
      "Ġesikhulu": 3214,
      "Ndi": 3215,
      "28": 3216,
      "Ġefanayo": 3217,
      "Ġayo": 3218,
      "Int": 3219,
      "ngunaphakade": 3220,
      "Ġelide": 3221,
      "gqibela": 3222,
      "Ni": 3223,
      "sipala": 3224,
      "omsebenzi": 3225,
      "Ġyee": 3226,
      "bonile": 3227,
      "ĠWomhlaba": 3228,
      "Ġmntu": 3229,
      "Ġngalokho": 3230,
      "con": 3231,
      "qana": 3232,
      "sifazane": 3233,
      "zwana": 3234,
      "Ġuyise": 3235,
      "Ġlawo": 3236,
      "ĠLOKUQALA": 3237,
      "ĠKhona": 3238,
      "2018": 3239,
      "oli": 3240,
      "finyelela": 3241,
      "puta": 3242,
      "Ġkwalo": 3243,
      "Ġnezinto": 3244,
      "pristi": 3245,
      "thunywa": 3246,
      "ĠiBhayibhile": 3247,
      "Ġuhlelo": 3248,
      "Ġeno": 3249,
      "Ġingabe": 3250,
      "jabulo": 3251,
      "fumaneka": 3252,
      "ĠuT": 3253,
      "ĠÂ£": 3254,
      "Ġabadala": 3255,
      "Ġisin": 3256,
      "Ġukuphu": 3257,
      "Ġabaku": 3258,
      "gqibo": 3259,
      "Ġfree": 3260,
      "ĠSiya": 3261,
      "Ġkwawo": 3262,
      "wesifazane": 3263,
      "ngenxa": 3264,
      "mfuno": 3265,
      "IP": 3266,
      "leso": 3267,
      "ĠKonke": 3268,
      "thoba": 3269,
      "qulu": 3270,
      "banisa": 3271,
      "UN": 3272,
      "ĠUYehova": 3273,
      "ngenzeka": 3274,
      "Ġliya": 3275,
      "ĠYokungena": 3276,
      "DA": 3277,
      "xhe": 3278,
      "godu": 3279,
      "Ġelinye": 3280,
      "bonakale": 3281,
      "Ġibandla": 3282,
      "mbali": 3283,
      "ĠLabo": 3284,
      "Ġbakwazi": 3285,
      "nited": 3286,
      "nobu": 3287,
      "Ġumama": 3288,
      "yene": 3289,
      "ĠuPawu": 3290,
      "Ġbenze": 3291,
      "ĠSouth": 3292,
      "kwenzayo": 3293,
      "Ġnamandla": 3294,
      "Ġyoko": 3295,
      "Ġizenzo": 3296,
      "Ġwezi": 3297,
      "Ġoonyana": 3298,
      "fikelela": 3299,
      "bhekene": 3300,
      "Ġakazange": 3301,
      "remi": 3302,
      "Ġsase": 3303,
      "Ġamanye": 3304,
      "Ġzazo": 3305,
      "ĠNikelela": 3306,
      "Yiputa": 3307,
      "WE": 3308,
      "khetho": 3309,
      "ĠIzin": 3310,
      "Nga": 3311,
      "Ġukudlala": 3312,
      "Ġwasi": 3313,
      "bingeleli": 3314,
      "ompo": 3315,
      "yste": 3316,
      "PR": 3317,
      "natha": 3318,
      "TM": 3319,
      "Ġsizo": 3320,
      "Ġbom": 3321,
      "Ġsiba": 3322,
      "kane": 3323,
      "Ġj": 3324,
      "leke": 3325,
      "nesi": 3326,
      "ĠTa": 3327,
      "ngaphambili": 3328,
      "Ġ33": 3329,
      "zenze": 3330,
      "thembiso": 3331,
      "Ġ@": 3332,
      "Ġnini": 3333,
      "ngwe": 3334,
      "kundla": 3335,
      "funayo": 3336,
      "Ġngaphambili": 3337,
      "Ġigazi": 3338,
      "thana": 3339,
      "Ġnakuba": 3340,
      "Ġenza": 3341,
      "Ġx": 3342,
      "Ġngokuqinise": 3343,
      "ssi": 3344,
      "tshwe": 3345,
      "Ġilanga": 3346,
      "ĠKakhulu": 3347,
      "Ġmdlalo": 3348,
      "Ġkunokuba": 3349,
      "Ar": 3350,
      "Ġwaku": 3351,
      "bheki": 3352,
      "Ġ34": 3353,
      "qhe": 3354,
      "gcini": 3355,
      "Ġyalo": 3356,
      "Ġizindaba": 3357,
      "Ġingane": 3358,
      "jen": 3359,
      "fowu": 3360,
      "waka": 3361,
      "phen": 3362,
      "Ġamathathu": 3363,
      "Ġisicelo": 3364,
      "thandana": 3365,
      "ĠDe": 3366,
      "THI": 3367,
      "buhlungu": 3368,
      "Ġxesha": 3369,
      "PS": 3370,
      "per": 3371,
      "Ġga": 3372,
      "Ġezimbini": 3373,
      "lahlekelwa": 3374,
      "mbala": 3375,
      "Ġaza": 3376,
      "Ġloba": 3377,
      "Ġeside": 3378,
      "midlalo": 3379,
      "hlawu": 3380,
      "Afrika": 3381,
      "nj": 3382,
      "semthethweni": 3383,
      "sino": 3384,
      "nyeni": 3385,
      "andelo": 3386,
      "khoyo": 3387,
      "jiswa": 3388,
      "ĠEnye": 3389,
      "hlupheka": 3390,
      "sebenzayo": 3391,
      "Ġsobu": 3392,
      "rhulumente": 3393,
      "landele": 3394,
      "ĠAke": 3395,
      "taba": 3396,
      "Ġme": 3397,
      "siko": 3398,
      "ngqu": 3399,
      "Ġnayiphi": 3400,
      "Ġlwabo": 3401,
      "29": 3402,
      "HO": 3403,
      "yure": 3404,
      "ttps": 3405,
      "Ġamathuba": 3406,
      "ngenaku": 3407,
      "yedwa": 3408,
      "lwayo": 3409,
      "cele": 3410,
      "erusalem": 3411,
      "Ġkubalulekile": 3412,
      "ĠKor": 3413,
      "Ġsengi": 3414,
      "ĠNd": 3415,
      "bhaka": 3416,
      "Ġamalungu": 3417,
      "enze": 3418,
      "Ġizwe": 3419,
      "Ġsithi": 3420,
      "Ġnani": 3421,
      "cwangciso": 3422,
      "ĠKuya": 3423,
      "cishe": 3424,
      "ĠkuJehova": 3425,
      "ĠIsa": 3426,
      "phisa": 3427,
      "qondweni": 3428,
      "ĠManje": 3429,
      "Ġwenu": 3430,
      "Air": 3431,
      "ziswe": 3432,
      "Ġethe": 3433,
      "26": 3434,
      "ĠAmalungelo": 3435,
      "fumanekayo": 3436,
      "Ġizixhobo": 3437,
      "Ġeziyisi": 3438,
      "bhan": 3439,
      "daka": 3440,
      "njwa": 3441,
      "selwe": 3442,
      "ware": 3443,
      "Ġit": 3444,
      "Baba": 3445,
      "khela": 3446,
      "LAN": 3447,
      "Ġevela": 3448,
      "Ġsiku": 3449,
      "deo": 3450,
      "ngelosi": 3451,
      "leki": 3452,
      "Ġimibuzo": 3453,
      "Qu": 3454,
      "lle": 3455,
      "Ġsaba": 3456,
      "ID": 3457,
      "nen": 3458,
      "mazi": 3459,
      "Ġezinsukwini": 3460,
      "Ġyathi": 3461,
      "Ġekugcineni": 3462,
      "Ġngizo": 3463,
      "Yerusalem": 3464,
      "ceba": 3465,
      "Ġngokuzi": 3466,
      "ndolo": 3467,
      "Ġukuhamba": 3468,
      "anisa": 3469,
      "tshumi": 3470,
      "simbi": 3471,
      "Ġbi": 3472,
      "nake": 3473,
      "IL": 3474,
      "ngaphandle": 3475,
      "Ġcell": 3476,
      "ĠuB": 3477,
      "mbela": 3478,
      "lungiselela": 3479,
      "bonele": 3480,
      "Ġukukhu": 3481,
      "ĠKumele": 3482,
      "fula": 3483,
      "Ġkunoku": 3484,
      "dlelwa": 3485,
      "phon": 3486,
      "hlanga": 3487,
      "Ġyizi": 3488,
      "lili": 3489,
      "Ġelula": 3490,
      "Ġkithi": 3491,
      "Ġlithi": 3492,
      "log": 3493,
      "ĠNgesikhathi": 3494,
      "wuku": 3495,
      "shisa": 3496,
      "fowabo": 3497,
      "Ġamane": 3498,
      "seko": 3499,
      "ĠKufanele": 3500,
      "ĠKutheni": 3501,
      "Ġlam": 3502,
      "soze": 3503,
      "phumelele": 3504,
      "Ġayisi": 3505,
      "thengisi": 3506,
      "ĠAka": 3507,
      "Ġnjengesi": 3508,
      "sondele": 3509,
      "mpo": 3510,
      "etro": 3511,
      "ort": 3512,
      "Ġega": 3513,
      "shino": 3514,
      "ĠngoM": 3515,
      "Fili": 3516,
      "SO": 3517,
      ",âĢĻ": 3518,
      "ed": 3519,
      "CT": 3520,
      "net": 3521,
      "belana": 3522,
      "langani": 3523,
      "Ġncwadi": 3524,
      "seka": 3525,
      "Ġizinga": 3526,
      "coin": 3527,
      "Ġizandla": 3528,
      "ĠkuM": 3529,
      "Ġngamunye": 3530,
      "HLU": 3531,
      "ĠJoh": 3532,
      "mpyutha": 3533,
      "yalo": 3534,
      "DU": 3535,
      "mfundo": 3536,
      "melana": 3537,
      "BA": 3538,
      "Rg": 3539,
      "ĠISA": 3540,
      "Ġkobu": 3541,
      "\\Ā": 3542,
      "lowe": 3543,
      "sombululo": 3544,
      "thembekile": 3545,
      "ĠNgokwesi": 3546,
      "lani": 3547,
      "ster": 3548,
      "Ġokwaku": 3549,
      "Ġabasebenzisi": 3550,
      "ngothi": 3551,
      "shiwo": 3552,
      "Ġwayenga": 3553,
      "bandleni": 3554,
      "phondo": 3555,
      "âĢľ": 3556,
      "Ġimini": 3557,
      "Abraha": 3558,
      "Kwa": 3559,
      "Vi": 3560,
      "Ġkokuthi": 3561,
      "gameko": 3562,
      "ĠKunga": 3563,
      "cwadini": 3564,
      "ĠDioxide": 3565,
      "Ġukwen": 3566,
      "Gu": 3567,
      "zimbeni": 3568,
      "thewu": 3569,
      "lwanyana": 3570,
      "Ġlali": 3571,
      "Ġkumuntu": 3572,
      "yeka": 3573,
      "Ġkubu": 3574,
      "saka": 3575,
      "back": 3576,
      "yikho": 3577,
      "Ġezise": 3578,
      "NC": 3579,
      "ĠeS": 3580,
      "weli": 3581,
      "thethwa": 3582,
      "olezwe": 3583,
      "Ġothile": 3584,
      "gcisa": 3585,
      "omba": 3586,
      "ĠKanye": 3587,
      "tshilo": 3588,
      "Ġukuli": 3589,
      "Ġyokwenza": 3590,
      "fayile": 3591,
      "ncinane": 3592,
      "ĠAmandla": 3593,
      "unds": 3594,
      "malanga": 3595,
      "zona": 3596,
      "Ġungakwazi": 3597,
      "ĠNgayo": 3598,
      "Ġinko": 3599,
      "bucala": 3600,
      "Ġena": 3601,
      "27": 3602,
      "imi": 3603,
      "ĠâĢĶ": 3604,
      "LUNYE": 3605,
      "gx": 3606,
      "ĠAkhe": 3607,
      "liseki": 3608,
      "Ġ35": 3609,
      "Ġlibe": 3610,
      "mm": 3611,
      "Ġnami": 3612,
      "bano": 3613,
      "Ġukungena": 3614,
      "Ġingxenye": 3615,
      "rypto": 3616,
      "lona": 3617,
      "Ġngomhla": 3618,
      "ĠkuThixo": 3619,
      "Ġkwiindawo": 3620,
      "ĠâĢ¢": 3621,
      "Ġyokuphila": 3622,
      "stoli": 3623,
      "ombolo": 3624,
      "ĠOLUNYE": 3625,
      "shana": 3626,
      "tyhi": 3627,
      "yoba": 3628,
      "hhala": 3629,
      "33": 3630,
      "zizwa": 3631,
      "Ġumehluko": 3632,
      "Ġuyakwazi": 3633,
      "Ġkusuka": 3634,
      "ĠUDABA": 3635,
      "ziso": 3636,
      "Ġoxygen": 3637,
      "Ġ?": 3638,
      "Ġezimbi": 3639,
      "khohla": 3640,
      "xeko": 3641,
      "kodwa": 3642,
      "Ġyawo": 3643,
      "nyi": 3644,
      "Ġakwazi": 3645,
      "Ġ100": 3646,
      "qinile": 3647,
      "Ġizithombe": 3648,
      "tshona": 3649,
      "cwani": 3650,
      "Ġkuleli": 3651,
      "isi": 3652,
      "ĠWase": 3653,
      "vangeli": 3654,
      "phileni": 3655,
      "feni": 3656,
      "Ġabasebenzi": 3657,
      "HLUKO": 3658,
      "kali": 3659,
      "Ġamabini": 3660,
      "bonwa": 3661,
      "Ġngcono": 3662,
      "uro": 3663,
      "ĠBo": 3664,
      "ĠISAHLUKO": 3665,
      "Ġempilweni": 3666,
      "ĠngoNkulunkulu": 3667,
      "zwelo": 3668,
      "ĠLesi": 3669,
      "guqula": 3670,
      "Ġzee": 3671,
      "NG": 3672,
      "ndlo": 3673,
      "qaka": 3674,
      "Ġamaninzi": 3675,
      "ĠuE": 3676,
      "giji": 3677,
      "Ġamaningi": 3678,
      "dlelwane": 3679,
      "Qv": 3680,
      "londolo": 3681,
      "Ġumusa": 3682,
      "Faro": 3683,
      "qwala": 3684,
      "TE": 3685,
      "mfa": 3686,
      "Ra": 3687,
      "kthi": 3688,
      "lodwa": 3689,
      "Ġizono": 3690,
      "for": 3691,
      "Ġkwabanye": 3692,
      "lungiswa": 3693,
      "bonise": 3694,
      "ĠâĢ¦": 3695,
      "Ġezazi": 3696,
      "khululekile": 3697,
      "Ġmasi": 3698,
      "xoxa": 3699,
      "ĠUmnikelo": 3700,
      "Bo": 3701,
      "phupha": 3702,
      "anisi": 3703,
      "qondile": 3704,
      "Ġono": 3705,
      "khiye": 3706,
      "Pha": 3707,
      "Ġda": 3708,
      "ĠWo": 3709,
      "nyawo": 3710,
      "ï¿½ï¿½ï¿½ï¿½": 3711,
      "IV": 3712,
      "mkhulu": 3713,
      "Ġ<": 3714,
      "yenze": 3715,
      "ĠNG": 3716,
      "Ġmin": 3717,
      "Ġngiku": 3718,
      "Ġkumbe": 3719,
      "mfihlo": 3720,
      "ĠNamhlanje": 3721,
      "ĠWomsebenzi": 3722,
      "ncedi": 3723,
      "**": 3724,
      "Ġukukhuluma": 3725,
      "thethi": 3726,
      "Ġiso": 3727,
      "ĠIzwi": 3728,
      "gam": 3729,
      "vuzo": 3730,
      "xhome": 3731,
      "Ġomusha": 3732,
      "mbula": 3733,
      "Ġsomsebenzi": 3734,
      "Isaya": 3735,
      "uni": 3736,
      "wuli": 3737,
      "Ġayikho": 3738,
      "fowuni": 3739,
      "thuthukisa": 3740,
      "zwini": 3741,
      "Ġkuzi": 3742,
      "Ġemzini": 3743,
      "zan": 3744,
      "vame": 3745,
      "ĠWami": 3746,
      "mfuneko": 3747,
      "shishino": 3748,
      "Ġizinsuku": 3749,
      "ANC": 3750,
      "koku": 3751,
      "vavan": 3752,
      "Ġoma": 3753,
      "Ġwakwa": 3754,
      "lack": 3755,
      "lub": 3756,
      "qabane": 3757,
      "Ġkween": 3758,
      "Ġnjengokuba": 3759,
      "Ġinkampani": 3760,
      "qeqesho": 3761,
      "ĠuKristu": 3762,
      "ĠuZ": 3763,
      "Ġumfazi": 3764,
      "Ġumthombo": 3765,
      "Ġkomhlaba": 3766,
      "Ġcha": 3767,
      "mbulo": 3768,
      "khasino": 3769,
      "kethe": 3770,
      "khethwa": 3771,
      "gugu": 3772,
      "ĠZe": 3773,
      "wela": 3774,
      "ĠUYesu": 3775,
      "Ġbako": 3776,
      "Ġwabe": 3777,
      "Ġsiqu": 3778,
      "jabula": 3779,
      "xhasa": 3780,
      "qiniseka": 3781,
      "Ġkalula": 3782,
      "khasimende": 3783,
      "phelo": 3784,
      "wazi": 3785,
      "phamba": 3786,
      "qondiso": 3787,
      "ukumkani": 3788,
      "Ta": 3789,
      "Ġzona": 3790,
      "veli": 3791,
      "ÉĻ": 3792,
      "Ġfo": 3793,
      "Ġnyaka": 3794,
      "Ġeminingi": 3795,
      "restu": 3796,
      "Ġimpahla": 3797,
      "Ġukugcina": 3798,
      "Ġbabu": 3799,
      "ĠUK": 3800,
      "roid": 3801,
      "zinyo": 3802,
      "Ġnangobu": 3803,
      "Ġyakwa": 3804,
      "ise": 3805,
      "wor": 3806,
      "Ġiyi": 3807,
      "Ġokwenza": 3808,
      "kobe": 3809,
      "Ġsiye": 3810,
      "ĠlukaNkulunkulu": 3811,
      "ĠUKU": 3812,
      "cedo": 3813,
      "ĠPh": 3814,
      "nyanga": 3815,
      "thwala": 3816,
      "ĠKepha": 3817,
      "zeli": 3818,
      "ĠAwu": 3819,
      "profethi": 3820,
      "Pi": 3821,
      "keke": 3822,
      "rea": 3823,
      "ELA": 3824,
      "hlaza": 3825,
      "khethekile": 3826,
      "Ġamaxesha": 3827,
      "ngoo": 3828,
      "ĠLokho": 3829,
      "ĠNgokwesibonelo": 3830,
      "Ġefanele": 3831,
      "holo": 3832,
      "phiki": 3833,
      "bikho": 3834,
      "Ġkula": 3835,
      "Ġor": 3836,
      "culi": 3837,
      "Ġizizwe": 3838,
      "Ġ36": 3839,
      "ĠTo": 3840,
      "zazi": 3841,
      "velisa": 3842,
      "lungiselelo": 3843,
      "Ġnon": 3844,
      "Ġbali": 3845,
      "Ġokumele": 3846,
      "bamba": 3847,
      "Gibhi": 3848,
      "Ġuvu": 3849,
      "Ġ40": 3850,
      "hluleka": 3851,
      "ĠMina": 3852,
      "luntu": 3853,
      "Ġizinhlobo": 3854,
      "Ġebusuku": 3855,
      "thembeka": 3856,
      "Ġ37": 3857,
      "mfundiso": 3858,
      "Ġendlwini": 3859,
      "dlwe": 3860,
      "iningwane": 3861,
      "ĠEn": 3862,
      "Ġzam": 3863,
      "ywe": 3864,
      "Ġyazo": 3865,
      "ĠOlu": 3866,
      "dadewethu": 3867,
      "ZE": 3868,
      "khethi": 3869,
      "yuka": 3870,
      "Kh": 3871,
      "Ġebo": 3872,
      "hlezi": 3873,
      "rus": 3874,
      "Ġintombi": 3875,
      "Ġakwa": 3876,
      "ĠEzifumanekayo": 3877,
      "tele": 3878,
      "Ġpo": 3879,
      "ĠIII": 3880,
      "Ġebantwini": 3881,
      "Ġehlabathini": 3882,
      "ker": 3883,
      "Ġnokwa": 3884,
      "Ġmfundi": 3885,
      "ĠYomusa": 3886,
      "qaphela": 3887,
      "Ġngeenjongo": 3888,
      "qakathe": 3889,
      "Ġiqela": 3890,
      "LED": 3891,
      "qanaba": 3892,
      "Ġkuso": 3893,
      "Ġsiyi": 3894,
      "bhin": 3895,
      "rex": 3896,
      "tyi": 3897,
      "thanethi": 3898,
      "ĠAngi": 3899,
      "Ġiindawo": 3900,
      "Ġbasi": 3901,
      "ĠCi": 3902,
      "Ġngaleso": 3903,
      "Ġomuhle": 3904,
      "siweyo": 3905,
      "Ġyintoni": 3906,
      "Davida": 3907,
      "Ġngokwenene": 3908,
      "ompounds": 3909,
      "layi": 3910,
      "Ġndoda": 3911,
      "Ġothi": 3912,
      "bhalwe": 3913,
      "ĠHe": 3914,
      "khuseleko": 3915,
      "cebiso": 3916,
      "Ġkuyinto": 3917,
      "kude": 3918,
      "YO": 3919,
      "omu": 3920,
      "right": 3921,
      "ntwa": 3922,
      "gqiba": 3923,
      "ĠNgiya": 3924,
      "ĠKaYehova": 3925,
      "ĠKuthiwa": 3926,
      "zimisele": 3927,
      "bonakalayo": 3928,
      "tjha": 3929,
      "Gene": 3930,
      "nx": 3931,
      "zalo": 3932,
      "ngatha": 3933,
      "ĠYami": 3934,
      "bhedlela": 3935,
      "~~": 3936,
      "jele": 3937,
      "ngcali": 3938,
      "90": 3939,
      "indo": 3940,
      "thumele": 3941,
      "jonge": 3942,
      "Ġelement": 3943,
      "Ko": 3944,
      "Ġbani": 3945,
      "buyisela": 3946,
      "let": 3947,
      "ĠNgabe": 3948,
      "senoku": 3949,
      "Levi": 3950,
      "Ġngithi": 3951,
      "hambisa": 3952,
      "fthiwe": 3953,
      "sia": 3954,
      "Ġezingu": 3955,
      "siseko": 3956,
      "krele": 3957,
      "ziselwa": 3958,
      "ĠYakho": 3959,
      "tshini": 3960,
      "risi": 3961,
      "orld": 3962,
      "nywe": 3963,
      "Hebhe": 3964,
      "Ġengcono": 3965,
      "ĠUJ": 3966,
      "ĠuJo": 3967,
      "Ġnceda": 3968,
      "ing": 3969,
      "Ġlizwe": 3970,
      "Lj": 3971,
      "jekthi": 3972,
      "ĠIindaba": 3973,
      "sebenzisana": 3974,
      "lusi": 3975,
      "Ġukususela": 3976,
      "cinane": 3977,
      "Qt": 3978,
      "AM": 3979,
      "cs": 3980,
      "Ġkweminyaka": 3981,
      "ĠNkulunkulu": 3982,
      "laka": 3983,
      "yika": 3984,
      "Ġekuphileni": 3985,
      "ume": 3986,
      "Ġumbono": 3987,
      "Ġami": 3988,
      "Ġukuqinisekisa": 3989,
      "kole": 3990,
      "kobi": 3991,
      "Ġababili": 3992,
      "phelela": 3993,
      "ĠuMnu": 3994,
      "ven": 3995,
      "gco": 3996,
      "Ġmaka": 3997,
      "sher": 3998,
      "ziya": 3999,
      "papasha": 4000,
      "Ġizindawo": 4001,
      "31": 4002,
      "tweni": 4003,
      "ĠFa": 4004,
      "ĠUkuqonda": 4005,
      "Ġithe": 4006,
      "Ġkhangela": 4007,
      "lalele": 4008,
      "Ġabahleli": 4009,
      "Ġngokugcwele": 4010,
      "Ġokuthile": 4011,
      "Ġwobu": 4012,
      "tions": 4013,
      "khupha": 4014,
      "Wa": 4015,
      "ngise": 4016,
      "ĠNgama": 4017,
      "los": 4018,
      "tabeni": 4019,
      "Ġngamazwi": 4020,
      "Ġkunzima": 4021,
      "Ġngalokhu": 4022,
      "khathaliseki": 4023,
      "Gibhithe": 4024,
      "Ġkabi": 4025,
      "Ġyimi": 4026,
      "Ġlwethu": 4027,
      "ĠbakaSirayeli": 4028,
      "Ġingaba": 4029,
      "Ġindaba": 4030,
      "Ġelinga": 4031,
      "cabange": 4032,
      "mhlophe": 4033,
      "vesi": 4034,
      "Ġneent": 4035,
      "Ġangama": 4036,
      "huma": 4037,
      "Ti": 4038,
      "Ġkutsho": 4039,
      "ĠTe": 4040,
      "kazimulo": 4041,
      "Ġusizo": 4042,
      "Ġnhlobo": 4043,
      "zive": 4044,
      "Ġlwama": 4045,
      "qhi": 4046,
      "ĠSlo": 4047,
      "wayini": 4048,
      "ngeze": 4049,
      "Ġkulula": 4050,
      "zanga": 4051,
      "bizo": 4052,
      "Ġyindlela": 4053,
      "YW": 4054,
      "sungu": 4055,
      "rhwe": 4056,
      "vunye": 4057,
      "Ġekuseni": 4058,
      "zukulwana": 4059,
      "++": 4060,
      "Ġububi": 4061,
      "Ġuno": 4062,
      "ĠYo": 4063,
      "Ġiindlebe": 4064,
      "Ġngesandla": 4065,
      "Ġungi": 4066,
      "fihla": 4067,
      "khethekileyo": 4068,
      "Ġngezin": 4069,
      "tsheni": 4070,
      "ziwayo": 4071,
      "ngxoxo": 4072,
      "Ġlaye": 4073,
      "hlonipha": 4074,
      "ĠOmunye": 4075,
      "jabulela": 4076,
      "phaya": 4077,
      "tshengisa": 4078,
      "Ġesihle": 4079,
      "ĠKufuneka": 4080,
      "yint": 4081,
      "Ġumphefumlo": 4082,
      "ndela": 4083,
      "Ġelizweni": 4084,
      "kwenene": 4085,
      "khonze": 4086,
      "chule": 4087,
      "Ġnakwi": 4088,
      "gca": 4089,
      "Ġeneminyaka": 4090,
      "Ġngamnye": 4091,
      "Ġbeli": 4092,
      "pti": 4093,
      "dabu": 4094,
      "gram": 4095,
      "xaso": 4096,
      "shuwa": 4097,
      "gumbi": 4098,
      "Ġubone": 4099,
      "khuni": 4100,
      "Ġbengi": 4101,
      "sinye": 4102,
      "Ġkubi": 4103,
      "Ġebandleni": 4104,
      "cra": 4105,
      "kuphi": 4106,
      "balo": 4107,
      "Ġokuningi": 4108,
      "mangaliso": 4109,
      "tter": 4110,
      "bhokisi": 4111,
      "mani": 4112,
      "muphi": 4113,
      "Ġneze": 4114,
      "Ġnakan": 4115,
      "Ġkwesikhathi": 4116,
      "Ġesiko": 4117,
      "Ġemo": 4118,
      "Ġngenkathi": 4119,
      "ĠEma": 4120,
      "qinisa": 4121,
      "langaniso": 4122,
      "Ph": 4123,
      "zileyo": 4124,
      "Ġsethu": 4125,
      "Ġwali": 4126,
      "ance": 4127,
      "Ġowo": 4128,
      "zoba": 4129,
      "dume": 4130,
      "Ġkwathi": 4131,
      "kunzi": 4132,
      "lawulwa": 4133,
      "kudala": 4134,
      "Ġiimpawu": 4135,
      "Bhayibhelini": 4136,
      "?âĢĶ": 4137,
      "ngoba": 4138,
      "Ġ2017": 4139,
      "ulfur": 4140,
      "CA": 4141,
      "kale": 4142,
      "Ġwabona": 4143,
      "tshiwe": 4144,
      "Po": 4145,
      "hemi": 4146,
      "zinikela": 4147,
      "Ġikakhulukazi": 4148,
      "Ġngawe": 4149,
      "ELELELELELELELELELELELELELELELEL": 4150,
      "ĠAman": 4151,
      "fakwe": 4152,
      "ĠKU": 4153,
      "Izi": 4154,
      "Ġizifundo": 4155,
      "thuku": 4156,
      "qondisa": 4157,
      "Ġyomsebenzi": 4158,
      "andela": 4159,
      "onisa": 4160,
      "Ġv": 4161,
      "kakhe": 4162,
      "Ġoba": 4163,
      "thathwa": 4164,
      "Ġkanje": 4165,
      "ĠAtom": 4166,
      "ngelwa": 4167,
      "Au": 4168,
      "phakela": 4169,
      "Ġezindaweni": 4170,
      "holela": 4171,
      "Ġkulesi": 4172,
      "khathazeka": 4173,
      "ngxelo": 4174,
      "thon": 4175,
      "Ġababini": 4176,
      "kheli": 4177,
      "qambi": 4178,
      "phakamileyo": 4179,
      "Ġolukhulu": 4180,
      "ĠMhlawum": 4181,
      "Ġpro": 4182,
      "ĠNgenkathi": 4183,
      "Ġuphawu": 4184,
      "Ġimoto": 4185,
      "ANE": 4186,
      "hlanganyela": 4187,
      "Ġele": 4188,
      "thambo": 4189,
      "ĠBathi": 4190,
      "icro": 4191,
      "semhlabeni": 4192,
      "ang": 4193,
      "Ġime": 4194,
      "Ġwayese": 4195,
      "hlukanisa": 4196,
      "dra": 4197,
      "lolo": 4198,
      "Bh": 4199,
      "dC": 4200,
      "thunyelwa": 4201,
      "melo": 4202,
      "velo": 4203,
      "zithi": 4204,
      "miselo": 4205,
      "Ġesikhathini": 4206,
      "minye": 4207,
      "DI": 4208,
      "Ġekwa": 4209,
      "mthanda": 4210,
      "zinga": 4211,
      "hoqo": 4212,
      "Ġisizathu": 4213,
      "yensi": 4214,
      "bhubhi": 4215,
      "HTM": 4216,
      "Ġibhola": 4217,
      "ĠUkwenza": 4218,
      "Ġbafuna": 4219,
      "ĠIt": 4220,
      "ĠKule": 4221,
      "fisi": 4222,
      "ĠYaye": 4223,
      "Ri": 4224,
      "ĠiS": 4225,
      "dlale": 4226,
      "chithe": 4227,
      "Ġkuquka": 4228,
      "Ġwephepha": 4229,
      "ngendawo": 4230,
      "Ġmali": 4231,
      "Ġnaseku": 4232,
      "ystem": 4233,
      "ĠIndawo": 4234,
      "Ġababa": 4235,
      "ĠRi": 4236,
      "pyright": 4237,
      "Nkathi": 4238,
      "Ġnangona": 4239,
      "Ġsokuthi": 4240,
      "Ġbegodu": 4241,
      "ĠNgaphambi": 4242,
      "sondo": 4243,
      "lingo": 4244,
      "Ġekupheleni": 4245,
      "bonakali": 4246,
      "julile": 4247,
      "Ġnalowo": 4248,
      "rade": 4249,
      "feze": 4250,
      "qhagam": 4251,
      "gwebo": 4252,
      "Kha": 4253,
      "qoqo": 4254,
      "ĠKanti": 4255,
      "lonyeni": 4256,
      "Ġabalandeli": 4257,
      "mbisana": 4258,
      "candelo": 4259,
      "Ġakana": 4260,
      "Ġizimo": 4261,
      "Ġnokunga": 4262,
      "tshala": 4263,
      "Ġby": 4264,
      "Ġelihle": 4265,
      "backlin": 4266,
      "70": 4267,
      "antoni": 4268,
      "cansi": 4269,
      "Ġenyameni": 4270,
      "Ġkwenzeke": 4271,
      "Ġhydrogen": 4272,
      "Ġabakwazi": 4273,
      "ĠBabe": 4274,
      "ITIL": 4275,
      "Ġeyenza": 4276,
      "Ġisono": 4277,
      "Ġofuna": 4278,
      "qal": 4279,
      "Ġutsho": 4280,
      "yiselwa": 4281,
      "Ġehla": 4282,
      "Ġefana": 4283,
      "gqithi": 4284,
      "ZA": 4285,
      "lekileyo": 4286,
      "Ġimibono": 4287,
      "Ġpho": 4288,
      "ĠNjengoko": 4289,
      "dumbu": 4290,
      "Ġnj": 4291,
      "thobela": 4292,
      "ĠSakhe": 4293,
      "Ke": 4294,
      "Ġuko": 4295,
      "Ġwemi": 4296,
      "Ġubuhlungu": 4297,
      "Ġkumnatha": 4298,
      "ĠNgubani": 4299,
      "sanda": 4300,
      "phostoli": 4301,
      "phuzu": 4302,
      "cama": 4303,
      "Ġinte": 4304,
      "laleli": 4305,
      "dide": 4306,
      "ĠSu": 4307,
      "ĠKuye": 4308,
      "ĠKhangela": 4309,
      "xheba": 4310,
      "We": 4311,
      "rip": 4312,
      "qinisweni": 4313,
      "dlulileyo": 4314,
      "ngizimu": 4315,
      "ĠKubaluleke": 4316,
      "tengiso": 4317,
      "ĠYayi": 4318,
      "hlangan": 4319,
      "Khe": 4320,
      "No": 4321,
      "yane": 4322,
      "qula": 4323,
      "ĠBrazil": 4324,
      "Ġukwakha": 4325,
      "phosa": 4326,
      "Ġnokuzi": 4327,
      "yeke": 4328,
      "ĠIBhayibheli": 4329,
      "Ġlomuntu": 4330,
      "liseka": 4331,
      "Ġesen": 4332,
      "ĠLezi": 4333,
      "Ġebi": 4334,
      "rike": 4335,
      "Ġngenyanga": 4336,
      "tsi": 4337,
      "wane": 4338,
      "kaJehova": 4339,
      "Ġonoku": 4340,
      "phenduka": 4341,
      "sekela": 4342,
      "wenze": 4343,
      "tive": 4344,
      "khiwe": 4345,
      "Ġunako": 4346,
      "ngqa": 4347,
      "yathelo": 4348,
      "mibuzo": 4349,
      "Ġimiphumela": 4350,
      "Ġnabantwana": 4351,
      "chapha": 4352,
      "Ġlwezi": 4353,
      "ĠElement": 4354,
      "Ġebusweni": 4355,
      "Ġsuku": 4356,
      "hlangabe": 4357,
      "Ġngako": 4358,
      "ĠSinga": 4359,
      "bonakalisa": 4360,
      "Re": 4361,
      "ste": 4362,
      "ĠyoM": 4363,
      "ĠNgokom": 4364,
      "ĠCasino": 4365,
      "mkela": 4366,
      "Ġabali": 4367,
      "fikile": 4368,
      "Ġwonxibelelwano": 4369,
      "nqa": 4370,
      "nayo": 4371,
      "Ġemzimbeni": 4372,
      "ĠJo": 4373,
      "Ġkuthetha": 4374,
      "Ġukuthatha": 4375,
      "Ġwawa": 4376,
      "Ġokuyi": 4377,
      "Ġâĸ": 4378,
      "Ġcishe": 4379,
      "Ġliphephandaba": 4380,
      "ther": 4381,
      "phulo": 4382,
      "phindi": 4383,
      "ĠRo": 4384,
      "video": 4385,
      "ĠSingoo": 4386,
      "lahla": 4387,
      "logi": 4388,
      "Ġukuhlala": 4389,
      "khompyutha": 4390,
      "khulumela": 4391,
      "Ġnolwazi": 4392,
      "cinge": 4393,
      "Ġ50": 4394,
      "Ġnangobunjalo": 4395,
      "thelene": 4396,
      "Ġukho": 4397,
      "Ġngiza": 4398,
      "Ġesem": 4399,
      "Ġte": 4400,
      "Ġigunya": 4401,
      "Ġzokuphakela": 4402,
      "Ġbebaze": 4403,
      "Iz": 4404,
      "yawo": 4405,
      "ria": 4406,
      "anoma": 4407,
      "ĠSingooqal": 4408,
      "Ġelipapasha": 4409,
      "azive": 4410,
      "thelela": 4411,
      "Ġnale": 4412,
      "Ġngomsebenzi": 4413,
      "Ġwomuntu": 4414,
      "Ġcrypto": 4415,
      "Ġrhoqo": 4416,
      "sene": 4417,
      "led": 4418,
      "Ġutshilo": 4419,
      "Ġithemba": 4420,
      "Ġezilungileyo": 4421,
      "ket": 4422,
      "hlahla": 4423,
      "Ġbesithi": 4424,
      "mes": 4425,
      "tyebi": 4426,
      "Ġubufakazi": 4427,
      "ĠSulfur": 4428,
      "Ġisebenzisa": 4429,
      "bisi": 4430,
      "Ġkungekho": 4431,
      "Ġezisi": 4432,
      "fakwa": 4433,
      "tombazana": 4434,
      "dili": 4435,
      "Eli": 4436,
      "hlukana": 4437,
      "dumisa": 4438,
      "qhubi": 4439,
      "YA": 4440,
      "Ġbane": 4441,
      "ĠIngxenye": 4442,
      "ĠUkuthi": 4443,
      "zuze": 4444,
      "lweyo": 4445,
      "sango": 4446,
      "tshabala": 4447,
      "jabulisa": 4448,
      "celeni": 4449,
      "ell": 4450,
      "sis": 4451,
      "is": 4452,
      "end": 4453,
      "fudu": 4454,
      "Ġokuba": 4455,
      "seli": 4456,
      "liphi": 4457,
      "Ġkwenziwa": 4458,
      "cinci": 4459,
      "nciphisa": 4460,
      "Ġzomsebenzi": 4461,
      "Ġaben": 4462,
      "ĠOxygen": 4463,
      "Bukumkani": 4464,
      "Ġphakade": 4465,
      "Ġkubonakala": 4466,
      "cacileyo": 4467,
      "khusela": 4468,
      "diya": 4469,
      "?âĢĻ": 4470,
      "KE": 4471,
      "tro": 4472,
      "zekeliso": 4473,
      "ĠAnd": 4474,
      "mbile": 4475,
      "ĠLowo": 4476,
      "Ġividiyo": 4477,
      "Ġufumane": 4478,
      "bhamu": 4479,
      "ĠuMoses": 4480,
      "100": 4481,
      "MS": 4482,
      "Aba": 4483,
      "Ġkomsebenzi": 4484,
      "mangalisayo": 4485,
      "yinhloko": 4486,
      "liti": 4487,
      "dio": 4488,
      "ĠAmi": 4489,
      "hlele": 4490,
      "sindiswa": 4491,
      "ĠBonisa": 4492,
      "bonelela": 4493,
      "gane": 4494,
      "veni": 4495,
      "Ġkwaze": 4496,
      "ĠPhe": 4497,
      "Va": 4498,
      "bulo": 4499,
      "hlolwa": 4500,
      "tC": 4501,
      "Ġukuza": 4502,
      "Ġokunye": 4503,
      "Ġkanzima": 4504,
      "icrosoft": 4505,
      "Ada": 4506,
      "kwele": 4507,
      "lawuli": 4508,
      "cebook": 4509,
      "futha": 4510,
      "zonda": 4511,
      "mbewu": 4512,
      "kundleni": 4513,
      "mas": 4514,
      "35": 4515,
      "Ġeso": 4516,
      "ketho": 4517,
      "ĠNgisho": 4518,
      "shuma": 4519,
      "Ġkungenxa": 4520,
      "luphi": 4521,
      "Ġzizi": 4522,
      "Ġedlule": 4523,
      "Ġeziphambili": 4524,
      "Ġinjongo": 4525,
      "senzo": 4526,
      "Ġkwenye": 4527,
      "cur": 4528,
      "sonde": 4529,
      "Ġenge": 4530,
      "tjho": 4531,
      "Luka": 4532,
      "48": 4533,
      "ĠIqiniso": 4534,
      "Ġkaba": 4535,
      "Amazon": 4536,
      "To": 4537,
      "Ġisebenza": 4538,
      "Ġnalapho": 4539,
      "Go": 4540,
      "Ġngani": 4541,
      "shona": 4542,
      "Ġsikwazi": 4543,
      "guquka": 4544,
      "ĠKuna": 4545,
      "dudu": 4546,
      "fumene": 4547,
      "kalisa": 4548,
      "yala": 4549,
      "De": 4550,
      "Ġbenu": 4551,
      "ngokoqobo": 4552,
      "Co": 4553,
      "Ġmhlawumbi": 4554,
      "Ġengcwele": 4555,
      "phetho": 4556,
      "ĠThina": 4557,
      "Ġembi": 4558,
      "mama": 4559,
      "buze": 4560,
      "phendule": 4561,
      "ĠUMa": 4562,
      "Ġlezo": 4563,
      "ĠIngaba": 4564,
      "Ġnjengaba": 4565,
      "bwe": 4566,
      "Ġwaqala": 4567,
      "tshintsho": 4568,
      "Chi": 4569,
      "sona": 4570,
      "Ġolunga": 4571,
      "Ġlemi": 4572,
      "qhathani": 4573,
      "Kho": 4574,
      "gabeni": 4575,
      "khanka": 4576,
      "ngq": 4577,
      "Ġuhlala": 4578,
      "Ġziza": 4579,
      "ĠAbantwana": 4580,
      "Do": 4581,
      "gin": 4582,
      "Ġulwimi": 4583,
      "Ġad": 4584,
      "onto": 4585,
      "Ġukutya": 4586,
      "ĠSen": 4587,
      "ĠYin": 4588,
      "ĠNAB": 4589,
      "Ġiintlobo": 4590,
      "Ġeminyakeni": 4591,
      "80": 4592,
      "llion": 4593,
      "fuze": 4594,
      "hlukileyo": 4595,
      "phakathini": 4596,
      "Ġngent": 4597,
      "Ġsenze": 4598,
      "xhumanisi": 4599,
      "hawu": 4600,
      "Ġkwabe": 4601,
      "qeqesha": 4602,
      "Isi": 4603,
      "osefa": 4604,
      "Ġangeke": 4605,
      "finyelele": 4606,
      "ef": 4607,
      "dibanisa": 4608,
      "Ġbesa": 4609,
      "funekayo": 4610,
      "thixo": 4611,
      "dile": 4612,
      "khulumi": 4613,
      "Ġkwezin": 4614,
      "Ġmhla": 4615,
      "Aga": 4616,
      "MI": 4617,
      "Ġsifuna": 4618,
      "Ġimveliso": 4619,
      "PC": 4620,
      "gqibeleni": 4621,
      "Intanethi": 4622,
      "Ġubha": 4623,
      "ĠBakhe": 4624,
      "Johane": 4625,
      "lithi": 4626,
      "vusa": 4627,
      "Ġubuhlobo": 4628,
      "ngalo": 4629,
      "bukeka": 4630,
      "xaxheba": 4631,
      "Lizwi": 4632,
      "Ġephakathi": 4633,
      "Ġoza": 4634,
      "wari": 4635,
      "hlula": 4636,
      "tyalo": 4637,
      "dwebo": 4638,
      "Jobe": 4639,
      "\\\\": 4640,
      "ĠeJerusalema": 4641,
      "Ġkusa": 4642,
      "ĠAbe": 4643,
      "umkani": 4644,
      "ris": 4645,
      "ĠPo": 4646,
      "https": 4647,
      "ĠYona": 4648,
      "ĠKwakho": 4649,
      "ĠKwami": 4650,
      "gebe": 4651,
      "zeleka": 4652,
      "Ġro": 4653,
      "Ġuhlale": 4654,
      "bangela": 4655,
      "phawula": 4656,
      "tional": 4657,
      "Ġukuthetha": 4658,
      "Ġziye": 4659,
      "32": 4660,
      "ten": 4661,
      "ĠNgangi": 4662,
      "ĠWorld": 4663,
      "shushu": 4664,
      "Ġboba": 4665,
      "Ze": 4666,
      "Ġnganye": 4667,
      "shado": 4668,
      "wendwe": 4669,
      "Ġumphakathi": 4670,
      "Ġezivela": 4671,
      "Ġkwakunye": 4672,
      "qulo": 4673,
      "Ġumdla": 4674,
      ".,": 4675,
      "gn": 4676,
      "busha": 4677,
      "ttp": 4678,
      "mb": 4679,
      "Ġta": 4680,
      "ĠkaMoya": 4681,
      "Ġsayo": 4682,
      "Ġabangama": 4683,
      "ĠOkokuqala": 4684,
      "Ġzokusebenza": 4685,
      "tombazane": 4686,
      "Ġibhonasi": 4687,
      "Ġukufaka": 4688,
      "stile": 4689,
      "Farisi": 4690,
      "ĠStates": 4691,
      "muka": 4692,
      "shici": 4693,
      "lande": 4694,
      "boniso": 4695,
      "vala": 4696,
      "mbabwe": 4697,
      "hlanganweni": 4698,
      "hloniphe": 4699,
      "mene": 4700,
      "bambe": 4701,
      "phumele": 4702,
      "Ġngokubanzi": 4703,
      "lumko": 4704,
      "ĠbukaNkulunkulu": 4705,
      "ncedo": 4706,
      "Bhabhi": 4707,
      "seleyo": 4708,
      "ĠSer": 4709,
      "kholwayo": 4710,
      "profeti": 4711,
      "Ef": 4712,
      "lale": 4713,
      "phakama": 4714,
      "Ġiiyure": 4715,
      "sekho": 4716,
      "Ġumn": 4717,
      "wuphi": 4718,
      "Ġyeen": 4719,
      "Ġukukho": 4720,
      "khumba": 4721,
      "TV": 4722,
      "Ġph": 4723,
      "nyuka": 4724,
      "phikisana": 4725,
      "PRO": 4726,
      "LANG": 4727,
      "hora": 4728,
      "hlekelele": 4729,
      "lethe": 4730,
      "anu": 4731,
      "sekelwe": 4732,
      "Ġowenza": 4733,
      "phambu": 4734,
      "ĠNgom": 4735,
      "Ġukubaluleka": 4736,
      "Ġbeza": 4737,
      "bhalwa": 4738,
      "tshaba": 4739,
      "ĠPro": 4740,
      "hlanganise": 4741,
      "gcinwa": 4742,
      "ĠKwakhona": 4743,
      "Ġngokom": 4744,
      "landa": 4745,
      "Ġukulawula": 4746,
      "Ġniya": 4747,
      "Ġminyaka": 4748,
      "thobe": 4749,
      "redi": 4750,
      "Bhayibhili": 4751,
      "ĠNgokomzekelo": 4752,
      "onyama": 4753,
      "Ġukuthenga": 4754,
      "inini": 4755,
      "ngini": 4756,
      "tics": 4757,
      "Ġindima": 4758,
      "CO": 4759,
      "nikazi": 4760,
      "Ġmobile": 4761,
      "Ġngaku": 4762,
      "khulunywa": 4763,
      "ĠYesi": 4764,
      "Bhabhiloni": 4765,
      "==": 4766,
      "olu": 4767,
      "Ġkha": 4768,
      "Ġincoko": 4769,
      "Ġkuwu": 4770,
      "Ġngokunjalo": 4771,
      "Ġ38": 4772,
      "dingi": 4773,
      "Ġnabe": 4774,
      "Hubo": 4775,
      "den": 4776,
      "Ġyasi": 4777,
      "ĠVII": 4778,
      "Ġinkululeko": 4779,
      "Ġumyeni": 4780,
      "ĠWoku": 4781,
      "than": 4782,
      "Ġokokuqala": 4783,
      "thelwa": 4784,
      "ĠEmhlabeni": 4785,
      "Ġoli": 4786,
      "Ġkwezo": 4787,
      "mizwa": 4788,
      "Ġeyisi": 4789,
      "Ġwalo": 4790,
      "Ġkuloo": 4791,
      "vivin": 4792,
      "Ġluya": 4793,
      "Ġabam": 4794,
      "ĠWaba": 4795,
      "qwelo": 4796,
      "Ġnalokho": 4797,
      "Ġsim": 4798,
      "Ġngabanye": 4799,
      "Ġushiye": 4800,
      "doko": 4801,
      "tshato": 4802,
      "stra": 4803,
      "Ġnako": 4804,
      "vikele": 4805,
      "ĠLakhe": 4806,
      "Ġndaba": 4807,
      "Ġihlabathi": 4808,
      "muweli": 4809,
      "Ġmihla": 4810,
      "CE": 4811,
      "Ġuphu": 4812,
      "Ge": 4813,
      "MP": 4814,
      "Ġongu": 4815,
      "Ġinzuzo": 4816,
      "ngenzi": 4817,
      "34": 4818,
      "ngisi": 4819,
      "ĠZin": 4820,
      "nguquko": 4821,
      "tri": 4822,
      "Ġ>": 4823,
      "ĠuSi": 4824,
      "enzi": 4825,
      "Ġisizwe": 4826,
      "menza": 4827,
      "mashumi": 4828,
      "Ġwaze": 4829,
      "Ġefuna": 4830,
      "qatha": 4831,
      "Ġmini": 4832,
      "Ġlwaba": 4833,
      "Ġsam": 4834,
      "selele": 4835,
      "Ġintliziyo": 4836,
      "lindeleke": 4837,
      "Za": 4838,
      "199": 4839,
      "Pro": 4840,
      "Ġfa": 4841,
      "Ġngemihla": 4842,
      "ĠAmadoda": 4843,
      "US": 4844,
      "zizwe": 4845,
      "Ġiqembu": 4846,
      "Ġumfanekiso": 4847,
      "Ġ39": 4848,
      "Ġkw": 4849,
      "ĠMi": 4850,
      "zansi": 4851,
      "sisekelo": 4852,
      "Ġex": 4853,
      "Ġzalo": 4854,
      "Ġuphinde": 4855,
      "Ġumbuzo": 4856,
      "Ġkwenziwe": 4857,
      "Ġumgangatho": 4858,
      "ER": 4859,
      "Ġumbuso": 4860,
      "debe": 4861,
      "lisela": 4862,
      "ligh": 4863,
      "res": 4864,
      "Ġyint": 4865,
      "ĠOko": 4866,
      "org": 4867,
      "Ġ2016": 4868,
      "Ġawaye": 4869,
      "Je": 4870,
      "dale": 4871,
      "benzisa": 4872,
      "Ġnonke": 4873,
      "lizwi": 4874,
      "burg": 4875,
      "bonakaliso": 4876,
      "ĠkaM": 4877,
      "Ġizindlu": 4878,
      "Ġnomhlaba": 4879,
      "phesheya": 4880,
      "ganeko": 4881,
      "Ġkutheni": 4882,
      "ĠAna": 4883,
      "wabisa": 4884,
      "Ġiyiphi": 4885,
      "Ġkudala": 4886,
      "ngayi": 4887,
      "Ġumndeni": 4888,
      "Ġeman": 4889,
      "laye": 4890,
      "Ġengo": 4891,
      "Ġyezinto": 4892,
      "Ġimizi": 4893,
      "ĠMna": 4894,
      "lla": 4895,
      "ffi": 4896,
      "Ġilungelo": 4897,
      "mula": 4898,
      "Ġipha": 4899,
      "curren": 4900,
      "Ġkulabo": 4901,
      "Ġnokuphila": 4902,
      "ĠQa": 4903,
      "Ġkwelinye": 4904,
      "rans": 4905,
      "IB": 4906,
      "linganiso": 4907,
      "Ġezintweni": 4908,
      "EE": 4909,
      "indi": 4910,
      "Ġukuthini": 4911,
      "xuku": 4912,
      "nes": 4913,
      "khawulo": 4914,
      "cwaningo": 4915,
      "khumbule": 4916,
      "un": 4917,
      "Ġeyona": 4918,
      "sevisi": 4919,
      "Ġokwesi": 4920,
      "ĠUkwazi": 4921,
      "Ġumlilo": 4922,
      "simini": 4923,
      "khelwane": 4924,
      "Ġnoko": 4925,
      "Ġzii": 4926,
      "shuku": 4927,
      "ĠKorinte": 4928,
      "Ġukuthanda": 4929,
      "lowers": 4930,
      "swele": 4931,
      "Ġkulu": 4932,
      "Ġumphefumulo": 4933,
      "onaphakade": 4934,
      "celi": 4935,
      "Sha": 4936,
      "Uma": 4937,
      "qinisekisi": 4938,
      "china": 4939,
      "Ġndandi": 4940,
      "Ġumsindo": 4941,
      "ĠHydrogen": 4942,
      "ĠGa": 4943,
      "thengiswa": 4944,
      "Ġkunazo": 4945,
      "Ġuqale": 4946,
      "kululeko": 4947,
      "Ġwukuthi": 4948,
      "Ġforex": 4949,
      "Ġeca": 4950,
      "muzi": 4951,
      "Ġkunalokho": 4952,
      "ngakwazi": 4953,
      "king": 4954,
      "ĠKungenzeka": 4955,
      "Microsoft": 4956,
      "mina": 4957,
      "Ġentabeni": 4958,
      "Ġesinye": 4959,
      "esi": 4960,
      "yisela": 4961,
      "Ġabazalwana": 4962,
      "vesithi": 4963,
      "ĠNjani": 4964,
      "bise": 4965,
      "fundiswa": 4966,
      "\".": 4967,
      "shoni": 4968,
      "Ġosi": 4969,
      "Ġumzekelo": 4970,
      "kiwe": 4971,
      "Ġokuqukethwe": 4972,
      "lingana": 4973,
      "sulu": 4974,
      "Ġizincwadi": 4975,
      "Ġevu": 4976,
      "mer": 4977,
      "Ġunyaka": 4978,
      "Ġefanelekileyo": 4979,
      "OR": 4980,
      "nengi": 4981,
      "qinisekile": 4982,
      "DUCT": 4983,
      "ĠIZIN": 4984,
      "Ġwebsite": 4985,
      "Ġakuyona": 4986,
      "thembekileyo": 4987,
      "tjhu": 4988,
      "indows": 4989,
      "galo": 4990,
      "Ġsokuqala": 4991,
      "Ġizinhlelo": 4992,
      "nikezela": 4993,
      "rhu": 4994,
      "zono": 4995,
      "ĠUlwazi": 4996,
      "thunzi": 4997,
      "Ġliza": 4998,
      "coma": 4999,
      "dwal": 5000,
      "gwaqo": 5001,
      "itcoin": 5002,
      "ĠPho": 5003,
      "ĠTi": 5004,
      "lighting": 5005,
      "cina": 5006,
      "Ġuwu": 5007,
      "phathelene": 5008,
      "Ġndiku": 5009,
      "Ġnjengezi": 5010,
      "xhomekeke": 5011,
      "lon": 5012,
      "Ġnakakhulu": 5013,
      "Ġyalokho": 5014,
      "Ġ)": 5015,
      "Ġobomvu": 5016,
      "illi": 5017,
      "phulaphu": 5018,
      "PRODUCT": 5019,
      "Ġowe": 5020,
      "didi": 5021,
      "Ġamadodana": 5022,
      "luleko": 5023,
      "bG": 5024,
      "ĠAgodliwe": 5025,
      "ledwal": 5026,
      "Ġibha": 5027,
      "Ġabathengi": 5028,
      "lwasher": 5029,
      "nyame": 5030,
      "polisa": 5031,
      "ledwallwasher": 5032,
      "thinta": 5033,
      "Ġukudala": 5034,
      "naku": 5035,
      "ĠOn": 5036,
      "soku": 5037,
      "Ġusebenzise": 5038,
      "Ġubunzima": 5039,
      "Ġengangi": 5040,
      "MH": 5041,
      "gxo": 5042,
      "Ġlakwa": 5043,
      "mbatho": 5044,
      "cid": 5045,
      "tombi": 5046,
      "Ġkuyin": 5047,
      "Ġukun": 5048,
      "dibana": 5049,
      "Ġiinkonzo": 5050,
      "jabule": 5051,
      "ĠamaKristu": 5052,
      "Ġyiyo": 5053,
      "Ġingqa": 5054,
      "Ġmusa": 5055,
      "ĠNoko": 5056,
      "kathini": 5057,
      "ĠYingakho": 5058,
      "Ġamanga": 5059,
      "ĠEkhaya": 5060,
      "Oj": 5061,
      "Ġakusi": 5062,
      "Ġulwa": 5063,
      "Ġkusen": 5064,
      "gxe": 5065,
      "ky": 5066,
      "Ġizim": 5067,
      "zelele": 5068,
      "Ġozo": 5069,
      "Filisti": 5070,
      "ĠuH": 5071,
      "anto": 5072,
      "Ġngaloo": 5073,
      "Ġebomini": 5074,
      "kini": 5075,
      "Ġneza": 5076,
      "Ġwokuthi": 5077,
      "hlambu": 5078,
      "ĠAmanzi": 5079,
      "OS": 5080,
      "Ġenoku": 5081,
      "kwenkwe": 5082,
      "ĠSebenzisa": 5083,
      "lathi": 5084,
      "zenzekelayo": 5085,
      "âĢĿ.": 5086,
      "Ġukhetho": 5087,
      "qanda": 5088,
      "website": 5089,
      "ngaku": 5090,
      "Ġnokho": 5091,
      "nezi": 5092,
      "keleyo": 5093,
      "Ġukuqala": 5094,
      "inobho": 5095,
      "dliwa": 5096,
      "khodi": 5097,
      "Ġabathi": 5098,
      "Ġisivumelwano": 5099,
      "Ġziba": 5100,
      "Ġkwezinto": 5101,
      "ezi": 5102,
      "ngile": 5103,
      "yenzayo": 5104,
      "limu": 5105,
      "Ġkwamanye": 5106,
      "Ġsize": 5107,
      "cingo": 5108,
      "thandathu": 5109,
      "inoku": 5110,
      "Ġbasa": 5111,
      "khukhi": 5112,
      "ĠEZI": 5113,
      "Ġemlonyeni": 5114,
      "xoki": 5115,
      "Ġemithathu": 5116,
      "Yo": 5117,
      "lekele": 5118,
      "anjalo": 5119,
      "qinisekiso": 5120,
      "Ġfi": 5121,
      "ĠKulo": 5122,
      "Ġmkhulu": 5123,
      "Ġuncedo": 5124,
      "Ġisinqumo": 5125,
      "qaphele": 5126,
      "Ġkwiwebhusayithi": 5127,
      "mbeko": 5128,
      "kosikazi": 5129,
      "Ġempeleni": 5130,
      "Ġzeen": 5131,
      "qinisekise": 5132,
      "Ġukhona": 5133,
      "lazi": 5134,
      "Ġnokwenza": 5135,
      "memeza": 5136,
      "Ġhayi": 5137,
      "Ġebalulekileyo": 5138,
      "Ġumxholo": 5139,
      "vayisi": 5140,
      "dumiso": 5141,
      "tshana": 5142,
      "Ġyekhasino": 5143,
      "xeba": 5144,
      "Ġngokwakhe": 5145,
      "Ġengum": 5146,
      "wina": 5147,
      "Ġsite": 5148,
      "ĠPhambi": 5149,
      "Ġal": 5150,
      "Ġathe": 5151,
      "qoka": 5152,
      "ction": 5153,
      "Abrahama": 5154,
      "ĠKukhona": 5155,
      "fayela": 5156,
      "ĠZakhe": 5157,
      "wenu": 5158,
      "ĠWi": 5159,
      "veze": 5160,
      "ĠlikaThixo": 5161,
      "mbene": 5162,
      "Ġimpendulo": 5163,
      "ĠeB": 5164,
      "Ġwabucala": 5165,
      "Ġenjalo": 5166,
      "ĠGo": 5167,
      "kube": 5168,
      "Ġsigaba": 5169,
      "ĠBi": 5170,
      "Te": 5171,
      "khale": 5172,
      "Ġyedwa": 5173,
      "Ġmoya": 5174,
      "bhalisa": 5175,
      "lelayo": 5176,
      "ral": 5177,
      "kulungele": 5178,
      "Ġumnikelo": 5179,
      "ĠAndi": 5180,
      "Ġongum": 5181,
      "Ġwabantu": 5182,
      "Ġnjengama": 5183,
      "ĠBlack": 5184,
      "Ġkulokhu": 5185,
      "Ġkwase": 5186,
      "dy": 5187,
      "mana": 5188,
      "phala": 5189,
      "Ġesimweni": 5190,
      "Ġyokuhlala": 5191,
      "Ġabasha": 5192,
      "tathu": 5193,
      "Ġzemi": 5194,
      "bheja": 5195,
      "Ġabangu": 5196,
      "ĠKusukela": 5197,
      "Ġweza": 5198,
      "ntaba": 5199,
      "Ġumuzi": 5200,
      "phikisa": 5201,
      "ĠMu": 5202,
      "Ġesibhedlela": 5203,
      "Ġnesimo": 5204,
      "qondene": 5205,
      "ngakanani": 5206,
      "omuntu": 5207,
      "ĠKoku": 5208,
      "odu": 5209,
      "Ġnamanye": 5210,
      "ncinti": 5211,
      "Ġkhulu": 5212,
      "LX": 5213,
      "melene": 5214,
      "Mathewu": 5215,
      "44": 5216,
      "KH": 5217,
      "Ġwi": 5218,
      "ĠEnkulu": 5219,
      "ĠUyazi": 5220,
      "phiso": 5221,
      "ĠMusa": 5222,
      "hlamvu": 5223,
      "zukulwane": 5224,
      "Ġngokuqinisekileyo": 5225,
      "xelele": 5226,
      "Ġabafazi": 5227,
      "Ġezingena": 5228,
      "Ġimifanekiso": 5229,
      "ĠNamuhla": 5230,
      "Ġuluhlu": 5231,
      "bongo": 5232,
      "linganiselo": 5233,
      "Ġiyo": 5234,
      "cam": 5235,
      "Ġemihle": 5236,
      "Krestu": 5237,
      "TU": 5238,
      "lambo": 5239,
      "lock": 5240,
      "Ngo": 5241,
      "fundise": 5242,
      "ĠeBhayibhelini": 5243,
      "meza": 5244,
      "Ġukusetshenziswa": 5245,
      "Ġekutheni": 5246,
      "Ġkangcono": 5247,
      "Ġkuli": 5248,
      "Ġkubona": 5249,
      "Ġumlomo": 5250,
      "ĠkaJesu": 5251,
      "Ġisikhundla": 5252,
      "Ġif": 5253,
      "Ġikhadi": 5254,
      "ĠIs": 5255,
      "Ġeziphilayo": 5256,
      "Ġkwixesha": 5257,
      "IS": 5258,
      "bheni": 5259,
      "2017": 5260,
      "etros": 5261,
      "khohlakele": 5262,
      "Ġbabantu": 5263,
      "Ġziyi": 5264,
      "xekile": 5265,
      "phucula": 5266,
      "iiii": 5267,
      "bingelelo": 5268,
      "tl": 5269,
      "Ġekwen": 5270,
      "kolelo": 5271,
      "caca": 5272,
      "ĠKukaNkulunkulu": 5273,
      "vie": 5274,
      "zonke": 5275,
      "Ġbon": 5276,
      "Ġihla": 5277,
      "Ġnk": 5278,
      "Ġubaba": 5279,
      "funwa": 5280,
      "Ġubona": 5281,
      "Ġimpela": 5282,
      "Ġisibonelo": 5283,
      "Ġesiku": 5284,
      "Ġowawu": 5285,
      "ELO": 5286,
      "Ġukubeka": 5287,
      "biko": 5288,
      "Ġngalinye": 5289,
      "Ġencwadini": 5290,
      "ĠCup": 5291,
      "yiso": 5292,
      "Ġyaku": 5293,
      "dodakazi": 5294,
      "hlukeneyo": 5295,
      "kokuba": 5296,
      "zwayo": 5297,
      "elanga": 5298,
      "Ġkabanzi": 5299,
      "Ġngokwenza": 5300,
      "yuni": 5301,
      "ING": 5302,
      "www": 5303,
      "sobala": 5304,
      "spho": 5305,
      "Ġwangi": 5306,
      "kwane": 5307,
      "phelile": 5308,
      "ff": 5309,
      "qolo": 5310,
      "ĠiNdodana": 5311,
      "Ġukhu": 5312,
      "lia": 5313,
      "Ġukusetyenziswa": 5314,
      "kozo": 5315,
      "phetha": 5316,
      "Ġiinkqubo": 5317,
      "ĠuJa": 5318,
      "Ġunom": 5319,
      "jenjalo": 5320,
      "United": 5321,
      "tan": 5322,
      "thandekayo": 5323,
      "dokotela": 5324,
      "Ġephezulu": 5325,
      "sulwa": 5326,
      "ĠBaya": 5327,
      "Mate": 5328,
      "Ġngonaphakade": 5329,
      "hlenga": 5330,
      "yeza": 5331,
      "ĠMar": 5332,
      "phazamisa": 5333,
      "ĠUSa": 5334,
      "Ġokulungileyo": 5335,
      "CC": 5336,
      "PA": 5337,
      "nokuba": 5338,
      "Ġwokuba": 5339,
      "qhosha": 5340,
      "Äģ": 5341,
      "Ġolwa": 5342,
      "yithi": 5343,
      "hlanhla": 5344,
      "Ġngezinye": 5345,
      "xulu": 5346,
      "Ġekha": 5347,
      "Ġawo": 5348,
      "Ġinceku": 5349,
      "Zimbabwe": 5350,
      "ĠNokungena": 5351,
      "dakamizwa": 5352,
      "ndakanye": 5353,
      "gqibele": 5354,
      "fanelo": 5355,
      "gcwalisa": 5356,
      "lette": 5357,
      "She": 5358,
      "ĠUba": 5359,
      "Ġisipho": 5360,
      "Ġwokwahlulela": 5361,
      "Ġbasebe": 5362,
      "thiwekhi": 5363,
      "tetho": 5364,
      "Ġyokuzi": 5365,
      "Ġnento": 5366,
      "xhasi": 5367,
      "ftware": 5368,
      "Ġangaba": 5369,
      "banye": 5370,
      "Ġeyin": 5371,
      "Ġiinkcukacha": 5372,
      "Ġ48": 5373,
      "Ġkumelwe": 5374,
      "car": 5375,
      "bert": 5376,
      "Ġumdlali": 5377,
      "Ġngokwezi": 5378,
      "mfihlakalo": 5379,
      "36": 5380,
      "Ġnibe": 5381,
      "Ġkuphi": 5382,
      "Ġimicabango": 5383,
      "notho": 5384,
      "Ġ41": 5385,
      "ndoqo": 5386,
      "politi": 5387,
      "semandleni": 5388,
      "Ġwesifazane": 5389,
      "ĠlikaYehova": 5390,
      "ï¼": 5391,
      "Ġiwebhusayithi": 5392,
      "ngabi": 5393,
      "sayensi": 5394,
      "Ġsenza": 5395,
      "qede": 5396,
      "ĠâĨ": 5397,
      "Mzantsi": 5398,
      "Ġabangena": 5399,
      "velaphi": 5400,
      "qweno": 5401,
      "live": 5402,
      "thesi": 5403,
      "thembisa": 5404,
      "phuza": 5405,
      "....": 5406,
      "Ġekhu": 5407,
      "Ġkudingeka": 5408,
      "Qs": 5409,
      "Ġlaku": 5410,
      "zelayo": 5411,
      "Ġingqondo": 5412,
      "sesha": 5413,
      "Ġokuthiwa": 5414,
      "Ġembu": 5415,
      "vuya": 5416,
      "nyane": 5417,
      "mbuso": 5418,
      "osefu": 5419,
      "cto": 5420,
      "rm": 5421,
      "Ġat": 5422,
      "Ġukuma": 5423,
      "liyoni": 5424,
      "ĠamaNgqina": 5425,
      "Ġegameni": 5426,
      "khand": 5427,
      "Ġobala": 5428,
      "khukhula": 5429,
      "mera": 5430,
      "Ġnendawo": 5431,
      "Ġukwenzela": 5432,
      "Ġtu": 5433,
      "Ġkungu": 5434,
      "Ġowesi": 5435,
      "hlobene": 5436,
      "Ġseli": 5437,
      "Ġunina": 5438,
      "zwelonke": 5439,
      "Ġabakhulu": 5440,
      "Ġyokusebenza": 5441,
      "ĠuMo": 5442,
      "WI": 5443,
      "ser": 5444,
      "Ġhttp": 5445,
      "Phe": 5446,
      "duma": 5447,
      "ĠnguM": 5448,
      "buyeke": 5449,
      "pan": 5450,
      "Ġezandleni": 5451,
      "Asi": 5452,
      "Ġezizi": 5453,
      "Ġesiyi": 5454,
      "remiya": 5455,
      "Ġbawa": 5456,
      "lwela": 5457,
      "chane": 5458,
      "ize": 5459,
      "ĠEkugcineni": 5460,
      "Ġeziphezulu": 5461,
      "Ġamava": 5462,
      "cast": 5463,
      "?+": 5464,
      "Ġimpi": 5465,
      "Ġebizwa": 5466,
      "wer": 5467,
      "Ġlokusebenza": 5468,
      "Ġesasi": 5469,
      "ĠuJobe": 5470,
      "vuse": 5471,
      "ding": 5472,
      "ĠWenza": 5473,
      "ĠPar": 5474,
      "pb": 5475,
      "mitha": 5476,
      "Ġenkosi": 5477,
      "Ġizinkinga": 5478,
      "Ġzomhlaba": 5479,
      "Ġumphumela": 5480,
      "Ġngokuvamile": 5481,
      "Ġamahlanu": 5482,
      "tata": 5483,
      "tshiswa": 5484,
      "ĠSeku": 5485,
      "bhinqa": 5486,
      "Ġinka": 5487,
      "vice": 5488,
      "ĠPla": 5489,
      "sizwa": 5490,
      "hlandlo": 5491,
      "Ġesiphezulu": 5492,
      "Ġman": 5493,
      "ĠRa": 5494,
      "san": 5495,
      "Ġukhethe": 5496,
      "khuselekileyo": 5497,
      "woku": 5498,
      "Ġuwa": 5499,
      "aniyeli": 5500,
      "Ġubukhulu": 5501,
      "mpazamo": 5502,
      "âħ": 5503,
      "ngayo": 5504,
      "Ġngibe": 5505,
      "ĠuPawulu": 5506,
      "Ġkufumana": 5507,
      "Ġinyaniso": 5508,
      "Ġimikhiqizo": 5509,
      "Ġowen": 5510,
      "Ġbangi": 5511,
      "Ġesigabeni": 5512,
      "ĠBakaJehova": 5513,
      "ĠTha": 5514,
      "thokoza": 5515,
      "khele": 5516,
      "tati": 5517,
      "road": 5518,
      "gwema": 5519,
      "lfur": 5520,
      "theka": 5521,
      "mano": 5522,
      "ngxa": 5523,
      "zemidlalo": 5524,
      "ĠUmntu": 5525,
      "Ġisigaba": 5526,
      "INI": 5527,
      "fuba": 5528,
      "khululwa": 5529,
      "ĠHi": 5530,
      "ngcwe": 5531,
      "ndleko": 5532,
      "ple": 5533,
      "Ġho": 5534,
      "thoma": 5535,
      "cules": 5536,
      "Ġsobukhosi": 5537,
      "Ġesizayo": 5538,
      "Ġiingxaki": 5539,
      "ngasese": 5540,
      "backlink": 5541,
      "Ġar": 5542,
      "sendle": 5543,
      "Ġinta": 5544,
      "kaza": 5545,
      "ĠIV": 5546,
      "Ġngizi": 5547,
      "tshelwa": 5548,
      "khwalithi": 5549,
      ");": 5550,
      "ĠIbe": 5551,
      "Ġelithile": 5552,
      "elika": 5553,
      "MC": 5554,
      "beko": 5555,
      "Ġintomba": 5556,
      "Ġbathole": 5557,
      "Ġngemali": 5558,
      "qhinga": 5559,
      "njani": 5560,
      "Ġumthwalo": 5561,
      "kwabo": 5562,
      "khethiweyo": 5563,
      "NAB": 5564,
      "OO": 5565,
      "kemba": 5566,
      "khiphe": 5567,
      "Ġnomuntu": 5568,
      "Ġudumo": 5569,
      "ĠUni": 5570,
      "Ġkayi": 5571,
      "ĠLaba": 5572,
      "cabangi": 5573,
      "gxile": 5574,
      "size": 5575,
      "liziyweni": 5576,
      "mber": 5577,
      "Ġezinhliziyweni": 5578,
      "dingekayo": 5579,
      "qukethe": 5580,
      "Ġdo": 5581,
      "Ġencane": 5582,
      "ĠDo": 5583,
      "dingayo": 5584,
      "lenze": 5585,
      "TS": 5586,
      "phrofe": 5587,
      "Ġneli": 5588,
      "vimba": 5589,
      "ĠYomuntu": 5590,
      "Ġcryptocurren": 5591,
      "ton": 5592,
      "Ġnaso": 5593,
      "ĠamaSirayeli": 5594,
      "Ġbem": 5595,
      "esta": 5596,
      "Ġkubekho": 5597,
      "sithinte": 5598,
      "Ġngokwanele": 5599,
      "Ġibonisa": 5600,
      "malt": 5601,
      "Ġumkhiqizo": 5602,
      "phupho": 5603,
      "bhubhe": 5604,
      "cabangela": 5605,
      "Ġmhlawumbe": 5606,
      "Ġeceleni": 5607,
      "Ġukulandela": 5608,
      "Ġoya": 5609,
      "Ġongena": 5610,
      "ĠUyi": 5611,
      "Ġngegama": 5612,
      "Ġngokuvumelana": 5613,
      "gqitha": 5614,
      "gqirha": 5615,
      "gebengu": 5616,
      "izi": 5617,
      "bulela": 5618,
      "Ġumzi": 5619,
      "Ġkabusha": 5620,
      "Ġlathi": 5621,
      "Ġenu": 5622,
      "Ġemanga": 5623,
      "Ġwasesithi": 5624,
      "club": 5625,
      "Ġwahlala": 5626,
      "qhawe": 5627,
      "Mbuso": 5628,
      "Ġphi": 5629,
      "Ġabenza": 5630,
      "ĠnguThixo": 5631,
      "ĠBayo": 5632,
      "ĠName": 5633,
      "lekela": 5634,
      "singi": 5635,
      "thutha": 5636,
      "tifike": 5637,
      "zonwabisa": 5638,
      "urophu": 5639,
      "hlaleni": 5640,
      "Ġsibone": 5641,
      "Ġmadoda": 5642,
      "sezi": 5643,
      "bileyo": 5644,
      "Ġemphakathini": 5645,
      "ĠJohn": 5646,
      "Ġesithile": 5647,
      "Ġyize": 5648,
      "fumanisa": 5649,
      "Ġkuyoba": 5650,
      "ler": 5651,
      "ger": 5652,
      "Ġukuziphatha": 5653,
      "Ġnsuku": 5654,
      "Ġbahlala": 5655,
      "bonayo": 5656,
      "Ġ44": 5657,
      "qhubekayo": 5658,
      "nzulu": 5659,
      "ĠâĢĿ": 5660,
      "nkulunkulu": 5661,
      "ĠNgale": 5662,
      "rhwebo": 5663,
      "aa": 5664,
      "Ġuphando": 5665,
      "Ġkona": 5666,
      "Ġleso": 5667,
      "ĠLoo": 5668,
      "Ġpri": 5669,
      "ĠEx": 5670,
      "dong": 5671,
      "ĠKwen": 5672,
      "Ġngaleyo": 5673,
      "Ġngasinye": 5674,
      "banika": 5675,
      "ANI": 5676,
      "Ġukuphuma": 5677,
      "thuli": 5678,
      "Ġkwihlabathi": 5679,
      "vutha": 5680,
      "Ġolunye": 5681,
      "bonelelo": 5682,
      "nqophiso": 5683,
      "ĠHack": 5684,
      "37": 5685,
      "kusho": 5686,
      "ence": 5687,
      "ĠUbani": 5688,
      "toli": 5689,
      "Ġngiba": 5690,
      "ĠNgalokho": 5691,
      "mpumalanga": 5692,
      "ES": 5693,
      "Ġuthanda": 5694,
      "Ġkulandela": 5695,
      "khonk": 5696,
      "ngokomoya": 5697,
      "ĠAye": 5698,
      "Ġngempumelelo": 5699,
      "Ġinoku": 5700,
      "bhuku": 5701,
      "ĠLee": 5702,
      "ĠMasi": 5703,
      "phazamise": 5704,
      "Ġinikeza": 5705,
      "Ġesihla": 5706,
      "gaxekile": 5707,
      "ĠNgako": 5708,
      "ĠNgaleso": 5709,
      "Ġite": 5710,
      "Ġwatsho": 5711,
      "ĠYebo": 5712,
      "Press": 5713,
      "Ġkade": 5714,
      "Ġnoo": 5715,
      "antse": 5716,
      "khanyisa": 5717,
      "tshelo": 5718,
      "cacisa": 5719,
      "sphorus": 5720,
      "fela": 5721,
      "Ġusho": 5722,
      "ziko": 5723,
      "Ġenom": 5724,
      "Ġinqubo": 5725,
      "bhapti": 5726,
      "bhozo": 5727,
      "Ġwazala": 5728,
      "Guang": 5729,
      "Ġundi": 5730,
      "nyezwa": 5731,
      "cG": 5732,
      "ds": 5733,
      "Ġintu": 5734,
      "Ġelandelayo": 5735,
      "Ġukuzo": 5736,
      "ĠKubalulekile": 5737,
      "jack": 5738,
      "ĠPi": 5739,
      "Ġengaphezu": 5740,
      "ĠKhum": 5741,
      "Ġemoyeni": 5742,
      "rayi": 5743,
      "mbezi": 5744,
      "senti": 5745,
      "Ġumyalezo": 5746,
      "Ġnokunye": 5747,
      "hluke": 5748,
      "Ġakufanele": 5749,
      "sign": 5750,
      "simu": 5751,
      "inde": 5752,
      "Ġngabona": 5753,
      "khashana": 5754,
      "ĠThixo": 5755,
      "Ġalo": 5756,
      "dima": 5757,
      "Ġngeqiniso": 5758,
      "ĠObu": 5759,
      "LL": 5760,
      "sodwa": 5761,
      "fazana": 5762,
      "qhamo": 5763,
      "liba": 5764,
      "ĠIbali": 5765,
      "Ġwayen": 5766,
      "Ġngelo": 5767,
      "Ġngenye": 5768,
      "zwile": 5769,
      "lisiwe": 5770,
      "thakathaka": 5771,
      "bli": 5772,
      "roni": 5773,
      "Ġusebenza": 5774,
      "Ġukube": 5775,
      "bopho": 5776,
      "ĠBhe": 5777,
      "Ġakusho": 5778,
      "vakashi": 5779,
      "BO": 5780,
      "ĠUko": 5781,
      "ncinci": 5782,
      "Ġokungen": 5783,
      "Ġzakwa": 5784,
      "ĠBitcoin": 5785,
      "Ġindodakazi": 5786,
      "Ġukuwa": 5787,
      "Ġukunika": 5788,
      "hlasela": 5789,
      "Ġnalabo": 5790,
      "ĠNgeke": 5791,
      "Ġkwint": 5792,
      "Ġukuthula": 5793,
      "ĠKum": 5794,
      "ĠUmhlaba": 5795,
      "bhodi": 5796,
      "Ġ2013": 5797,
      "Petru": 5798,
      "mvume": 5799,
      "Ġbabone": 5800,
      "komi": 5801,
      "Ġngamanzi": 5802,
      "Ġiincwadi": 5803,
      "Ġowodwa": 5804,
      "Ġnkqubo": 5805,
      "Ġudade": 5806,
      "ngam": 5807,
      "Ġzizo": 5808,
      "zula": 5809,
      "ĠSamukela": 5810,
      "Nge": 5811,
      "Yohane": 5812,
      "Ġhe": 5813,
      "Ġobukhulu": 5814,
      "Ġilifa": 5815,
      "Ġzithi": 5816,
      "hleni": 5817,
      "Ġowenziwa": 5818,
      "ĠUkwa": 5819,
      "Ġizicelo": 5820,
      "tholi": 5821,
      "Ġweb": 5822,
      "fica": 5823,
      "Ġnasezi": 5824,
      "qwaba": 5825,
      "Guangdong": 5826,
      "Ju": 5827,
      "ham": 5828,
      "Ġizici": 5829,
      "hlole": 5830,
      "Ġelingu": 5831,
      "ink": 5832,
      "bule": 5833,
      "ĠEmpeleni": 5834,
      "Ġcom": 5835,
      "ĠEwe": 5836,
      "Ġinsindiso": 5837,
      "FA": 5838,
      "Ġesebenzisa": 5839,
      "Ġukusa": 5840,
      "khungo": 5841,
      "khishwa": 5842,
      "khumbuzo": 5843,
      "Ġsine": 5844,
      "Ġngokucacile": 5845,
      "guqulwa": 5846,
      "ĠTattoo": 5847,
      "ĠAkekho": 5848,
      "ĠuC": 5849,
      "Ġbasithinte": 5850,
      "ĠInhliziyo": 5851,
      "khankaso": 5852,
      "Di": 5853,
      "quma": 5854,
      "Ġengqondweni": 5855,
      "hho": 5856,
      "umber": 5857,
      "sundu": 5858,
      "Ġzombini": 5859,
      "ĠIZINTO": 5860,
      "Yurophu": 5861,
      "ĠðŁ": 5862,
      "lebe": 5863,
      "ĠeT": 5864,
      "pheleliswa": 5865,
      "Ġngezindlela": 5866,
      "khiqiza": 5867,
      "wYW": 5868,
      "Ġphandle": 5869,
      "Ġkuvela": 5870,
      "ĠIso": 5871,
      "Ġkwexesha": 5872,
      "Ġkokubili": 5873,
      "ĠKhawu": 5874,
      "45": 5875,
      "ĠeYerusalem": 5876,
      "Ġac": 5877,
      "phathekayo": 5878,
      "boka": 5879,
      "bulale": 5880,
      "ngcolile": 5881,
      "ĠEmabandleni": 5882,
      "meri": 5883,
      "gada": 5884,
      "gqibelo": 5885,
      "linganisa": 5886,
      "Ġibizo": 5887,
      "Adamu": 5888,
      "Hi": 5889,
      "kukhu": 5890,
      "qashi": 5891,
      "ĠYehova": 5892,
      "noma": 5893,
      "tywe": 5894,
      "ngenisa": 5895,
      "pula": 5896,
      "Ġngokwakho": 5897,
      "ĠNxa": 5898,
      "gijima": 5899,
      "boshwa": 5900,
      "theli": 5901,
      "dlalweni": 5902,
      "Ġnakanjani": 5903,
      "Ġizulu": 5904,
      "Ġbalo": 5905,
      "Ġyangempela": 5906,
      "gqibeleleyo": 5907,
      "ĠbakaNkulunkulu": 5908,
      "hlaselwa": 5909,
      "wudi": 5910,
      "Ġino": 5911,
      "zwakala": 5912,
      "ĠIncwadi": 5913,
      "Ġingqi": 5914,
      "vavanyo": 5915,
      "Ġekwenzeni": 5916,
      "ĠKhumbula": 5917,
      "hini": 5918,
      "sabi": 5919,
      "Ġwahamba": 5920,
      "shiyagalo": 5921,
      "Ġbawo": 5922,
      "Ġsinoku": 5923,
      "Jakobe": 5924,
      "tsala": 5925,
      "Ġokwen": 5926,
      "funyan": 5927,
      "hlane": 5928,
      "Ġabanengi": 5929,
      "Fe": 5930,
      "kukho": 5931,
      "ngezi": 5932,
      "Ġ42": 5933,
      "Ġkulezi": 5934,
      "Ġbheka": 5935,
      "phakan": 5936,
      "suswa": 5937,
      "Ġakayi": 5938,
      "Ġukukhetha": 5939,
      "hlamba": 5940,
      "Ġbeka": 5941,
      "ĠEsenyameni": 5942,
      "TA": 5943,
      "ngolo": 5944,
      "rates": 5945,
      "gcinwe": 5946,
      "Ġesikoleni": 5947,
      "Mar": 5948,
      "Ġufunde": 5949,
      "Ġeson": 5950,
      "Ġeduze": 5951,
      "Ġkuyisi": 5952,
      "Ġyokugcina": 5953,
      "ĠYayihamba": 5954,
      "Ġaphinde": 5955,
      "gqoka": 5956,
      "ans": 5957,
      "buyele": 5958,
      "mbiza": 5959,
      "Ġiintsuku": 5960,
      "RA": 5961,
      "qhayi": 5962,
      "ĠENdodana": 5963,
      "cace": 5964,
      "Ġyilapho": 5965,
      "Ġnamazwi": 5966,
      "dolophu": 5967,
      "Ġanesi": 5968,
      "Ġathole": 5969,
      "yithanda": 5970,
      "Ġoyedwa": 5971,
      "Ġnazi": 5972,
      "ĠEyona": 5973,
      "phucu": 5974,
      "bhekane": 5975,
      "Ġ2015": 5976,
      "Ġamanani": 5977,
      "imeyili": 5978,
      "Ġ!": 5979,
      "Ġnothando": 5980,
      "guqulelo": 5981,
      "Wi": 5982,
      "Ġuyin": 5983,
      "Ġesho": 5984,
      "kelelo": 5985,
      "Ġokuyinto": 5986,
      "hlolisi": 5987,
      "rator": 5988,
      "ĠXA": 5989,
      "Ġawukwazi": 5990,
      "ĠHamba": 5991,
      "qwalasela": 5992,
      "ĠuZimu": 5993,
      "ĠiB": 5994,
      "ĠUthando": 5995,
      "bheli": 5996,
      "chazwe": 5997,
      "dlulise": 5998,
      "zuko": 5999,
      "ĠYehlabathi": 6000,
      "vuswa": 6001,
      "xhala": 6002,
      "Yakobi": 6003,
      "Ġukusiza": 6004,
      "ĠkaSirayeli": 6005,
      "Ġingqalelo": 6006,
      "Ġima": 6007,
      "Ġngokwesi": 6008,
      "Ġekhuluma": 6009,
      "Ġkuthe": 6010,
      "xolela": 6011,
      "Ġyimuphi": 6012,
      "Ġnomunye": 6013,
      "Ġezinjalo": 6014,
      "drako": 6015,
      "liva": 6016,
      "kulungwane": 6017,
      "hlangu": 6018,
      "phiko": 6019,
      "ĠVi": 6020,
      "Ġasa": 6021,
      "Ġkwale": 6022,
      "bhale": 6023,
      "ĠCom": 6024,
      "Ġuhlangothi": 6025,
      "hambelana": 6026,
      "dwendwe": 6027,
      "nguye": 6028,
      "Ġelilodwa": 6029,
      "ĠPhezu": 6030,
      "Ġwakhuluma": 6031,
      "zobu": 6032,
      "Ġcon": 6033,
      "ndebe": 6034,
      "Ġahlale": 6035,
      "Ġowesifazane": 6036,
      "Ġlee": 6037,
      "hlelwa": 6038,
      "linde": 6039,
      "Ġabafana": 6040,
      "ĠKolo": 6041,
      "Ġbest": 6042,
      "Ġokusho": 6043,
      "Ġindu": 6044,
      "Ġimininingwane": 6045,
      "dlwengula": 6046,
      "dideka": 6047,
      "Ġeziba": 6048,
      "phephile": 6049,
      "hlakaniphile": 6050,
      "Ġudinga": 6051,
      "ĠiM": 6052,
      "Ġbawu": 6053,
      "Ġumculo": 6054,
      "Ġ45": 6055,
      "kro": 6056,
      "Ġishishini": 6057,
      "Ġekho": 6058,
      "Ġkungcono": 6059,
      "Ġongcwele": 6060,
      "Ġezihlukahlukene": 6061,
      "Ġ2014": 6062,
      "simweni": 6063,
      "fuphi": 6064,
      "thakaze": 6065,
      "ĠKuyini": 6066,
      "Ġangena": 6067,
      "low": 6068,
      "thule": 6069,
      "zuzwana": 6070,
      "kunceda": 6071,
      "Ġakhawunti": 6072,
      "ĠInkosi": 6073,
      "ĠNinga": 6074,
      "ĠUngakwazi": 6075,
      "nakekela": 6076,
      "Du": 6077,
      "HI": 6078,
      "Ġgama": 6079,
      "Ġkhulula": 6080,
      "ĠIndoda": 6081,
      "Ġinhloso": 6082,
      "Ġngiyaku": 6083,
      "Ġezinje": 6084,
      "Ġemininzi": 6085,
      "Ġesizi": 6086,
      "ĠNgamaNgqina": 6087,
      "dweni": 6088,
      "hwa": 6089,
      "Ġngim": 6090,
      "filimu": 6091,
      "vimbela": 6092,
      "mbeza": 6093,
      "Ġnokwe": 6094,
      "Ġzwe": 6095,
      "Ġomdala": 6096,
      "dlovu": 6097,
      "Ġemanzini": 6098,
      "41": 6099,
      "siba": 6100,
      "âĢĺ": 6101,
      "solo": 6102,
      "khakha": 6103,
      "Ġelinesi": 6104,
      "Ġubuntu": 6105,
      "shilo": 6106,
      "Ġukubonisa": 6107,
      "ĠUhlobo": 6108,
      "Ġkwiint": 6109,
      "Ġngento": 6110,
      "ĠIsahluko": 6111,
      "Ġuhlu": 6112,
      "bandela": 6113,
      "kheni": 6114,
      "Ġkwiminyaka": 6115,
      "Ġndiza": 6116,
      "versi": 6117,
      "ĠLeli": 6118,
      "yizinkulungwane": 6119,
      "Ġelungileyo": 6120,
      "Ġesenza": 6121,
      "Ġukuqhubeka": 6122,
      "ngala": 6123,
      "Ġbanoku": 6124,
      "thuka": 6125,
      "ner": 6126,
      "Ġeminye": 6127,
      "Ġyikho": 6128,
      "lisile": 6129,
      "38": 6130,
      "Ġkuhlala": 6131,
      "ĠUnited": 6132,
      "misi": 6133,
      "Ġemthethweni": 6134,
      "Ġelizayo": 6135,
      "gital": 6136,
      "Ġti": 6137,
      "antya": 6138,
      "ĠNgamanye": 6139,
      "thabathe": 6140,
      "ĠeNkosi": 6141,
      "Ġnodadewethu": 6142,
      "Ġkomunye": 6143,
      "Yise": 6144,
      "ticles": 6145,
      "Thekwini": 6146,
      "ĠSlots": 6147,
      "HL": 6148,
      "Ġiphepha": 6149,
      "selula": 6150,
      "Ġlwabantu": 6151,
      "Ġlwee": 6152,
      "ĠEzithetha": 6153,
      "gqugqu": 6154,
      "por": 6155,
      "sk": 6156,
      "batha": 6157,
      "ĠAthi": 6158,
      "Ġemibili": 6159,
      "langazelela": 6160,
      "Ġimvelo": 6161,
      "khosini": 6162,
      "Ġsulfur": 6163,
      "Hebheru": 6164,
      "ĠAndroid": 6165,
      "Ġbayaku": 6166,
      "Ġukwahlulela": 6167,
      "nan": 6168,
      "antu": 6169,
      "tyu": 6170,
      "posi": 6171,
      "Ġebona": 6172,
      "nikele": 6173,
      "Ġizidingo": 6174,
      "qalo": 6175,
      "ĠHo": 6176,
      "Ġkangangokuba": 6177,
      "Ngoku": 6178,
      "phulaphula": 6179,
      "limaza": 6180,
      "Eva": 6181,
      "Ġabone": 6182,
      "loji": 6183,
      "Ġukuda": 6184,
      "shane": 6185,
      "Ġumvuzo": 6186,
      "Ġlina": 6187,
      "ork": 6188,
      "au": 6189,
      "Ġuhambo": 6190,
      "Ġyezin": 6191,
      "Ġngiyo": 6192,
      "ĠCon": 6193,
      "xele": 6194,
      "Ġejele": 6195,
      "lytics": 6196,
      "ZO": 6197,
      "ente": 6198,
      "mart": 6199,
      "ĠNan": 6200,
      "ngeka": 6201,
      "Ġyale": 6202,
      "bulawe": 6203,
      "siphi": 6204,
      "Ġnantoni": 6205,
      "Ġafuna": 6206,
      "khukhu": 6207,
      "nako": 6208,
      "ĠAr": 6209,
      "ĠFi": 6210,
      "ĠKunalokho": 6211,
      "godi": 6212,
      "ĠYiba": 6213,
      "Ġsoftware": 6214,
      "Mat": 6215,
      "thetheli": 6216,
      "nk": 6217,
      "Ġkufike": 6218,
      "Ġbahlale": 6219,
      "ĠOkanye": 6220,
      "Ġkoonyana": 6221,
      "Ġngomnyaka": 6222,
      "Ġunemibuzo": 6223,
      "Ġkulokho": 6224,
      "bike": 6225,
      "Ġezifanelekileyo": 6226,
      "onakalo": 6227,
      "Ġngokwengeziwe": 6228,
      "projekthi": 6229,
      "Ġmillion": 6230,
      "ĠuPetru": 6231,
      "Mthetho": 6232,
      "cle": 6233,
      "Ġuhambe": 6234,
      "Ġibhizinisi": 6235,
      "tholakale": 6236,
      "Ġbobu": 6237,
      "shintshe": 6238,
      "Ġikha": 6239,
      "ĠUza": 6240,
      "ĠUnoku": 6241,
      "Ġbefuna": 6242,
      "Ġzine": 6243,
      "Ġngenhliziyo": 6244,
      "Ġndithi": 6245,
      "ĠNaye": 6246,
      "Ġukukwenza": 6247,
      "ĠUse": 6248,
      "Ġngezwi": 6249,
      "Ġyeqiniso": 6250,
      "qubu": 6251,
      "shaye": 6252,
      "konzweni": 6253,
      "kula": 6254,
      "ank": 6255,
      "Ġsisa": 6256,
      "foza": 6257,
      "gciwane": 6258,
      "gxila": 6259,
      "Ġavu": 6260,
      "ngiswa": 6261,
      "chunge": 6262,
      "ngcola": 6263,
      "luka": 6264,
      "Ġsiyazi": 6265,
      "donga": 6266,
      "Ġiimfuno": 6267,
      "Ġuzaku": 6268,
      "qeni": 6269,
      "Ġkufika": 6270,
      "Ġumhlobo": 6271,
      "Ru": 6272,
      "rin": 6273,
      "wayo": 6274,
      "Ġukufikelela": 6275,
      "Ġwafika": 6276,
      "qua": 6277,
      "ĠCape": 6278,
      "logy": 6279,
      "qele": 6280,
      "Ġophezulu": 6281,
      "khokelo": 6282,
      "khulisa": 6283,
      "fumani": 6284,
      "Ġukuphucula": 6285,
      "dod": 6286,
      "Ġngolwazi": 6287,
      "CD": 6288,
      "ĠCompounds": 6289,
      "Ġiyin": 6290,
      "losi": 6291,
      "Ġukulunga": 6292,
      "thathi": 6293,
      "holele": 6294,
      "Ġisigqibo": 6295,
      "Ġinkathi": 6296,
      "Ġinxaxheba": 6297,
      "Ġngiyi": 6298,
      "Ġkubakho": 6299,
      "Ġkwenze": 6300,
      "qhwa": 6301,
      "khumbuza": 6302,
      "tals": 6303,
      "UNkulunkulu": 6304,
      "tch": 6305,
      "Ġ{": 6306,
      "lot": 6307,
      "nikwa": 6308,
      "vale": 6309,
      "ĠBona": 6310,
      "Ġkakubi": 6311,
      "Ġukufinyelela": 6312,
      "Ġamazinyo": 6313,
      "tshisa": 6314,
      "Pawulu": 6315,
      "UR": 6316,
      "Ġwawo": 6317,
      "Ġunike": 6318,
      "ĠIint": 6319,
      "ĠNceda": 6320,
      "Ġabasa": 6321,
      "galelo": 6322,
      "39": 6323,
      "mango": 6324,
      "khangiso": 6325,
      "Ġingxelo": 6326,
      "ziweyo": 6327,
      "Ġpla": 6328,
      "rom": 6329,
      "lulo": 6330,
      "Ġwesithombe": 6331,
      "Ġezingaphezu": 6332,
      "ONKE": 6333,
      "Ġabatsha": 6334,
      "ĠUkusebenza": 6335,
      "Ġyinyama": 6336,
      "Ġiningi": 6337,
      "yoka": 6338,
      "Ġnakwe": 6339,
      "xhoba": 6340,
      "Ġemangalisayo": 6341,
      "NA": 6342,
      "Ġsingaba": 6343,
      "Ġyebo": 6344,
      "Ġesifu": 6345,
      "Ġezayo": 6346,
      "phambene": 6347,
      "Ġkwebala": 6348,
      "Ġubuhle": 6349,
      "kcubeko": 6350,
      "Ġiqabane": 6351,
      "linda": 6352,
      "Ġukukhonza": 6353,
      "hog": 6354,
      "Ġomtsha": 6355,
      "ĠImisebenzi": 6356,
      "lola": 6357,
      "ĠUmoya": 6358,
      "Ġumqondo": 6359,
      "shiwe": 6360,
      "Facebook": 6361,
      "Ġkunokwenzeka": 6362,
      "Ġolo": 6363,
      "ĠAbo": 6364,
      "landelela": 6365,
      "Ġoyin": 6366,
      "thathwe": 6367,
      "ĠEmi": 6368,
      "ĠKwaseku": 6369,
      "Ġemazwini": 6370,
      "din": 6371,
      "Ġumbhalo": 6372,
      "ĠAu": 6373,
      "Ġakunjalo": 6374,
      "ĠSicela": 6375,
      "Ġkunoma": 6376,
      "Ġkubonisa": 6377,
      "Ġwaqhubeka": 6378,
      "namuhla": 6379,
      "Ġmaba": 6380,
      "Mdali": 6381,
      "Ġusen": 6382,
      "Ġifa": 6383,
      "Ġixabiso": 6384,
      "lue": 6385,
      "Ġimeyile": 6386,
      "Ġikhona": 6387,
      "Ġasebenze": 6388,
      "Ġinkinga": 6389,
      "ĠbukaThixo": 6390,
      "ĠMhlawumbe": 6391,
      "web": 6392,
      "qeqeshwa": 6393,
      "mkele": 6394,
      "witter": 6395,
      "Ġneqiniso": 6396,
      "Ġlwase": 6397,
      "CEL": 6398,
      "Ġababi": 6399,
      "kweletu": 6400,
      "fon": 6401,
      "xazulu": 6402,
      "Ġndizi": 6403,
      "chno": 6404,
      "Ġezama": 6405,
      "Ġukwamukela": 6406,
      "Ġngokuqinisekile": 6407,
      "bekwa": 6408,
      "khohli": 6409,
      "Ġkodwana": 6410,
      "ĠuPawulos": 6411,
      "qhagamshela": 6412,
      "Ġimeko": 6413,
      "Ġeninzi": 6414,
      "Ġubudlelwane": 6415,
      "Bhayibhileni": 6416,
      "efs": 6417,
      "Su": 6418,
      "Ġityala": 6419,
      "mpum": 6420,
      "hlulelwa": 6421,
      "ernet": 6422,
      "olomon": 6423,
      "Ġungo": 6424,
      "Ġeen": 6425,
      "phelelwa": 6426,
      "qhen": 6427,
      "ĠIxesha": 6428,
      "Ġokusemandleni": 6429,
      "So": 6430,
      "Ġizibusiso": 6431,
      "ĠKuthe": 6432,
      "cedi": 6433,
      "qonga": 6434,
      "mbuza": 6435,
      "tjhi": 6436,
      "phasi": 6437,
      "Ġbethi": 6438,
      "ĠSoku": 6439,
      "Ġngamazwe": 6440,
      "tyelela": 6441,
      "Ġngeenxa": 6442,
      "Ġelali": 6443,
      "Ġugcine": 6444,
      "Ġumfundi": 6445,
      "cazo": 6446,
      "kusasa": 6447,
      "lama": 6448,
      "mihla": 6449,
      "ĠISI": 6450,
      "Ġwafa": 6451,
      "ciko": 6452,
      "Ġuhamba": 6453,
      "dlulanga": 6454,
      "rk": 6455,
      "Ġup": 6456,
      "bekela": 6457,
      "naba": 6458,
      "Ġngomhlaka": 6459,
      "Ġkungakhathaliseki": 6460,
      "Ġweze": 6461,
      "chuku": 6462,
      "by": 6463,
      "Ġulimi": 6464,
      "Ġabahlala": 6465,
      "ĠAyi": 6466,
      "Ġimithi": 6467,
      "ĠInkqubo": 6468,
      "Ġembalwa": 6469,
      "hlawula": 6470,
      "Ġngaphantsi": 6471,
      "thali": 6472,
      "foto": 6473,
      "ordPress": 6474,
      "sindisi": 6475,
      "Ġebha": 6476,
      "kahle": 6477,
      "debele": 6478,
      "ĠYokuba": 6479,
      "tshaya": 6480,
      "ngcele": 6481,
      "bekezela": 6482,
      "ziywa": 6483,
      "Ho": 6484,
      "Ġezindle": 6485,
      "khelo": 6486,
      "ĠIsigaba": 6487,
      "!!!": 6488,
      "++)": 6489,
      "Mateyu": 6490,
      "zenzela": 6491,
      "ĠYize": 6492,
      "tin": 6493,
      "Ġnkampani": 6494,
      "Ġlalo": 6495,
      "Ġnamnye": 6496,
      "Ġezinengi": 6497,
      "And": 6498,
      "ĠUzo": 6499,
      "Ġiilwimi": 6500,
      "come": 6501,
      "puma": 6502,
      "setyenziswe": 6503,
      "Ġkakade": 6504,
      "Ġyehlabathi": 6505,
      "Ġuyaba": 6506,
      "mvaka": 6507,
      "Ġpe": 6508,
      "Ġyokwa": 6509,
      "khokha": 6510,
      "khuphu": 6511,
      "Ġokwamanje": 6512,
      "singiselo": 6513,
      "hlangene": 6514,
      "Ġnangen": 6515,
      "ĠKimi": 6516,
      "vunyelwe": 6517,
      "hemical": 6518,
      "Ġeziku": 6519,
      "ĠKube": 6520,
      "shayela": 6521,
      "AR": 6522,
      "wc": 6523,
      "zoni": 6524,
      "Ġabamnyama": 6525,
      "Ġiing": 6526,
      "dlulisa": 6527,
      "Ġenamandla": 6528,
      "ngina": 6529,
      "Ġesebenza": 6530,
      "ngaka": 6531,
      "Ġesisodwa": 6532,
      "ĠWaza": 6533,
      "chaze": 6534,
      "thunyelwe": 6535,
      "46": 6536,
      "Windows": 6537,
      "Ġenje": 6538,
      "Ġyilowo": 6539,
      "Ġekufeni": 6540,
      "Ġabesifazane": 6541,
      "funyanwa": 6542,
      "lalo": 6543,
      "Ġwakha": 6544,
      "qwenela": 6545,
      ".[": 6546,
      "ĠuG": 6547,
      "lamano": 6548,
      "hambeni": 6549,
      "Ġkwamanzi": 6550,
      "Ġizingxenye": 6551,
      "Ġngokuya": 6552,
      "ĠLona": 6553,
      "Nkonzo": 6554,
      "anti": 6555,
      "umana": 6556,
      "qamba": 6557,
      "enerator": 6558,
      "Ġbayazi": 6559,
      "Ġungena": 6560,
      "ĠImali": 6561,
      "ĠChi": 6562,
      "delela": 6563,
      "nina": 6564,
      "Ġukhuluma": 6565,
      "Ġivangeli": 6566,
      "soma": 6567,
      "ngezwa": 6568,
      "ĠNgendlela": 6569,
      "cm": 6570,
      "em": 6571,
      "wonke": 6572,
      "xin": 6573,
      "Ġukuhlakanipha": 6574,
      "khulile": 6575,
      "elana": 6576,
      "Ġnesa": 6577,
      "Ġkwabafileyo": 6578,
      "celist": 6579,
      "qine": 6580,
      "kila": 6581,
      "Ġesifanayo": 6582,
      "ĠYayo": 6583,
      "Ġingakumbi": 6584,
      "Ġukukholwa": 6585,
      "Ġisithombe": 6586,
      "Ġ43": 6587,
      "melela": 6588,
      "baluleka": 6589,
      "gweba": 6590,
      "andulo": 6591,
      "Ġukulalela": 6592,
      "khokho": 6593,
      "Ġkwamandla": 6594,
      "Ġinjabulo": 6595,
      "Ġkwelanga": 6596,
      "Ġmcimbi": 6597,
      "ĠCell": 6598,
      "jongene": 6599,
      "kisayo": 6600,
      "Ġengiku": 6601,
      "Ġikhaya": 6602,
      "ĠNom": 6603,
      "Ġ46": 6604,
      "Ġambalwa": 6605,
      "Ġngin": 6606,
      "nikwe": 6607,
      "dolobha": 6608,
      "ndile": 6609,
      "Ġimiyalelo": 6610,
      "ETH": 6611,
      "jika": 6612,
      "Ġingxaki": 6613,
      "AND": 6614,
      "mehluko": 6615,
      "Ġweqiniso": 6616,
      "ĠUkusebenzisa": 6617,
      "cial": 6618,
      "qinileyo": 6619,
      "cks": 6620,
      "memezela": 6621,
      "okumkani": 6622,
      "Ġngam": 6623,
      "Ġisakhiwo": 6624,
      "Ġzingadlulanga": 6625,
      "ĠCopyright": 6626,
      "Ġjordan": 6627,
      "Ġpricelist": 6628,
      "ĠIB": 6629,
      "Ġsimo": 6630,
      "ĠJehova": 6631,
      "khwama": 6632,
      "Ġab": 6633,
      "bika": 6634,
      "Ġngamanye": 6635,
      "Ġyikuphi": 6636,
      "Ġlulwandle": 6637,
      "ĠBasebe": 6638,
      "lungiselele": 6639,
      "Ġkasi": 6640,
      "Ġngokuco": 6641,
      "Ġnezingane": 6642,
      "ĠuMthetho": 6643,
      "Ġizinhliziyo": 6644,
      "Ġengamashumi": 6645,
      "FUM": 6646,
      "ia": 6647,
      "Ġsiyo": 6648,
      "Ġizitha": 6649,
      "suse": 6650,
      "ĠEzin": 6651,
      "yinye": 6652,
      "sc": 6653,
      "spa": 6654,
      "ĠÃ": 6655,
      "thwele": 6656,
      "Ġlisi": 6657,
      "rhaxwa": 6658,
      "livere": 6659,
      "Ġungene": 6660,
      "salo": 6661,
      "Ġakuna": 6662,
      "ĠNgokwe": 6663,
      "kanti": 6664,
      "radesi": 6665,
      "gy": 6666,
      "Ġdaba": 6667,
      "daweni": 6668,
      "ĠkaN": 6669,
      "ĠKuthetha": 6670,
      "pumalanga": 6671,
      "nweni": 6672,
      "ĠEndaweni": 6673,
      "ric": 6674,
      "vumeli": 6675,
      "rand": 6676,
      "change": 6677,
      "gosa": 6678,
      "ĠZami": 6679,
      "khonkco": 6680,
      "khululeka": 6681,
      "Ġkwelo": 6682,
      "noloji": 6683,
      "ĠTho": 6684,
      "ture": 6685,
      "olomoni": 6686,
      "Ġizimvu": 6687,
      "Ġinyanga": 6688,
      "taka": 6689,
      "chain": 6690,
      "thethayo": 6691,
      "Ġyomhlaba": 6692,
      "Ġayina": 6693,
      "Ġkukwazi": 6694,
      "Ġwaphuma": 6695,
      "phuhli": 6696,
      "our": 6697,
      "gcwalise": 6698,
      "PIV": 6699,
      "kuhle": 6700,
      "Ġwale": 6701,
      "ĠkaSathane": 6702,
      "ness": 6703,
      "ngukuthi": 6704,
      "Ġwee": 6705,
      "ĠOmnye": 6706,
      "ĠNabo": 6707,
      "LD": 6708,
      "rho": 6709,
      "Ġukuzama": 6710,
      "inise": 6711,
      "chazwa": 6712,
      "ĠKoloni": 6713,
      "UK": 6714,
      "ĠThi": 6715,
      "Ġmunye": 6716,
      "Ġeyoku": 6717,
      "Ġbangaba": 6718,
      "Ġisidingo": 6719,
      "Ġinkazimulo": 6720,
      "Ġzon": 6721,
      "melwane": 6722,
      "Ġubusuku": 6723,
      "dulo": 6724,
      "Ġumsebenzisi": 6725,
      "ĠKwaba": 6726,
      "phumula": 6727,
      "Ġhi": 6728,
      "Ġakazi": 6729,
      "khohlisa": 6730,
      "Ġngazi": 6731,
      "londoloza": 6732,
      "BEN": 6733,
      "tloko": 6734,
      "Ġra": 6735,
      "Ġulungile": 6736,
      "Ġumfana": 6737,
      "Ġkwaseku": 6738,
      "thuthi": 6739,
      "manani": 6740,
      "ĠInani": 6741,
      "nquma": 6742,
      "Ġeziza": 6743,
      "Ġkwizinto": 6744,
      "ĠuBaba": 6745,
      "annes": 6746,
      "nisa": 6747,
      "Ġkwaphela": 6748,
      "Ġenkundleni": 6749,
      "reli": 6750,
      "coce": 6751,
      "Zwi": 6752,
      "Ġudaba": 6753,
      "sala": 6754,
      "kholweni": 6755,
      "mbiso": 6756,
      "Ġngenjongo": 6757,
      "ĠPe": 6758,
      "Ġutshintsho": 6759,
      "Ġziin": 6760,
      "pathi": 6761,
      "ĠHayi": 6762,
      "roadcast": 6763,
      "lam": 6764,
      "ĠUA": 6765,
      "ĠKuzo": 6766,
      "ĠLolu": 6767,
      "Ġngumuntu": 6768,
      "thethelela": 6769,
      "ngquthela": 6770,
      "illiam": 6771,
      "jwe": 6772,
      "ĠKhe": 6773,
      "ĠkaDavide": 6774,
      "INC": 6775,
      "gweme": 6776,
      "Ġaphezulu": 6777,
      "vakalelwa": 6778,
      "ĠElitsha": 6779,
      "Khu": 6780,
      "simi": 6781,
      "Ġukulwa": 6782,
      "hlon": 6783,
      "thembela": 6784,
      "Ġngeendlela": 6785,
      "Ġuthathe": 6786,
      "Ġbahamba": 6787,
      "dimoni": 6788,
      "Ġemine": 6789,
      "MMMM": 6790,
      "Ġingozi": 6791,
      "Ġukuzwa": 6792,
      "Ġwathatha": 6793,
      "sula": 6794,
      "mpeli": 6795,
      "shiswa": 6796,
      "ĠuYise": 6797,
      "Ġulawulo": 6798,
      "ĠNE": 6799,
      "Ġwaphendula": 6800,
      "ĠKuyinto": 6801,
      "Ġnokusebenza": 6802,
      "Ġkokurhaxwa": 6803,
      "gogo": 6804,
      "Ġezintabeni": 6805,
      "gqwe": 6806,
      "Ġange": 6807,
      "ĠKhu": 6808,
      "ĠKubhubhe": 6809,
      "Ġnguwe": 6810,
      "ELE": 6811,
      "Bawo": 6812,
      "hlangothi": 6813,
      "Ġumyalelo": 6814,
      "deli": 6815,
      "philileyo": 6816,
      "hlulelo": 6817,
      "Ġuzoba": 6818,
      "Ġamanqaku": 6819,
      "lahlekelwe": 6820,
      "bhubhisa": 6821,
      "chanekileyo": 6822,
      "Cha": 6823,
      "thisa": 6824,
      "Ġukucabanga": 6825,
      "bukela": 6826,
      "2016": 6827,
      "ĠNguye": 6828,
      "Ġokwenzeka": 6829,
      "Ġenkantolo": 6830,
      "qinisile": 6831,
      "Ġnabani": 6832,
      "yingxenye": 6833,
      "tshulwa": 6834,
      "Ġiintlanga": 6835,
      "hlinzeka": 6836,
      "divayisi": 6837,
      "nalo": 6838,
      "ãĥ": 6839,
      "qoba": 6840,
      "mbelela": 6841,
      "Ġuyasi": 6842,
      "ndayo": 6843,
      "Ġnamadoda": 6844,
      "dolobheni": 6845,
      "venkile": 6846,
      "kwin": 6847,
      "Ġesiza": 6848,
      "gazini": 6849,
      "ĠWenze": 6850,
      "ĠKodwana": 6851,
      "MBI": 6852,
      "vana": 6853,
      "waba": 6854,
      "bhsayithi": 6855,
      "thobeka": 6856,
      "Ġendala": 6857,
      "Ġyile": 6858,
      "get": 6859,
      "zenkolo": 6860,
      "Ġabebe": 6861,
      "phenduke": 6862,
      "ngcamango": 6863,
      "ĠCabanga": 6864,
      "kgh": 6865,
      "use": 6866,
      "Ġyako": 6867,
      "wisela": 6868,
      "Ġsizathu": 6869,
      "phuhliso": 6870,
      "ĠAmaphoyisa": 6871,
      "ncede": 6872,
      "godini": 6873,
      "Bheka": 6874,
      "Ġisiqe": 6875,
      "labathi": 6876,
      "PSL": 6877,
      "Ġefika": 6878,
      "yelo": 6879,
      "Ġukungi": 6880,
      "Ġukufuna": 6881,
      "Ġabazo": 6882,
      "Ġyabe": 6883,
      "Ġndim": 6884,
      "dleko": 6885,
      "ĠuYa": 6886,
      "owabi": 6887,
      "ĠServer": 6888,
      "Ġavela": 6889,
      "phro": 6890,
      "ĠUze": 6891,
      "Ġumkhosi": 6892,
      "Ġamacala": 6893,
      "xazu": 6894,
      "ard": 6895,
      "Ġnemisebenzi": 6896,
      "ĠiT": 6897,
      "Ġiimeko": 6898,
      "ee": 6899,
      "ngano": 6900,
      "sebenziswano": 6901,
      "ngezelela": 6902,
      "hlanza": 6903,
      "lls": 6904,
      "Ġkungabi": 6905,
      "Ġukwandisa": 6906,
      "Ġ~": 6907,
      "sheni": 6908,
      "Ġabathathu": 6909,
      "ring": 6910,
      "mbane": 6911,
      "kanyezi": 6912,
      "ĠKaloku": 6913,
      "lly": 6914,
      "tshuma": 6915,
      "Kapa": 6916,
      "redit": 6917,
      "Ġezizo": 6918,
      "Ġyon": 6919,
      "Ġmthetho": 6920,
      "vuselela": 6921,
      "ĠeNkosini": 6922,
      "Ġiziphumo": 6923,
      "tshanje": 6924,
      "Ġngezandla": 6925,
      "ĠEkubeni": 6926,
      "khulekela": 6927,
      "Ġnamanje": 6928,
      "teas": 6929,
      "ELELELELELELELELELELELELELELELELELELELELELELELELELELELELELELELEL": 6930,
      "Ġecaleni": 6931,
      "Ġkwafika": 6932,
      "Ġakuyi": 6933,
      "ĠuMdali": 6934,
      "Ġbubu": 6935,
      "Ġemihlanu": 6936,
      "ments": 6937,
      "ĠlikaJehova": 6938,
      "Ġinkxaso": 6939,
      "mvakalelo": 6940,
      "Sonto": 6941,
      "cine": 6942,
      "Ġengekho": 6943,
      "Ġbaphile": 6944,
      "reen": 6945,
      "Ġubude": 6946,
      "Ġemazweni": 6947,
      "ĠOkufanele": 6948,
      "Ġngokomoya": 6949,
      "Ġidipho": 6950,
      "Ġukunqoba": 6951,
      "Ġwangena": 6952,
      "kiswe": 6953,
      "Ġizinyathelo": 6954,
      "ĠWabo": 6955,
      "ĠDu": 6956,
      "ineli": 6957,
      "sonka": 6958,
      "Ġkukuthi": 6959,
      "Ġngalesi": 6960,
      "limala": 6961,
      "humu": 6962,
      "lokazi": 6963,
      "hashe": 6964,
      "Ġnempilo": 6965,
      "Ġngokuqondile": 6966,
      "ĠLena": 6967,
      "Ġliye": 6968,
      "ĠNjengom": 6969,
      "shintsho": 6970,
      "tatimende": 6971,
      "dana": 6972,
      "Ġemp": 6973,
      "Ġngini": 6974,
      "pheni": 6975,
      "khoboka": 6976,
      "Ġwazo": 6977,
      "Ġsicela": 6978,
      "jithali": 6979,
      "Ġcompounds": 6980,
      "lockchain": 6981,
      "msebenzi": 6982,
      "ĠÐ": 6983,
      "Ġimba": 6984,
      "ĠOkhulumela": 6985,
      "Ġyenziwe": 6986,
      "Ġgame": 6987,
      "Ara": 6988,
      "gon": 6989,
      "Ġezenza": 6990,
      "ntombi": 6991,
      "Ġohlala": 6992,
      "Ġabasi": 6993,
      "phika": 6994,
      "Ġelise": 6995,
      "Ġsona": 6996,
      "shan": 6997,
      "Ii": 6998,
      "Ġesuka": 6999,
      "khumbi": 7000,
      "Ġimizwa": 7001,
      "Ġndinga": 7002,
      "MHB": 7003,
      "LC": 7004,
      "port": 7005,
      "Ġufumana": 7006,
      "ĠoFakazi": 7007,
      "Ġlazo": 7008,
      "tambo": 7009,
      "Ġsazi": 7010,
      "Ġiim": 7011,
      "Ġnizi": 7012,
      "Ġoluthile": 7013,
      "ĠNgempela": 7014,
      "bekezelela": 7015,
      "Ġuhlanga": 7016,
      "Ġuyisi": 7017,
      "Ġimiyalezo": 7018,
      "ĠEkuqaleni": 7019,
      "kuthelo": 7020,
      "Ġukuvu": 7021,
      "Ġukuthuthukisa": 7022,
      "ĠApha": 7023,
      "Ġisifundo": 7024,
      "tshata": 7025,
      "sentla": 7026,
      "anduva": 7027,
      "FUMANE": 7028,
      "Cw": 7029,
      "zindaba": 7030,
      "ĠeP": 7031,
      "Ġukuhlola": 7032,
      "Ġubukhosi": 7033,
      "minyakeni": 7034,
      "Ġbabenga": 7035,
      "bulali": 7036,
      "ĠInkonzo": 7037,
      "bhaliweyo": 7038,
      "uzi": 7039,
      "Ġas": 7040,
      "weD": 7041,
      "bhen": 7042,
      "Ġlento": 7043,
      "Ġnokuqonda": 7044,
      "Ġuzama": 7045,
      "ĠYomthetho": 7046,
      "Ġokungenani": 7047,
      "NwYW": 7048,
      "OM": 7049,
      "WEN": 7050,
      "gxa": 7051,
      "Ġkulindeleke": 7052,
      "wena": 7053,
      "valo": 7054,
      "Ġbezo": 7055,
      "ĠKuphela": 7056,
      "setyenziselwa": 7057,
      "ĠuSawule": 7058,
      "dG": 7059,
      "holwa": 7060,
      "ĠFumana": 7061,
      "knoloji": 7062,
      "shele": 7063,
      "Ġabakwa": 7064,
      "caphu": 7065,
      "qokelela": 7066,
      "ĠTra": 7067,
      "Ġlwami": 7068,
      "Ġkuzoba": 7069,
      ".âĢĻâĢĶ": 7070,
      "FUMANEKA": 7071,
      "sethi": 7072,
      "ĠIya": 7073,
      "ary": 7074,
      "tshonalanga": 7075,
      "ĠYinto": 7076,
      "sabela": 7077,
      "Ġwabhala": 7078,
      "Ġabanjalo": 7079,
      "Ġngibona": 7080,
      "atom": 7081,
      "lf": 7082,
      "Ġyamanzi": 7083,
      "ĠYork": 7084,
      "ĠUmama": 7085,
      "hlanganiswa": 7086,
      "ns": 7087,
      "khethela": 7088,
      "qaqa": 7089,
      "coca": 7090,
      "Ġ500": 7091,
      "ĠNami": 7092,
      "Ġndin": 7093,
      "hhovisi": 7094,
      "??": 7095,
      "Atom": 7096,
      "Ġepheleleyo": 7097,
      "Ġzent": 7098,
      "Ġngokwemi": 7099,
      "Ġsili": 7100,
      "Ġngelinye": 7101,
      "xoxo": 7102,
      "El": 7103,
      "Ġgu": 7104,
      "Ġivu": 7105,
      "Ġnin": 7106,
      "phanga": 7107,
      "Ġkangi": 7108,
      "musa": 7109,
      "Ġizinqumo": 7110,
      "fundazwe": 7111,
      "balala": 7112,
      "phambanweni": 7113,
      "VA": 7114,
      "^^": 7115,
      "dlwana": 7116,
      "wom": 7117,
      "thuko": 7118,
      "mbise": 7119,
      "hlelwe": 7120,
      "Ġezahlukahlukene": 7121,
      "ĠNew": 7122,
      "Ġizimvo": 7123,
      "wokuqala": 7124,
      "shone": 7125,
      "Ġzemali": 7126,
      "gudu": 7127,
      "Ġezinoku": 7128,
      "Ġentle": 7129,
      "phumelelayo": 7130,
      "phathelele": 7131,
      "sungulwa": 7132,
      "ngin": 7133,
      "Ġucinga": 7134,
      "Ġathile": 7135,
      "Ġkuvu": 7136,
      "kabi": 7137,
      "Ġbathanda": 7138,
      "Ġabaye": 7139,
      "hlabe": 7140,
      "Ġngokusemthethweni": 7141,
      "Ġinthanethi": 7142,
      "titshala": 7143,
      "Ġukhuseleko": 7144,
      "Ġamaqiniso": 7145,
      "ĠSt": 7146,
      "Ġngomlilo": 7147,
      "ĠuYo": 7148,
      "42": 7149,
      "43": 7150,
      "mla": 7151,
      "qalile": 7152,
      "ĠOkwa": 7153,
      "yakatho": 7154,
      "ĠNdandi": 7155,
      "ĠBlackjack": 7156,
      "Ġbathe": 7157,
      "qile": 7158,
      "bhobho": 7159,
      "BweD": 7160,
      "Hg": 7161,
      "kxaso": 7162,
      "Ġnemali": 7163,
      "kwethu": 7164,
      "LjBweD": 7165,
      "Ġembusweni": 7166,
      "ĠeG": 7167,
      "shon": 7168,
      "fuleni": 7169,
      "Ġngenza": 7170,
      "Ġsakwa": 7171,
      "Ġndiyi": 7172,
      "gxinini": 7173,
      "annesburg": 7174,
      "xen": 7175,
      "Ġkuyona": 7176,
      "ĠNokuba": 7177,
      "Ġngoxa": 7178,
      "ĠUkuzi": 7179,
      "gciniwe": 7180,
      "ĠEZIFUMANEKA": 7181,
      "ntela": 7182,
      "phulu": 7183,
      "Ġnamhla": 7184,
      "gxina": 7185,
      "Ġisayithi": 7186,
      "Ġabathanda": 7187,
      "ĠkwiN": 7188,
      "Ġngenhloso": 7189,
      "ĠInjongo": 7190,
      "Ġngumntu": 7191,
      "piliyoni": 7192,
      "thamo": 7193,
      "Ġizigidi": 7194,
      "umo": 7195,
      "qubela": 7196,
      "ĠOmkhulu": 7197,
      "qiniseke": 7198,
      "Ġngezikhathi": 7199,
      "yunivesithi": 7200,
      "nkulumo": 7201,
      "Ġesilandelayo": 7202,
      "moti": 7203,
      "layezo": 7204,
      "mka": 7205,
      "ĠeMa": 7206,
      "ĠNomsebenzi": 7207,
      "Ġnakwa": 7208,
      "shada": 7209,
      "ngenwe": 7210,
      "Ġekugqibeleni": 7211,
      "Ġvele": 7212,
      "Ġukuwu": 7213,
      "yiki": 7214,
      "Ġbeze": 7215,
      "Ġincazelo": 7216,
      "zenzayo": 7217,
      "ELI": 7218,
      "En": 7219,
      "South": 7220,
      "benzi": 7221,
      "Ġsihlale": 7222,
      "Ġyezo": 7223,
      "sena": 7224,
      "ĠBami": 7225,
      "ĠAmagama": 7226,
      "shintshi": 7227,
      "ĠMedia": 7228,
      "vini": 7229,
      "xanduva": 7230,
      "Ġvi": 7231,
      "Ġekwazi": 7232,
      "Ġozayo": 7233,
      "phethwe": 7234,
      "nguNkulunkulu": 7235,
      "celwa": 7236,
      "khwele": 7237,
      "ĠeK": 7238,
      "ĠIza": 7239,
      "ĠIqela": 7240,
      "hlathi": 7241,
      "nden": 7242,
      "Ġsise": 7243,
      "ndiza": 7244,
      "qingatha": 7245,
      "Eliya": 7246,
      "Qut": 7247,
      "ngabaza": 7248,
      "Ġkukunceda": 7249,
      "Ġeyenziwe": 7250,
      "jikelezayo": 7251,
      "ĠAnalytics": 7252,
      "cker": 7253,
      "Ġamawaka": 7254,
      "dubula": 7255,
      "boniswa": 7256,
      "Sama": 7257,
      "khankan": 7258,
      "ofisi": 7259,
      "Ġukuyo": 7260,
      "ming": 7261,
      "Ġabahlobo": 7262,
      "Ġnaphezu": 7263,
      "qalise": 7264,
      "ququ": 7265,
      "Ġmhlaba": 7266,
      "rekhodi": 7267,
      "Indi": 7268,
      "zcG": 7269,
      "Ġngamehlo": 7270,
      "Ġzokuqala": 7271,
      "ĠYabona": 7272,
      "Ġkungase": 7273,
      "Semalt": 7274,
      "wcHg": 7275,
      "LW": 7276,
      "uko": 7277,
      "yihlo": 7278,
      "risti": 7279,
      "xoxe": 7280,
      "ngokuthi": 7281,
      "Ġkwindlela": 7282,
      "hanjiswa": 7283,
      "gwen": 7284,
      "Ġikhanda": 7285,
      "singa": 7286,
      "ĠeC": 7287,
      "Ġngayinye": 7288,
      "ĠAZE": 7289,
      "Ġintsha": 7290,
      "hlanzekile": 7291,
      "Ġezintle": 7292,
      "ngcwaba": 7293,
      "kohlakalo": 7294,
      "Ġamabandla": 7295,
      "ĠLE": 7296,
      "Ġkokuqala": 7297,
      "phumu": 7298,
      "swela": 7299,
      "jeni": 7300,
      "gqila": 7301,
      "zinikele": 7302,
      "mfazwe": 7303,
      "Ġuxolo": 7304,
      "khuleka": 7305,
      "Ġisinyathelo": 7306,
      "Ġungazi": 7307,
      "mpelini": 7308,
      "sesimweni": 7309,
      "Hebhere": 7310,
      "mgomo": 7311,
      "Ġibu": 7312,
      "yango": 7313,
      "Ġkamva": 7314,
      "Ġnoonyana": 7315,
      "nyameni": 7316,
      "bonakaliswa": 7317,
      "Heb": 7318,
      "__": 7319,
      "bophe": 7320,
      "zolo": 7321,
      "Ġisihloko": 7322,
      "Ġ55": 7323,
      "sabatha": 7324,
      "Element": 7325,
      "Ġuthola": 7326,
      "Ġak": 7327,
      "ĠAmanye": 7328,
      "Ġngisa": 7329,
      "Ġyenye": 7330,
      "onomi": 7331,
      "Ġuzimisele": 7332,
      "Ġq": 7333,
      "Ġivela": 7334,
      "kiyo": 7335,
      "Ġinhlangano": 7336,
      "Ġlingu": 7337,
      "shayeli": 7338,
      "vumi": 7339,
      "jabulele": 7340,
      "Lr": 7341,
      "cro": 7342,
      "Ġokokuba": 7343,
      "Ġesise": 7344,
      "Ġuninzi": 7345,
      "minikelo": 7346,
      "chnology": 7347,
      "ãģ": 7348,
      "Ġuzoku": 7349,
      "thanga": 7350,
      "phelileyo": 7351,
      "Ġokuvela": 7352,
      "Ġnokusebenzisa": 7353,
      "Ġimizuzu": 7354,
      "Ġubungqina": 7355,
      "Ġkwendlela": 7356,
      "Ġyindawo": 7357,
      "linganiswa": 7358,
      "phefumu": 7359,
      "xulumene": 7360,
      "FI": 7361,
      "Ġengen": 7362,
      "lolu": 7363,
      "ĠIsizathu": 7364,
      "hlwele": 7365,
      "Ġnjl": 7366,
      "Gen": 7367,
      "sm": 7368,
      "ĠUkwakha": 7369,
      "âĢĵ": 7370,
      "Ġlena": 7371,
      "rial": 7372,
      "bhabha": 7373,
      "ĠKey": 7374,
      "Ġuluntu": 7375,
      "Ġeminyaka": 7376,
      "bhekisela": 7377,
      "Ġeziyisithupha": 7378,
      "Ġukhetha": 7379,
      "Ġukuthandana": 7380,
      "ĠUbe": 7381,
      "Ġabafowethu": 7382,
      "Ġizimpawu": 7383,
      "ĠSiza": 7384,
      "ĠPay": 7385,
      "Ġphela": 7386,
      "lanu": 7387,
      "Ġumbingeleli": 7388,
      "Ġngami": 7389,
      "ĠAyikho": 7390,
      "Ġesiphambanweni": 7391,
      "ĠYen": 7392,
      "orge": 7393,
      "Ġndingu": 7394,
      "ĠBaba": 7395,
      "fundelwa": 7396,
      "65": 7397,
      "Ġulwandle": 7398,
      "Ġithuluzi": 7399,
      "ĠKWI": 7400,
      "Ġlelo": 7401,
      "ĠWA": 7402,
      "Ġnokufa": 7403,
      "ĠFree": 7404,
      "kwenkwezi": 7405,
      "hana": 7406,
      "Ġbasebenzisa": 7407,
      "Ġabazalwane": 7408,
      "yuli": 7409,
      "dlwengu": 7410,
      "Ġnalokhu": 7411,
      "Ġumele": 7412,
      "Ġyibo": 7413,
      "ĠGe": 7414,
      "Ġentla": 7415,
      "ĠbakoIsrayeli": 7416,
      "Ġenkosini": 7417,
      "pt": 7418,
      "Ġuthetha": 7419,
      "Ġukufika": 7420,
      "Ġukuyenza": 7421,
      "donsa": 7422,
      "ui": 7423,
      "ĠUB": 7424,
      "khuphi": 7425,
      "Ġkwathiwa": 7426,
      "ĠBen": 7427,
      "tyhini": 7428,
      "imeyile": 7429,
      "YD": 7430,
      "kubona": 7431,
      "ĠUfuna": 7432,
      "ĠUmehluko": 7433,
      "bize": 7434,
      "balalisa": 7435,
      "Ġâĸł": 7436,
      "bri": 7437,
      "kk": 7438,
      "Ġitsho": 7439,
      "busuku": 7440,
      "cia": 7441,
      "Ġimizamo": 7442,
      "Ġmayi": 7443,
      "ntambo": 7444,
      "Ġhttps": 7445,
      "Ġcryptocurrency": 7446,
      "Qa": 7447,
      "YL": 7448,
      "ZG": 7449,
      "ĠuHe": 7450,
      "Ġukuhlupheka": 7451,
      "des": 7452,
      "hlubuka": 7453,
      "bonani": 7454,
      "Ġungaba": 7455,
      "ĠLisenyameni": 7456,
      "busisa": 7457,
      "ĠeMzantsi": 7458,
      "Ġelements": 7459,
      "Ġban": 7460,
      "Ġizithelo": 7461,
      "ĠJi": 7462,
      "xhu": 7463,
      "Ġikhe": 7464,
      "Ġeqinisweni": 7465,
      "ĠUDavide": 7466,
      "ĠKwesi": 7467,
      "ĠkaJ": 7468,
      "Sawule": 7469,
      "velela": 7470,
      "lindela": 7471,
      "ĠngoMgqibelo": 7472,
      ".âĢĭâĢĶ": 7473,
      "doni": 7474,
      "nyiswa": 7475,
      "Ġau": 7476,
      "mahla": 7477,
      "dijithali": 7478,
      "Ġngokusi": 7479,
      "ĠEqinisweni": 7480,
      "Ġnomoya": 7481,
      "dlulisela": 7482,
      "Ġlomsebenzi": 7483,
      "owabhi": 7484,
      "estamente": 7485,
      "klo": 7486,
      "Ġabaza": 7487,
      "ĠKungenxa": 7488,
      "Ġezincane": 7489,
      "Ġindlebe": 7490,
      "ĠBheka": 7491,
      "khun": 7492,
      "Ġyodwa": 7493,
      "faneleka": 7494,
      "ĠuMe": 7495,
      "qume": 7496,
      "Khristu": 7497,
      "gele": 7498,
      "pte": 7499,
      "Ġbaqala": 7500,
      "sole": 7501,
      "Ġizipho": 7502,
      "Ġisithi": 7503,
      "nikeze": 7504,
      "hlonipho": 7505,
      "Ġukuvumela": 7506,
      "Ġonge": 7507,
      "tare": 7508,
      "vezwa": 7509,
      "âĶ": 7510,
      "ĠuDavida": 7511,
      "Ġephuma": 7512,
      "buyiselwa": 7513,
      "kim": 7514,
      "Ġimibhalo": 7515,
      "Ġbene": 7516,
      "hambisani": 7517,
      "thuthukise": 7518,
      "Aron": 7519,
      "Ukuba": 7520,
      "tse": 7521,
      "Ġ..": 7522,
      "Ġewu": 7523,
      "Ġelowo": 7524,
      "Ġukumelana": 7525,
      "Ġ(âĢľ": 7526,
      "shelwa": 7527,
      "Ġungayi": 7528,
      "thokozisa": 7529,
      "Ġebalulekile": 7530,
      "Ġethandwa": 7531,
      "Ġafana": 7532,
      "Ġkuthatha": 7533,
      "hlaziya": 7534,
      "Ġngapha": 7535,
      "Ġamakhasimende": 7536,
      "Ġnoyedwa": 7537,
      "Ġkweso": 7538,
      "mininingwane": 7539,
      "Ġomncane": 7540,
      "ANG": 7541,
      "ĠbakaJehova": 7542,
      "bhanki": 7543,
      "Ġwemikhosi": 7544,
      "thakazelisayo": 7545,
      "EF": 7546,
      "ento": 7547,
      "Ġbengena": 7548,
      "ngothini": 7549,
      "Ġlunga": 7550,
      "ĠNabantu": 7551,
      "Ġngomoya": 7552,
      "velele": 7553,
      "Xa": 7554,
      "Ġmba": 7555,
      "lifa": 7556,
      "Ġkusebenza": 7557,
      "qobe": 7558,
      "Ġezinzima": 7559,
      "Ġobuhle": 7560,
      "\",": 7561,
      "Ġibhe": 7562,
      "Ġkulungile": 7563,
      "Ġbala": 7564,
      "lwaneni": 7565,
      "Ġesiba": 7566,
      "Ġngifuna": 7567,
      "Ġizinkampani": 7568,
      "ĠVI": 7569,
      "2014": 7570,
      "Ġbesifazane": 7571,
      "Ġifuna": 7572,
      "Ġndlu": 7573,
      "Ġkufuze": 7574,
      "fiki": 7575,
      "SEBEN": 7576,
      "bhakabhaka": 7577,
      "ĠAtoms": 7578,
      "Ġimo": 7579,
      "Ġlube": 7580,
      "yine": 7581,
      "entlanga": 7582,
      "sizathu": 7583,
      "ĠBeku": 7584,
      "vakashela": 7585,
      "IHubo": 7586,
      "KHO": 7587,
      "dani": 7588,
      "tje": 7589,
      "khanye": 7590,
      "Ġukuphela": 7591,
      "Ġbaben": 7592,
      "Ġabangaba": 7593,
      "Ġabazange": 7594,
      "Ġzange": 7595,
      "hlulo": 7596,
      "phuthuma": 7597,
      "Ġolulodwa": 7598,
      "dom": 7599,
      "uka": 7600,
      "sinceda": 7601,
      "Ġephelele": 7602,
      "Ġbabonakale": 7603,
      "qhaza": 7604,
      "Kodwa": 7605,
      "TT": 7606,
      "pin": 7607,
      "Ġmnye": 7608,
      "puter": 7609,
      "gazine": 7610,
      "Ġanike": 7611,
      "loba": 7612,
      "Ġezinya": 7613,
      "Ġisisombululo": 7614,
      "bhiyo": 7615,
      "Ġabangaphezu": 7616,
      "sombuluko": 7617,
      "Oku": 7618,
      "Ġisenzo": 7619,
      "hlambi": 7620,
      "Ġezingeni": 7621,
      "tshalo": 7622,
      "hlanzi": 7623,
      "Ġngokwabo": 7624,
      "250": 7625,
      "gce": 7626,
      "Ġmeko": 7627,
      "kuma": 7628,
      "vimbe": 7629,
      "ers": 7630,
      "ĠLivela": 7631,
      "2015": 7632,
      "chofoza": 7633,
      "form": 7634,
      "Ġkusasa": 7635,
      "ĠWen": 7636,
      "Ġwayefuna": 7637,
      ".âĢĻâĢĿ": 7638,
      "cindezela": 7639,
      "ĠJohannesburg": 7640,
      "ĠNdebele": 7641,
      "Ġsengqondo": 7642,
      "ĠCh": 7643,
      "Ġ47": 7644,
      "Ġintlawulo": 7645,
      "zondo": 7646,
      "tshumayela": 7647,
      "chaphazela": 7648,
      "Car": 7649,
      "Ġakhulu": 7650,
      "ĠEL": 7651,
      "phelelisa": 7652,
      "Ġlwayo": 7653,
      "qiniseko": 7654,
      "ĠKanjalo": 7655,
      "Ġisofthiwe": 7656,
      "XO": 7657,
      "qendu": 7658,
      "vb": 7659,
      "Ġukuqa": 7660,
      "Ġukukhula": 7661,
      "inthanethi": 7662,
      "Ġabathile": 7663,
      "Ġkamuva": 7664,
      "Ġngokuzenzekelayo": 7665,
      "ĠEZIN": 7666,
      "ĠKulula": 7667,
      "Ġ2010": 7668,
      "2013": 7669,
      "kraza": 7670,
      "Ġina": 7671,
      "ĠKwenza": 7672,
      "ĠLan": 7673,
      "tile": 7674,
      "tala": 7675,
      "kangala": 7676,
      "buyisele": 7677,
      "Aroni": 7678,
      "buyisa": 7679,
      "Ġkwaso": 7680,
      "Ġsin": 7681,
      "Ġamaqela": 7682,
      "Ġkweze": 7683,
      "thandela": 7684,
      "Ngu": 7685,
      "Zm": 7686,
      "fazwe": 7687,
      "Ġyiziphi": 7688,
      "ĠOkunye": 7689,
      "Ġonamandla": 7690,
      "Im": 7691,
      "dlelwano": 7692,
      "funga": 7693,
      "ĠKuyo": 7694,
      "bhapathi": 7695,
      "shelwe": 7696,
      "Ġlomsebenzisi": 7697,
      "Bhalo": 7698,
      "sakaza": 7699,
      "Ambulo": 7700,
      "bs": 7701,
      "ĠeThekwini": 7702,
      "Ġukuphatha": 7703,
      "Ġizidakamizwa": 7704,
      "Ġnolu": 7705,
      "Ġbeyi": 7706,
      "Ġyokugqibela": 7707,
      "ĠFe": 7708,
      "Ġkwesinye": 7709,
      "Ġuzothola": 7710,
      "Ġumbala": 7711,
      "vakala": 7712,
      "pheka": 7713,
      "xabisa": 7714,
      "Ġyikuthi": 7715,
      "Ġ49": 7716,
      "Ġukuyisebenzisa": 7717,
      "Ġnjll": 7718,
      "DL": 7719,
      "xela": 7720,
      "ses": 7721,
      "kamva": 7722,
      "Ġumphathi": 7723,
      "del": 7724,
      "Ġyent": 7725,
      "Ġkwinqanaba": 7726,
      "buyekeza": 7727,
      "Ġcells": 7728,
      "ĠIsofthiwe": 7729,
      "Or": 7730,
      "Ġubo": 7731,
      "khwen": 7732,
      "ĠOngcwele": 7733,
      "sindise": 7734,
      "ĠNews": 7735,
      "zenzaka": 7736,
      "Ġkubaluleke": 7737,
      "hha": 7738,
      "mU": 7739,
      "onde": 7740,
      "Ġyaso": 7741,
      "que": 7742,
      "ĠkoYehova": 7743,
      "ntathu": 7744,
      "Thu": 7745,
      "Ġet": 7746,
      "Ġumonakalo": 7747,
      "Ġngothando": 7748,
      "Ġesisi": 7749,
      "qedi": 7750,
      "Ġzokuba": 7751,
      "Sityhi": 7752,
      "khathalela": 7753,
      "Ġosezulwini": 7754,
      "gqoke": 7755,
      "Ġiindleko": 7756,
      "pen": 7757,
      "thonya": 7758,
      "Ġathathe": 7759,
      "Ġodlule": 7760,
      "Ġkunyaka": 7761,
      "lunganga": 7762,
      "Ġdata": 7763,
      "gor": 7764,
      "Ġufake": 7765,
      "Ġukulungisa": 7766,
      "sawu": 7767,
      "ĠNJ": 7768,
      "wenzayo": 7769,
      "khuphe": 7770,
      "ĠSha": 7771,
      "ngulu": 7772,
      "Ġnithi": 7773,
      "ĠAbafundi": 7774,
      "Ġokwengeziwe": 7775,
      "Ġesihlalweni": 7776,
      "zcGFu": 7777,
      "á»": 7778,
      "Ġinge": 7779,
      "Ġkuchaza": 7780,
      "marike": 7781,
      "Ġamaqembu": 7782,
      "zekayo": 7783,
      "qinisekileyo": 7784,
      "ĠMagazine": 7785,
      "mvula": 7786,
      "ĠuNa": 7787,
      "Ġephakeme": 7788,
      "Ġahla": 7789,
      "Ġnaluphi": 7790,
      "Ġinqwaba": 7791,
      "Ġesifanele": 7792,
      "phuku": 7793,
      "Ġemazulwini": 7794,
      "fanelwe": 7795,
      "landelwa": 7796,
      "HE": 7797,
      "Ġizigaba": 7798,
      "kwamukela": 7799,
      "Ġinxalenye": 7800,
      "qili": 7801,
      "qhamuka": 7802,
      "HLABA": 7803,
      "Ġephakamileyo": 7804,
      "tasa": 7805,
      "Ġkubafundi": 7806,
      "joliswe": 7807,
      "thakazelo": 7808,
      "Ġinkulumo": 7809,
      "MT": 7810,
      "kre": 7811,
      "ubu": 7812,
      "Â®": 7813,
      "Ġithetha": 7814,
      "Ġahambe": 7815,
      "gcwala": 7816,
      "Ġichaza": 7817,
      "Ġamaphutha": 7818,
      "Ġimigomo": 7819,
      "nyoni": 7820,
      "qoqosho": 7821,
      "kcazo": 7822,
      "ulette": 7823,
      "wabe": 7824,
      "Ġwadala": 7825,
      "tali": 7826,
      "Ġubuchwepheshe": 7827,
      "ngabezana": 7828,
      "thembele": 7829,
      "ĠWasesithi": 7830,
      "ĠMhlawumbi": 7831,
      "CS": 7832,
      "Ġuhulumeni": 7833,
      "Ġibhokisi": 7834,
      "Ġngokufanelekileyo": 7835,
      "Ġinkolo": 7836,
      "zwela": 7837,
      "Ġintloko": 7838,
      "Ġnendlu": 7839,
      "khondo": 7840,
      "jula": 7841,
      "Ġuqala": 7842,
      "anan": 7843,
      "Ġepha": 7844,
      "ĠeYiputa": 7845,
      "Ġukubonakala": 7846,
      "Ġobunga": 7847,
      "Ġngumsebenzi": 7848,
      "Ro": 7849,
      "Ġitha": 7850,
      "mail": 7851,
      "katha": 7852,
      "Ġokwazi": 7853,
      "Ġwasebenzisa": 7854,
      "Ġomhle": 7855,
      "postile": 7856,
      "IMi": 7857,
      "Pe": 7858,
      "Ġimbewu": 7859,
      "ĠUninzi": 7860,
      "Ġyan": 7861,
      "Ġamahle": 7862,
      "Ġziyo": 7863,
      "Ġngicabanga": 7864,
      "njwe": 7865,
      "Ġmasinyane": 7866,
      "ncedisa": 7867,
      "IH": 7868,
      "fini": 7869,
      "tyo": 7870,
      "Ġgqitha": 7871,
      "Ġala": 7872,
      "Ġkuqhubeka": 7873,
      "Ġukunikela": 7874,
      "kethi": 7875,
      "Ġwandi": 7876,
      "phephe": 7877,
      "Ġnokholo": 7878,
      "mbulwa": 7879,
      "ĠSizo": 7880,
      "fakaza": 7881,
      "ĠbakaThixo": 7882,
      "ngcakaza": 7883,
      "wns": 7884,
      "liweyo": 7885,
      "onda": 7886,
      "ĠAmeri": 7887,
      "Ġnegama": 7888,
      "hunyu": 7889,
      "Ġbendi": 7890,
      "Ġukubhala": 7891,
      "Ġolungileyo": 7892,
      "futhi": 7893,
      "Ġkawu": 7894,
      "ĠyeN": 7895,
      "Ġisiqu": 7896,
      "ĠESI": 7897,
      "xabise": 7898,
      "Ġelitsha": 7899,
      "Ġzezin": 7900,
      "wnlo": 7901,
      "ĠngoLwesihlanu": 7902,
      "remium": 7903,
      "Ġkhathesi": 7904,
      "ĠUbomi": 7905,
      "sheshayo": 7906,
      "ĠunguNkulunkulu": 7907,
      "Rashiya": 7908,
      "CELL": 7909,
      "sila": 7910,
      "Ġkungena": 7911,
      "Ġothe": 7912,
      "Ġbabona": 7913,
      "dibani": 7914,
      "ĠWakho": 7915,
      "mpofu": 7916,
      "bru": 7917,
      "Ġndo": 7918,
      "Ġkuhlanganise": 7919,
      "thinte": 7920,
      "qongqo": 7921,
      "Ġmabini": 7922,
      "pozithi": 7923,
      "Ġemibi": 7924,
      "Ġentliziyweni": 7925,
      "xazululo": 7926,
      "qen": 7927,
      "bethe": 7928,
      "buzwa": 7929,
      "hlazo": 7930,
      "Ġumkakhe": 7931,
      "ĠkaMa": 7932,
      "thulisa": 7933,
      "Ġizizathu": 7934,
      "fihli": 7935,
      "phule": 7936,
      "gulayo": 7937,
      "ĠkukaJehova": 7938,
      "fundela": 7939,
      "ew": 7940,
      "ĠeSi": 7941,
      "Ġizingubo": 7942,
      "âĢĿ?": 7943,
      "Ġsem": 7944,
      "Ġwum": 7945,
      "qhutywa": 7946,
      "arch": 7947,
      "ĠGoogle": 7948,
      "ĠNjenga": 7949,
      "chool": 7950,
      "ĠKhetha": 7951,
      "lekayo": 7952,
      "aneni": 7953,
      "lus": 7954,
      "ĠUkube": 7955,
      "fikelele": 7956,
      "vile": 7957,
      "ĠZoku": 7958,
      "pati": 7959,
      "ĠIsibonelo": 7960,
      "Ġkumdlalo": 7961,
      "Ġuthethe": 7962,
      "tshenziswa": 7963,
      "NE": 7964,
      "Nje": 7965,
      "Ġumzalwana": 7966,
      "Ġezikhoyo": 7967,
      "Ġlaa": 7968,
      "Ġnodade": 7969,
      "Ġenkonzweni": 7970,
      "qoqa": 7971,
      "senze": 7972,
      "Ġ2012": 7973,
      "qondisi": 7974,
      "ĠkukaJesu": 7975,
      "hlwempu": 7976,
      "hlukunyezwa": 7977,
      "Shi": 7978,
      "Ġimpumelelo": 7979,
      "buke": 7980,
      "kwesaba": 7981,
      "Ġ--": 7982,
      "Ġkwakukhona": 7983,
      "yeneyo": 7984,
      "hlambulu": 7985,
      "ÉĶ": 7986,
      "ons": 7987,
      "Ġkuphele": 7988,
      "Ġukunceda": 7989,
      "ĠOyingqayizi": 7990,
      "thandweni": 7991,
      "Ġwayengum": 7992,
      "ĠJesu": 7993,
      "ĠOyingqayizie": 7994,
      "Abhi": 7995,
      "hlangothini": 7996,
      "Ġnangoko": 7997,
      "Ġnezenzo": 7998,
      "ĠSonke": 7999,
      "bonisi": 8000,
      "ĠHol": 8001,
      "Ġizinhloso": 8002,
      "Ġangaphezu": 8003,
      "Ġakakwazi": 8004,
      "Ġngalolu": 8005,
      "Ġhas": 8006,
      "Ã¡": 8007,
      "Ġasebenza": 8008,
      "ngilosi": 8009,
      "Ġamakhosi": 8010,
      "Ġkwela": 8011,
      "Ġmdlali": 8012,
      "Ġkokufa": 8013,
      "gubu": 8014,
      "Ġkwesintu": 8015,
      "fakazela": 8016,
      "dlulele": 8017,
      "dingeki": 8018,
      "ĠUbuhlobo": 8019,
      "thabathela": 8020,
      "vumelekanga": 8021,
      "tini": 8022,
      "Ġekhona": 8023,
      "beli": 8024,
      "ĠSte": 8025,
      "hleka": 8026,
      "bhulogi": 8027,
      "Ġintanethi": 8028,
      "Ġgi": 8029,
      "lanzi": 8030,
      "Ġnanoma": 8031,
      "Ġukufeza": 8032,
      "Ġinombolo": 8033,
      "Ġsawo": 8034,
      "Ġndiba": 8035,
      "ĠuMose": 8036,
      "Ziqu": 8037,
      "PI": 8038,
      "mle": 8039,
      "ngon": 8040,
      "Ġiwayini": 8041,
      "Ġumka": 8042,
      "ĠUkuthini": 8043,
      "Ġimithombo": 8044,
      "Ġonjalo": 8045,
      "Ġlwenu": 8046,
      "Ġikusasa": 8047,
      "xt": 8048,
      "Ġilungu": 8049,
      "lindlela": 8050,
      "Ġkudla": 8051,
      "phayona": 8052,
      "Ġumva": 8053,
      "ĠAgciniwe": 8054,
      "ship": 8055,
      "Ġangazi": 8056,
      "Ġemibini": 8057,
      "Phone": 8058,
      "ĠVIII": 8059,
      "Ġhlelo": 8060,
      "lilweni": 8061,
      "Ġlawe": 8062,
      "Ġst": 8063,
      "sendulo": 8064,
      "Ġwesithathu": 8065,
      "Ġizakhiwo": 8066,
      "Ġphantse": 8067,
      "foni": 8068,
      "Ġingoma": 8069,
      "ĠUtsho": 8070,
      "Ġneminyaka": 8071,
      "bonakude": 8072,
      "ĠNgaloo": 8073,
      "Ġungase": 8074,
      "Ġngelixa": 8075,
      "hlinze": 8076,
      "Abantu": 8077,
      "dium": 8078,
      "lelana": 8079,
      "vuyo": 8080,
      "Ġslot": 8081,
      "Ġndibe": 8082,
      "Ġngokobu": 8083,
      "Nyana": 8084,
      "Ġkusebenze": 8085,
      "misebenzi": 8086,
      "Ġlan": 8087,
      "Ġfun": 8088,
      "Ġyenze": 8089,
      "Ġengaba": 8090,
      "gangathweni": 8091,
      "Ġmole": 8092,
      "nyiwe": 8093,
      "work": 8094,
      "WordPress": 8095,
      "qweni": 8096,
      "Ġnanje": 8097,
      "yiyo": 8098,
      "Ġabakhonzi": 8099,
      "gue": 8100,
      "kanuko": 8101,
      "Ġngamagama": 8102,
      "Ġusuke": 8103,
      "sikelelo": 8104,
      "ĠInda": 8105,
      "Ġamakhadi": 8106,
      "Ġisifo": 8107,
      "Ġlwam": 8108,
      "jiswe": 8109,
      "Ġkomthetho": 8110,
      "khanyeni": 8111,
      "Ġubeke": 8112,
      "semqoka": 8113,
      "vakalisa": 8114,
      "oko": 8115,
      "Ġucabanga": 8116,
      "bawo": 8117,
      "Ġumpristi": 8118,
      "ĠUkuphila": 8119,
      "ĠBam": 8120,
      "Ġngomlomo": 8121,
      "Ġimfundo": 8122,
      "Natal": 8123,
      "Ġulaka": 8124,
      "Ġukubheja": 8125,
      "zer": 8126,
      "ĠAMA": 8127,
      "ĠIimpawu": 8128,
      "hlangabezana": 8129,
      "ï¼ļ": 8130,
      "Kumkani": 8131,
      "MD": 8132,
      "kg": 8133,
      "enzo": 8134,
      "ĠINkosi": 8135,
      "Ġumlando": 8136,
      "Ġnowa": 8137,
      "Ġlwalu": 8138,
      "ĠING": 8139,
      "Ġbomhlaba": 8140,
      "AS": 8141,
      "mko": 8142,
      "Ġangene": 8143,
      "Ġbaphinde": 8144,
      "ĠAB": 8145,
      "mbulala": 8146,
      "nikezwa": 8147,
      "Ġnamkha": 8148,
      "Ġiminikelo": 8149,
      "Genesise": 8150,
      "ÉĽ": 8151,
      "Ġgo": 8152,
      "zila": 8153,
      "sileyo": 8154,
      "khohlwa": 8155,
      "phambeko": 8156,
      "Ġngokukodwa": 8157,
      "Ġisig": 8158,
      "gatsha": 8159,
      "hlulwa": 8160,
      "Ġsabantu": 8161,
      "ĠKwabantu": 8162,
      "vakalisi": 8163,
      "Ġuyoba": 8164,
      "ĠYombuso": 8165,
      "Ndiya": 8166,
      "onza": 8167,
      "bumba": 8168,
      "cebisa": 8169,
      "pheliyo": 8170,
      "kum": 8171,
      "yisele": 8172,
      "Ġngezantsi": 8173,
      "Ġngokutsha": 8174,
      "Ġyeyona": 8175,
      "Ġmnandi": 8176,
      "Ġkubantwana": 8177,
      "Ġangakwazi": 8178,
      "Ġ199": 8179,
      "Ġkumazwe": 8180,
      "dH": 8181,
      "Ġbhe": 8182,
      "lahlwa": 8183,
      "kazana": 8184,
      "Ġblockchain": 8185,
      "Ġkunene": 8186,
      "sindiswe": 8187,
      "Ġinkinobho": 8188,
      "Ġeziyisikhombisa": 8189,
      "ĠTown": 8190,
      "Proteas": 8191,
      "hlombe": 8192,
      "nolwazi": 8193,
      "ĠYaba": 8194,
      "khuthazwa": 8195,
      "Thetho": 8196,
      "qathango": 8197,
      "silisa": 8198,
      "thulo": 8199,
      "ngezele": 8200,
      "phelisa": 8201,
      "Ġzize": 8202,
      "Ġmahhala": 8203,
      "sondeza": 8204,
      "Ġngokucophelela": 8205,
      "khomba": 8206,
      "Ġyalokhu": 8207,
      "tshani": 8208,
      "Ġngenze": 8209,
      "Ġlukhulu": 8210,
      "Ġuyayi": 8211,
      "phelelwe": 8212,
      "Ġkomnye": 8213,
      "sasazwa": 8214,
      "New": 8215,
      "qan": 8216,
      "ĠiC": 8217,
      "Ġukunciphisa": 8218,
      "kulumo": 8219,
      "kisela": 8220,
      "Ġsiwu": 8221,
      "rit": 8222,
      "dumileyo": 8223,
      "Ġyokwakha": 8224,
      "ĠNjenge": 8225,
      "Ġzomuntu": 8226,
      "sy": 8227,
      "Ġmveliso": 8228,
      "Ġemdlalweni": 8229,
      "chard": 8230,
      "Ġnjengalokhu": 8231,
      "Vangeli": 8232,
      "Bi": 8233,
      "nkqubo": 8234,
      "press": 8235,
      "makethe": 8236,
      "kulula": 8237,
      "bhalela": 8238,
      "colo": 8239,
      "Ġasebe": 8240,
      "ĠngoLwesithathu": 8241,
      "DO": 8242,
      "ngwini": 8243,
      "khudlwana": 8244,
      "khange": 8245,
      "Ġyebandla": 8246,
      "lulekile": 8247,
      "cubu": 8248,
      "Ġimfu": 8249,
      "semzini": 8250,
      "Ġkangako": 8251,
      "Ġnjengento": 8252,
      "kt": 8253,
      "lwen": 8254,
      "ĠiSi": 8255,
      "Ġnyanga": 8256,
      "Ġukuxhumana": 8257,
      "Ġyazi": 8258,
      "Ġndiye": 8259,
      "Ġizinceku": 8260,
      "tshintshe": 8261,
      "Efrayi": 8262,
      "wnload": 8263,
      "47": 8264,
      "ud": 8265,
      "Ġndini": 8266,
      "loli": 8267,
      "masipala": 8268,
      "keleni": 8269,
      "Ġaban": 8270,
      "khuphela": 8271,
      "shayi": 8272,
      "Ġimibala": 8273,
      "ĠUmthetho": 8274,
      "Ġongakhetha": 8275,
      "Ġomubi": 8276,
      "Aha": 8277,
      "HD": 8278,
      "Ġuke": 8279,
      "Ġurhulumente": 8280,
      "Ġukuhlela": 8281,
      "Ġukushintsha": 8282,
      "Ġwayene": 8283,
      "Ġinjini": 8284,
      "Ġzaku": 8285,
      "fihle": 8286,
      "gcu": 8287,
      "ĠUMo": 8288,
      "sikhathini": 8289,
      "ĠINguqulelo": 8290,
      "ngqiqo": 8291,
      "Ġï¿½ï¿½ï¿½ï¿½": 8292,
      "kun": 8293,
      "khen": 8294,
      "Ġeqhelekileyo": 8295,
      "Ġabangane": 8296,
      "mbama": 8297,
      "tempi": 8298,
      "ĠAbazali": 8299,
      "ĠSlot": 8300,
      "Asiriya": 8301,
      "Tha": 8302,
      "gs": 8303,
      "kom": 8304,
      "Ġamasha": 8305,
      "Ġakukhona": 8306,
      "Ġkoo": 8307,
      "hlangane": 8308,
      "dlebe": 8309,
      "stralia": 8310,
      "tjhumayela": 8311,
      "!âĢĻ": 8312,
      "Ij": 8313,
      "YI": 8314,
      "vc": 8315,
      "Ġufisa": 8316,
      "dayisa": 8317,
      "futhe": 8318,
      "Ġbaqonde": 8319,
      "lamini": 8320,
      "ĠeBhe": 8321,
      "Ġkungum": 8322,
      "Ġwathetha": 8323,
      "dibano": 8324,
      "Ġumo": 8325,
      "kwakhe": 8326,
      "phakamise": 8327,
      "Ġingubo": 8328,
      "Ġafe": 8329,
      "kayi": 8330,
      "Ġukubulala": 8331,
      "Ġoyo": 8332,
      "fungo": 8333,
      "shaywa": 8334,
      "veliswa": 8335,
      "Ġubuncinane": 8336,
      "ĠChina": 8337,
      "mbeka": 8338,
      "bhile": 8339,
      "Ġezingamashumi": 8340,
      "Abraham": 8341,
      "konke": 8342,
      "bandakanya": 8343,
      "bithe": 8344,
      "Ġsimele": 8345,
      "red": 8346,
      "IzAga": 8347,
      "ĠâĨĴ": 8348,
      "rodu": 8349,
      "Ġnangenxa": 8350,
      "Ġisifuba": 8351,
      "Ġyilokho": 8352,
      "vid": 8353,
      "Ġiifayile": 8354,
      "Ġngomusa": 8355,
      "Ġemikhulu": 8356,
      "caciso": 8357,
      "BON": 8358,
      "kuni": 8359,
      "ĠUsuku": 8360,
      "kolweni": 8361,
      "sungula": 8362,
      "Ġisixhobo": 8363,
      "hlule": 8364,
      "khuthaze": 8365,
      "\\Ā\\Ā": 8366,
      "Fran": 8367,
      "WU": 8368,
      "cts": 8369,
      "yesi": 8370,
      "bulula": 8371,
      "thume": 8372,
      "khamuzi": 8373,
      "mema": 8374,
      "ĠzeBhayibheli": 8375,
      "chazela": 8376,
      "erna": 8377,
      "Ġkulowo": 8378,
      "thuthukiswa": 8379,
      "Ġkungekhona": 8380,
      "phenyo": 8381,
      "Vidiyo": 8382,
      "ĠEnkosi": 8383,
      "Man": 8384,
      "rh": 8385,
      "Ġehle": 8386,
      "Ġebonisa": 8387,
      "kulunga": 8388,
      "jeziswa": 8389,
      "kwazanga": 8390,
      "Ġlanga": 8391,
      "neke": 8392,
      "tholile": 8393,
      "Ġzikhona": 8394,
      "Ġindalo": 8395,
      "phithi": 8396,
      "hlukaniswa": 8397,
      "vumelekile": 8398,
      "ĠZintathu": 8399,
      "SX": 8400,
      "ĠuLa": 8401,
      "Ġneminye": 8402,
      "Ġizimiso": 8403,
      "Ġliyi": 8404,
      "tayela": 8405,
      "QL": 8406,
      "dan": 8407,
      "kunga": 8408,
      "lila": 8409,
      "Ġukuthengisa": 8410,
      "disha": 8411,
      "Ġenen": 8412,
      "Ġste": 8413,
      "Ġyesibili": 8414,
      "ĠJames": 8415,
      "ĠuYakobi": 8416,
      "lti": 8417,
      "mhla": 8418,
      "mboni": 8419,
      "xwebhu": 8420,
      "ãĤ": 8421,
      "ĠuKa": 8422,
      "ĠIX": 8423,
      "ĠIngxelo": 8424,
      "ĠYE": 8425,
      "Ġnokuyi": 8426,
      "Ġemhlabathini": 8427,
      "Ġwezinsuku": 8428,
      "Ġngiye": 8429,
      "Ġyilabo": 8430,
      "khishwe": 8431,
      "Ġzokubeka": 8432,
      "ĠkoM": 8433,
      "ndlala": 8434,
      "Ġnjengomuntu": 8435,
      "tform": 8436,
      "Ġee": 8437,
      "bulungisa": 8438,
      "onal": 8439,
      "Ġethempelini": 8440,
      "phulaphuli": 8441,
      "ĠIndalo": 8442,
      "num": 8443,
      "ukuba": 8444,
      "khamera": 8445,
      "qunu": 8446,
      "Zibhalo": 8447,
      "Ġtra": 8448,
      "krini": 8449,
      "ĠuSathana": 8450,
      "jikeleza": 8451,
      "hlawulo": 8452,
      "Rh": 8453,
      "Ġtye": 8454,
      "Ġare": 8455,
      "Ġwathola": 8456,
      "Ġsihloko": 8457,
      "tshon": 8458,
      "Ġlamuhla": 8459,
      "Ġngokuthula": 8460,
      "Ġokuncane": 8461,
      "Ġmdwebo": 8462,
      "vel": 8463,
      "yindlela": 8464,
      "Ġeyahlukileyo": 8465,
      "ĠOkulandelayo": 8466,
      "Ġlomhlaba": 8467,
      "ngomunye": 8468,
      "ĠNikela": 8469,
      "Ġphaya": 8470,
      "sipha": 8471,
      "zabala": 8472,
      "Ġesinoku": 8473,
      "qola": 8474,
      "urban": 8475,
      "bulumko": 8476,
      "Genesis": 8477,
      "ĠElements": 8478,
      "Al": 8479,
      "julu": 8480,
      "kusiza": 8481,
      "Ġkuhamba": 8482,
      "qakraza": 8483,
      "Ġkwilizwe": 8484,
      "Ġemnyango": 8485,
      "ĠWam": 8486,
      "Ġlokubulala": 8487,
      "ĠLami": 8488,
      "yuvesi": 8489,
      "qalekiso": 8490,
      "Ġbeni": 8491,
      "Ġnaziphi": 8492,
      "Ġizikhulu": 8493,
      "Ġngeminyaka": 8494,
      "Ġamaphepha": 8495,
      "xosha": 8496,
      "hlise": 8497,
      "Ġayenga": 8498,
      "Ġinkcazelo": 8499,
      "ĠkuMoses": 8500,
      "ncwa": 8501,
      "Ġkonyaka": 8502,
      "ĠkuJesu": 8503,
      "Ġoda": 8504,
      "Ġbathola": 8505,
      "Ġwathumela": 8506,
      "kohliso": 8507,
      "Ġngokugqithi": 8508,
      "Ġamazulu": 8509,
      "Ġokunene": 8510,
      "Ġyokusebenzisa": 8511,
      "Ġyingxenye": 8512,
      "ĠuNyana": 8513,
      "Ġnanini": 8514,
      "ĠAbenza": 8515,
      "reji": 8516,
      "cima": 8517,
      "fanelekile": 8518,
      "par": 8519,
      "Ġkwakunga": 8520,
      "tyambo": 8521,
      "ANA": 8522,
      "ndezelo": 8523,
      "ping": 8524,
      "Ġesikolweni": 8525,
      "dd": 8526,
      "ĠKwin": 8527,
      "Ġezibalulekileyo": 8528,
      "Ġkwangaphambili": 8529,
      "Ġnezo": 8530,
      "thobele": 8531,
      "yenzeka": 8532,
      "Ġzokuxhumana": 8533,
      "bhite": 8534,
      "ĠThola": 8535,
      "sasazo": 8536,
      "ĠuAbraha": 8537,
      "Ġucingo": 8538,
      "sisiza": 8539,
      "Ġap": 8540,
      "Ġumkhonzi": 8541,
      "Ġizilwane": 8542,
      "ĠLom": 8543,
      "Ġokufanayo": 8544,
      "ĠSomuntu": 8545,
      "hlukumeza": 8546,
      "****": 8547,
      "Zuma": 8548,
      "khandla": 8549,
      "zame": 8550,
      "Ġokwenziwa": 8551,
      "Ġmzi": 8552,
      "geza": 8553,
      "Ġnezixhobo": 8554,
      "sukuma": 8555,
      "njenge": 8556,
      "ulayi": 8557,
      "qhagamshe": 8558,
      "hogweni": 8559,
      "Efe": 8560,
      "Ġucwaningo": 8561,
      "zinda": 8562,
      "Ġelwandle": 8563,
      "ration": 8564,
      "Ġyiku": 8565,
      "ĠTh": 8566,
      "ĠLive": 8567,
      "lungelelani": 8568,
      "ÌĦ": 8569,
      "Ġï¿½": 8570,
      "Ġiwu": 8571,
      "Ġingu": 8572,
      "Ġkweza": 8573,
      "cike": 8574,
      "Ġsayithi": 8575,
      "bhujiswa": 8576,
      "ĠMakhe": 8577,
      "tshelwe": 8578,
      "Ġezenziwe": 8579,
      "Ġbobabili": 8580,
      "gwenxa": 8581,
      "tyen": 8582,
      "ÃŃ": 8583,
      "Ġuqonde": 8584,
      "Ġezinda": 8585,
      "khamba": 8586,
      "ĠUkuhamba": 8587,
      "ĠUmzekelo": 8588,
      "Ġlokuzi": 8589,
      "Ġngesimo": 8590,
      "Ġngamaxesha": 8591,
      "ĠBeat": 8592,
      "Ġunelungelo": 8593,
      "Gibithe": 8594,
      "Yosefu": 8595,
      "Ġkubhe": 8596,
      "dibene": 8597,
      "Ġisidumbu": 8598,
      "Ġlivela": 8599,
      "Ġubuchule": 8600,
      "nyusa": 8601,
      "send": 8602,
      "ĠInkampani": 8603,
      "Ġeyenziwa": 8604,
      "ĠJonga": 8605,
      "gqwetha": 8606,
      "BU": 8607,
      "Ġiphutha": 8608,
      "bopha": 8609,
      "ĠKWE": 8610,
      "Ġbee": 8611,
      "âĢĿ,": 8612,
      "Ġmhlophe": 8613,
      "Ġngikwazi": 8614,
      "ĠAbadlali": 8615,
      "Ġangase": 8616,
      "ĠZama": 8617,
      "Hlabathi": 8618,
      "mbona": 8619,
      "ngonyama": 8620,
      "ĠkuKristu": 8621,
      "khokhela": 8622,
      "ĠUn": 8623,
      "milo": 8624,
      "jeziso": 8625,
      "Ġamathuluzi": 8626,
      "Ġziku": 8627,
      "Ġesiya": 8628,
      "ndise": 8629,
      "ĠWazi": 8630,
      "Ġ60": 8631,
      "Ġkulolu": 8632,
      "Ġngokwaneleyo": 8633,
      "gan": 8634,
      "rhum": 8635,
      "betha": 8636,
      "hlupha": 8637,
      "Ġiingubo": 8638,
      "ĠFo": 8639,
      "tshintshi": 8640,
      "UMX": 8641,
      "xazulula": 8642,
      "Ġfe": 8643,
      "phan": 8644,
      "danga": 8645,
      "Ġezilandelayo": 8646,
      "ngileyo": 8647,
      "ĠMandela": 8648,
      "Ġububanzi": 8649,
      "Ġyou": 8650,
      "mbelelo": 8651,
      "stance": 8652,
      "Bala": 8653,
      "NT": 8654,
      "Ġukutshintsha": 8655,
      "khelwe": 8656,
      "ĠWilliam": 8657,
      "Ġomnyama": 8658,
      "PO": 8659,
      "Pj": 8660,
      "rum": 8661,
      "yI": 8662,
      "leya": 8663,
      "Ġababu": 8664,
      "Ġkabili": 8665,
      "cayi": 8666,
      "fayili": 8667,
      "Ġiimpahla": 8668,
      "Ġemakethe": 8669,
      "Ġkwamazwi": 8670,
      "siwedi": 8671,
      "funyen": 8672,
      "ĠDating": 8673,
      "ĠngoLwesine": 8674,
      "xl": 8675,
      "ĠiPa": 8676,
      "Ġimbali": 8677,
      "hlangenwe": 8678,
      "ĠAir": 8679,
      "Ġizixhumanisi": 8680,
      "Ġisibindi": 8681,
      "ĠLin": 8682,
      "phili": 8683,
      "Ġmbuzo": 8684,
      "Ġisabelo": 8685,
      "ĠWomuntu": 8686,
      "Pawulos": 8687,
      "henja": 8688,
      "Ġintombazane": 8689,
      "mfanelo": 8690,
      "lugin": 8691,
      "Ġukuchitha": 8692,
      "Ġesisha": 8693,
      "dumise": 8694,
      "tifiketi": 8695,
      "xenyeni": 8696,
      "SD": 8697,
      "zelelo": 8698,
      "Ġbafunde": 8699,
      "Ġeziphathekayo": 8700,
      "ĠngoJ": 8701,
      "cede": 8702,
      "tain": 8703,
      "ĠGu": 8704,
      "Ġsiyaku": 8705,
      "IIII": 8706,
      "Ġva": 8707,
      "Ġisu": 8708,
      "Ġbamanga": 8709,
      "lelani": 8710,
      "ĠNgase": 8711,
      "Ġekukhanyeni": 8712,
      "Ġnize": 8713,
      "ĠZo": 8714,
      "klamo": 8715,
      "ZW": 8716,
      "ĠXhosa": 8717,
      "Ġihamba": 8718,
      "Ġukunikeza": 8719,
      "ĠNgum": 8720,
      "mukeli": 8721,
      "ĠUkufundelwa": 8722,
      "hili": 8723,
      "Ġsaku": 8724,
      "Ġubukumkani": 8725,
      "ĠNgizo": 8726,
      "mpembelelo": 8727,
      "ĠRobert": 8728,
      "Samariya": 8729,
      "okwenzeka": 8730,
      "ĠiK": 8731,
      "Ġifowuni": 8732,
      "Ġeka": 8733,
      "Ġethetha": 8734,
      "Ġukususa": 8735,
      "ĠIze": 8736,
      "ĠNGA": 8737,
      "ĠApho": 8738,
      "jezisa": 8739,
      "Ġngesondo": 8740,
      "vule": 8741,
      "meleyo": 8742,
      "Ġnesibindi": 8743,
      "qhenya": 8744,
      "77": 8745,
      "anele": 8746,
      "Ġacid": 8747,
      "Ġkuko": 8748,
      "zare": 8749,
      "Ġumfowabo": 8750,
      "Ġumtshato": 8751,
      "Ġizifo": 8752,
      "ĠKunye": 8753,
      "Ġbuhlungu": 8754,
      "khalazo": 8755,
      "Indlela": 8756,
      "anini": 8757,
      "Ġnta": 8758,
      "Ġizinguquko": 8759,
      "Ġisigwebo": 8760,
      "ĠPhela": 8761,
      "Ġkubika": 8762,
      "Ngen": 8763,
      "rn": 8764,
      "lusa": 8765,
      "ĠAmen": 8766,
      "vuna": 8767,
      "nokwenzeka": 8768,
      "khilo": 8769,
      "Ġngukumkani": 8770,
      "Ġzenza": 8771,
      "Isaka": 8772,
      "Joh": 8773,
      "Ġekhanda": 8774,
      "kamuva": 8775,
      "Ġbafika": 8776,
      "Ġizicwangciso": 8777,
      "Ġamakhono": 8778,
      "ĠamaJuda": 8779,
      "Ġinja": 8780,
      "mpondo": 8781,
      "hlushwa": 8782,
      "qondakali": 8783,
      "ĠSami": 8784,
      "gxeka": 8785,
      "Yona": 8786,
      "yanda": 8787,
      "Ġri": 8788,
      "longwane": 8789,
      "Ġkulapho": 8790,
      "ĠImpendulo": 8791,
      "Ġnaman": 8792,
      "Ġnoba": 8793,
      "Sathana": 8794,
      "qinisekiswa": 8795,
      "Ġyinkosi": 8796,
      "qondiswa": 8797,
      "chithwa": 8798,
      "Chiefs": 8799,
      "qhathaniswa": 8800,
      "Ġ%": 8801,
      "Ġebaluleke": 8802,
      "sema": 8803,
      "Ġabafileyo": 8804,
      "nyembezi": 8805,
      "Ġizidalwa": 8806,
      "Ġlawa": 8807,
      "Ġencinane": 8808,
      "Ġkwedatha": 8809,
      "ĠUmbuzo": 8810,
      "ĠuJosefa": 8811,
      "Ġkibo": 8812,
      "Ġamanyathelo": 8813,
      "Ġunesi": 8814,
      "Ġenobu": 8815,
      "jana": 8816,
      "ĠuL": 8817,
      "lulwa": 8818,
      "Ġkwamehlo": 8819,
      "Ġizindleko": 8820,
      "Ġlewebhu": 8821,
      "kwenzile": 8822,
      "ĠUkususela": 8823,
      "Ġnombono": 8824,
      "Ġkunom": 8825,
      "jongana": 8826,
      "tyha": 8827,
      "khathazeke": 8828,
      "Ġngokwayo": 8829,
      "HLA": 8830,
      "zimali": 8831,
      "Ġukubhekana": 8832,
      "phequlu": 8833,
      "Ġyenzeke": 8834,
      "Ġunayo": 8835,
      "versity": 8836,
      "Ġempini": 8837,
      "ND": 8838,
      "Ġicebo": 8839,
      "Ġkumi": 8840,
      "ĠNina": 8841,
      "Ġumnyango": 8842,
      "tekisi": 8843,
      "ters": 8844,
      "Ġiyaku": 8845,
      "ĠUyakwazi": 8846,
      "Ġisinkwa": 8847,
      "âħ¡": 8848,
      "dluliselwa": 8849,
      "500": 8850,
      "GH": 8851,
      "ken": 8852,
      "Ġulo": 8853,
      "Ġehlala": 8854,
      "Ġkufa": 8855,
      "Ġbadla": 8856,
      "Ġkali": 8857,
      "Ġamaphuzu": 8858,
      "Ġinkunzi": 8859,
      "paki": 8860,
      "software": 8861,
      "ngqondweni": 8862,
      "Ġudla": 8863,
      "Ġayen": 8864,
      "liseni": 8865,
      "Ġkufana": 8866,
      "Ġukulungiswa": 8867,
      "Ġzezinto": 8868,
      "bhedu": 8869,
      "Ġkungenjalo": 8870,
      "fomu": 8871,
      "zokuba": 8872,
      "Ġkana": 8873,
      "Ġngxaki": 8874,
      "Ġukukhangela": 8875,
      "nemi": 8876,
      "ĠâĢĭ": 8877,
      "ĠLLC": 8878,
      "Ġlenu": 8879,
      "ces": 8880,
      "Ġyokunga": 8881,
      "ĠUkufumana": 8882,
      "ĠBanga": 8883,
      "ngcolileyo": 8884,
      "sesikweni": 8885,
      "GB": 8886,
      "endawo": 8887,
      "Ġezibu": 8888,
      "Ġezibonakalayo": 8889,
      "Ġiintengiso": 8890,
      "ĠYama": 8891,
      "Ġonzima": 8892,
      "Ġngobuqotho": 8893,
      "politiki": 8894,
      "phakanyiswa": 8895,
      "sabeka": 8896,
      "khole": 8897,
      "Ġwanikela": 8898,
      "thengwa": 8899,
      "Ġkwalokhu": 8900,
      "Ġ70": 8901,
      "ndlovu": 8902,
      "ĠThomas": 8903,
      "unt": 8904,
      "Ġtha": 8905,
      "Ġezelwe": 8906,
      "Ġezinge": 8907,
      "Ġinzalo": 8908,
      "hlelweni": 8909,
      "ngenam": 8910,
      "Ġkunceda": 8911,
      "fowenu": 8912,
      "Ġcd": 8913,
      "dlulayo": 8914,
      "ĠOnline": 8915,
      "data": 8916,
      "Ġngokuhamba": 8917,
      "Ġngokulandela": 8918,
      "Ġisithembiso": 8919,
      "Ġlike": 8920,
      "hlupho": 8921,
      "Ġonje": 8922,
      "Ġngokoqobo": 8923,
      "Ġzombili": 8924,
      "Ġbakholelwa": 8925,
      "Ġngalolo": 8926,
      "xx": 8927,
      "Ġï": 8928,
      "Ġingen": 8929,
      "Ġikhono": 8930,
      "Ġakwenzayo": 8931,
      "ĠUSathane": 8932,
      "anamuhla": 8933,
      "Ġzehlabathi": 8934,
      "Ġwenziwe": 8935,
      "ĠuMi": 8936,
      "khathazekile": 8937,
      "Ġngemisebenzi": 8938,
      "bGU": 8939,
      "rmone": 8940,
      "ndenini": 8941,
      "Ġje": 8942,
      "Ġngon": 8943,
      "Ġngine": 8944,
      "ĠIngunaphakade": 8945,
      "Ġngeent": 8946,
      "Ġbebona": 8947,
      "Ġinkomo": 8948,
      "Ġzokuphila": 8949,
      "Ġnabafundi": 8950,
      "nani": 8951,
      "pZ": 8952,
      "diliya": 8953,
      "valwa": 8954,
      "ĠOsesimweni": 8955,
      "mori": 8956,
      "belane": 8957,
      "Ġkangangoko": 8958,
      "ĠuNe": 8959,
      "Ġneendlela": 8960,
      "Ġangizange": 8961,
      "ĠngoMsombuluko": 8962,
      "ĠCity": 8963,
      "RC": 8964,
      "ast": 8965,
      "nwe": 8966,
      "tcoin": 8967,
      "Ġezoku": 8968,
      "Ġolwandle": 8969,
      "kopi": 8970,
      "philisa": 8971,
      "Ġelisha": 8972,
      "ĠOkwesi": 8973,
      "ĠKhonza": 8974,
      "Ġngelithi": 8975,
      "phenya": 8976,
      "phrofethi": 8977,
      "TI": 8978,
      "XA": 8979,
      "crip": 8980,
      "lass": 8981,
      "ĠeBhayibhileni": 8982,
      "Ġkuphuma": 8983,
      "sel": 8984,
      "Ġukuvula": 8985,
      "ning": 8986,
      "khulayo": 8987,
      "Ġwesono": 8988,
      "bhubha": 8989,
      "ĠKungakhathaliseki": 8990,
      "88": 8991,
      "Bz": 8992,
      "kin": 8993,
      "pane": 8994,
      "xusa": 8995,
      "Ġiyona": 8996,
      "sekwa": 8997,
      "Ġabaphathi": 8998,
      "Ġnangom": 8999,
      "Ġngala": 9000,
      "Ġngokujulile": 9001,
      "Ġkwethi": 9002,
      "vuza": 9003,
      "âĢĻ?": 9004,
      "zululwazi": 9005,
      "Ġkunabo": 9006,
      "Ġnentando": 9007,
      "ĠUyiNkosi": 9008,
      "uzwa": 9009,
      "Ġilu": 9010,
      "Ġahlala": 9011,
      "yilo": 9012,
      "khube": 9013,
      "ĠLomsebenzi": 9014,
      "Ġimiyalo": 9015,
      "Ġiinjongo": 9016,
      "Ġemizini": 9017,
      "zeleli": 9018,
      "henyu": 9019,
      "ĠWokunqoba": 9020,
      "shonile": 9021,
      "49": 9022,
      "ZN": 9023,
      "ĠUhambe": 9024,
      "Ġumsolwa": 9025,
      "Ġezifanayo": 9026,
      "khazimu": 9027,
      "Ġngecala": 9028,
      "Ġnomntu": 9029,
      "Ġomphakathi": 9030,
      "Ġyesibini": 9031,
      "ĠMayelana": 9032,
      "ndlebe": 9033,
      "Ġukwabelana": 9034,
      "cokola": 9035,
      "qinisekisiwe": 9036,
      "inisekisa": 9037,
      "hani": 9038,
      "sco": 9039,
      "Ġufanele": 9040,
      "anqa": 9041,
      "ĠUqhube": 9042,
      "Ġsimahla": 9043,
      "Ġnokwazi": 9044,
      "Ġzisi": 9045,
      "ĠEdume": 9046,
      "Ġkwemali": 9047,
      "Ġumahluko": 9048,
      "jiwe": 9049,
      "Ġsenu": 9050,
      "voti": 9051,
      "binki": 9052,
      "busazwe": 9053,
      "Ġukuhlangabezana": 9054,
      "vivinyo": 9055,
      "Ġogama": 9056,
      "Ġukubamba": 9057,
      "phakamiso": 9058,
      "Ġsalo": 9059,
      "nguqulo": 9060,
      "Ġesekelwe": 9061,
      "Ġngokomthetho": 9062,
      "setshenziselwa": 9063,
      "Ġizolo": 9064,
      "vunyelwa": 9065,
      "Ġesebenzayo": 9066,
      "Ġokoku": 9067,
      "ĠkaZimu": 9068,
      "Ġimishini": 9069,
      "joyina": 9070,
      "Jamani": 9071,
      "qhelekanga": 9072,
      "Ġintetho": 9073,
      "dge": 9074,
      "Ġukhiye": 9075,
      "ĠeGibhithe": 9076,
      "Ġolandelayo": 9077,
      "ĠIthi": 9078,
      "diza": 9079,
      "kili": 9080,
      "Ġngokucacileyo": 9081,
      "Ġyokuziphatha": 9082,
      "tale": 9083,
      "Ġekuthiwa": 9084,
      "ĠCoin": 9085,
      "cwangcisa": 9086,
      "Ġingqikithi": 9087,
      "gq": 9088,
      "Ġejwayelekile": 9089,
      "Ġukuthumela": 9090,
      "Ġothanda": 9091,
      "Ġabavela": 9092,
      "dumile": 9093,
      "hlukume": 9094,
      "Ġaphume": 9095,
      "Ġosebenza": 9096,
      "omdla": 9097,
      "Ġenama": 9098,
      "Ġesivela": 9099,
      "ĠnguYehova": 9100,
      "mangalisa": 9101,
      "Ġiseluleko": 9102,
      "Buso": 9103,
      "UJehova": 9104,
      "mar": 9105,
      "Ġukufundisa": 9106,
      "Ġwazama": 9107,
      "Ġezifanele": 9108,
      "nawo": 9109,
      "Ġzezulu": 9110,
      "Ġnesikhathi": 9111,
      "guquke": 9112,
      "Ġwomntu": 9113,
      "lokothi": 9114,
      "ĠKwenzeka": 9115,
      "Ġukhangele": 9116,
      "Ġaphile": 9117,
      "ĠUlu": 9118,
      "ĠUkwe": 9119,
      "Ġenzima": 9120,
      "ĠSE": 9121,
      "hluleli": 9122,
      "Ġyokuthengisa": 9123,
      "andisa": 9124,
      "propati": 9125,
      "nyaniseka": 9126,
      "gumbini": 9127,
      "swini": 9128,
      "yano": 9129,
      "kaZimu": 9130,
      "ĠUZiqu": 9131,
      "ĠkaYesu": 9132,
      "Ġizimpilo": 9133,
      "Ġamalungiselelo": 9134,
      "Ġisifiso": 9135,
      "ĠEkhona": 9136,
      "Ġokuzo": 9137,
      "Ġokuphakade": 9138,
      "cation": 9139,
      "Ġniye": 9140,
      "Ġwenziwa": 9141,
      "Ġkwendlu": 9142,
      "Ġ51": 9143,
      "chibi": 9144,
      "THINI": 9145,
      "qulatho": 9146,
      "ue": 9147,
      "Ġuyenze": 9148,
      "Ġezingcwele": 9149,
      "Ġeziqhelekileyo": 9150,
      "zuzisa": 9151,
      "hlose": 9152,
      "ĠHlala": 9153,
      "Ġnemibono": 9154,
      "ĠEkugqibeleni": 9155,
      "holide": 9156,
      "kimbinki": 9157,
      "Khan": 9158,
      "Ġukwenze": 9159,
      "Ġutshele": 9160,
      "Ġuqeqesho": 9161,
      "ĠIminyaka": 9162,
      "Ġnawuphi": 9163,
      "Ġsibona": 9164,
      "ĠAwa": 9165,
      "phunga": 9166,
      "gungu": 9167,
      "vumelani": 9168,
      "ĠKanjani": 9169,
      "nduna": 9170,
      "nyanise": 9171,
      "Sityhilelo": 9172,
      "HIV": 9173,
      "Ntu": 9174,
      "Ĥ¬": 9175,
      "Ġukusho": 9176,
      "ĠOyi": 9177,
      "ĠUmqeqeshi": 9178,
      "ĠKamuva": 9179,
      "Ġ80": 9180,
      "Ġbayakwazi": 9181,
      "misayo": 9182,
      "Ġkukumkani": 9183,
      "xhaswa": 9184,
      "altare": 9185,
      "Ġunama": 9186,
      "ĠuMariya": 9187,
      "vavanya": 9188,
      "Ġezisixhenxe": 9189,
      "phazamiseka": 9190,
      "kimbinkimbi": 9191,
[...]
