{
  "version": "1.0",
  "truncation": null,
  "padding": null,
  "added_tokens": [
    {
      "id": 0,
      "content": "<s>",
      "single_word": false,
      "lstrip": false,
      "rstrip": false,
      "normalized": false,
      "special": true
    },
    {
      "id": 1,
      "content": "<pad>",
      "single_word": false,
      "lstrip": false,
      "rstrip": false,
      "normalized": false,
      "special": true
    },
    {
      "id": 2,
      "content": "</s>",
      "single_word": false,
      "lstrip": false,
      "rstrip": false,
      "normalized": false,
      "special": true
    },
    {
      "id": 3,
      "content": "<unk>",
      "single_word": false,
      "lstrip": false,
      "rstrip": false,
      "normalized": false,
      "special": true
    },
    {
      "id": 4,
      "content": "<mask>",
      "single_word": false,
      "lstrip": false,
      "rstrip": false,
      "normalized": false,
      "special": true
    }
  ],
  "normalizer": null,
  "pre_tokenizer": {
    "type": "ByteLevel",
    "add_prefix_space": true,
    "trim_offsets": true,
    "use_regex": true
  },
  "post_processor": {
    "type": "RobertaProcessing",
    "sep": [
      "</s>",
      2
    ],
    "cls": [
      "<s>",
      0
    ],
    "trim_offsets": true,
    "add_prefix_space": true
  },
  "decoder": {
    "type": "ByteLevel",
    "add_prefix_space": true,
    "trim_offsets": true,
    "use_regex": true
  },
  "model": {
    "type": "BPE",
    "dropout": null,
    "unk_token": null,
    "continuing_subword_prefix": null,
    "end_of_word_suffix": null,
    "fuse_unk": false,
    "vocab": {
      "<s>": 0,
      "<pad>": 1,
      "</s>": 2,
      "<unk>": 3,
      "<mask>": 4,
      "!": 5,
      "\"": 6,
      "#": 7,
      "$": 8,
      "%": 9,
      "&": 10,
      "'": 11,
      "(": 12,
      ")": 13,
      "*": 14,
      "+": 15,
      ",": 16,
      "-": 17,
      ".": 18,
      "/": 19,
      "0": 20,
      "1": 21,
      "2": 22,
      "3": 23,
      "4": 24,
      "5": 25,
      "6": 26,
      "7": 27,
      "8": 28,
      "9": 29,
      ":": 30,
      ";": 31,
      "<": 32,
      "=": 33,
      ">": 34,
      "?": 35,
      "@": 36,
      "A": 37,
      "B": 38,
      "C": 39,
      "D": 40,
      "E": 41,
      "F": 42,
      "G": 43,
      "H": 44,
      "I": 45,
      "J": 46,
      "K": 47,
      "L": 48,
      "M": 49,
      "N": 50,
      "O": 51,
      "P": 52,
      "Q": 53,
      "R": 54,
      "S": 55,
      "T": 56,
      "U": 57,
      "V": 58,
      "W": 59,
      "X": 60,
      "Y": 61,
      "Z": 62,
      "[": 63,
      "\\": 64,
      "]": 65,
      "^": 66,
      "_": 67,
      "`": 68,
      "a": 69,
      "b": 70,
      "c": 71,
      "d": 72,
      "e": 73,
      "f": 74,
      "g": 75,
      "h": 76,
      "i": 77,
      "j": 78,
      "k": 79,
      "l": 80,
      "m": 81,
      "n": 82,
      "o": 83,
      "p": 84,
      "q": 85,
      "r": 86,
      "s": 87,
      "t": 88,
      "u": 89,
      "v": 90,
      "w": 91,
      "x": 92,
      "y": 93,
      "z": 94,
      "{": 95,
      "|": 96,
      "}": 97,
      "~": 98,
      "¡": 99,
      "¢": 100,
      "£": 101,
      "¤": 102,
      "¥": 103,
      "¦": 104,
      "§": 105,
      "¨": 106,
      "©": 107,
      "ª": 108,
      "«": 109,
      "¬": 110,
      "®": 111,
      "¯": 112,
      "°": 113,
      "±": 114,
      "²": 115,
      "³": 116,
      "´": 117,
      "µ": 118,
      "¶": 119,
      "·": 120,
      "¸": 121,
      "¹": 122,
      "º": 123,
      "»": 124,
      "¼": 125,
      "½": 126,
      "¾": 127,
      "¿": 128,
      "À": 129,
      "Á": 130,
      "Â": 131,
      "Ã": 132,
      "Ä": 133,
      "Å": 134,
      "Æ": 135,
      "Ç": 136,
      "È": 137,
      "É": 138,
      "Ê": 139,
      "Ë": 140,
      "Ì": 141,
      "Í": 142,
      "Î": 143,
      "Ï": 144,
      "Ð": 145,
      "Ñ": 146,
      "Ò": 147,
      "Ó": 148,
      "Ô": 149,
      "Õ": 150,
      "Ö": 151,
      "×": 152,
      "Ø": 153,
      "Ù": 154,
      "Ú": 155,
      "Û": 156,
      "Ü": 157,
      "Ý": 158,
      "Þ": 159,
      "ß": 160,
      "à": 161,
      "á": 162,
      "â": 163,
      "ã": 164,
      "ä": 165,
      "å": 166,
      "æ": 167,
      "ç": 168,
      "è": 169,
      "é": 170,
      "ê": 171,
      "ë": 172,
      "ì": 173,
      "í": 174,
      "î": 175,
      "ï": 176,
      "ð": 177,
      "ñ": 178,
      "ò": 179,
      "ó": 180,
      "ô": 181,
      "õ": 182,
      "ö": 183,
      "÷": 184,
      "ø": 185,
      "ù": 186,
      "ú": 187,
      "û": 188,
      "ü": 189,
      "ý": 190,
      "þ": 191,
      "ÿ": 192,
      "Ā": 193,
      "ā": 194,
      "Ă": 195,
      "ă": 196,
      "Ą": 197,
      "ą": 198,
      "Ć": 199,
      "ć": 200,
      "Ĉ": 201,
      "ĉ": 202,
      "Ċ": 203,
      "ċ": 204,
      "Č": 205,
      "č": 206,
      "Ď": 207,
      "ď": 208,
      "Đ": 209,
      "đ": 210,
      "Ē": 211,
      "ē": 212,
      "Ĕ": 213,
      "ĕ": 214,
      "Ė": 215,
      "ė": 216,
      "Ę": 217,
      "ę": 218,
      "Ě": 219,
      "ě": 220,
      "Ĝ": 221,
      "ĝ": 222,
      "Ğ": 223,
      "ğ": 224,
      "Ġ": 225,
      "ġ": 226,
      "Ģ": 227,
      "ģ": 228,
      "Ĥ": 229,
      "ĥ": 230,
      "Ħ": 231,
      "ħ": 232,
      "Ĩ": 233,
      "ĩ": 234,
      "Ī": 235,
      "ī": 236,
      "Ĭ": 237,
      "ĭ": 238,
      "Į": 239,
      "į": 240,
      "İ": 241,
      "ı": 242,
      "Ĳ": 243,
      "ĳ": 244,
      "Ĵ": 245,
      "ĵ": 246,
      "Ķ": 247,
      "ķ": 248,
      "ĸ": 249,
      "Ĺ": 250,
      "ĺ": 251,
      "Ļ": 252,
      "ļ": 253,
      "Ľ": 254,
      "ľ": 255,
      "Ŀ": 256,
      "ŀ": 257,
      "Ł": 258,
      "ł": 259,
      "Ń": 260,
      "en": 261,
      "er": 262,
      "ch": 263,
      "Ġd": 264,
      "ei": 265,
      "ie": 266,
      "un": 267,
      "st": 268,
      "in": 269,
      "Ġa": 270,
      "ich": 271,
      "Ġs": 272,
      "ein": 273,
      "es": 274,
      "Ġw": 275,
      "an": 276,
      "Ġun": 277,
      "Ã¼": 278,
      "ĠS": 279,
      "on": 280,
      "ge": 281,
      "Ġm": 282,
      "Ġdie": 283,
      "as": 284,
      "te": 285,
      "Ġein": 286,
      "Ġund": 287,
      "Ã¤": 288,
      "ll": 289,
      "ĠD": 290,
      "Ġv": 291,
      "Ġb": 292,
      "ung": 293,
      "Ġn": 294,
      "ĠA": 295,
      "it": 296,
      "Ġder": 297,
      "Ġi": 298,
      "Ġz": 299,
      "ar": 300,
      "hr": 301,
      "sch": 302,
      "Ġau": 303,
      "ten": 304,
      "or": 305,
      "ĠB": 306,
      "gen": 307,
      "em": 308,
      "at": 309,
      "Ġh": 310,
      "der": 311,
      "Ġzu": 312,
      "al": 313,
      "Ġin": 314,
      "ĠM": 315,
      "Ġf": 316,
      "ĠE": 317,
      "den": 318,
      "ĠW": 319,
      "Ġk": 320,
      "au": 321,
      "ter": 322,
      "Ã¶": 323,
      "ir": 324,
      "ur": 325,
      "ĠF": 326,
      "de": 327,
      "ĠI": 328,
      "lich": 329,
      "ĠK": 330,
      "ĠG": 331,
      "Ġg": 332,
      "Ã¼r": 333,
      "ber": 334,
      "ach": 335,
      "et": 336,
      "Ġdas": 337,
      "ĠP": 338,
      "el": 339,
      "icht": 340,
      "eit": 341,
      "ier": 342,
      "ĠT": 343,
      "Ġge": 344,
      "ĠH": 345,
      "ig": 346,
      "mm": 347,
      "Ġden": 348,
      "ben": 349,
      "ĠV": 350,
      "Ġist": 351,
      "Ġer": 352,
      "âĢ": 353,
      "Ġan": 354,
      "ĠL": 355,
      "ro": 356,
      "Ġmit": 357,
      "is": 358,
      "Ġauf": 359,
      "ck": 360,
      "ĠR": 361,
      "eh": 362,
      "Ġvon": 363,
      "eu": 364,
      "ĠfÃ¼r": 365,
      "us": 366,
      "ra": 367,
      "Ġl": 368,
      "ann": 369,
      "sen": 370,
      "Ġnicht": 371,
      "um": 372,
      "ion": 373,
      "Ġver": 374,
      "Ġwir": 375,
      "ĠN": 376,
      "Ġso": 377,
      "ÃŁ": 378,
      "ĠU": 379,
      "kt": 380,
      "re": 381,
      "Ġo": 382,
      "Ġsich": 383,
      "ĠSie": 384,
      "se": 385,
      "am": 386,
      "il": 387,
      "ĠZ": 388,
      "isch": 389,
      "nen": 390,
      "ent": 391,
      "Ġes": 392,
      "ell": 393,
      "och": 394,
      "ft": 395,
      "rei": 396,
      "Ġ1": 397,
      "ser": 398,
      "Ġbe": 399,
      "ol": 400,
      "and": 401,
      "ut": 402,
      "Ġsch": 403,
      "ĠDie": 404,
      "ĠJ": 405,
      "iel": 406,
      "Ġim": 407,
      "Ġeine": 408,
      "Ġauch": 409,
      "ahr": 410,
      "Ġich": 411,
      "Ġ2": 412,
      "ĠâĢ": 413,
      "ehr": 414,
      "ĠSt": 415,
      "ĠVer": 416,
      "ind": 417,
      "Ġaus": 418,
      "ab": 419,
      "ls": 420,
      "ĠIn": 421,
      "Ġ(": 422,
      "Ġdem": 423,
      "ĠSch": 424,
      "Ġj": 425,
      "Ġdes": 426,
      "ĠAn": 427,
      "ag": 428,
      "Ã¼ber": 429,
      "Ġbei": 430,
      "Ġwer": 431,
      "sten": 432,
      "ff": 433,
      "hl": 434,
      "Ġwie": 435,
      "ungen": 436,
      "Ġp": 437,
      "Ã¶n": 438,
      "Ã¤n": 439,
      "chen": 440,
      "sp": 441,
      "le": 442,
      "Ġst": 443,
      "om": 444,
      "..": 445,
      "etz": 446,
      "ern": 447,
      "enn": 448,
      "ĠÃ¼ber": 449,
      "Ġwerden": 450,
      "cht": 451,
      "Ġsind": 452,
      "Ġoder": 453,
      "ik": 454,
      "Ġdass": 455,
      "Ġhat": 456,
      "ĠC": 457,
      "omm": 458,
      "Ġals": 459,
      "Ġall": 460,
      "ĠUn": 461,
      "Ġt": 462,
      "ĠO": 463,
      "iv": 464,
      "ĠEin": 465,
      "Ġum": 466,
      "ien": 467,
      "hn": 468,
      "wei": 469,
      "Ġsie": 470,
      "und": 471,
      "esch": 472,
      "Ġvor": 473,
      "ĠEr": 474,
      "Ġsein": 475,
      "ation": 476,
      "aben": 477,
      "ing": 478,
      "ĠAu": 479,
      "Ġnach": 480,
      "ort": 481,
      "igen": 482,
      "eil": 483,
      "Ġda": 484,
      "oll": 485,
      "Ã¤t": 486,
      "ot": 487,
      "00": 488,
      "rÃ¼": 489,
      "ed": 490,
      "Ġkann": 491,
      "Ġwird": 492,
      "Ġeinen": 493,
      "est": 494,
      "lei": 495,
      "Ġwar": 496,
      "men": 497,
      "ĠPro": 498,
      "all": 499,
      "eg": 500,
      "ungs": 501,
      "Ġnoch": 502,
      "Ġman": 503,
      "Ġihr": 504,
      "ĠkÃ¶n": 505,
      "ischen": 506,
      "ver": 507,
      "eine": 508,
      "ĠJahr": 509,
      "ĠDas": 510,
      "os": 511,
      "zu": 512,
      "hal": 513,
      "ĠSp": 514,
      "tern": 515,
      "urch": 516,
      "Ġhaben": 517,
      "ru": 518,
      "ĠâĢŀ": 519,
      "anz": 520,
      "aus": 521,
      "bt": 522,
      "âĢľ": 523,
      "stell": 524,
      "ĠIhr": 525,
      "Ġeiner": 526,
      "ige": 527,
      "fen": 528,
      "Ġnur": 529,
      "gt": 530,
      "Ġunser": 531,
      "Ġzum": 532,
      "tet": 533,
      "Ġam": 534,
      "mmer": 535,
      "Ġeinem": 536,
      "che": 537,
      "Ġaber": 538,
      "rau": 539,
      "be": 540,
      "ang": 541,
      "he": 542,
      "ieren": 543,
      "01": 544,
      "eiter": 545,
      "Ġ-": 546,
      "ĠAr": 547,
      "ick": 548,
      "tsch": 549,
      "ul": 550,
      "ers": 551,
      "iert": 552,
      "Ġuns": 553,
      "ad": 554,
      "wer": 555,
      "Ġent": 556,
      "op": 557,
      "Ġmehr": 558,
      "ĠkÃ¶nnen": 559,
      "fÃ¼": 560,
      "ste": 561,
      "ehen": 562,
      "Ġviel": 563,
      "Ã¶r": 564,
      "Ġunter": 565,
      "ger": 566,
      "ank": 567,
      "lichen": 568,
      "Ġab": 569,
      "ĠMit": 570,
      "Ġ\"": 571,
      "eben": 572,
      "ĠEn": 573,
      "ĠAus": 574,
      "Ġr": 575,
      "for": 576,
      "Ã¼n": 577,
      "aft": 578,
      "ĠDer": 579,
      "la": 580,
      "art": 581,
      "ĠIch": 582,
      "Ġbis": 583,
      "zen": 584,
      "eiten": 585,
      "ri": 586,
      "Ġdurch": 587,
      "ĠWir": 588,
      "rÃ¤": 589,
      "end": 590,
      "ĠâĢĵ": 591,
      "rie": 592,
      "acht": 593,
      "ommen": 594,
      "Ã¤r": 595,
      "ĠGe": 596,
      "uss": 597,
      "pp": 598,
      "abe": 599,
      "ĠRe": 600,
      "Ġander": 601,
      "lie": 602,
      "Ġwenn": 603,
      "geb": 604,
      "glich": 605,
      "Ġdies": 606,
      "Ġwur": 607,
      "Ġ3": 608,
      "Ġzur": 609,
      "Ġsoll": 610,
      "dern": 611,
      "her": 612,
      "ĠÃ": 613,
      "Ġgeh": 614,
      "aten": 615,
      "ahl": 616,
      "ĠBe": 617,
      "Ġsp": 618,
      "mal": 619,
      "ĠBer": 620,
      "lt": 621,
      "ĠEs": 622,
      "ill": 623,
      "Ġ201": 624,
      "Ġneu": 625,
      "uch": 626,
      "auf": 627,
      "ist": 628,
      "ess": 629,
      "assen": 630,
      "...": 631,
      "liche": 632,
      "ische": 633,
      "bl": 634,
      "keit": 635,
      "Ġsehr": 636,
      "Ġwas": 637,
      "etzt": 638,
      "og": 639,
      "ekt": 640,
      "ehmen": 641,
      "unden": 642,
      "Ġfin": 643,
      "tel": 644,
      "Ġdann": 645,
      "ner": 646,
      "Ġschon": 647,
      "ĠVor": 648,
      "ibt": 649,
      "Ġhier": 650,
      "heit": 651,
      "elt": 652,
      "Ġber": 653,
      "gel": 654,
      "beit": 655,
      "ant": 656,
      "ah": 657,
      "bar": 658,
      "lin": 659,
      "Ġwieder": 660,
      "schen": 661,
      "Ġje": 662,
      "Ġdar": 663,
      "Ġimmer": 664,
      "pf": 665,
      "ĠAuf": 666,
      "imm": 667,
      "du": 668,
      "bst": 669,
      "Ã¤hr": 670,
      "Ġmir": 671,
      "atz": 672,
      "Ġgen": 673,
      "ĠmÃ¶": 674,
      "ert": 675,
      "eigen": 676,
      "eich": 677,
      "Ġweiter": 678,
      "det": 679,
      "Ġgibt": 680,
      "Ġges": 681,
      "ffen": 682,
      "utz": 683,
      "Ġhabe": 684,
      "Ġmich": 685,
      "ast": 686,
      "ges": 687,
      "ĠZeit": 688,
      "Ġdu": 689,
      "amm": 690,
      "Ġkl": 691,
      "pt": 692,
      "eutsch": 693,
      "Ġbes": 694,
      "Ġre": 695,
      "fahr": 696,
      "ass": 697,
      "ÃŁen": 698,
      "Ġmein": 699,
      "form": 700,
      "ĠZu": 701,
      "Ġet": 702,
      "Ġwurde": 703,
      "rit": 704,
      "schaft": 705,
      "Ġganz": 706,
      "hnen": 707,
      "ĠSo": 708,
      "Ġe": 709,
      "nis": 710,
      "Ġdiese": 711,
      "age": 712,
      "ĠAb": 713,
      "Ġlie": 714,
      "achen": 715,
      "Ã¼ck": 716,
      "ĠMen": 717,
      "ken": 718,
      "land": 719,
      "ĠUm": 720,
      "rag": 721,
      "zeit": 722,
      "ĠKon": 723,
      "ler": 724,
      "alt": 725,
      "iz": 726,
      "fach": 727,
      "Ġ4": 728,
      "Ġ19": 729,
      "ĠBei": 730,
      "hen": 731,
      "ster": 732,
      "eb": 733,
      "ob": 734,
      "Ġ5": 735,
      "Ġgew": 736,
      "Ġalle": 737,
      "Ã¼s": 738,
      "ild": 739,
      "Ġetw": 740,
      "rund": 741,
      "wie": 742,
      "Ġgro": 743,
      "ok": 744,
      "Ã¤u": 745,
      "Ã¼t": 746,
      "Ġmal": 747,
      "ragen": 748,
      "Ġhin": 749,
      "mit": 750,
      "kl": 751,
      "pl": 752,
      "ichtig": 753,
      "reu": 754,
      "war": 755,
      "Ã¤ch": 756,
      "Ġsel": 757,
      "Ġgut": 758,
      "ĠGes": 759,
      "ktion": 760,
      "zi": 761,
      "ĠNach": 762,
      "fol": 763,
      "per": 764,
      "ĠHer": 765,
      "lau": 766,
      "me": 767,
      "ze": 768,
      "Ġher": 769,
      "ic": 770,
      "Ġdieser": 771,
      "dem": 772,
      "ne": 773,
      "schie": 774,
      "ĠUnd": 775,
      "itÃ¤t": 776,
      "ech": 777,
      "ohn": 778,
      "Ġgem": 779,
      "gend": 780,
      "Ġeinfach": 781,
      "att": 782,
      "agen": 783,
      "Ġvom": 784,
      "Ġeigen": 785,
      "ĠWas": 786,
      "Ġkon": 787,
      "kte": 788,
      "einen": 789,
      "eite": 790,
      "ÃŁe": 791,
      "leich": 792,
      "fer": 793,
      "Ġkeine": 794,
      "Ã¤nd": 795,
      "lle": 796,
      "ĠÃľ": 797,
      "ark": 798,
      "halten": 799,
      "ht": 800,
      "ationen": 801,
      "onder": 802,
      "ohl": 803,
      "ĠDeutsch": 804,
      "fÃ¼hr": 805,
      "inder": 806,
      "eld": 807,
      "ĠIm": 808,
      "eute": 809,
      "arb": 810,
      "Ġzwei": 811,
      "amit": 812,
      "ap": 813,
      "eht": 814,
      "fall": 815,
      "ĠEur": 816,
      "kommen": 817,
      "rÃ¼ck": 818,
      "im": 819,
      "Ġbest": 820,
      "af": 821,
      "ĠArbeit": 822,
      "ĠLeben": 823,
      "issen": 824,
      "ĠDu": 825,
      "spiel": 826,
      "Ġmuss": 827,
      "iger": 828,
      "ĠGesch": 829,
      "tw": 830,
      "ellen": 831,
      "ĠUnter": 832,
      "rin": 833,
      "ammen": 834,
      "ĠMa": 835,
      "ĠMenschen": 836,
      "ĠWer": 837,
      "ĠWenn": 838,
      "Ġdir": 839,
      "fe": 840,
      "ande": 841,
      "mer": 842,
      "ĠKl": 843,
      "chte": 844,
      "erson": 845,
      "ĠIhnen": 846,
      "ĠDaten": 847,
      "ĠOr": 848,
      "adt": 849,
      "ĠBl": 850,
      "Ġwen": 851,
      "Ġdiesem": 852,
      "Ġja": 853,
      "eist": 854,
      "ĠIhre": 855,
      "Ġson": 856,
      "abei": 857,
      "ÃŁer": 858,
      "Ġetwas": 859,
      "ierung": 860,
      "ĠWie": 861,
      "hem": 862,
      "ĠÃľber": 863,
      "fl": 864,
      "hne": 865,
      "reis": 866,
      "Ġfinden": 867,
      "esen": 868,
      "Ġger": 869,
      "angen": 870,
      "Ġ6": 871,
      "ĠDa": 872,
      "sam": 873,
      "ĠÂ": 874,
      "Ġselbst": 875,
      "Ġgeht": 876,
      "ive": 877,
      "inn": 878,
      "lung": 879,
      "ho": 880,
      "ĠJahren": 881,
      "osten": 882,
      "los": 883,
      "ss": 884,
      "Ã¶glich": 885,
      "ud": 886,
      "rank": 887,
      "Ġbin": 888,
      ").": 889,
      "Ġeines": 890,
      "ĠPl": 891,
      "vor": 892,
      "Ġgegen": 893,
      "ĠBet": 894,
      "Ã¼hr": 895,
      "reich": 896,
      "eits": 897,
      "ord": 898,
      "Ġanderen": 899,
      "Ġmachen": 900,
      "gesch": 901,
      "ternehmen": 902,
      "ĠFor": 903,
      "ma": 904,
      "Ġjed": 905,
      "Ġdoch": 906,
      "Ġob": 907,
      "halt": 908,
      "cken": 909,
      "icher": 910,
      "unde": 911,
      "geben": 912,
      "ĠHo": 913,
      "iell": 914,
      "Ġbet": 915,
      "rÃ¶": 916,
      "wischen": 917,
      "nah": 918,
      "ĠFl": 919,
      "ade": 920,
      "Ã¶ff": 921,
      "Ġwel": 922,
      "Ġbeg": 923,
      "nte": 924,
      "teil": 925,
      "bur": 926,
      "Ġwoll": 927,
      "ĠTag": 928,
      "igkeit": 929,
      "Ġjetzt": 930,
      "ren": 931,
      "ĠAl": 932,
      "Ã¤hl": 933,
      "Ġ200": 934,
      "ale": 935,
      "ĠMon": 936,
      "alen": 937,
      "Ġihre": 938,
      "Ġgesch": 939,
      "Ġdamit": 940,
      "ĠmÃ¼s": 941,
      "Ġalles": 942,
      "ommt": 943,
      "egen": 944,
      "ĠSpiel": 945,
      "zt": 946,
      "Ã¤lt": 947,
      "Ġc": 948,
      "aut": 949,
      "ran": 950,
      "Ġhatte": 951,
      "net": 952,
      "ĠProdu": 953,
      "Ġpro": 954,
      "qu": 955,
      "ĠLand": 956,
      "ke": 957,
      "Ġviele": 958,
      "ĠTeil": 959,
      "Ġange": 960,
      "Ġunsere": 961,
      "Ġsowie": 962,
      "ĠInform": 963,
      "ĠSte": 964,
      "ĠwÃ¼r": 965,
      "ĠFÃ¼r": 966,
      "tlich": 967,
      "Ġbie": 968,
      "tag": 969,
      "schl": 970,
      "eln": 971,
      "Ġdenn": 972,
      "elle": 973,
      "ĠArt": 974,
      "weise": 975,
      "akt": 976,
      "ug": 977,
      "ĠSe": 978,
      "ĠKinder": 979,
      "ionen": 980,
      "Ġins": 981,
      "Ġneue": 982,
      "eicht": 983,
      "Ġgel": 984,
      "Ġerst": 985,
      "ĠCh": 986,
      "pro": 987,
      "Ġzus": 988,
      "Ġgu": 989,
      "rÃ¼n": 990,
      "ĠAber": 991,
      "rage": 992,
      "Ġbeim": 993,
      "ett": 994,
      "ate": 995,
      "fin": 996,
      "halb": 997,
      "ĠAm": 998,
      "Ġ7": 999,
      "rechen": 1000,
      "Qu": 1001,
      "Ġsollte": 1002,
      "Ġohne": 1003,
      "ĠUnternehmen": 1004,
      "uchen": 1005,
      "igt": 1006,
      "ĠWoch": 1007,
      "stellt": 1008,
      "ĠHier": 1009,
      "ĠUhr": 1010,
      "ĠLie": 1011,
      "keiten": 1012,
      "ĠWelt": 1013,
      "ĠmÃ¶glich": 1014,
      "ĠAll": 1015,
      "Ġ10": 1016,
      "erne": 1017,
      "ĠTe": 1018,
      "âĢ¦": 1019,
      "ange": 1020,
      "ĠBes": 1021,
      "Ġ8": 1022,
      "Ġschn": 1023,
      "ĠPerson": 1024,
      "lo": 1025,
      "stellen": 1026,
      "ings": 1027,
      "Ġseine": 1028,
      "min": 1029,
      "ĠThem": 1030,
      "innen": 1031,
      "atÃ¼r": 1032,
      "ĠJahre": 1033,
      "Ġverb": 1034,
      "Ġkein": 1035,
      "chten": 1036,
      "ĠDeutschland": 1037,
      "esse": 1038,
      "Ġgef": 1039,
      "Ġsondern": 1040,
      "ĠGrund": 1041,
      "atur": 1042,
      "Ġseit": 1043,
      "Ġunserer": 1044,
      "eiÃŁ": 1045,
      "richt": 1046,
      "zeu": 1047,
      "ĠMar": 1048,
      "Ã¤re": 1049,
      "zent": 1050,
      "id": 1051,
      "ĠEine": 1052,
      "stÃ¤nd": 1053,
      "Ġnun": 1054,
      "Ġdabei": 1055,
      "od": 1056,
      "ĠQu": 1057,
      "nung": 1058,
      "ust": 1059,
      "Ġbereits": 1060,
      "gung": 1061,
      "blem": 1062,
      "dert": 1063,
      "ĠAuch": 1064,
      "ater": 1065,
      "schieden": 1066,
      "ĠmÃ¼ssen": 1067,
      "Ã¤ft": 1068,
      "Ġbek": 1069,
      "gang": 1070,
      "satz": 1071,
      "Ġlassen": 1072,
      "ĠFall": 1073,
      "ak": 1074,
      "sst": 1075,
      "fahren": 1076,
      "Ġakt": 1077,
      "Ġausge": 1078,
      "cher": 1079,
      "Ġkommen": 1080,
      "eid": 1081,
      "yst": 1082,
      "ichte": 1083,
      "Ġletz": 1084,
      "klich": 1085,
      "setz": 1086,
      "arten": 1087,
      "ĠAls": 1088,
      "Ġandere": 1089,
      "ow": 1090,
      "zahl": 1091,
      "ĠRei": 1092,
      "Ġersten": 1093,
      "igung": 1094,
      "Ġwill": 1095,
      "rach": 1096,
      "ĠGer": 1097,
      "aar": 1098,
      "ĠschÃ¶n": 1099,
      "stag": 1100,
      "itte": 1101,
      "fÃ¼r": 1102,
      "ĠStadt": 1103,
      "ĠAut": 1104,
      "ĠFrau": 1105,
      "omp": 1106,
      "atÃ¼rlich": 1107,
      "zie": 1108,
      "Ġwo": 1109,
      "Ġmeine": 1110,
      "Ġheute": 1111,
      "Ġ9": 1112,
      "ia": 1113,
      "Ġzwischen": 1114,
      "ĠMan": 1115,
      "ack": 1116,
      "Ġdieses": 1117,
      "aum": 1118,
      "oren": 1119,
      "ĠKunden": 1120,
      "amil": 1121,
      "Ġwaren": 1122,
      "ail": 1123,
      "ystem": 1124,
      "Ġ...": 1125,
      "ĠDiese": 1126,
      "ĠMin": 1127,
      "ats": 1128,
      "ult": 1129,
      "Ġdazu": 1130,
      "wert": 1131,
      "enden": 1132,
      "ierte": 1133,
      "eim": 1134,
      "undes": 1135,
      "ov": 1136,
      "gra": 1137,
      "hm": 1138,
      "alten": 1139,
      "Ġeinmal": 1140,
      "arbeit": 1141,
      "Ġsicher": 1142,
      "Ġnie": 1143,
      "eck": 1144,
      "ĠIntern": 1145,
      "annt": 1146,
      "ĠWeb": 1147,
      "Ġ20": 1148,
      "ĠHand": 1149,
      "),": 1150,
      "reichen": 1151,
      "Ġgeb": 1152,
      "Ã¶s": 1153,
      "Ġwurden": 1154,
      "Ġaller": 1155,
      "sicht": 1156,
      "Ġalso": 1157,
      "off": 1158,
      "Ġkommt": 1159,
      "Ġbesonder": 1160,
      "rupp": 1161,
      "our": 1162,
      "anden": 1163,
      "ost": 1164,
      "aupt": 1165,
      "ĠInformationen": 1166,
      "folg": 1167,
      "weg": 1168,
      "si": 1169,
      "sel": 1170,
      "tschaft": 1171,
      "ĠwÃ¼rde": 1172,
      "Ġfol": 1173,
      "Ġweil": 1174,
      "orden": 1175,
      "line": 1176,
      "bau": 1177,
      "ahn": 1178,
      "llen": 1179,
      "Ġsteht": 1180,
      "itz": 1181,
      "ĠVers": 1182,
      "ogen": 1183,
      "hin": 1184,
      "bild": 1185,
      "Ġschnell": 1186,
      "Ġ0": 1187,
      "Ã¤d": 1188,
      "wend": 1189,
      "uf": 1190,
      "ĠSon": 1191,
      "wir": 1192,
      "olle": 1193,
      "zlich": 1194,
      "ĠBest": 1195,
      "Ġneuen": 1196,
      "burg": 1197,
      "Ġbesch": 1198,
      "ander": 1199,
      "ĠSu": 1200,
      "aufen": 1201,
      "essen": 1202,
      "Ġwirklich": 1203,
      "ĠKont": 1204,
      "ĠEuro": 1205,
      "Ġper": 1206,
      "ĠReg": 1207,
      "ĠMÃ¶glich": 1208,
      "Ġgest": 1209,
      "amen": 1210,
      "ĠzurÃ¼ck": 1211,
      "000": 1212,
      "ard": 1213,
      "Ġverl": 1214,
      "tem": 1215,
      "Ġgerne": 1216,
      "zw": 1217,
      "entlich": 1218,
      "Ã¶t": 1219,
      "klÃ¤r": 1220,
      "Ġeinz": 1221,
      "Ġdiesen": 1222,
      "ĠInter": 1223,
      "dr": 1224,
      "ay": 1225,
      "oten": 1226,
      "stÃ¼t": 1227,
      "Ġwichtig": 1228,
      "ritt": 1229,
      "Ġ18": 1230,
      "Ġjeder": 1231,
      "ĠNeu": 1232,
      "agt": 1233,
      "stand": 1234,
      "asse": 1235,
      "ĠMus": 1236,
      "St": 1237,
      "olit": 1238,
      "lieÃŁ": 1239,
      "ativ": 1240,
      "eiden": 1241,
      "Ġzusammen": 1242,
      "ĠVerb": 1243,
      "ĠProblem": 1244,
      "ĠZus": 1245,
      "ruck": 1246,
      "ode": 1247,
      "ĠDies": 1248,
      "lage": 1249,
      "ĠFahr": 1250,
      "unkt": 1251,
      "urz": 1252,
      "trag": 1253,
      "Ġverschieden": 1254,
      "Ġgenau": 1255,
      "Ġ15": 1256,
      "Ġsehen": 1257,
      "stellung": 1258,
      "ende": 1259,
      "ium": 1260,
      "ce": 1261,
      "ald": 1262,
      "fern": 1263,
      "ĠHaus": 1264,
      "rieb": 1265,
      "Ġfreu": 1266,
      "ĠUr": 1267,
      "alitÃ¤t": 1268,
      "Ġeben": 1269,
      "Ġallem": 1270,
      "erv": 1271,
      "amt": 1272,
      "unktion": 1273,
      "ĠWei": 1274,
      "ĠBild": 1275,
      "glie": 1276,
      "Ġar": 1277,
      "uten": 1278,
      "ichten": 1279,
      "ĠmÃ¶chte": 1280,
      "ĠPart": 1281,
      "sk": 1282,
      "Ġgleich": 1283,
      "Ġeu": 1284,
      "ĠDe": 1285,
      "rot": 1286,
      "ingt": 1287,
      "ĠSeite": 1288,
      "ĠÃĸ": 1289,
      "Ġvers": 1290,
      "ĠViel": 1291,
      "Ġverw": 1292,
      "if": 1293,
      "jekt": 1294,
      "kun": 1295,
      "201": 1296,
      "ĠFre": 1297,
      "Ġnichts": 1298,
      "ĠFamil": 1299,
      "ial": 1300,
      "gramm": 1301,
      "aden": 1302,
      "ĠnÃ¤ch": 1303,
      "Ġblei": 1304,
      "immt": 1305,
      "chn": 1306,
      "gem": 1307,
      "ĠGew": 1308,
      "Ġseiner": 1309,
      "ringen": 1310,
      "io": 1311,
      "Ġdrei": 1312,
      "ucht": 1313,
      "so": 1314,
      "Ġgar": 1315,
      "Ġlang": 1316,
      "rem": 1317,
      "olog": 1318,
      "mittel": 1319,
      "rat": 1320,
      "Ġihn": 1321,
      "ĠRecht": 1322,
      "lagen": 1323,
      "Ġstehen": 1324,
      "Ġsei": 1325,
      "ks": 1326,
      "kten": 1327,
      "Ġwollen": 1328,
      "ĠBundes": 1329,
      "ĠWar": 1330,
      "ĠEx": 1331,
      "ĠInternet": 1332,
      "Ġentsp": 1333,
      "Ġinter": 1334,
      "rad": 1335,
      "Ã¤hrend": 1336,
      "ĠnatÃ¼rlich": 1337,
      "orgen": 1338,
      "Ġte": 1339,
      "eig": 1340,
      "Ġeuch": 1341,
      "ĠDank": 1342,
      "kunft": 1343,
      "sche": 1344,
      "Ġ12": 1345,
      "Ġbesser": 1346,
      "ischer": 1347,
      "ĠHin": 1348,
      "Ġdort": 1349,
      "wick": 1350,
      "Ġliegt": 1351,
      "ĠEnde": 1352,
      "ĠfÃ¼hr": 1353,
      "âĢľ,": 1354,
      "von": 1355,
      "Ġallen": 1356,
      "ide": 1357,
      "ielleicht": 1358,
      "Ã¤ÃŁ": 1359,
      "ele": 1360,
      "ĠMed": 1361,
      "ĠThema": 1362,
      "ĠZiel": 1363,
      "ĠGl": 1364,
      "bie": 1365,
      "nisse": 1366,
      "ĠBuch": 1367,
      "hol": 1368,
      "ĠGen": 1369,
      "Ġihrer": 1370,
      "ĠWeiter": 1371,
      "ĠWohn": 1372,
      "ĠdafÃ¼r": 1373,
      "Ġvoll": 1374,
      "ersÃ¶n": 1375,
      "eigt": 1376,
      "schein": 1377,
      "ĠEl": 1378,
      "Ġjeden": 1379,
      "sb": 1380,
      "ierten": 1381,
      "Ġletzten": 1382,
      "Ġdeutsch": 1383,
      "ienst": 1384,
      "hÃ¤lt": 1385,
      "Ġsol": 1386,
      "gie": 1387,
      "Ġmacht": 1388,
      "Ġjedoch": 1389,
      "ont": 1390,
      "ition": 1391,
      "twick": 1392,
      "Ã¶rt": 1393,
      "ĠSchw": 1394,
      "fÃ¤": 1395,
      "gar": 1396,
      "fte": 1397,
      "!!": 1398,
      "ĠGem": 1399,
      "ehl": 1400,
      "schutz": 1401,
      "anst": 1402,
      "unter": 1403,
      "Ġeinge": 1404,
      "ĠAngeb": 1405,
      "forder": 1406,
      "Ġerhalten": 1407,
      "Ġihren": 1408,
      "Ġunseren": 1409,
      "ĠKomm": 1410,
      "Ġaktu": 1411,
      "laub": 1412,
      "nahme": 1413,
      "Ã¤ng": 1414,
      "licher": 1415,
      "Ã¤nger": 1416,
      "Ġgeben": 1417,
      "fang": 1418,
      "ĠwÃ¤re": 1419,
      "org": 1420,
      "ĠUnser": 1421,
      "ĠUS": 1422,
      "Ġfest": 1423,
      "Ġdich": 1424,
      "Ã¤m": 1425,
      "ott": 1426,
      "eider": 1427,
      "Ġwelche": 1428,
      "antw": 1429,
      "zeich": 1430,
      "bei": 1431,
      "stens": 1432,
      "ĠStra": 1433,
      "ĠJu": 1434,
      "Ġâ": 1435,
      "ĠBau": 1436,
      "Ġstatt": 1437,
      "Ġvielen": 1438,
      "Ġem": 1439,
      "uÃŁ": 1440,
      "ĠFragen": 1441,
      "ĠStud": 1442,
      "ĠWochen": 1443,
      "rum": 1444,
      "Ã¼hl": 1445,
      "ĠFrage": 1446,
      "Ġben": 1447,
      "legen": 1448,
      "ennt": 1449,
      "dings": 1450,
      "altung": 1451,
      "Ġrecht": 1452,
      "ule": 1453,
      "Ġwohl": 1454,
      "ine": 1455,
      "raum": 1456,
      "gabe": 1457,
      "ĠDurch": 1458,
      "xt": 1459,
      "ph": 1460,
      "ĠMal": 1461,
      "ĠgrÃ¶": 1462,
      "Ġgehen": 1463,
      "weit": 1464,
      "recht": 1465,
      "ember": 1466,
      "gangen": 1467,
      "prÃ¤": 1468,
      "ĠEnt": 1469,
      "Ã¼nst": 1470,
      "ĠBeg": 1471,
      "asch": 1472,
      "Ġgemein": 1473,
      "Ġverst": 1474,
      "pr": 1475,
      "alis": 1476,
      "ment": 1477,
      "ĠBerlin": 1478,
      "llt": 1479,
      "Ã¶l": 1480,
      "br": 1481,
      "ĠDes": 1482,
      "ĠLebens": 1483,
      "gaben": 1484,
      "Ġfolgen": 1485,
      "reiben": 1486,
      "rieben": 1487,
      "âĢĿ": 1488,
      "ĠWeg": 1489,
      "Ġho": 1490,
      "Ġfrei": 1491,
      "ook": 1492,
      "ĠSchul": 1493,
      "ice": 1494,
      "Ġwissen": 1495,
      "utzen": 1496,
      "grund": 1497,
      "isten": 1498,
      "under": 1499,
      "ipp": 1500,
      "Ġgemacht": 1501,
      "ww": 1502,
      "voll": 1503,
      "Ġgerade": 1504,
      "Ġbrau": 1505,
      "ĠZusammen": 1506,
      "Ġseinen": 1507,
      "Ġrund": 1508,
      "inde": 1509,
      "ĠFil": 1510,
      "falls": 1511,
      "einer": 1512,
      "ĠFrei": 1513,
      "Ġihm": 1514,
      "ĠâĢľ": 1515,
      "ĠFot": 1516,
      "ĠOrt": 1517,
      "ache": 1518,
      "ĠEurop": 1519,
      "ĠSchl": 1520,
      "Ã¤l": 1521,
      "ĠLin": 1522,
      "haus": 1523,
      "neh": 1524,
      "ĠOn": 1525,
      "ĠIhren": 1526,
      "Ġbzw": 1527,
      "ĠÃĦ": 1528,
      "Ġeinige": 1529,
      "ock": 1530,
      "Ġbeh": 1531,
      "anis": 1532,
      "In": 1533,
      ".âĢľ": 1534,
      "Ġ2018": 1535,
      "Ġdenen": 1536,
      "bung": 1537,
      "Ġdirekt": 1538,
      "Ġlange": 1539,
      "ĠMitarb": 1540,
      "asst": 1541,
      "ĠBeispiel": 1542,
      "ĠGeld": 1543,
      "ĠPf": 1544,
      "auer": 1545,
      "ĠWasser": 1546,
      "kehr": 1547,
      "ennen": 1548,
      "ĠhÃ¤t": 1549,
      "Ġspiel": 1550,
      "wohl": 1551,
      "Ġir": 1552,
      "Ġdarauf": 1553,
      "ac": 1554,
      "Ġbietet": 1555,
      "ikel": 1556,
      "ĠEntwick": 1557,
      "berg": 1558,
      "Ġal": 1559,
      "ĠPreis": 1560,
      "Ġ30": 1561,
      "ĠMann": 1562,
      "obil": 1563,
      "aften": 1564,
      "ĠIhrer": 1565,
      "ĠpersÃ¶n": 1566,
      "Ġweitere": 1567,
      "Ġ:": 1568,
      "Ġca": 1569,
      "iss": 1570,
      "Ġunserem": 1571,
      "ĠMill": 1572,
      "reit": 1573,
      "Ġen": 1574,
      "Ġeh": 1575,
      "nehmen": 1576,
      "achten": 1577,
      "schied": 1578,
      "Ġpaar": 1579,
      "Ġinteress": 1580,
      "zogen": 1581,
      "ĠNutz": 1582,
      "gl": 1583,
      "iere": 1584,
      "ote": 1585,
      "icherheit": 1586,
      "Ĥ¬": 1587,
      "Ġwenig": 1588,
      "Ã¤nder": 1589,
      "ĠkÃ¶nnte": 1590,
      "ĠErfahr": 1591,
      "andel": 1592,
      "ĠMitglie": 1593,
      "aÃŁ": 1594,
      "zug": 1595,
      "Ġdavon": 1596,
      "Ġtun": 1597,
      "Ġmeiner": 1598,
      "iges": 1599,
      "ruch": 1600,
      "fort": 1601,
      "Ġ14": 1602,
      "vers": 1603,
      "ĠBed": 1604,
      "gleich": 1605,
      "reten": 1606,
      "ĠVerfÃ¼": 1607,
      "Ġ&": 1608,
      "euer": 1609,
      "Ġbieten": 1610,
      "Ġgute": 1611,
      "Mail": 1612,
      "ĠDr": 1613,
      "ĠÂ»": 1614,
      "Ġkonnte": 1615,
      "Ġoft": 1616,
      "ĠDar": 1617,
      "ens": 1618,
      "ilfe": 1619,
      "ĠBo": 1620,
      "Ġeigenen": 1621,
      "Ġhab": 1622,
      "ĠBil": 1623,
      "als": 1624,
      "Ġkosten": 1625,
      "Ġfindet": 1626,
      "ĠRÃ¼ck": 1627,
      "ĠMein": 1628,
      "ies": 1629,
      "vent": 1630,
      "Ġteil": 1631,
      "ker": 1632,
      "ause": 1633,
      "gew": 1634,
      "nit": 1635,
      "ome": 1636,
      "Ġsagen": 1637,
      "Ġhoch": 1638,
      "ĠBesch": 1639,
      "Ġ16": 1640,
      "Ġ/": 1641,
      "rain": 1642,
      "achsen": 1643,
      "Ġempf": 1644,
      "Ġmus": 1645,
      "eile": 1646,
      "Ġbel": 1647,
      "nten": 1648,
      "ĠProzent": 1649,
      "ĠweiÃŁ": 1650,
      "ĠGro": 1651,
      "Ġrichtig": 1652,
      "ĠMe": 1653,
      "lossen": 1654,
      "hop": 1655,
      "ultur": 1656,
      "bes": 1657,
      "eder": 1658,
      "ER": 1659,
      "anken": 1660,
      "fon": 1661,
      "ĠTer": 1662,
      "Ã¤ter": 1663,
      "echn": 1664,
      "riff": 1665,
      "ĠSta": 1666,
      "ĠForm": 1667,
      "ilt": 1668,
      "ian": 1669,
      "Ġerste": 1670,
      "ĠGeb": 1671,
      "ĠgroÃŁ": 1672,
      "ĠStand": 1673,
      "Ġhast": 1674,
      "ĠIde": 1675,
      "eichen": 1676,
      "ĠBÃ¼r": 1677,
      "ient": 1678,
      "ĠgroÃŁe": 1679,
      "Ġbesten": 1680,
      "Ġ11": 1681,
      "Ã¶ren": 1682,
      "ĠHotel": 1683,
      "eut": 1684,
      "Ġ[": 1685,
      "ĠNe": 1686,
      "ĠDann": 1687,
      "mus": 1688,
      "punkt": 1689,
      "Ġkurz": 1690,
      "ron": 1691,
      "ĠwÃ¤hrend": 1692,
      "ellschaft": 1693,
      "andelt": 1694,
      "ĠOb": 1695,
      "eisten": 1696,
      "Ġetwa": 1697,
      "ĠGemein": 1698,
      "affen": 1699,
      "Ġ17": 1700,
      "ĠDenn": 1701,
      "ere": 1702,
      "zung": 1703,
      "ĠVert": 1704,
      "ĠgroÃŁen": 1705,
      "Ġget": 1706,
      "Ġgemeinsam": 1707,
      "ahmen": 1708,
      "ha": 1709,
      "ym": 1710,
      "Ġsogar": 1711,
      "ĠVerfÃ¼gung": 1712,
      "zial": 1713,
      "kon": 1714,
      "ĠVerein": 1715,
      "amp": 1716,
      "rotz": 1717,
      "werk": 1718,
      "ĠMÃ¶glichkeit": 1719,
      "Ġsollten": 1720,
      "ĠLu": 1721,
      "ĠZahl": 1722,
      "ĠKar": 1723,
      "Ã¤ndern": 1724,
      "Ġoffen": 1725,
      "Ġkom": 1726,
      "bend": 1727,
      "Ġde": 1728,
      "rakt": 1729,
      "Ġfinde": 1730,
      "frei": 1731,
      "ĠâĢ¦": 1732,
      "Ã¼nd": 1733,
      "ĠÃ¶ff": 1734,
      "Ã¤sst": 1735,
      "ĠRegel": 1736,
      "beiten": 1737,
      "Ġgilt": 1738,
      "riv": 1739,
      "ĠDoch": 1740,
      "ĠArtikel": 1741,
      "ingen": 1742,
      "etter": 1743,
      "Ġnehmen": 1744,
      "reise": 1745,
      "ĠBeh": 1746,
      "ĠGeschÃ¤ft": 1747,
      "sl": 1748,
      "rift": 1749,
      "Ġbew": 1750,
      "\",": 1751,
      "ĠFin": 1752,
      "seite": 1753,
      "raft": 1754,
      "blick": 1755,
      "ip": 1756,
      "ĠSel": 1757,
      "Ġ13": 1758,
      "Ġkannst": 1759,
      "ĠLeist": 1760,
      "Ġbitte": 1761,
      "mÃ¶glich": 1762,
      "ruppe": 1763,
      "Ġirgend": 1764,
      "uer": 1765,
      "ĠBeit": 1766,
      "ĠTeam": 1767,
      "leist": 1768,
      "enz": 1769,
      "Ġ25": 1770,
      "ĠMitarbeiter": 1771,
      "ĠOnline": 1772,
      "rÃ¤n": 1773,
      "ib": 1774,
      "Ã¶rper": 1775,
      "gestellt": 1776,
      "ĠhÃ¶": 1777,
      "tt": 1778,
      "Ġbesonders": 1779,
      "ĠArbeits": 1780,
      "ober": 1781,
      "ĠPh": 1782,
      "erien": 1783,
      "jÃ¤hr": 1784,
      "erk": 1785,
      "ĠHÃ¶": 1786,
      "fÃ¼hl": 1787,
      "man": 1788,
      "ĠBereich": 1789,
      "isk": 1790,
      "ĠmÃ¶chten": 1791,
      "einander": 1792,
      "wahl": 1793,
      "ider": 1794,
      "ub": 1795,
      "ĠBesuch": 1796,
      "Ġzahl": 1797,
      "auen": 1798,
      "Ġbekommen": 1799,
      "ĠFach": 1800,
      "az": 1801,
      "ĠPersonen": 1802,
      "Ġbefin": 1803,
      "ĠJugend": 1804,
      "ĠProdukt": 1805,
      "ĠunterstÃ¼t": 1806,
      "yp": 1807,
      "reffen": 1808,
      "itu": 1809,
      "zept": 1810,
      "ign": 1811,
      "sol": 1812,
      "ivers": 1813,
      "licht": 1814,
      "Ġvielleicht": 1815,
      "antwort": 1816,
      "ĠMehr": 1817,
      "Ġfast": 1818,
      "Ġzwar": 1819,
      "ĠTage": 1820,
      "Ġzie": 1821,
      "ĠHoch": 1822,
      "etzen": 1823,
      "ĠProjekt": 1824,
      "Ġeigentlich": 1825,
      "ĠDir": 1826,
      "ĠFrauen": 1827,
      "schluss": 1828,
      "Ġ100": 1829,
      "ĠY": 1830,
      "Ġverm": 1831,
      "Ġvert": 1832,
      "ĠPol": 1833,
      "gehen": 1834,
      "ĠRahmen": 1835,
      "Ġbeiden": 1836,
      "ĠGrÃ¼n": 1837,
      "nahmen": 1838,
      "ations": 1839,
      "lieÃŁlich": 1840,
      "Ġfreuen": 1841,
      "ĠAkt": 1842,
      "Ġschw": 1843,
      "ĠfrÃ¼": 1844,
      "bildung": 1845,
      "ergie": 1846,
      "aff": 1847,
      "Ã¤ten": 1848,
      "ĠFol": 1849,
      "kauf": 1850,
      "ĠMusik": 1851,
      "ĠPlatz": 1852,
      "umen": 1853,
      "ichtige": 1854,
      "An": 1855,
      "Ġseinem": 1856,
      "raf": 1857,
      "ĠFrank": 1858,
      "Ġentsprechen": 1859,
      "Ġentwick": 1860,
      "ĠEU": 1861,
      "Ġstell": 1862,
      "fÃ¼hrt": 1863,
      "legt": 1864,
      "Ġentsch": 1865,
      "ichtet": 1866,
      "ĠnÃ¤chsten": 1867,
      "ĠdÃ¼r": 1868,
      "Ġwerde": 1869,
      "schaften": 1870,
      "ĠKosten": 1871,
      "auft": 1872,
      "rist": 1873,
      "Ã¤hlen": 1874,
      "red": 1875,
      "ĠGegen": 1876,
      "ĠBlick": 1877,
      "ĠverfÃ¼": 1878,
      "Ã¤ss": 1879,
      "immer": 1880,
      "Ġjewei": 1881,
      "Ġklar": 1882,
      "Ġstellen": 1883,
      "ĠVeranst": 1884,
      "ommer": 1885,
      "ĠDen": 1886,
      "ĠTechn": 1887,
      "ĠSicherheit": 1888,
      "je": 1889,
      "bed": 1890,
      "ĠKontakt": 1891,
      "roffen": 1892,
      "esser": 1893,
      "ĠauÃŁer": 1894,
      "Ġerfolg": 1895,
      "mann": 1896,
      "ĠVerl": 1897,
      "one": 1898,
      "leben": 1899,
      "Ġex": 1900,
      "elfen": 1901,
      "Ã¤nde": 1902,
      "ĠAlle": 1903,
      "dent": 1904,
      "orten": 1905,
      "Ġeur": 1906,
      "urs": 1907,
      "Ġmeinen": 1908,
      "Ġ.": 1909,
      "opf": 1910,
      "stadt": 1911,
      "Ġinner": 1912,
      "eitung": 1913,
      "ans": 1914,
      "ĠWissen": 1915,
      "ĠEntsch": 1916,
      "ĠApp": 1917,
      "olitik": 1918,
      "ĠGeschichte": 1919,
      "weis": 1920,
      "Ã¤uf": 1921,
      "racht": 1922,
      "ative": 1923,
      "Ġgab": 1924,
      "ĠRu": 1925,
      "EN": 1926,
      "Ġkeinen": 1927,
      "Ġjem": 1928,
      "ts": 1929,
      "Ġallerdings": 1930,
      "Ġschwer": 1931,
      "ften": 1932,
      "deut": 1933,
      "ĠWoche": 1934,
      "endet": 1935,
      "app": 1936,
      "ĠlÃ¤sst": 1937,
      "genommen": 1938,
      "ĠhÃ¤tte": 1939,
      "Ġkleinen": 1940,
      "mÃ¤ÃŁ": 1941,
      "Ġhatten": 1942,
      "ĠNicht": 1943,
      "ĠKind": 1944,
      "itzen": 1945,
      "igkeiten": 1946,
      "ivi": 1947,
      "verb": 1948,
      "Ġaufge": 1949,
      "gr": 1950,
      "echt": 1951,
      "Ġihnen": 1952,
      "eitet": 1953,
      "Ġwahr": 1954,
      "icken": 1955,
      "ĠSelbst": 1956,
      "Ġ199": 1957,
      "nt": 1958,
      "ĠVide": 1959,
      "Ġsieht": 1960,
      "ktur": 1961,
      "zieh": 1962,
      "rand": 1963,
      "ite": 1964,
      "ister": 1965,
      "ĠSport": 1966,
      "ĠProgramm": 1967,
      "ĠFir": 1968,
      "Ġind": 1969,
      "eister": 1970,
      "Ġ2017": 1971,
      "ĠHaupt": 1972,
      "lex": 1973,
      ".\"": 1974,
      "ys": 1975,
      "jahr": 1976,
      "ĠNatur": 1977,
      "Ġkleine": 1978,
      "undheit": 1979,
      "ĠAngebot": 1980,
      "Ġ50": 1981,
      "agte": 1982,
      "ĠNÃ¤": 1983,
      "Ã¼d": 1984,
      "zeug": 1985,
      "annten": 1986,
      "ĠProf": 1987,
      "Ġweit": 1988,
      "ĠInst": 1989,
      "ĠFrÃ¼": 1990,
      "ĠQualitÃ¤t": 1991,
      "ĠDabei": 1992,
      "utter": 1993,
      "ĠVon": 1994,
      "ĠCo": 1995,
      "ividu": 1996,
      "ĠSa": 1997,
      "Ġhinter": 1998,
      "ĠBilder": 1999,
      "zer": 2000,
      "ĠErgeb": 2001,
      "ĠRo": 2002,
      "unst": 2003,
      "glichen": 2004,
      "ĠSeit": 2005,
      "Ã¤tze": 2006,
      "Ġmeinem": 2007,
      "Ġleider": 2008,
      "ĠFamilie": 2009,
      "ĠReise": 2010,
      "ĠÃ¼": 2011,
      "setzung": 2012,
      "30": 2013,
      "orf": 2014,
      "stÃ¼ck": 2015,
      "zimmer": 2016,
      "rieden": 2017,
      "mar": 2018,
      "Ã¤hlt": 2019,
      "ware": 2020,
      "ĠLe": 2021,
      "ĠSeiten": 2022,
      "ĠerklÃ¤r": 2023,
      "ĠEm": 2024,
      "gegen": 2025,
      "bet": 2026,
      "ĠStunden": 2027,
      "Ġleben": 2028,
      "Ġgesp": 2029,
      "ĠMarkt": 2030,
      "ĠSchÃ¼": 2031,
      "Ã¤tzlich": 2032,
      "Ġversch": 2033,
      "nehmer": 2034,
      "ĠwÃ¼n": 2035,
      "ĠZukunft": 2036,
      "Ġbede": 2037,
      "ĠspÃ¤ter": 2038,
      "ĠMinuten": 2039,
      "ĠMittel": 2040,
      "ĠAuft": 2041,
      "Die": 2042,
      "ational": 2043,
      "ĠEigen": 2044,
      "ĠRest": 2045,
      "Ġsollen": 2046,
      "ĠPar": 2047,
      "sent": 2048,
      "Ġihrem": 2049,
      "stehen": 2050,
      "Ġ,": 2051,
      "Ġheraus": 2052,
      "ĠdarÃ¼ber": 2053,
      "ĠKrank": 2054,
      "ĠLÃ¶s": 2055,
      "ĠEntwicklung": 2056,
      "Ġbed": 2057,
      "ĠVort": 2058,
      "ĠJun": 2059,
      "heim": 2060,
      "ĠServ": 2061,
      "Ġworden": 2062,
      "Ġdein": 2063,
      "Ġweniger": 2064,
      "fallen": 2065,
      "hÃ¶": 2066,
      "ĠZum": 2067,
      "ax": 2068,
      "Ġunterschied": 2069,
      "ĠIhrem": 2070,
      "ĠJahres": 2071,
      "ĠBeruf": 2072,
      "inter": 2073,
      "ĠGel": 2074,
      "ette": 2075,
      "Ġvier": 2076,
      "rÃ¤ge": 2077,
      "scht": 2078,
      "ĠNacht": 2079,
      "feld": 2080,
      "iven": 2081,
      "spruch": 2082,
      "welt": 2083,
      "ĠJa": 2084,
      "ĠFilm": 2085,
      "Ġhelfen": 2086,
      "sehen": 2087,
      "heiten": 2088,
      "des": 2089,
      "ĠFÃ¤": 2090,
      "ute": 2091,
      "ĠEltern": 2092,
      "Ã¶rder": 2093,
      "ĠMÃ¤r": 2094,
      "agement": 2095,
      "rom": 2096,
      "ĠProdukte": 2097,
      "âĢľ.": 2098,
      "Ġern": 2099,
      "Ġverschiedenen": 2100,
      "Sch": 2101,
      "ĠgehÃ¶rt": 2102,
      "Ġpl": 2103,
      "Ġtoll": 2104,
      "Ġintern": 2105,
      "ĠAbend": 2106,
      "iste": 2107,
      "laden": 2108,
      "ĠSchwei": 2109,
      "ĠChr": 2110,
      "tels": 2111,
      "mals": 2112,
      "Ġderen": 2113,
      "reiche": 2114,
      "ĠKin": 2115,
      "19": 2116,
      "ĠMark": 2117,
      "gÃ¤n": 2118,
      "ool": 2119,
      "Ġ24": 2120,
      "ĠEnergie": 2121,
      "ĠWahl": 2122,
      "ĠThe": 2123,
      "ĠWor": 2124,
      "ĠâĤ¬": 2125,
      "wohn": 2126,
      "reicht": 2127,
      "Ġmeisten": 2128,
      "liegen": 2129,
      "Ġsagt": 2130,
      "arbeitung": 2131,
      "Ġdarf": 2132,
      "ĠInf": 2133,
      "ĠAuto": 2134,
      "ĠMÃ¼n": 2135,
      "geh": 2136,
      "ame": 2137,
      "....": 2138,
      "ĠPrÃ¤": 2139,
      "erst": 2140,
      "Ġdeine": 2141,
      "echs": 2142,
      "ĠBitte": 2143,
      "ĠWirtschaft": 2144,
      "ĠFlug": 2145,
      "CH": 2146,
      "ĠFest": 2147,
      "ĠTele": 2148,
      "Ġkam": 2149,
      "ĠLehr": 2150,
      "ĠSystem": 2151,
      "ckt": 2152,
      "ĠdaÃŁ": 2153,
      "Ġsofort": 2154,
      "ĠUnsere": 2155,
      "Ġganze": 2156,
      "ĠAugen": 2157,
      "anten": 2158,
      "tember": 2159,
      "Ġdaher": 2160,
      "ðŁ": 2161,
      "Ã¶ffentlich": 2162,
      "Ġbestimm": 2163,
      "igit": 2164,
      "amer": 2165,
      "ubl": 2166,
      "hof": 2167,
      "ĠSpaÃŁ": 2168,
      "gesetzt": 2169,
      "ernen": 2170,
      "werb": 2171,
      "ets": 2172,
      "inge": 2173,
      "Ġdeu": 2174,
      "Ġnutzen": 2175,
      "ĠDi": 2176,
      "Ġbisher": 2177,
      "ĠKÃ¼": 2178,
      "sweise": 2179,
      "Ġglau": 2180,
      "Ġbleiben": 2181,
      "Ã¤hn": 2182,
      "fÃ¼hrung": 2183,
      "druck": 2184,
      "sterreich": 2185,
      "ielt": 2186,
      "iet": 2187,
      "ĠKir": 2188,
      "site": 2189,
      "indung": 2190,
      "Â«": 2191,
      "Ġkennen": 2192,
      "Ġspe": 2193,
      "imal": 2194,
      "liches": 2195,
      "eint": 2196,
      "inner": 2197,
      "ĠGott": 2198,
      "ĠGed": 2199,
      "Ġinform": 2200,
      "Ġsu": 2201,
      "Ġwollte": 2202,
      "lichkeit": 2203,
      "Ġsagte": 2204,
      "Ġwunder": 2205,
      "geber": 2206,
      "Pro": 2207,
      "ĠMillionen": 2208,
      "Ġbleibt": 2209,
      "ager": 2210,
      "was": 2211,
      "reg": 2212,
      "Ġerwar": 2213,
      "osit": 2214,
      "eten": 2215,
      "opp": 2216,
      "mb": 2217,
      "ormal": 2218,
      "Ġ2016": 2219,
      "Ġerz": 2220,
      "Ã¤chst": 2221,
      "etten": 2222,
      "ĠKunst": 2223,
      "ĠÂ§": 2224,
      "platz": 2225,
      "rech": 2226,
      "ĠErfolg": 2227,
      "Ġabge": 2228,
      "Ġru": 2229,
      "ruppen": 2230,
      "ĠNov": 2231,
      "Ġindividu": 2232,
      "ĠDienst": 2233,
      "ĠJe": 2234,
      "frage": 2235,
      "Ġgl": 2236,
      "Ġersch": 2237,
      "ĠNew": 2238,
      "ĠEinsatz": 2239,
      "ĠMode": 2240,
      "10": 2241,
      "Ġbesteht": 2242,
      "up": 2243,
      "ĠBetrieb": 2244,
      "Ġgek": 2245,
      "spro": 2246,
      "IN": 2247,
      "Ġzeigt": 2248,
      "âĢĻ": 2249,
      "ĠHall": 2250,
      "stra": 2251,
      "aur": 2252,
      "Ġstark": 2253,
      "ĠUnivers": 2254,
      "Ġarbeiten": 2255,
      "Ġeher": 2256,
      "ĠIst": 2257,
      "hÃ¤ng": 2258,
      "offe": 2259,
      "ĠAnfang": 2260,
      "ĠbenÃ¶t": 2261,
      "ehlen": 2262,
      "ĠPartner": 2263,
      "ase": 2264,
      "aterial": 2265,
      "vest": 2266,
      "ĠMo": 2267,
      "haupt": 2268,
      "Ġjedem": 2269,
      "Ġdaran": 2270,
      "ologie": 2271,
      "ĠPlan": 2272,
      "ĠNamen": 2273,
      "Ġbringen": 2274,
      "ĠNetz": 2275,
      "ĠJan": 2276,
      "ĠFar": 2277,
      "Ġpassen": 2278,
      "ĠSchÃ¼ler": 2279,
      "ĠheiÃŁ": 2280,
      "Ã¤um": 2281,
      "eren": 2282,
      "Ġguten": 2283,
      "ktober": 2284,
      "ichtigen": 2285,
      "ĠDamit": 2286,
      "co": 2287,
      "cke": 2288,
      "sy": 2289,
      "ĠBÃ¼": 2290,
      "Ġfunktion": 2291,
      "ffiz": 2292,
      "ĠGo": 2293,
      "itel": 2294,
      "Ġschle": 2295,
      "nitt": 2296,
      "ĠKÃ¶rper": 2297,
      "ches": 2298,
      "Ġbekannt": 2299,
      "Ġdeutlich": 2300,
      "ĠAd": 2301,
      "ĠEntscheid": 2302,
      "com": 2303,
      "annte": 2304,
      "ĠHilfe": 2305,
      "ĠTest": 2306,
      "ters": 2307,
      "ĠNÃ¤he": 2308,
      "ĠAlso": 2309,
      "Ã¤ren": 2310,
      "ĠSk": 2311,
      "Ġsonst": 2312,
      "ĠFinanz": 2313,
      "ĠSep": 2314,
      "ĠPat": 2315,
      "ĠMet": 2316,
      "Ġtrotz": 2317,
      "\".": 2318,
      "Ich": 2319,
      "Ġinnerhalb": 2320,
      "ĠLage": 2321,
      "ĠGroÃŁ": 2322,
      "ĠKauf": 2323,
      "ĠGlÃ¼ck": 2324,
      "ĠSommer": 2325,
      "ĠWebsite": 2326,
      "arte": 2327,
      "usst": 2328,
      "reund": 2329,
      "Ġerw": 2330,
      "Ġsuchen": 2331,
      "arf": 2332,
      "ĠGeh": 2333,
      "ondere": 2334,
      "ĠGesundheit": 2335,
      "Ġmo": 2336,
      "isches": 2337,
      "Ġneben": 2338,
      "urt": 2339,
      "50": 2340,
      "itÃ¤ten": 2341,
      "ĠgrÃ¶ÃŁ": 2342,
      "ĠBeitrag": 2343,
      "ĠOktober": 2344,
      "inen": 2345,
      "igten": 2346,
      "ĠUrlaub": 2347,
      "Ġerfol": 2348,
      "Ġjemand": 2349,
      "ĠMai": 2350,
      "ĠLiebe": 2351,
      "ĠSam": 2352,
      "ĠKn": 2353,
      "ĠFreund": 2354,
      "Ġhalten": 2355,
      "Ã¤chlich": 2356,
      "ĠOrg": 2357,
      "ix": 2358,
      "Ġeigene": 2359,
      "ĠEinz": 2360,
      "ĠAntw": 2361,
      "ĠDieser": 2362,
      "ĠFuÃŁ": 2363,
      "12": 2364,
      "are": 2365,
      "Ġging": 2366,
      "ĠDem": 2367,
      "ĠZw": 2368,
      "Ġzeigen": 2369,
      "Ġverk": 2370,
      "ĠLandes": 2371,
      "ĠFamilien": 2372,
      "Ġgesam": 2373,
      "ĠOber": 2374,
      "ĠNeben": 2375,
      "zeitig": 2376,
      "ĠRaum": 2377,
      "Ġschl": 2378,
      "ina": 2379,
      "ĠHerz": 2380,
      "bel": 2381,
      "Ġhandelt": 2382,
      "ĠfÃ¼hl": 2383,
      "utzt": 2384,
      "ĠMot": 2385,
      "ĠTh": 2386,
      "Ġzun": 2387,
      "Ġkompl": 2388,
      "achte": 2389,
      "ege": 2390,
      "ĠJuni": 2391,
      "bo": 2392,
      "ĠGut": 2393,
      "Ġhinaus": 2394,
      "ĠSeptember": 2395,
      "tler": 2396,
      "iff": 2397,
      "ingungen": 2398,
      "Ġerreichen": 2399,
      "zÃ¼": 2400,
      "ĠStart": 2401,
      "ĠZimmer": 2402,
      "Ġhil": 2403,
      "Ã¼nf": 2404,
      "Ġliegen": 2405,
      "ĠBel": 2406,
      "ĠÂ«": 2407,
      "ĠAbs": 2408,
      "ienen": 2409,
      "entlichen": 2410,
      "ĠJul": 2411,
      "Ġerfahren": 2412,
      "baren": 2413,
      "Ġ21": 2414,
      "Ver": 2415,
      "Ġeinzel": 2416,
      "ĠTagen": 2417,
      "ĠDez": 2418,
      "ĠNie": 2419,
      "beh": 2420,
      "ĠprÃ¤": 2421,
      "mÃ¶": 2422,
      "leichen": 2423,
      "verl": 2424,
      "bereich": 2425,
      "ĠRechts": 2426,
      "ĠHerr": 2427,
      "Ġleicht": 2428,
      "ĠBar": 2429,
      "old": 2430,
      "Ġwei": 2431,
      "ehn": 2432,
      "zess": 2433,
      "ĠKom": 2434,
      "kung": 2435,
      "wendung": 2436,
      "undert": 2437,
      "ĠðŁ": 2438,
      "ĠDatenschutz": 2439,
      "rÃ¼f": 2440,
      "ruktur": 2441,
      "utt": 2442,
      "reifen": 2443,
      "Ġ22": 2444,
      "gesamt": 2445,
      "Ã¤te": 2446,
      "icherung": 2447,
      "ĠKultur": 2448,
      "Ġdeutschen": 2449,
      "Ġend": 2450,
      "lege": 2451,
      "rax": 2452,
      "dung": 2453,
      "Ġjede": 2454,
      "ĠMÃ¤n": 2455,
      "Ã¤us": 2456,
      "halte": 2457,
      "Ġfor": 2458,
      "ance": 2459,
      "arbeiten": 2460,
      "Ã¤llt": 2461,
      "ĠDieses": 2462,
      "ĠAug": 2463,
      "ose": 2464,
      "steller": 2465,
      "ĠRicht": 2466,
      "Ġbist": 2467,
      "rache": 2468,
      "ĠTr": 2469,
      "Ġopt": 2470,
      "ĠMaÃŁ": 2471,
      "ĠVol": 2472,
      "weisen": 2473,
      "ity": 2474,
      "AN": 2475,
      "ct": 2476,
      "unsch": 2477,
      "Ġgefunden": 2478,
      "Ġnot": 2479,
      "aren": 2480,
      "ĠGÃ¤": 2481,
      "ĠUnterstÃ¼t": 2482,
      "ĠWind": 2483,
      "Ġpass": 2484,
      "ĠFr": 2485,
      "Ġ2015": 2486,
      "Ġanders": 2487,
      "ĠAuswahl": 2488,
      "ore": 2489,
      "Ġwegen": 2490,
      "wand": 2491,
      "ĠTÃ¼r": 2492,
      "inger": 2493,
      "Ġebenfalls": 2494,
      "ĠTipp": 2495,
      "ĠBÃ¼rger": 2496,
      "ĠTermin": 2497,
      "ift": 2498,
      "Ġoben": 2499,
      "ĠDezember": 2500,
      "ief": 2501,
      "Ġstellt": 2502,
      "ĠThemen": 2503,
      "Ġregel": 2504,
      "ĠTrain": 2505,
      "ĠBlog": 2506,
      "ĠNovember": 2507,
      "ĠAnt": 2508,
      "ĠBerat": 2509,
      "rieg": 2510,
      "ĠFunktion": 2511,
      "ĠWert": 2512,
      "ersonen": 2513,
      "ummer": 2514,
      "ĠAt": 2515,
      "llig": 2516,
      "Ġtechn": 2517,
      "redit": 2518,
      "ĠForsch": 2519,
      "Ġfr": 2520,
      "ikation": 2521,
      "ikan": 2522,
      "ĠAng": 2523,
      "ball": 2524,
      "ĠFerien": 2525,
      "ĠWeihn": 2526,
      "ĠTour": 2527,
      "sport": 2528,
      "ritten": 2529,
      "Ġangeb": 2530,
      "bezogen": 2531,
      "ifiz": 2532,
      "Un": 2533,
      "ĠLeute": 2534,
      "utet": 2535,
      "itut": 2536,
      "Â»": 2537,
      "abl": 2538,
      "ain": 2539,
      "alien": 2540,
      "Ġprof": 2541,
      "ĠdÃ¼rfen": 2542,
      "ĠWel": 2543,
      "ĠUSA": 2544,
      "Ġlesen": 2545,
      "ĠKommun": 2546,
      "forderungen": 2547,
      "setzen": 2548,
      "ĠBen": 2549,
      "ĠHÃ¶he": 2550,
      "ĠTran": 2551,
      "ika": 2552,
      "ĠAuÃŁer": 2553,
      "ftware": 2554,
      "omat": 2555,
      "ĠZwei": 2556,
      "mbH": 2557,
      "unk": 2558,
      "ahren": 2559,
      "eien": 2560,
      "iker": 2561,
      "ĠfÃ¼hren": 2562,
      "ĠHam": 2563,
      "ĠSuche": 2564,
      "izin": 2565,
      "Ġentscheiden": 2566,
      "iver": 2567,
      "ĠGesellschaft": 2568,
      "alter": 2569,
      "Ġkaum": 2570,
      "ĠMÃ¤rz": 2571,
      "ĠKopf": 2572,
      "ĠZur": 2573,
      "Ġverschiedene": 2574,
      "Ġbef": 2575,
      "assung": 2576,
      ".)": 2577,
      "ĠErfahrung": 2578,
      "Ġ40": 2579,
      "ĠlÃ¤nger": 2580,
      "spl": 2581,
      "hand": 2582,
      "Sp": 2583,
      "ksam": 2584,
      "ĠheiÃŁt": 2585,
      "Ġbereit": 2586,
      "ĠService": 2587,
      "zus": 2588,
      "Ġbr": 2589,
      "durch": 2590,
      "stelle": 2591,
      "immung": 2592,
      "Ġkomm": 2593,
      "ente": 2594,
      "ĠNur": 2595,
      "ĠRegion": 2596,
      "frieden": 2597,
      "ĠTelefon": 2598,
      "Ġbevor": 2599,
      "ession": 2600,
      "Ã¤ufig": 2601,
      "str": 2602,
      "ĠMÃ¶glichkeiten": 2603,
      "Ġreg": 2604,
      "ĠSer": 2605,
      "Ġof": 2606,
      "del": 2607,
      "lieÃŁen": 2608,
      "pril": 2609,
      "ĠBas": 2610,
      "uar": 2611,
      "Ġon": 2612,
      "Ġaut": 2613,
      "ĠFern": 2614,
      "iken": 2615,
      "unkte": 2616,
      "ĠVertrag": 2617,
      "ison": 2618,
      "Ġabsol": 2619,
      "Ã©": 2620,
      "olz": 2621,
      "haft": 2622,
      "Ġweiteren": 2623,
      "Ġbefindet": 2624,
      "ehm": 2625,
      "ĠGmbH": 2626,
      "ieg": 2627,
      "ĠLiefer": 2628,
      "av": 2629,
      "ĠBr": 2630,
      "fÃ¤h": 2631,
      "gemein": 2632,
      "leb": 2633,
      "orn": 2634,
      "ĠBis": 2635,
      "raxis": 2636,
      "ntag": 2637,
      "ordnung": 2638,
      "statt": 2639,
      "ĠProbleme": 2640,
      "ĠStelle": 2641,
      "ĠÃ¼berhaupt": 2642,
      "Ġkm": 2643,
      "Ã¶nen": 2644,
      "uter": 2645,
      "ritte": 2646,
      "ĠSitu": 2647,
      "Ġhal": 2648,
      "ĠKomp": 2649,
      "ehe": 2650,
      "ĠPark": 2651,
      "part": 2652,
      "ĠJetzt": 2653,
      "oment": 2654,
      "schule": 2655,
      "ĠInteresse": 2656,
      "ĠHause": 2657,
      "ons": 2658,
      "ĠEuropa": 2659,
      "Ġverd": 2660,
      "Ġweg": 2661,
      "Ġx": 2662,
      "tragen": 2663,
      "anach": 2664,
      "meld": 2665,
      "ante": 2666,
      "ziehen": 2667,
      "ichts": 2668,
      "20": 2669,
      "ĠApril": 2670,
      "ĠKap": 2671,
      "ise": 2672,
      "elden": 2673,
      "aurant": 2674,
      "ĠMensch": 2675,
      "ausen": 2676,
      "Ġspielen": 2677,
      "ĠfÃ¼nf": 2678,
      "Ġgegeben": 2679,
      "Ġel": 2680,
      "ĠGeschÃ¤fts": 2681,
      "ufen": 2682,
      "rauen": 2683,
      "dresse": 2684,
      "ĠRes": 2685,
      "Ġwarum": 2686,
      "olf": 2687,
      "pen": 2688,
      "gef": 2689,
      "ĠSchule": 2690,
      "Ġentfern": 2691,
      "atte": 2692,
      "ieÃŁen": 2693,
      "ĠBus": 2694,
      "ĠGrÃ¶": 2695,
      "Ã¤ndert": 2696,
      "aktion": 2697,
      "ĠMedien": 2698,
      "Ġsolche": 2699,
      "herap": 2700,
      "ĠPer": 2701,
      "ĠGast": 2702,
      "ativen": 2703,
      "Ġch": 2704,
      "organis": 2705,
      "ĠKat": 2706,
      "Ġqu": 2707,
      "hein": 2708,
      "ĠRad": 2709,
      "ienten": 2710,
      "Ġ2014": 2711,
      "ĠFrÃ¼h": 2712,
      "Ġerk": 2713,
      "Ġganzen": 2714,
      "ragt": 2715,
      "atten": 2716,
      "ĠNun": 2717,
      "ĠPolitik": 2718,
      "vert": 2719,
      "ĠWerk": 2720,
      "Ġvergangen": 2721,
      "Ġdeshalb": 2722,
      "entr": 2723,
      "Ġklein": 2724,
      "ĠErw": 2725,
      "cen": 2726,
      "ĠPoliz": 2727,
      "ĠWinter": 2728,
      "klÃ¤rung": 2729,
      "verstÃ¤nd": 2730,
      "ator": 2731,
      "lungen": 2732,
      "Ġsowohl": 2733,
      "ĠDinge": 2734,
      "Ġkomp": 2735,
      "Ġwelt": 2736,
      "ester": 2737,
      "arbeitet": 2738,
      "ĠBad": 2739,
      "Ġ%": 2740,
      "gesetz": 2741,
      "Ġkaufen": 2742,
      "Ġjedes": 2743,
      "ĠSoll": 2744,
      "ond": 2745,
      "ĠJanuar": 2746,
      "sw": 2747,
      "auber": 2748,
      "ĠNord": 2749,
      "lesen": 2750,
      "ĠWeise": 2751,
      "Ġkn": 2752,
      "Ġle": 2753,
      "11": 2754,
      "ĠgegenÃ¼ber": 2755,
      "ĠEinzel": 2756,
      "ogle": 2757,
      "ehler": 2758,
      "eller": 2759,
      "bin": 2760,
      "yn": 2761,
      "ĠJuli": 2762,
      "stellungen": 2763,
      "ĠFreu": 2764,
      "stein": 2765,
      "ampf": 2766,
      "ĠX": 2767,
      "Ġdank": 2768,
      "ĠGarten": 2769,
      "ĠKo": 2770,
      "fert": 2771,
      "onnen": 2772,
      "Ġkont": 2773,
      "Ġmehrere": 2774,
      "rauch": 2775,
      "ĠGefÃ¼hl": 2776,
      "ĠunterstÃ¼tzen": 2777,
      "best": 2778,
      "ĠFac": 2779,
      "cker": 2780,
      "ee": 2781,
      "ĠwÃ¼rden": 2782,
      "Ġerf": 2783,
      "ĠÃ¶": 2784,
      "Ã¤nden": 2785,
      "eignet": 2786,
      "ĠAugust": 2787,
      "ĠGebur": 2788,
      "uren": 2789,
      "ĠUnterstÃ¼tzung": 2790,
      "Ã¼nft": 2791,
      "ĠGesprÃ¤": 2792,
      "//": 2793,
      "ĠKindern": 2794,
      "ĠFotos": 2795,
      "Ġtats": 2796,
      "ĠSchutz": 2797,
      "ohnt": 2798,
      "ument": 2799,
      "Ġgesehen": 2800,
      "ĠVideo": 2801,
      "Wir": 2802,
      "ĠLuft": 2803,
      "rÃ¤gt": 2804,
      "Ġfolgenden": 2805,
      "Ã¤tz": 2806,
      "Ġansch": 2807,
      "ĠKÃ¶n": 2808,
      "ĠtÃ¤": 2809,
      "Ġgeworden": 2810,
      "geschlossen": 2811,
      "ĠTages": 2812,
      "markt": 2813,
      "Ã¼ss": 2814,
      "laf": 2815,
      "son": 2816,
      "ĠgrÃ¶ÃŁer": 2817,
      "ĠAuÃŁerdem": 2818,
      "ĠOrganis": 2819,
      "aler": 2820,
      "Ġnotwend": 2821,
      "ĠgÃ¼nst": 2822,
      "Ġkonnten": 2823,
      "ĠGanz": 2824,
      "ĠEuch": 2825,
      "Ġvorh": 2826,
      "ĠLes": 2827,
      "Ġbeispiel": 2828,
      "ĠDon": 2829,
      "ĠRolle": 2830,
      "port": 2831,
      "ĠGesetz": 2832,
      "fel": 2833,
      "ĠWill": 2834,
      "ĠSpe": 2835,
      "Ġpolit": 2836,
      "://": 2837,
      "ĠMitglied": 2838,
      "jekte": 2839,
      "Ġmag": 2840,
      "ebook": 2841,
      "ĠMitglieder": 2842,
      "ĠDat": 2843,
      "mÃ¤ÃŁig": 2844,
      "Ġu": 2845,
      "sie": 2846,
      "reibt": 2847,
      "Ġ23": 2848,
      "ĠIdee": 2849,
      "ĠSonntag": 2850,
      "Ġaktuellen": 2851,
      "ĠCl": 2852,
      "Ġgesagt": 2853,
      "ĠMutter": 2854,
      "wirtschaft": 2855,
      "Ġlernen": 2856,
      "ĠMÃ¼nchen": 2857,
      "ĠChrist": 2858,
      "zeichnet": 2859,
      "Ġsuper": 2860,
      "ausch": 2861,
      "gebung": 2862,
      "zeiten": 2863,
      "andeln": 2864,
      "schul": 2865,
      "bare": 2866,
      "Ġumf": 2867,
      "Ġpriv": 2868,
      "reitag": 2869,
      "ĠÃĸsterreich": 2870,
      "buch": 2871,
      "grÃ¼n": 2872,
      "Ġcm": 2873,
      "ĠText": 2874,
      "Ġverwendet": 2875,
      "lassen": 2876,
      "Ġposit": 2877,
      "pfen": 2878,
      "frist": 2879,
      "ĠDich": 2880,
      "ĠSal": 2881,
      "Ġbraucht": 2882,
      "Ġbedeutet": 2883,
      "reisen": 2884,
      "Ġentfernt": 2885,
      "Ã¤uft": 2886,
      "ĠFÃ¼hr": 2887,
      "unt": 2888,
      "ĠPost": 2889,
      "ĠKomment": 2890,
      "dienst": 2891,
      "ublik": 2892,
      "ungsk": 2893,
      "Ġwww": 2894,
      "Ġerfolgreich": 2895,
      "-)": 2896,
      "ĠRestaurant": 2897,
      "Ġ198": 2898,
      "zip": 2899,
      "Ġsetzen": 2900,
      "Ġlos": 2901,
      "Ġvorher": 2902,
      "Ġ60": 2903,
      "ĠLauf": 2904,
      "ĠKraft": 2905,
      "ĠschÃ¶ne": 2906,
      "Ã¶hn": 2907,
      "ĠSchritt": 2908,
      "Ġna": 2909,
      "abel": 2910,
      "Ġneues": 2911,
      "ĠÃĸff": 2912,
      "will": 2913,
      "fahrt": 2914,
      "schnitt": 2915,
      "ĠErk": 2916,
      "bil": 2917,
      "schlag": 2918,
      "ight": 2919,
      "inne": 2920,
      "ĠDanke": 2921,
      "par": 2922,
      "arm": 2923,
      "ress": 2924,
      "duz": 2925,
      "ziell": 2926,
      "Ġanzu": 2927,
      "ĠDeutschen": 2928,
      "ĠWahr": 2929,
      "Ã¤che": 2930,
      "ry": 2931,
      "Ġgewesen": 2932,
      "ex": 2933,
      "Ã¤ischen": 2934,
      "ĠHeute": 2935,
      "200": 2936,
      "ĠMeinung": 2937,
      "ĠViele": 2938,
      "chmal": 2939,
      "Ġgenug": 2940,
      "Ġnormal": 2941,
      "Ġwes": 2942,
      "gor": 2943,
      "Ġ2013": 2944,
      "Ġpersonen": 2945,
      "ismus": 2946,
      "sych": 2947,
      "besondere": 2948,
      "Ġbeispielsweise": 2949,
      "Ġminde": 2950,
      "ĠerhÃ¤lt": 2951,
      "uche": 2952,
      "teilt": 2953,
      "ĠGren": 2954,
      "immen": 2955,
      "Ġbl": 2956,
      "ĠWo": 2957,
      "lay": 2958,
      "Ġonline": 2959,
      "Ġinsbesondere": 2960,
      "ĠBehand": 2961,
      "ĠStÃ¼ck": 2962,
      "Ġfall": 2963,
      "ĠSchn": 2964,
      "ĠLa": 2965,
      "ĠErn": 2966,
      "ĠVerantwort": 2967,
      "zeigt": 2968,
      "ĠHinter": 2969,
      "bieter": 2970,
      "ĠErgebnis": 2971,
      "ret": 2972,
      "Ġdam": 2973,
      "ĠNieder": 2974,
      "tens": 2975,
      "ĠPort": 2976,
      "ĠEssen": 2977,
      "Ġmindestens": 2978,
      "ĠOder": 2979,
      "ĠNutzung": 2980,
      "fÃ¼hren": 2981,
      "ĠFÃ¶rder": 2982,
      "Ġgelten": 2983,
      "own": 2984,
      "ationalen": 2985,
      "mlich": 2986,
      "ĠSm": 2987,
      "fr": 2988,
      "Ġpersonenbezogen": 2989,
      "ĠMaterial": 2990,
      "Ġjeweil": 2991,
      "ĠNot": 2992,
      "altet": 2993,
      "ĠHa": 2994,
      "Ġliebe": 2995,
      "schlieÃŁlich": 2996,
      "Ġeinzu": 2997,
      "Ġalt": 2998,
      "hang": 2999,
      "'s": 3000,
      "ĠErfahrungen": 3001,
      "sph": 3002,
      "ĠGoogle": 3003,
      "sprechen": 3004,
      "fekt": 3005,
      "indest": 3006,
      "ĠEmpf": 3007,
      "ions": 3008,
      "ĠUniversitÃ¤t": 3009,
      "Ġvorbei": 3010,
      "ĠDazu": 3011,
      "ĠDort": 3012,
      "ĠWeitere": 3013,
      "ĠGener": 3014,
      "ĠAuftrag": 3015,
      "minister": 3016,
      "Ġsomit": 3017,
      "aly": 3018,
      "eum": 3019,
      "ĠEle": 3020,
      "Ġanderem": 3021,
      "ĠBestell": 3022,
      "ĠAnl": 3023,
      "Ã¤tzen": 3024,
      "richten": 3025,
      "Ġmusste": 3026,
      "ĠHotels": 3027,
      "drÃ¼ck": 3028,
      "ĠBand": 3029,
      "ĠTeilnehmer": 3030,
      "ĠfÃ¼hrt": 3031,
      "Das": 3032,
      "Ġbelie": 3033,
      "Ġendlich": 3034,
      "rich": 3035,
      "mitteln": 3036,
      "ĠAller": 3037,
      "ĠHeim": 3038,
      "tegr": 3039,
      "enten": 3040,
      "Ġeinigen": 3041,
      "angeb": 3042,
      "-,": 3043,
      "Ã¶sen": 3044,
      "ja": 3045,
      "ĠKoll": 3046,
      "ure": 3047,
      "tert": 3048,
      "brigen": 3049,
      "ĠBro": 3050,
      "ular": 3051,
      "ko": 3052,
      "sichtlich": 3053,
      "ĠTier": 3054,
      "ĠSamstag": 3055,
      "ĠDien": 3056,
      "innt": 3057,
      "ĠAusbildung": 3058,
      "ras": 3059,
      "Ġlaufen": 3060,
      "echsel": 3061,
      "Ġwelches": 3062,
      "dust": 3063,
      "ĠGruppe": 3064,
      "ĠFreitag": 3065,
      "Ġvorhanden": 3066,
      "ĠFeb": 3067,
      "fft": 3068,
      "ttp": 3069,
      "anzen": 3070,
      "ĠKranken": 3071,
      "ĠWien": 3072,
      "ĠOpt": 3073,
      "ĠSoftware": 3074,
      "unge": 3075,
      "ĠSol": 3076,
      "finden": 3077,
      "ĠFacebook": 3078,
      "Ġaktiv": 3079,
      "Ġmeist": 3080,
      "ĠWort": 3081,
      "Ġerforder": 3082,
      "ĠhÃ¶her": 3083,
      "Ġbetroffen": 3084,
      "Ġerfolgt": 3085,
      "ruar": 3086,
      "Ġbestehen": 3087,
      "Ġhttp": 3088,
      "18": 3089,
      "kennen": 3090,
      "Ġhervor": 3091,
      "istor": 3092,
      "ĠRat": 3093,
      "ĠGÃ¤ste": 3094,
      "ĠErst": 3095,
      "ĠKredit": 3096,
      "lungs": 3097,
      "Ġ28": 3098,
      "ĠPriv": 3099,
      "ĠWohnung": 3100,
      "ĠDesign": 3101,
      "Ġvergangenen": 3102,
      "lang": 3103,
      "ĠBay": 3104,
      "ĠGest": 3105,
      "Ġjederzeit": 3106,
      "Ġ?": 3107,
      "ĠAlter": 3108,
      "ĠSÃ¼d": 3109,
      "wegs": 3110,
      "ĠAk": 3111,
      "ĠVerkehr": 3112,
      "Ġallein": 3113,
      "Ġfinanz": 3114,
      "abhÃ¤ng": 3115,
      "ĠVergleich": 3116,
      "ograf": 3117,
      "walt": 3118,
      "gessen": 3119,
      "ĠPolizei": 3120,
      "ĠHeraus": 3121,
      "stoff": 3122,
      "ĠVoraus": 3123,
      "ĠComp": 3124,
      "Ġgestellt": 3125,
      "ĠEntscheidung": 3126,
      "weile": 3127,
      "Ġgern": 3128,
      "igte": 3129,
      "ĠJahrh": 3130,
      "ĠVielleicht": 3131,
      "wiesen": 3132,
      "iter": 3133,
      "ĠWetter": 3134,
      "Ġbald": 3135,
      "fest": 3136,
      "nov": 3137,
      "ĠLÃ¶sung": 3138,
      "Ġderzeit": 3139,
      "ĠSchweiz": 3140,
      "ĠÃ¤hn": 3141,
      "ĠPe": 3142,
      "ĠtatsÃ¤chlich": 3143,
      "ram": 3144,
      "Ġ2012": 3145,
      "ĠMonate": 3146,
      "ĠverÃ¶ffentlich": 3147,
      "ĠLicht": 3148,
      "Ġkostenlos": 3149,
      "Ġheut": 3150,
      "ĠGeburt": 3151,
      "ĠFebruar": 3152,
      "Ġauszu": 3153,
      "furt": 3154,
      "Ġrein": 3155,
      "Ġirgendw": 3156,
      "ierungs": 3157,
      "Ġkur": 3158,
      "ĠMonat": 3159,
      "met": 3160,
      "Ġ26": 3161,
      "ĠAktion": 3162,
      "Ġzw": 3163,
      "ĠKur": 3164,
      "Ġschreiben": 3165,
      "Ġunver": 3166,
      "ĠImm": 3167,
      "ĠMeine": 3168,
      "Ġentde": 3169,
      "Ġalten": 3170,
      "eier": 3171,
      "Ġentwickelt": 3172,
      "meldung": 3173,
      "ĠfrÃ¼her": 3174,
      "ĠBank": 3175,
      "ĠÃĦn": 3176,
      "ĠPraxis": 3177,
      "Ġ27": 3178,
      "eting": 3179,
      "hÃ¤ltnis": 3180,
      "ĠRis": 3181,
      "klus": 3182,
      "Ġdessen": 3183,
      "ĠSitz": 3184,
      "die": 3185,
      "ĠTem": 3186,
      "Ġfand": 3187,
      "ĠerfÃ¼": 3188,
      "ĠBesonder": 3189,
      "ategor": 3190,
      "ĠSteuer": 3191,
      "Ġzweiten": 3192,
      "Ġempfehlen": 3193,
      "Ġrichtige": 3194,
      "ĠSituation": 3195,
      "orgt": 3196,
      "Ġbeste": 3197,
      "ĠHe": 3198,
      "Ġjeweils": 3199,
      "ĠAlles": 3200,
      "ĠWider": 3201,
      "ĠDet": 3202,
      "ĠBeratung": 3203,
      "hren": 3204,
      "ĠSchlaf": 3205,
      "gesehen": 3206,
      "ĠChar": 3207,
      "kungen": 3208,
      "ĠhÃ¤ufig": 3209,
      "Ġsozi": 3210,
      "Ġzeit": 3211,
      "Ġfahren": 3212,
      "ĠbeschÃ¤ft": 3213,
      "ĠFlÃ¼": 3214,
      "ES": 3215,
      "Ġinsgesamt": 3216,
      "ĠHamburg": 3217,
      "ĠSchÃ¶n": 3218,
      "Ġgesetz": 3219,
      "Ġhei": 3220,
      "Ġkleiner": 3221,
      "ĠKrit": 3222,
      "ĠDisk": 3223,
      "richtung": 3224,
      "zeugen": 3225,
      "schrift": 3226,
      "ĠMonaten": 3227,
      "Ġbestimmt": 3228,
      "ĠGedanken": 3229,
      "bahn": 3230,
      "Ġdenke": 3231,
      "Ã¤mlich": 3232,
      "egal": 3233,
      "ĠZusammenarbeit": 3234,
      "ĠStu": 3235,
      "Ġverstehen": 3236,
      "Ã¶lker": 3237,
      "ots": 3238,
      "altungen": 3239,
      "Ġgrund": 3240,
      "fÃ¤lt": 3241,
      "ĠAnd": 3242,
      "itter": 3243,
      "dustrie": 3244,
      "Ã¤nge": 3245,
      "ĠZweck": 3246,
      "ĠWunsch": 3247,
      "Ġaufgrund": 3248,
      "Ġscheint": 3249,
      "test": 3250,
      "ĠDruck": 3251,
      "ĠprÃ¤sent": 3252,
      "Ġmittler": 3253,
      "ruf": 3254,
      "ĠAufgaben": 3255,
      "ĠJo": 3256,
      "ĠAktiv": 3257,
      "orm": 3258,
      "Ġverein": 3259,
      "kel": 3260,
      "ĠWarum": 3261,
      "ĠhÃ¶ch": 3262,
      "Ġfal": 3263,
      "teilung": 3264,
      "Ġbringt": 3265,
      "bedingt": 3266,
      "geln": 3267,
      "Ġged": 3268,
      "GB": 3269,
      "uell": 3270,
      "iti": 3271,
      "Ġro": 3272,
      "ĠEng": 3273,
      "Ġprakt": 3274,
      "ĠKlim": 3275,
      "ĠSen": 3276,
      "afft": 3277,
      "zahlen": 3278,
      "ammlung": 3279,
      "ziehung": 3280,
      "ĠAntwort": 3281,
      "daten": 3282,
      "ĠHei": 3283,
      "ĠNatÃ¼rlich": 3284,
      "Ġmodern": 3285,
      "fil": 3286,
      "ochen": 3287,
      "Ġfunktioniert": 3288,
      "ĠMeer": 3289,
      "ĠNa": 3290,
      "ĠUmwelt": 3291,
      "iew": 3292,
      "15": 3293,
      "ĠVerarbeitung": 3294,
      "wegen": 3295,
      "Ġtreffen": 3296,
      "Ġeurop": 3297,
      "ĠWett": 3298,
      "ĠBahn": 3299,
      "Ã¤ngt": 3300,
      "Ġverg": 3301,
      "Ġverz": 3302,
      "ĠPap": 3303,
      "Ġ*": 3304,
      "mo": 3305,
      "ĠSpieler": 3306,
      "ĠFort": 3307,
      "ĠIdeen": 3308,
      "ĠBon": 3309,
      "ĠnÃ¤": 3310,
      "ĠUnternehmens": 3311,
      "ĠKil": 3312,
      "Ġne": 3313,
      "prochen": 3314,
      "nach": 3315,
      "zentr": 3316,
      "Ġverbesser": 3317,
      "Ġtrotzdem": 3318,
      "ĠEben": 3319,
      "ĠpersÃ¶nlichen": 3320,
      "Ġeinzelnen": 3321,
      "Ġ80": 3322,
      "ĠSmart": 3323,
      "ĠgehÃ¶ren": 3324,
      "ĠExper": 3325,
      "ĠGemeinde": 3326,
      "folge": 3327,
      "ĠStre": 3328,
      "Ġzufrieden": 3329,
      "ĠMÃ¤nner": 3330,
      "ament": 3331,
      "Ġetc": 3332,
      "radition": 3333,
      "kosten": 3334,
      "rt": 3335,
      "ĠschÃ¶nen": 3336,
      "ĠMag": 3337,
      "stÃ¤ndig": 3338,
      "ĠGleich": 3339,
      "ath": 3340,
      "Ġstand": 3341,
      "ĠArch": 3342,
      "Ġentst": 3343,
      "ĠWebseite": 3344,
      "bringen": 3345,
      "spekt": 3346,
      "wertung": 3347,
      "Ġbem": 3348,
      "ĠTipps": 3349,
      "ca": 3350,
      "system": 3351,
      "ĠBran": 3352,
      "Ã¼lt": 3353,
      "reiten": 3354,
      "Ġtolle": 3355,
      "osition": 3356,
      "Ġ;": 3357,
      "ĠFreude": 3358,
      "ĠGebÃ¤u": 3359,
      "ĠkÃ¶nnt": 3360,
      "nete": 3361,
      "ĠnÃ¤mlich": 3362,
      "Ġautomat": 3363,
      "ĠTod": 3364,
      "ĠEis": 3365,
      "ĠHome": 3366,
      "ĠPatienten": 3367,
      "zwischen": 3368,
      "Ġverwenden": 3369,
      "Ġbrauchen": 3370,
      "Ġfreund": 3371,
      "gruppe": 3372,
      "Ġanderes": 3373,
      "ino": 3374,
      "Ġspann": 3375,
      "fragen": 3376,
      "ĠStellen": 3377,
      "Ġgeschrieben": 3378,
      "ĠtÃ¤glich": 3379,
      "2018": 3380,
      "ĠVoll": 3381,
      "iko": 3382,
      "âĤ¬": 3383,
      "Ġecht": 3384,
      "ĠAngebote": 3385,
      "gien": 3386,
      "Ã¶st": 3387,
      "ĠWÃ¼n": 3388,
      "leg": 3389,
      "ĠTitel": 3390,
      "Ġwert": 3391,
      "ĠKlein": 3392,
      "ĠDeshalb": 3393,
      "ickt": 3394,
      "aschinen": 3395,
      "ĠPreise": 3396,
      "Ġweiterhin": 3397,
      "ĠLink": 3398,
      "ĠnÃ¤chste": 3399,
      "ĠMenge": 3400,
      "Ġschaffen": 3401,
      "Ã¤dchen": 3402,
      "isse": 3403,
      "ertig": 3404,
      "ari": 3405,
      "ĠPflege": 3406,
      "othe": 3407,
      "ĠvÃ¶": 3408,
      "ĠAnsp": 3409,
      "ĠUmgebung": 3410,
      "Ġerreicht": 3411,
      "preis": 3412,
      "ĠKÃ¼che": 3413,
      "Ã¤ufer": 3414,
      "Ġ2011": 3415,
      "Ġzul": 3416,
      "Ġletzte": 3417,
      "ĠerhÃ¶": 3418,
      "ĠInhalte": 3419,
      "ĠMich": 3420,
      "ĠBoden": 3421,
      "beg": 3422,
      "Ġunbedingt": 3423,
      "rÃ¼fung": 3424,
      "scheinlich": 3425,
      "Ġdigit": 3426,
      "Ġinformieren": 3427,
      "ĠAllerdings": 3428,
      "pfer": 3429,
      "ĠWÃ¤hrend": 3430,
      "schlÃ¤": 3431,
      "Ġbekommt": 3432,
      "Ã¼rd": 3433,
      "Ġziemlich": 3434,
      "Ġruh": 3435,
      "ĠSan": 3436,
      "Ġfolgende": 3437,
      "kreis": 3438,
      "ĠWeihnacht": 3439,
      "ull": 3440,
      "emin": 3441,
      "ins": 3442,
      "ĠInd": 3443,
      "ĠBesucher": 3444,
      "schw": 3445,
      "ĠMoment": 3446,
      "ĠBeweg": 3447,
      "ĠVeranstaltung": 3448,
      "Ġide": 3449,
      "Ġsprechen": 3450,
      "len": 3451,
      "ĠSache": 3452,
      "gn": 3453,
      "wissen": 3454,
      "Ġ197": 3455,
      "haltung": 3456,
      "ĠWissenschaft": 3457,
      "ĠFehler": 3458,
      "ĠProduktion": 3459,
      "Ġ_": 3460,
      "ĠStudien": 3461,
      "plan": 3462,
      "oo": 3463,
      "ĠstÃ¤r": 3464,
      "ĠLei": 3465,
      "Ġjeweiligen": 3466,
      "gbar": 3467,
      "eilen": 3468,
      "leistungen": 3469,
      "ĠJahrhundert": 3470,
      "ĠAngst": 3471,
      "itze": 3472,
      "ĠBi": 3473,
      "Ġdarum": 3474,
      "techn": 3475,
      "Ġnimmt": 3476,
      "hilfe": 3477,
      "ĠwÃ¼nschen": 3478,
      "mehr": 3479,
      "ĠRichtung": 3480,
      "Ġgenommen": 3481,
      "ĠzunÃ¤chst": 3482,
      "ĠBedeut": 3483,
      "achst": 3484,
      "Ġrichtigen": 3485,
      "ĠAngaben": 3486,
      "??": 3487,
      "denken": 3488,
      "ĠZug": 3489,
      "rifft": 3490,
      ".,": 3491,
      "PD": 3492,
      "ĠNr": 3493,
      "ĠSonnen": 3494,
      "gest": 3495,
      "istr": 3496,
      "Ġunseres": 3497,
      "ĠHallo": 3498,
      "ĠSozial": 3499,
      "ĠAbst": 3500,
      "roh": 3501,
      "mel": 3502,
      "prÃ¼": 3503,
      "ĠNutzer": 3504,
      "sident": 3505,
      "sichtig": 3506,
      "ĠWieder": 3507,
      "ĠHal": 3508,
      "ĠGra": 3509,
      "ĠInhalt": 3510,
      "ĠerklÃ¤rt": 3511,
      "ĠÃ¤l": 3512,
      "ĠKann": 3513,
      "IT": 3514,
      "Ġselber": 3515,
      "orte": 3516,
      "ue": 3517,
      "ĠAlltag": 3518,
      "ĠSehr": 3519,
      "Ġbil": 3520,
      "ĠSicht": 3521,
      "losen": 3522,
      "ĠpersÃ¶nlich": 3523,
      "ĠDok": 3524,
      "ffekt": 3525,
      "ĠFeuer": 3526,
      "ĠPersonal": 3527,
      "ĠDetail": 3528,
      "zte": 3529,
      "Ġ29": 3530,
      "how": 3531,
      "ĠOl": 3532,
      "dlich": 3533,
      "Ġdeutsche": 3534,
      "gefÃ¼hrt": 3535,
      "Ġ2010": 3536,
      "bank": 3537,
      "Ġdamals": 3538,
      "inden": 3539,
      "ĠHaut": 3540,
      "ĠGar": 3541,
      "Ġext": 3542,
      "ĠgenieÃŁen": 3543,
      "Ġdau": 3544,
      "ĠPass": 3545,
      "ums": 3546,
      "ĠJob": 3547,
      "ĠDeine": 3548,
      "ĠSuper": 3549,
      "Ġerle": 3550,
      "!!!": 3551,
      "Ã¼rf": 3552,
      "ĠGrÃ¼": 3553,
      "alisierung": 3554,
      "ungsver": 3555,
      "ĠBeginn": 3556,
      "Ġthe": 3557,
      "ĠIT": 3558,
      "ĠFolgen": 3559,
      "ĠKa": 3560,
      "uld": 3561,
      "ĠgewÃ¤hr": 3562,
      "bieten": 3563,
      "Ġkeiner": 3564,
      "Ġbisschen": 3565,
      "ĠInvest": 3566,
      "ĠlÃ¤uft": 3567,
      "ĠLeider": 3568,
      "ĠAnspruch": 3569,
      "ĠSaison": 3570,
      "peratur": 3571,
      "oper": 3572,
      "ĠFoto": 3573,
      "Ġunten": 3574,
      "aat": 3575,
      "ĠVerbindung": 3576,
      "Ġgekommen": 3577,
      "www": 3578,
      "ĠRom": 3579,
      "ows": 3580,
      "Ġzumindest": 3581,
      "ĠCon": 3582,
      "Ġrel": 3583,
      "ĠMontag": 3584,
      "IE": 3585,
      "riften": 3586,
      "ĠStÃ¤d": 3587,
      "Ã¼nstler": 3588,
      "denten": 3589,
      "ĠvÃ¶llig": 3590,
      "ĠkÃ¶nnten": 3591,
      "Ġehr": 3592,
      "ĠFolge": 3593,
      "ĠInstitut": 3594,
      "ĠBedeutung": 3595,
      "ĠKirche": 3596,
      "Ġtragen": 3597,
      "Ġlin": 3598,
      "Ġangeboten": 3599,
      "Ġhohen": 3600,
      "Ġzehn": 3601,
      "ĠStrom": 3602,
      "ĠIns": 3603,
      "attet": 3604,
      "ĠPrin": 3605,
      "ĠLeistungen": 3606,
      "sÃ¤tzlich": 3607,
      "oder": 3608,
      "Er": 3609,
      "Ġgepl": 3610,
      "Ġdr": 3611,
      "ĠStraÃŁe": 3612,
      "ĠunterstÃ¼tzt": 3613,
      "ĠFreunde": 3614,
      "jÃ¤hrige": 3615,
      "ĠGesamt": 3616,
      "mand": 3617,
      "raten": 3618,
      "Ġhoffe": 3619,
      "Ġdrau": 3620,
      "Ġpassiert": 3621,
      "ork": 3622,
      "reib": 3623,
      "ĠSh": 3624,
      "ĠHeil": 3625,
      "such": 3626,
      "bach": 3627,
      "ĠElekt": 3628,
      "ĠÃĦnder": 3629,
      "Ġerkennen": 3630,
      "ĠAnder": 3631,
      "besch": 3632,
      "Ġbefinden": 3633,
      "Ġdeinen": 3634,
      "teilen": 3635,
      "obei": 3636,
      "ĠDein": 3637,
      "ĠMil": 3638,
      "fangen": 3639,
      "lieÃŁend": 3640,
      "Ġhilft": 3641,
      "Ġbeginnt": 3642,
      "Ġorganis": 3643,
      "ĠmÃ¶glichst": 3644,
      "ĠGesprÃ¤ch": 3645,
      "Ġspielt": 3646,
      "Ġeng": 3647,
      "Ġ+": 3648,
      "ĠBehandlung": 3649,
      "Ġfl": 3650,
      "ĠSinne": 3651,
      "ĠVerkauf": 3652,
      "Ein": 3653,
      "rop": 3654,
      "ĠBerg": 3655,
      "volle": 3656,
      "Ġwichtige": 3657,
      "ission": 3658,
      "Ġglaube": 3659,
      "ĠstÃ¤nd": 3660,
      "Ġ31": 3661,
      "Ġschwier": 3662,
      "ĠCar": 3663,
      "Ġnahe": 3664,
      "ĠFirma": 3665,
      "andels": 3666,
      "Ġmorgen": 3667,
      "Ġdanach": 3668,
      "meister": 3669,
      "ĠPunkt": 3670,
      "oph": 3671,
      "Ġdadurch": 3672,
      "roll": 3673,
      "herapie": 3674,
      "ĠWein": 3675,
      "aust": 3676,
      "get": 3677,
      "Ġselten": 3678,
      "rate": 3679,
      "edig": 3680,
      "60": 3681,
      "ka": 3682,
      "seit": 3683,
      "enthalt": 3684,
      "abil": 3685,
      "ĠVielen": 3686,
      "ernt": 3687,
      "ĠInnen": 3688,
      "pflicht": 3689,
      "Ġ90": 3690,
      "lose": 3691,
      "Ġebenso": 3692,
      "itten": 3693,
      "igin": 3694,
      "ĠAufgabe": 3695,
      "ĠPrivat": 3696,
      "reibung": 3697,
      "fÃ¼hrer": 3698,
      "ĠTerr": 3699,
      "Ġverh": 3700,
      "Ġbeide": 3701,
      "akter": 3702,
      "Ã¶ffnet": 3703,
      "ĠStaats": 3704,
      "ĠGrÃ¶ÃŁe": 3705,
      "okrat": 3706,
      "ĠZudem": 3707,
      "Ãľ": 3708,
      "nern": 3709,
      "ĠListe": 3710,
      "eiger": 3711,
      "spe": 3712,
      "Ġweltweit": 3713,
      "ĠInteressen": 3714,
      "Ġfort": 3715,
      "ĠLeistung": 3716,
      "mitt": 3717,
      "Ġknapp": 3718,
      "ĠGruppen": 3719,
      "Ġverbunden": 3720,
      "Ġkomplett": 3721,
      "ĠWochenende": 3722,
      "eige": 3723,
      "ĠMÃ¤dchen": 3724,
      "ĠIhres": 3725,
      "wÃ¤r": 3726,
      "ness": 3727,
      "umm": 3728,
      "th": 3729,
      "Ġbeein": 3730,
      "ĠVater": 3731,
      "ĠHerzen": 3732,
      "chter": 3733,
      "Ġsinn": 3734,
      "ĠKÃ¶l": 3735,
      "produ": 3736,
      "Ġ70": 3737,
      "Ġoptimal": 3738,
      "Ġenthalten": 3739,
      "ĠhÃ¤lt": 3740,
      "oppel": 3741,
      "âĢ¦]": 3742,
      "ĠMaÃŁnahmen": 3743,
      "merksam": 3744,
      "Ġur": 3745,
      "ĠMail": 3746,
      "Ġtot": 3747,
      "ĠMitte": 3748,
      "ĠBlut": 3749,
      "ĠEind": 3750,
      "air": 3751,
      "ĠFrankfurt": 3752,
      "resse": 3753,
      "bew": 3754,
      "ownlo": 3755,
      "Ġnah": 3756,
      "Ġbeachten": 3757,
      "Es": 3758,
      "Ġ!": 3759,
      "Ġaktuelle": 3760,
      "Ġhohe": 3761,
      "ĠOst": 3762,
      "ĠShop": 3763,
      "verstÃ¤ndlich": 3764,
      "mÃ¶glichkeiten": 3765,
      "ĠKategor": 3766,
      "ĠAlt": 3767,
      "ĠÃ¶ffentlichen": 3768,
      "ĠMÃ¶": 3769,
      "ĠTop": 3770,
      "bek": 3771,
      "ĠZeitpunkt": 3772,
      "Ġak": 3773,
      "ĠSprache": 3774,
      "Ġherzlich": 3775,
      "stieg": 3776,
      "ĠSc": 3777,
      "Ġmed": 3778,
      "Ã¼tzen": 3779,
      "ĠErgebnisse": 3780,
      "lapp": 3781,
      "Ġzahlreiche": 3782,
      "ĠStunde": 3783,
      "orge": 3784,
      "ĠKre": 3785,
      "Ġentwickeln": 3786,
      "wehr": 3787,
      "eicher": 3788,
      "Ã¼ssel": 3789,
      "oc": 3790,
      "sf": 3791,
      "ĠMÃ¼": 3792,
      "ĠKaff": 3793,
      "ĠMorgen": 3794,
      "straÃŁe": 3795,
      "nerstag": 3796,
      "ĠLÃ¤ndern": 3797,
      "Ġaktuell": 3798,
      "Ġlieber": 3799,
      "Ġindem": 3800,
      "Ġstets": 3801,
      "ationale": 3802,
      "Ġzudem": 3803,
      "ĠÃ¼bern": 3804,
      "Ġabzu": 3805,
      "Ġsechs": 3806,
      "ĠZusammenhang": 3807,
      "Ġberaten": 3808,
      "Ġgefallen": 3809,
      "Ġgesamten": 3810,
      "ĠHolz": 3811,
      "ĠÃ¤ndern": 3812,
      "Ġ'": 3813,
      "Ġgeeignet": 3814,
      "ĠLog": 3815,
      "ĠSinn": 3816,
      "ĠZent": 3817,
      "Ġschlecht": 3818,
      "rolle": 3819,
      "Ġeinger": 3820,
      "Ġraus": 3821,
      "ĠLi": 3822,
      "ĠWald": 3823,
      "Ġstar": 3824,
      "ĠTra": 3825,
      "urn": 3826,
      "Ġwichtigsten": 3827,
      "ĠArzt": 3828,
      "bewerb": 3829,
      "rÃ¤fte": 3830,
      "Ġbeglei": 3831,
      "ĠCD": 3832,
      "ĠFirmen": 3833,
      "ÌĪ": 3834,
      "Der": 3835,
      "ĠStraÃŁen": 3836,
      "orben": 3837,
      "Ġunterwegs": 3838,
      "hafen": 3839,
      "ĠKrieg": 3840,
      "ĠHel": 3841,
      "ĠStrand": 3842,
      "ĠKurz": 3843,
      "ou": 3844,
      "ĠIs": 3845,
      "view": 3846,
      "Ġfreue": 3847,
      "ĠChe": 3848,
      "mack": 3849,
      "jÃ¤hrigen": 3850,
      "treten": 3851,
      "Ġegal": 3852,
      "sein": 3853,
      "ĠAutor": 3854,
      "aschine": 3855,
      "spart": 3856,
      "ĠBek": 3857,
      "zentrum": 3858,
      "ĠBegriff": 3859,
      "Ġspeziell": 3860,
      "Ġmanchmal": 3861,
      "ĠTechnik": 3862,
      "ĠRuhe": 3863,
      "vÃ¶lker": 3864,
      "Ġbelieb": 3865,
      "Ġhabt": 3866,
      "ĠBeim": 3867,
      "ĠStaat": 3868,
      "Ġgenutzt": 3869,
      "ĠgrÃ¶ÃŁten": 3870,
      "ĠAnforderungen": 3871,
      "Ġhinzu": 3872,
      "ek": 3873,
      "ĠDaher": 3874,
      "Ġausgest": 3875,
      "ĠBasis": 3876,
      "reiber": 3877,
      "ement": 3878,
      "ĠFalls": 3879,
      "sver": 3880,
      "Ġversuchen": 3881,
      "ĠKan": 3882,
      "seh": 3883,
      "ĠfÃ¤llt": 3884,
      "ĠStandard": 3885,
      "ĠDis": 3886,
      "ĠJeder": 3887,
      "Ġ[âĢ¦]": 3888,
      "kur": 3889,
      "acken": 3890,
      "lern": 3891,
      "Ġgleichen": 3892,
      "Ã¤cht": 3893,
      "Ġ2009": 3894,
      "auch": 3895,
      "Ã¤hrung": 3896,
      "ĠFrÃ¼hstÃ¼ck": 3897,
      "ĠImmobil": 3898,
      "Ġerwartet": 3899,
      "AS": 3900,
      "ĠTÃ¤t": 3901,
      "ĠâĨ": 3902,
      "Ġprofession": 3903,
      "Ġaufzu": 3904,
      "Ġbegeist": 3905,
      "ĠVerfahren": 3906,
      "Ġgebracht": 3907,
      "Ġmax": 3908,
      "ĠregelmÃ¤ÃŁig": 3909,
      "ĠWelche": 3910,
      "ĠRhein": 3911,
      "ĠIt": 3912,
      "stall": 3913,
      "programm": 3914,
      "zut": 3915,
      "Ġerforderlich": 3916,
      "ĠRegierung": 3917,
      "ĠverÃ¶ffentlicht": 3918,
      "Ġsoweit": 3919,
      "flÃ¤che": 3920,
      "ĠBal": 3921,
      "ĠDass": 3922,
      "ĠSatz": 3923,
      "ĠKurs": 3924,
      "Ġvergessen": 3925,
      "orgung": 3926,
      "neten": 3927,
      "erweise": 3928,
      "ĠausschlieÃŁlich": 3929,
      "orient": 3930,
      "wig": 3931,
      "mut": 3932,
      "ĠCas": 3933,
      "Ġsorgen": 3934,
      "Ġdenken": 3935,
      "ĠReihe": 3936,
      "rÃ¤um": 3937,
      "ĠnÃ¶t": 3938,
      "llung": 3939,
      "ĠIndustrie": 3940,
      "ĠMobil": 3941,
      "Ġwider": 3942,
      "IS": 3943,
      "Ã¼tzt": 3944,
      "aun": 3945,
      "immel": 3946,
      "serv": 3947,
      "ogra": 3948,
      "ĠBedÃ¼rf": 3949,
      "ĠDeutsche": 3950,
      "ĠAnbieter": 3951,
      "ĠSchau": 3952,
      "ĠRech": 3953,
      "ĠRund": 3954,
      "ĠFÃ¤llen": 3955,
      "richtungen": 3956,
      "lefon": 3957,
      "iftung": 3958,
      "ĠWohl": 3959,
      "Ġwelcher": 3960,
      "twoch": 3961,
      "tliche": 3962,
      "alle": 3963,
      "ĠgroÃŁer": 3964,
      "ĠÃ¼brigen": 3965,
      "ĠChance": 3966,
      "ĠglÃ¼ck": 3967,
      "ĠbestÃ¤t": 3968,
      "ĠÃĦr": 3969,
      "Ã¤chen": 3970,
      "waltung": 3971,
      "ĠVersand": 3972,
      "ĠnÃ¤her": 3973,
      "ĠForum": 3974,
      "ĠVersion": 3975,
      "ĠCook": 3976,
      "itzt": 3977,
      "Ġleich": 3978,
      "ĠUN": 3979,
      "ĠBru": 3980,
      "ĠHig": 3981,
      "ĠBÃ¼cher": 3982,
      "ĠAnzahl": 3983,
      "Ġerleben": 3984,
      "ven": 3985,
      "Ġ:)": 3986,
      "ĠGeschen": 3987,
      "Ġerg": 3988,
      "tritt": 3989,
      "Ġalte": 3990,
      "Ġwundersch": 3991,
      "ometer": 3992,
      "Ġsolchen": 3993,
      "Ġsetzt": 3994,
      "ĠAusland": 3995,
      "Ġjunge": 3996,
      "viel": 3997,
      "asen": 3998,
      "ĠSmartph": 3999,
      "Ġwenige": 4000,
      "ĠBerufs": 4001,
      "di": 4002,
      "Ġsah": 4003,
      "ital": 4004,
      "ĠKommunikation": 4005,
      "Ġsogen": 4006,
      "Ġfindest": 4007,
      "nehm": 4008,
      "zÃ¼glich": 4009,
      "zun": 4010,
      "Ġzentr": 4011,
      "Ġleg": 4012,
      "ĠKlei": 4013,
      "ĠTrotz": 4014,
      "Ġgleichzeitig": 4015,
      "dass": 4016,
      "maÃŁ": 4017,
      "ime": 4018,
      "ĠfrÃ¼h": 4019,
      "ĠFen": 4020,
      "ĠDonnerstag": 4021,
      "AR": 4022,
      "ĠHund": 4023,
      "schung": 4024,
      "lauf": 4025,
      "Ġvorstellen": 4026,
      "ĠMetho": 4027,
      "loss": 4028,
      "ĠSpiele": 4029,
      "ediglich": 4030,
      "Ã¤ngen": 4031,
      "Ġperfekt": 4032,
      "schriften": 4033,
      "pd": 4034,
      "Ġgutes": 4035,
      "fluss": 4036,
      "see": 4037,
      "sphÃ¤re": 4038,
      "40": 4039,
      "entwick": 4040,
      "page": 4041,
      "vol": 4042,
      "ĠSym": 4043,
      "Ġmittlerweile": 4044,
      "ĠProjekte": 4045,
      "anzÃ¶s": 4046,
      "ĠVeranstaltungen": 4047,
      "Ġverantwort": 4048,
      "Ġumfassen": 4049,
      "tur": 4050,
      "zeuge": 4051,
      "schau": 4052,
      "ĠLust": 4053,
      "pack": 4054,
      "ĠTV": 4055,
      "Ġ2019": 4056,
      "asche": 4057,
      "Ġlangsam": 4058,
      "ĠGewinn": 4059,
      "iegel": 4060,
      "oss": 4061,
      "ĠBereichen": 4062,
      "atik": 4063,
      "Ġwirtschaft": 4064,
      "upp": 4065,
      "Ġlaut": 4066,
      "ĠschlieÃŁlich": 4067,
      "mÃ¶glichen": 4068,
      "ĠMotor": 4069,
      "Ġelekt": 4070,
      "ĠSchwer": 4071,
      "Ġberuf": 4072,
      "ĠInfos": 4073,
      "ĠAltern": 4074,
      "ĠRegen": 4075,
      "ĠHil": 4076,
      "AT": 4077,
      "ĠIr": 4078,
      "park": 4079,
      "ĠBenutz": 4080,
      "Ã¼rt": 4081,
      "Ġuntersch": 4082,
      "ĠhÃ¶ren": 4083,
      "wohner": 4084,
      "last": 4085,
      "Ġwarten": 4086,
      "auso": 4087,
      "ĠSchon": 4088,
      "ĠWindows": 4089,
      "lebnis": 4090,
      "lingen": 4091,
      "gern": 4092,
      "warz": 4093,
      "Ġdarin": 4094,
      "ĠSchm": 4095,
      "Adresse": 4096,
      "ĠFe": 4097,
      "ĠKreis": 4098,
      "ĠNational": 4099,
      "mittag": 4100,
      "Ġversucht": 4101,
      "Ġziehen": 4102,
      "iar": 4103,
      "Ġgesamte": 4104,
      "zig": 4105,
      "ownload": 4106,
      "ĠtÃ¤t": 4107,
      "flug": 4108,
      "ĠHoff": 4109,
      "Ġnotwendig": 4110,
      "ĠgewÃ¼n": 4111,
      "Ġbeantw": 4112,
      "geld": 4113,
      "weiter": 4114,
      "ĠhÃ¤tten": 4115,
      "wasser": 4116,
      "ĠGerÃ¤t": 4117,
      "zustellen": 4118,
      "ĠOrd": 4119,
      "ĠModell": 4120,
      "ox": 4121,
      "ĠZugang": 4122,
      "Ġerster": 4123,
      "anlage": 4124,
      "folgen": 4125,
      "ostet": 4126,
      "Ġdurchaus": 4127,
      "Ġgewinnen": 4128,
      "setzungen": 4129,
      ".-": 4130,
      "Ġausreichen": 4131,
      "ĠFarben": 4132,
      "ĠðŁĺ": 4133,
      "):": 4134,
      "ĠwÃ¤hlen": 4135,
      "mitte": 4136,
      "ĠEvent": 4137,
      "anen": 4138,
      "ĠSachen": 4139,
      "ĠComputer": 4140,
      "glisch": 4141,
      "17": 4142,
      "ĠKonz": 4143,
      "ĠKamer": 4144,
      "Ġhochwert": 4145,
      "Ġzweite": 4146,
      "Ġanges": 4147,
      "ĠAnge": 4148,
      "ferenz": 4149,
      "ĠermÃ¶glich": 4150,
      "Ġobwohl": 4151,
      "ĠÃ¤u": 4152,
      "ĠStudium": 4153,
      "ĠUmgang": 4154,
      "Ġgelesen": 4155,
      "ĠNoch": 4156,
      "ĠPunkte": 4157,
      "uh": 4158,
      "Ġeinzig": 4159,
      "nungs": 4160,
      "eiert": 4161,
      "ĠBab": 4162,
      "enntnis": 4163,
      "ĠZeiten": 4164,
      "ĠAntrag": 4165,
      "ĠNachdem": 4166,
      "zon": 4167,
      "ĠName": 4168,
      "les": 4169,
      "ds": 4170,
      "Ġirgendwie": 4171,
      "ĠverfÃ¼gt": 4172,
      "Ġerl": 4173,
      "irt": 4174,
      "Ġoffiz": 4175,
      "ĠArbeiten": 4176,
      "Ġdrin": 4177,
      "ĠAbl": 4178,
      "Ġzuvor": 4179,
      "ĠDiskuss": 4180,
      "ĠPhil": 4181,
      "Ber": 4182,
      "ĠAufenthalt": 4183,
      "Ġherr": 4184,
      "istischen": 4185,
      "Ġerhe": 4186,
      "iga": 4187,
      "Ġpasst": 4188,
      "ossen": 4189,
      "gebaut": 4190,
      "zeugt": 4191,
      "bert": 4192,
      "Ġ2008": 4193,
      "ssen": 4194,
      "ĠbenÃ¶tigen": 4195,
      "ĠTisch": 4196,
      "raucher": 4197,
      "ĠMeter": 4198,
      "laufen": 4199,
      "Ġanderer": 4200,
      "reite": 4201,
      "ĠFuÃŁball": 4202,
      "Ġtut": 4203,
      "ĠGelegen": 4204,
      "45": 4205,
      "ĠII": 4206,
      "Ġus": 4207,
      "ĠAma": 4208,
      "ĠVerÃ¤nder": 4209,
      "ĠiP": 4210,
      "ĠAust": 4211,
      "gegeben": 4212,
      "fs": 4213,
      "ĠDarÃ¼ber": 4214,
      "bauen": 4215,
      "ĠSonne": 4216,
      "ĠzusÃ¤tzlich": 4217,
      "enntnisse": 4218,
      "Ġverloren": 4219,
      "haben": 4220,
      "ĠBetreu": 4221,
      "ĠWest": 4222,
      "lÃ¶s": 4223,
      "ĠFahrzeug": 4224,
      "Ġperfe": 4225,
      "ĠHaar": 4226,
      "ĠMittwoch": 4227,
      "eichert": 4228,
      "Ġverlassen": 4229,
      "ĠMarketing": 4230,
      "pel": 4231,
      "ĠAbschluss": 4232,
      "Ġerwarten": 4233,
      "quem": 4234,
      "pflich": 4235,
      "Ġkonk": 4236,
      "hoben": 4237,
      "igungs": 4238,
      "Ã¤hrt": 4239,
      "ĠgefÃ¤llt": 4240,
      "ĠRed": 4241,
      "Ġschrift": 4242,
      "ĠErwachsen": 4243,
      "ecken": 4244,
      "ĠLÃ¶": 4245,
      "Ġbesuchen": 4246,
      "ĠHersteller": 4247,
      "ĠFrie": 4248,
      "pe": 4249,
      "Ġneuer": 4250,
      "ĠImmer": 4251,
      "Ã¤user": 4252,
      "Ġhistor": 4253,
      "ĠPfl": 4254,
      "iten": 4255,
      "Ġbestimmten": 4256,
      "Ġinteressant": 4257,
      "ĠKÃ¶nig": 4258,
      "ĠInsel": 4259,
      "ochter": 4260,
      "erin": 4261,
      "iment": 4262,
      "Ġdennoch": 4263,
      "ĠâĢ¢": 4264,
      "Ġkommenden": 4265,
      "out": 4266,
      "zunehmen": 4267,
      "ĠGet": 4268,
      "versicherung": 4269,
      "ziel": 4270,
      "ON": 4271,
      "ĠAnz": 4272,
      "Ġwobei": 4273,
      "ĠSuch": 4274,
      "ĠKÃ¶ln": 4275,
      "ĠErd": 4276,
      "Ġlieben": 4277,
      "Ġfertig": 4278,
      "wort": 4279,
      "ĠVorstand": 4280,
      "Ġentstehen": 4281,
      "Ġdefin": 4282,
      "ĠAnmeldung": 4283,
      "bÃ¼r": 4284,
      "Ġlau": 4285,
      "ĠMir": 4286,
      "Ã¼sse": 4287,
      "Pl": 4288,
      "Ġdeiner": 4289,
      "Ġmen": 4290,
      "yr": 4291,
      "seiten": 4292,
      "ierenden": 4293,
      "ĠDigit": 4294,
      "kunden": 4295,
      "ĠAG": 4296,
      "Ġ#": 4297,
      "ĠSohn": 4298,
      "Ġschauen": 4299,
      "ĠSchaden": 4300,
      "ĠInformation": 4301,
      "ĠLÃ¤nder": 4302,
      "tell": 4303,
      "sitzen": 4304,
      "err": 4305,
      "spar": 4306,
      "gehend": 4307,
      "barkeit": 4308,
      "entliche": 4309,
      "Ġnachdem": 4310,
      "ĠPC": 4311,
      "ĠGebÃ¤ude": 4312,
      "ĠVersicher": 4313,
      "25": 4314,
      "rÃ¤ger": 4315,
      "Ġlegen": 4316,
      "Ġ35": 4317,
      "alisiert": 4318,
      "afÃ¼r": 4319,
      "stellten": 4320,
      "ĠTre": 4321,
      "iellen": 4322,
      "ĠKunde": 4323,
      "ĠÃ¤lter": 4324,
      "ĠWÃ¼r": 4325,
      "ĠLÃ¶sungen": 4326,
      "ĠjÃ¤hr": 4327,
      "wind": 4328,
      "ĠPal": 4329,
      "ĠWaren": 4330,
      "ĠProzess": 4331,
      "attform": 4332,
      "Ġfragen": 4333,
      "wagen": 4334,
      "Ã¤den": 4335,
      "ĠTo": 4336,
      "ĠStat": 4337,
      "aschen": 4338,
      "lieben": 4339,
      "stre": 4340,
      "Ġpersonenbezogenen": 4341,
      "Ġunterschiedlichen": 4342,
      "Ġausgew": 4343,
      "Ġangen": 4344,
      "ĠKonzept": 4345,
      "ĠMie": 4346,
      "ĠSil": 4347,
      "ĠzusÃ¤tz": 4348,
      "ierungen": 4349,
      "ĠunabhÃ¤ng": 4350,
      "Ġwenigen": 4351,
      "gebiet": 4352,
      "Ġbewer": 4353,
      "ichter": 4354,
      "Ġhol": 4355,
      "Ã¼gen": 4356,
      "karte": 4357,
      "Ġbesonderen": 4358,
      "Ġwenden": 4359,
      "ĠFlÃ¼cht": 4360,
      "Ġentschieden": 4361,
      "unternehmen": 4362,
      "OS": 4363,
      "ĠItalien": 4364,
      "cial": 4365,
      "ĠermÃ¶glicht": 4366,
      "kom": 4367,
      "ĠFrankreich": 4368,
      "ĠTraum": 4369,
      "ama": 4370,
      "ĠSex": 4371,
      "icks": 4372,
      "rast": 4373,
      "alte": 4374,
      "ĠAuss": 4375,
      "aul": 4376,
      "Ġerlau": 4377,
      "Ġehem": 4378,
      "ĠUmsetzung": 4379,
      "ielle": 4380,
      "ĠGrÃ¼nden": 4381,
      "Ġlediglich": 4382,
      "Ġseines": 4383,
      "ommun": 4384,
      "ĠBur": 4385,
      "esten": 4386,
      "Ġbesondere": 4387,
      "ĠBevÃ¶lker": 4388,
      "ierter": 4389,
      "enne": 4390,
      "ĠAnfrage": 4391,
      "ĠAnaly": 4392,
      "fordert": 4393,
      "ĠBildung": 4394,
      "Ġdisk": 4395,
      "Ġklass": 4396,
      "ĠMain": 4397,
      "sh": 4398,
      "gelt": 4399,
      "ĠWege": 4400,
      "mail": 4401,
      "Ġseien": 4402,
      "Ġentw": 4403,
      "Mit": 4404,
      "urf": 4405,
      "med": 4406,
      "Ġguter": 4407,
      "stu": 4408,
      "ĠdurchgefÃ¼hrt": 4409,
      "echnet": 4410,
      "annen": 4411,
      "Ġeinzige": 4412,
      "ĠRel": 4413,
      "ĠHandy": 4414,
      "ĠBewer": 4415,
      "ĠOrganisation": 4416,
      "ĠAc": 4417,
      "Ġgenannten": 4418,
      "terne": 4419,
      "leiche": 4420,
      "ĠverfÃ¼gbar": 4421,
      "ancen": 4422,
      "rÃ¼cken": 4423,
      "bald": 4424,
      "jen": 4425,
      "ĠðŁĻ": 4426,
      "ÃŁt": 4427,
      "wser": 4428,
      "ĠDafÃ¼r": 4429,
      "Ġindividuell": 4430,
      "ĠSemin": 4431,
      "ĠBestellung": 4432,
      "akte": 4433,
      "Ġinternationalen": 4434,
      "sto": 4435,
      "Ġniemand": 4436,
      "ĠKarten": 4437,
      "sse": 4438,
      "arian": 4439,
      "zif": 4440,
      "ĠLiter": 4441,
      "Ġhalt": 4442,
      "Ġzuletzt": 4443,
      "hause": 4444,
      "ĠDienstag": 4445,
      "Ġwahrscheinlich": 4446,
      "nummer": 4447,
      "ĠHerbst": 4448,
      "ĠMacht": 4449,
      "ĠFarbe": 4450,
      "ĠauÃŁerdem": 4451,
      "Ġnachhalt": 4452,
      "bieren": 4453,
      "ĠAuÃŁen": 4454,
      "ĠfÃ¶r": 4455,
      "24": 4456,
      "ĠTats": 4457,
      "ĠGeburtstag": 4458,
      "ĠVerwendung": 4459,
      "kor": 4460,
      "VO": 4461,
      "eidet": 4462,
      "dorf": 4463,
      "Ã¼b": 4464,
      "kshop": 4465,
      "ĠForschung": 4466,
      "haf": 4467,
      "16": 4468,
      "holen": 4469,
      "lichkeiten": 4470,
      "ĠVis": 4471,
      "ĠRuss": 4472,
      "Ġintens": 4473,
      "dete": 4474,
      "ennung": 4475,
      "eiche": 4476,
      "verein": 4477,
      "ĠDach": 4478,
      "Ġ196": 4479,
      "Ġwann": 4480,
      "mittelt": 4481,
      "ĠgemÃ¼t": 4482,
      "Ġabsolut": 4483,
      "ĠBaum": 4484,
      "Innen": 4485,
      "ierende": 4486,
      "rief": 4487,
      "EL": 4488,
      "Ġbeteil": 4489,
      "Ã¤ssig": 4490,
      "ĠgemÃ¤ÃŁ": 4491,
      "reuz": 4492,
      "stattung": 4493,
      "US": 4494,
      "ĠNein": 4495,
      "Ġkennt": 4496,
      "ĠbenÃ¶tigt": 4497,
      "Ġverpflich": 4498,
      "anger": 4499,
      "Ġ500": 4500,
      "raut": 4501,
      "Ġjen": 4502,
      "ĠÃĸffentlich": 4503,
      "ĠKampf": 4504,
      "DF": 4505,
      "istik": 4506,
      "14": 4507,
      "geg": 4508,
      "ehmer": 4509,
      "ĠKarte": 4510,
      "ikt": 4511,
      "eucht": 4512,
      "vis": 4513,
      "ĠRechte": 4514,
      "recher": 4515,
      "Ġihres": 4516,
      "riffen": 4517,
      "leitung": 4518,
      "lernen": 4519,
      "Ġteilweise": 4520,
      "ĠBezug": 4521,
      "Aus": 4522,
      "ĠWÃ¼nsche": 4523,
      "uck": 4524,
      "ĠAnwendung": 4525,
      "abt": 4526,
      "partner": 4527,
      "ĠExperten": 4528,
      "Ġjungen": 4529,
      "lieb": 4530,
      "wesen": 4531,
      "ĠKlima": 4532,
      "ollar": 4533,
      "Ġentsprechend": 4534,
      "achtet": 4535,
      "leistung": 4536,
      "imme": 4537,
      "99": 4538,
      "Ġtelefon": 4539,
      "ĠwÃ¼nsche": 4540,
      "ael": 4541,
      "Ġgarant": 4542,
      "verkehr": 4543,
      "itionen": 4544,
      "ling": 4545,
      "Ġusw": 4546,
      "Ġgenauso": 4547,
      "ĠKlasse": 4548,
      "ille": 4549,
      "rÃ¼che": 4550,
      "press": 4551,
      "Ġgeboren": 4552,
      "Ġautomatisch": 4553,
      "ĠZentrum": 4554,
      "ĠMuseum": 4555,
      "iziert": 4556,
      "falt": 4557,
      "ĠHomepage": 4558,
      "Ġgelegen": 4559,
      "ĠBedarf": 4560,
      "uelle": 4561,
      "Ġdeinem": 4562,
      "ĠÃľberblick": 4563,
      "stÃ¤t": 4564,
      "eitern": 4565,
      "ĠÃ¼berras": 4566,
      "schn": 4567,
      "ĠHaft": 4568,
      "zin": 4569,
      "Ġreicht": 4570,
      "gericht": 4571,
      "ĠGesicht": 4572,
      "ĠMilliar": 4573,
      "arr": 4574,
      "ohlen": 4575,
      "ourn": 4576,
      "ike": 4577,
      "ĠGottes": 4578,
      "Ġbeginnen": 4579,
      "ĠkÃ¼": 4580,
      "Re": 4581,
      "ĠTex": 4582,
      "ĠTat": 4583,
      "ĠAktivitÃ¤ten": 4584,
      "ĠmuÃŁ": 4585,
      "Ġbewusst": 4586,
      "Ġdahin": 4587,
      "ĠGr": 4588,
      "burger": 4589,
      "ĠSach": 4590,
      "urm": 4591,
      "Ġqual": 4592,
      "ĠErinner": 4593,
      "ĠFenster": 4594,
      "Ġvoraus": 4595,
      "ĠVerhalten": 4596,
      "ĠHintergrund": 4597,
      "wirkungen": 4598,
      "ĠReich": 4599,
      "13": 4600,
      "uster": 4601,
      "ĠRein": 4602,
      "hann": 4603,
      "ĠGelegenheit": 4604,
      "els": 4605,
      "leiter": 4606,
      "wen": 4607,
      "ĠPlanung": 4608,
      "UN": 4609,
      "Ġehemal": 4610,
      "Ġalleine": 4611,
      "Ġbestimmte": 4612,
      "by": 4613,
      "Ġherunter": 4614,
      "ĠEg": 4615,
      "ĠTochter": 4616,
      "gemeinen": 4617,
      "ĠEntfern": 4618,
      "ĠDauer": 4619,
      "ĠDownload": 4620,
      "ĠFÃ¤h": 4621,
      "ĠWeihnachts": 4622,
      "JÃ¤hr": 4623,
      "ĠStein": 4624,
      "ĠBef": 4625,
      "Ġwissenschaft": 4626,
      "ĠBayern": 4627,
      "euten": 4628,
      "ĠpersÃ¶nliche": 4629,
      "dest": 4630,
      "ecker": 4631,
      "eckt": 4632,
      "ĠðŁĻĤ": 4633,
      "ĠKr": 4634,
      "ĠWander": 4635,
      "Ġgestalten": 4636,
      "ibel": 4637,
      "Ġentsprechenden": 4638,
      "ĠBett": 4639,
      "ĠHinweis": 4640,
      "ĠVerk": 4641,
      "Ġres": 4642,
      "ĠJed": 4643,
      "Ġinzwischen": 4644,
      "zahlung": 4645,
      "zahlt": 4646,
      "ĠEinen": 4647,
      "geschichte": 4648,
      "ĠMat": 4649,
      "gruppen": 4650,
      "na": 4651,
      "ĠVier": 4652,
      "ĠBesonders": 4653,
      "alk": 4654,
      "Ġsodass": 4655,
      "ĠReisen": 4656,
      "ĠgroÃŁes": 4657,
      "Ġbequem": 4658,
      "publik": 4659,
      "ĠZiele": 4660,
      "setzt": 4661,
      "ĠZwischen": 4662,
      "Ã¼tz": 4663,
      "adem": 4664,
      "ĠbetrÃ¤gt": 4665,
      "ĠStudie": 4666,
      "etzung": 4667,
      "ĠSee": 4668,
      "ĠBericht": 4669,
      "Ġ2007": 4670,
      "ĠTemperatur": 4671,
      "ĠDS": 4672,
      "isiert": 4673,
      "ĠfÃ¼hlen": 4674,
      "ĠÃ¼berall": 4675,
      "ehlt": 4676,
      "immungen": 4677,
      "Ġentgegen": 4678,
      "ĠVerantwortung": 4679,
      "ĠVideos": 4680,
      "ĠÃ¼bernehmen": 4681,
      "merzen": 4682,
      "ĠHeimat": 4683,
      "ĠÃĸffentlichkeit": 4684,
      "Ã¼hren": 4685,
      "irm": 4686,
      "ane": 4687,
      "ĠKor": 4688,
      "ĠCookies": 4689,
      "ĠgrÃ¼n": 4690,
      "ĠPo": 4691,
      "linge": 4692,
      "Ġfalsch": 4693,
      "Ġwichtiger": 4694,
      "schuss": 4695,
      "leisch": 4696,
      "Ġbetrach": 4697,
      "ĠSonder": 4698,
      "pft": 4699,
      "ĠAlb": 4700,
      "ĠDoppel": 4701,
      "spir": 4702,
      "ĠBade": 4703,
      "ĠGrundlage": 4704,
      "bs": 4705,
      "ĠTab": 4706,
      "itieren": 4707,
      "ĠGebie": 4708,
      "ĠMart": 4709,
      "ĠLinks": 4710,
      "ĠIS": 4711,
      "ĠstÃ¤ndig": 4712,
      "ĠKaffee": 4713,
      "ĠProdukten": 4714,
      "Ġmin": 4715,
      "raktion": 4716,
      "ĠTro": 4717,
      "sletter": 4718,
      "ĠVorteil": 4719,
      "over": 4720,
      "ĠBedingungen": 4721,
      "uhr": 4722,
      "ĠFlughafen": 4723,
      "ĠEnd": 4724,
      "erklÃ¤rung": 4725,
      "ĠFreizeit": 4726,
      "Ġerstellen": 4727,
      "ĠerklÃ¤ren": 4728,
      "ĠberÃ¼ck": 4729,
      "ĠKilometer": 4730,
      "ĠSpan": 4731,
      "elev": 4732,
      "ĠVolks": 4733,
      "reut": 4734,
      "garten": 4735,
      "Ġernst": 4736,
      "ĠKollegen": 4737,
      "itt": 4738,
      "ĠMedizin": 4739,
      "80": 4740,
      "ĠErde": 4741,
      "ĠGrÃ¼nde": 4742,
      "Ġ01": 4743,
      "Ġumfang": 4744,
      "Ġlohnt": 4745,
      "Ġmusst": 4746,
      "ĠTiere": 4747,
      "ĠgrÃ¶ÃŁte": 4748,
      "otto": 4749,
      "ĠUntersuch": 4750,
      "Ã¤lfte": 4751,
      "Ġsehe": 4752,
      "ĠTraining": 4753,
      "ĠHimmel": 4754,
      "ĠZahn": 4755,
      "ĠHunde": 4756,
      "ĠausdrÃ¼ck": 4757,
      "ĠTeilnahme": 4758,
      "Ġeinzigart": 4759,
      "Ġnochmal": 4760,
      "ĠVergangen": 4761,
      "Ġintegr": 4762,
      "Ġgebe": 4763,
      "passen": 4764,
      "Ġ>": 4765,
      "ĠAmazon": 4766,
      "Ġeingesetzt": 4767,
      "ĠLeser": 4768,
      "Ġgestern": 4769,
      "ĠEUR": 4770,
      "mÃ¶gen": 4771,
      "ĠDom": 4772,
      "Ġinteressiert": 4773,
      ".:": 4774,
      "ĠWichtig": 4775,
      "ĠKÃ¼nstler": 4776,
      "Ġmon": 4777,
      "Ġ45": 4778,
      "greifen": 4779,
      "Ġmehreren": 4780,
      "steuer": 4781,
      "alender": 4782,
      "stÃ¤nde": 4783,
      "gewÃ¶hn": 4784,
      "Ġspricht": 4785,
      "istische": 4786,
      "ĠGlau": 4787,
      "Ġung": 4788,
      "verband": 4789,
      "ĠVerÃ¶ffentlich": 4790,
      "stru": 4791,
      "Ġrelativ": 4792,
      "Ġeure": 4793,
      "ĠBestand": 4794,
      "haber": 4795,
      "mosphÃ¤re": 4796,
      "Ġmiteinander": 4797,
      "beitet": 4798,
      ",-": 4799,
      "Ġmm": 4800,
      "ĠvielfÃ¤lt": 4801,
      "zep": 4802,
      "aket": 4803,
      "ĠgegrÃ¼n": 4804,
      "Ġheutigen": 4805,
      "ĠGold": 4806,
      "blich": 4807,
      "ĠLeistungs": 4808,
      "ollen": 4809,
      "oben": 4810,
      "ĠEntfernung": 4811,
      "gehÃ¶r": 4812,
      "iness": 4813,
      "ĠEv": 4814,
      "ĠgefÃ¤hr": 4815,
      "int": 4816,
      "ĠSchrift": 4817,
      "ĠVereins": 4818,
      "ĠStutt": 4819,
      "ller": 4820,
      "ĠAntworten": 4821,
      "ĠWeil": 4822,
      "!âĢľ": 4823,
      "Ġachten": 4824,
      "aster": 4825,
      "Ġrei": 4826,
      "rÃ¼cke": 4827,
      "fÃ¤higkeit": 4828,
      "ĠermÃ¶glichen": 4829,
      "res": 4830,
      "ĠHochzeit": 4831,
      "Ġeingesch": 4832,
      "OR": 4833,
      "ĠBaden": 4834,
      "fo": 4835,
      "Ġverbessern": 4836,
      "ĠGrenzen": 4837,
      "Ġschneller": 4838,
      "Ã¶tzlich": 4839,
      "Ġgedacht": 4840,
      "ĠGerade": 4841,
      "Ġextrem": 4842,
      "Ġwirst": 4843,
      "ĠMax": 4844,
      "Ġarbeitet": 4845,
      "ĠAdresse": 4846,
      "bereitung": 4847,
      "Ġleisten": 4848,
      "Ġkleines": 4849,
      "reter": 4850,
      "ĠDo": 4851,
      "forderung": 4852,
      "Ġsicherlich": 4853,
      "ĠMilliarden": 4854,
      "ĠEindruck": 4855,
      "Ġ@": 4856,
      "schlÃ¤ge": 4857,
      "raucht": 4858,
      "ĠRisiko": 4859,
      "apan": 4860,
      "Ġkrit": 4861,
      "uchs": 4862,
      "En": 4863,
      "Ġgeschlossen": 4864,
      "ĠVerm": 4865,
      "bruch": 4866,
      "ĠZeichen": 4867,
      "zeichen": 4868,
      "lafen": 4869,
      "renz": 4870,
      "ĠGlas": 4871,
      "ĠStar": 4872,
      "passt": 4873,
      "ĠGerÃ¤te": 4874,
      "abend": 4875,
      "Ġdagegen": 4876,
      "nungen": 4877,
      "Ã¼nftig": 4878,
      "ĠFÃ¼": 4879,
      "ĠArbeitgeber": 4880,
      "Ġglauben": 4881,
      "ĠZeitraum": 4882,
      "ttrakt": 4883,
      "ĠTrans": 4884,
      "freund": 4885,
      "ĠgrundsÃ¤tzlich": 4886,
      "ĠWolf": 4887,
      "zeichnung": 4888,
      "itÃ¤r": 4889,
      "ĠBevÃ¶lkerung": 4890,
      "gart": 4891,
      "ĠGefahr": 4892,
      "ĠFreunden": 4893,
      "eiern": 4894,
      "ĠÃ¤uÃŁer": 4895,
      "Ġsozialen": 4896,
      "ĠRestaurants": 4897,
      "Â´": 4898,
      "âĢĵ": 4899,
      "ĠGeist": 4900,
      "ĠAmer": 4901,
      "ĠNachbar": 4902,
      "igungen": 4903,
      "werte": 4904,
      "wendungen": 4905,
      "ĠCamp": 4906,
      "ĠZustand": 4907,
      "ĠEuropÃ¤ischen": 4908,
      "Ġherum": 4909,
      "ĠSand": 4910,
      "Ġkamen": 4911,
      "Ġwelchen": 4912,
      "pa": 4913,
      "amin": 4914,
      "itzer": 4915,
      "ĠGerne": 4916,
      "igur": 4917,
      "ĠausfÃ¼hr": 4918,
      "ĠFahrt": 4919,
      "ĠVergangenheit": 4920,
      "behÃ¶r": 4921,
      "Ġinstall": 4922,
      "Ã¶pf": 4923,
      "Ġand": 4924,
      "ĠKooper": 4925,
      "ĠbeschÃ¤ftigt": 4926,
      "Ġbegeistert": 4927,
      "Ġgenannt": 4928,
      "ĠBÃ¼ro": 4929,
      "ĠLiebl": 4930,
      "Ġabgeschlossen": 4931,
      "ĠNachrichten": 4932,
      "ĠTyp": 4933,
      "Ġzunehmen": 4934,
      "ĠAusstellung": 4935,
      "ĠBeitrÃ¤ge": 4936,
      "ĠSong": 4937,
      "ey": 4938,
      "ĠwÃ¤ren": 4939,
      "ĠÃ¼brigens": 4940,
      "Ġsolltest": 4941,
      "gelegt": 4942,
      "ĠKategorie": 4943,
      "Ġangegeben": 4944,
      "Ġfallen": 4945,
      "ĠFakt": 4946,
      "ffer": 4947,
      "kont": 4948,
      "kir": 4949,
      "ĠSÃ¼": 4950,
      "ĠWettbewerb": 4951,
      "Ġuner": 4952,
      "ĠKommentar": 4953,
      "Ġzahlreichen": 4954,
      "eisen": 4955,
      "ĠSpr": 4956,
      "hel": 4957,
      "kraft": 4958,
      "ĠMerk": 4959,
      "sprÃ¼n": 4960,
      "Ġbeob": 4961,
      "âĢĺ": 4962,
      "ĠGute": 4963,
      "ĠMichael": 4964,
      "Ã¶se": 4965,
      "ĠImmobilien": 4966,
      "Ġerinner": 4967,
      "ĠAnlage": 4968,
      "annung": 4969,
      "ĠHat": 4970,
      "System": 4971,
      "Vor": 4972,
      "sprache": 4973,
      "Ġmobil": 4974,
      "anne": 4975,
      "formen": 4976,
      "ĠGraf": 4977,
      "ĠJes": 4978,
      "bereit": 4979,
      "Ġgesetzt": 4980,
      "Ġerh": 4981,
      "Ġerneut": 4982,
      "ĠVerbraucher": 4983,
      "ED": 4984,
      "Ġsinnvoll": 4985,
      "ĠEinsch": 4986,
      "Ġkompeten": 4987,
      "Ġlag": 4988,
      "werke": 4989,
      "Ġacht": 4990,
      "Ġober": 4991,
      "ĠVerbesser": 4992,
      "bol": 4993,
      "ĠFerienwohn": 4994,
      "gesellschaft": 4995,
      "Ġ2000": 4996,
      "09": 4997,
      "Ġfolgt": 4998,
      "ĠEigent": 4999,
      "ĠGeschmack": 5000,
      "unkten": 5001,
      "zÃ¤hl": 5002,
      "ĠBeteil": 5003,
      "Ġtollen": 5004,
      "Ġmer": 5005,
      "ĠHar": 5006,
      "ĠAir": 5007,
      "Ġ)": 5008,
      "management": 5009,
      "isierung": 5010,
      "spr": 5011,
      "Ġdiskut": 5012,
      "Ġreduz": 5013,
      "chem": 5014,
      "arzt": 5015,
      "ĠtÃ¤tig": 5016,
      "icro": 5017,
      "Â°": 5018,
      "ĠInteress": 5019,
      "Ġklicken": 5020,
      "ffizien": 5021,
      "Ġ300": 5022,
      "Ġausgestattet": 5023,
      "Ġwichtigen": 5024,
      "ĠBrem": 5025,
      "Ġessen": 5026,
      "ĠGewalt": 5027,
      "Ġweder": 5028,
      "Ġmaximal": 5029,
      "hÃ¶r": 5030,
      "ĠStÃ¤r": 5031,
      "ammt": 5032,
      "stimmung": 5033,
      "ĠTrend": 5034,
      "hei": 5035,
      "Ġ2006": 5036,
      "ĠEinkauf": 5037,
      "ĠDienstleistungen": 5038,
      "ĠNetzwerk": 5039,
      "ymp": 5040,
      "ĠBack": 5041,
      "Ġgespannt": 5042,
      "iegen": 5043,
      "ĠPublik": 5044,
      "scheint": 5045,
      "ĠVorteile": 5046,
      "stitut": 5047,
      "ĠHann": 5048,
      "angebot": 5049,
      "Ġmachte": 5050,
      "ĠGrad": 5051,
      "AL": 5052,
      "gefÃ¤hr": 5053,
      "ĠVom": 5054,
      "Ġentstanden": 5055,
      "ĠZahlen": 5056,
      "ĠSchluss": 5057,
      "ĠBu": 5058,
      "Ġtotal": 5059,
      "Ġmoder": 5060,
      "Ġmache": 5061,
      "ĠGericht": 5062,
      "eils": 5063,
      "Ġniedr": 5064,
      "do": 5065,
      "hre": 5066,
      "ĠPsych": 5067,
      "ĠDetails": 5068,
      "Ar": 5069,
      "ĠSchweizer": 5070,
      "ĠWorkshop": 5071,
      "ĠNewsletter": 5072,
      "Ġproduz": 5073,
      "ĠTÃ¤tigkeit": 5074,
      "ĠBewegung": 5075,
      "ĠPresse": 5076,
      "Ġsauber": 5077,
      "ĠPeter": 5078,
      "ĠLesen": 5079,
      "ielen": 5080,
      "linie": 5081,
      "Ġgezeigt": 5082,
      "ĠWirkung": 5083,
      "ĠLager": 5084,
      "Ġreag": 5085,
      "ĠJugendliche": 5086,
      "Ġbein": 5087,
      "Ġkor": 5088,
      "Ġgespeichert": 5089,
      "Ġgelungen": 5090,
      "rig": 5091,
      "ĠUrs": 5092,
      "ĠDrei": 5093,
      "ĠJohann": 5094,
      "ĠgewÃ¼nsch": 5095,
      "ĠLaut": 5096,
      "rÃ¤ume": 5097,
      "Ġzuk": 5098,
      "ĠFunktionen": 5099,
      "ai": 5100,
      "grÃ¶": 5101,
      "GVO": 5102,
      "ĠTheater": 5103,
      "ĠSchiff": 5104,
      "Ġpositiv": 5105,
      "ĠUnterricht": 5106,
      "ution": 5107,
      "ĠManagement": 5108,
      "irn": 5109,
      "Ġentsprechende": 5110,
      "ĠBehÃ¶r": 5111,
      "Ġerwei": 5112,
      "ĠEt": 5113,
      "ĠMer": 5114,
      "ĠeuropÃ¤ischen": 5115,
      "Ġdauert": 5116,
      "?âĢľ": 5117,
      "ones": 5118,
      "ĠStaaten": 5119,
      "ĠKompeten": 5120,
      "uchte": 5121,
      "ĠTeile": 5122,
      "wo": 5123,
      "Ã¼sseld": 5124,
      "ĠGeschenk": 5125,
      "Ġaufgenommen": 5126,
      "Ġstarten": 5127,
      "Ġunterschiedlich": 5128,
      "ĠPfer": 5129,
      "ĠFÃ¶rderung": 5130,
      "ese": 5131,
      "ĠEd": 5132,
      "Ġdanke": 5133,
      "Ġhervorragen": 5134,
      "ĠIniti": 5135,
      "LAN": 5136,
      "ĠInterview": 5137,
      "ICH": 5138,
      "gren": 5139,
      "ĠverfÃ¼gen": 5140,
      "ĠSalz": 5141,
      "ĠkÃ¼r": 5142,
      "ĠNutzen": 5143,
      "ieten": 5144,
      "ĠVerkehrs": 5145,
      "gut": 5146,
      "bildungs": 5147,
      "05": 5148,
      "ternehmer": 5149,
      "spieler": 5150,
      "ĠSmartphone": 5151,
      "Ġabsch": 5152,
      "ĠLehrer": 5153,
      "ĠStrate": 5154,
      "sbed": 5155,
      "messen": 5156,
      "Ġengag": 5157,
      "ĠerhÃ¤ltlich": 5158,
      "22": 5159,
      "deck": 5160,
      "Ġsieben": 5161,
      "Ġeiniges": 5162,
      "omit": 5163,
      "Ġerscheint": 5164,
      "Ġwillst": 5165,
      "ĠjÃ¼n": 5166,
      "Ġerstellt": 5167,
      "fassung": 5168,
      "ĠNeue": 5169,
      "Ġvertreten": 5170,
      "klusive": 5171,
      "angt": 5172,
      "teuer": 5173,
      "Ġbekomm": 5174,
      "ĠerzÃ¤hlt": 5175,
      "ĠChina": 5176,
      "ĠHandels": 5177,
      "ĠAnschluss": 5178,
      "zur": 5179,
      "Ġunmittel": 5180,
      "Ġverantwortlich": 5181,
      "ĠBrowser": 5182,
      "stÃ¤ndigen": 5183,
      "ĠInnov": 5184,
      "etzte": 5185,
      "Ġgekauft": 5186,
      "Ã¤ndler": 5187,
      "ĠArchite": 5188,
      "Ġdrauf": 5189,
      "rufen": 5190,
      "mitglie": 5191,
      "zir": 5192,
      "formular": 5193,
      "Ġbegann": 5194,
      "Ã¤ngst": 5195,
      "Ġanbieten": 5196,
      "ĠTor": 5197,
      "ĠRussland": 5198,
      "rÃ¤gen": 5199,
      "ĠBeschÃ¤ft": 5200,
      "ĠEinige": 5201,
      "ĠSehen": 5202,
      "Ã¤st": 5203,
      "Ġlangen": 5204,
      "ĠHaben": 5205,
      "ĠSzen": 5206,
      "geht": 5207,
      "lass": 5208,
      "ĠBew": 5209,
      "lad": 5210,
      "Ã¤ische": 5211,
      "90": 5212,
      "Ġse": 5213,
      "agn": 5214,
      "rÃ¤ft": 5215,
      "2017": 5216,
      "Ġvoller": 5217,
      "ĠSchne": 5218,
      "ĠMarken": 5219,
      "ĠLang": 5220,
      "ĠWorte": 5221,
      "ournal": 5222,
      "Ġvern": 5223,
      "ministerium": 5224,
      "Ġtief": 5225,
      "ĠSchulen": 5226,
      "aup": 5227,
      "ĠHÃ¤lfte": 5228,
      "mmern": 5229,
      "ehme": 5230,
      "Ġries": 5231,
      "sonsten": 5232,
      "ĠOut": 5233,
      "ĠBetriebs": 5234,
      "Ġlebt": 5235,
      "ĠSollte": 5236,
      "jekten": 5237,
      "ĠSeine": 5238,
      "Te": 5239,
      "arch": 5240,
      "ile": 5241,
      "testen": 5242,
      "ĠVerstÃ¤nd": 5243,
      "ĠNachricht": 5244,
      "Ãĸ": 5245,
      "sÃ¤tze": 5246,
      "ĠRot": 5247,
      "ĠBern": 5248,
      "Ġbedeuten": 5249,
      "Ġmelden": 5250,
      "kÃ¼nd": 5251,
      "regierung": 5252,
      "Ġsteigen": 5253,
      "ĠSpezial": 5254,
      "ĠAtmosphÃ¤re": 5255,
      "rechte": 5256,
      "Ġpassende": 5257,
      "rid": 5258,
      "lament": 5259,
      "ĠFreiheit": 5260,
      "ve": 5261,
      "ĠInformations": 5262,
      "ĠStuttgart": 5263,
      "ikanischen": 5264,
      "technik": 5265,
      "Ġsex": 5266,
      "Ã¤mpfen": 5267,
      "Ġzahlen": 5268,
      "Ġwachsen": 5269,
      "ĠArbeitspl": 5270,
      "Ġentdecken": 5271,
      "elte": 5272,
      "ĠEngagement": 5273,
      "ĠHaushalt": 5274,
      "ĠBall": 5275,
      "Ġneg": 5276,
      "Kon": 5277,
      "aktiv": 5278,
      "Ġwillkommen": 5279,
      "Ġentweder": 5280,
      "Ġmensch": 5281,
      "Ġverpflichtet": 5282,
      "ĠWeihnachten": 5283,
      "Ġsucht": 5284,
      "ĠKrankheit": 5285,
      "ĠverÃ¤ndert": 5286,
      "Ã¤dt": 5287,
      "ĠselbstverstÃ¤ndlich": 5288,
      "Be": 5289,
      "Ġbestellen": 5290,
      "ux": 5291,
      "Ġkostet": 5292,
      "sa": 5293,
      "ĠPartei": 5294,
      "ĠVertrauen": 5295,
      "ĠwunderschÃ¶n": 5296,
      "ĠauÃŁerhalb": 5297,
      "ĠenthÃ¤lt": 5298,
      "ube": 5299,
      "ĠServer": 5300,
      "Ġdachte": 5301,
      "ĠFrieden": 5302,
      "ĠTon": 5303,
      "echseln": 5304,
      "rimin": 5305,
      "yer": 5306,
      "ĠPflanzen": 5307,
      "eidung": 5308,
      "ĠgefÃ¼hrt": 5309,
      "ĠBeziehung": 5310,
      "ĠWirtschafts": 5311,
      "reig": 5312,
      "iefer": 5313,
      "ĠStr": 5314,
      "Ġkontakt": 5315,
      "DS": 5316,
      "omas": 5317,
      "Ġkre": 5318,
      "ĠEinfluss": 5319,
      "Ġletzt": 5320,
      "empf": 5321,
      "ĠGemeinschaft": 5322,
      "Ġwus": 5323,
      "Ġgefragt": 5324,
      "Ġans": 5325,
      "Ġtran": 5326,
      "ĠDad": 5327,
      "TE": 5328,
      "Ġdire": 5329,
      "ĠPri": 5330,
      "ĠClub": 5331,
      "ĠStruktur": 5332,
      "ĠLinie": 5333,
      "ĠTw": 5334,
      "wÃ¼rd": 5335,
      "ĠZeu": 5336,
      "Ġsenden": 5337,
      "machen": 5338,
      "windigkeit": 5339,
      "ĠDokument": 5340,
      "ĠUnterschied": 5341,
      "ĠStandort": 5342,
      "ĠErnÃ¤hrung": 5343,
      "ĠQual": 5344,
      "holt": 5345,
      "Ġrechts": 5346,
      "Ġkurze": 5347,
      "Ġgetan": 5348,
      "Ġunterschiedliche": 5349,
      "Ã¤ume": 5350,
      "Ġfreut": 5351,
      "edia": 5352,
      "ĠSerie": 5353,
      "mode": 5354,
      "ĠtrÃ¤gt": 5355,
      "ĠMeister": 5356,
      "Ġph": 5357,
      "Ġtradition": 5358,
      "ĠbegrÃ¼": 5359,
      "Ġ195": 5360,
      "vel": 5361,
      "ĠEinfach": 5362,
      "ĠMesse": 5363,
      "Man": 5364,
      "vollen": 5365,
      "Ġlieb": 5366,
      "ĠRezept": 5367,
      "rechts": 5368,
      "Ġreich": 5369,
      "achtung": 5370,
      "ĠFel": 5371,
      "ĠWerbung": 5372,
      "ĠDorf": 5373,
      "Ġsparen": 5374,
      "Ġerlaubt": 5375,
      "Ġgeplant": 5376,
      "ĠMicro": 5377,
      "Ġgener": 5378,
      "Ġinteressante": 5379,
      "legung": 5380,
      "Ġattrakt": 5381,
      "06": 5382,
      "ĠWachst": 5383,
      "otiv": 5384,
      "temberg": 5385,
      "jenigen": 5386,
      "ias": 5387,
      "Ġverschw": 5388,
      "stoffe": 5389,
      "erseits": 5390,
      "ĠRechnung": 5391,
      "ĠÃ¼berzeugt": 5392,
      "ĠSicherheits": 5393,
      "fÃ¤lle": 5394,
      "Ġlok": 5395,
      "ĠOrigin": 5396,
      "ĠSprach": 5397,
      "fristig": 5398,
      "Ġbeschrieben": 5399,
      "ĠCharakter": 5400,
      "App": 5401,
      "ĠEnglisch": 5402,
      "Ġ2005": 5403,
      "ĠBot": 5404,
      "ĠnÃ¶tig": 5405,
      "So": 5406,
      "ĠBildungs": 5407,
      "arkt": 5408,
      "hung": 5409,
      "Ġteilen": 5410,
      "krieg": 5411,
      "ĠMannschaft": 5412,
      "Ġerfolgen": 5413,
      "ew": 5414,
      "linik": 5415,
      "ĠplÃ¶tzlich": 5416,
      "ĠEreig": 5417,
      "uhe": 5418,
      "ĠKirchen": 5419,
      "Ġsorgt": 5420,
      "ĠKombin": 5421,
      "Ġausreichend": 5422,
      "Ġinnov": 5423,
      "alz": 5424,
      "ĠAbt": 5425,
      "bedingungen": 5426,
      "ĠApple": 5427,
      "03": 5428,
      "spiele": 5429,
      "ĠMotto": 5430,
      "stud": 5431,
      "werden": 5432,
      "ĠerfÃ¼llen": 5433,
      "versammlung": 5434,
      "Ġausger": 5435,
      "Ġinformiert": 5436,
      "ĠVolk": 5437,
      "ĠWeiterlesen": 5438,
      "ĠÃ¶ffentlich": 5439,
      "ĠChancen": 5440,
      "Ġstud": 5441,
      "urop": 5442,
      "ĠdÃ¼rfte": 5443,
      "Ã¼ge": 5444,
      "Ġfehlt": 5445,
      "Ġberichtet": 5446,
      "ĠSchreiben": 5447,
      "bli": 5448,
      "Ã¼ren": 5449,
      "stechn": 5450,
      "ĠKamera": 5451,
      "Ġtechnischen": 5452,
      "ĠParis": 5453,
      "Ġrech": 5454,
      "nissen": 5455,
      "MS": 5456,
      "ĠBedÃ¼rfnisse": 5457,
      "ĠBaby": 5458,
      "Ġerreich": 5459,
      "weil": 5460,
      "ĠPosition": 5461,
      "Ġgehalten": 5462,
      "ink": 5463,
      "ĠFahrrad": 5464,
      "ĠFeld": 5465,
      "heber": 5466,
      "lÃ¤nd": 5467,
      "Ġprivaten": 5468,
      "Ġvorber": 5469,
      "achung": 5470,
      "ĠKein": 5471,
      "Ġdur": 5472,
      "Ġpolitischen": 5473,
      "Ġinternational": 5474,
      "sequ": 5475,
      "ĠBereits": 5476,
      "ates": 5477,
      "Ã¼rttemberg": 5478,
      "ĠAnsch": 5479,
      "auchen": 5480,
      "Ġdaraus": 5481,
      "ash": 5482,
      "Ġgleiche": 5483,
      "ong": 5484,
      "ĠÃ¼berprÃ¼": 5485,
      "iveau": 5486,
      "zielle": 5487,
      "ĠAlters": 5488,
      "linien": 5489,
      "geord": 5490,
      "ampag": 5491,
      "ĠRab": 5492,
      "Ġwesentlich": 5493,
      "Ġfalls": 5494,
      "rab": 5495,
      "zesse": 5496,
      "07": 5497,
      "ĠKlassen": 5498,
      "ĠschÃ¼tzen": 5499,
      "ĠJugendlichen": 5500,
      "gress": 5501,
      "Vers": 5502,
      "ĠWunder": 5503,
      "stellte": 5504,
      "Ã¤h": 5505,
      "ĠDan": 5506,
      "ĠerwÃ¤hn": 5507,
      "sprach": 5508,
      "ĠAss": 5509,
      "ĠUpd": 5510,
      "ĠKern": 5511,
      "luss": 5512,
      "Ġtechnische": 5513,
      "Ġ32": 5514,
      "ĠFreundin": 5515,
      "ĠglÃ¼cklich": 5516,
      "ĠergÃ¤n": 5517,
      "ĠMinister": 5518,
      "ĠKritik": 5519,
      "ssystem": 5520,
      "Ã¼hm": 5521,
      "ĠMaschinen": 5522,
      "ĠSollten": 5523,
      "ĠNor": 5524,
      "Ġdiver": 5525,
      "ĠErlebnis": 5526,
      "ĠkÃ¶rper": 5527,
      "ĠGri": 5528,
      "hard": 5529,
      "betrieb": 5530,
      "tete": 5531,
      "ĠBewertung": 5532,
      "sinn": 5533,
      "ĠPan": 5534,
      "ĠÃĦnderungen": 5535,
      "Ã¤ger": 5536,
      "ĠDatenschutzerklÃ¤rung": 5537,
      "ĠLieferung": 5538,
      "deten": 5539,
      "ĠLebensmittel": 5540,
      "ried": 5541,
      "ĠerfÃ¼llt": 5542,
      "ĠFa": 5543,
      "ĠnatÃ¼r": 5544,
      "anlagen": 5545,
      "ĠBrief": 5546,
      "sser": 5547,
      "wechsel": 5548,
      "Ġsamm": 5549,
      "pekt": 5550,
      "mittlung": 5551,
      "stÃ¤ndige": 5552,
      "DR": 5553,
      "fahrer": 5554,
      "ĠgeÃ¤ndert": 5555,
      "beite": 5556,
      "zeigen": 5557,
      "ĠLeip": 5558,
      "Ġangezeigt": 5559,
      "rael": 5560,
      "ĠIntegr": 5561,
      "ĠGebiet": 5562,
      "ĠAp": 5563,
      "ĠzÃ¤hlt": 5564,
      "Ġ36": 5565,
      "stÃ¤nden": 5566,
      "allen": 5567,
      "VD": 5568,
      "ĠBrÃ¼": 5569,
      "Ġfach": 5570,
      "ĠUmsatz": 5571,
      "ĠChem": 5572,
      "ĠHerausforderungen": 5573,
      "swert": 5574,
      "fachen": 5575,
      "Ġvieles": 5576,
      "lÃ¤ss": 5577,
      "Ġgesetzlichen": 5578,
      "ĠGewicht": 5579,
      "ĠForschungs": 5580,
      "ondon": 5581,
      "ript": 5582,
      "ĠWh": 5583,
      "ĠErkrank": 5584,
      "Ġeigenes": 5585,
      "Ġ193": 5586,
      "Ġbezahlen": 5587,
      "ld": 5588,
      "ĠgenÃ¼": 5589,
      "ĠFans": 5590,
      "ĠgegrÃ¼ndet": 5591,
      "Ġwollten": 5592,
      "ĠDadurch": 5593,
      "ĠDiskussion": 5594,
      "chst": 5595,
      "ĠPersÃ¶n": 5596,
      "ĠEgal": 5597,
      "Ġinvest": 5598,
      "Ġmei": 5599,
      "Ġ150": 5600,
      "ĠTreffen": 5601,
      "ĠDanach": 5602,
      "ĠUnfall": 5603,
      "Ġindividuelle": 5604,
      "ĠÃ¤hnlich": 5605,
      "back": 5606,
      "ĠDÃ¼sseld": 5607,
      "ĠFalle": 5608,
      "Ġhierzu": 5609,
      "ĠTel": 5610,
      "!\"": 5611,
      "Ġergeben": 5612,
      "tent": 5613,
      "omen": 5614,
      "ĠAch": 5615,
      "ĠGeheim": 5616,
      "Ġwirkt": 5617,
      "ĠTeams": 5618,
      "ĠPlay": 5619,
      "ikal": 5620,
      "zeh": 5621,
      "Ġwor": 5622,
      "ĠLive": 5623,
      "ĠOffen": 5624,
      "ĠBetreuung": 5625,
      "Ġschreibt": 5626,
      "gangs": 5627,
      "ĠVielzahl": 5628,
      "ĠUnterkunft": 5629,
      "Ġfrag": 5630,
      "ĠOpfer": 5631,
      "service": 5632,
      "ĠDirekt": 5633,
      "ĠBusiness": 5634,
      "Ġmeines": 5635,
      "ehrt": 5636,
      "Ġdauer": 5637,
      "kommt": 5638,
      "ĠSocial": 5639,
      "ĠNummer": 5640,
      "hafte": 5641,
      "gerufen": 5642,
      "ĠYork": 5643,
      "ĠVarian": 5644,
      "Ġgering": 5645,
      "ĠSein": 5646,
      "ĠstÃ¤rker": 5647,
      "hnung": 5648,
      "ĠBetroffen": 5649,
      "ĠSPD": 5650,
      "ĠVoraussetzungen": 5651,
      "Ġ194": 5652,
      "04": 5653,
      "rÃ¤nkt": 5654,
      "Ã¤rm": 5655,
      "Ġdarunter": 5656,
      "vertrag": 5657,
      "ĠDennoch": 5658,
      "ĠFernseh": 5659,
      "ĠRegeln": 5660,
      "ĠRunde": 5661,
      "08": 5662,
      "ĠHabe": 5663,
      "ĠGu": 5664,
      "ĠAben": 5665,
      "gÃ¤nge": 5666,
      "ĠPaar": 5667,
      "pfel": 5668,
      "Ġverkaufen": 5669,
      "ĠBerliner": 5670,
      "Ġaufs": 5671,
      "ĠMess": 5672,
      "Ġerstmal": 5673,
      "Ġberecht": 5674,
      "ĠFit": 5675,
      "plÃ¤tze": 5676,
      "da": 5677,
      "vention": 5678,
      "ĠPS": 5679,
      "Ġindividuellen": 5680,
      "scher": 5681,
      "barer": 5682,
      "cl": 5683,
      "ana": 5684,
      "ĠOhne": 5685,
      "ĠLandschaft": 5686,
      "Ġarbeite": 5687,
      "ĠVerd": 5688,
      "Ġmedizin": 5689,
      "ĠPrÃ¼fung": 5690,
      "ĠHalb": 5691,
      "ĠStiftung": 5692,
      "Ġgetroffen": 5693,
      "Ġbehandelt": 5694,
      "rochen": 5695,
      "Ġkonzentr": 5696,
      "ĠThomas": 5697,
      "ĠLeiden": 5698,
      "ĠPrakt": 5699,
      "ĠÃ¼berw": 5700,
      "Ġproblem": 5701,
      "Ġzuverl": 5702,
      "rucken": 5703,
      "verfahren": 5704,
      "ĠStil": 5705,
      "Ġzeig": 5706,
      "punkte": 5707,
      "ĠfranzÃ¶s": 5708,
      "Ġgehe": 5709,
      "va": 5710,
      "ĠSchlag": 5711,
      "ifik": 5712,
      "acher": 5713,
      "23": 5714,
      "ĠVerstÃ¤ndnis": 5715,
      "wertungen": 5716,
      "Ġpsych": 5717,
      "abet": 5718,
      "Ġunters": 5719,
      "ĠHol": 5720,
      "ĠTabl": 5721,
      "Ġwelchem": 5722,
      "ĠschÃ¶nes": 5723,
      "berat": 5724,
      "ĠprÃ¼": 5725,
      "ĠmÃ¶chtest": 5726,
      "eise": 5727,
      "onn": 5728,
      "ĠBrand": 5729,
      "Ġ:-)": 5730,
      "ĠEintritt": 5731,
      "zum": 5732,
      "ĠVit": 5733,
      "auftrag": 5734,
      "ĠMartin": 5735,
      "Â²": 5736,
      "zusetzen": 5737,
      "The": 5738,
      "ĠAuff": 5739,
      "enzen": 5740,
      "ĠgewÃ¤hlt": 5741,
      "ĠLondon": 5742,
      "bern": 5743,
      "ĠOrdnung": 5744,
      "Ġmussten": 5745,
      "bad": 5746,
      "ĠGef": 5747,
      "ĠKreuz": 5748,
      "hone": 5749,
      "ĠBin": 5750,
      "Ã¤dag": 5751,
      "ĠMotiv": 5752,
      "hlight": 5753,
      "das": 5754,
      "Ġakzept": 5755,
      "Ġirgendwann": 5756,
      "ĠvollstÃ¤ndig": 5757,
      "drich": 5758,
      "Ġamer": 5759,
      "ĠStimme": 5760,
      "ĠSind": 5761,
      "bliothe": 5762,
      "ĠHinweise": 5763,
      "Ġvermeiden": 5764,
      "ĠMio": 5765,
      "21": 5766,
      "kohol": 5767,
      "Ġregion": 5768,
      "fter": 5769,
      "mon": 5770,
      "Ġkomme": 5771,
      "icke": 5772,
      "ĠMig": 5773,
      "ĠgeÃ¶ffnet": 5774,
      "ĠÃľbersicht": 5775,
      "uft": 5776,
      "Ġgemeinsamen": 5777,
      "ĠUmfang": 5778,
      "Ġmittel": 5779,
      "ĠMass": 5780,
      "gebracht": 5781,
      "ET": 5782,
      "AG": 5783,
      "ĠElektro": 5784,
      "ĠgeschÃ¼tzt": 5785,
      "ĠSter": 5786,
      "ĠHÃ¼": 5787,
      "innern": 5788,
      "ĠEhe": 5789,
      "ĠâĨĴ": 5790,
      "ĠAustausch": 5791,
      "Ġgewonnen": 5792,
      "rastruktur": 5793,
      "Shop": 5794,
      "ames": 5795,
      "ĠLaufe": 5796,
      "Ġverbringen": 5797,
      "ĠSpielen": 5798,
      "qualitÃ¤t": 5799,
      "EG": 5800,
      "ĠKeine": 5801,
      "ĠTrau": 5802,
      "ĠMarke": 5803,
      "ĠMonats": 5804,
      "ĠKommentare": 5805,
      "ival": 5806,
      "ĠGibt": 5807,
      "ĠgÃ¼nstig": 5808,
      "TV": 5809,
      "Ġtrifft": 5810,
      "ĠTick": 5811,
      "angel": 5812,
      "Ġstimmt": 5813,
      "Ġbitten": 5814,
      "Ġgeschafft": 5815,
      "ĠAufbau": 5816,
      "ĠFC": 5817,
      "ĠPrem": 5818,
      "otion": 5819,
      "Ġkultur": 5820,
      "enk": 5821,
      "ĠZul": 5822,
      "ĠMittag": 5823,
      "Ġteilnehmen": 5824,
      "ĠPapier": 5825,
      "Ġentspricht": 5826,
      "Ġsorg": 5827,
      "hy": 5828,
      "ire": 5829,
      "ĠUnion": 5830,
      "Ġhoffen": 5831,
      "Ġbas": 5832,
      "ĠGetrÃ¤n": 5833,
      "ps": 5834,
      "ĠInsgesamt": 5835,
      "ĠsÃ¤m": 5836,
      "ĠZahlungs": 5837,
      "Dat": 5838,
      "ĠGenau": 5839,
      "Ġschwierig": 5840,
      "ĠLux": 5841,
      "ales": 5842,
      "hindern": 5843,
      "ory": 5844,
      "enken": 5845,
      "Ġmodernen": 5846,
      "pert": 5847,
      "verbind": 5848,
      "Ġpf": 5849,
      "lieÃŁt": 5850,
      "illa": 5851,
      "Ġkurzen": 5852,
      "ĠErsatz": 5853,
      "hÃ¶ren": 5854,
      "Ġdritten": 5855,
      "ĠðŁĺī": 5856,
      "Ġtyp": 5857,
      "Ġnennen": 5858,
      "ĠSeele": 5859,
      "ĠOper": 5860,
      "ĠPDF": 5861,
      "rachte": 5862,
      "ĠDeutschlands": 5863,
      "ĠKu": 5864,
      "ĠBud": 5865,
      "Ġevent": 5866,
      "ĠSchlafzimmer": 5867,
      "Ġbewegen": 5868,
      "ĠLeit": 5869,
      "ĠWil": 5870,
      "schnit": 5871,
      "isst": 5872,
      "andid": 5873,
      "Ġunglaub": 5874,
      "Ġeinst": 5875,
      "ĠMitarbeitern": 5876,
      "ines": 5877,
      "Ab": 5878,
      "stes": 5879,
      "ĠKontrolle": 5880,
      "Ġgesellschaft": 5881,
      "rinken": 5882,
      "reck": 5883,
      "ĠSing": 5884,
      "Ġdient": 5885,
      "dauer": 5886,
      "Ġbilden": 5887,
      "vier": 5888,
      "ĠDrit": 5889,
      "ĠHerrn": 5890,
      "ĠhÃ¤ngt": 5891,
      "umente": 5892,
      "Ġfreien": 5893,
      "ĠBanken": 5894,
      "Ġsozial": 5895,
      "ĠEinfÃ¼hrung": 5896,
      "karten": 5897,
      "folgt": 5898,
      "aill": 5899,
      "ĠObwohl": 5900,
      "Ġsitzen": 5901,
      "ĠTurn": 5902,
      "ĠWechsel": 5903,
      "zepte": 5904,
      "ĠSchnitt": 5905,
      "Ġeiniger": 5906,
      "ikro": 5907,
      "lÃ¶sung": 5908,
      "rennen": 5909,
      "istisch": 5910,
      "lappt": 5911,
      "ĠVerlag": 5912,
      "atter": 5913,
      "spf": 5914,
      "ĠHÃ¶r": 5915,
      "AM": 5916,
      "geschrieben": 5917,
      "ĠStudenten": 5918,
      "osoph": 5919,
      "hausen": 5920,
      "ortet": 5921,
      "assungs": 5922,
      "ĠEinblick": 5923,
      "mark": 5924,
      "kÃ¼n": 5925,
      "ĠFÃ¼hrung": 5926,
      "ĠWand": 5927,
      "ĠursprÃ¼n": 5928,
      "riere": 5929,
      "ĠâĢĶ": 5930,
      "box": 5931,
      "soft": 5932,
      "ĠGesundheits": 5933,
      "ĠKooperation": 5934,
      "Ġeinzelne": 5935,
      "ĠanschlieÃŁend": 5936,
      "Ã¤ne": 5937,
      "ĠAlex": 5938,
      "ĠLaden": 5939,
      "Ġelektron": 5940,
      "liste": 5941,
      "igem": 5942,
      "ics": 5943,
      "eichern": 5944,
      "Ġlinks": 5945,
      "ena": 5946,
      "Ġruhig": 5947,
      "ĠHandel": 5948,
      "ĠKÃ¼hl": 5949,
      "Ġladen": 5950,
      "Ġgegangen": 5951,
      "kul": 5952,
      "Ġnahm": 5953,
      "ĠPrinzip": 5954,
      "ĠPrÃ¤sident": 5955,
      "ĠBalkon": 5956,
      "Ġbeantworten": 5957,
      "ĠTherapie": 5958,
      "Ġzuerst": 5959,
      "ace": 5960,
      "ĠVo": 5961,
      "ĠmÃ¼sste": 5962,
      "Ġzieht": 5963,
      "entwicklung": 5964,
      "Ġprofitieren": 5965,
      "ĠWare": 5966,
      "Ã¼ltig": 5967,
      "Ġkommun": 5968,
      "ĠMaterialien": 5969,
      "spielen": 5970,
      "Ã¼cher": 5971,
      "anke": 5972,
      "ĠPil": 5973,
      "ĠKal": 5974,
      "Ġpassenden": 5975,
      "Ġeffekt": 5976,
      "Ġverf": 5977,
      "Ġreden": 5978,
      "ĠGeschichten": 5979,
      "ĠAndre": 5980,
      "ĠWerte": 5981,
      "ams": 5982,
      "ĠAuge": 5983,
      "Ġbessere": 5984,
      "Ġperfekte": 5985,
      "Ġbezeichnet": 5986,
      "Ġerlebt": 5987,
      "tend": 5988,
      "ĠHerausforderung": 5989,
      "Ġvorgestellt": 5990,
      "ĠTransport": 5991,
      "ziehungen": 5992,
      "Ġverhindern": 5993,
      "Ġkenne": 5994,
      "ĠzusÃ¤tzliche": 5995,
      "hlt": 5996,
      "Ġbetroffenen": 5997,
      "ĠGestaltung": 5998,
      "Ã¤testens": 5999,
      "Ġgez": 6000,
      "Ġexist": 6001,
      "ĠMel": 6002,
      "ĠSchlÃ¼ssel": 6003,
      "Ã¼cken": 6004,
      "blichen": 6005,
      "ĠMedik": 6006,
      "ĠGlauben": 6007,
      "ĠRÃ¼cken": 6008,
      "ĠLo": 6009,
      "ĠEinrichtung": 6010,
      "Ġsicht": 6011,
      "ĠÃĸl": 6012,
      "gelassen": 6013,
      "ĠÃ¼berzeugen": 6014,
      "ĠTri": 6015,
      "rug": 6016,
      "ĠAusgabe": 6017,
      "ĠBildern": 6018,
      "gte": 6019,
      "telligen": 6020,
      "zenz": 6021,
      "ĠSicher": 6022,
      "Ġdest": 6023,
      "ĠTradition": 6024,
      "ĠZugriff": 6025,
      "Ġgespielt": 6026,
      "ĠSpeicher": 6027,
      "Ġbeweg": 6028,
      "ĠLassen": 6029,
      "artet": 6030,
      "cm": 6031,
      "ĠPaul": 6032,
      "ĠFleisch": 6033,
      "ĠfÃ¼": 6034,
      "Ã¤mpf": 6035,
      "ĠHor": 6036,
      "oche": 6037,
      "Ġbuchen": 6038,
      "Ġerstmals": 6039,
      "ĠEmail": 6040,
      "Ġpolitische": 6041,
      "ĠTermine": 6042,
      "Was": 6043,
      "ĠEntsp": 6044,
      "leistet": 6045,
      "ichert": 6046,
      "ĠInstall": 6047,
      "ĠKonzert": 6048,
      "Sie": 6049,
      "ĠzÃ¤hlen": 6050,
      "volution": 6051,
      "Ġhilf": 6052,
      "Ġtelefonisch": 6053,
      "Ġverlieren": 6054,
      "Ġinternationale": 6055,
      "alisieren": 6056,
      "ĠAgen": 6057,
      "wenden": 6058,
      "ĠBunde": 6059,
      "Ġtro": 6060,
      "West": 6061,
      "chtet": 6062,
      "Ġliefern": 6063,
      "ĠVertrieb": 6064,
      "weite": 6065,
      "Ġflex": 6066,
      "opt": 6067,
      "Ġmel": 6068,
      "Ã¤umen": 6069,
      "ĠDÃ¼sseldorf": 6070,
      "ĠSupp": 6071,
      "ĠStÃ¤dte": 6072,
      "auschen": 6073,
      "Ġfroh": 6074,
      "Ġweiteres": 6075,
      "Ġweiterer": 6076,
      "ĠDro": 6077,
      "ĠprÃ¤sentieren": 6078,
      "amb": 6079,
      "ĠfÃ¶rdern": 6080,
      "leger": 6081,
      "ĠRelig": 6082,
      "berecht": 6083,
      "onen": 6084,
      "ĠTechnologie": 6085,
      "ĠlieÃŁ": 6086,
      "ĠKons": 6087,
      "ios": 6088,
      "ichtete": 6089,
      "po": 6090,
      "Ġgemeinsame": 6091,
      "Ġaufmerksam": 6092,
      "ĠKonto": 6093,
      "Ġjung": 6094,
      "ĠPoten": 6095,
      "merz": 6096,
      "Ġbreit": 6097,
      "ĠLiteratur": 6098,
      "akten": 6099,
      "Ġ2004": 6100,
      "we": 6101,
      "ĠGutschein": 6102,
      "Ã¤ck": 6103,
      "ologischen": 6104,
      "02": 6105,
      "ologien": 6106,
      "ĠKlar": 6107,
      "wart": 6108,
      "spartner": 6109,
      "ĠÃ¼bertragen": 6110,
      "ĠJahrzeh": 6111,
      "maÃŁen": 6112,
      "schrank": 6113,
      "riebe": 6114,
      "ĠfÃ¼hlt": 6115,
      "WÃ¼rttemberg": 6116,
      "Ġauspro": 6117,
      "Ġbehaup": 6118,
      "Ġerinnern": 6119,
      "Ġerled": 6120,
      "ĠiPhone": 6121,
      "tlichen": 6122,
      "log": 6123,
      "Ġhand": 6124,
      "ĠZeitung": 6125,
      "rasch": 6126,
      "use": 6127,
      "ĠWahrheit": 6128,
      "Ġev": 6129,
      "ĠAutom": 6130,
      "ĠVorder": 6131,
      "Ġehrlich": 6132,
      "ĠMedia": 6133,
      "Ġbekannte": 6134,
      "ĠRock": 6135,
      "ĠHy": 6136,
      "eilung": 6137,
      "elten": 6138,
      "Ġeinfache": 6139,
      "essour": 6140,
      "slam": 6141,
      "Ġtreten": 6142,
      "ĠStress": 6143,
      "Ġschau": 6144,
      "Ġ33": 6145,
      "Ġerscheinen": 6146,
      "Ġnett": 6147,
      "kunde": 6148,
      "denburg": 6149,
      "ĠFrem": 6150,
      "Ġeindeut": 6151,
      "ĠArten": 6152,
      "dat": 6153,
      "ĠHans": 6154,
      "ĠschÃ¶ner": 6155,
      "Ġzeich": 6156,
      "UR": 6157,
      "ĠunabhÃ¤ngig": 6158,
      "ĠKer": 6159,
      "mme": 6160,
      "ĠHÃ¤nde": 6161,
      "ĠBier": 6162,
      "Ġpar": 6163,
      "liegt": 6164,
      "ĠHerren": 6165,
      "ĠKonfl": 6166,
      "sburg": 6167,
      "Ġseid": 6168,
      "band": 6169,
      "okus": 6170,
      "ĠAnlagen": 6171,
      "iversitÃ¤t": 6172,
      "ĠTatsache": 6173,
      "ĠVerst": 6174,
      "ĠAnsprech": 6175,
      "Ġsoziale": 6176,
      "ĠRede": 6177,
      "ĠTerrasse": 6178,
      "Ġbemer": 6179,
      "ĠAnteil": 6180,
      "ĠgrÃ¼": 6181,
      "ĠAufnahme": 6182,
      "roid": 6183,
      "ĠschÃ¶nsten": 6184,
      "ĠVorsitzen": 6185,
      "ĠverÃ¤ndern": 6186,
      "ĠTÃ¼rk": 6187,
      "ĠLernen": 6188,
      "Ġmittels": 6189,
      "liefert": 6190,
      "ĠVerÃ¤nderungen": 6191,
      "Ġspannend": 6192,
      "Â§": 6193,
      "schirm": 6194,
      "ĠZentr": 6195,
      "Ġregistr": 6196,
      "ake": 6197,
      "Ġstellte": 6198,
      "ĠEinkommen": 6199,
      "ĠAuswirkungen": 6200,
      "sieht": 6201,
      "leitet": 6202,
      "ĠBenutzer": 6203,
      "antie": 6204,
      "rhein": 6205,
      "liefer": 6206,
      "ĠFÃ¤higkeiten": 6207,
      "Ġverkauft": 6208,
      "sitz": 6209,
      "2016": 6210,
      "ĠSeminar": 6211,
      "nahm": 6212,
      "zeichnen": 6213,
      "Ġteuer": 6214,
      "Ġ08": 6215,
      "ĠlÃ¶sen": 6216,
      "ĠFriedrich": 6217,
      "ĠLern": 6218,
      "ĠMont": 6219,
      "Ġschicken": 6220,
      "ĠLieblings": 6221,
      "ograph": 6222,
      "enter": 6223,
      "lecht": 6224,
      "ĠKombination": 6225,
      "ĠWes": 6226,
      "ĠAnalyse": 6227,
      "ĠGemeinsam": 6228,
      "ĠStreit": 6229,
      "ilien": 6230,
      "usstsein": 6231,
      "ĠSchÃ¼lerinnen": 6232,
      "ĠHighlight": 6233,
      "!)": 6234,
      "Ġbegonnen": 6235,
      "Ġjahr": 6236,
      "ĠAufmerksam": 6237,
      "Ġbehalten": 6238,
      "uk": 6239,
      "endung": 6240,
      "ĠVerwaltung": 6241,
      "Ã¤tigung": 6242,
      "ĠCasino": 6243,
      "ĠEinrichtungen": 6244,
      "Ġvermut": 6245,
      "Ġauseinander": 6246,
      "sichtigt": 6247,
      "ĠFranz": 6248,
      "dien": 6249,
      "Ġentdeckt": 6250,
      "aaten": 6251,
      "ĠTrainer": 6252,
      "Ġoffenen": 6253,
      "politik": 6254,
      "Ã¤hlte": 6255,
      "Ġnieder": 6256,
      "Ġleichter": 6257,
      "ĠJesus": 6258,
      "orie": 6259,
      "Ġjedenfalls": 6260,
      "ĠStrecke": 6261,
      "ĠAnliegen": 6262,
      "ĠWillkommen": 6263,
      "Ġsprach": 6264,
      "Ġschrei": 6265,
      "Ġnutz": 6266,
      "Ġfreundlich": 6267,
      "ĠTexte": 6268,
      "rÃ¤umen": 6269,
      "aszin": 6270,
      "49": 6271,
      "Ġstattfinden": 6272,
      "ĠFahrer": 6273,
      "ĠberÃ¼hm": 6274,
      "Ġumgesetzt": 6275,
      "ivil": 6276,
      "derung": 6277,
      "waltungs": 6278,
      "okratie": 6279,
      "Sh": 6280,
      "ĠHochschule": 6281,
      "alismus": 6282,
      "ĠZÃ¼r": 6283,
      "obby": 6284,
      "Ġbeeinfl": 6285,
      "ĠHoffnung": 6286,
      "ĠFeuerwehr": 6287,
      "inform": 6288,
      "ĠSachsen": 6289,
      "Ġkostenfrei": 6290,
      "ĠSchritte": 6291,
      "barung": 6292,
      "Ġwusste": 6293,
      "ĠMicrosoft": 6294,
      "ĠBundesl": 6295,
      "ĠSchloss": 6296,
      "Ġvermutlich": 6297,
      "ĠUrteil": 6298,
      "Ġbislang": 6299,
      "**": 6300,
      "Ġerhoben": 6301,
      "ĠPrÃ¼f": 6302,
      "Ġeins": 6303,
      "wissenschaft": 6304,
      "ĠBra": 6305,
      "Ġausgeb": 6306,
      "Ġumfasst": 6307,
      "arbeiter": 6308,
      "ĠSpanien": 6309,
      "ĠHannover": 6310,
      "ĠNahr": 6311,
      "haften": 6312,
      "ĠInner": 6313,
      "bi": 6314,
      "ĠArbeitnehmer": 6315,
      "ynam": 6316,
      "Ġdran": 6317,
      "Ġeingeladen": 6318,
      "Ġschlimm": 6319,
      "ĠCom": 6320,
      "ĠWell": 6321,
      "ĠReaktion": 6322,
      "ĠDollar": 6323,
      "ĠAbsatz": 6324,
      "Ġeingerichtet": 6325,
      "Ġdienen": 6326,
      "Ġrelev": 6327,
      "wirken": 6328,
      "ĠAufgrund": 6329,
      "ĠregelmÃ¤ÃŁ": 6330,
      "alog": 6331,
      "Ġdesto": 6332,
      "Ġit": 6333,
      "Al": 6334,
      "maschine": 6335,
      "Ġ2002": 6336,
      "ĠLeipzig": 6337,
      "lack": 6338,
      "egt": 6339,
      "ĠÃ¶ffnen": 6340,
      "Ġverurs": 6341,
      "Ġschnelle": 6342,
      "por": 6343,
      "Ġverstanden": 6344,
      "itiv": 6345,
      "iele": 6346,
      "Ã¶ch": 6347,
      "gesprÃ¤": 6348,
      "Kl": 6349,
      "Ġkomplex": 6350,
      "spruchs": 6351,
      "atisch": 6352,
      "hÃ¤user": 6353,
      "Ġsofern": 6354,
      "ĠausdrÃ¼cklich": 6355,
      "ices": 6356,
      "Ges": 6357,
      "ĠMod": 6358,
      "ĠHof": 6359,
      "orfen": 6360,
      "ĠJournal": 6361,
      "ĠAlbum": 6362,
      "ieÃŁ": 6363,
      "ĠPlattform": 6364,
      "ĠAnzeige": 6365,
      "ĠEntw": 6366,
      "ĠkÃ¼mmern": 6367,
      "gemeine": 6368,
      "uellen": 6369,
      "nicht": 6370,
      "Ġpraktisch": 6371,
      "ader": 6372,
      "ĠZuhause": 6373,
      "ĠLÃ¤nge": 6374,
      "falen": 6375,
      "omie": 6376,
      "Ġkontaktieren": 6377,
      "ussen": 6378,
      "Ġangemessen": 6379,
      "ĠTal": 6380,
      "Ġhttps": 6381,
      "ĠGas": 6382,
      "ĠStoff": 6383,
      "Ch": 6384,
      "Ġ400": 6385,
      "otograf": 6386,
      "ĠVielfalt": 6387,
      "ĠTrotzdem": 6388,
      "etzten": 6389,
      "Ġverwende": 6390,
      "ĠlÃ¤ngst": 6391,
      "ĠPool": 6392,
      "ica": 6393,
      "Ġform": 6394,
      "JÃ¤hrige": 6395,
      "arif": 6396,
      "ĠInstrum": 6397,
      "ĠUmfeld": 6398,
      "ĠAlternative": 6399,
      "ĠVerz": 6400,
      "ĠShow": 6401,
      "netz": 6402,
      "Ġausges": 6403,
      "ĠEp": 6404,
      "ĠProt": 6405,
      "Ġ=": 6406,
      "ĠDurchfÃ¼hrung": 6407,
      "ĠMethoden": 6408,
      "ĠWLAN": 6409,
      "Ġaussehen": 6410,
      "Ġpassieren": 6411,
      "ĠDeb": 6412,
      "Ġgelernt": 6413,
      "Ġlecker": 6414,
      "ĠInternetseite": 6415,
      "li": 6416,
      "ĠWerbe": 6417,
      "ĠAspe": 6418,
      "ors": 6419,
      "ahnen": 6420,
      "bett": 6421,
      "Ġvergleichen": 6422,
      "unkel": 6423,
      "ĠAufmerksamkeit": 6424,
      "Ġlust": 6425,
      "melden": 6426,
      "ologische": 6427,
      "angebote": 6428,
      "ĠprÃ¤sentiert": 6429,
      "ĠPerspekt": 6430,
      "Ã¤dagog": 6431,
      "ID": 6432,
      "Ġblo": 6433,
      "ĠOff": 6434,
      "ĠAblauf": 6435,
      "ĠgrÃ¶ÃŁere": 6436,
      "ĠNachmittag": 6437,
      "Ġplanen": 6438,
      "Ġbegleiten": 6439,
      "fÃ¼llung": 6440,
      "ĠEntscheidungen": 6441,
      "Ġsport": 6442,
      "ĠTa": 6443,
      "schulen": 6444,
      "Ġentsteht": 6445,
      "Ġgerecht": 6446,
      "ĠmÃ¼": 6447,
      "ĠverstÃ¤nd": 6448,
      "ĠSieg": 6449,
      "funktion": 6450,
      "ĠCont": 6451,
      "ĠSim": 6452,
      "ĠGrie": 6453,
      "gier": 6454,
      "ĠDeck": 6455,
      "ĠIP": 6456,
      "Ġ2003": 6457,
      "Ġglob": 6458,
      "ĠGeg": 6459,
      "Ġeinfacher": 6460,
      "ĠhÃ¶rt": 6461,
      "ĠFitness": 6462,
      "Ġholen": 6463,
      "ĠGrundstÃ¼ck": 6464,
      "ĠbestÃ¤tigt": 6465,
      "ĠBahnhof": 6466,
      "ĠjÃ¤hrlich": 6467,
      "Ġbauen": 6468,
      "Ġverab": 6469,
      "Ġzweit": 6470,
      "Ġfeiern": 6471,
      "decken": 6472,
      "ervice": 6473,
      "Ġfrem": 6474,
      "indust": 6475,
      "ĠAutos": 6476,
      "ĠNeues": 6477,
      "bungen": 6478,
      "Ġerleich": 6479,
      "ĠJahrhunderts": 6480,
      "ĠDel": 6481,
      "ĠFilme": 6482,
      "ĠUser": 6483,
      "Ġantw": 6484,
      "ĠRadio": 6485,
      "nitten": 6486,
      "forschung": 6487,
      "Ġtrau": 6488,
      "Ġmoderne": 6489,
      "ĠDatei": 6490,
      "film": 6491,
      "maÃŁnahmen": 6492,
      "ĠBonus": 6493,
      "ĠWÃ¤r": 6494,
      "Ã¤ufe": 6495,
      "ĠHum": 6496,
      "Ã¼re": 6497,
      "affung": 6498,
      "Ġinkl": 6499,
      "ektion": 6500,
      "ĠMac": 6501,
      "ĠOriginal": 6502,
      "Ġoptim": 6503,
      "fÃ¤llt": 6504,
      "ĠKrankenhaus": 6505,
      "yl": 6506,
      "Ġgehabt": 6507,
      "ĠSE": 6508,
      "ĠJapan": 6509,
      "ĠSchwier": 6510,
      "Wenn": 6511,
      "ĠBundestag": 6512,
      "Ġheim": 6513,
      "ĠerhÃ¶ht": 6514,
      "klasse": 6515,
      "Sc": 6516,
      "ĠAcht": 6517,
      "schauen": 6518,
      "ĠgroÃŁart": 6519,
      "ĠGeneration": 6520,
      "sprechend": 6521,
      "rages": 6522,
      "gefÃ¼hl": 6523,
      "ĠFein": 6524,
      "ĠDamen": 6525,
      "iser": 6526,
      "ĠDres": 6527,
      "27": 6528,
      "km": 6529,
      "Ġbeit": 6530,
      "rik": 6531,
      "Ġorden": 6532,
      "cel": 6533,
      "ĠAnsprechpartner": 6534,
      "Ġmotiv": 6535,
      "26": 6536,
      "ĠWird": 6537,
      "halle": 6538,
      "ĠungefÃ¤hr": 6539,
      "hoch": 6540,
      "ĠAndroid": 6541,
      "ĠsÃ¼d": 6542,
      "ĠMult": 6543,
      "ĠPublikum": 6544,
      "ĠKÃ¤ufer": 6545,
      "ĠBehÃ¶rden": 6546,
      "Ġgeeig": 6547,
      "maschinen": 6548,
      "ĠmÃ¶glichen": 6549,
      "Ġwechseln": 6550,
      "ischem": 6551,
      "han": 6552,
      "ĠRechtsan": 6553,
      "ordin": 6554,
      "ĠAmt": 6555,
      "industrie": 6556,
      "Ã¼ssen": 6557,
      "ĠerzÃ¤hlen": 6558,
      "Ġstaat": 6559,
      "isieren": 6560,
      "ĠIntegration": 6561,
      "Ġberichten": 6562,
      "Ġwirken": 6563,
      "OM": 6564,
      "ĠModelle": 6565,
      "ĠAf": 6566,
      "ĠÃ¼bernommen": 6567,
      "Ġleiden": 6568,
      "ĠParlament": 6569,
      "mund": 6570,
      "sbedingungen": 6571,
      "ĠParteien": 6572,
      "essourcen": 6573,
      "fordern": 6574,
      "ĠGal": 6575,
      "standen": 6576,
      "versorgung": 6577,
      "Ġanerk": 6578,
      "ĠTom": 6579,
      "ĠVerhÃ¤ltnis": 6580,
      "lag": 6581,
      "35": 6582,
      "Ġhinein": 6583,
      "Ġ75": 6584,
      "ole": 6585,
      ".Â«": 6586,
      "ziehungs": 6587,
      "Ġverlie": 6588,
      "Ġgarantiert": 6589,
      "gewicht": 6590,
      "une": 6591,
      "ĠGebrauch": 6592,
      "ĠKompon": 6593,
      "ĠKop": 6594,
      "Ġ;)": 6595,
      "ĠVerg": 6596,
      "ĠFokus": 6597,
      "Ġmanche": 6598,
      "Ġkrank": 6599,
      "aufnahme": 6600,
      "Ġhe": 6601,
      "reitet": 6602,
      "ĠAufwand": 6603,
      "een": 6604,
      "reen": 6605,
      "ĠKÃ¼nd": 6606,
      "play": 6607,
      "ĠspÃ¤t": 6608,
      "Ġsichern": 6609,
      "AP": 6610,
      "Ġblau": 6611,
      "ĠGegensatz": 6612,
      "Ġdeswegen": 6613,
      "essor": 6614,
      "veranst": 6615,
      "IL": 6616,
      "Ġfehlen": 6617,
      "Ġ09": 6618,
      "ĠBezir": 6619,
      "Ġrichtet": 6620,
      "ĠMund": 6621,
      "Ġ55": 6622,
      "bericht": 6623,
      "ĠKenn": 6624,
      "iertes": 6625,
      "ĠWebseiten": 6626,
      "holung": 6627,
      "ĠSekunden": 6628,
      "ĠMikro": 6629,
      "Ġmeistens": 6630,
      "ĠOpen": 6631,
      "Ġinteressieren": 6632,
      "Ã¼se": 6633,
      "ĠBox": 6634,
      "sidenten": 6635,
      "ĠJack": 6636,
      "Ġren": 6637,
      "ĠObjekt": 6638,
      "rang": 6639,
      "ĠVersuch": 6640,
      "Ġgeist": 6641,
      "ĠJohn": 6642,
      "Ġfunktionieren": 6643,
      "emente": 6644,
      "Ġ1000": 6645,
      "ĠErklÃ¤rung": 6646,
      "Ġgestaltet": 6647,
      "kurs": 6648,
      "Ġbestellt": 6649,
      "ĠPu": 6650,
      "28": 6651,
      "ĠAussicht": 6652,
      "ĠBehinder": 6653,
      "ĠGolf": 6654,
      "ĠMindest": 6655,
      "ring": 6656,
      "Ġprivate": 6657,
      "macht": 6658,
      "ĠSeni": 6659,
      "Ġklingt": 6660,
      "Ex": 6661,
      "of": 6662,
      "Ġgeschaffen": 6663,
      "ĠlÃ¶": 6664,
      ".âĢĿ": 6665,
      "ĠIdent": 6666,
      "Ġgehol": 6667,
      "Ã¤nn": 6668,
      "ĠSomit": 6669,
      "?\"": 6670,
      "ada": 6671,
      "ĠEigentlich": 6672,
      "rÃ¤cht": 6673,
      "ĠKarriere": 6674,
      "CD": 6675,
      "ĠJung": 6676,
      "ĠHalle": 6677,
      "ĠErwachsene": 6678,
      "gÃ¤nglich": 6679,
      "ĠJede": 6680,
      "gewiesen": 6681,
      "Ġ06": 6682,
      "Ġleist": 6683,
      "Ġqualifiz": 6684,
      "âĢŀ": 6685,
      "ĠHard": 6686,
      "ĠExt": 6687,
      "Ġvorliegen": 6688,
      "mÃ¤r": 6689,
      "ĠrÃ¼ck": 6690,
      "2015": 6691,
      "Ġabend": 6692,
      "ĠkÃ¶nne": 6693,
      "Ġgelegt": 6694,
      "ĠDusche": 6695,
      "Ġgebaut": 6696,
      "Ġbesucht": 6697,
      "beratung": 6698,
      "reff": 6699,
      "Ġansehen": 6700,
      "RE": 6701,
      "ĠPflicht": 6702,
      "Ġunge": 6703,
      "ĠNÃ¤ch": 6704,
      "Ġzerst": 6705,
      "ĠÃ¶ffentliche": 6706,
      "ĠsÃ¼": 6707,
      "ĠPla": 6708,
      "Ġsogenannten": 6709,
      "ĠâĢļ": 6710,
      "Ġag": 6711,
      "ĠFotograf": 6712,
      "atze": 6713,
      "ĠVerbesserung": 6714,
      "ĠKoch": 6715,
      "ĠChef": 6716,
      "ĠAnlass": 6717,
      "ĠMut": 6718,
      "ĠBio": 6719,
      "ĠVortrag": 6720,
      "ĠMy": 6721,
      "antas": 6722,
      "Ġ07": 6723,
      "ĠBach": 6724,
      "ĠWild": 6725,
      "Ġ34": 6726,
      "zieht": 6727,
      "ĠWachstum": 6728,
      "ippen": 6729,
      "leit": 6730,
      "ĠZwecke": 6731,
      "ĠBÃ¼hne": 6732,
      "dessen": 6733,
      "geschÃ¤ft": 6734,
      "vin": 6735,
      "ĠTeilen": 6736,
      "ĠFisch": 6737,
      "urlaub": 6738,
      "ĠCDU": 6739,
      "Ġgezogen": 6740,
      "ĠAdvent": 6741,
      "ĠÃ¤r": 6742,
      "ĠFran": 6743,
      "ĠprÃ¼fen": 6744,
      "Ġvertrau": 6745,
      "Ġfair": 6746,
      "fÃ¼gen": 6747,
      "osen": 6748,
      "Ġhistorischen": 6749,
      "Ġdigitalen": 6750,
      "ĠBeste": 6751,
      "Ġinklusive": 6752,
      "ĠProfil": 6753,
      "bliche": 6754,
      "material": 6755,
      "seitig": 6756,
      "wÃ¤rt": 6757,
      "Ġerreichbar": 6758,
      "IP": 6759,
      "ĠMittelpunkt": 6760,
      "swÃ¼rd": 6761,
      "leisten": 6762,
      "handel": 6763,
      "Ġniemals": 6764,
      "stellungs": 6765,
      "Ġkurzer": 6766,
      "ĠBereiche": 6767,
      "Ġant": 6768,
      "nei": 6769,
      "ĠSchuld": 6770,
      "ĠEigenschaften": 6771,
      "gendes": 6772,
      "ĠerwÃ¤hnt": 6773,
      "ara": 6774,
      "iums": 6775,
      "Ġbi": 6776,
      "Ġbeschlossen": 6777,
      "berger": 6778,
      "wald": 6779,
      "Ġversp": 6780,
      "ĠerÃ¶ffnet": 6781,
      "ĠSozi": 6782,
      "okument": 6783,
      "Wer": 6784,
      "ction": 6785,
      "ĠSchwerpunkt": 6786,
      "ĠDVD": 6787,
      "Ġmass": 6788,
      "ĠfÃ¼hrte": 6789,
      "70": 6790,
      "ĠLeiter": 6791,
      "Ġabw": 6792,
      "ĠStock": 6793,
      "zufÃ¼hren": 6794,
      "indert": 6795,
      "ĠNews": 6796,
      "Ġverzichten": 6797,
      "azin": 6798,
      "ĠVertrags": 6799,
      "Ġschrieb": 6800,
      "Ġkontroll": 6801,
      "Ġ;-)": 6802,
      "ÃĦ": 6803,
      "altungs": 6804,
      "Ġletzter": 6805,
      "Ã¶rung": 6806,
      "ĠZusch": 6807,
      "alerie": 6808,
      "ĠUrheber": 6809,
      "Auf": 6810,
      "ĠBestimmungen": 6811,
      "ku": 6812,
      "Ġerstes": 6813,
      "ĠRefer": 6814,
      "ĠRoman": 6815,
      "Ġdauern": 6816,
      "lebt": 6817,
      "Ġengl": 6818,
      "ortiment": 6819,
      "Ġgenauer": 6820,
      "oth": 6821,
      "ĠSchÃ¤den": 6822,
      "ĠVerlauf": 6823,
      "ĠVorbereitung": 6824,
      "atoren": 6825,
      "Ġausgeschlossen": 6826,
      "Ġirgendwo": 6827,
      "ranche": 6828,
      "annter": 6829,
      "ars": 6830,
      "wander": 6831,
      "ĠGrÃ¼ÃŁe": 6832,
      "ĠVermÃ¶gen": 6833,
      "ertifiz": 6834,
      "Ġpositive": 6835,
      "za": 6836,
      "Ġbenutzen": 6837,
      "Ġeingeb": 6838,
      "Ġbekannten": 6839,
      "ĠErwart": 6840,
      "omin": 6841,
      "ĠHab": 6842,
      "Ġvergleich": 6843,
      "ĠSw": 6844,
      "armon": 6845,
      "ĠBranche": 6846,
      "ĠTrainings": 6847,
      "ĠPrÃ¤sent": 6848,
      "Ġhandeln": 6849,
      "ĠZun": 6850,
      "ĠTwitter": 6851,
      "Ã¤tzung": 6852,
      "sbes": 6853,
      "ĠPop": 6854,
      "ĠEtw": 6855,
      "Ġangenehm": 6856,
      "text": 6857,
      "indet": 6858,
      "Ġschafft": 6859,
      "Ġpreis": 6860,
      "bliothek": 6861,
      "istenz": 6862,
      "ĠVertreter": 6863,
      "__": 6864,
      "Ġmonat": 6865,
      "nÃ¼": 6866,
      "ĠAlkohol": 6867,
      "bis": 6868,
      "twicklung": 6869,
      "ĠmaÃŁ": 6870,
      "ammelt": 6871,
      "funk": 6872,
      "ĠRoll": 6873,
      "Produ": 6874,
      "Ġfehl": 6875,
      "Ġident": 6876,
      "ius": 6877,
      "Pf": 6878,
      "werbe": 6879,
      "Ġversteht": 6880,
      "Ã¼st": 6881,
      "ĠerklÃ¤rte": 6882,
      "hÃ¤ngig": 6883,
      "Ġbezahlt": 6884,
      "ĠHein": 6885,
      "Bahn": 6886,
      "ĠKarl": 6887,
      "mens": 6888,
      "hlen": 6889,
      "Ġgetr": 6890,
      "komp": 6891,
      "ĠZit": 6892,
      "stren": 6893,
      "95": 6894,
      "Ġgesucht": 6895,
      "ĠRechn": 6896,
      "andern": 6897,
      "Ġverdient": 6898,
      "ĠBruder": 6899,
      "ĠAussage": 6900,
      "ĠArg": 6901,
      "splan": 6902,
      "Ã¤fte": 6903,
      "Ġcool": 6904,
      "Ġstolz": 6905,
      "Ġfreiwill": 6906,
      "ĠJedes": 6907,
      "Ġbenutzt": 6908,
      "Ġneuesten": 6909,
      "ĠDial": 6910,
      "obert": 6911,
      "kultur": 6912,
      "Ġblieb": 6913,
      "ĠBeschreibung": 6914,
      "siehe": 6915,
      "ĠEisen": 6916,
      "ĠUpdate": 6917,
      "Ġsammeln": 6918,
      "ymn": 6919,
      "Ġschwarz": 6920,
      "ĠUnternehmer": 6921,
      "Ġverletzt": 6922,
      "Ã¶rdert": 6923,
      "ĠManchmal": 6924,
      "ĠverstÃ¤r": 6925,
      "ĠMor": 6926,
      "Ġwarm": 6927,
      "krÃ¤fte": 6928,
      "Ġweiss": 6929,
      "ĠRie": 6930,
      "Ġgelangen": 6931,
      "Ger": 6932,
      "Ser": 6933,
      "gf": 6934,
      "ikanische": 6935,
      "Ġmoment": 6936,
      "ĠCaf": 6937,
      "Ġtesten": 6938,
      "Ġbetreffen": 6939,
      "Ã¼rn": 6940,
      "Ġbetroffene": 6941,
      "ĠSchlieÃŁlich": 6942,
      "loud": 6943,
      "KW": 6944,
      "anischen": 6945,
      "ĠJur": 6946,
      "ĠAusstattung": 6947,
      "ĠerlÃ¤u": 6948,
      "ĠbemÃ¼": 6949,
      "ĠMilch": 6950,
      "ĠRabatt": 6951,
      "Ġerinnert": 6952,
      "bart": 6953,
      "ĠSn": 6954,
      "ĠSpenden": 6955,
      "ademie": 6956,
      "Ġschwar": 6957,
      "ST": 6958,
      "ĠVersicherungs": 6959,
      "ĠFÃ¤lle": 6960,
      "ĠKonkur": 6961,
      "ĠKindes": 6962,
      "Programm": 6963,
      "ĠAs": 6964,
      "Ġstabil": 6965,
      "ĠKant": 6966,
      "Ġintensiv": 6967,
      "iden": 6968,
      "Ġsobald": 6969,
      "ĠMos": 6970,
      "Ġmitten": 6971,
      "ĠEner": 6972,
      "ĠAnf": 6973,
      "ĠBewerbung": 6974,
      "inu": 6975,
      "ĠDritte": 6976,
      "ĠZusÃ¤tzlich": 6977,
      "ona": 6978,
      "tr": 6979,
      "pol": 6980,
      "Ã¶rte": 6981,
      "ĠbeschÃ¤ftigen": 6982,
      "IG": 6983,
      "Ġverarbeitet": 6984,
      "Ġstarke": 6985,
      "AD": 6986,
      "ierend": 6987,
      "uchten": 6988,
      "ĠMehrheit": 6989,
      "Ġgearbeitet": 6990,
      "iefen": 6991,
      "ĠErinnerung": 6992,
      "flÃ¤chen": 6993,
      "ĠChristian": 6994,
      "asi": 6995,
      "ĠspÃ¤testens": 6996,
      "Ġbesitzt": 6997,
      "Ġ38": 6998,
      "paratur": 6999,
      "Ġruss": 7000,
      "Ġneun": 7001,
      "ĠSorgen": 7002,
      "Ġhaupt": 7003,
      "Ġ48": 7004,
      "ĠEbene": 7005,
      "ĠÃ¼berraschen": 7006,
      "ĠMini": 7007,
      "Ã¤lte": 7008,
      "tÃ¤u": 7009,
      "Ġhingegen": 7010,
      "ĠKG": 7011,
      "bindung": 7012,
      "Ġhierbei": 7013,
      "bas": 7014,
      "ĠZustimmung": 7015,
      "Ġunbe": 7016,
      "ĠAbenteuer": 7017,
      "ĠAktien": 7018,
      "ĠÃĦrzte": 7019,
      "ĠHauptstadt": 7020,
      "Ġ2001": 7021,
      "Ġauss": 7022,
      "aub": 7023,
      "ĠTrum": 7024,
      "stehenden": 7025,
      "fÃ¤hig": 7026,
      "ĠFormular": 7027,
      "ĠZÃ¼rich": 7028,
      "Ġor": 7029,
      "ĠLandkreis": 7030,
      "ender": 7031,
      "weisung": 7032,
      "Ġgepf": 7033,
      "ĠAusdruck": 7034,
      "rÃ¼st": 7035,
      "ĠFinger": 7036,
      "verordnung": 7037,
      "agten": 7038,
      "ĠDenk": 7039,
      "...]": 7040,
      "Ġgesund": 7041,
      "ĠÃľbern": 7042,
      "Ġeinsch": 7043,
      "ĠGegenteil": 7044,
      "ĠAngriff": 7045,
      "Ġ65": 7046,
      "ĠRessourcen": 7047,
      "steigen": 7048,
      "ĠParty": 7049,
      "Fl": 7050,
      "PS": 7051,
      "ĠFo": 7052,
      "Â®": 7053,
      "Ġdet": 7054,
      "ĠStimmung": 7055,
      "einigung": 7056,
      "ĠPay": 7057,
      "ĠKriterien": 7058,
      "urg": 7059,
      "ĠerhÃ¶hen": 7060,
      "figur": 7061,
      "Ġko": 7062,
      "Wie": 7063,
      "Ġeinfachen": 7064,
      "ehnt": 7065,
      "ĠTÃ¼rkei": 7066,
      "ĠIsrael": 7067,
      "Ġhilfreich": 7068,
      "ĠHafen": 7069,
      "29": 7070,
      "ischt": 7071,
      "olden": 7072,
      "ĠBeratungs": 7073,
      "ĠRob": 7074,
      "ĠAusnahme": 7075,
      "kampf": 7076,
      "Ġergibt": 7077,
      "ĠdrauÃŁen": 7078,
      "UniversitÃ¤t": 7079,
      "ĠBelast": 7080,
      "ĠVorstellung": 7081,
      "iefe": 7082,
      "ĠWohnzimmer": 7083,
      "Ġbegleitet": 7084,
      "ratis": 7085,
      "Ġwunderbar": 7086,
      "ĠSign": 7087,
      "Ã¼hlen": 7088,
      "ĠKÃ¼r": 7089,
      "Ġto": 7090,
      "Ġsowas": 7091,
      "ĠÃĦnderung": 7092,
      "ĠFeed": 7093,
      "ĠStad": 7094,
      "its": 7095,
      "imierung": 7096,
      "Ġvorgesehen": 7097,
      "sorge": 7098,
      "ĠWeiÃŁ": 7099,
      "emit": 7100,
      "amilien": 7101,
      "immern": 7102,
      "Ġstarken": 7103,
      "Ġunverbind": 7104,
      "Ġkombin": 7105,
      "unn": 7106,
      "kÃ¼nfte": 7107,
      "Ġideal": 7108,
      "ĠVerhand": 7109,
      "OL": 7110,
      "ĠQ": 7111,
      "ĠOft": 7112,
      "Ġsogenannte": 7113,
      "âĢĿ,": 7114,
      "Ã¤hlten": 7115,
      "ĠSchwarz": 7116,
      "Ġschlechte": 7117,
      "ĠSehenswÃ¼rd": 7118,
      "Ġjemanden": 7119,
      "Ġbrit": 7120,
      "ĠauÃŁen": 7121,
      "oto": 7122,
      "ĠFehl": 7123,
      "Ġrufen": 7124,
      "Ġland": 7125,
      "Ġverste": 7126,
      "ĠStÃ¤dten": 7127,
      "ischung": 7128,
      "vid": 7129,
      "Ġtrain": 7130,
      "Ġeigener": 7131,
      "ĠheiÃŁen": 7132,
      "ish": 7133,
      "ĠKreativ": 7134,
      "Ġ000": 7135,
      "ĠNorden": 7136,
      "ĠCor": 7137,
      "Ã¤g": 7138,
      "Ġhart": 7139,
      "Ġdenkt": 7140,
      "ĠKlass": 7141,
      "ĠOption": 7142,
      "gerÃ¤t": 7143,
      "okal": 7144,
      "krank": 7145,
      "ĠStrategie": 7146,
      "Ġkostenlose": 7147,
      "sprogramm": 7148,
      "biert": 7149,
      "Ġentlang": 7150,
      "TS": 7151,
      "ĠEntwicklungs": 7152,
      "EM": 7153,
      "hebung": 7154,
      "staat": 7155,
      "ĠArme": 7156,
      "ĠMethode": 7157,
      "ĠÃ¼berwie": 7158,
      "ĠMedikamen": 7159,
      "willigung": 7160,
      "Ġanal": 7161,
      "ĠÃľberrasch": 7162,
      "Ġfahr": 7163,
      "ĠSchwanger": 7164,
      "ĠZweifel": 7165,
      "ĠSchnee": 7166,
      "sichtigen": 7167,
      "iente": 7168,
      "ĠAngehÃ¶r": 7169,
      "szeit": 7170,
      "ĠTanz": 7171,
      "ĠgewÃ¤hrleisten": 7172,
      "Ġehemaligen": 7173,
      "Ġberechtigt": 7174,
      "Ġfern": 7175,
      "rÃ¤glich": 7176,
      "Ġrechnen": 7177,
      "ĠmÃ¶glicherweise": 7178,
      "Ġangekommen": 7179,
      "prÃ¤gt": 7180,
      "kret": 7181,
      "ĠMiet": 7182,
      "Ġschriftlich": 7183,
      "ĠEinlad": 7184,
      "ĠAusbildungs": 7185,
      "ĠLeidenschaft": 7186,
      "ĠQuellen": 7187,
      "Ã¼ste": 7188,
      "bus": 7189,
      "ĠQuelle": 7190,
      "jahres": 7191,
      "Ġinspir": 7192,
      "raÃŁe": 7193,
      "Ġhergestellt": 7194,
      "Ġreichen": 7195,
      "ris": 7196,
      "Ġaufnehmen": 7197,
      "euern": 7198,
      "nehmern": 7199,
      "fÃ¤llen": 7200,
      "Ġallgemeinen": 7201,
      "ĠGemÃ¼se": 7202,
      "ĠBewerb": 7203,
      "oler": 7204,
      "ĠKatzen": 7205,
      "Ġmach": 7206,
      "Ã¶rter": 7207,
      "ĠÃ¶sterreich": 7208,
      "ĠWik": 7209,
      "ĠEintrag": 7210,
      "ziplin": 7211,
      "ĠgrÃ¶ÃŁeren": 7212,
      "ĠKapitel": 7213,
      "go": 7214,
      "ĠZahlung": 7215,
      "ĠSchmerzen": 7216,
      "Ġmeint": 7217,
      "izieren": 7218,
      "bilden": 7219,
      "Ġrum": 7220,
      "gemeinschaft": 7221,
      "Ġerschienen": 7222,
      "33": 7223,
      "ĠGrenze": 7224,
      "ĠFinanzierung": 7225,
      "Ġstartet": 7226,
      "ĠVerband": 7227,
      "Ġwiederum": 7228,
      "Ġbedanken": 7229,
      "ĠAnleitung": 7230,
      "ses": 7231,
      "ĠWellness": 7232,
      "Ġlegt": 7233,
      "Ġunbek": 7234,
      "ehlungen": 7235,
      "Ġsteigt": 7236,
      "ĠVerwaltungs": 7237,
      "regungen": 7238,
      "ĠWaffen": 7239,
      "gÃ¤nger": 7240,
      "Ġzer": 7241,
      "Ġis": 7242,
      "ĠKomfort": 7243,
      "ĠFormen": 7244,
      "itor": 7245,
      "ĠZut": 7246,
      "ppen": 7247,
      "azier": 7248,
      "ĠHerstellung": 7249,
      "Ġ37": 7250,
      "ppe": 7251,
      "ĠÃ¼bersch": 7252,
      "ĠLab": 7253,
      "ĠFan": 7254,
      "chern": 7255,
      "Ġbetrifft": 7256,
      "steiger": 7257,
      "ĠfÃ¼rs": 7258,
      "rucht": 7259,
      "ĠDresden": 7260,
      "Ġdiejenigen": 7261,
      "Ġdeutscher": 7262,
      "Ġausgezeichnet": 7263,
      "Ġvermitteln": 7264,
      "ĠInfrastruktur": 7265,
      "ĠKÃ¤": 7266,
      "Ġsan": 7267,
      "Ġvorzu": 7268,
      "UNG": 7269,
      "ites": 7270,
      "ĠMetall": 7271,
      "ĠModern": 7272,
      "ĠKabel": 7273,
      "Ġabsolv": 7274,
      "una": 7275,
      "ĠBurg": 7276,
      "ĠBlock": 7277,
      "euchten": 7278,
      "ble": 7279,
      "ĠStellung": 7280,
      "schiede": 7281,
      "ĠZin": 7282,
      "auern": 7283,
      "ĠHigh": 7284,
      "Ġrest": 7285,
      "messer": 7286,
      "2014": 7287,
      "ĠMuster": 7288,
      "ĠBranchen": 7289,
      "Ġabgest": 7290,
      "ĠBetreiber": 7291,
      "Ġtritt": 7292,
      "Ġdringend": 7293,
      "Ġallgemein": 7294,
      "Ġfrage": 7295,
      "500": 7296,
      "ĠStimmen": 7297,
      "ĠInitiative": 7298,
      "Ġanhand": 7299,
      "sg": 7300,
      "Ġgesprochen": 7301,
      "fÃ¼hrten": 7302,
      ".....": 7303,
      "Ġnehme": 7304,
      "ĠmÃ¶gliche": 7305,
      "Ġtolles": 7306,
      "ĠAmts": 7307,
      "^^": 7308,
      "Ã¶rungen": 7309,
      "Ġerfolgreiche": 7310,
      "ĠHast": 7311,
      "IM": 7312,
      "ĠAutoren": 7313,
      "Ġkorre": 7314,
      "ĠBlu": 7315,
      "ĠRealitÃ¤t": 7316,
      "richtet": 7317,
      "ĠBundesregierung": 7318,
      "-/": 7319,
      "Ġfrisch": 7320,
      "Ġ250": 7321,
      "Ġabgel": 7322,
      "Ġhoff": 7323,
      "Ġderart": 7324,
      "ĠIN": 7325,
      "Ġoffenbar": 7326,
      "Ġdigitale": 7327,
      "ĠSei": 7328,
      "ĠDreh": 7329,
      "Ġnahezu": 7330,
      "Ġkomfort": 7331,
      "ĠBauch": 7332,
      "komm": 7333,
      "haltet": 7334,
      "ĠAusgang": 7335,
      "Ġspezielle": 7336,
      "ĠAussch": 7337,
      "ĠGÃ¤sten": 7338,
      "ĠCity": 7339,
      "Ġok": 7340,
      "Ġzugleich": 7341,
      "ĠBrot": 7342,
      "ĠKalender": 7343,
      "reuen": 7344,
      "ĠVerf": 7345,
      "EU": 7346,
      "ĠUnterlagen": 7347,
      "Ġfaszin": 7348,
      "blatt": 7349,
      "ĠberÃ¼cksichtigt": 7350,
      "ehlung": 7351,
      "ĠJungen": 7352,
      "ĠFrÃ¼hl": 7353,
      "oge": 7354,
      "ĠStraf": 7355,
      "wel": 7356,
      "Ġ120": 7357,
      "?!": 7358,
      "ĠWol": 7359,
      "Ġverdienen": 7360,
      "Ġlock": 7361,
      "brechen": 7362,
      "ĠHaftung": 7363,
      "ĠFaktoren": 7364,
      "Ġbegren": 7365,
      "Seite": 7366,
      "Ġvorne": 7367,
      "IC": 7368,
      "werben": 7369,
      "Ġschm": 7370,
      "Art": 7371,
      "Ġsolange": 7372,
      "ĠNiederl": 7373,
      "Ġaussch": 7374,
      "ĠFahrzeuge": 7375,
      "Ġbrauche": 7376,
      "Ġ04": 7377,
      "ĠBeziehungen": 7378,
      "ĠsÃ¤mtliche": 7379,
      "ĠUSB": 7380,
      "ĠKol": 7381,
      "ĠUmstÃ¤nden": 7382,
      "ĠKompetenz": 7383,
      "far": 7384,
      "ĠNiveau": 7385,
      "ĠAnregungen": 7386,
      "entsch": 7387,
      "fernen": 7388,
      "ĠBereit": 7389,
      "pflege": 7390,
      "metho": 7391,
      "ĠFlÃ¼chtlinge": 7392,
      "ĠFrÃ¼hjahr": 7393,
      "Ġvorbereitet": 7394,
      "ĠAktionen": 7395,
      "Ġvergeben": 7396,
      "ffel": 7397,
      "ĠTemperaturen": 7398,
      "ĠAhnung": 7399,
      "ffe": 7400,
      "gerÃ¤te": 7401,
      "ugend": 7402,
      "griff": 7403,
      "cy": 7404,
      "ĠDeinen": 7405,
      "ĠÃľbrigen": 7406,
      "leiten": 7407,
      "ĠKapital": 7408,
      "ĠhierfÃ¼r": 7409,
      "fan": 7410,
      "ĠInternational": 7411,
      "Ġeignet": 7412,
      "ĠGeneral": 7413,
      "lehen": 7414,
      "seits": 7415,
      "Ġzust": 7416,
      "Ã¼cht": 7417,
      "regen": 7418,
      "euert": 7419,
      "Ġorient": 7420,
      "Ġsteckt": 7421,
      "ĠLandwirtschaft": 7422,
      "ĠVoraussetzung": 7423,
      "PrÃ¤": 7424,
      "arbeite": 7425,
      "Ġbegeg": 7426,
      "ĠzukÃ¼nft": 7427,
      "ĠCoach": 7428,
      "ffizienz": 7429,
      "ĠOrganisationen": 7430,
      "Ġbesitzen": 7431,
      "ĠFerienwohnung": 7432,
      "verwaltung": 7433,
      "II": 7434,
      "ĠWegen": 7435,
      "ĠRegistr": 7436,
      "Ã¤sche": 7437,
      "ilm": 7438,
      "tl": 7439,
      "Ġhalte": 7440,
      "ĠBeispiele": 7441,
      "ĠTim": 7442,
      "Stand": 7443,
      "ktor": 7444,
      "ĠgenÃ¼gend": 7445,
      "ĠWasch": 7446,
      "Ġbeant": 7447,
      "ĠCO": 7448,
      "Ġstammt": 7449,
      "ĠTool": 7450,
      "ĠOh": 7451,
      "âĢ¦.": 7452,
      "ĠWagen": 7453,
      "oret": 7454,
      "ausend": 7455,
      "ĠZusatz": 7456,
      "ĠWann": 7457,
      "sprozess": 7458,
      "fÃ¼llt": 7459,
      "ĠÃ¤uÃŁerst": 7460,
      "Ġfreie": 7461,
      "ĠWirklich": 7462,
      "teten": 7463,
      "bÃ¼rger": 7464,
      "udwig": 7465,
      "IV": 7466,
      "mmen": 7467,
      "Ġwest": 7468,
      "ĠWorld": 7469,
      "Ġjeg": 7470,
      "Ġbisherigen": 7471,
      "ĠGemeinden": 7472,
      "ĠVerÃ¶ffentlichung": 7473,
      "ĠQuart": 7474,
      "ĠSituationen": 7475,
      "Ġkg": 7476,
      "Ġbeobachten": 7477,
      "Westfalen": 7478,
      "ĠGÃ¼": 7479,
      "ĠGi": 7480,
      "ĠProjekten": 7481,
      "ĠHaust": 7482,
      "rete": 7483,
      "ĠGriechen": 7484,
      "werken": 7485,
      "Ġbesonderes": 7486,
      "ĠPet": 7487,
      "ĠDemokratie": 7488,
      "ĠFortsch": 7489,
      "ĠFernsehen": 7490,
      "Â«,": 7491,
      "dam": 7492,
      "gerecht": 7493,
      "ĠVorstellungen": 7494,
      "ĠBremen": 7495,
      "ĠSchwangerschaft": 7496,
      "ĠSteu": 7497,
      "ĠWerke": 7498,
      "Ã¤usern": 7499,
      "ĠMr": 7500,
      "klÃ¤rt": 7501,
      "drucken": 7502,
      "ĠRegionen": 7503,
      "Ġzeigte": 7504,
      "teste": 7505,
      "Ġvollkommen": 7506,
      "prÃ¼fung": 7507,
      "zern": 7508,
      "senden": 7509,
      "ĠAlten": 7510,
      "ĠUntersuchung": 7511,
      "Ã¶rderung": 7512,
      "Team": 7513,
      "zÃ¼g": 7514,
      "Ã¶ffnung": 7515,
      "brit": 7516,
      "Reg": 7517,
      "Ġdi": 7518,
      "Ġtrocken": 7519,
      "ĠSehenswÃ¼rdigkeiten": 7520,
      "ĠLeuten": 7521,
      "ĠWart": 7522,
      "ĠYou": 7523,
      "ĠBM": 7524,
      "ĠFarb": 7525,
      "Ġbill": 7526,
      "ildet": 7527,
      "ĠTelefonnummer": 7528,
      "Ġeingestellt": 7529,
      "ĠWohnungen": 7530,
      "ĠHÃ¤nden": 7531,
      "lines": 7532,
      "Or": 7533,
      "ĠPreisen": 7534,
      "ĠAusflug": 7535,
      "Ġaltern": 7536,
      "zy": 7537,
      "ĠWin": 7538,
      ".[": 7539,
      "ĠWÃ¤rme": 7540,
      "sÃ¤chlich": 7541,
      "Tag": 7542,
      "ampagne": 7543,
      "lÃ¶sen": 7544,
      "eden": 7545,
      "freien": 7546,
      "fÃ¤llig": 7547,
      "beu": 7548,
      "werten": 7549,
      "ĠKenntnis": 7550,
      "licherweise": 7551,
      "ĠKnow": 7552,
      "Ġpoten": 7553,
      "ĠhÃ¤uf": 7554,
      "ĠEuropas": 7555,
      "steh": 7556,
      "ĠIrgend": 7557,
      "Ġgetragen": 7558,
      "ĠZwar": 7559,
      "unken": 7560,
      "Ġggf": 7561,
      "ieht": 7562,
      "ĠVersorgung": 7563,
      "Ã¼hrt": 7564,
      "fahrung": 7565,
      "ĠRoh": 7566,
      "Ġ05": 7567,
      "ĠGrÃ¼ndung": 7568,
      "ĠBadezimmer": 7569,
      "ĠschlieÃŁen": 7570,
      "ĠFast": 7571,
      "ĠursprÃ¼nglich": 7572,
      "ĠAfr": 7573,
      "kr": 7574,
      "sn": 7575,
      "ĠWeiterbildung": 7576,
      "Ġeventuell": 7577,
      "Ã¤tzt": 7578,
      "kap": 7579,
      "ĠgelÃ¶": 7580,
      "ikations": 7581,
      "teile": 7582,
      "ĠNÃ¼rn": 7583,
      "ĠBedien": 7584,
      "ehren": 7585,
      "helm": 7586,
      "astrop": 7587,
      "Ġschme": 7588,
      "Ġaufgebaut": 7589,
      "ĠgewÃ¼nschten": 7590,
      "ĠProblemen": 7591,
      "Ġnein": 7592,
      "ĠVerlust": 7593,
      "ĠabhÃ¤ngig": 7594,
      "Part": 7595,
      "ĠKino": 7596,
      "ĠAutob": 7597,
      "Ġklassischen": 7598,
      "ĠKlaus": 7599,
      "Ġstra": 7600,
      "ĠGrÃ¼nen": 7601,
      "ĠKlinik": 7602,
      "ĠRen": 7603,
      "Ã¤cher": 7604,
      "sbesondere": 7605,
      "Ġanmelden": 7606,
      "Ġrechten": 7607,
      "Ġitalien": 7608,
      "ĠInstallation": 7609,
      "Leist": 7610,
      "Techn": 7611,
      "ĠNachfrage": 7612,
      "Ġfestgestellt": 7613,
      "ĠObst": 7614,
      "ĠKlicken": 7615,
      "raining": 7616,
      "ĠSobald": 7617,
      "Ġbekomme": 7618,
      "Ġdiesmal": 7619,
      "ĠeinschlieÃŁlich": 7620,
      "Ġkomplette": 7621,
      "Ġauftreten": 7622,
      "ilder": 7623,
      "beln": 7624,
      "annien": 7625,
      "Ġextra": 7626,
      "Ġrichten": 7627,
      "Ġlautet": 7628,
      "gesp": 7629,
      "Ġechte": 7630,
      "ĠSP": 7631,
      "san": 7632,
      "ulation": 7633,
      "antast": 7634,
      "fre": 7635,
      "Um": 7636,
      "ĠBewertungen": 7637,
      "ĠDigitalisierung": 7638,
      "ĠAnsprÃ¼che": 7639,
      "ilitÃ¤t": 7640,
      "ĠkÃ¤mpfen": 7641,
      "ĠBeide": 7642,
      "way": 7643,
      "ĠJungs": 7644,
      "ĠRisiken": 7645,
      "Du": 7646,
      "kehrt": 7647,
      "ĠJubil": 7648,
      "ĠGÃ¶t": 7649,
      "ĠDienste": 7650,
      "ĠPolitiker": 7651,
      "Ġangenommen": 7652,
      "ĠBauern": 7653,
      "zÃ¼ge": 7654,
      "Ġkeinerlei": 7655,
      "ĠPaket": 7656,
      "itar": 7657,
      "ieden": 7658,
      "hes": 7659,
      "rink": 7660,
      "ĠVerpflicht": 7661,
      "gro": 7662,
      "Ã¼mer": 7663,
      "ĠParkplatz": 7664,
      "kat": 7665,
      "ĠKÃ¼chen": 7666,
      "sm": 7667,
      "ĠSchnell": 7668,
      "ĠTee": 7669,
      "sstand": 7670,
      "ĠEinwohner": 7671,
      "ĠBlumen": 7672,
      "ruhe": 7673,
      "ĠPlÃ¤tze": 7674,
      "ĠEingang": 7675,
      "ĠAuftraggeber": 7676,
      "ĠRuf": 7677,
      "Ġerhielt": 7678,
      "ĠArbeitsplatz": 7679,
      "gerichts": 7680,
      "itiert": 7681,
      "gert": 7682,
      "wÃ¤hlen": 7683,
      "ĠSÃ¼den": 7684,
      "Ġgeblieben": 7685,
      "ĠBill": 7686,
      "Ġetabl": 7687,
      "ĠgewÃ¶hn": 7688,
      "ĠUns": 7689,
      "Ġrunter": 7690,
      "ĠNerv": 7691,
      "Ġnachzu": 7692,
      "Ġgefahren": 7693,
      "Ġeinsetzen": 7694,
      "ĠVersch": 7695,
      "ĠDateien": 7696,
      "Ġerfolgreichen": 7697,
      "ĠfÃ¤hrt": 7698,
      "ĠMittler": 7699,
      "ĠReparatur": 7700,
      "ĠEntwicklungen": 7701,
      "Ġdefinitiv": 7702,
      "Ġnochmals": 7703,
      "ĠSortiment": 7704,
      "ĠGerman": 7705,
      "ĠÃ¼bernimmt": 7706,
      "Ġglaub": 7707,
      "freiheit": 7708,
      "Ġangepasst": 7709,
      "ingung": 7710,
      "weiten": 7711,
      "legten": 7712,
      "Ġendet": 7713,
      "ĠRennen": 7714,
      "Ġspezi": 7715,
      "ĠMuss": 7716,
      "ĠZucker": 7717,
      "Ġbeteiligt": 7718,
      "ĠZuschauer": 7719,
      "Ã¶hnen": 7720,
      "ĠStartseite": 7721,
      "bedarf": 7722,
      "Ġdenk": 7723,
      "ĠKuchen": 7724,
      "Ġoptimale": 7725,
      "ĠAngabe": 7726,
      "ulen": 7727,
      "Ġunglaublich": 7728,
      "ĠGanze": 7729,
      "Le": 7730,
      "Ġverwir": 7731,
      "Ã¶lf": 7732,
      "AC": 7733,
      "ĠzugÃ¤nglich": 7734,
      "ĠBrust": 7735,
      "Ġgewisse": 7736,
      "con": 7737,
      "count": 7738,
      "Ġsichtbar": 7739,
      "75": 7740,
      "britannien": 7741,
      "IR": 7742,
      "ĠRett": 7743,
      "ĠNordrhein": 7744,
      "ĠWiderruf": 7745,
      "kan": 7746,
      "ĠBord": 7747,
      "affe": 7748,
      "ĠKart": 7749,
      "ĠBevor": 7750,
      "rachten": 7751,
      "aser": 7752,
      "ĠCan": 7753,
      "ĠVerpack": 7754,
      "ĠKandid": 7755,
      "ĠZoll": 7756,
      "erischen": 7757,
      "Ġvieler": 7758,
      "Ġspannende": 7759,
      "Ġweshalb": 7760,
      "ĠAllgemeinen": 7761,
      "gestaltung": 7762,
      "ĠQuad": 7763,
      "Ġkostenlosen": 7764,
      "ĠOrte": 7765,
      "Ġbekam": 7766,
      "ĠSpitzen": 7767,
      "Service": 7768,
      "ĠJava": 7769,
      "ĠGegner": 7770,
      "ĠSamm": 7771,
      "Ġmeinte": 7772,
      "ĠKompl": 7773,
      "werks": 7774,
      "tags": 7775,
      "ĠSchwar": 7776,
      "Ġjene": 7777,
      "Ġempfohlen": 7778,
      "Ġvorgenommen": 7779,
      "ĠLeitung": 7780,
      "ĠEhren": 7781,
      "ĠBesten": 7782,
      "ĠGeschÃ¤ftsfÃ¼hrer": 7783,
      "Ġoffiziell": 7784,
      "ĠInfo": 7785,
      "ĠfrÃ¼hen": 7786,
      "issb": 7787,
      "ĠStell": 7788,
      "ĠNormal": 7789,
      "frau": 7790,
      "Ġkauf": 7791,
      "termin": 7792,
      "ĠWorten": 7793,
      "Ġzunehmend": 7794,
      "ĠAspekte": 7795,
      "ĠGrÃ¶ÃŁen": 7796,
      "Ġsitzt": 7797,
      "Welt": 7798,
      "agd": 7799,
      "ĠAnsicht": 7800,
      "ĠFett": 7801,
      "kund": 7802,
      "ĠDenken": 7803,
      "ĠDSGVO": 7804,
      "Ġzog": 7805,
      "Ġmitge": 7806,
      "ĠNet": 7807,
      "rechnung": 7808,
      "iat": 7809,
      "ĠAnsonsten": 7810,
      "Ġorganisiert": 7811,
      "ulieren": 7812,
      "ĠFeier": 7813,
      "Ġrechtzeitig": 7814,
      "oÃŁen": 7815,
      "ĠAsy": 7816,
      "rock": 7817,
      "ĠErfÃ¼llung": 7818,
      "hil": 7819,
      "berichte": 7820,
      "ners": 7821,
      "ĠÃ¼bert": 7822,
      "cess": 7823,
      "ĠlÃ¤dt": 7824,
      "43": 7825,
      "medizin": 7826,
      "ĠWeltkrieg": 7827,
      "ĠbegrÃ¼n": 7828,
      "ĠHÃ¤ndler": 7829,
      "ĠKontaktformular": 7830,
      "ĠSympt": 7831,
      "ĠLos": 7832,
      "ĠMaria": 7833,
      "ĠBund": 7834,
      "ĠDarstellung": 7835,
      "ĠSterne": 7836,
      "ĠkÃ¼nftig": 7837,
      "ĠEinstellung": 7838,
      "behalten": 7839,
      "ĠtÃ¤glichen": 7840,
      "aber": 7841,
      "ĠStern": 7842,
      "Ġfiel": 7843,
      "otos": 7844,
      "ĠHu": 7845,
      "ĠBor": 7846,
      "Ġtrinken": 7847,
      "Â»,": 7848,
      "ĠAndere": 7849,
      "Ġad": 7850,
      "Ġsowieso": 7851,
      "ita": 7852,
      "het": 7853,
      "ĠReal": 7854,
      "ĠGegend": 7855,
      "Spiel": 7856,
      "Ġaussieht": 7857,
      "ĠJust": 7858,
      "ĠUl": 7859,
      "erei": 7860,
      "ĠProfessor": 7861,
      "ĠHauses": 7862,
      "Ġbestens": 7863,
      "lings": 7864,
      "ktiv": 7865,
      "ĠÃ¼berprÃ¼fen": 7866,
      "rim": 7867,
      "Ġdritte": 7868,
      "ĠNachhalt": 7869,
      "Ġnotwendigen": 7870,
      "republik": 7871,
      "ĠPhilosoph": 7872,
      "Mark": 7873,
      "ĠgÃ¼nstiger": 7874,
      "ĠSysteme": 7875,
      "ĠViertel": 7876,
      "ĠbezÃ¼glich": 7877,
      "iqu": 7878,
      "Ġstren": 7879,
      "ĠArchitektur": 7880,
      "ĠSprachen": 7881,
      "ĠArm": 7882,
      "ĠGrundlagen": 7883,
      "Ġdurfte": 7884,
      "ĠSchÃ¶nheit": 7885,
      "ĠBem": 7886,
      "lichten": 7887,
      "ĠTechnologien": 7888,
      "ĠLÃ¼": 7889,
      "ĠPause": 7890,
      "ĠKontakte": 7891,
      "Ġselben": 7892,
      "ĠAL": 7893,
      "ĠTerror": 7894,
      "ĠPunkten": 7895,
      "ĠAmb": 7896,
      "anzler": 7897,
      "AB": 7898,
      "ĠOsten": 7899,
      "2013": 7900,
      "ĠJeden": 7901,
      "friedenheit": 7902,
      "ĠReserv": 7903,
      "tes": 7904,
      "ĠErwachsenen": 7905,
      "ĠRepublik": 7906,
      "ĠMeld": 7907,
      "Ġherz": 7908,
      "ĠhÃ¶chste": 7909,
      "Ġspeziellen": 7910,
      "ĠYog": 7911,
      "ĠHoll": 7912,
      "inst": 7913,
      "Ġoffensichtlich": 7914,
      "Ġgewissen": 7915,
      "ĠBetrag": 7916,
      "ĠgeprÃ¼": 7917,
      "usch": 7918,
      "sÃ¤": 7919,
      "ĠVordergrund": 7920,
      "Ġverbinden": 7921,
      "Ġnormalen": 7922,
      "Ġhalb": 7923,
      "stunden": 7924,
      "ĠApps": 7925,
      "ifikation": 7926,
      "ĠSchwester": 7927,
      "ĠWe": 7928,
      "ĠAllein": 7929,
      "ĠVerÃ¤nderung": 7930,
      "ĠAnwendungen": 7931,
      "ĠKleidung": 7932,
      "able": 7933,
      "utzung": 7934,
      "ĠKommission": 7935,
      "Ġreagieren": 7936,
      "ĠSpiegel": 7937,
      "Ġvorab": 7938,
      "Ġanfangen": 7939,
      "Ġanschauen": 7940,
      "ktionen": 7941,
      "ĠVerteid": 7942,
      "Ġschlafen": 7943,
      "ĠTrump": 7944,
      "ĠDiagn": 7945,
      "ĠVorschriften": 7946,
      "ĠImp": 7947,
      "ips": 7948,
      "Ġweite": 7949,
      "ĠMÃ¶bel": 7950,
      "ith": 7951,
      "Ġdargestellt": 7952,
      "Ġbehandeln": 7953,
      "ĠFeedback": 7954,
      "zten": 7955,
      "eigern": 7956,
      "Ġveran": 7957,
      "Ġkat": 7958,
      "umenten": 7959,
      "ĠHaare": 7960,
      "oppelt": 7961,
      "ĠBonn": 7962,
      "ĠPlus": 7963,
      "wege": 7964,
      "Ġvorge": 7965,
      "prÃ¤sent": 7966,
      "ward": 7967,
      "Ġdetaill": 7968,
      "leiben": 7969,
      "SS": 7970,
      "ola": 7971,
      "Ġwid": 7972,
      "ĠEinstellungen": 7973,
      "ĠgÃ¼nstigen": 7974,
      "ĠRobert": 7975,
      "ĠBestandteil": 7976,
      "Ġhochwertige": 7977,
      "Ġdurchschnitt": 7978,
      "Ġfeststellen": 7979,
      "ĠRÃ¶": 7980,
      "hst": 7981,
      "ĠKÃ¶r": 7982,
      "ĠHan": 7983,
      "Ġ39": 7984,
      "ĠDeiner": 7985,
      "Angeb": 7986,
      "ĠangekÃ¼nd": 7987,
      "Ġkap": 7988,
      "endes": 7989,
      "ehmigung": 7990,
      "ĠWÃ¼nschen": 7991,
      "ĠVersicherung": 7992,
      "Ġunmittelbar": 7993,
      "leister": 7994,
      "rient": 7995,
      "freu": 7996,
      "ĠZeug": 7997,
      "Ġsolcher": 7998,
      "Im": 7999,
      "iller": 8000,
      "ommunity": 8001,
      "irekt": 8002,
      "ĠPersÃ¶nlichkeit": 8003,
      "ĠLohn": 8004,
      "ĠReihen": 8005,
      "lÃ¤nder": 8006,
      "ards": 8007,
      "Ġ03": 8008,
      "ĠgelÃ¶scht": 8009,
      "ĠMitgliedern": 8010,
      "ielten": 8011,
      "inuier": 8012,
      "ĠPosit": 8013,
      "Ġdro": 8014,
      "pal": 8015,
      "zens": 8016,
      "Ġbeziehen": 8017,
      "Ã¼rk": 8018,
      "âĢľ-": 8019,
      "Ġgesundheit": 8020,
      "ĠErstellung": 8021,
      "ĠPolen": 8022,
      "ahnsinn": 8023,
      "ĠauÃŁergewÃ¶hn": 8024,
      "!!!!": 8025,
      "ĠWesten": 8026,
      "verk": 8027,
      "stÃ¤ndigkeit": 8028,
      "ĠPress": 8029,
      "atischen": 8030,
      "Ġstammen": 8031,
      "kasse": 8032,
      "wal": 8033,
      "Ġgeg": 8034,
      "ĠjÃ¼ng": 8035,
      "rÃ¼chen": 8036,
      "LE": 8037,
      "onto": 8038,
      "ĠHandeln": 8039,
      "Form": 8040,
      "ĠBearbeitung": 8041,
      "FA": 8042,
      "etzungen": 8043,
      "ĠKos": 8044,
      "ĠErweiter": 8045,
      "uliert": 8046,
      "sprung": 8047,
      "ĠMom": 8048,
      "Ġbestimmen": 8049,
      "spunkt": 8050,
      "fa": 8051,
      "ĠLudwig": 8052,
      "ĠMaster": 8053,
      "tau": 8054,
      "ĠKlick": 8055,
      "ĠJose": 8056,
      "ĠBetroffenen": 8057,
      "Ġentscheidet": 8058,
      "Ġinstalliert": 8059,
      "ĠSchatten": 8060,
      "anter": 8061,
      "ĠGlob": 8062,
      "ĠWebs": 8063,
      "wunsch": 8064,
      "Ġumge": 8065,
      "ĠWM": 8066,
      "ĠWorkshops": 8067,
      "Ġbrachte": 8068,
      "hÃ¶he": 8069,
      "Ġeindeutig": 8070,
      "Ġinfo": 8071,
      "Ġoftmals": 8072,
      "inos": 8073,
      "Nach": 8074,
      "Ġlo": 8075,
      "ieter": 8076,
      "onstr": 8077,
      "ĠHom": 8078,
      "Ġbetrieb": 8079,
      "ĠSitzung": 8080,
      "klar": 8081,
      "echsl": 8082,
      "ĠVorfeld": 8083,
      "ĠAngel": 8084,
      "ĠGrafik": 8085,
      "Ġums": 8086,
      "48": 8087,
      "Daten": 8088,
      "ĠErwartungen": 8089,
      "Ġbeliebt": 8090,
      "ĠAustr": 8091,
      "uff": 8092,
      "ĠDingen": 8093,
      "ĠMad": 8094,
      "srecht": 8095,
      "Ġmomentan": 8096,
      "ĠÃ¼berrascht": 8097,
      "ĠVerkÃ¤ufer": 8098,
      "ension": 8099,
      "ĠÃ¶fter": 8100,
      "ĠLaufen": 8101,
      "ĠPR": 8102,
      "ituation": 8103,
      "Ġfragte": 8104,
      "Ġehren": 8105,
      "Ġliebsten": 8106,
      "ĠFeiert": 8107,
      "geschlagen": 8108,
      "Ġvermittelt": 8109,
      "ĠEngland": 8110,
      "ĠMand": 8111,
      "berater": 8112,
      "ĠGefÃ¼hle": 8113,
      "ĠGleichzeitig": 8114,
      "ĠSenioren": 8115,
      "ĠErste": 8116,
      "ĠDarm": 8117,
      "ĠBewohner": 8118,
      "ĠRheinland": 8119,
      "Ġfanden": 8120,
      "ĠÃľberw": 8121,
      "ĠZentral": 8122,
      "ĠBri": 8123,
      "Ġ600": 8124,
      "gemÃ¤ÃŁ": 8125,
      "ĠSat": 8126,
      "Ġhoher": 8127,
      "Ġdarstellen": 8128,
      "Ġbetrachtet": 8129,
      "rÃ¤t": 8130,
      "Ġ1990": 8131,
      "Ġschaut": 8132,
      "ĠGrunde": 8133,
      "ĠEure": 8134,
      "\"-": 8135,
      "ĠBesitz": 8136,
      "indungen": 8137,
      "ĠGesprÃ¤che": 8138,
      "RW": 8139,
      "ĠHÃ¤user": 8140,
      "ĠKrÃ¤": 8141,
      "Deutsch": 8142,
      "ĠBÃ¤": 8143,
      "Ġstelle": 8144,
      "ĠGarantie": 8145,
      "Jahr": 8146,
      "nur": 8147,
      "ĠErgÃ¤n": 8148,
      "Ġschweren": 8149,
      "ĠWissenschaftler": 8150,
      "Ġnutzt": 8151,
      "ĠFlex": 8152,
      "ĠEinwilligung": 8153,
      "ĠOlymp": 8154,
      "Ġverlangen": 8155,
      "wÃ¤rts": 8156,
      "ĠLast": 8157,
      "ĠIndividu": 8158,
      "ĠTourismus": 8159,
      "Ġproduziert": 8160,
      "ĠVorgehen": 8161,
      "Gesch": 8162,
      "ĠJubilÃ¤um": 8163,
      "Ġwerfen": 8164,
      "ml": 8165,
      "ĠAg": 8166,
      "Ġlive": 8167,
      "zusehen": 8168,
      "ĠSofern": 8169,
      "Ġwenigstens": 8170,
      "Ġgelingt": 8171,
      "ĠDavid": 8172,
      "Ġunterscheiden": 8173,
      "ĠTÃ¤ter": 8174,
      "ĠSchuhe": 8175,
      "ĠTodes": 8176,
      "ĠKohl": 8177,
      "Che": 8178,
      "Ġwohnen": 8179,
      "ĠÃ¼berlegen": 8180,
      "ĠGelÃ¤nde": 8181,
      "ĠÂ°": 8182,
      "ĠberÃ¼cksichtigen": 8183,
      "ĠGeschwindigkeit": 8184,
      "ĠMinute": 8185,
      "ĠBlack": 8186,
      "ĠPraktik": 8187,
      "ĠCent": 8188,
      "druckt": 8189,
      "ĠStudio": 8190,
      "Ġimmerhin": 8191,
      "ĠHeiz": 8192,
      "ĠAbsch": 8193,
      "ĠInvestition": 8194,
      "ĠProzesse": 8195,
      "OP": 8196,
      "dy": 8197,
      "ĠBÃ¶r": 8198,
      "Ã¤cheln": 8199,
      "ĠhÃ¶here": 8200,
      "Ġ[...]": 8201,
      "Ġverbessert": 8202,
      "Her": 8203,
      "ellschaften": 8204,
      "zellen": 8205,
      "Ġkontinuier": 8206,
      "stagram": 8207,
      "Ġendg": 8208,
      "Ġdavor": 8209,
      "dig": 8210,
      "Ã¼tter": 8211,
      "ĠAbstand": 8212,
      "Ġbewegt": 8213,
      "ced": 8214,
      "gesetzes": 8215,
      "platte": 8216,
      "ĠSzene": 8217,
      "ĠDialog": 8218,
      "ĠkÃ¼nd": 8219,
      "ĠEint": 8220,
      "ĠCamping": 8221,
      "Ġgeschieht": 8222,
      "Ġideale": 8223,
      "Ġerzielen": 8224,
      "ĠgewÃ¤hrleistet": 8225,
      "Ġfotograf": 8226,
      "genie": 8227,
      "Ġkeines": 8228,
      "stechnik": 8229,
      "ĠbegrÃ¼ÃŁen": 8230,
      "Ġpositiven": 8231,
      "rah": 8232,
      "iete": 8233,
      "ĠCro": 8234,
      "oster": 8235,
      "ĠCode": 8236,
      "gesprÃ¤ch": 8237,
      "rauchen": 8238,
      "Ġprofessionelle": 8239,
      "rats": 8240,
      "ĠNichts": 8241,
      "Ġwirksam": 8242,
      "ĠOrient": 8243,
      "Ġsuche": 8244,
      "ĠGetrÃ¤nke": 8245,
      "Grund": 8246,
      "ical": 8247,
      "ĠAst": 8248,
      "ĠStamm": 8249,
      "Ġdankbar": 8250,
      "ehnen": 8251,
      "78": 8252,
      "36": 8253,
      "Ġheil": 8254,
      "ĠNote": 8255,
      "rÃ¼stung": 8256,
      "Ġvia": 8257,
      "ulin": 8258,
      "ĠEbenso": 8259,
      "ĠEinstieg": 8260,
      "echslungs": 8261,
      "ĠsorgfÃ¤lt": 8262,
      "Ġnachvoll": 8263,
      "ĠGroÃŁbritannien": 8264,
      "ansp": 8265,
      "ĠVir": 8266,
      "schreiben": 8267,
      "ĠErnst": 8268,
      "Ġwichtigste": 8269,
      "ĠHilfs": 8270,
      "ĠhauptsÃ¤chlich": 8271,
      "gebÃ¤u": 8272,
      "AU": 8273,
      "ĠVariante": 8274,
      "illen": 8275,
      "ĠSchles": 8276,
      "Ġzut": 8277,
      "ĠWÃ¤hlen": 8278,
      "ima": 8279,
      "ĠMigr": 8280,
      "Stud": 8281,
      "Ġgingen": 8282,
      "kaufen": 8283,
      "ĠEmpfang": 8284,
      "ĠCre": 8285,
      "ĠSl": 8286,
      "Ã¶ffentlichen": 8287,
      "ĠSchwierigkeiten": 8288,
      "ĠSold": 8289,
      "ĠEcke": 8290,
      "Ġreal": 8291,
      "ĠFrist": 8292,
      "vo": 8293,
      "Ġbeitragen": 8294,
      "pass": 8295,
      "ĠgefÃ¶rdert": 8296,
      "ec": 8297,
      "ĠMatt": 8298,
      "Ġbedarf": 8299,
      "ohne": 8300,
      "ĠSupport": 8301,
      "ĠRichtig": 8302,
      "weist": 8303,
      "ĠPubl": 8304,
      "arn": 8305,
      "Ġster": 8306,
      "werde": 8307,
      "ĠHierbei": 8308,
      "ichtigung": 8309,
      "spolitik": 8310,
      "ĠAngeboten": 8311,
      "SU": 8312,
      "ĠNik": 8313,
      "ĠWen": 8314,
      "Ġpol": 8315,
      "Ġ44": 8316,
      "Ġentfernen": 8317,
      "Bild": 8318,
      "ĠMÃ¤nnern": 8319,
      "solv": 8320,
      "ĠInnovation": 8321,
      "Mus": 8322,
      "wicklung": 8323,
      "kompl": 8324,
      "ĠNachw": 8325,
      "ĠKarls": 8326,
      "ĠGebÃ¼hren": 8327,
      "bilder": 8328,
      "ĠTouristen": 8329,
      "ĠSem": 8330,
      "ĠMerkel": 8331,
      "Ġentstand": 8332,
      "ĠDatenbank": 8333,
      "Ġvoran": 8334,
      "ĠSymbol": 8335,
      "ĠCH": 8336,
      "ĠMenÃ¼": 8337,
      "For": 8338,
      "Ġnix": 8339,
      "ĠSpazier": 8340,
      "Ġberuflichen": 8341,
      "beweg": 8342,
      "ĠÃ¶k": 8343,
      "ĠAktuell": 8344,
      "organisation": 8345,
      "Ġabgesch": 8346,
      "ĠKond": 8347,
      "Ġrot": 8348,
      "Ġed": 8349,
      "Ġerweitert": 8350,
      "Ã¼hle": 8351,
      "Ġ....": 8352,
      "agentur": 8353,
      "ĠMB": 8354,
      "Ġbesseren": 8355,
      "igi": 8356,
      "igner": 8357,
      "scheinlichkeit": 8358,
      "ĠDipl": 8359,
      "deln": 8360,
      "prechen": 8361,
      "ĠBeweis": 8362,
      "Ã¼bung": 8363,
      "ict": 8364,
      "Ã¼ten": 8365,
      "ĠSammlung": 8366,
      "ĠBoot": 8367,
      "ĠAR": 8368,
      "Ġfragt": 8369,
      "ĠStatt": 8370,
      "ĠwÃ¤chst": 8371,
      "Ġverteilt": 8372,
      "Ġfu": 8373,
      "fÃ¼hlt": 8374,
      "Ġstanden": 8375,
      "Ġversuche": 8376,
      "ĠAnfragen": 8377,
      "ĠtÃ¶": 8378,
      "Ġbetrachten": 8379,
      "ĠZivil": 8380,
      "projekt": 8381,
      "Ġhielt": 8382,
      "Ġerworben": 8383,
      "ĠAnh": 8384,
      "ĠGewÃ¤hr": 8385,
      "Ġsage": 8386,
      "Ġfinanzielle": 8387,
      "ĠIslam": 8388,
      "Ġeinzigen": 8389,
      "ĠAtt": 8390,
      "ĠNÃ¼rnberg": 8391,
      "ĠFerienhaus": 8392,
      "Ã¡": 8393,
      "Ġ42": 8394,
      "partment": 8395,
      "Ġspeichern": 8396,
      "rischen": 8397,
      "Ġhinsichtlich": 8398,
      "book": 8399,
      "Ġ1999": 8400,
      "ĠCloud": 8401,
      "Ġbildet": 8402,
      "Ġla": 8403,
      "samen": 8404,
      "kirche": 8405,
      "Ġgeschehen": 8406,
      "to": 8407,
      "Ġwirtschaftlichen": 8408,
      "ĠRand": 8409,
      "Ġproblemlos": 8410,
      "problem": 8411,
      "ĠEinladung": 8412,
      "Ġanalys": 8413,
      "ĠGrill": 8414,
      "ĠAuskunft": 8415,
      "teln": 8416,
      "ĠGriechenland": 8417,
      "ĠAud": 8418,
      "ĠRenten": 8419,
      "100": 8420,
      "stoffen": 8421,
      "inken": 8422,
      "ĠAufsicht": 8423,
      "ĠBGB": 8424,
      "Ġfliegen": 8425,
      "ĠbestÃ¤tigen": 8426,
      "ĠST": 8427,
      "Ġerkannt": 8428,
      "Ġmark": 8429,
      "ĠProgramme": 8430,
      "erkennung": 8431,
      "unterricht": 8432,
      "zutage": 8433,
      "Ġlief": 8434,
      "Ġbeantwortet": 8435,
      "ĠEvents": 8436,
      "ĠWolfgang": 8437,
      "losigkeit": 8438,
      "ĠstÃ¤rken": 8439,
      "ĠAltstadt": 8440,
      "ĠUrlaubs": 8441,
      "iale": 8442,
      "ĠKla": 8443,
      "ĠWÃ¼rde": 8444,
      "Ġangesehen": 8445,
      "atische": 8446,
      "ĠUnterschiede": 8447,
      "Ġzentrale": 8448,
      "wendungs": 8449,
      "ĠAndreas": 8450,
      "fle": 8451,
      "ĠSound": 8452,
      "ĠDIE": 8453,
      "ĠhÃ¶chsten": 8454,
      "este": 8455,
      "ĠGehirn": 8456,
      "ĠNav": 8457,
      "Ã¤ub": 8458,
      "ĠErkenntnis": 8459,
      "mmert": 8460,
      "Ġgeraten": 8461,
      "Ġweiterlesen": 8462,
      "Ġmil": 8463,
      "ĠlÃ¶schen": 8464,
      "ĠGesetzes": 8465,
      "Ġmehrfach": 8466,
      "Ġverfolgt": 8467,
      "Bet": 8468,
      "ĠVen": 8469,
      "ĠFormat": 8470,
      "ĠTher": 8471,
      "rÃ¼ckt": 8472,
      "ĠFischer": 8473,
      "verstanden": 8474,
      "brig": 8475,
      "ĠWal": 8476,
      "Ġbeinhaltet": 8477,
      "ĠAnsatz": 8478,
      "Hol": 8479,
      "ibilitÃ¤t": 8480,
      "Ġmorgens": 8481,
      "Ġdiskutiert": 8482,
      "ĠMassen": 8483,
      "Ġkalt": 8484,
      "ĠStaffel": 8485,
      "Ġmanchen": 8486,
      "ĠSchei": 8487,
      "ĠauslÃ¤nd": 8488,
      "ĠOne": 8489,
      "dungs": 8490,
      "ferien": 8491,
      "ĠRos": 8492,
      "ĠAusbau": 8493,
      "ĠAgentur": 8494,
      "ideo": 8495,
      "meldungen": 8496,
      "Ġleb": 8497,
      "ĠFund": 8498,
      "ĠArchiv": 8499,
      "alyse": 8500,
      "Ġlog": 8501,
      "ĠWiderspruch": 8502,
      "klang": 8503,
      "ĠKonferenz": 8504,
      "Ġmusikal": 8505,
      "ĠEinheit": 8506,
      "Ġkrie": 8507,
      "ĠâĨĳ": 8508,
      "ĠInsbesondere": 8509,
      "freie": 8510,
      "ymnas": 8511,
      "ĠgeprÃ¤gt": 8512,
      "Ã¤hrungs": 8513,
      "ĠerÃ¶ff": 8514,
      "ĠmÃ¼sse": 8515,
      "ĠLau": 8516,
      "reif": 8517,
      "schte": 8518,
      "Ġverfolgen": 8519,
      "ĠEiner": 8520,
      "Ãľber": 8521,
      "Ġwissenschaftlichen": 8522,
      "Ġvereinbart": 8523,
      "ĠKategorien": 8524,
      "Ġglaubt": 8525,
      "rak": 8526,
      "Ġstet": 8527,
      "ĠFestival": 8528,
      "ĠBotschaft": 8529,
      "Ġsteuer": 8530,
      "ĠGang": 8531,
      "ivitÃ¤t": 8532,
      ".Â»": 8533,
      "Ġdirekten": 8534,
      "pool": 8535,
      "testet": 8536,
      "ĠUmzug": 8537,
      "ĠBesser": 8538,
      "iehlt": 8539,
      "sc": 8540,
      "ĠKrie": 8541,
      "ĠMilitÃ¤r": 8542,
      "isen": 8543,
      "Ã¼tte": 8544,
      "ĠTasche": 8545,
      "spflicht": 8546,
      "Bl": 8547,
      "SV": 8548,
      "ĠdurchfÃ¼hren": 8549,
      "ĠKÃ¼hlschrank": 8550,
      "Ġbestehenden": 8551,
      "ĠSyr": 8552,
      "leistungs": 8553,
      "Ġsetzte": 8554,
      "ski": 8555,
      "ĠZuge": 8556,
      "ĠFlor": 8557,
      "ĠLuxus": 8558,
      "Ġklare": 8559,
      "Ġfinanziellen": 8560,
      "ĠManager": 8561,
      "Ġnerv": 8562,
      "Ġveranst": 8563,
      "ĠEuropÃ¤ische": 8564,
      "pfl": 8565,
      "Ġkurzem": 8566,
      "ĠArb": 8567,
      "ĠHon": 8568,
      "ausende": 8569,
      "ĠPhase": 8570,
      "Ġ02": 8571,
      "yle": 8572,
      "reiter": 8573,
      "Version": 8574,
      "Ġausprobieren": 8575,
      "Land": 8576,
      "tragung": 8577,
      "ĠServices": 8578,
      "utton": 8579,
      "ĠhÃ¼b": 8580,
      "ĠMiss": 8581,
      "ĠSchweden": 8582,
      "ĠnÃ¤chstes": 8583,
      "ĠRichter": 8584,
      "Ġabends": 8585,
      "Ġabwechslungs": 8586,
      "geschoss": 8587,
      "ipedia": 8588,
      "ĠEntspannung": 8589,
      "ĠFlÃ¤che": 8590,
      "ĠzwÃ¶lf": 8591,
      "ĠTaschen": 8592,
      "ĠHerkunft": 8593,
      "glÃ¼ck": 8594,
      "Ġpersonenbezogener": 8595,
      "ĠStich": 8596,
      "ĠÃĸffnungs": 8597,
      "ĠKaiser": 8598,
      "ĠAusgaben": 8599,
      "âĢĿ.": 8600,
      "Ġoffene": 8601,
      "ĠjÃ¼nger": 8602,
      "ĠInstagram": 8603,
      "modell": 8604,
      "ĠLizenz": 8605,
      "ĠTief": 8606,
      "otor": 8607,
      "ĠGeorg": 8608,
      "Datei": 8609,
      "2012": 8610,
      "ĠBeteiligten": 8611,
      "ĠKonsequ": 8612,
      "ĠLeg": 8613,
      "ĠCafÃ©": 8614,
      "ĠzusÃ¤tzlichen": 8615,
      "iler": 8616,
      "zeugung": 8617,
      "abschluss": 8618,
      "Mehr": 8619,
      "gekommen": 8620,
      "fÃ¼gt": 8621,
      "ef": 8622,
      "ĠCheck": 8623,
      "Ġbundes": 8624,
      "znei": 8625,
      "ĠMotivation": 8626,
      "ĠDarlehen": 8627,
      "ĠVilla": 8628,
      "ĠApothe": 8629,
      "ĠzuverlÃ¤ss": 8630,
      "ĠNachfol": 8631,
      "win": 8632,
      "Ġanzeigen": 8633,
      "orts": 8634,
      "Ġdamal": 8635,
      "schnittlich": 8636,
      "Ġohn": 8637,
      "Ġbeendet": 8638,
      "Ġ..": 8639,
      "ĠwÃ¤r": 8640,
      "jÃ¤hriger": 8641,
      "aftet": 8642,
      "verbrauch": 8643,
      "Ġ43": 8644,
      "ĠhÃ¶heren": 8645,
      "derungen": 8646,
      "ĠJunge": 8647,
      "ĠZÃ¤": 8648,
      "Ġverboten": 8649,
      "gelÃ¶st": 8650,
      "ĠAnschlieÃŁend": 8651,
      "Ġumgehen": 8652,
      "Komm": 8653,
      "Ġgenaue": 8654,
      "grenzen": 8655,
      "All": 8656,
      "Ġeingehen": 8657,
      "Ġschade": 8658,
      "Ġkonzentrieren": 8659,
      "ĠKurse": 8660,
      "produkte": 8661,
      "ĠHD": 8662,
      "echte": 8663,
      "ĠKonkurrenz": 8664,
      "ĠDDR": 8665,
      "Ġgebucht": 8666,
      "ĠGewinner": 8667,
      "ĠKenntnisse": 8668,
      "ĠCal": 8669,
      "kn": 8670,
      "ĠAsyl": 8671,
      "Ġat": 8672,
      "ĠRenn": 8673,
      "Ġangefangen": 8674,
      "Bereich": 8675,
      "station": 8676,
      "ĠHerstell": 8677,
      "wÃ¼n": 8678,
      "Ġerwerben": 8679,
      "ĠNeuer": 8680,
      "ĠHart": 8681,
      "wÃ¼r": 8682,
      "Ġgelassen": 8683,
      "ĠwunderschÃ¶nen": 8684,
      "Ġgebraucht": 8685,
      "ĠSet": 8686,
      "apier": 8687,
      "deckt": 8688,
      "Ġy": 8689,
      "ĠmÃ¶gen": 8690,
      "ĠKeller": 8691,
      "Ġvirt": 8692,
      "ĠInnenstadt": 8693,
      "hÃ¤ltnisse": 8694,
      "ĠBildschirm": 8695,
      "Ġqualit": 8696,
      "Ġherunterladen": 8697,
      "Ġberu": 8698,
      "mitglieder": 8699,
      "KE": 8700,
      "Ġhinten": 8701,
      "ĠSelbstverstÃ¤ndlich": 8702,
      "lehr": 8703,
      "selben": 8704,
      "ĠFakten": 8705,
      "ĠTheorie": 8706,
      "ĠStefan": 8707,
      "stÃ¤r": 8708,
      "Aut": 8709,
      "schaf": 8710,
      "Ġgewalt": 8711,
      "ĠEhr": 8712,
      "ĠFra": 8713,
      "ĠBundesrepublik": 8714,
      "ĠMaÃŁe": 8715,
      "ĠTsch": 8716,
      "Ġhinweg": 8717,
      "ĠSteuern": 8718,
      "Ġfestge": 8719,
      "ĠEmpfehlungen": 8720,
      "uls": 8721,
      "ney": 8722,
      "ĠNehmen": 8723,
      "ĠPasswort": 8724,
      "gas": 8725,
      "finanz": 8726,
      "Und": 8727,
      "ĠUrsache": 8728,
      "ĠPfarr": 8729,
      "empl": 8730,
      "Ġ1998": 8731,
      "ĠBit": 8732,
      "ĠTarif": 8733,
      "preise": 8734,
      "enkt": 8735,
      "ĠMach": 8736,
      "eri": 8737,
      "Ġentf": 8738,
      "ĠEinschrÃ¤n": 8739,
      "ĠSchleswig": 8740,
      "iguren": 8741,
      "ĠBeob": 8742,
      "Ġnennt": 8743,
      "atch": 8744,
      "Ġschlechter": 8745,
      "Ġdirekte": 8746,
      "rinzip": 8747,
      "--": 8748,
      "grad": 8749,
      "ausschuss": 8750,
      "ĠDokumente": 8751,
      "ĠNah": 8752,
      "55": 8753,
      "Ġtraum": 8754,
      "ĠNachhaltigkeit": 8755,
      "Ġ(âĢŀ": 8756,
      "eintrÃ¤cht": 8757,
      "Book": 8758,
      "pret": 8759,
      "hent": 8760,
      "fur": 8761,
      "Ġnachfolgen": 8762,
      "reift": 8763,
      "zwei": 8764,
      "ĠErl": 8765,
      "TM": 8766,
      "Ġangesprochen": 8767,
      "ĠSki": 8768,
      "ĠBerater": 8769,
      "machung": 8770,
      "Ġ800": 8771,
      "ĠRa": 8772,
      "ichteten": 8773,
      "recken": 8774,
      "kra": 8775,
      "Ġklasse": 8776,
      "ĠDam": 8777,
      "ĠSilber": 8778,
      "Ġgesammelt": 8779,
      "allel": 8780,
      "leihen": 8781,
      "boden": 8782,
      "ĠRespekt": 8783,
      "Ġ49": 8784,
      "ĠDortmund": 8785,
      "ĠBeschluss": 8786,
      "pers": 8787,
      "Ġgenerell": 8788,
      "ĠSant": 8789,
      "Ġreduziert": 8790,
      "Ġsepar": 8791,
      "bildungen": 8792,
      "sung": 8793,
      "ĠWiener": 8794,
      "Pfalz": 8795,
      "ehin": 8796,
      "verkauf": 8797,
      "ĠVi": 8798,
      "geladen": 8799,
      "pon": 8800,
      "azit": 8801,
      "front": 8802,
      "ĠGerichts": 8803,
      "Ġumfangreich": 8804,
      "Ġgeholfen": 8805,
      "heben": 8806,
      "weichen": 8807,
      "ĠSorge": 8808,
      "ĠSyn": 8809,
      "Ġdiverse": 8810,
      "ICHT": 8811,
      "ĠDatum": 8812,
      "ĠUmfrage": 8813,
      "ĠergÃ¤nzen": 8814,
      "DE": 8815,
      "Ġeinstellen": 8816,
      "ĠTurnier": 8817,
      "ikationen": 8818,
      "Mode": 8819,
      "legte": 8820,
      "ĠKab": 8821,
      "Ġunternehmen": 8822,
      "Ġchines": 8823,
      "ĠBeam": 8824,
      "ping": 8825,
      "Ġfordern": 8826,
      "Ġumso": 8827,
      "aktionen": 8828,
      "Ã¤rten": 8829,
      "Ġgestartet": 8830,
      "anische": 8831,
      "Ġgemeint": 8832,
      "ĠOrten": 8833,
      "Ġkeinem": 8834,
      "onym": 8835,
      "gemeinde": 8836,
      "Ġverstehe": 8837,
      "Ġirgendwel": 8838,
      "âĢľ)": 8839,
      "schmerzen": 8840,
      "ockt": 8841,
      "low": 8842,
      "ĠHistor": 8843,
      "ĠFerienwohnungen": 8844,
      "ged": 8845,
      "ĠForscher": 8846,
      "stuhl": 8847,
      "Ġfein": 8848,
      "ĠDaniel": 8849,
      "holz": 8850,
      "ĠMÃ¼nster": 8851,
      "ĠDrittel": 8852,
      "sprech": 8853,
      "ly": 8854,
      "Ġemotion": 8855,
      "EIN": 8856,
      "ĠBeschwerden": 8857,
      "ĠMaus": 8858,
      "OT": 8859,
      "Ġempfiehlt": 8860,
      "Ã¤glich": 8861,
      "ĠSpitze": 8862,
      "ĠFremd": 8863,
      "ĠJohannes": 8864,
      "ĠverÃ¶ffentlichen": 8865,
      "wahr": 8866,
      "Ġoffiziellen": 8867,
      "Ġbeur": 8868,
      "Kreis": 8869,
      "aming": 8870,
      "ĠBetracht": 8871,
      "Ġinvestieren": 8872,
      "ĠPatient": 8873,
      "Ã¼m": 8874,
      "wenn": 8875,
      "ĠBÃ¼rgermeister": 8876,
      "Ġklappt": 8877,
      "GH": 8878,
      "afe": 8879,
      "ĠFluss": 8880,
      "ĠverstÃ¤ndlich": 8881,
      "ĠSau": 8882,
      "Ġidentifiz": 8883,
      "ieb": 8884,
      "ĠnatÃ¼rliche": 8885,
      "Ġgetestet": 8886,
      "Ġ46": 8887,
      "ual": 8888,
      "Ġreisen": 8889,
      "ĠReligion": 8890,
      "Ġlangfristig": 8891,
      "findet": 8892,
      "person": 8893,
      "Ġunkompl": 8894,
      "otten": 8895,
      "ĠRÃ¤ume": 8896,
      "gess": 8897,
      "ĠContent": 8898,
      "heil": 8899,
      "emm": 8900,
      "ĠGrundsÃ¤tzlich": 8901,
      "ĠschÃ¤tzen": 8902,
      "ĠFle": 8903,
      "bereiche": 8904,
      "ĠKreativitÃ¤t": 8905,
      "ĠMaschine": 8906,
      "ĠHessen": 8907,
      "ĠLange": 8908,
      "gten": 8909,
      "ĠNo": 8910,
      "Ġli": 8911,
      "Ġbetrieben": 8912,
      "Dollar": 8913,
      "Ġschnellen": 8914,
      "ĠenttÃ¤u": 8915,
      "rollen": 8916,
      "svor": 8917,
      "runde": 8918,
      "zeichnis": 8919,
      "Ġaust": 8920,
      "ives": 8921,
      "ĠSongs": 8922,
      "flÃ¼": 8923,
      "ĠVorhaben": 8924,
      "packt": 8925,
      "ĠKonzer": 8926,
      "Ã¼ben": 8927,
      "Ġfert": 8928,
      "zeichnete": 8929,
      "ĠOhr": 8930,
      "Ġschreibe": 8931,
      "ĠSy": 8932,
      "ĠWahrscheinlichkeit": 8933,
      "ĠNieders": 8934,
      "ĠHerzlich": 8935,
      "ĠunmÃ¶glich": 8936,
      "Ġordentlich": 8937,
      "nimmt": 8938,
      "Ġfordert": 8939,
      "ĠAuflÃ¶sung": 8940,
      "ĠmÃ¼ssten": 8941,
      "utzer": 8942,
      "ĠSÃ¤nger": 8943,
      "ĠAuseinander": 8944,
      "ĠRollen": 8945,
      "eter": 8946,
      "hÃ¼": 8947,
      "schlÃ¼ssel": 8948,
      "ĠPaten": 8949,
      "Ã¤tter": 8950,
      "Ġbeschreiben": 8951,
      "Ġgreifen": 8952,
      "ĠnatÃ¼rlichen": 8953,
      "Ġlei": 8954,
      "ĠHyp": 8955,
      "ĠGriff": 8956,
      "ĠLied": 8957,
      "Institut": 8958,
      "ĠUnabhÃ¤ng": 8959,
      "ĠTickets": 8960,
      "Ã¤ndig": 8961,
      "ĠLED": 8962,
      "verhÃ¤ltnis": 8963,
      "ega": 8964,
      "formation": 8965,
      "Ġplatz": 8966,
      "ĠAussagen": 8967,
      "ĠBeine": 8968,
      "ĠAbendessen": 8969,
      "Ġwirk": 8970,
      "ĠMÃ¼ller": 8971,
      "Tube": 8972,
      "hlung": 8973,
      "staaten": 8974,
      "Ġstehe": 8975,
      "ĠgeprÃ¼ft": 8976,
      "alition": 8977,
      "ĠEreignisse": 8978,
      "ĠSchmerz": 8979,
      "ĠSchicks": 8980,
      "ĠBewusstsein": 8981,
      "Ġamerikanischen": 8982,
      "Ġ64": 8983,
      "Mails": 8984,
      "ĠKrankheiten": 8985,
      "ĠHelfer": 8986,
      "anbieter": 8987,
      "Ġzug": 8988,
      "ĠMusiker": 8989,
      "ĠzustÃ¤ndig": 8990,
      "ertifik": 8991,
      "ĠAdr": 8992,
      "ĠhÃ¤ngen": 8993,
      "Ġnette": 8994,
      "Neu": 8995,
      "ĠAB": 8996,
      "ĠHinblick": 8997,
      "antrag": 8998,
      "ĠEffekt": 8999,
      "ĠKlÃ¤ger": 9000,
      "ĠWillen": 9001,
      "ĠKonflikt": 9002,
      "fÃ¼llen": 9003,
      "wender": 9004,
      "ĠEss": 9005,
      "ĠDeswegen": 9006,
      "Ġlanger": 9007,
      "ĠStahl": 9008,
      "ĠCol": 9009,
      "sparen": 9010,
      "DP": 9011,
      "beitrag": 9012,
      "ĠMÃ¼he": 9013,
      "Ġhundert": 9014,
      "kord": 9015,
      "ĠgemÃ¼tlich": 9016,
      "ĠPack": 9017,
      "ĠGenuss": 9018,
      "ĠÃĸffnungszeiten": 9019,
      "ettbewerb": 9020,
      "ĠVerordnung": 9021,
      "ĠVereinbarung": 9022,
      "ĠBatter": 9023,
      "ĠhÃ¶chst": 9024,
      "Ġzuhause": 9025,
      "Ġletztlich": 9026,
      "38": 9027,
      "appen": 9028,
      "ĠAnwalt": 9029,
      "Ġprofessionell": 9030,
      "Ã¼rzt": 9031,
      "Mar": 9032,
      "Ġdiskutieren": 9033,
      "34": 9034,
      "anze": 9035,
      "ĠFertig": 9036,
      "ĠSprecher": 9037,
      "beauftrag": 9038,
      "Ġexklus": 9039,
      "HR": 9040,
      "ĠCenter": 9041,
      "prÃ¤sident": 9042,
      "artikel": 9043,
      "ĠKindergarten": 9044,
      "ĠJahrzehnten": 9045,
      "Ã¤be": 9046,
      "uropa": 9047,
      "ĠRegelungen": 9048,
      "ĠGeschlecht": 9049,
      "ĠKÃ¼ndigung": 9050,
      "ĠÃ¼brig": 9051,
      "ĠAllgemein": 9052,
      "hÃ¶hung": 9053,
      "keln": 9054,
      "stoÃŁ": 9055,
      "zone": 9056,
      "ĠManche": 9057,
      "ĠMittlerweile": 9058,
      "ĠRechner": 9059,
      "ĠTeilnehmern": 9060,
      "ĠWohnungs": 9061,
      "Ġanf": 9062,
      "Ġhell": 9063,
      "Ġwartet": 9064,
      "ĠDrogen": 9065,
      "west": 9066,
      "Ġohnehin": 9067,
      "wirkung": 9068,
      "ehle": 9069,
      "ids": 9070,
      "Ġgleicher": 9071,
      "bit": 9072,
      "Ġeingetragen": 9073,
      "Ġvereinbaren": 9074,
      "ĠÃ¤ndert": 9075,
      "Ġallzu": 9076,
      "Ġleer": 9077,
      "ĠSchÃ¼lern": 9078,
      "ience": 9079,
      "same": 9080,
      "Ġpraktische": 9081,
      "Ġsystem": 9082,
      "ĠÃ¶ffnet": 9083,
      "Ġinhalt": 9084,
      "merk": 9085,
      "ĠZutaten": 9086,
      "ĠNutzungs": 9087,
      "reuung": 9088,
      "bewer": 9089,
      "Ġprivat": 9090,
      "Ġ(Â§": 9091,
      "iens": 9092,
      "Ġgezielt": 9093,
      "ĠUni": 9094,
      "Ġsicheren": 9095,
      "ĠFrÃ¼hling": 9096,
      "Ġliefert": 9097,
      "Ġanspruchs": 9098,
      "Ġgeschickt": 9099,
      "ĠArznei": 9100,
      "senz": 9101,
      "skon": 9102,
      "LÃ¶s": 9103,
      "kÃ¶": 9104,
      "bÃ¼": 9105,
      "ĠVerantwortlichen": 9106,
      "Ġeinverstanden": 9107,
      "Ġerheblich": 9108,
      "ĠFÃ¼hrungsk": 9109,
      "ĠHinsicht": 9110,
      "ĠErwerb": 9111,
      "Ġkonkrete": 9112,
      "Ġunvergess": 9113,
      "Cl": 9114,
      "ĠMagen": 9115,
      "klass": 9116,
      "ĠPrÃ¤sentation": 9117,
      "ĠGehalt": 9118,
      "Ġnachhaltig": 9119,
      "ague": 9120,
      "Ġquasi": 9121,
      "okoll": 9122,
      "rateg": 9123,
      "Ġschwei": 9124,
      "strÃ¤ger": 9125,
[...]
